<unk>	0
<s>	0
</s>	0
為	-4.16215
之	-4.17242
/	-4.36531
(	-4.52919
以	-4.54387
一	-4.65936
)	-4.66386
而	-4.88335
與	-4.89012
也	-4.97124
則	-5.01342
二	-5.06952
其	-5.07132
三	-5.1472
得	-5.19601
四	-5.20308
即	-5.25866
者	-5.34966
數	-5.36649
有	-5.41684
分	-5.4369
日	-5.52038
五	-5.5395
○	-5.54882
兩	-5.61883
十	-5.61975
六	-5.62465
度	-5.63668
)(	-5.65107
又	-5.68878
法	-5.72471
於	-5.74222
在	-5.76298
求	-5.79397
故	-5.84213
用	-5.86161
此	-5.86297
至	-5.87446
九	-5.93585
八	-5.93951
如	-5.95993
中	-5.9657
餘	-5.98877
等	-5.9937
七	-5.99831
各	-6.00996
上	-6.01509
時	-6.02899
是	-6.04754
若	-6.05656
月	-6.06687
不	-6.07952
大	-6.09152
亦	-6.10144
積	-6.14393
正	-6.17931
行	-6.22451
線	-6.22632
減	-6.23169
加	-6.235
皆	-6.24308
半	-6.24889
下	-6.24979
甲	-6.26106
于	-6.27196
作	-6.29661
後	-6.30021
乙	-6.30529
自	-6.30608
同	-6.31656
方	-6.31659
内	-6.33388
差	-6.34263
所	-6.3574
或	-6.37733
從	-6.38453
無	-6.38755
天	-6.38961
曰	-6.38987
實	-6.3955
星	-6.39592
今	-6.39639
多	-6.39697
及	-6.40507
前	-6.40665
次	-6.41047
▁	-6.41068
子	-6.4158
角	-6.44454
小	-6.45991
人	-6.47898
合	-6.47949
丙	-6.49494
爲	-6.49887
定	-6.51566
見	-6.51938
乃	-6.53018
邊	-6.54298
共	-6.54826
/)	-6.56482
本	-6.56865
矣	-6.5781
徑	-6.57831
長	-6.61452
周	-6.61659
形	-6.62421
表	-6.64071
年	-6.6637
距	-6.67201
弧	-6.68484
步	-6.68705
少	-6.68982
因	-6.69142
丁	-6.69874
未	-6.70756
當	-6.70807
率	-6.71221
測	-6.71316
必	-6.73027
十一月	-6.73743
弦	-6.73936
置	-6.74519
成	-6.76379
太陽	-6.77024
地	-6.77727
黄道	-6.78744
之數	-6.7939
厯	-6.79839
較	-6.80599
凡	-6.81918
外	-6.83916
刻	-6.84579
西	-6.84615
平	-6.85599
髙	-6.86617
問	-6.86618
平行	-6.86743
十二	-6.87318
乘	-6.87614
初	-6.88736
交	-6.89531
半徑	-6.89651
乗	-6.90907
入	-6.92872
心	-6.93401
倍	-6.93493
取	-6.93786
甲乙	-6.94915
非	-6.95318
相	-6.95779
尺	-6.95937
股	-6.96337
除	-6.96977
然	-6.97292
元	-6.98073
明	-6.98654
二十	-7.00323
可	-7.00664
戊	-7.00885
南	-7.00969
比	-7.0133
書	-7.01389
赤道	-7.02313
出	-7.02929
過	-7.03301
體	-7.03468
推	-7.03677
依	-7.03734
已	-7.06326
圖	-7.07357
位	-7.07574
北	-7.08959
原	-7.09836
言	-7.11336
先	-7.11405
復	-7.11667
算	-7.12299
極	-7.12759
嵗	-7.137
每	-7.14157
設	-7.14215
面	-7.14303
論	-7.14329
經	-7.15355
辰	-7.16037
名	-7.17595
又以	-7.19369
三十	-7.19415
一百	-7.19589
立	-7.19743
既	-7.19859
近	-7.22616
冬至	-7.2291
并	-7.2393
六十	-7.2411
限	-7.2415
俱	-7.24233
界	-7.24747
庚	-7.25027
和	-7.25393
里	-7.25837
右	-7.25877
食	-7.26161
處	-7.26188
諸	-7.26222
通	-7.26553
己	-7.26631
百	-7.26872
應	-7.26932
午	-7.26958
總	-7.27129
日食	-7.27604
圓	-7.2774
視	-7.27842
圏	-7.29005
石	-7.2952
微	-7.30016
云	-7.30678
變	-7.31528
直	-7.31702
高	-7.32133
秒	-7.33209
去	-7.33864
文	-7.34054
乙丙	-7.34065
宫	-7.34458
水	-7.35735
寅	-7.35905
何	-7.36365
氣	-7.36499
㸃	-7.36904
謂	-7.37563
列	-7.38139
重	-7.38821
東	-7.38989
廣	-7.39301
朔	-7.40397
甲丙	-7.41533
四十	-7.42255
全	-7.42488
五十	-7.43682
生	-7.44386
古	-7.44819
三角形	-7.45107
知	-7.45608
日月	-7.45837
雖	-7.45999
對	-7.46017
更	-7.46058
丑	-7.46275
萬	-7.46941
歲	-7.47445
之度	-7.47494
向	-7.47514
併	-7.47778
寸	-7.48129
太隂	-7.48143
底	-7.4827
正弦	-7.48414
壬	-7.48888
斜	-7.48994
望	-7.49496
内減	-7.5016
光	-7.50201
巳	-7.5097
三分	-7.51207
相減餘	-7.51566
宿	-7.52078
一度	-7.52264
事	-7.52288
左	-7.52665
十一	-7.52967
第二	-7.53359
勾	-7.53426
並	-7.53903
時刻	-7.53992
卯	-7.54014
能	-7.54079
立方	-7.54138
為一率	-7.54574
道	-7.54694
第一	-7.55201
銀	-7.55387
邉	-7.55523
辛	-7.56013
句	-7.56481
葢	-7.56571
景	-7.57388
按	-7.57799
乎	-7.57948
約	-7.58606
太	-7.58662
商	-7.58774
令	-7.59431
二十四	-7.59941
末	-7.60085
所得	-7.60092
轉	-7.60261
甲丁	-7.61079
將	-7.6173
臣	-7.62207
食甚	-7.62263
癸	-7.62866
惟	-7.63622
五分	-7.64102
始	-7.65111
逺	-7.65129
四分	-7.65533
止	-7.65535
丙丁	-7.65585
加減	-7.6612
滿	-7.66275
金	-7.67082
居	-7.67185
二分	-7.67638
焉	-7.68254
一分	-7.69298
乙角	-7.69698
切	-7.70009
斤	-7.70019
物	-7.70185
法以	-7.70282
相等	-7.70304
起	-7.70463
卷	-7.70585
比例	-7.70704
術	-7.70774
理	-7.71218
次商	-7.71459
酉	-7.71713
緯	-7.72236
即得	-7.7235
漸	-7.72594
紀	-7.72763
史	-7.73009
十五	-7.73184
象	-7.73231
一十	-7.73368
題	-7.73608
乙丁	-7.73644
耳	-7.73805
虚	-7.73806
但	-7.73828
十二月	-7.7431
除之得	-7.74382
歩	-7.74801
十六	-7.74821
王	-7.75087
根	-7.75212
欲	-7.75381
價	-7.7554
第三	-7.75615
闊	-7.75731
首	-7.75881
零	-7.75889
之法	-7.76184
異	-7.76602
斗	-7.77246
隅	-7.77256
之比例	-7.77382
再	-7.77427
乃以	-7.77567
為二率	-7.77617
之一	-7.78214
地平	-7.78643
截	-7.79089
田	-7.79374
初商	-7.79483
冪	-7.79952
離	-7.80039
甲子	-7.80425
易	-7.80721
開	-7.81065
錢	-7.81131
米	-7.81444
一日	-7.81781
南北	-7.82224
初虧	-7.82682
不能	-7.82685
二十五	-7.8279
圜	-7.83096
章	-7.83198
正月	-7.83252
甚	-7.83465
閏	-7.83683
官	-7.83845
盡	-7.83852
三十六	-7.8473
象限	-7.85158
句股	-7.85191
不同	-7.8522
宜	-7.85261
度分	-7.85291
夫	-7.85731
□	-7.86257
直角	-7.86622
仍	-7.86652
儀	-7.87256
謂之	-7.87279
宮	-7.87412
均	-7.87948
影	-7.87958
月食	-7.88277
甲角	-7.89015
甲戊	-7.89036
陽	-7.89283
九十度	-7.89339
足	-7.89605
太陰	-7.89982
最髙	-7.9038
丁戊	-7.90566
丙角	-7.90974
母	-7.91423
規	-7.91987
得數	-7.92047
縱	-7.92204
申	-7.92358
八分	-7.92421
濶	-7.92463
為實	-7.92658
常	-7.93144
十四	-7.93882
為一	-7.93914
詳	-7.94148
命	-7.94224
考	-7.94234
相距	-7.94344
夏至	-7.94388
矢	-7.94467
移	-7.94626
二百	-7.94796
經度	-7.94837
相減	-7.95038
段	-7.95077
六分	-7.95079
十三	-7.95211
八十	-7.95328
平方	-7.95372
餘弦	-7.95409
且	-7.95648
説	-7.95922
國	-7.96452
五星	-7.96699
夜	-7.96722
戊己	-7.96853
載	-7.9697
深	-7.96981
節	-7.96993
實行	-7.97145
最	-7.97413
横	-7.97481
十八	-7.97502
九十	-7.97966
木	-7.98252
日躔	-7.98948
盖	-7.98968
空	-7.99095
火	-7.99105
盈	-7.99368
小餘	-7.99707
以上	-7.99912
使	-8.00025
改	-8.0028
相乗	-8.01046
正交	-8.01245
三百	-8.01452
計	-8.01624
亥	-8.01947
分母	-8.02194
退	-8.02209
直線	-8.02305
據	-8.02334
求得	-8.02579
之較	-8.02886
二十七	-8.02926
乘之	-8.02969
益	-8.03271
□□	-8.03531
丈	-8.03875
春分	-8.04226
㑹	-8.04246
安	-8.04643
毎	-8.04657
除之	-8.05083
别	-8.0525
緯度	-8.05267
借	-8.0531
舊	-8.05984
傳	-8.06074
不及	-8.06163
元年	-8.06506
復圓	-8.06597
之正弦	-8.06693
九分	-8.06703
相加	-8.06781
自乘	-8.06932
三角	-8.07102
目	-8.07164
量	-8.07617
夘	-8.07806
條	-8.07825
若干	-8.08681
面積	-8.08751
相乘	-8.09418
以減	-8.09445
恒星	-8.09486
千	-8.09776
畝	-8.0991
蓋	-8.10009
照	-8.10185
律	-8.10256
乘之得	-8.1061
七分	-8.10613
指	-8.10628
土	-8.10754
相加得	-8.10839
查	-8.11033
幾何	-8.11427
故以	-8.11784
也又	-8.11796
則以	-8.11934
前後	-8.12019
山	-8.12492
彼	-8.12519
進	-8.12832
㣲	-8.12984
容	-8.13026
就	-8.13579
馬	-8.13762
垂線	-8.13876
引	-8.14071
間	-8.14136
猶	-8.14501
可以	-8.14514
交角	-8.14597
反	-8.14599
隨	-8.14629
四十八	-8.14857
例	-8.14937
稱	-8.15042
公	-8.15575
乾	-8.15839
二十一	-8.15949
卽	-8.16243
齊	-8.16515
遲	-8.16558
世	-8.1665
難	-8.17165
二十八	-8.17196
上下	-8.17809
丁丙	-8.17916
丁角	-8.182
平分	-8.18559
負	-8.19443
東西	-8.20085
白道	-8.20217
動	-8.20593
所以	-8.20752
補	-8.20784
半周	-8.20999
漢	-8.21255
恒	-8.21269
周天	-8.21333
不知	-8.21488
偏	-8.21559
為三率求得四率	-8.21565
衡	-8.21804
十月	-8.2196
八尺	-8.22016
自乗	-8.22233
貫	-8.2263
%	-8.22639
甲乙丙	-8.22661
黄	-8.22988
即為	-8.23296
候	-8.2353
三十二	-8.23599
不可	-8.2408
色	-8.24452
衰	-8.24454
距度	-8.25036
一千	-8.25308
環	-8.25513
今有	-8.25677
誤	-8.25813
應閏	-8.25937
一百二十	-8.26008
球	-8.26116
終	-8.26124
運	-8.26236
丁乙	-8.2652
工	-8.26693
火星	-8.26826
歸	-8.2691
氏	-8.27034
幾	-8.27156
第四	-8.27257
輪	-8.27333
大小	-8.27497
丙乙	-8.28018
分為	-8.28218
假如	-8.284
折半	-8.28577
七十	-8.28584
著	-8.2904
他	-8.29193
四率	-8.29219
筭	-8.29631
新	-8.2964
類	-8.29693
存	-8.29696
帝	-8.29732
祀	-8.29771
乙戊	-8.29824
有竒	-8.29825
年十一月	-8.29835
之比	-8.29868
夏	-8.30045
造	-8.30368
切線	-8.30408
也若	-8.3088
為法	-8.31032
參	-8.31296
二十二	-8.314
不等	-8.31411
器	-8.31472
二尺	-8.31563
矩	-8.31584
大於	-8.31601
短	-8.31681
乗之得	-8.31743
籌	-8.32223
次以	-8.32387
精	-8.32911
家	-8.32993
建	-8.33038
升	-8.33065
億	-8.33215
十分	-8.33525
城	-8.33576
三率	-8.33632
己庚	-8.33896
日行	-8.34001
宗	-8.3426
絲	-8.34723
北極	-8.3484
須	-8.34986
不盡	-8.35267
是為	-8.35557
交食	-8.35591
便	-8.36087
員	-8.3667
均數	-8.36709
六十四	-8.36837
丙戊	-8.378
四寸	-8.37902
節氣	-8.37996
六尺	-8.38199
左右	-8.38718
斛	-8.38771
庚辛	-8.38966
三百六十	-8.3897
○○	-8.3911
主	-8.39114
由	-8.39263
乙甲	-8.39334
戊丁	-8.39467
係	-8.39488
最高	-8.39514
折	-8.39596
真	-8.39684
一十六	-8.39845
戌	-8.40045
六月	-8.40137
隂	-8.40163
三十度	-8.40299
失	-8.40344
平面	-8.40695
一十二	-8.40735
附	-8.41197
晝	-8.41689
屬	-8.41703
二率	-8.41896
忽	-8.42372
來	-8.42422
順	-8.42456
五百	-8.42806
故曰	-8.43402
解	-8.43429
牛	-8.43453
一率	-8.4346
一尺	-8.4378
之中	-8.44066
策	-8.44074
三月	-8.4409
準	-8.44131
七十二	-8.44164
宋	-8.44216
一寸	-8.44323
歳	-8.44324
法曰	-8.44384
尖	-8.44405
粟	-8.44511
分之	-8.44665
互	-8.44692
二十三	-8.44724
五度	-8.44917
司	-8.4517
甲己	-8.45333
全數	-8.45619
觀	-8.46125
號	-8.46358
二月	-8.46513
試	-8.46593
所謂	-8.46659
遂	-8.46902
聲	-8.47012
任	-8.47083
某	-8.47507
壬子	-8.47558
河	-8.47784
之理	-8.47871
折半得	-8.47967
五月	-8.4801
字	-8.48219
二寸	-8.48294
也其	-8.48333
不用	-8.48642
九月	-8.48675
尾	-8.48895
種	-8.49038
四度	-8.49042
到	-8.49074
一百八十	-8.49306
布	-8.49322
圈	-8.49468
相當	-8.4978
正方	-8.49855
减	-8.50082
學	-8.50122
金星	-8.50229
倍之	-8.50279
疾	-8.50347
引數	-8.50618
竒	-8.51054
二度	-8.51105
受	-8.5115
木星	-8.51239
帶	-8.5133
相乘得	-8.51395
勾股	-8.51531
意	-8.51954
晝夜	-8.51969
四尺	-8.52065
七政	-8.52231
之積	-8.52288
頭	-8.52308
十九	-8.52346
似	-8.52485
七月	-8.52544
得一	-8.5271
天頂	-8.52966
損	-8.52982
秋分	-8.53106
三十五	-8.53113
大于	-8.53168
五十六	-8.53249
驗	-8.53271
分秒	-8.53343
兩角	-8.53459
二十六	-8.53585
四十九	-8.5366
冬	-8.53893
旁	-8.53932
銅	-8.54081
四十五	-8.54088
本篇	-8.5417
午正	-8.54393
四百	-8.54552
行度	-8.54592
只	-8.54732
户	-8.54797
暦	-8.54963
戊丙	-8.5505
者以	-8.55083
代	-8.55154
増	-8.55367
黃道	-8.55379
門	-8.55781
端	-8.55822
兩數	-8.55838
視行	-8.55872
丙甲	-8.55899
廉	-8.55903
房	-8.55959
戊乙	-8.55983
而得	-8.55991
一卷	-8.56042
十七	-8.56149
其餘	-8.56259
樞	-8.56396
每邊	-8.56438
地心	-8.56494
第	-8.5652
海	-8.56557
之半	-8.56669
張	-8.56682
具	-8.56719
為實以	-8.56825
會	-8.56893
四十二	-8.56926
最卑	-8.56989
東行	-8.57093
獨	-8.57138
甲乙丙丁	-8.57549
授時	-8.5764
一十一	-8.57667
全徑	-8.57687
八月	-8.57751
倍之得	-8.57789
時差	-8.57811
數以	-8.57942
乗之	-8.58
内容	-8.58
一百六十	-8.58133
幂	-8.58231
一百五十	-8.58507
論曰	-8.58695
之間	-8.59099
甲庚	-8.59706
内減去	-8.59723
小輪	-8.5976
有餘	-8.59882
相較	-8.59954
釐	-8.60202
四十五度	-8.60443
六十度	-8.60461
一邊	-8.60635
形之	-8.60797
相對	-8.60909
二年	-8.61481
毫	-8.61538
東西差	-8.61674
凖	-8.61732
細	-8.61794
一十八	-8.62011
不足	-8.62145
土星	-8.62218
女	-8.62222
▁BR	-8.62282
弱	-8.62301
為弦	-8.62522
本天	-8.62728
不見	-8.62843
五尺	-8.62909
兩線	-8.6298
視差	-8.63104
二五	-8.63193
察	-8.63234
四月	-8.63253
部	-8.63393
己戊	-8.63397
皆以	-8.63435
解曰	-8.63514
五十四	-8.64041
求其	-8.641
壬癸	-8.64274
畢	-8.6443
稍	-8.64817
圓徑	-8.64868
六度	-8.6501
小分	-8.65065
新法	-8.6513
記	-8.65317
用時	-8.65327
之下	-8.65524
疋	-8.65626
距地	-8.65699
議	-8.65784
其法	-8.65949
共得	-8.66031
樹	-8.66179
兩邊	-8.66216
減去	-8.66251
義	-8.66253
之分	-8.66298
發	-8.66314
經緯	-8.66356
一萬	-8.6643
單	-8.66439
而不	-8.66513
晷	-8.66601
丙子	-8.6674
斜行	-8.67109
八十一	-8.67207
神	-8.67287
所測	-8.67318
三年	-8.67318
七度	-8.67323
車	-8.67335
一十五	-8.67345
留	-8.67515
嵗正月	-8.68209
方邊	-8.68514
亷	-8.68565
數也	-8.68569
中積	-8.68616
二百四十	-8.68649
厚	-8.68729
長方	-8.68884
要	-8.68926
箕	-8.68944
為股	-8.69203
省	-8.69238
十五日	-8.69254
遇	-8.69447
亦等	-8.69496
五千	-8.69894
井	-8.69996
昏	-8.70026
次輪	-8.70393
愈	-8.70454
分數	-8.70522
一十四	-8.70798
逺近	-8.71201
一十七	-8.71244
三十三	-8.71314
六百	-8.71431
是也	-8.71476
方形	-8.71516
也故	-8.7155
己丁	-8.71559
言之	-8.71576
日之	-8.71602
辛壬	-8.71711
月離	-8.72022
三十九	-8.72035
船	-8.72253
各有	-8.72297
隔	-8.72498
又有	-8.72565
固	-8.72659
□□□	-8.72753
式	-8.73148
右行	-8.73188
出入	-8.73398
為勾	-8.73402
樂	-8.73593
本日	-8.736
羅	-8.73973
寄	-8.73992
尚	-8.74027
唐	-8.7414
陳	-8.74216
正方形	-8.74422
之行	-8.74533
而以	-8.74541
局	-8.74546
層	-8.74598
一十三	-8.74893
水星	-8.74966
三尺	-8.7501
畧	-8.75157
四年	-8.75521
宻	-8.75521
其數	-8.75619
鈍角	-8.75653
三十八	-8.75694
第五	-8.75704
則其	-8.75725
本輪	-8.75816
六寸	-8.7586
備	-8.76078
也如	-8.76313
衝	-8.76465
三十七	-8.76471
三寸	-8.76607
力	-8.7686
遲疾	-8.76886
六宫	-8.76908
疑	-8.76935
初度	-8.76962
中心	-8.76977
丁己	-8.77083
也以	-8.77124
畫	-8.77137
與乙	-8.7753
遠	-8.77636
然後	-8.77826
二十九	-8.77918
音	-8.78222
自行	-8.78508
十五度	-8.78537
減之	-8.78573
外角	-8.78701
悉	-8.78836
三度	-8.78846
将	-8.79064
小于	-8.79158
銀數	-8.79216
之上	-8.79384
三十四	-8.79449
箇	-8.79611
池	-8.79616
該	-8.7985
九尺	-8.79868
逆	-8.79891
九百	-8.80052
八度	-8.80222
之假數	-8.80247
測得	-8.80295
軸	-8.80441
之差	-8.80451
開方得	-8.80886
卦	-8.81033
雲	-8.81221
八百	-8.81279
為正	-8.81337
即以	-8.81381
幾何法以	-8.8142
自乗得	-8.81458
等則	-8.81625
密	-8.81736
四十四	-8.82097
方積	-8.82151
朔日食	-8.82168
朝	-8.82184
之面積	-8.82286
相似	-8.82388
先以	-8.82417
乙己	-8.82474
自乘得	-8.82901
句股形	-8.8314
舉	-8.83167
點	-8.83218
格	-8.83219
圍	-8.83238
作一	-8.83314
北極出地	-8.83317
篇	-8.83422
之所	-8.83463
星在	-8.83539
簡	-8.83587
化	-8.83605
盈縮	-8.83606
如圖	-8.83807
本年	-8.83893
為底	-8.83896
一丈	-8.84071
志	-8.8409
之實	-8.84118
如前	-8.84203
修	-8.84216
萬五千	-8.8445
相交	-8.8454
求之	-8.84615
内外	-8.84944
取其	-8.85152
變為	-8.85439
盤	-8.85508
年正月	-8.8582
第十	-8.85836
也今	-8.85984
丙己	-8.86143
頂	-8.86155
豈	-8.86262
白	-8.86353
最大	-8.86442
制	-8.86663
晦	-8.8667
開方	-8.86831
加一	-8.86928
歲正月	-8.87131
兩形	-8.87184
爻	-8.87289
二四	-8.87292
九十六	-8.8736
相乗得	-8.87594
匹	-8.87687
風	-8.88079
髙弧	-8.88138
兵	-8.8824
十尺	-8.88287
餘實	-8.88403
麥	-8.88447
八十四	-8.88477
丁甲	-8.8856
亦可	-8.88637
其所	-8.88704
泛	-8.88801
者則	-8.88874
兼	-8.88968
距緯	-8.89038
亦同	-8.892
一十九	-8.89289
所作	-8.89357
管	-8.89453
己丙	-8.8946
三日	-8.89475
何以	-8.89532
分内一十一秒冬至	-8.89581
七十五	-8.89598
强	-8.89773
子午	-8.89892
五十七	-8.90078
戊庚	-8.90196
一百四十	-8.90378
子午圏	-8.90393
歴	-8.90437
伏	-8.90495
是以	-8.90503
為三率	-8.90548
不得	-8.90551
漏	-8.90572
哉	-8.90583
五寸	-8.90712
股弦較	-8.90742
加入	-8.90836
州	-8.90934
辛巳	-8.91093
氐	-8.91152
至於	-8.91168
日在	-8.91242
顯	-8.91577
說	-8.91591
絹	-8.9169
而一	-8.91811
功	-8.9183
殊	-8.91877
之餘弦	-8.91897
亢	-8.91902
春	-8.91921
室	-8.91935
故也	-8.91969
二日	-8.91973
其一	-8.9209
眞數	-8.92246
一㸃	-8.92298
小於	-8.92515
致	-8.92714
亦即	-8.92728
大餘	-8.92754
奏	-8.92785
一六	-8.92827
一二	-8.92853
首位	-8.92856
帶食	-8.93023
十度	-8.93047
術曰	-8.9308
之外	-8.93114
戊子	-8.9316
勾股形	-8.9323
乙庚	-8.93281
因之得	-8.93378
以下	-8.9395
統	-8.93999
支	-8.94024
甲寅	-8.94086
分内二十一秒冬至	-8.94119
等而	-8.94124
五年	-8.94149
亦必	-8.94259
加時	-8.94289
也然	-8.944
割	-8.94489
序	-8.94561
一位	-8.94578
孔	-8.94632
積度	-8.94656
而一得	-8.94677
今以	-8.94759
虛	-8.94874
二三	-8.94909
庚午	-8.95123
與甲	-8.95174
两	-8.95232
自之得	-8.95353
偕	-8.95415
人目	-8.95679
丁巳	-8.95686
定朔	-8.95691
為直角	-8.95764
納	-8.95776
原數	-8.95921
以後	-8.96052
外切	-8.96172
戊寅	-8.9618
五十九	-8.9618
真時	-8.9625
綫	-8.96277
庚子	-8.96309
大差	-8.96422
丙庚	-8.9658
八寸	-8.96615
縮	-8.9671
丙辛	-8.9673
如法	-8.96754
五十五	-8.96795
也設如	-8.96823
上方	-8.96848
晨	-8.96876
一一	-8.969
聖	-8.97001
一周	-8.97011
者為	-8.97076
叚	-8.97076
乙丑	-8.97114
八十八	-8.97116
永	-8.9715
一五	-8.97206
所求	-8.97263
注	-8.97327
三商	-8.97421
所用	-8.97491
曜	-8.97576
兆	-8.97819
柱	-8.97953
天之	-8.97972
夜半	-8.97985
相併	-8.98059
渾	-8.98121
九寸	-8.98732
推算	-8.98756
九九	-8.98766
月行	-8.9881
尤	-8.98818
靣	-8.98833
七十六	-8.98854
增	-8.98889
小差	-8.99102
以乘	-8.99117
收	-8.9914
分子	-8.99156
之比同於	-8.99185
三千	-8.99189
覆	-8.99336
而後	-8.9935
起算	-8.99469
三十一	-8.99473
四五	-8.99503
方程	-8.99526
甲辛	-8.99553
識	-8.99629
四十七	-8.99655
近時	-8.9971
五十八	-8.99719
二刻	-8.99747
十五分	-8.99844
厯法	-8.99944
線與	-9.00035
人數	-9.00119
先得	-9.00207
亦有	-9.00423
徳	-9.00618
連	-9.00696
其理	-9.00734
半之	-9.00779
每日	-9.01035
去之	-9.01112
聞	-9.01175
左行	-9.01497
衆	-9.0163
南行	-9.01679
崇禎	-9.0176
高弧	-9.01924
得其	-9.02054
四十六	-9.02083
七五	-9.02276
三三	-9.02324
用法	-9.02369
中星	-9.02382
形有	-9.0239
給	-9.02435
第六	-9.02522
七百	-9.02535
隻	-9.0263
占	-9.02646
十二分	-9.02675
距交	-9.02691
期	-9.02692
曲	-9.02715
六十六	-9.02837
亦為	-9.02854
萬里	-9.02865
距日	-9.02916
掩	-9.03002
癸丑	-9.03073
以此	-9.03165
四十三	-9.03491
所推	-9.03527
赤道經度	-9.03589
亦得	-9.03607
髙度	-9.03619
適	-9.03719
相同	-9.03775
割線	-9.03801
旋	-9.03839
欽定四庫全書	-9.03868
於是	-9.04308
半之得	-9.0433
體積	-9.04546
分内五十一秒冬至	-9.04586
萬七千	-9.0469
既得	-9.04749
之弧	-9.0477
七尺	-9.04807
臺	-9.04851
平差	-9.04908
甲申	-9.0497
士	-9.05042
羃	-9.05108
累	-9.05124
月體	-9.05262
日光	-9.05268
減餘	-9.05401
○○○○○○○○	-9.0541
利	-9.05416
總數	-9.05603
戊角	-9.05606
乙巳	-9.05724
一人	-9.05826
交周	-9.05852
用之	-9.05987
窺	-9.06009
子丑	-9.06059
一百一十	-9.06207
得二	-9.06287
角形	-9.06469
者也	-9.06527
距弧	-9.06603
略	-9.06655
必等	-9.06738
萬二千	-9.06811
宿度	-9.06988
戊甲	-9.07054
正方體	-9.07071
子正	-9.07086
一刻	-9.07099
互乗	-9.07193
武	-9.0724
戸	-9.07268
為大	-9.07481
徴	-9.07553
四千	-9.07573
秋	-9.0761
偶	-9.07792
春秋	-9.07815
庚辰	-9.07836
二百五十	-9.07842
天下	-9.07869
甲壬	-9.07898
方面	-9.07915
乙辛	-9.08009
一千二百	-9.08118
六十三	-9.08133
另	-9.08174
危	-9.08229
己酉	-9.08329
不合	-9.08379
者皆	-9.08405
䇿	-9.08447
五五	-9.08752
中交	-9.08826
圜界	-9.08827
萬九千	-9.08935
甲午	-9.08967
丁庚	-9.09065
六六	-9.09278
甲辰	-9.09328
丁丑	-9.09356
晉	-9.0949
却	-9.0951
己辛	-9.09632
壬寅	-9.09642
三六	-9.09688
而成	-9.09718
平行線	-9.09741
豪	-9.0977
己亥	-9.09817
循	-9.09821
監	-9.09828
庚乙	-9.09881
方根	-9.099
躔	-9.09916
損益	-9.10138
長方形	-9.10146
夕	-9.10246
縣	-9.10247
各以	-9.10427
各得	-9.10436
耶	-9.10449
三角形之	-9.10645
為法除之得	-9.1071
之餘	-9.1072
戊辰	-9.10748
三分之一	-9.10799
一時	-9.1085
一星	-9.10983
衰數	-9.1099
二星	-9.11114
伏見	-9.1123
四八	-9.11272
也此	-9.11309
正午	-9.1134
徵	-9.11541
丁辛	-9.11557
善	-9.11649
日出	-9.11664
如是	-9.11761
四分之一	-9.1181
庚己	-9.11822
降	-9.11848
甲乙邊	-9.11892
體之	-9.11938
九六	-9.11957
清	-9.12
餘為	-9.12043
相去	-9.12225
御	-9.12348
食限	-9.12447
尺為	-9.12501
之處	-9.12554
五十三	-9.12661
五日	-9.12686
合朔	-9.12755
函	-9.12781
太白	-9.12895
也葢	-9.12936
再以	-9.12957
之後	-9.1307
五七	-9.13099
三五	-9.13243
勢	-9.13249
戊午	-9.13292
四百八十	-9.13324
坤	-9.13342
四十一	-9.13348
春秋分	-9.13525
雨	-9.13672
測之	-9.13696
廿	-9.13696
二線	-9.13739
之時	-9.13744
庚丁	-9.13798
首朔	-9.13845
得一百	-9.13868
地半徑差	-9.13875
久	-9.14024
二百七十	-9.14031
食分	-9.14093
南北差	-9.14144
宫度	-9.14179
甲丙邊	-9.14248
二八	-9.14284
全分	-9.14399
身	-9.14401
壬申	-9.1447
師	-9.14483
九度	-9.14559
等邊	-9.14563
線上	-9.14579
第七	-9.14606
腰	-9.14622
同於	-9.14641
赤	-9.14673
陽厯	-9.14692
速	-9.14708
日入	-9.14712
低	-9.14739
若以	-9.14788
袤	-9.14977
日數	-9.15018
鄭	-9.15128
二百八十	-9.15167
相減得	-9.15232
大分	-9.15297
系	-9.15311
赤道度	-9.15312
丁亥	-9.15318
両	-9.15442
太陽在	-9.15479
乙酉	-9.1563
京	-9.15714
朒	-9.15716
之髙	-9.15871
朔望	-9.15901
萬六千	-9.15999
製	-9.16008
旦	-9.1602
七八	-9.16056
信	-9.1609
兩腰	-9.1619
三四	-9.16205
所行	-9.16297
二至	-9.16499
渾圓	-9.16587
與甲乙	-9.16618
萬零	-9.16639
蔀	-9.16778
同度	-9.16784
之數也	-9.16917
求積	-9.1696
並同	-9.1712
癸巳	-9.17194
丙寅	-9.17355
逐	-9.17373
立成	-9.17387
七六	-9.17597
六年	-9.17798
庚戊	-9.17831
甲乙線	-9.1786
五十二	-9.1798
還	-9.17992
列之	-9.18119
辛丑	-9.18122
七七	-9.18146
丙戌	-9.18204
二九	-9.18283
四時	-9.18397
中垂線	-9.1842
龍	-9.18497
名曰	-9.18575
三百五十	-9.18587
乙丙邊	-9.18591
合伏	-9.18655
草	-9.18671
錐	-9.1881
君	-9.18855
儀器	-9.18925
際	-9.18931
十萬	-9.19105
大圏	-9.19131
因之	-9.19144
萬四千	-9.19301
一七	-9.19324
六九	-9.19429
命為	-9.1949
民	-9.19497
之比例若	-9.19507
辨	-9.19548
較數	-9.1961
股弦和	-9.19683
庚壬	-9.19693
與丙	-9.19829
度數	-9.19888
十二尺	-9.19987
一八	-9.20009
數為	-9.20085
三人	-9.20087
推之	-9.20203
以定	-9.20204
斯	-9.2022
八八	-9.20238
己未	-9.20299
案	-9.20323
八九	-9.2037
羊	-9.20553
而其	-9.20675
盛	-9.20689
一面	-9.2084
外周	-9.20898
辛未	-9.20909
均輪	-9.21015
庚寅	-9.21072
一段	-9.21161
八千	-9.21277
治	-9.21323
▁(	-9.21395
繩	-9.21451
除實	-9.21504
一秒	-9.21526
直角形	-9.21625
測驗	-9.21634
之心	-9.21645
己乙	-9.21673
一百三十	-9.21751
厯元	-9.2184
地面	-9.22029
不過	-9.2203
地球	-9.22148
二千	-9.22165
為心	-9.22368
剖	-9.2237
艮	-9.22424
六五	-9.22547
五六	-9.22591
仲	-9.2274
七九	-9.22895
長短	-9.22927
黄鐘	-9.22989
勾股較	-9.23061
庚申	-9.23106
請	-9.23109
壬午	-9.23213
四七	-9.23218
魏	-9.23223
兩心差	-9.23275
己丑	-9.23318
禮	-9.2337
為比例	-9.23381
二千五百	-9.23479
經緯度	-9.23487
又置	-9.23616
六十八	-9.23674
與甲丙	-9.23683
對弧	-9.23705
九五	-9.23711
而已	-9.23724
四六	-9.23767
甲戌	-9.2383
黃	-9.23844
僅	-9.23904
零八	-9.23942
弧矢	-9.23979
路	-9.23985
一分内一秒冬至	-9.23988
何也	-9.24018
二六	-9.24047
萬八千	-9.24059
三倍	-9.24138
亦不	-9.24151
一九	-9.24245
癸酉	-9.24248
一百七十	-9.24386
與乙丙	-9.24474
九二	-9.24514
壬辰	-9.24586
震	-9.24629
併徑	-9.24722
莫	-9.24722
距時	-9.24757
印度	-9.24825
五十一	-9.24826
乙未	-9.2489
太陽平行	-9.24966
特	-9.24977
如此	-9.25121
一步	-9.25151
其積	-9.25157
辛亥	-9.25161
成一	-9.25198
天地	-9.25229
本行	-9.25355
可見	-9.25386
南極	-9.25471
七日	-9.2555
城徑	-9.25617
兩極	-9.25621
其度	-9.25661
羽	-9.25667
為黄道	-9.25705
爾	-9.25716
流	-9.25723
天元	-9.25766
法求得	-9.25784
纎	-9.25791
左旋	-9.25829
三宫	-9.25893
二十九日	-9.25906
月距日	-9.25931
七年	-9.25933
己巳	-9.26048
語	-9.2611
息	-9.26115
看	-9.26122
疏	-9.26188
三邊	-9.26405
一千六百	-9.26528
多寡	-9.2656
四刻	-9.26567
辛酉	-9.26619
所設	-9.26661
零四	-9.26736
見食	-9.26755
為二	-9.26761
線為	-9.26798
三星	-9.26836
四十度	-9.26892
之類	-9.26964
癸亥	-9.27031
舊法	-9.27068
月在	-9.27113
先求	-9.27276
縁	-9.27329
勾弦較	-9.2735
是故	-9.27391
然則	-9.27434
也凡	-9.27454
同名	-9.27606
思	-9.27622
丙午	-9.27627
得四	-9.27665
否	-9.27666
視緯	-9.27686
互乘	-9.27865
地半徑	-9.27905
中距	-9.27999
閏月	-9.28048
球體	-9.28062
果	-9.28106
所餘	-9.28148
梁	-9.28215
又如	-9.28232
五九	-9.2831
之角	-9.28441
之内	-9.28529
七百二十	-9.28534
倣此	-9.28723
換	-9.28751
癸未	-9.28788
撱圓	-9.28795
林	-9.28797
可得	-9.29082
視徑	-9.29099
不食	-9.29103
三十日	-9.2911
二十三度	-9.29136
承	-9.29147
依法	-9.29155
即是	-9.29166
審	-9.29207
壬戌	-9.29283
五十度	-9.29284
之説	-9.29291
乙數	-9.29339
乙亥	-9.29365
黄道度	-9.29416
復以	-9.29419
者其	-9.2942
古今	-9.29443
余	-9.29471
朱	-9.29481
六千	-9.29623
天正冬至	-9.29692
中率	-9.29697
大股	-9.29836
於上	-9.30161
天正	-9.30176
一根	-9.30188
相遇	-9.30234
我	-9.30248
正負	-9.3028
九千	-9.30469
弧之正弦	-9.30488
者亦	-9.30618
圜之	-9.30624
所見	-9.30665
鋭	-9.30807
婁	-9.30856
古法	-9.30926
最逺	-9.30955
十三度	-9.31032
九八	-9.31062
鐵	-9.31079
黄赤道	-9.31095
吾	-9.31111
㡬何	-9.31151
零五	-9.31157
興	-9.31172
軍	-9.31217
皆為	-9.31246
a	-9.31301
知其	-9.31363
設時	-9.31398
三之一	-9.31498
枚	-9.31575
壁	-9.31601
窮	-9.31657
庚丙	-9.31722
坎	-9.31902
旣	-9.31962
録	-9.32027
整	-9.32033
丙辰	-9.3205
厯家	-9.3208
b	-9.32095
日出入	-9.32301
八十九	-9.3232
帶縱	-9.3234
相比	-9.32402
加分	-9.32431
黄平象限	-9.32453
之體	-9.32497
壬辛	-9.326
戊申	-9.32667
題言	-9.32714
以加	-9.3276
所在	-9.32845
昴	-9.32846
鋭角	-9.32852
其中	-9.3286
有二	-9.33022
二丈	-9.33071
仰	-9.33164
所分	-9.33184
口	-9.33189
減一	-9.33228
第八	-9.33257
一平方	-9.33276
一象限	-9.333
戊辛	-9.3334
之日	-9.33369
八六	-9.33434
儒	-9.3351
方位	-9.3354
通弦	-9.33574
十字	-9.33577
攷	-9.33627
青	-9.33657
術曰置	-9.3366
西洋	-9.33679
以前	-9.33775
者乃	-9.33789
六十二	-9.33902
空位	-9.33989
孫	-9.33999
得三	-9.34005
故其	-9.34025
食既	-9.34145
以乗	-9.34303
者即	-9.34343
相應	-9.34384
權	-9.3444
太陽之	-9.34446
證	-9.34463
六十分	-9.34532
十四日	-9.34539
得六	-9.34555
一年	-9.34583
二二	-9.34723
八十七	-9.34763
八四	-9.3478
季	-9.34895
為三率得四率	-9.35615
圜徑	-9.3568
辛庚	-9.35699
之底	-9.35778
十秒	-9.35881
而無	-9.35942
之正切	-9.35955
法曰置	-9.35955
六四	-9.36053
堆	-9.36121
距午	-9.36157
四四	-9.36159
立差	-9.36191
月之	-9.36244
五八	-9.36278
積年	-9.36293
九七	-9.36304
之半徑	-9.36346
丁酉	-9.3645
註	-9.3646
丁未	-9.36551
丁壬	-9.36587
為主	-9.36637
政	-9.36645
癸子	-9.36695
其比例	-9.36778
嵗差	-9.36787
之長	-9.36881
三九	-9.36946
報	-9.36997
如上	-9.37073
之月	-9.3713
矩度	-9.37164
本道	-9.37205
越	-9.37336
八五	-9.37454
六八	-9.37585
勾股和	-9.37587
二百六十	-9.3759
之邊	-9.37597
祖	-9.37728
黄赤	-9.37756
半徑為	-9.37766
不動	-9.37832
己角	-9.37893
初均數	-9.37919
一直線	-9.37956
十八度	-9.37985
以求	-9.37992
二角	-9.38059
最近	-9.38061
七寸	-9.38087
也夫	-9.38142
秦	-9.38206
立法	-9.38247
大距	-9.384
七十八	-9.38431
𤣥	-9.38583
乙夘	-9.38695
之比即同於	-9.39034
九日	-9.39224
四星	-9.39274
差分	-9.39348
辛夘	-9.39362
或以	-9.3938
小股	-9.39415
三百二十	-9.39475
四三	-9.39483
欲知	-9.39538
嵗輪	-9.39547
藏	-9.39581
十二面體	-9.39597
都	-9.39667
零七	-9.3971
單位	-9.39742
二十度	-9.39752
併之	-9.39785
一三	-9.39794
十二時	-9.39795
个	-9.39843
不必	-9.39881
二人	-9.39905
假數	-9.39945
定差	-9.40274
等故	-9.40284
待	-9.4035
命分	-9.40352
一十四日	-9.40353
闕	-9.40354
曉	-9.4038
十二度	-9.40387
西法	-9.404
已上	-9.4043
之切線	-9.40612
值	-9.40681
二萬	-9.40767
府	-9.40785
渾儀	-9.40836
一角	-9.40977
數與	-9.41076
三十分	-9.41103
乙卯	-9.41106
鳥	-9.41149
有三	-9.41272
銖	-9.41376
其正弦	-9.41437
三因	-9.4165
之價	-9.41661
巽	-9.41661
即如	-9.41724
為加	-9.41727
六日	-9.41764
負隅	-9.41808
一百九十	-9.41841
勾弦和	-9.41846
為減	-9.41935
二百一十	-9.41973
丨	-9.42074
一行	-9.42177
升度	-9.422
為小	-9.42245
射	-9.42319
丙申	-9.42419
十年	-9.42443
則用	-9.42498
相對之	-9.42526
此法	-9.42607
勺	-9.42617
二七	-9.4264
癸卯	-9.4267
本位	-9.4271
從方	-9.42745
蝕	-9.42782
錯	-9.42985
辛乙	-9.42988
尋	-9.43043
訛	-9.43043
亦然	-9.43056
推得	-9.43062
四日	-9.43095
開平方得	-9.4327
往	-9.43273
相差	-9.43352
所得之	-9.43397
虧	-9.43412
庚戌	-9.4348
等即	-9.43606
大衍	-9.43638
矣故	-9.43682
再加	-9.437
己壬	-9.43727
次形	-9.43756
弧為	-9.43775
謬	-9.43859
一小時	-9.43914
勝	-9.43924
減之餘	-9.44036
按此	-9.44059
鏡	-9.44189
確	-9.44317
買	-9.44327
見其	-9.44385
了	-9.44433
由旬	-9.44453
皆有	-9.4447
分步之	-9.4456
零分	-9.44647
右旋	-9.4471
所差	-9.44716
五十分	-9.44737
算得	-9.44829
己卯	-9.44882
得二十	-9.44973
乙壬	-9.45035
法用	-9.45051
戊戌	-9.45064
十五尺	-9.45087
於此	-9.45225
雜	-9.45236
之距	-9.45263
得九	-9.45398
庶	-9.45697
八分内三十一秒冬至	-9.45707
所載	-9.4576
長闊	-9.45785
本銀	-9.45973
十三分	-9.46054
也設如有	-9.46057
副	-9.46059
直角方形	-9.46097
遺	-9.46109
七二	-9.46114
德	-9.46144
覺	-9.46154
業	-9.46205
根與	-9.46301
佛	-9.4631
測量	-9.46321
兩三角形	-9.46472
○○○	-9.46597
劉	-9.46638
和數	-9.46649
纖	-9.46683
座	-9.46698
與丙丁	-9.46744
每人	-9.46762
之比也	-9.46817
甲癸	-9.4683
皆同	-9.46972
缺	-9.47095
玉	-9.47098
奎	-9.4716
千里	-9.47213
設如有	-9.47223
丁戊己	-9.47241
則有	-9.47326
兩位	-9.47355
約之	-9.47465
續	-9.47549
執	-9.47549
聚	-9.47556
正角	-9.4758
實引	-9.47589
多於	-9.47611
古人	-9.47649
表以	-9.47662
兩行	-9.47664
是月	-9.47832
二十尺	-9.47883
質	-9.48014
四之一	-9.48041
得一十	-9.48116
暗	-9.48129
黍	-9.48171
謹	-9.48205
零三	-9.48291
銳角	-9.48435
為甲	-9.48628
内有	-9.48649
中氣	-9.48698
鐘	-9.48786
六萬	-9.48858
十四分	-9.48918
隂陽	-9.48948
塔	-9.49078
為乙	-9.49079
進退	-9.49099
乙丙丁	-9.49117
品	-9.49161
自之	-9.49241
亦以	-9.49268
之界	-9.49423
相合	-9.49463
日法	-9.49484
臨	-9.49529
分三十秒	-9.49529
之形	-9.49547
九章	-9.49549
七十三	-9.49609
隂厯	-9.49749
七千	-9.49793
七曜	-9.49888
同式	-9.49933
距天頂	-9.49941
李	-9.49968
杪	-9.50044
大弦	-9.50064
諸星	-9.50068
寸為	-9.50103
典	-9.50139
里數	-9.50254
二十四度	-9.50276
孝	-9.50335
寔	-9.50413
二步	-9.50436
宫初度	-9.50438
積日	-9.50459
星距	-9.50481
寫	-9.50513
分内一秒冬至史	-9.50571
角為	-9.50586
則此	-9.5061
六七	-9.50674
撰	-9.50812
卯酉	-9.50821
汎	-9.50832
而止	-9.51007
全周	-9.51017
六十七	-9.51036
次日	-9.51309
綱目	-9.51391
垣	-9.51396
芒	-9.51397
卒	-9.51417
黒	-9.5143
十二年	-9.51431
在北	-9.51475
陰	-9.51611
作直線	-9.51612
平方開之得	-9.51679
皇	-9.5168
背	-9.51704
零六	-9.5173
常法	-9.51765
習	-9.51788
書於	-9.51796
塹堵	-9.5184
筆	-9.51901
大矢	-9.51904
圜内	-9.51939
角等	-9.51974
乙為	-9.52079
遞	-9.52131
十一分	-9.522
分内三十一秒冬至	-9.52242
庚甲	-9.52275
羣	-9.5232
時分	-9.52385
兩弦	-9.5241
平圓	-9.52534
末率	-9.52559
六三	-9.52565
小方	-9.52726
錫	-9.52728
天體	-9.52761
蒙	-9.52781
與前	-9.52816
甲乙丙三角形	-9.52836
務	-9.52872
地影	-9.52956
對角線	-9.52966
二十四尺	-9.52976
半弦	-9.52987
四九	-9.53054
二根	-9.53153
又加	-9.53215
得五	-9.53256
江	-9.53341
角之	-9.53357
設如	-9.53372
四倍	-9.53394
爲法	-9.53474
授時厯	-9.5359
交二十六日	-9.53706
騐	-9.5373
宣	-9.53765
早	-9.53814
不然	-9.53872
立表	-9.53906
其實	-9.53915
和較	-9.53959
廉法	-9.53962
七十九	-9.54064
晦日食	-9.54081
法置	-9.54106
一曰	-9.54124
十九年	-9.54156
圓球	-9.54171
雞	-9.54298
十六尺	-9.54303
三百六十度	-9.54317
加之	-9.54474
適足	-9.54501
面之	-9.5452
視之	-9.54521
六十五	-9.5463
三七	-9.54656
可知	-9.5466
當時	-9.5476
與丁	-9.54764
親	-9.54875
三百六十五日	-9.55038
九百四十	-9.55066
一石	-9.55165
程	-9.55173
横線	-9.55219
東方	-9.5522
翼	-9.55295
法也	-9.55313
性	-9.55321
九十九	-9.55355
側	-9.55365
赤經	-9.55442
必為	-9.55488
辛丁	-9.55532
三丈	-9.55761
第九	-9.55777
而求	-9.55882
之地	-9.5594
三十六度	-9.56069
既為	-9.56123
有一	-9.56145
二位	-9.56162
去極	-9.56246
侯	-9.56308
月天	-9.56308
得三十	-9.56349
此時	-9.56401
八日	-9.56431
同類	-9.56519
甲丙丁	-9.56521
為負	-9.56569
在天	-9.5662
開立方	-9.5666
所對之	-9.56711
八年	-9.56725
黄極	-9.56764
為赤道	-9.56767
校	-9.56814
甲乙丁	-9.56821
相近	-9.56845
強	-9.56852
繁	-9.56888
第谷	-9.56893
三萬	-9.56894
必有	-9.56908
答曰	-9.56921
甲乙為	-9.56946
對邊	-9.56971
辛丙	-9.57036
與戊己	-9.57061
一十五度	-9.57062
二行	-9.57069
法除	-9.57166
二百二十	-9.57188
一尺二寸	-9.57282
七四	-9.57341
加差	-9.57463
周髀	-9.57486
法推	-9.57508
庚角	-9.57524
八面體	-9.57551
甲東行	-9.57558
嵗實	-9.57582
甲數	-9.576
甲南行	-9.57649
九十二	-9.5765
甲丁丙	-9.57684
七十一	-9.5778
八十六	-9.57784
依前	-9.57787
二十八宿	-9.57789
大統	-9.57817
嘗	-9.5782
者是	-9.57824
析	-9.57881
十七年	-9.57962
畆	-9.58069
丙為	-9.58136
兩弧	-9.58276
所當	-9.58369
全數與	-9.58403
之率	-9.58448
即所求之	-9.58461
回	-9.58481
刻分	-9.58488
推步	-9.58526
二十分	-9.58569
圓周	-9.58571
上位	-9.58607
二百九十	-9.58694
之根	-9.58713
此二	-9.58723
則成	-9.58727
長濶	-9.58753
三八	-9.58849
之逺	-9.58849
用數	-9.58873
未時	-9.58914
究	-9.58921
包	-9.58965
萬厯	-9.58974
四二	-9.58996
此數	-9.59006
五三	-9.59043
之倍	-9.59088
甲為	-9.59094
星之	-9.59231
髙卑	-9.59327
術曰以	-9.59332
入月	-9.59402
十六度	-9.59423
互相	-9.5945
西北	-9.59474
凌犯	-9.59511
完	-9.59577
必在	-9.59718
方之	-9.59775
黄道經度	-9.59776
一百四十四	-9.59882
初商之	-9.59911
容方	-9.5999
對角	-9.60003
奉	-9.60033
數得	-9.60134
者必	-9.60245
閏餘	-9.60282
仍得	-9.6032
斷	-9.60326
為丙	-9.6036
七十七	-9.60424
兩邉	-9.60479
一千五百	-9.60515
手	-9.60524
咸	-9.60532
正切	-9.60601
二倍	-9.6064
分六釐	-9.60658
角度	-9.60692
人所	-9.60754
原實	-9.60807
丙壬	-9.60857
鬼	-9.60955
十一年	-9.60957
述	-9.60993
八七	-9.61048
隠	-9.61063
啇	-9.61069
十三年	-9.61111
實測	-9.61126
不論	-9.61172
嘉	-9.61302
大方	-9.61468
在下	-9.61469
六二	-9.61493
立春	-9.61514
戊巳	-9.61564
定率	-9.61569
寛	-9.61643
伯	-9.61679
則加	-9.61792
小句	-9.6184
萬一千	-9.61874
戊己庚辛	-9.6193
可求	-9.61992
平分之	-9.62029
正中	-9.62137
觜	-9.62163
舍	-9.62174
糧	-9.62191
幾何答曰	-9.622
徃	-9.62202
八十三	-9.62254
兮	-9.62261
東南	-9.62296
零一	-9.62409
五行	-9.62438
月道	-9.6248
亂	-9.62607
立天元一為	-9.62613
叅	-9.62725
七三	-9.62726
長廉	-9.62727
寒	-9.62738
矣又	-9.6295
經朔	-9.62955
假如有	-9.62979
太初	-9.63067
今推	-9.63086
徒	-9.63183
壺	-9.63222
况	-9.63223
編	-9.63299
距冬至	-9.6336
遞加	-9.63375
之垂線	-9.63416
三位	-9.63433
立方積	-9.63435
斜線	-9.63502
等數	-9.636
半徑與	-9.63683
檢	-9.6372
則是	-9.63738
黄道之	-9.63774
魯	-9.63778
定位	-9.63802
相等之	-9.63911
壬寅朔	-9.63937
為兩	-9.63954
六十九	-9.63966
一千七百	-9.64079
天文	-9.64108
爲實	-9.64131
與赤道	-9.64159
中國	-9.64169
列位	-9.64254
前法	-9.64266
得二百	-9.64271
不滿	-9.64371
中分	-9.64378
八釐	-9.64395
又法	-9.64411
即成	-9.64421
千萬	-9.6444
亷法	-9.6459
己甲	-9.64664
交終	-9.64665
五刻	-9.64738
俱等	-9.64846
准	-9.64945
餘積	-9.64971
距限	-9.64973
各星	-9.65027
距地平	-9.65135
二千四百	-9.65191
幾何荅曰	-9.65201
四面體	-9.65247
矣然	-9.65288
九十三	-9.65319
所有	-9.65376
為次商	-9.65399
訂	-9.65406
約之為	-9.65411
繞	-9.65447
先有	-9.65493
度三十分	-9.65499
年根	-9.65519
整數	-9.65617
小數	-9.65624
與黄道	-9.65653
生於	-9.65737
髙弧交角	-9.65816
初日	-9.65917
守	-9.66003
昭	-9.66004
毎日	-9.66009
一千三百	-9.6603
自乘之	-9.66047
亦與	-9.66168
渾天	-9.66176
如上圖	-9.66199
八等面	-9.66266
法算之	-9.66288
五四	-9.66301
通積分	-9.66308
相併得	-9.66326
宿次	-9.6635
必與	-9.66408
之共數	-9.66424
四兩	-9.66425
距赤道	-9.66432
兩直角	-9.66455
泰	-9.66547
平朔	-9.66551
丑寅	-9.66553
為長	-9.66566
情	-9.66623
一千四百	-9.66632
曰天	-9.66634
之面	-9.66663
丁卯	-9.66761
又為	-9.66773
一月	-9.66781
此兩	-9.6684
異名	-9.66864
所出	-9.66936
結	-9.66938
之義	-9.66968
次輪心	-9.67014
厯書	-9.67031
圭	-9.67056
圜形	-9.67111
逆行	-9.67116
雙	-9.67219
入交	-9.6722
各等	-9.6732
一千一百	-9.67365
多一	-9.67395
本時	-9.67406
者謂	-9.67441
辛卯	-9.67444
九年	-9.67455
消	-9.67493
五分内三十一秒冬至	-9.67604
之位	-9.67607
出於	-9.67634
次均	-9.67645
甲丑	-9.67649
多少	-9.67651
妙	-9.6768
調	-9.67687
三等	-9.67801
一百八十度	-9.67806
距分	-9.67832
甲丁乙	-9.67852
其差	-9.67877
則減	-9.67901
八三	-9.6792
釐有餘即	-9.68001
萬三千	-9.68026
不言	-9.68054
合之	-9.68067
十丈	-9.68116
垂	-9.68136
推是年	-9.68138
八兩	-9.68151
癸夘	-9.68182
施	-9.68183
釐有餘	-9.68209
符	-9.68218
九三	-9.68238
百萬	-9.68252
餘分	-9.68266
兹	-9.68269
厥	-9.68269
珠	-9.68288
十二等面	-9.68294
懸	-9.68305
倉	-9.6833
散	-9.68344
良	-9.68411
三根	-9.68443
假	-9.68463
以初商	-9.68471
明勾	-9.68485
與丁戊	-9.68616
九四	-9.68657
皆可	-9.68684
上直角方形	-9.68733
每一邊	-9.68775
游	-9.68816
法先	-9.68824
為太陽	-9.68837
角之正弦	-9.68853
豆	-9.68871
西南	-9.68996
三百九十	-9.69021
太陽躔	-9.69088
二十七日	-9.69107
朢	-9.69222
六十一	-9.69345
其説	-9.69437
譯	-9.69466
許	-9.69473
集	-9.69505
大句	-9.6951
三刻	-9.69541
圜分	-9.69551
之極	-9.69605
高度	-9.6969
皆與	-9.69719
弧之	-9.69745
形内	-9.6976
定時	-9.69774
壬丙	-9.6985
展	-9.70029
五萬	-9.70065
一千八百	-9.70102
三百四十	-9.7012
方法	-9.70131
魄	-9.7014
之每一邊	-9.70181
壬乙	-9.7025
分二十秒	-9.70294
隅法	-9.70311
圜内容	-9.70443
大勾	-9.70444
矣若	-9.70533
已下	-9.7054
之平行	-9.70577
釋	-9.70596
栁	-9.70611
鈍	-9.70665
疎	-9.70668
截積	-9.7067
磬折形	-9.70724
在南	-9.70751
百年	-9.70759
上生	-9.70874
當以	-9.70955
積數	-9.70983
自乘再乘	-9.70988
下廣	-9.71006
檢表得	-9.71082
通勾	-9.71126
或用	-9.71139
竟	-9.71172
地景	-9.71173
稜	-9.71199
隋	-9.71249
米數	-9.71312
竿	-9.71315
開平方	-9.71388
零二	-9.71395
毎邊	-9.71417
一萬二千	-9.71469
之一邊	-9.71508
冬至日	-9.7151
後天	-9.71562
法求之	-9.71683
戊壬	-9.71756
三次	-9.7177
太陽距	-9.71771
遵	-9.71837
日差	-9.71858
辛角	-9.71889
洲	-9.71905
傍	-9.7191
三分之二	-9.71978
虚弦	-9.72026
為隅法	-9.72048
四分内一秒冬至	-9.72099
加減之	-9.72147
邊形	-9.72152
狹	-9.72263
中積分	-9.72266
四人	-9.72318
兩端	-9.72327
七一	-9.72356
與太陽	-9.7236
氏曰	-9.72387
隱	-9.72406
頗	-9.72419
昔	-9.72429
甎	-9.72449
京師	-9.72461
没	-9.72461
丁夘	-9.72486
六百四十	-9.72523
黄白	-9.72539
入食限	-9.72545
六兩	-9.72547
置閏	-9.72668
較弧	-9.72723
分五十秒	-9.72761
即甲	-9.7277
距地心	-9.7286
甲乙丙丁戊己	-9.72968
欽天監	-9.72975
以來	-9.72987
紬	-9.73059
鶉首	-9.73061
架	-9.731
梵	-9.73114
三百三十	-9.73236
中有	-9.73247
經圏	-9.73292
可知矣	-9.73296
何者	-9.73321
三因之得	-9.73357
十七度	-9.73457
輪心	-9.73467
二百三十	-9.73558
分内四十一秒冬至應閏	-9.73564
所定	-9.73606
十四尺	-9.73627
一線	-9.7365
陸	-9.73678
科	-9.7368
也盖	-9.73748
之上而以	-9.7383
八線	-9.73838
長圓體	-9.73861
減於	-9.74035
卯辰	-9.74102
底勾	-9.74172
法除之得	-9.74191
置一	-9.74196
八十五	-9.74211
以半徑一千萬為一率	-9.74236
厯指	-9.74246
妄	-9.74279
奉聖㫖	-9.74296
恐	-9.74296
萬尺	-9.74299
餘數	-9.74302
計之	-9.74329
日體	-9.74361
每分	-9.74431
與日	-9.74449
九十八	-9.74455
日輪	-9.74472
原積	-9.74496
㫖	-9.74504
至于	-9.74533
垂弧	-9.74543
兩交	-9.74695
相切	-9.74697
為三率推得四率	-9.7485
添	-9.74882
十七尺	-9.75004
得一千	-9.75025
諸數	-9.75033
共價	-9.75114
開之	-9.75176
分内五十一秒冬至應閏	-9.75202
根少	-9.7522
得四十	-9.7522
十五秒	-9.75237
大梁	-9.75317
每一	-9.7536
步為	-9.75401
直行	-9.75423
股弦	-9.75482
之高	-9.75694
之大	-9.75721
之星	-9.75738
日中	-9.75751
初數	-9.75773
半之為	-9.75779
十二宫	-9.75802
欲求	-9.75864
即知	-9.75871
有餘即	-9.75879
倒	-9.75964
分内二十一秒冬至應閏	-9.75967
兩道	-9.76002
有奇	-9.76018
得八	-9.76042
酒	-9.7605
與甲丁	-9.76081
返	-9.7612
至此十一閏又一紀	-9.76132
之限	-9.76177
穿	-9.76193
元形	-9.76209
地之	-9.76242
然而	-9.76254
八二	-9.76361
高卑	-9.7637
十日	-9.76423
共步	-9.76424
曲線	-9.76631
稽	-9.76641
堯	-9.76676
遷	-9.7669
三百一十	-9.76743
書之	-9.76764
奇	-9.76777
分内一十一秒冬至應閏	-9.76795
熱	-9.76803
實㑹	-9.7682
辛戊	-9.76833
或在	-9.76886
亦無	-9.76903
天行	-9.7694
授	-9.76999
絶	-9.771
之用	-9.77245
相連比例	-9.77316
比例之	-9.77383
兩心	-9.77399
聖人	-9.77455
圜外	-9.7751
度之	-9.77544
首率	-9.77716
八萬	-9.77755
平廉	-9.77793
康	-9.77898
不同心	-9.77914
二十等面	-9.77939
食甚用時	-9.77971
軫	-9.77992
午未	-9.78035
實朔	-9.78053
共銀	-9.78076
分五釐	-9.78161
而復	-9.78223
百八十	-9.78304
二斗	-9.78381
百分	-9.78385
金水	-9.78403
同用	-9.78454
積與	-9.78456
谷	-9.78531
故用	-9.78551
辛癸	-9.78565
而一為	-9.78565
抄	-9.78621
職	-9.78711
正當	-9.78799
以太陽	-9.78912
命之	-9.78913
三秒	-9.78998
之故	-9.79099
圓形	-9.79154
㡬	-9.79175
禾	-9.79182
己夘	-9.79189
相反	-9.79218
本法	-9.7922
屢	-9.79237
八秒	-9.79278
訖	-9.79287
配	-9.79323
中數	-9.79349
逓	-9.7951
原本	-9.79534
四百五十	-9.79583
東北	-9.79586
卑	-9.79708
無所	-9.79759
邪	-9.7978
綾	-9.79791
巧	-9.79858
有餘為	-9.79886
午時	-9.79904
十一度	-9.79958
之時刻	-9.79984
位數	-9.80035
九十一	-9.80117
距太陽	-9.80136
辛己	-9.8017
即所求	-9.80183
升降	-9.80199
星紀	-9.80239
并之	-9.80243
減盡	-9.80337
圎	-9.8047
太蔟	-9.80487
四釐	-9.80514
日分	-9.80518
智	-9.80532
十寸	-9.80569
躔度	-9.80671
度也	-9.80739
九一	-9.80843
一十三日	-9.80851
月孛	-9.8086
九十五	-9.80887
庚為	-9.80967
依此	-9.81133
輸	-9.81182
尺八寸	-9.81184
為從	-9.81195
西方	-9.81207
日周	-9.81242
所對	-9.81329
為從方	-9.81355
商數	-9.81357
是日	-9.81371
子為	-9.81433
壬丁	-9.815
下生	-9.81562
差也	-9.81587
順天府	-9.8187
創	-9.81882
矩形	-9.81969
之和	-9.81998
餘角	-9.82029
乘除	-9.82098
初虧復圓	-9.821
名為	-9.82196
黄緯	-9.82205
赤道之	-9.82207
均輪心	-9.82294
萬物	-9.82301
直角三角形	-9.82315
弦也	-9.82454
映	-9.82473
營	-9.82523
法得	-9.82524
淺	-9.82536
登	-9.82542
大數	-9.82568
繫	-9.82569
之㸃	-9.8262
得七	-9.82645
作㸃	-9.82677
自乗之	-9.82751
皇極	-9.82761
草曰置	-9.82772
相等則	-9.82849
限度	-9.82852
根多	-9.82994
所得之數	-9.83077
丁癸	-9.83097
闇虚	-9.83105
姑	-9.83137
庚午朔	-9.83147
相距之度	-9.83157
菽	-9.8316
又曰	-9.8317
所容	-9.83173
源	-9.83182
的	-9.83183
𤣥枵	-9.83237
之交	-9.83279
八一	-9.83299
壬甲	-9.83311
三卷	-9.83319
自然	-9.83349
數則	-9.83487
為半徑	-9.83501
一百零	-9.83578
日晷	-9.83582
四百九十	-9.83615
之經度	-9.83649
東西南北	-9.83674
步得	-9.83744
鼓	-9.83847
先生	-9.83851
此形有	-9.83914
之各	-9.83933
恰	-9.83938
小徑	-9.84039
二秒	-9.84068
二卷	-9.84292
順行	-9.84363
竅	-9.84456
定氣	-9.8447
則得	-9.84492
徐	-9.84495
於左	-9.84526
二十面體	-9.84552
遍乗	-9.84569
化為	-9.84582
次作	-9.84621
實望	-9.84682
亦若	-9.84688
本星	-9.84774
為句	-9.84828
距黄道	-9.84845
其行	-9.84914
立方之	-9.84943
輕	-9.85145
出地	-9.85203
兩六錢	-9.85225
告	-9.85253
現	-9.85256
一宫	-9.85291
持	-9.85303
大星	-9.85332
先後	-9.85345
作垂線	-9.85417
距北極	-9.8545
弧三角	-9.85453
開平方法	-9.85513
次年	-9.85517
氣差	-9.85589
之徑	-9.85619
本圏	-9.85632
如左	-9.85643
革	-9.85711
兩相等	-9.85756
直形	-9.85766
生光	-9.85781
四步	-9.85865
夾	-9.85878
之氣	-9.85912
以爲	-9.85921
共積	-9.8594
天地之	-9.86019
高下差	-9.86067
於甲	-9.86131
乙丙為	-9.86222
地平上	-9.86234
隨時	-9.86255
若干法以	-9.86256
餘割	-9.86306
地中	-9.86319
又自	-9.86376
十四度	-9.8642
七十四	-9.86472
圗	-9.86504
實以	-9.86529
伐	-9.86571
孟	-9.86588
楚	-9.86596
舛	-9.86606
者有	-9.86607
正方體積	-9.86616
尊	-9.86661
假令	-9.86673
弟	-9.86679
晨昏	-9.86687
因其	-9.86727
於戊	-9.86854
所減	-9.86891
五緯	-9.86919
四萬	-9.86974
數加	-9.86979
徑線	-9.86988
角形之	-9.86992
壬角	-9.86997
三色	-9.87051
三石	-9.8713
相距之	-9.8714
川	-9.87188
之正	-9.87193
稻	-9.87202
十四年	-9.87233
至丁	-9.87238
上廣	-9.87243
兩八錢	-9.87285
安得	-9.87296
違	-9.87299
最庳	-9.87344
應得	-9.87362
三乘方	-9.87391
次得	-9.87402
榖	-9.87426
尺五寸	-9.87499
以分母	-9.87502
兩星	-9.87509
朔實	-9.87611
壬庚	-9.87704
三十六尺	-9.87712
辛酉朔	-9.87884
專	-9.87971
叙	-9.87982
人之	-9.87999
臣等	-9.88051
四百四十	-9.88056
之象	-9.88079
實如法而一	-9.88098
仍以	-9.88104
定為	-9.88136
也如圖	-9.88156
丑角	-9.88278
原有	-9.88302
同理	-9.88331
角與	-9.88352
寄左	-9.88355
其間	-9.88379
倍之為	-9.88492
十八年	-9.88581
角旁	-9.886
太陽引數	-9.88623
丙癸	-9.88709
天度	-9.88735
半徑十萬	-9.88811
通股	-9.88827
甲丙乙	-9.88857
戊為	-9.88865
酉正	-9.89024
算之	-9.89094
癸壬	-9.8912
敢	-9.89187
眞	-9.89234
中間	-9.89311
詩	-9.89358
正對	-9.89363
五步	-9.89364
之光	-9.89374
乙東行	-9.89376
索	-9.89391
長方體	-9.89433
度四十分	-9.89435
犯	-9.89435
丈五尺	-9.89446
初均	-9.89448
七釐	-9.89453
八步	-9.89463
胃	-9.89506
紫	-9.89512
郡	-9.89513
兩半徑	-9.8952
如圖甲乙丙丁	-9.89529
維	-9.89618
乗除	-9.89637
盈厯	-9.89646
爲一	-9.89684
燈	-9.89719
視線	-9.89727
之術	-9.8973
法實	-9.89748
以較	-9.89759
辰巳	-9.8976
次求	-9.89778
定積	-9.89875
乗方	-9.89897
中行	-9.89911
九百六十	-9.89946
一小	-9.89973
斜距	-9.8999
南方	-9.90027
薄	-9.90034
九十一度	-9.90046
乙子	-9.90058
梨	-9.90079
觚	-9.90081
西厯	-9.90094
歌	-9.90124
迄	-9.90142
算法	-9.90144
一邉	-9.90154
之數以	-9.90213
子癸	-9.90224
二斤	-9.90265
七百八十	-9.90282
以除	-9.90605
正方體之	-9.90647
在午	-9.9069
為法除之	-9.9076
邉形	-9.90785
繇	-9.90803
竹	-9.90819
相加減	-9.90844
服	-9.90847
兩測	-9.90945
冬至後	-9.90969
交後	-9.90994
禮部	-9.90995
為界作	-9.91036
二等	-9.9105
丁為	-9.91067
也求	-9.91203
未有	-9.91229
引長	-9.91256
七秒	-9.91268
○○○○○	-9.91417
八刻	-9.91419
之景	-9.91421
縱横	-9.91428
雨水	-9.91464
本地	-9.91477
二十六日	-9.91494
鈐	-9.91591
至戊	-9.91632
日度	-9.9164
十九度	-9.91688
初限	-9.91864
在上	-9.91908
之大小	-9.92009
巻	-9.92056
十二兩	-9.92076
二兩	-9.9213
三百八十	-9.9218
仁	-9.92241
祥	-9.92245
匠	-9.9228
癸角	-9.92288
唯	-9.92293
灰	-9.9236
穀	-9.9237
歸之	-9.92371
自乘之數	-9.92383
三歸之得	-9.92415
億八千	-9.92432
測騐	-9.92501
加减	-9.9253
黄道髙弧交角	-9.92593
髙下	-9.92641
兩心視相距	-9.92712
九十七	-9.92744
五百四十	-9.92763
無窮	-9.92791
本輪心	-9.92823
則無	-9.92824
月心	-9.92826
進位	-9.9287
餘一	-9.92944
無可	-9.92963
超	-9.93112
五秒	-9.93132
四因	-9.93207
相和	-9.9321
下等	-9.9331
四石	-9.93333
弦較和	-9.93416
推歩	-9.93443
彼此	-9.93458
一斗	-9.9359
免	-9.93622
騾	-9.93686
九百二十	-9.93745
一十一分	-9.93775
十九分	-9.9378
從甲	-9.93799
可用	-9.93819
之緯度	-9.93823
列宿	-9.93847
昬	-9.93906
自乗再乗	-9.93922
零九	-9.9407
仍為	-9.94072
即乙	-9.94073
論之	-9.94334
㸃為	-9.94407
立算	-9.94424
角之度	-9.94425
句股和	-9.94445
利銀	-9.94562
初三刻	-9.94587
三兩	-9.94607
不齊	-9.94663
但知	-9.94686
為平	-9.94689
分四十五秒	-9.94724
甲丁戊	-9.94754
率以	-9.94888
三千六百	-9.94958
食在	-9.94983
約之得	-9.9511
日下	-9.95143
帶從	-9.95148
撮	-9.952
各角	-9.9527
趙	-9.95275
乙癸	-9.95311
恰盡	-9.95374
皆在	-9.95375
全與	-9.95394
十一宫	-9.95415
分度之	-9.95417
可推	-9.95443
四等面	-9.95657
食甚時	-9.95668
一十三度	-9.95675
靈	-9.95692
句弦和	-9.95694
長方積	-9.95763
勾股弦	-9.95767
衍	-9.95783
赤緯	-9.95844
月距	-9.95854
○○○○	-9.95858
也此法	-9.95879
在赤道	-9.959
相㑹	-9.95929
亡	-9.96004
其下	-9.96077
之初	-9.96087
内加	-9.96101
好	-9.96107
中央	-9.96112
某星	-9.96144
不易	-9.96159
寅卯	-9.96231
視半徑	-9.96279
平方多	-9.96399
五卷	-9.96406
分寸之	-9.96455
其光	-9.96558
五十九分	-9.96578
於乙	-9.966
加倍	-9.9667
五宫	-9.96671
不變	-9.96685
▁分	-9.9672
此以	-9.96759
隨地	-9.96764
黑	-9.96771
分二十五秒	-9.96798
所指	-9.96802
日子正初刻	-9.96802
平亷	-9.96822
丑癸	-9.96825
白平象限	-9.96875
西域	-9.96919
緞	-9.96975
合而	-9.97005
上亷	-9.97018
總弧	-9.97065
為亷法	-9.97092
長亷	-9.97096
十分内一秒冬至	-9.97134
十六年	-9.97177
初宫	-9.97251
約為	-9.97321
二升	-9.97373
本數	-9.97378
亦如	-9.97386
秉	-9.97457
板	-9.97463
方田	-9.97495
憲	-9.97519
差數	-9.97544
關	-9.97578
古今律厯考卷	-9.97587
麻	-9.97611
十五年	-9.97615
督	-9.97636
除法	-9.97641
每年	-9.97654
具題	-9.9785
應減	-9.97851
二十三度半	-9.97984
大徑	-9.98026
斜交	-9.98229
駝	-9.98235
太隂在	-9.98236
若干答曰	-9.98405
弧度	-9.98416
形如	-9.98416
追	-9.98427
四商	-9.98512
視距	-9.98512
八十二	-9.98551
髙下差	-9.98559
所截之	-9.98586
一十二分	-9.98668
錠	-9.987
之次	-9.98754
干	-9.98826
餘度	-9.98881
而半之	-9.9889
之意	-9.98905
二十五度	-9.98914
求作	-9.98945
及其	-9.98986
合問	-9.99023
浮	-9.99064
二道	-9.99078
白經高弧交角	-9.9909
示	-9.99122
牽牛	-9.99181
弓	-9.99234
弧線	-9.9941
大暑	-9.99411
上方形	-9.99416
轉終	-9.99466
方體	-9.99474
兩即	-9.9952
應加	-9.99521
兩五錢	-9.99563
六秒	-9.99653
二分内三十一秒冬至	-9.9966
卿	-9.99823
楞	-9.99825
千五百	-9.99861
冲	-9.999
試以	-9.99903
明之	-9.99907
正弧三角形	-9.99955
揲	-9.99991
太隂交周	-10.0005
丙丁戊	-10.001
朔策	-10.0012
四方	-10.0014
一萬六千	-10.0015
尺七寸	-10.0017
因得	-10.0035
二十四分	-10.0035
地上	-10.0035
即用	-10.0044
頭位	-10.0046
月壬戌朔	-10.0048
球上	-10.005
赤道上	-10.0056
月十六日	-10.006
者如	-10.0061
卅	-10.0064
截長	-10.0064
通之	-10.0066
戴	-10.0067
殷	-10.0068
形與	-10.0068
顧	-10.0068
堅	-10.0068
伏見輪	-10.0071
自甲	-10.0073
或問	-10.0074
回回	-10.0075
旋轉	-10.0079
遲速	-10.0081
脚	-10.0082
十八分	-10.0082
午後	-10.0094
連比例	-10.0095
入地	-10.01
七萬	-10.0104
乙丁丙	-10.0111
邊股	-10.0113
角體	-10.0115
有所	-10.0116
互相為比	-10.0121
僧	-10.0125
所成	-10.0131
合為一	-10.0132
股也	-10.0133
廢	-10.0136
歸之得	-10.0139
敬	-10.0143
入轉	-10.0145
歟	-10.0145
槐	-10.0149
立法測望	-10.0149
故不	-10.0149
寧	-10.015
如甲	-10.0154
之度分	-10.0159
化秒	-10.016
引長之	-10.0162
立圓	-10.0165
申酉	-10.0168
列於上	-10.0168
相當之	-10.0174
之道	-10.0174
二十六分	-10.0181
餘切	-10.0188
測算	-10.0189
捷法	-10.019
百里	-10.0196
一法	-10.02
九九九	-10.0208
下層	-10.0214
林鐘	-10.0217
相望	-10.0218
極出地	-10.0226
其長	-10.023
壬辰朔	-10.0231
樓	-10.0231
鄉	-10.0234
九萬	-10.0235
幾何原本	-10.0236
併之得	-10.0237
災	-10.0237
此即	-10.0238
問各	-10.0239
共為	-10.024
取之	-10.0243
客	-10.0244
之變	-10.0246
法求	-10.0246
相減為	-10.0255
太史	-10.0271
俱在	-10.0272
通分	-10.0275
心角	-10.0277
甲與乙	-10.028
之積也	-10.0288
與乙丁	-10.0289
南門	-10.0295
中線	-10.0296
五兩	-10.0298
線則	-10.0309
熒惑	-10.0313
其較	-10.0314
法同	-10.0314
陵	-10.0316
二十二度	-10.0327
鶉火	-10.0331
負縱	-10.0332
切圜	-10.0333
四秒	-10.0335
本表	-10.0339
每日平行	-10.0344
六刻	-10.0356
四十分	-10.0362
巳午	-10.0364
單數	-10.0376
十六分	-10.0378
十六兩	-10.0378
戊癸	-10.038
以减	-10.0384
全食	-10.0391
滅	-10.0394
資	-10.0395
酌	-10.0398
下亷	-10.04
周日	-10.0405
多于	-10.0405
十七分	-10.0406
出南門	-10.0406
二邊	-10.0409
其上	-10.041
諸曜	-10.0411
畫一	-10.0414
亦名	-10.0416
㡬何答曰	-10.0418
所截	-10.0418
立秋	-10.042
方廉	-10.042
庚癸	-10.0424
一十分	-10.0425
一億	-10.043
有四	-10.0433
用表	-10.0435
緯北	-10.0436
正弧	-10.044
變時	-10.0443
末位	-10.0447
以便	-10.045
測其	-10.045
必以	-10.0453
下位	-10.0469
恭	-10.0469
十分之	-10.0474
銳	-10.0476
乎曰	-10.0478
不知步數而立	-10.0478
覽	-10.0478
勞	-10.048
俟	-10.048
研	-10.0482
束	-10.0482
燕	-10.0488
尚有	-10.049
四百二十	-10.0493
又作	-10.05
分丈之	-10.0503
分得	-10.0506
上層	-10.0511
加于	-10.0517
丨為	-10.052
五百六十	-10.0522
相生	-10.0525
九釐	-10.0527
對減	-10.0528
田積	-10.053
弦與	-10.0532
一叚	-10.0532
同前	-10.0533
所求之	-10.0538
相求	-10.0545
姑洗	-10.0547
既有	-10.055
十四分内三十一秒冬至	-10.0552
度二十分	-10.0556
縂	-10.0557
桃	-10.0561
區	-10.0564
詔	-10.0564
為同數與左相消得	-10.0567
也又法以	-10.0569
支那	-10.0571
消長	-10.0575
六千六百	-10.0583
有時	-10.0584
食之	-10.0586
各自	-10.0586
一根多	-10.0586
黄道上	-10.0587
天眼	-10.0588
欽	-10.0589
不可以	-10.059
邊線	-10.0592
較之	-10.0607
九秒	-10.061
大火	-10.0617
一百二十五	-10.062
古厯	-10.0624
五等邊形	-10.0627
弦和和	-10.0635
至今	-10.0639
任取	-10.064
筩	-10.064
南呂	-10.0641
甲巳	-10.0642
正矢	-10.0643
不及減	-10.0645
七宿	-10.0649
舞	-10.0649
十兩	-10.0651
死	-10.0652
以自之得	-10.0656
月丁亥朔	-10.0658
渾員	-10.0661
一千九百	-10.0667
一兩	-10.0678
於地	-10.0681
卷第	-10.0686
得四率	-10.0688
於丙	-10.0693
然其	-10.0694
五十一秒	-10.0694
太陰在	-10.0695
赤經高弧交角	-10.0721
前圖	-10.0721
矣此	-10.0721
半外角	-10.0721
乃用	-10.0723
二百一十六	-10.0724
輔	-10.0727
寶	-10.0728
寅正三刻	-10.0729
自乘再乘得	-10.073
柳	-10.0731
等角	-10.0731
小形	-10.0734
昌	-10.0736
并之得	-10.0741
盈朒	-10.0743
未嘗	-10.0746
七十二度	-10.0748
二㸃	-10.0749
氣朔	-10.0749
不同故	-10.0752
歸除	-10.0755
亦曰	-10.0758
益隅	-10.076
句股較	-10.0761
最小	-10.0762
開之得	-10.0763
不在	-10.0765
二百二十五	-10.0773
晝長	-10.0775
共數	-10.0779
壬己	-10.0783
通為	-10.0787
七百五十	-10.0794
俱為	-10.0797
眼	-10.0797
雖有	-10.0804
自此	-10.0805
教	-10.0807
老	-10.0811
領	-10.0811
誠	-10.0816
闗	-10.0817
擇	-10.0819
為方法	-10.0822
弦較較	-10.0822
計都	-10.0822
求太陽	-10.0826
八七五	-10.0826
與左相消得	-10.0828
則不	-10.0828
九十四	-10.0829
築	-10.0829
億四千	-10.0839
尺折半得	-10.0847
縮厯	-10.0849
心作	-10.0849
景長	-10.0853
右上	-10.0856
甲子朔	-10.0861
降婁	-10.0871
實數	-10.0877
三十秒	-10.0883
郎	-10.0886
上等	-10.0887
六百八十	-10.0887
諸法	-10.0888
簡法	-10.0888
之法也	-10.0892
紗	-10.0893
繼	-10.0894
距最髙	-10.0898
末限	-10.0899
像	-10.0901
所存	-10.0901
應鐘	-10.0902
錄	-10.0902
丑正一刻	-10.0904
開得	-10.0911
舎	-10.0911
也然則	-10.0918
辰星	-10.092
餘弧	-10.0933
立夏	-10.0934
三線	-10.0936
以至	-10.0937
若在	-10.094
圜周	-10.0947
太陽行	-10.0957
原銀	-10.0958
見之	-10.0958
四十尺	-10.0964
之東	-10.0965
八百一十	-10.0966
尺數	-10.0967
也第	-10.0968
叀	-10.098
甲子日	-10.0982
愚	-10.0982
觀之	-10.0984
寳	-10.0985
陰陽	-10.0989
形之積	-10.0989
預	-10.0989
秒以	-10.0991
加減差	-10.0992
大邊	-10.0993
吉	-10.0994
六斗	-10.0994
萬一千六百	-10.0999
度一十分	-10.1006
九十度限	-10.1007
極逺	-10.1007
軌	-10.1008
至後	-10.101
在最髙	-10.1017
直線形	-10.102
爰以	-10.1023
何也曰	-10.1027
是謂	-10.1029
尖體	-10.1035
圜外切	-10.1035
午前	-10.1044
沒	-10.1046
千尺	-10.1053
二色	-10.1055
定度	-10.1056
如甲乙	-10.1058
與地	-10.106
紀日	-10.1066
保	-10.1066
而生	-10.1071
至丙	-10.1072
甲辰朔	-10.1074
數相乘	-10.1074
減從	-10.1075
片	-10.1075
戊申朔	-10.1076
定其	-10.1076
苐	-10.1077
甲乙乙丙	-10.1084
為二率今所設之	-10.1084
太陽實行	-10.1085
並以	-10.1087
二十五尺	-10.1088
該監	-10.1088
兩㸃	-10.1091
亦非	-10.1095
方錐	-10.1096
之一半	-10.1099
存弧	-10.1103
一周天	-10.1115
各異	-10.1119
日小餘	-10.112
倍大于	-10.112
蒙氣	-10.1122
勾股積	-10.1129
方靣	-10.1151
三十一分	-10.1151
餘二	-10.1152
觔	-10.1163
於丁	-10.1164
貴	-10.1165
棄	-10.1165
是知	-10.1177
均度	-10.1177
之餘切線	-10.1181
一百尺	-10.1184
丑甲	-10.1188
其義	-10.1189
四角	-10.119
五百二十	-10.1198
未及	-10.1201
呂	-10.1203
南北極	-10.1206
六七八	-10.1211
至元	-10.1212
相并	-10.1214
甲丙線	-10.1216
八百四十	-10.1217
其體	-10.1218
借數	-10.1222
六星	-10.1222
去地	-10.1224
遼史	-10.1227
一千四百四十	-10.1229
壬戊	-10.1229
二十一度	-10.123
一百三十五	-10.1232
定日	-10.1234
與他	-10.1236
下闊	-10.1238
今欲	-10.1243
形外	-10.1246
癸丙	-10.1246
二十八日	-10.1246
八百二十	-10.1247
庫	-10.1249
賢	-10.125
今用	-10.125
委	-10.1251
丈六尺	-10.1253
夷	-10.1253
緯差角	-10.1255
大小兩	-10.1256
達	-10.1256
六百六十	-10.1258
而行	-10.1266
得三百	-10.1275
圓體	-10.1282
者置	-10.1283
數如	-10.1289
衰分	-10.1289
太隂引數	-10.1294
又云	-10.1294
正月朔	-10.1295
内周	-10.1296
平行方形	-10.1296
不一	-10.1296
比例尺	-10.13
平方開之	-10.1303
三斗	-10.1304
平望	-10.1306
兩分	-10.1314
為一邊	-10.1318
一丈二尺	-10.1324
但以	-10.1325
日天	-10.1326
二千三百	-10.1331
絡	-10.1335
壬子朔	-10.1336
弗	-10.1336
在天頂	-10.1337
二千九百	-10.1337
依本	-10.1339
乙丑朔	-10.1344
千四百	-10.1346
岸	-10.1347
金水二星	-10.1347
幹	-10.1353
丈八尺	-10.1356
月日	-10.1359
之精	-10.1365
朔䇿	-10.1371
測候	-10.1373
依顯	-10.1373
與地平	-10.1373
也又如	-10.1376
對數	-10.1377
斜方形	-10.1378
大寒	-10.139
日道	-10.1391
所生	-10.1391
改正	-10.1393
定交角	-10.1399
表中	-10.14
三升	-10.1402
容圓	-10.1402
經星	-10.1405
本形	-10.1409
勾弦	-10.1409
三千二百	-10.1413
兩四錢	-10.1413
正割	-10.1415
𢃄	-10.1415
赤道北	-10.1421
鼎	-10.1428
之說	-10.1428
百二十	-10.1429
萬四千四百	-10.1433
憑	-10.1434
縦	-10.1435
皇帝	-10.1437
停	-10.1437
兩餘弦	-10.1437
各作	-10.1437
行至	-10.1437
十三分内三十一秒冬至	-10.1438
價銀	-10.1442
祭	-10.1443
七百六十	-10.1443
尖圓體	-10.1443
又用	-10.1444
丑初三刻	-10.1447
共行	-10.1449
億七千	-10.1449
明弦	-10.1453
三角尖堆	-10.1453
之分數	-10.1453
石為	-10.1458
於天	-10.1461
一十八度	-10.1462
如以	-10.1472
升度差	-10.1475
百刻	-10.1475
㸃在	-10.1475
辛甲	-10.1478
少一根	-10.1478
在黄道南	-10.1479
與庚	-10.1481
反減	-10.1484
雪	-10.1484
四邊形	-10.1485
與己	-10.1487
次輪半徑	-10.1488
二數	-10.1493
三十步	-10.1495
界角	-10.1498
抵	-10.1505
一錢	-10.1509
一立方	-10.1512
七分内一秒冬至	-10.1514
擬	-10.1516
從此	-10.152
后	-10.1521
為所求	-10.1521
熈	-10.1522
既與	-10.1524
頒	-10.1525
祐	-10.1525
正東	-10.1525
熟	-10.1528
表景	-10.1529
提	-10.1529
一數	-10.1533
較分	-10.1533
三十九分	-10.1543
遠近	-10.1544
隅算	-10.1546
食甚真時	-10.1547
實緯	-10.1564
度五十五分	-10.1569
一二五	-10.1571
夘酉	-10.1571
其底	-10.1574
新厯	-10.1577
弦和較	-10.1597
與天	-10.1597
小石	-10.1598
明股	-10.1602
數也此法	-10.1606
四十八分	-10.1613
裁	-10.1615
泉	-10.1616
六丈	-10.1618
一次	-10.1621
寒暑	-10.1622
三均	-10.1628
九兩	-10.1629
梵暦	-10.1632
減半周	-10.1633
次之	-10.164
小隅	-10.1641
兩二錢	-10.1642
天道	-10.1647
巳時	-10.1651
大衍厯	-10.1652
不敢	-10.1652
兩正弦	-10.1653
正方邊	-10.1654
天中	-10.1656
小弧	-10.1658
太陰距	-10.1659
月星	-10.166
黄經	-10.1672
日景	-10.1684
除之即得	-10.1685
之共價	-10.1686
北方	-10.169
光明	-10.1694
鉛	-10.1694
底線	-10.1695
一百九十二	-10.1696
上闊	-10.1703
二之一	-10.1704
牙	-10.1704
在黄道北	-10.1705
各省	-10.171
辭	-10.1711
三數	-10.1713
竊	-10.1713
效	-10.1714
失之	-10.1716
伽	-10.172
別	-10.1723
相減餘為	-10.1723
己為	-10.1724
線即	-10.1728
與丁丙	-10.1731
先用	-10.1732
同而	-10.1738
辛為	-10.174
半圜	-10.1749
月己亥朔	-10.1754
弧之餘弦	-10.1754
求初虧	-10.1763
界線	-10.1782
平行度	-10.1785
乙亥朔	-10.1786
開元	-10.1789
所變	-10.1793
􁀥	-10.1799
来	-10.1802
飛	-10.1803
又設	-10.1804
十一秒冬至	-10.1805
小邊	-10.1807
戊子朔	-10.1817
句弦較	-10.1822
之方	-10.1825
行步	-10.1829
物之	-10.1835
不得不	-10.1839
不同者	-10.184
四丈	-10.184
第二次	-10.184
十有二	-10.184
二十三分	-10.1841
所得數	-10.1847
其邊	-10.1854
億九千	-10.1856
幾倍	-10.187
孛	-10.187
還原	-10.1873
細行	-10.1876
小勾	-10.1878
二石	-10.1885
故謂之	-10.1888
○○○○○○○○○	-10.1891
私	-10.1892
雷	-10.1894
不復	-10.1896
骨	-10.19
掌	-10.19
呼	-10.19
惑	-10.1901
定尺	-10.1902
呈	-10.1903
延	-10.1905
書於方積	-10.1907
距等	-10.1908
之始	-10.1909
諸侯	-10.191
五分内一秒冬至	-10.1913
四根	-10.1915
倒景	-10.1916
閣	-10.192
小弦	-10.1923
甲乙甲丙	-10.1928
乙甲丙	-10.1929
周圍	-10.1935
月庚戌朔	-10.1939
在東	-10.1942
甲午朔	-10.1945
考之	-10.195
子角	-10.195
則知	-10.1952
次于	-10.1952
月丙戌朔	-10.1955
丈四尺	-10.1955
其形	-10.1957
夏至日	-10.1961
半較	-10.1961
梯形	-10.1968
逐日	-10.197
亦用	-10.197
各幾何法以	-10.1981
四十二分	-10.1983
又按	-10.1984
鍾	-10.1987
之弦	-10.1992
癸丁	-10.1994
項	-10.1994
正月甲戌朔	-10.1995
郭守敬	-10.1996
酉正三刻	-10.1998
素	-10.1999
一斤	-10.2
平弦	-10.2004
天文志	-10.2008
戊辰朔	-10.2009
分四十秒	-10.2016
五斗	-10.2018
行率	-10.2023
出地平	-10.2025
之事	-10.2031
則甲	-10.2031
球之	-10.2034
其距	-10.2034
句弦	-10.2041
限東	-10.2045
在地平上	-10.2047
兩直線	-10.2051
六宮	-10.2053
其半	-10.2055
大石	-10.2062
分一十五秒	-10.2062
也如圖甲乙	-10.2071
一百六十八	-10.2074
尺倍之得	-10.2082
九宫	-10.2082
二十日	-10.2083
淳	-10.2085
此則	-10.2089
合於	-10.209
吳	-10.2091
煩	-10.2092
津	-10.2095
廟	-10.2095
矣今	-10.21
為定	-10.2102
東井	-10.2107
初商次商之	-10.2112
加二	-10.2112
之正切線	-10.2114
一名	-10.2116
二千二百	-10.2117
之廣	-10.2118
黄帝	-10.212
里差	-10.2121
二月朔	-10.2122
尺以	-10.213
分内一十一秒冬至史	-10.2131
為同式形	-10.2136
計之則	-10.2146
三差	-10.2146
癸未朔	-10.2147
癸巳朔	-10.2147
萬九千六百	-10.215
如前法	-10.2153
之比例也	-10.2153
倣	-10.2162
之總	-10.2168
赤極	-10.217
治厯	-10.2173
三分内三十一秒冬至	-10.2174
一章	-10.218
于戊	-10.2182
徽	-10.2183
所對之數為	-10.2184
億六千	-10.2184
落	-10.2188
専	-10.2188
半弧弦	-10.2189
至己	-10.2189
演	-10.219
舟	-10.219
八百五十	-10.2191
窺衡	-10.2192
牆	-10.2194
二十九度	-10.2194
二千七百	-10.2199
小腰	-10.2199
大呂	-10.2206
黄鐘之	-10.2208
亦如之	-10.2209
之割線	-10.2209
也術曰	-10.2212
圓面	-10.2217
之比例亦	-10.2218
為鈍角	-10.2219
無異	-10.2228
查表	-10.2229
加縱	-10.223
壬午朔	-10.2234
推測	-10.2236
第一率	-10.2238
周徑	-10.2239
春正	-10.225
隅積	-10.225
問答同前法曰	-10.225
并得	-10.2256
此年	-10.2258
丙午朔	-10.2263
相離	-10.2264
九十分	-10.2268
偏西	-10.2271
夏至後	-10.2272
三十二分	-10.2272
辛亥朔	-10.2275
逐度	-10.2276
不相	-10.2279
大統厯	-10.2282
勿	-10.2287
斗五升	-10.2288
破	-10.2292
矣而	-10.2298
先定	-10.2299
以推	-10.2306
與原	-10.2306
之中率	-10.2312
次位	-10.2314
甲戌朔	-10.2322
即定	-10.2328
厯學	-10.2336
平員	-10.2339
上作	-10.234
一尺五寸	-10.2342
加於	-10.235
日月五星	-10.2352
之末	-10.2354
三㸃	-10.2359
而非	-10.2361
三錢	-10.2361
在位	-10.2365
丙弧	-10.2367
别有	-10.2368
接	-10.2369
正月甲子朔	-10.2371
去之餘	-10.2375
月十五日	-10.2375
裏	-10.2377
又將	-10.2378
分四十七秒	-10.2382
孰	-10.2385
必先	-10.2387
二十六度	-10.2388
獻	-10.239
透	-10.2393
天周	-10.2394
讀	-10.2394
住	-10.2396
衍母	-10.2396
與甲乙丙	-10.2397
之南	-10.2397
總銀	-10.2398
冷	-10.2402
幅	-10.2404
以象	-10.2406
學者	-10.2409
通法	-10.2412
實徑	-10.2414
等邉	-10.2415
一種	-10.2416
陽馬	-10.2416
㨗法	-10.2419
六十尺	-10.242
南緯	-10.2421
正月辛亥朔	-10.2421
夏正	-10.2424
甲心	-10.2429
三七五	-10.243
圓球徑	-10.2439
度三十一分	-10.2445
之線	-10.2446
葢以	-10.2451
正月甲寅朔	-10.2462
偏東	-10.2465
為初商	-10.247
實沈	-10.2472
長與闊	-10.2472
者何也	-10.2472
度盡	-10.2473
立面	-10.2476
癸辛	-10.2477
盈縮差	-10.2479
距地心之	-10.2486
矩内直角形	-10.2486
封	-10.2488
定法	-10.2488
濁	-10.249
分二十四秒	-10.2491
坐	-10.2493
乆	-10.2496
丑初一刻	-10.2497
蔽	-10.2498
為太隂	-10.2498
贏	-10.2498
未初二刻	-10.25
農	-10.25
為減差	-10.2503
球徑	-10.2504
半弧背	-10.2505
之實行	-10.2509
所居	-10.2514
圎球	-10.2514
為一分	-10.2524
次置	-10.2525
矣夫	-10.2529
箕宿	-10.2531
二十五分	-10.2533
白極	-10.2538
之共積	-10.2548
圜心	-10.2554
不滿法	-10.2561
之一分	-10.2568
分升之	-10.2568
五十尺	-10.2574
十一分内一秒冬至	-10.2577
若用	-10.258
是年	-10.2581
桅	-10.2586
邑	-10.2587
其地	-10.2588
急	-10.2588
烏	-10.2589
麗	-10.2589
次數	-10.2592
四分之三	-10.2592
魚	-10.2592
至此	-10.2594
為首率	-10.2595
想	-10.2595
其心	-10.2597
纂	-10.2598
六百七十	-10.2599
湏	-10.2601
六二五	-10.2603
行定度	-10.2608
查表得	-10.261
面體	-10.2615
得四百	-10.2615
形相似	-10.2616
以天元	-10.2617
宫度分	-10.262
渾象	-10.2621
出沒	-10.2624
幾分	-10.2624
變易	-10.2626
所言	-10.263
月經朔	-10.2633
正初刻	-10.2636
三除	-10.2637
不盡者	-10.2638
正方面積	-10.2647
小滿	-10.2648
詳見	-10.2652
北斗	-10.2653
亦皆	-10.2658
實交周	-10.2658
正南	-10.266
率得	-10.2661
辛未朔	-10.2662
萬八千八百	-10.2663
月令	-10.2665
閏三月	-10.2667
析木	-10.2673
一百零八	-10.2675
甲申日	-10.2675
為丁	-10.2676
限西	-10.2681
三之二	-10.2683
後世	-10.2684
堂	-10.2692
亥正一刻	-10.2695
郭	-10.2698
兩角形	-10.27
即丙	-10.27
易為	-10.2701
戌正三刻	-10.2702
三千九百	-10.2702
白羊	-10.2702
明徐光啟等撰	-10.2703
減差	-10.2706
仍用	-10.2709
分三十八秒	-10.2712
歲差	-10.2713
律中	-10.2715
内角	-10.2716
豈不	-10.2719
于是	-10.2726
圓田	-10.2726
古者	-10.2739
宮度	-10.2743
正交行	-10.2745
娵訾	-10.2745
大形	-10.2746
較弦	-10.2763
為比	-10.2764
明矣	-10.2766
術以	-10.2768
北緯	-10.2769
皆等	-10.2778
各減	-10.2781
運行	-10.2787
胡	-10.2789
白經	-10.279
三百七十	-10.279
限距地髙	-10.2793
二十七分	-10.2793
星行	-10.28
午初一刻	-10.2804
虞	-10.2805
収	-10.2805
乖	-10.2806
過象限	-10.2808
甲乙丙丁戊	-10.2809
障	-10.2809
不同而	-10.2809
天子	-10.2809
夜半日度	-10.281
勅	-10.2812
元史	-10.2823
赤道緯度	-10.2826
半較角	-10.283
相連	-10.2833
分四十六秒	-10.2835
建子	-10.2835
成直角	-10.2836
過冬至	-10.2837
無差	-10.2852
各加	-10.2855
甲丁為	-10.2856
戊己庚	-10.2857
己癸	-10.2862
從心	-10.2866
與甲戊	-10.2867
之前	-10.2869
壬午日	-10.2873
十七日	-10.2875
月癸亥朔	-10.2876
軸孔	-10.288
個	-10.2883
栗	-10.2887
湯	-10.2892
倚	-10.2894
二十三日	-10.2894
件	-10.29
前表	-10.29
五百九十	-10.2902
甲戊丁	-10.2905
李天經	-10.2905
旬	-10.2908
度三十五分	-10.2913
過極圏	-10.2914
五位	-10.2915
酉正一刻	-10.2916
五百七十	-10.2916
等因	-10.2917
囘	-10.292
挨	-10.292
得數為	-10.292
緯南	-10.2921
弧矢形	-10.2922
為心作	-10.2923
而言	-10.2925
求復圓	-10.2926
分内四十一秒冬至史	-10.2928
法列	-10.293
是爲	-10.2934
乙角之正弦	-10.2936
也按	-10.294
分三十三秒	-10.294
定望	-10.2944
算術	-10.2946
皆如	-10.2948
四正	-10.2951
為甲丙	-10.2961
二法	-10.2962
止用	-10.2963
辛丑朔	-10.2964
九百九十	-10.2966
之中心	-10.2971
北極髙	-10.2973
癸酉日	-10.2974
一斛	-10.2979
邊形之每一邊為	-10.298
後表	-10.298
也設	-10.2981
人在	-10.2984
輻線	-10.2991
甲乙丙形	-10.2995
中後	-10.3
幽	-10.3001
六月朔	-10.3002
既等	-10.3004
子甲	-10.3008
熊	-10.3011
講	-10.3013
為宮	-10.3014
己亥日	-10.3017
驢	-10.302
酉正初刻	-10.3021
距星	-10.3021
七星	-10.3022
七百三十	-10.3024
可以度盡	-10.3025
中等	-10.3026
分一釐	-10.3027
騎	-10.3032
而知	-10.3039
所多	-10.3047
八人	-10.3047
總衰	-10.3048
辰時	-10.305
土木	-10.305
五千四百	-10.3052
在黄道	-10.3057
十位	-10.3059
五倍	-10.3068
有大小	-10.3073
漸逺	-10.3077
八十度	-10.3078
方周	-10.3078
四之三	-10.3079
一十六度	-10.308
甲行	-10.309
角之切線	-10.3091
交行	-10.3091
西人	-10.3094
九百八十	-10.3097
影長	-10.3101
其術	-10.3102
未能	-10.3102
正月己巳朔	-10.3104
未申	-10.3104
每邊一尺二寸	-10.3109
澤	-10.3111
鑿	-10.3115
一嵗	-10.3115
月庚辰朔	-10.312
齘	-10.3121
注云	-10.3125
為中率	-10.3126
諸臣	-10.3127
福	-10.3128
為實法除實得	-10.3129
頃	-10.313
順逆	-10.3132
用減	-10.3132
在地平	-10.3145
查得	-10.3149
之對數	-10.3152
庚辛壬癸	-10.3157
丁戊線	-10.3158
甲子運	-10.3158
而有	-10.316
零數	-10.3163
史記	-10.3165
向南	-10.3165
立方籌	-10.3171
再乗	-10.3177
庚申朔	-10.3181
聖明	-10.3181
圓積	-10.3183
二十八度	-10.3189
乘方	-10.3197
也既得	-10.3198
星宿	-10.3199
故知	-10.3199
之餘割線	-10.3209
乙丙弧	-10.321
斗四升	-10.3211
宗動天	-10.3215
半徑一千萬	-10.3217
癸巳日	-10.3219
本輪之	-10.3221
静	-10.3221
凡有	-10.3223
沙	-10.3227
寅初二刻	-10.3232
申初初刻	-10.3233
視其	-10.3234
父	-10.3234
窖	-10.3236
五十二秒	-10.3236
丙午日	-10.3236
峯	-10.3238
守敬	-10.3238
聽	-10.3243
耗	-10.3246
自圜心	-10.3246
丙子朔	-10.3248
未正初刻	-10.3248
○○○○○○	-10.3251
初刻	-10.3252
四百一十	-10.3255
北極高	-10.3259
無射	-10.3261
申時	-10.3263
更之	-10.3263
丁巳朔	-10.327
何以知	-10.3273
角之餘弦	-10.3275
各邊	-10.3275
四百三十	-10.3278
子午線	-10.3281
方圓	-10.3284
起於	-10.3285
梯	-10.3288
視㑹	-10.3291
分一十一秒	-10.3296
爰	-10.3298
大者	-10.3299
衆星	-10.3303
遂成	-10.3307
一十九度	-10.3308
不知其	-10.3312
分一十四秒	-10.3312
為地平	-10.3312
作線	-10.3313
二十七秒	-10.332
小輪心	-10.332
棗	-10.3323
論曰此	-10.3325
中比例	-10.3326
丙申朔	-10.3331
二年正月	-10.3332
塵	-10.3335
所躔	-10.3336
算外	-10.3337
侵	-10.3338
日申正三刻	-10.3341
輿	-10.3341
露	-10.3343
逢	-10.3343
飯	-10.3345
為母	-10.3349
従	-10.3349
黄鍾	-10.335
日影	-10.335
兩率	-10.335
兩底	-10.335
平方少	-10.3352
距交實行	-10.3352
第一次	-10.3354
乙巳朔	-10.3357
和買	-10.3358
癸乙	-10.3361
兩次	-10.3365
二長方	-10.3366
一於左上為法置一	-10.3368
掩日	-10.3373
為兩平分	-10.3377
則於	-10.338
八線表	-10.338
幾何法	-10.338
所分之	-10.3382
八宫	-10.3382
三十五度	-10.3385
三百八十四	-10.3387
天上	-10.3388
二錢	-10.3389
經圈	-10.339
九步	-10.3392
度三十三分	-10.3394
戊寅朔	-10.3396
丙丁線	-10.3396
戊戌日	-10.3403
徑分	-10.3404
又多	-10.3407
一百二十度	-10.341
赤道髙	-10.3416
五丈	-10.3416
丁丑朔	-10.3421
辛巳朔	-10.3421
其時	-10.3424
戌初	-10.343
丁子	-10.3432
賜	-10.3434
七斗	-10.3442
戊戌朔	-10.3446
雙環	-10.3447
殺	-10.345
二十六秒	-10.345
五百三十	-10.3453
終古	-10.3454
華	-10.3456
郊	-10.3456
朔日	-10.3457
税	-10.3458
論曰試	-10.3461
定用分	-10.3463
之幂	-10.3466
太隂距	-10.3471
相减	-10.3472
進一位	-10.3473
乙亥日	-10.3475
為法除	-10.3475
三千四百	-10.3479
之容	-10.3479
省算	-10.3487
内又	-10.3489
鶉尾	-10.3496
廉隅共	-10.35
中心至	-10.35
黄道北	-10.3501
其日	-10.3501
除得	-10.3501
句股弦	-10.3511
折半為	-10.352
于丙	-10.3525
十三分内一秒冬至	-10.353
兩表	-10.3534
孔子	-10.3538
數相併得	-10.3539
庚辛壬	-10.354
但云	-10.3544
閏四月	-10.3553
租	-10.3553
太虚	-10.3557
課	-10.3558
子曰	-10.3558
毛	-10.356
相交之	-10.356
凢	-10.356
抑	-10.356
版	-10.3562
萬三千六百	-10.3562
大腰	-10.3563
六人	-10.3565
寅初初刻	-10.3566
丑正三刻	-10.3567
慶	-10.3567
隆	-10.3568
供	-10.3569
之異	-10.357
無疑	-10.3573
阿	-10.3574
乙寅	-10.3576
分四十八秒	-10.3576
乃得	-10.3576
價多	-10.3577
減積	-10.3588
又與	-10.3595
總積	-10.3601
至乙	-10.3605
八十尺	-10.3611
本天之	-10.3614
正月丙寅朔	-10.362
黄道積度	-10.3621
大夫	-10.3624
之本	-10.3625
正月丙午朔	-10.3633
辛亥日	-10.3643
各數	-10.3644
自行度	-10.3644
歲實	-10.3652
三十九秒	-10.3656
宿距星	-10.3656
乙行	-10.366
丑子	-10.3668
分二十八秒	-10.3668
平方得	-10.367
墜	-10.3671
比例等	-10.3671
為連比例	-10.3674
箭	-10.3675
廣袤	-10.3677
轉減	-10.3678
濕	-10.3679
紛	-10.3681
放	-10.3682
申正一刻	-10.3682
午正三刻	-10.3683
從乙	-10.3685
得一百二十	-10.3686
扁方體	-10.3686
為四率	-10.3697
陰厯	-10.37
一端	-10.3711
副置	-10.3712
加一倍	-10.3714
尺上	-10.372
尺六寸	-10.3734
六分内一秒冬至	-10.3735
測定	-10.3737
二極	-10.3738
則察	-10.3738
丁未朔	-10.3746
分内五十一秒冬至史	-10.3747
合天	-10.3747
地下	-10.3751
於下	-10.3753
積差	-10.3756
只用	-10.3758
交於	-10.376
視髙	-10.3762
線成	-10.3764
為二率以	-10.377
再乘得	-10.3775
鳴	-10.3779
癸未日	-10.3782
度三十六分	-10.3785
協	-10.3788
七十度	-10.3792
靜	-10.3793
此皆	-10.3796
殆	-10.3798
夀星	-10.3801
三十六分	-10.3809
無法	-10.3811
縱多	-10.3811
丙乙邊	-10.3813
之比例大于	-10.3815
為隅法併	-10.3816
丙寅朔	-10.3826
過心	-10.3827
癸亥日	-10.3828
大都	-10.3845
所由	-10.3846
小船	-10.3849
論其	-10.3851
二十四兩	-10.3852
所列	-10.3853
七百一十	-10.3855
求到	-10.3855
望見	-10.3861
秋正	-10.3863
所商	-10.3883
癸丑日	-10.3888
仲呂	-10.3892
萬六千四百	-10.3894
㳺	-10.3895
閏十二月	-10.3896
牽	-10.3896
籍	-10.39
量之	-10.3903
一十六分	-10.3906
蒼	-10.3906
萬八千四百	-10.3906
斗分	-10.3908
分三十四秒	-10.3908
多禄某	-10.3909
真時距分	-10.3909
魁	-10.3911
晦朔	-10.3911
欽定四庫全書新法算書卷	-10.3913
織	-10.3913
酉初三刻	-10.3914
二分之一	-10.3914
新法算書卷	-10.3915
墨	-10.3916
壬申日	-10.3918
日午初三刻	-10.3918
倶	-10.3918
四百六十	-10.3919
食甚實緯	-10.3925
食甚時刻	-10.3941
各幾何	-10.3947
寅角	-10.3947
之正矢	-10.3948
依前法	-10.3949
次均數	-10.3952
分四十三秒	-10.3954
二尺五寸	-10.3958
餘倣此	-10.396
月初一日	-10.3962
平儀	-10.3965
食時	-10.3968
又求得	-10.3973
中長	-10.3977
長方體積	-10.3979
在最卑	-10.3985
戊午朔	-10.3993
本度	-10.3995
與丙乙	-10.3996
已過	-10.3998
仍餘	-10.4002
五十刻	-10.4002
乙未朔	-10.4006
壬戌日	-10.4007
交泛	-10.401
八百六十	-10.4014
槳	-10.4014
大約	-10.4014
槩	-10.4021
費	-10.4022
殿	-10.4023
酉初一刻	-10.4024
羲和	-10.4024
為三商	-10.4026
戌初二刻	-10.4027
須彌	-10.4027
巳正三刻	-10.4028
杜	-10.4029
七百二十九	-10.4033
所成之	-10.4035
次用	-10.4036
正交中交	-10.404
三邊形	-10.4041
己丑朔	-10.4043
由是	-10.4045
上下兩	-10.4046
己丑日	-10.4048
必用	-10.4053
步問	-10.4054
或有	-10.4055
為益從	-10.4056
五分之一	-10.4057
戊寅日	-10.4058
盈不足	-10.4058
可謂	-10.406
丙丑	-10.4064
萬四千七百	-10.4065
四遊	-10.407
六百三十	-10.4071
全線	-10.4072
一十二度	-10.4075
員徑	-10.4076
併入	-10.4078
子寅	-10.408
甲寅朔	-10.4083
六卷	-10.4083
少於	-10.4084
竒零	-10.4085
平行作	-10.4092
元嘉	-10.4095
大弧	-10.4097
萬一千五百	-10.41
乙巳日	-10.41
戊子日	-10.4107
與食甚	-10.4108
弦線	-10.4108
萬二千四百	-10.4109
度二十九分	-10.4111
亷積	-10.4113
之北	-10.4123
正月戊寅朔	-10.4124
分三釐	-10.4126
測星	-10.4126
八石	-10.4128
扁	-10.4131
求等得	-10.4138
前後兩	-10.4139
秘	-10.414
揆	-10.4143
跡	-10.4143
距午赤道度	-10.4143
午初二刻	-10.4145
距赤道北	-10.4145
正月丁巳朔	-10.4145
容員	-10.4145
亥初初刻	-10.4145
中前	-10.4146
午正初刻	-10.4147
草曰别得	-10.4153
然後以	-10.4155
曹	-10.4155
辰時日食	-10.4157
甲乙弧	-10.4162
厯經	-10.4162
度五十六分	-10.4162
之天	-10.4165
平勾	-10.4167
中長線	-10.4172
卯正	-10.4174
一分内一秒冬至應閏	-10.4175
向北	-10.4176
八錢	-10.4178
尚未	-10.4179
西外	-10.418
大雪	-10.4181
横行	-10.4182
丙辰朔	-10.4183
東門	-10.4183
乘法	-10.4184
正月丁酉朔	-10.4185
星辰	-10.4185
二曜	-10.4189
乃自	-10.4193
至庚	-10.4195
計開	-10.4197
宗動	-10.4197
西行	-10.4205
割圓	-10.4209
朔巳時日食	-10.4211
定數	-10.4212
乙未日	-10.4214
見於	-10.4217
三乗方	-10.4222
七百四十	-10.4228
之言	-10.4231
者則以	-10.4234
本天半徑	-10.4239
庚寅日	-10.4242
度之通弦	-10.4248
有差	-10.4251
五石	-10.4252
本輪半徑	-10.4253
二十七度	-10.4259
大圜	-10.426
己未日	-10.4261
當食	-10.4265
耕	-10.4265
轂	-10.4267
俸	-10.4267
巳初一刻	-10.4268
敎	-10.4268
未初初刻	-10.4269
始於	-10.4271
距等圏	-10.4274
己巳朔	-10.428
各自乘	-10.4282
管長	-10.4283
不拘	-10.4287
四千八百	-10.4287
日午正初刻	-10.4288
一箇	-10.4289
數相減	-10.4292
二均	-10.4293
之比而得	-10.4294
黄方	-10.43
根數	-10.4301
減之得	-10.4307
先天	-10.4308
小寒	-10.4309
截濶	-10.4312
兩為二率	-10.4315
所加	-10.4317
三統	-10.4318
弦冪	-10.432
之三倍	-10.432
分一十秒	-10.4322
萬三千三百	-10.4326
中㑹	-10.4335
不異	-10.4338
萬分	-10.4338
夏之	-10.4345
度三十四分	-10.4346
度四十五分	-10.4347
漢書	-10.4351
皇極弦	-10.4359
乙南行	-10.436
卽得	-10.4365
甲寅日	-10.4367
十一分内三十一秒冬至	-10.4368
右下	-10.4369
最髙行	-10.4373
十月朔	-10.4374
半圏	-10.4375
髙股	-10.4376
島	-10.4377
博	-10.4378
貞	-10.4382
分五十三秒	-10.4383
狀	-10.4384
而立	-10.4385
聯	-10.4385
繪	-10.4385
丸	-10.4388
二平均	-10.4388
申初二刻	-10.4388
多者	-10.4389
晝夜長短	-10.4389
所餘之	-10.439
二十一秒	-10.439
同底	-10.439
畸零	-10.4392
差一度	-10.4394
寅正初刻	-10.4397
辰正初刻	-10.4398
視朔	-10.4399
出東門	-10.44
復圎	-10.4403
正月乙丑朔	-10.4412
者非	-10.4413
二三均數	-10.4416
鈍角形	-10.4417
野	-10.4421
首尾	-10.4423
四色	-10.4423
均圏	-10.4423
故名	-10.443
正月壬子朔	-10.443
向東	-10.4439
交定度	-10.4439
并等	-10.4441
方亷	-10.4449
分五十七秒	-10.445
正月乙巳朔	-10.4453
異同	-10.4456
其餘弦	-10.4457
之㫖	-10.4464
丑卯	-10.4466
任作	-10.4471
之逺近	-10.4473
池徑	-10.4474
正月庚寅朔	-10.4475
正月壬午朔	-10.4478
度三十八分	-10.4481
五十四分	-10.4483
底邊	-10.4486
通之得	-10.4487
測望	-10.4487
答	-10.4495
上兩直角方形并	-10.45
春分後	-10.4502
具奏	-10.4503
役	-10.4504
經曰	-10.4505
萬七千五百	-10.4505
步數	-10.4505
是名	-10.4508
扵	-10.4508
千六百	-10.4508
酉初初刻	-10.4509
再乘	-10.4512
戌正二刻	-10.4512
癸甲	-10.4512
同升	-10.4513
用其餘	-10.4514
一百五十七	-10.4516
大半	-10.4517
甲子年甲子月	-10.4518
触	-10.452
丙寅日	-10.4524
理分中末線	-10.4524
度五十八分	-10.4527
閏十月	-10.4536
遞減	-10.4536
丁酉朔	-10.4536
次形之	-10.4538
所論	-10.4541
厯理	-10.4552
一十三分	-10.4558
分一十二秒	-10.456
豈非	-10.4561
之法以	-10.4562
兩體	-10.4563
立冬	-10.4565
與甲庚	-10.4565
赤道南	-10.4568
累加之	-10.4569
也假如	-10.4574
及分秒	-10.4577
分四十九秒	-10.4578
丁丑日	-10.4581
二千一百	-10.4581
正月辛未朔	-10.4581
小圏	-10.4582
丁巳日	-10.4582
一十五分	-10.4587
二千六百	-10.4594
億二千	-10.46
之行度	-10.4601
直景	-10.4605
外面積	-10.4605
可作	-10.4615
或曰	-10.4616
萬二千八百	-10.4619
漢厯	-10.4619
賞	-10.4627
二百五十里	-10.4628
昧	-10.4631
楊	-10.4631
化作	-10.4631
同但	-10.4631
至地平	-10.4632
辰初初刻	-10.4633
戌亥	-10.4634
之度也	-10.4634
午初初刻	-10.4635
機	-10.4636
曽	-10.4636
俗	-10.4637
申初一刻	-10.4638
夏税	-10.4638
李淳風	-10.4639
辰正三刻	-10.4639
市	-10.4639
輕重	-10.4641
之際	-10.4642
初虧用時	-10.4645
日戌初三刻	-10.4645
着	-10.4648
洛	-10.4648
一百八十二	-10.4649
丁卯朔	-10.465
辛卯朔	-10.4652
之單位	-10.4658
武王	-10.466
癸酉朔	-10.4662
丁未日	-10.467
反是	-10.467
錦	-10.4683
三一四	-10.4684
弦幂	-10.4689
有食	-10.4697
作甲丁	-10.4698
第三次	-10.47
丑壬	-10.4703
嵗星	-10.4704
也蓋	-10.4707
正北	-10.4708
合于	-10.4719
億三千	-10.4721
三邉	-10.4728
平地	-10.4734
均輪半徑	-10.4739
度三十七分	-10.4746
惡	-10.4747
之端	-10.4747
欲以	-10.4747
左下	-10.4747
高下	-10.4748
二分五釐	-10.4748
聨	-10.475
鼈臑	-10.4752
其根	-10.4753
得一十二	-10.4755
針	-10.4755
庚辰日	-10.4756
庚子朔	-10.4756
從戊	-10.4756
漸近	-10.4756
庸	-10.4759
巳初二刻	-10.4761
兔	-10.4761
閉	-10.4762
喜	-10.4762
舜	-10.4762
咨	-10.4763
羅㬋	-10.4763
對角斜線	-10.4764
豫	-10.4767
相似而體勢等	-10.4769
僖公	-10.477
為加差	-10.477
申時日食	-10.477
六等邊形	-10.4771
六十兩	-10.4771
迨	-10.4772
乙酉朔	-10.4772
㢘	-10.4774
三千一百	-10.4774
凡言	-10.4776
此術	-10.4777
圜積	-10.478
廣狹	-10.478
攝	-10.478
臣淳風等謹按	-10.4782
齊其	-10.4783
真數	-10.4785
横量	-10.4788
丈尺	-10.4797
作識	-10.48
二十一分	-10.48
交處	-10.4806
六百一十	-10.4808
分一十九秒	-10.4811
小時	-10.4819
遊	-10.4821
表端	-10.4823
下方	-10.4826
戊辰日	-10.4827
公同	-10.4828
子壬	-10.4831
改元	-10.4836
盈縮厯	-10.4837
故云	-10.4841
一十二尺	-10.4843
四十五分	-10.4844
各節氣	-10.4845
無定	-10.4847
夷則	-10.4856
本天心	-10.4856
度四十三分	-10.486
撱圓體	-10.4865
過九十度	-10.4874
朓朒	-10.4875
以此為	-10.4878
三千五百	-10.488
疇	-10.4881
丁乙丙	-10.4882
初虧真時	-10.4883
二千八百	-10.4884
戊申日	-10.4884
随	-10.4886
純	-10.4887
一切	-10.4888
康熙	-10.4891
寅正一刻	-10.4891
日亥初二刻	-10.4892
剖之	-10.4893
閲二百十六期積七萬八千八百九十	-10.4893
才	-10.4894
甲乙戊	-10.4896
收之得	-10.4897
子正一刻	-10.4898
剰	-10.49
逺鏡	-10.4902
級	-10.4902
乙丁線	-10.4903
公論	-10.4903
豐	-10.4905
寅初三刻	-10.4905
已上者	-10.4905
此線	-10.4909
正月丁丑朔	-10.4911
兩旁	-10.4919
庚申日	-10.492
一十四度	-10.4921
界作	-10.4933
無數	-10.4933
一百七十六	-10.4936
圓界	-10.4936
丙申日	-10.4939
衍數	-10.4946
乙丙邉	-10.4947
七月朔	-10.4951
二差	-10.4958
所少	-10.4959
己卯朔	-10.4962
截取	-10.4966
正月甲午朔	-10.4966
戊午日	-10.4966
百分之	-10.4969
行遲	-10.497
五百一十	-10.4971
内減之餘	-10.4972
虚勾	-10.4976
二十二秒	-10.4977
共銀數	-10.498
割圜	-10.4981
靑	-10.4991
萬五千二百	-10.4994
左上	-10.4998
倍積	-10.5
正西	-10.5001
甲戌日	-10.5006
反之	-10.5007
豪有餘	-10.5008
月輪	-10.501
乾隆	-10.5011
亞	-10.5012
辯	-10.5017
臆	-10.5018
綱	-10.5018
基	-10.502
庚戌日	-10.5021
癸丑朔	-10.5022
腹	-10.5022
疊	-10.5023
苟	-10.5023
空心	-10.5024
赤道經緯度	-10.5024
揚	-10.5027
下弦	-10.5027
帶兩縱	-10.5028
渾天儀	-10.5029
錐體	-10.503
實均	-10.503
異併	-10.5032
列於下	-10.5032
與丙戊	-10.5033
所記	-10.5037
表間	-10.5054
度二十五分	-10.5057
清明	-10.5058
萬三千五百	-10.5065
乙卯朔	-10.5065
靈臺	-10.5066
五錢	-10.5066
諸天	-10.5067
為平實	-10.5082
諸家	-10.5083
丙與丁	-10.5094
交㑹	-10.5094
下長	-10.5102
辛壬癸	-10.5103
徧	-10.5103
相通	-10.5109
上弦	-10.5112
萬三千四百	-10.5122
分三十二秒	-10.5122
庚寅朔	-10.5122
得下式	-10.5123
秒二十微	-10.5127
過此	-10.5128
一匹	-10.5131
求弦	-10.5132
譬	-10.5148
料	-10.5148
啟	-10.515
次輪心在	-10.5151
崇	-10.5152
十一月朔	-10.5153
丑初二刻	-10.5153
霜降	-10.5154
雅	-10.5156
淳風	-10.5156
自相乗得	-10.5157
筒	-10.5157
少廣	-10.5157
履	-10.5159
開方除之	-10.5165
下數	-10.5169
比例法	-10.5174
必得	-10.5174
最高行	-10.5176
也如有	-10.5177
立於	-10.5177
廉隅	-10.5186
羅計	-10.5187
線引長	-10.5189
之勢	-10.5195
己未朔	-10.5206
甲丙戊	-10.5206
每度	-10.5215
七分内三十一秒冬至	-10.5219
為帶縱	-10.5219
蒙氣差	-10.5225
初次	-10.5226
一十度	-10.523
己巳日	-10.523
晨見	-10.5239
萬三千二百	-10.5243
一百一十二	-10.5245
又法以	-10.5245
日行一度	-10.5253
即得所求	-10.5254
三月朔	-10.5255
萬五千六百	-10.5262
之學	-10.5264
弧之度	-10.5265
碗	-10.5268
夾鐘	-10.527
壬丑	-10.5272
棊	-10.5273
交均	-10.5274
也但	-10.5274
病	-10.5275
羲	-10.5278
與戊乙	-10.5279
兩界	-10.528
正月丁未朔	-10.5281
淵	-10.5282
清蒙	-10.5287
日未正二刻	-10.5288
婆	-10.5289
辰正二刻	-10.529
各面	-10.529
啓	-10.5291
二十九分	-10.5291
黄赤二道	-10.5292
黄白大距	-10.5292
南北二極	-10.5294
三十尺	-10.5295
鈞	-10.5297
入表	-10.5297
立三角	-10.5298
二十面體之	-10.5303
閏二月	-10.5303
次行	-10.5309
不止	-10.5309
井深	-10.531
相符	-10.5313
每面	-10.5314
乗方積	-10.5316
兩角等	-10.5325
四因之得	-10.5328
異類	-10.533
四千二百	-10.5333
處暑	-10.5338
七分半	-10.5349
度分秒	-10.5351
一百一十五	-10.5355
甚逺	-10.5356
與丁己	-10.5359
底徑	-10.536
欲作	-10.5362
壬癸子丑	-10.5368
必須	-10.5376
乙酉日	-10.5378
物價	-10.5379
一尺四寸	-10.5385
立垂線	-10.5386
潮	-10.5393
對角之	-10.5396
五千六百	-10.5401
不出	-10.5405
稷	-10.5407
髙弦	-10.5407
半總	-10.5407
月甲申朔	-10.5411
容積	-10.5415
發斂	-10.5416
奉㫖	-10.5416
只云	-10.5418
早晚	-10.5419
噐	-10.5421
休	-10.5421
亥初一刻	-10.5422
官生	-10.5423
子正三刻	-10.5426
斜弧三角形	-10.5427
勾圓差	-10.5432
八十兩	-10.5436
二十年	-10.5442
二兩四錢	-10.5449
司天	-10.545
二百三十五	-10.5454
三九八	-10.5456
燈體	-10.5459
同異	-10.546
二十步	-10.546
四千九百	-10.5463
初末	-10.5464
二百五十六	-10.5464
己酉朔	-10.5465
辛子	-10.5466
大船	-10.5468
甲申朔十一月	-10.547
太陰實行	-10.5475
分三十六秒	-10.548
五百七十六	-10.5488
之餘弧	-10.5492
得二千	-10.5492
閏五月	-10.5495
順天	-10.5499
半和	-10.55
尺卽	-10.5505
度五十一分	-10.5509
月實行	-10.5514
丁亥日	-10.5521
萬六千八百	-10.5524
萬二千六百	-10.5525
十四秒	-10.5529
未盡	-10.5531
二均數	-10.5535
甲丁線	-10.5536
一疋	-10.5539
月晦	-10.554
長廣	-10.5545
為半徑作	-10.5548
襄	-10.5549
兌	-10.555
辛丑日	-10.5552
紙	-10.5552
吏	-10.5553
凝	-10.5554
田苗	-10.5556
獲	-10.5557
正月壬辰朔十一月	-10.556
日辰初一刻	-10.556
營室	-10.556
驚蟄	-10.5561
一百二十八	-10.5563
閲	-10.5565
丑正初刻	-10.5566
日亥初三刻	-10.5569
仰觀	-10.5569
斗柄	-10.557
股圓差	-10.5571
昭公	-10.5574
年差一度	-10.5575
厯元甲子年	-10.5576
三十二尺	-10.5577
分釐	-10.5579
去減	-10.5582
全形	-10.5586
大一倍	-10.5586
地體	-10.5587
次均輪	-10.5588
分五十四秒	-10.5589
除之即得今有	-10.559
二萬四千	-10.559
兩个	-10.5597
四分内三十一秒冬至	-10.5599
相因	-10.5602
蔡	-10.5603
兩矢較	-10.5606
上元	-10.5609
一百二十六	-10.5611
建寅	-10.5614
小雪	-10.5615
分一十六秒	-10.5618
相等故	-10.5619
二百四十三	-10.562
無光	-10.563
上一位	-10.5635
在赤道南	-10.5643
律厯	-10.5651
七丈	-10.5657
三十三度	-10.5658
分四十二秒	-10.5659
五千七百	-10.568
三四五	-10.5681
與丁乙	-10.5683
甲午日	-10.5687
矩内形	-10.5689
苦	-10.5689
去離	-10.5691
壽	-10.5693
尼	-10.5693
舒	-10.5693
加時定星	-10.5693
即為所求	-10.5694
平年	-10.5695
明邢雲路撰	-10.5698
幷	-10.5698
爐	-10.5699
温	-10.57
寅初一刻	-10.5702
殘	-10.5704
相乘得數	-10.5704
遵㫖	-10.5705
弦與勾股和之較	-10.5705
巳初三刻	-10.5708
紐	-10.5711
故必	-10.5715
亦大于	-10.5716
尺九寸	-10.572
翻法	-10.5724
丙戌朔十一月	-10.5725
第四率	-10.5728
周公	-10.5729
厯代	-10.5739
朱子	-10.5739
皆非	-10.5739
個月	-10.5744
周禮	-10.5745
萬四千八百	-10.5745
黄道宿度	-10.5751
得六百	-10.5752
癸卯朔	-10.5756
共重	-10.5757
三十一日	-10.5764
己子	-10.5766
一百四十七	-10.5767
在限西	-10.5769
分五十六秒	-10.5776
尚書	-10.5779
日出分	-10.5781
八六六	-10.5782
乙丙底	-10.5783
切形	-10.5792
乙丑日	-10.5801
度二十一分	-10.5803
斜冪	-10.5809
萬一千八百	-10.581
斗八升	-10.5813
所立	-10.5817
既同	-10.5818
天象	-10.5825
日軌	-10.5826
四千六百	-10.5828
所云	-10.5828
實髙	-10.583
暮	-10.5831
日南至	-10.5831
濟	-10.5834
訓	-10.5836
勤	-10.5837
日申正二刻	-10.5838
日辰初二刻	-10.584
可知也	-10.584
摩	-10.5841
正實	-10.5842
不知步數	-10.5842
弦與勾股較之較	-10.5846
池積	-10.5854
兩分母	-10.5854
甲銀	-10.5858
十等邊形之	-10.5864
次輪周	-10.5866
相消	-10.5867
修改	-10.5869
參差	-10.587
在本天	-10.5871
一十五日	-10.5872
辛未日	-10.5876
朔旦冬至	-10.5878
止有	-10.5878
七錢	-10.588
股冪	-10.5884
術曰列	-10.5888
九萬六千	-10.5888
乙甲丁	-10.5889
運轉	-10.5892
復圓真時	-10.5898
未知	-10.5899
自乗之正方	-10.59
法除實得	-10.5908
已來	-10.5909
合朔時	-10.5913
氣應	-10.5914
隂陽厯	-10.5914
倍于	-10.5915
冬夏至	-10.5918
閏十一月	-10.5919
置一自之	-10.592
萬八千七百	-10.592
己庚辛	-10.5921
丙乙丁	-10.5922
極星	-10.5933
復於	-10.5935
癸己	-10.5936
在赤道北	-10.5937
弧正弦	-10.594
乗商	-10.594
午時日食	-10.595
設如有銀	-10.5954
黄道極	-10.5957
友	-10.5961
丙戌日	-10.5964
允	-10.5965
此書	-10.5966
紹	-10.5969
至辛	-10.5971
傅	-10.5972
天左旋	-10.5978
幸	-10.5978
卯初一刻	-10.5978
日丑初初刻	-10.598
救	-10.598
日申正初刻	-10.5982
藉	-10.5984
鹿	-10.5985
緣	-10.5985
漢志	-10.5985
丙子年戊子月	-10.5985
日申初三刻	-10.5986
日巳正初刻	-10.5987
内去	-10.5991
5	-10.5991
0	-10.5991
雀	-10.5992
下文	-10.5992
之日數	-10.5996
子午圈	-10.5997
四月朔	-10.5998
分内一秒冬至	-10.6001
七十二步	-10.6006
不可得	-10.6012
交道	-10.6019
庚戌朔十一月	-10.602
陽城	-10.602
午中	-10.6023
貫文	-10.6041
弦實	-10.6045
在限東	-10.6045
大典	-10.6065
甲辰日	-10.6069
改商	-10.6073
為法除實得	-10.6076
七十五度	-10.6081
七百九十	-10.609
從廉	-10.6092
六十步	-10.6094
上三星	-10.6096
退位	-10.6104
由此	-10.6104
丙辰日	-10.6107
庚辰朔	-10.6114
燭	-10.6116
一萬八千	-10.6116
𫝊	-10.6118
伸	-10.6118
過極	-10.6118
邱	-10.612
橋	-10.6122
亭	-10.6123
與丙甲	-10.6123
吕	-10.6124
甲辰朔十一月	-10.6124
五月朔	-10.6125
半徑全數	-10.6125
竝	-10.6126
宣城梅文鼎撰	-10.6126
日巳正二刻	-10.6127
庚子年丙子月	-10.6129
九百一十	-10.613
次商廉隅之共積	-10.613
戊子年壬子月	-10.613
五十八度	-10.6131
股率	-10.6132
辛酉日	-10.6133
邦	-10.6134
境	-10.6135
股弦差	-10.6136
屏	-10.6137
界形	-10.6138
南行步	-10.6139
冬夏	-10.6145
小暑	-10.6157
五毫	-10.6161
乙丙丁戊	-10.6167
第十一	-10.6169
日未正一刻	-10.6172
數也葢	-10.6174
有常	-10.6176
丙子日	-10.6177
一千萬	-10.6177
復圓用時	-10.6183
太陽距天頂	-10.6185
己亥朔十一月	-10.6187
大邉	-10.6191
三分内三十一秒冬至應閏	-10.6199
史二月	-10.62
四萬八千	-10.6205
按此術	-10.6209
員周	-10.6216
十二律	-10.622
徑一尺二寸	-10.6222
六十秒	-10.6227
數相併	-10.6231
所多之	-10.6232
俱相等	-10.6234
月癸夘朔	-10.6236
行一周	-10.6243
自相等	-10.6244
閏八月	-10.6246
之羃	-10.6246
壬辰日	-10.6255
正方積	-10.6261
末作	-10.6264
距南	-10.6267
掛	-10.6268
䝉	-10.6269
二十四刻	-10.627
荒	-10.6271
萬四千五百	-10.6271
緒	-10.6272
二十一尺	-10.6272
塊	-10.6273
干支	-10.6274
亥正二刻	-10.6274
日亥正三刻	-10.6274
衛	-10.6275
衣	-10.6275
夜子初三刻	-10.6275
戊與己	-10.6276
日子正二刻	-10.6277
日距正交	-10.628
測髙	-10.6281
退行	-10.6283
永短	-10.6284
隅因得	-10.6284
日午正一刻	-10.6285
武帝	-10.6287
一萬三千	-10.6289
虧復	-10.6289
日酉初二刻	-10.6297
立天元一	-10.6305
上編	-10.633
又論曰	-10.6341
八十分	-10.6355
三百七十五	-10.6358
在斗	-10.636
四十六分	-10.6364
十三尺	-10.6365
日子正後	-10.6375
十一秒	-10.6382
百七十	-10.6386
十二辰	-10.6391
統天厯	-10.6391
九千四百	-10.6396
丁心	-10.6398
定表	-10.6401
歷	-10.6403
于己	-10.641
俯	-10.6411
之餘切	-10.6416
襍	-10.6416
東移	-10.6418
踈	-10.642
日戌初初刻	-10.6423
巳正一刻	-10.6424
正月戊子朔十一月	-10.6424
日戌初一刻	-10.6424
園	-10.6425
消息	-10.6425
分五十八秒	-10.6425
枝	-10.6429
甲㸃	-10.6432
髙與闊	-10.6433
乙與丙	-10.6435
十六秒	-10.6435
根相等	-10.6437
尖方體	-10.6442
一尺六寸	-10.6449
下式	-10.6451
每匹	-10.6457
斜步	-10.646
儀象	-10.6461
度四十七分	-10.6467
平引	-10.6498
月光	-10.6501
度五十七分	-10.6509
黄道宫度	-10.6513
所知	-10.6521
分五十九秒	-10.6523
撱	-10.6523
地平線	-10.6529
辛巳日	-10.653
已下者	-10.6536
八分内一秒冬至	-10.6538
丁酉日	-10.6542
益廉	-10.6542
如此則	-10.6551
庚子日	-10.6552
龠	-10.6552
分三十五秒	-10.6555
最上	-10.6558
闡	-10.6559
日寅正二刻	-10.6561
昊	-10.6563
屈	-10.6568
所借	-10.6571
礙	-10.6571
不足減	-10.6572
加減表	-10.6572
賣	-10.6573
院	-10.6574
訪	-10.6574
需	-10.6575
戰	-10.6575
日辰正一刻	-10.6575
帶分	-10.6575
日戌正一刻	-10.6575
欠	-10.6575
邜	-10.6576
萬四千六百	-10.6577
禄	-10.6577
一尺一寸	-10.6578
禪	-10.6579
卯正二刻	-10.658
綂	-10.6582
進呈	-10.6582
概	-10.6583
八月朔	-10.6584
章月	-10.6589
食甚交周	-10.6589
暑	-10.659
誌	-10.6592
乙亥朔十一月	-10.6592
一二四	-10.6597
晝短	-10.6597
正切線	-10.6599
前商	-10.6603
不入食限	-10.661
對邉	-10.661
子正初刻	-10.661
八百八十	-10.6613
萬六千二百	-10.6614
度四十六分	-10.6622
影半徑	-10.6623
甚大	-10.6625
降婁宫	-10.6632
以漸而	-10.6639
九錢	-10.6646
十分之一	-10.6647
原有之	-10.6649
遲疾厯	-10.6649
交地平	-10.6651
原設	-10.6651
近少	-10.6651
閏七月	-10.6652
厯官	-10.6657
㨗	-10.6674
嵗周	-10.6681
金史	-10.6685
一十七度	-10.6686
測景	-10.6687
得所求	-10.669
所能	-10.6691
全體	-10.6692
爽	-10.6705
稿	-10.6708
奉有	-10.6712
鹽	-10.6713
次引	-10.6717
矢較	-10.6719
交㸃	-10.672
鑄	-10.6721
距等圈	-10.6721
彼此減盡	-10.6723
念	-10.6724
至元辛巳	-10.6727
日酉正二刻	-10.6727
一尺三寸	-10.6727
觧	-10.6729
夘時	-10.673
排	-10.673
撿	-10.673
日亥正初刻	-10.6732
賈	-10.6732
淨	-10.6732
冬夏二至	-10.6734
十五分内一十一秒冬至	-10.6735
食甚定分	-10.6736
子母	-10.6737
大火宫	-10.6737
萬三千八百	-10.6743
克	-10.6743
簡易	-10.6749
伏乞	-10.675
一百五十六	-10.6754
厯象	-10.676
石四斗	-10.6761
圓面積	-10.6764
六百二十	-10.6766
以甲為心	-10.677
又以初商之	-10.6773
冬至日躔	-10.6789
捷	-10.6789
一十一度	-10.6794
渾圜	-10.68
與城相叅直	-10.6804
步問答同前法曰	-10.6813
月丁夘朔	-10.6813
三百六十五度	-10.6816
莫不	-10.6819
秒五十微	-10.6821
只有	-10.6829
可得而	-10.6834
度二十四分	-10.6836
七等邊形之	-10.6839
巳角	-10.6839
八毫	-10.6849
星距地	-10.6853
八等邊形之	-10.6857
紀元厯	-10.686
四千三百	-10.6869
去人	-10.6869
二百八十八	-10.687
兩心實相距	-10.687
嗣	-10.6878
為二率半徑一千萬為三率求得四率	-10.6879
壤	-10.6879
養	-10.688
二十五步	-10.6881
閏六月	-10.6887
施行	-10.6887
尺書於原積	-10.6888
日巳初初刻	-10.6888
遊表	-10.6889
日辰初三刻	-10.6891
月己夘朔	-10.6897
瑟	-10.6897
日午正二刻	-10.6897
月壬申朔	-10.6897
三長廉	-10.6903
皇上	-10.6904
陣	-10.6907
六百五十	-10.6909
三十五分	-10.6911
弧背	-10.6912
若干度	-10.6918
長方面積	-10.6922
萬九千二百	-10.6926
用此法	-10.693
小圜	-10.693
八百七十	-10.6931
勾自乘	-10.6935
下編	-10.6937
魏書	-10.6937
人居	-10.695
宜加	-10.6961
五十五秒	-10.6965
度五十二分	-10.6966
相逺	-10.6968
五十三度	-10.6974
列實	-10.6978
緯圏	-10.6978
若夫	-10.6979
米一石	-10.6983
第十二	-10.6983
失閏	-10.6984
錢數	-10.6985
近時距分	-10.6997
小差股	-10.7002
正月己丑朔	-10.7002
甚微	-10.7003
交實緯角	-10.7015
五百五十	-10.7018
平分線	-10.7023
二十四氣	-10.7029
龜	-10.7031
輳	-10.7031
初虧前設時	-10.7036
秋分後	-10.7036
問城徑釋曰	-10.7036
蛇	-10.7036
十四分内二十一秒冬至	-10.7036
穀雨	-10.7039
所傳	-10.7039
混	-10.704
誰	-10.7042
十二根	-10.7043
璣衡	-10.7043
優	-10.7044
粗	-10.7045
二十九日五十三刻	-10.7046
壬子年庚子月	-10.7047
其較則	-10.7047
晨前夜半	-10.7048
距食甚之	-10.7049
2	-10.7052
東行步	-10.7058
定真時	-10.7058
四十步	-10.7059
回暦	-10.706
每一面	-10.7063
乙丙戊	-10.7064
任意	-10.7069
有二一	-10.707
四億	-10.7072
丙巳	-10.7073
癸亥朔十一月	-10.7076
初虧近時	-10.7083
簡儀	-10.7083
先求得	-10.7086
一七三	-10.7089
必大於	-10.709
所以然者	-10.7092
三十一度	-10.7099
時三刻	-10.7099
累加	-10.7103
相乘之數	-10.7104
冬十月	-10.7106
既等則	-10.7109
萬一千四百	-10.7111
一萬一千	-10.7111
草曰	-10.7114
大差勾	-10.7116
益實	-10.712
十二分内一秒冬至	-10.7122
壬寅日	-10.7126
赤道積度	-10.7127
夕見	-10.7128
文公	-10.7132
以日法	-10.7132
晨分	-10.7135
所到	-10.7137
光體	-10.714
天漢	-10.7144
大圈	-10.7151
衝太陽	-10.7159
亷隅	-10.717
距算	-10.7173
直線上	-10.7173
七百七十	-10.7175
虚股	-10.7176
又法用	-10.7179
子正後	-10.7181
六分之一	-10.7182
􁷷	-10.7187
為所求之	-10.7189
布算	-10.7191
益積	-10.7192
卄	-10.7196
沿	-10.7196
倫	-10.7197
宇	-10.7199
彌	-10.72
芒種	-10.7201
感	-10.7201
績	-10.7203
杓	-10.7204
倘	-10.7207
日丑正二刻	-10.7207
帛	-10.7208
北極出地四十度	-10.7209
淺深	-10.7209
愈大	-10.721
三百六十六日	-10.721
内减	-10.7213
多祿某	-10.7214
迦	-10.7215
三百一十五	-10.7215
泥	-10.7215
八分内三十一秒冬至應閏	-10.7217
月距正交	-10.7218
自西而東	-10.7219
黄赤交角	-10.722
躔差	-10.722
甲丙乙丁	-10.722
兄	-10.7221
三角形内	-10.7221
晷景	-10.7224
分體線	-10.7229
尺相乗得	-10.7232
萬八千三百	-10.7233
丈三尺	-10.7235
一萬四千	-10.7236
直田	-10.7237
丑丁	-10.7241
九分内二十一秒冬至	-10.7243
必大于	-10.7246
分三十一秒	-10.725
萬一千九百	-10.725
正月壬申朔	-10.7258
相掩	-10.7265
太陽太隂	-10.7265
界所作	-10.7267
如前圖	-10.7269
二八五	-10.7275
適當	-10.7276
百億	-10.7281
八千一百	-10.7283
正月戊戌朔	-10.7289
右例	-10.73
一二三四	-10.7301
度四十四分	-10.7305
萬二千七百	-10.7306
萬二千二百	-10.7306
一百七十五	-10.7309
正月乙未朔	-10.731
朔朢	-10.7315
三百六十五	-10.7317
在正午	-10.7326
修厯	-10.7328
之正弦為二率	-10.734
任用	-10.7345
子丑寅	-10.7349
朓	-10.735
萬七千四百	-10.735
探	-10.7351
巴	-10.7358
崩	-10.7359
高庳	-10.736
送	-10.7361
十一分内五十一秒冬至	-10.7363
旗	-10.7364
顓頊	-10.7366
叔	-10.7367
乾坤	-10.7368
卯初二刻	-10.7369
一百三十二	-10.737
日未正三刻	-10.7371
長方體之	-10.7373
御覽	-10.7375
所生之	-10.7376
焯	-10.7376
開三乘方	-10.7377
不爽	-10.7387
所照	-10.739
兩平行線	-10.7393
合前問今有	-10.7398
丁丙邉	-10.7412
自乗之方	-10.7414
月己未朔	-10.7414
癸卯日	-10.7419
作垂弧	-10.7419
度五十三分	-10.7425
而一所得	-10.7428
相直	-10.7433
太陰平行	-10.7433
方環	-10.7437
十二宮	-10.7437
本色	-10.7439
次第	-10.7441
六秒四十微	-10.7452
○○○○○○○	-10.7454
負積	-10.7454
尺相乘得	-10.7462
半城徑	-10.7462
子辛	-10.7463
正月戊午朔	-10.7465
入地平	-10.7469
實朢	-10.7469
丙角正弦	-10.747
太隂實行	-10.747
度三十二分	-10.7473
句幂	-10.7474
一百三十八	-10.7474
若干度分	-10.7474
第二率	-10.7482
即所求解曰	-10.7487
七升	-10.7488
所得四率	-10.7489
諸書	-10.7504
綴	-10.7504
宣明厯	-10.7509
愈多	-10.751
嚮	-10.7518
域	-10.7518
悟	-10.7525
螺旋	-10.7525
征	-10.7527
常見	-10.7527
瓜	-10.7528
旱	-10.7528
三辰儀	-10.7531
班	-10.7532
洪武	-10.7533
夜子初初刻	-10.7534
正月辛丑朔	-10.7535
韓	-10.7537
倂	-10.7538
閻浮提	-10.7539
十二刻	-10.7539
勒	-10.7539
圜面積	-10.7541
卯初三刻	-10.7542
甲乙丙角	-10.7544
4	-10.7544
納糧	-10.7544
卻	-10.7546
盟	-10.7549
開皇	-10.7551
皆倣此	-10.7552
半周天	-10.7561
日躔月離	-10.7561
十等邊	-10.7562
分二十三秒	-10.7564
四十四度	-10.7565
俱倣此	-10.7568
分二十九秒	-10.7574
云我	-10.7581
度二十八分	-10.7597
髙庳	-10.7597
午位	-10.7604
平靣	-10.7612
斗六升	-10.7625
為初商積	-10.7631
水火	-10.7645
受光	-10.765
萬九千五百	-10.7664
開立方得	-10.7666
夘辰	-10.7669
太隂距地	-10.7669
重修大明厯	-10.7673
有盈縮	-10.7678
度四十一分	-10.768
藝	-10.7685
歳周	-10.7686
試作	-10.7687
新法算書	-10.7688
剛	-10.7691
三千三百	-10.7693
刋	-10.7695
垜	-10.7696
正月癸酉朔	-10.7697
甲戊線	-10.7698
塞	-10.7698
赤道宿度	-10.7699
遥	-10.77
北極距天頂	-10.7705
脱	-10.7705
徹	-10.7706
崑崙	-10.7706
況	-10.7706
欽此欽遵	-10.7708
日戌正初刻	-10.7708
分一十七秒	-10.7708
歳差	-10.7709
芻	-10.7709
縮初盈末	-10.7712
尖堆	-10.7714
七十分	-10.7715
萬七千八百	-10.7715
該部	-10.7715
距地心線	-10.7715
製造	-10.7716
九百五十	-10.7717
一百二十尺	-10.7717
星外増	-10.7718
日食分秒	-10.7726
逐度之	-10.7727
未初一刻	-10.7732
十二月朔	-10.7738
六百二十五	-10.7745
倍之即	-10.7746
全圜	-10.7749
正月癸巳朔	-10.7751
二百四十步	-10.7753
欽此	-10.7757
丈二尺	-10.7766
試自	-10.7769
所説	-10.7772
實沈宫	-10.7773
一十八秒	-10.7778
七千五百	-10.7781
小僧	-10.7784
分野	-10.7803
丁丙邊	-10.7827
正球	-10.7838
三百三十六	-10.7855
三萬六千	-10.7857
分角線	-10.7861
平方籌	-10.7864
四乘方	-10.7865
瓣	-10.7865
該臣	-10.7867
雍	-10.7868
竪	-10.7869
三事和	-10.7872
括	-10.7872
嚴	-10.7874
洞	-10.7874
土木火三星	-10.7875
獸	-10.7875
舌	-10.7876
油	-10.7876
賦	-10.7877
材	-10.7877
証	-10.7878
甘	-10.7878
祗	-10.7878
遽	-10.7879
食既生光	-10.7879
鉤	-10.7879
順減差	-10.7881
偏南	-10.7882
如後圖	-10.7882
太强	-10.7883
卯正初刻	-10.7885
盈初縮末	-10.7885
鎮	-10.7886
恭進	-10.789
倚壁	-10.789
癸未朔十一月	-10.7891
爻策	-10.7892
襄公	-10.7892
日蝕	-10.7897
宫度分秒	-10.7901
丙角之正弦	-10.7901
址	-10.7903
益亷	-10.7906
日未初三刻	-10.7907
六分内五十一秒冬至	-10.7917
十分内三十一秒冬至	-10.7917
愈逺	-10.7917
晝刻	-10.7927
試將	-10.7927
析木宫	-10.7929
初末限	-10.7938
定母	-10.7938
三千八百	-10.7946
邊形之一邊	-10.795
渾體	-10.7956
九十六刻	-10.7962
髙四尺	-10.7967
寅丑	-10.7968
根既與	-10.7968
度一十五分	-10.7973
絲六忽	-10.7979
星紀宫	-10.7979
萬七千二百	-10.7982
最髙衝	-10.7994
求積法	-10.7995
如圖甲為	-10.7998
在小輪	-10.7998
寅卯辰	-10.8008
年天正冬至	-10.8012
亷隅共	-10.8014
斜升	-10.8019
問今有	-10.8022
上袤	-10.8024
癸子丑	-10.8029
香	-10.8034
甲乙丙圜	-10.8036
庾	-10.8036
闚	-10.8038
壍堵	-10.8042
斂	-10.8042
曷	-10.8046
博士	-10.8046
測量全義	-10.8047
慎	-10.8047
甄鸞	-10.8048
卯初初刻	-10.8048
駁	-10.8049
避	-10.805
卯正一刻	-10.8052
害	-10.8053
値	-10.8056
屋	-10.8057
也合問或問	-10.8058
丑戊	-10.8059
竺	-10.806
銜	-10.806
一千四百六十一	-10.8062
奪	-10.8064
/○)□	-10.8067
㪷	-10.8076
土圭	-10.8076
相結	-10.8083
増減	-10.8085
半嵗周	-10.8095
極高	-10.8096
一丈三尺	-10.8098
再開	-10.81
大抵	-10.8101
三百尺	-10.8104
丙申朔十一月	-10.811
股幂	-10.8136
每户	-10.8136
等角形	-10.8141
發明	-10.8143
有餘為三率求得四率	-10.8147
比例四率	-10.815
分三十七秒	-10.8154
閏九月	-10.8156
斜面	-10.8169
逓減	-10.8178
庚巳	-10.8188
月十二日	-10.8193
文王	-10.8199
線即成	-10.8215
夕伏	-10.8221
瓦	-10.8222
凌	-10.8224
踵	-10.8224
莊	-10.8226
穆	-10.8226
三之得	-10.8227
逐宫逐度	-10.8227
之正弦為三率求得四率為	-10.8228
美	-10.8229
丞	-10.8231
錯綜	-10.8231
充	-10.8231
刀	-10.8232
那	-10.8232
揺	-10.8232
鮮	-10.8234
何承天	-10.8236
為一根之數卽	-10.8237
復圓前設時	-10.8238
五百一十二	-10.824
3	-10.824
人分之人得	-10.824
日月星辰	-10.824
高與闊	-10.8242
辦	-10.8245
度二十二分	-10.8248
十二分内四十一秒冬至	-10.8255
癸庚	-10.8277
日軌高	-10.828
年八月	-10.8283
與前同	-10.8287
近逺	-10.8291
萬四千九百	-10.8314
丙辰朔十一月	-10.8322
米價	-10.8322
五邊形	-10.8343
夜刻	-10.8348
黃赤	-10.8356
正月丙子朔	-10.8363
九等邊形之	-10.8369
地平經度	-10.8376
一兩二錢	-10.8378
圖説	-10.838
為正弦得	-10.8389
侍	-10.8392
榮	-10.8394
夀	-10.8394
分四十一秒	-10.8399
太陽黄道經度	-10.84
談	-10.8402
兩數相減	-10.8405
綿	-10.841
稅	-10.8411
纔	-10.8412
勿菴	-10.8413
之度展開勿令移動次取	-10.8414
迴	-10.8417
邵	-10.842
1	-10.8423
上中下	-10.8425
太隂實引	-10.8427
不同心圏	-10.8428
山頂	-10.8429
綆	-10.8435
年為萬厯	-10.8437
千百	-10.8437
太陽髙弧	-10.8439
春秋二分	-10.8441
癸丑朔十一月	-10.8441
千五百六十	-10.845
距赤道南	-10.8461
甲丙邉	-10.8467
正月戊辰朔	-10.8479
日有食之	-10.8483
戊申朔十一月	-10.8491
各幾何答曰	-10.8494
唐書	-10.8499
實經度	-10.8499
一百二十步	-10.8503
也如甲乙丙丁	-10.8506
在其中	-10.8519
一十三秒	-10.8528
萬五千八百	-10.8542
三百二十四	-10.8559
瓶	-10.8585
橫	-10.8586
四角尖堆	-10.8587
擊	-10.8588
社	-10.859
庭	-10.8591
育	-10.8594
柔	-10.8594
初虧復圓距弧	-10.8595
禹	-10.8596
變宮	-10.8596
炎	-10.8597
渠	-10.8597
二分内一秒冬至	-10.8599
如圖甲為地心	-10.86
榴	-10.86
茫	-10.8601
爲實實如法得	-10.8609
一百一十九	-10.8609
兩角亦等	-10.8613
歴代	-10.8614
一百九十六	-10.8619
遍乘	-10.8621
輔臣	-10.8622
號為加	-10.8624
臣鸞曰求	-10.8628
掩食	-10.8628
乾象	-10.8638
平朢	-10.864
逺臣	-10.8651
宻合	-10.8653
名之曰	-10.8653
分尺之	-10.8662
一千五百二十	-10.867
萬九千九百	-10.867
號籌	-10.8675
互相為比之比例	-10.8677
刻强	-10.8687
月蝕	-10.8691
作一直線	-10.8702
五分之三	-10.8705
萬六千九百	-10.8705
荅曰	-10.8708
長方體形	-10.871
三百四十三	-10.8714
逐月	-10.8724
行疾	-10.8726
七十五秒	-10.8731
無餘分	-10.8737
丈一尺	-10.8742
籌算	-10.8745
旗杆	-10.8761
電	-10.8775
軒轅	-10.8777
湖	-10.8778
惜	-10.8781
釘	-10.8781
桓	-10.8782
被	-10.8783
宫至十一宫	-10.8784
黄平象限宫度	-10.8786
逾	-10.8787
夜子初二刻	-10.8788
厚薄	-10.8788
往往	-10.879
起復方位	-10.879
各幾何法借一根為	-10.8792
以法命之	-10.8793
顆	-10.8793
該部知道	-10.8793
◇	-10.8795
堤	-10.8795
九月朔	-10.8797
一平均	-10.8798
廷	-10.88
人目所見	-10.88
表裏	-10.8805
猶未	-10.8808
均數時差	-10.8808
恆星	-10.8813
十分為一率	-10.8819
相加共得	-10.8823
五秒五十微	-10.8831
欽若	-10.8839
黄米	-10.8843
嵗輪心	-10.8855
不能盡	-10.887
六百九十	-10.8882
相比之比例	-10.8887
乙酉朔十一月	-10.8903
再加之比例	-10.8908
四百尺	-10.8908
地靣	-10.8921
視經度	-10.8923
一百四十四尺	-10.8926
朔日有食之	-10.8933
外切渾圓	-10.8962
遶	-10.8966
之倍度	-10.8968
垓	-10.8968
為下法與上法相乘除實	-10.897
株	-10.8971
惠	-10.8971
三分内一秒冬至	-10.8973
爭	-10.8973
􁆣	-10.8973
宅	-10.8975
祖冲之	-10.8975
兩下相較則	-10.8975
囘囘	-10.8975
通分内子	-10.8976
刹那	-10.8978
夜子初一刻	-10.8978
不應食	-10.8979
半晝分	-10.898
冠	-10.8982
相等則一根必與	-10.8984
夘時日食	-10.8984
竣	-10.8984
予	-10.8984
乙出東門南行	-10.8985
長亷法	-10.8988
自東而西	-10.8991
察其所對之	-10.8994
分一十三秒	-10.9003
步即所求解曰	-10.9012
庚子朔十一月	-10.9014
兩角并	-10.9016
考驗	-10.9017
運動	-10.9019
連比例三率	-10.9022
相減所餘	-10.9024
以高乘之	-10.9035
五分之二	-10.9036
正月庚申朔	-10.9039
太陰經度	-10.904
陽氣	-10.9041
距午正	-10.9047
步問城徑釋曰此	-10.9055
恒氣	-10.9068
二行差	-10.9075
圎面積	-10.908
立天元	-10.9081
己酉朔十一月	-10.9082
某宿	-10.9085
同減盡	-10.911
可以知	-10.9111
地盤	-10.9116
之比也設如	-10.9119
二人共	-10.9123
分四十四秒	-10.9123
七千三百	-10.9129
荅	-10.9144
拘	-10.9144
甲乙與乙丙	-10.9151
挈	-10.9158
□□□□	-10.9159
五乘方	-10.9159
勻	-10.9165
洪	-10.9165
正月辛巳朔	-10.9165
岳	-10.9166
伊	-10.9166
卵	-10.9168
欺	-10.917
朞	-10.917
淡	-10.9171
前汎時	-10.9172
相等乃以	-10.9177
踰	-10.9177
覩	-10.918
黄赤大距	-10.9181
畣曰	-10.9181
𤓰	-10.9183
冊	-10.9186
寺	-10.9187
用三率法	-10.9192
種種	-10.9197
為法而一得	-10.9197
食甚定時	-10.9198
尖圎體	-10.9203
萬五千五百	-10.9215
角之矢	-10.9215
絲二忽	-10.922
八十秒	-10.923
與半周相減餘	-10.9237
遞次	-10.9239
甲乙丙勾股形	-10.924
晷面	-10.9247
距最高	-10.925
萬零六百	-10.9259
二秒三十微	-10.926
萬七千七百	-10.9276
正月丙辰朔	-10.929
石五斗	-10.9293
萬六千七百	-10.9302
左傳	-10.9307
一千一百五十	-10.9315
數也設如有	-10.9318
乙甲丙角	-10.9324
在次輪	-10.9341
氣積分	-10.9348
甲縣	-10.9348
氣定積	-10.9356
摺	-10.9357
上考往古則置	-10.9362
恆	-10.9363
哀	-10.9363
角之外角	-10.9364
套	-10.9365
責	-10.9365
遊表看	-10.9367
匀	-10.9369
助	-10.937
融	-10.9371
三邊求角	-10.9372
星距黄道線	-10.9373
選	-10.9374
腳	-10.9377
勾股弦總和	-10.9378
錘	-10.9379
抱	-10.9379
圓球内容	-10.9382
交常度	-10.9384
6	-10.9385
畔	-10.9385
然後以天元	-10.9387
一十二萬	-10.9387
總積六千三百	-10.9387
鑒	-10.9389
四秒一十微	-10.9395
張衡	-10.9401
脊	-10.9408
増題	-10.9419
西儒	-10.9433
秋七月	-10.9443
往南	-10.9448
本時太陽	-10.9453
斷比例	-10.946
絶無	-10.9467
立成表	-10.9478
三等邊形	-10.9486
目力	-10.9487
出入地平	-10.9493
其所以然	-10.9528
尺為三率求得四率	-10.9531
正四刻	-10.9533
氣汎積	-10.9539
磨	-10.9542
兑	-10.9559
贅	-10.956
禁	-10.9563
絲八忽	-10.9564
內	-10.9567
譏	-10.9568
八百三十	-10.9569
聊	-10.9572
銷	-10.9572
丹	-10.9573
寒露	-10.9574
每石價	-10.9574
肅	-10.9576
律呂	-10.9577
卯正三刻	-10.9578
弦筭	-10.9579
算七百	-10.958
糲米	-10.9581
以合原數也	-10.9582
燥	-10.9583
大明厯	-10.9583
兩心相距	-10.9584
状	-10.9586
罪	-10.9587
植	-10.9587
學習	-10.959
周天三百六十度	-10.9591
游移	-10.9591
縮初	-10.9591
杜注	-10.9595
繕	-10.9596
故下紀	-10.96
分面線	-10.9604
三百四十八	-10.9609
長圎體	-10.9609
未免	-10.9617
四分内四十一秒冬至	-10.9621
月食分秒	-10.9631
金環	-10.9644
癸子丑寅	-10.9653
反覆	-10.9653
同在一	-10.9657
所值	-10.9666
每疋	-10.967
北極髙度	-10.9689
逆推	-10.9704
丁與戊	-10.9712
論曰試作	-10.9725
三百七十八	-10.9727
庳	-10.9727
二分内四十一秒冬至	-10.9734
三分内二十一秒冬至	-10.9745
沈	-10.9747
印	-10.976
乞	-10.9762
十餘度	-10.9766
寡	-10.9771
奥	-10.9774
伍	-10.9776
傭	-10.9777
蘋果	-10.978
鼔	-10.978
諭	-10.9785
悖	-10.9785
紅	-10.9786
用表之法以	-10.9786
兩表相距	-10.9787
俾	-10.9788
為二率今所設之圜徑一尺二寸	-10.9789
捴	-10.9789
溢	-10.979
霜	-10.9791
璿璣	-10.9793
堯典	-10.9794
遙	-10.9796
7	-10.9797
七秒三十微	-10.9798
萬五千三百	-10.9798
禍	-10.9799
昏旦	-10.9801
嵩	-10.9801
僦	-10.9802
每邊之半	-10.9813
二兩五錢	-10.9813
為半徑冪	-10.9816
彗星	-10.9829
石八斗	-10.9832
奏聞	-10.9838
之比例同於	-10.9842
年即魏	-10.9845
幾何法先	-10.9852
角之割線	-10.9854
相减餘	-10.986
度二十七分	-10.9868
漢史	-10.987
步只云	-10.9897
娵訾宫	-10.9903
日及分	-10.9917
初四刻	-10.9934
别作一	-10.9942
鶉火宫	-10.9959
七十六兆一	-10.9964
理分中末	-10.9966
晚	-10.9985
為相當比例四率	-10.9991
雙魚	-10.9995
羅雅谷	-10.9995
亢氐	-10.9996
天文算法類	-10.9996
闢	-10.9997
撥	-10.9998
土木二星	-10.9999
行天一周	-11
佐	-11
三分益一	-11.0001
甲乙二人俱在	-11.0002
本天心距地數	-11.0002
宗皇帝	-11.0002
白露	-11.0002
機輪	-11.0004
歌白泥	-11.0004
之比即同於今所設之	-11.0004
長比闊多	-11.0006
孟春	-11.0008
昇	-11.0008
採	-11.0009
恩	-11.0009
二分内三十一秒冬至應閏	-11.0012
太史令	-11.0012
黄赤距度	-11.0012
耀	-11.0014
九秒一十微	-11.0014
臣李天經謹題為	-11.0014
步為從	-11.0023
本巻	-11.0025
度四十九分	-11.0026
盈縮遲疾	-11.0032
二十三度三十分	-11.0051
二率三率	-11.0108
四百零	-11.0116
勾股相乘	-11.0126
十五丈	-11.0133
兩數相減餘	-11.0144
二四六八	-11.0149
謹按	-11.015
相減之餘	-11.0151
七千二百	-11.0177
積算九千六百九十	-11.0178
積算二千八百六十	-11.0179
積算八千八百六十	-11.0179
正月乙酉朔	-11.018
梅	-11.0181
髀	-11.0189
虎	-11.0198
蕤賔	-11.0198
二千五百二十	-11.0203
之正切線檢表得	-11.0205
藏經	-11.0206
郭太史	-11.0209
奚	-11.021
黄長弦	-11.021
抽	-11.0212
弩	-11.0214
遭	-11.0215
蘇	-11.0217
勾股求弦	-11.0218
䂓	-11.0219
覈	-11.0219
臘	-11.0219
鴈	-11.022
新法厯書	-11.0224
甲從乾隅	-11.0225
遣	-11.0226
台	-11.0227
哀公	-11.0231
既内分	-11.0231
夜望月食	-11.0231
除之亦得	-11.0232
平立合差	-11.0233
五千八百	-11.0235
釐二毫	-11.0237
開方而得	-11.0242
天秤	-11.0244
相和折半	-11.0248
䑓	-11.0249
八十二秒	-11.0252
分零八秒	-11.0253
黃道經度	-11.0253
異號	-11.0266
變徵	-11.0273
十萬分之	-11.0289
萬四千三百	-11.0317
夏四月	-11.0331
自丁至	-11.0333
萬一千二百	-11.0352
一千二百五十	-11.0358
同式形	-11.0364
萬九千七百	-11.0368
維乘	-11.0376
史四月	-11.0392
積算三千	-11.0401
二十一兆六千九	-11.0401
釡	-11.0408
刻半强	-11.0409
自丙至	-11.0413
黄平限	-11.0416
遊旋赤道	-11.0421
往東	-11.0422
熙	-11.0426
實如法得一	-11.0426
甲乙丙角形	-11.0426
嶽	-11.0428
賓	-11.0429
靡	-11.043
等謹案	-11.0433
采	-11.0433
其號為減	-11.0433
招	-11.0433
陸費墀	-11.0435
月恭校上	-11.0435
毅	-11.0435
昀	-11.0436
化秒為三率求得四率為秒以分収之得	-11.0436
汝	-11.0436
核	-11.0436
陞	-11.0437
莊公	-11.0437
六合儀	-11.0437
賀	-11.0438
城外西北乾隅	-11.0438
盈末厯	-11.0439
三百六十五度四分度之一	-11.044
也此法葢因	-11.0442
唐虞	-11.0442
吉凶	-11.0443
豕	-11.0445
六分内一秒冬至應閏	-11.0447
回回厯	-11.0448
升度時差	-11.045
峻	-11.0451
浸	-11.0452
𢃄縱	-11.0453
瞿曇	-11.0453
太祖	-11.0456
萬八千九百	-11.0468
千四百六十一	-11.0475
上下左右	-11.0483
鬼宿	-11.0498
萬八千六百	-11.0523
日軌髙	-11.0529
火土	-11.0537
某宫	-11.0547
借衰	-11.0563
六分之五	-11.0564
六千七百	-11.0577
月十四日	-11.0592
與半周相減	-11.0597
夏至之日	-11.0604
躔離	-11.0608
段一差	-11.0608
等邊形之毎一邊	-11.0612
蕤	-11.0647
儀象志	-11.0652
絲一斤	-11.0654
英	-11.0655
卓	-11.0655
含	-11.0657
為對所求之角其正弦	-11.0659
匏	-11.066
韶	-11.066
莽	-11.0661
利瑪竇	-11.0662
蓍	-11.0663
戍	-11.0663
以少減多	-11.0666
朦	-11.0667
慮	-11.0668
與今所得之	-11.0669
歛	-11.067
為下法與上法相乘除實盡	-11.067
帯	-11.067
凑	-11.0671
草曰立天元一為	-11.0672
迭	-11.0673
8	-11.0676
肉	-11.0676
9	-11.0677
男	-11.0678
擔	-11.0678
星増一星	-11.0678
彈	-11.0679
欹球	-11.068
泛立較	-11.0681
臨期	-11.0681
二十三度二十九分	-11.0683
仲春	-11.0685
斜倚	-11.0686
徧乗	-11.0688
填星	-11.069
萬九千八百	-11.0703
二徑折半	-11.0714
圓柱	-11.072
七分内四十一秒冬至	-11.073
度一十三分	-11.0732
遼	-11.0732
互相視	-11.0734
七兩五錢	-11.0746
體之容	-11.0749
鶉尾宫	-11.0798
臣鸞曰	-11.0813
臺官	-11.0845
劉徽	-11.0867
欹	-11.0879
内容渾圓	-11.088
貨	-11.0882
謙	-11.0883
襲	-11.0888
黄道赤經交角	-11.0888
一分内四十一秒冬至	-11.0888
宛	-11.0889
偃	-11.089
偽	-11.0893
全數十萬	-11.0893
分零六秒	-11.0893
溪	-11.0894
織女	-11.0894
厯算全書卷	-11.0895
判	-11.0895
總積六千二百	-11.0895
忠	-11.0896
學士	-11.0896
涉	-11.0897
逕	-11.0897
巨蟹	-11.09
鈎	-11.0901
南行六百步	-11.0901
堪	-11.0903
丘	-11.0905
瞻	-11.0912
腰圍	-11.0914
氷	-11.0915
六千九百	-11.0936
可施	-11.0948
八秒二十微	-11.0965
自戊至	-11.0991
子在位	-11.104
帝座	-11.1106
帶食兩心相距	-11.1117
寬	-11.1121
蕤賓	-11.113
隙	-11.1132
春分至秋分	-11.1134
肖	-11.1135
提要	-11.1135
決	-11.1136
欽定四庫全書子部六	-11.1136
喻	-11.1137
尸	-11.1137
我皇上	-11.1137
初宫至五宫	-11.1138
琴	-11.1138
為勾求得股	-11.1139
東行三百二十步	-11.1139
督修厯法	-11.1139
逮	-11.114
巨	-11.114
疎宻	-11.1141
閲二百十六期積七萬八千八百八十	-11.1141
畏	-11.1141
撫	-11.1142
貝	-11.1142
疎密	-11.1144
黄赤道内外	-11.1144
定限行度	-11.1144
祝	-11.1145
逺臣湯若望	-11.1146
衞	-11.1147
四分内一秒冬至應閏	-11.1152
罅	-11.1153
箏	-11.1156
相聨	-11.1156
游儀	-11.1157
展轉	-11.1158
正方之邊	-11.116
港	-11.1162
赤道小弦	-11.1162
仲冬	-11.1163
三千七百	-11.1165
三百六十五度二十五分	-11.1168
𢃄食	-11.1183
相接	-11.1188
圓之半徑	-11.1195
餘弦檢表得	-11.1202
徧乘	-11.1221
一千二百八十	-11.1229
置一自乘再乘	-11.1261
蔡氏	-11.1271
千零九十	-11.1292
○○/○○○)	-11.1354
圓燈	-11.1355
懐	-11.1359
沉香	-11.136
遮	-11.1361
黎	-11.1364
赤白二經交角	-11.1366
正月癸丑朔	-11.1367
兊	-11.1369
鳩	-11.1371
傾	-11.1371
範	-11.1373
怪	-11.1373
孚	-11.1374
騰	-11.1376
今推至日合	-11.1377
禆	-11.1377
輒	-11.1379
啻	-11.138
歐	-11.138
脩	-11.138
表杆	-11.138
五日二十三刻	-11.1381
爾雅	-11.1383
勾股形為同式形故	-11.1384
晰	-11.1384
赴	-11.1384
或加或減	-11.1385
姓	-11.1385
㕘	-11.1386
欵	-11.1386
得三百六十五日二十四刻	-11.1388
壘	-11.1389
諌	-11.139
天蝎	-11.139
■	-11.139
宿曜經	-11.1391
炁	-11.1392
釐四豪	-11.1393
商三方廉面積以除	-11.1393
通軌	-11.1393
敗	-11.1395
祈	-11.1397
常法義曰	-11.1398
七錢五分	-11.1404
㡬何法以	-11.1418
萬三千七百	-11.1421
次輪心距地	-11.1436
次輪最近	-11.1453
/○○)	-11.1459
度一十八分	-11.1465
萬八千五百	-11.1474
魏史	-11.1513
萬一千七百	-11.1541
撱圎	-11.1543
正月丙申朔	-11.1558
釐五豪	-11.1601
輩	-11.1602
属	-11.1604
鴨	-11.1605
暇	-11.1619
遍	-11.1619
防	-11.1623
緩	-11.1623
綰	-11.1624
夲	-11.1625
迎	-11.1625
决	-11.1626
䕶	-11.1627
從地心甲計之當本天之	-11.1627
御製厯象考成表卷	-11.1629
爲所求率	-11.1629
與兩直角等	-11.163
蟲	-11.163
秋分至春分	-11.163
知道了	-11.163
竭	-11.1631
戎	-11.1632
削	-11.1632
霧	-11.1633
分圓線	-11.1634
距日天最高	-11.1635
化秒為二率	-11.1636
欽定四庫全書厯算全書卷	-11.1636
衆界形	-11.1637
積尸氣	-11.1637
肩	-11.164
廉三長廉一小隅面積共得	-11.164
葉	-11.1642
帶一縦	-11.1642
粒	-11.1643
祠	-11.1644
魏文魁	-11.1649
之比即如	-11.1651
二十二度三十分	-11.1653
長方之長	-11.1666
崇禎九年	-11.1671
積求邊	-11.1678
根必與	-11.168
一大正方	-11.1689
以里法	-11.1744
正月己酉朔	-11.1759
刑	-11.186
願	-11.1866
爵	-11.1874
誕	-11.1877
弊	-11.1878
黄廣弦	-11.1879
曾	-11.1881
釜	-11.1882
數學九章	-11.1883
帶一縱	-11.1885
恒年表	-11.1886
㝛	-11.1887
渺	-11.1888
遡	-11.1888
砌	-11.1889
七八五三九八一六	-11.189
每期三百六十五日二時七刻	-11.189
冶	-11.1894
閻浮	-11.1895
夘初一刻	-11.1895
觀象臺	-11.1897
黄赤距緯	-11.1898
儀噐	-11.1898
狼	-11.1899
一根自乘得一平方	-11.1899
分九十三秒	-11.1903
奉聖㫖這	-11.1903
寅正二刻	-11.1907
邊形之毎一邊為	-11.1936
輻	-11.1974
千二百黍	-11.2008
二千一百六十	-11.2017
風雨	-11.2028
設如甲乙丙	-11.2031
十有五	-11.2061
□○□	-11.2073
練	-11.2115
兩平分于	-11.2117
虹	-11.2125
逰	-11.2125
賾	-11.2129
逹	-11.213
雄	-11.2135
兩經斜距	-11.2137
揜	-11.2138
脫	-11.214
糴	-11.2142
平行實行之差	-11.2142
薛	-11.2144
吹	-11.2147
苗	-11.2148
勘	-11.2149
塗	-11.2149
壽星宫	-11.2149
誣	-11.215
測圓海鏡	-11.2152
茍	-11.2152
輯	-11.2153
出南門直行	-11.2153
宰	-11.2154
弦與勾股較之和	-11.2154
續書於下共	-11.2155
頓	-11.2155
坎艮	-11.2155
往來	-11.2157
五行志	-11.2157
正方體之每一邊	-11.2157
長方之闊	-11.2157
蕃	-11.2158
弧之通弦	-11.2158
葬	-11.2158
最大兩心差	-11.216
咎	-11.2161
廣州府	-11.2162
氂	-11.2172
為甲衰	-11.2173
一千二百九十六	-11.2178
十一月壬子日	-11.2197
晨伏	-11.2269
方法算之得	-11.2301
正月戊申朔	-11.2347
九千九百	-11.2368
翻	-11.2393
矩線内直角形	-11.2401
洋	-11.2403
鉅	-11.2407
訣	-11.2407
陌	-11.2407
貴賤	-11.2408
袋	-11.2408
磨羯	-11.2409
㸔	-11.241
察其所對之度分秒得	-11.241
齋	-11.2411
烈	-11.2412
盧	-11.2412
黙	-11.2414
乘上廉	-11.2414
僖	-11.2415
韋	-11.2416
厘	-11.2417
懼	-11.2417
獅	-11.2418
敦	-11.2419
凸	-11.2419
叠	-11.2419
蕩	-11.242
兩心之差	-11.2421
瑪	-11.2421
多二眞數	-11.2422
灼	-11.2423
普	-11.2423
圓球徑一尺二寸	-11.2425
簫	-11.2425
滋	-11.2426
初虧復圓距時	-11.2427
由是觀之	-11.2428
食甚入盈縮厯	-11.2428
蟄	-11.2429
四分日之一	-11.2429
求勾股弦各幾何	-11.2429
淫	-11.2434
天正經朔	-11.2434
減半周之餘	-11.2435
時時不同	-11.2439
走	-11.244
推得是年	-11.2447
始悟	-11.2452
正方形之每邊	-11.2465
用時兩心視相距	-11.2506
月二十四日	-11.2588
等邊形面積	-11.2648
桶	-11.2669
詭	-11.2684
甫	-11.2687
尉	-11.2689
湯若望	-11.269
極至交圏	-11.2691
迥	-11.2691
白虎	-11.2692
對距弧角	-11.2693
夜食不書	-11.2694
刺	-11.2694
劉洪	-11.2695
患	-11.2695
最小兩心差	-11.2696
御製厯象考成	-11.2698
袁	-11.27
单	-11.27
陀	-11.27
銘	-11.2701
當食不食	-11.2701
書於初商積之下相減	-11.2702
眀	-11.2702
劉歆	-11.2703
為腰置尺	-11.2703
彰	-11.2704
糶	-11.2704
初虧至食甚	-11.2705
洪範	-11.2705
勑	-11.2706
翁	-11.2707
角旁兩弧	-11.271
之定率比例以	-11.2714
斗一升	-11.2717
波	-11.2718
村	-11.2721
其理一也	-11.2776
十三度有竒	-11.2803
月十三日	-11.2822
以髙乗之	-11.283
月十八日	-11.2895
絲四忽	-11.2933
以丁為心	-11.2934
数	-11.2954
敷	-11.2958
乳	-11.2962
匪	-11.297
溯	-11.2971
交周升度差	-11.2972
額	-11.2972
䓁	-11.2974
狗	-11.2974
星距日次引	-11.2976
輙	-11.2978
為對所知之角其正弦	-11.2978
亟	-11.2979
朱氏曰	-11.2979
勾弦求股	-11.2979
粺米	-11.2979
冰	-11.2979
夘正三刻	-11.2979
臾	-11.298
等上田苗	-11.298
壯	-11.298
振	-11.298
今所設之	-11.2981
禧	-11.2982
契	-11.2983
年正月辛丑朔十一月	-11.2985
簡平儀	-11.2985
嘉靖	-11.2986
姜	-11.2986
一率半徑一千萬為二率	-11.2986
揣	-11.2986
軒轅大星	-11.2987
梓	-11.2988
桓公	-11.2988
十三度十九分度之七	-11.299
閼	-11.299
從地心甲計之	-11.299
為嵗首	-11.299
南極入地	-11.2991
爲所有數	-11.2993
徐光啟	-11.2995
翻譯	-11.2995
月視黄緯	-11.2996
玄	-11.2996
戚	-11.2997
匣	-11.2998
光禄寺	-11.3005
有法形	-11.3019
月交二十七日	-11.3021
月初六日	-11.3046
絲七忽	-11.3082
邊等形	-11.3094
以乙為心	-11.3112
望乙與城	-11.3135
豪八絲	-11.3135
度一十九分	-11.3185
寓	-11.3262
天常赤道	-11.3262
笠	-11.3265
對兩心實相距角	-11.3266
肆	-11.3267
潤	-11.327
涼	-11.3271
刪	-11.3272
夘正一刻	-11.3275
三百六十五日四分日之一	-11.3275
亘	-11.3277
囷	-11.3278
几	-11.328
爲所有率	-11.3281
缸	-11.3281
仲康	-11.3281
蔡邕	-11.3282
驟	-11.3282
肯	-11.3283
勾自乗之一正方	-11.3285
煖	-11.3285
自上而下	-11.3286
以減半周得	-11.3287
駑	-11.3288
各若干法借一根為	-11.3292
春王正月	-11.3292
味	-11.3293
圓環形	-11.3298
六千五百六十一	-11.33
千九百七十	-11.3421
正月庚子朔	-11.3434
形外切圜	-11.3441
月初二日	-11.3484
度零三分	-11.3554
壊	-11.3557
吸	-11.357
岐	-11.3571
昻	-11.3571
日距月最高	-11.3571
滯	-11.3572
扣	-11.3573
楮	-11.3573
用切線分外角	-11.3574
闇	-11.3575
扶	-11.3575
以戊為心	-11.3575
彗孛	-11.3576
步天歌	-11.3576
激	-11.3576
少二眞數	-11.3577
釋曰此	-11.3578
朦朧	-11.3578
璣	-11.3578
子初二刻	-11.3579
婦	-11.3579
富	-11.3581
樹一株	-11.3581
年正月壬戌朔十一月	-11.3582
年正月戊辰朔十一月	-11.3582
凶	-11.3582
年正月己夘朔十一月	-11.3582
享	-11.3583
蘭	-11.3583
距月天最高	-11.3583
傷	-11.3583
歐邏巴	-11.3583
糳米	-11.3584
週	-11.3584
凹	-11.3585
鄧	-11.3585
階	-11.3586
月天最高在	-11.3586
勾股弦總和四十尺	-11.3586
年正月辛酉朔十一月	-11.3586
欽定四庫全書御製數理精藴下編卷	-11.3587
股自乗之一正方	-11.3588
慿	-11.3588
瑞	-11.3589
擧	-11.3591
=	-11.3591
九執暦	-11.3592
敘	-11.3594
帳	-11.3596
尺與原積	-11.3598
球體外面積	-11.36
隊	-11.3601
二千一百八十七	-11.3612
有一定之	-11.3624
多二平方	-11.3633
用元度	-11.3636
從丙作	-11.364
法變通	-11.3661
尺即初商	-11.3723
相叅直	-11.3734
一分内三十一秒冬至史	-11.3734
一分内三十一秒冬至應閏	-11.3785
總積四千	-11.3792
句與股	-11.3804
鬴	-11.386
秤	-11.3865
縫	-11.3875
辟	-11.3877
對兩心視相距角	-11.3882
顛	-11.3882
殫	-11.3883
今以法考之是	-11.3884
闇虛	-11.3886
様	-11.3889
嗟	-11.3889
或大或小	-11.3889
犬	-11.3889
周日一萬分	-11.389
與九十度相減餘	-11.389
譜	-11.389
徐光啓	-11.389
妨	-11.3891
夢	-11.3893
為廉法以除	-11.3895
兒	-11.3896
墻	-11.3896
數學鑰	-11.3896
冀	-11.3896
三百九十八日八十	-11.3897
尺書於原積之下相減餘	-11.3897
二百四十步即城徑也合問或問	-11.3898
晴	-11.3898
為二率今所設之圓球徑一尺二寸	-11.3898
抽竒	-11.3898
若干法借	-11.3899
全史日至源流卷	-11.3899
叅相直	-11.39
不及減者加	-11.39
毋	-11.39
得二十七日五十五刻	-11.39
仙	-11.3901
弑	-11.3902
欽定四庫全書全史日至源流卷	-11.3902
磬折體	-11.3903
肇	-11.3903
狩	-11.3905
敵	-11.3905
泛平較	-11.3905
并記加減號求	-11.3906
威	-11.3906
牟	-11.3907
焦	-11.4196
賔	-11.42
匝	-11.4201
溝	-11.4204
糲	-11.4205
尹	-11.4206
戒	-11.4207
匿	-11.4207
竈	-11.4209
諳	-11.4209
模	-11.4209
葛	-11.421
聮	-11.4211
把	-11.4211
棚	-11.4212
鋪	-11.4213
召	-11.4213
册	-11.4215
喪	-11.4215
寜	-11.4216
董	-11.4217
赦	-11.4217
趨	-11.4218
麟	-11.4218
暴	-11.4219
𦙍	-11.4221
付	-11.4221
昂	-11.4228
疆	-11.4229
踏	-11.4242
憂	-11.4523
掲	-11.4529
卜	-11.4532
螺	-11.4532
潛	-11.4535
抹	-11.4536
剪	-11.4537
孤	-11.4538
奔	-11.4544
淆	-11.4544
坡	-11.4544
譔	-11.4546
芳	-11.4549
拙	-11.4549
穫	-11.455
漫	-11.455
鴻	-11.4554
裂	-11.4554
閒	-11.4555
迤	-11.4556
扇	-11.4557
呉	-11.4557
牒	-11.4559
䟽	-11.4561
磬	-11.4568
硯	-11.457
鼠	-11.4574
戈	-11.4575
砣	-11.4856
觸	-11.4856
廻	-11.4881
巫	-11.4884
翰	-11.4884
閃	-11.4886
鳯	-11.4887
奈	-11.4887
窄	-11.4888
厲	-11.4888
勸	-11.4888
燦	-11.4888
瞡	-11.4889
禀	-11.4892
燠	-11.4892
牲	-11.4895
鬱	-11.4897
鐡	-11.4898
逸	-11.4899
罷	-11.4899
衷	-11.4901
荆	-11.4902
忌	-11.4904
効	-11.4906
洩	-11.4908
梗	-11.4911
籮	-11.492
絫	-11.4927
填	-11.5214
驅	-11.5225
裹	-11.5227
壕	-11.5229
隕	-11.5233
詞	-11.5238
扐	-11.524
穹	-11.5241
援	-11.5241
菴	-11.5241
眠	-11.5243
標	-11.5243
璧	-11.5244
旅	-11.5246
突	-11.5246
吐	-11.5247
訟	-11.5247
帙	-11.5248
廩	-11.525
署	-11.525
鷄	-11.525
忘	-11.5251
暫	-11.5252
暨	-11.5253
頻	-11.5254
璃	-11.5254
穴	-11.5255
懇	-11.5255
躬	-11.5255
衙	-11.5259
藻	-11.5263
翳	-11.5266
團	-11.5267
頌	-11.5273
漆	-11.5274
席	-11.5286
鹹	-11.5293
畞	-11.5337
䭾	-11.5589
慝	-11.5608
柄	-11.561
綜	-11.5611
謀	-11.5613
困	-11.5617
妖	-11.5619
桑	-11.5619
𢎞	-11.562
拱	-11.5621
童	-11.5622
陋	-11.5622
杵	-11.5624
屯	-11.5624
串	-11.5626
臬	-11.5626
曚	-11.5626
雉	-11.563
邢	-11.5631
認	-11.5631
薨	-11.5631
+	-11.5632
趣	-11.5638
健	-11.5639
旭	-11.5984
托	-11.5985
胥	-11.5987
馮	-11.5993
盂	-11.5993
戾	-11.5993
希	-11.6001
催	-11.6002
遯	-11.6003
聫	-11.6003
暢	-11.6004
斟	-11.6005
措	-11.6005
罕	-11.6005
忒	-11.6007
薪	-11.6007
紂	-11.601
陜	-11.6012
朴	-11.6012
馳	-11.6014
跨	-11.6015
哈	-11.6016
曳	-11.6018
宵	-11.6019
琮	-11.6021
隄	-11.6021
雛	-11.6032
壍	-11.6379
遁	-11.6394
蚤	-11.6394
浙	-11.6395
餉	-11.6396
蜀	-11.6397
秩	-11.6397
墟	-11.6397
挾	-11.6397
昨	-11.6398
諧	-11.64
罌	-11.64
繹	-11.6402
鄙	-11.6402
迹	-11.6402
争	-11.6403
罰	-11.6404
范	-11.6405
趾	-11.6407
闔	-11.6407
曠	-11.6408
槃	-11.6409
繋	-11.6409
醫	-11.6409
藥	-11.6411
擅	-11.6411
競	-11.6413
巡	-11.6414
賴	-11.6414
鼈	-11.6415
鉞	-11.642
櫃	-11.6422
劄	-11.6422
埀	-11.6424
犧	-11.6768
𦵏	-11.6786
麤	-11.6786
濃	-11.6792
耦	-11.6797
鮑	-11.6801
鋼	-11.6801
幣	-11.6805
䵂	-11.6807
淮	-11.6808
嬴	-11.6809
膠	-11.6812
握	-11.6814
枕	-11.6815
猪	-11.6817
搃	-11.6818
埋	-11.682
介	-11.6821
暈	-11.6825
投	-11.6826
沉	-11.6828
複	-11.6829
㫁	-11.6831
禽	-11.6831
森	-11.6835
寢	-11.6842
濫	-11.6848
烝	-11.685
籠	-11.7229
陟	-11.723
鈔	-11.7235
貳	-11.7236
財	-11.7238
冥	-11.7239
賁	-11.7243
討	-11.7243
悞	-11.7246
浩	-11.7246
瞭	-11.7246
籥	-11.7247
逼	-11.7247
迷	-11.7249
碍	-11.725
賛	-11.7254
活	-11.7254
茂	-11.7257
愛	-11.7257
𨽻	-11.7257
躋	-11.7258
棟	-11.7259
逈	-11.7259
罔	-11.7259
冝	-11.726
晏	-11.7262
阻	-11.7263
姚	-11.7263
俞	-11.7264
炤	-11.7265
枵	-11.7265
无	-11.7265
綸	-11.7266
渡	-11.7271
閱	-11.7272
臼	-11.7272
雩	-11.7274
麴	-11.7282
杯	-11.7287
彗	-11.7645
峰	-11.7658
蒲	-11.7684
搬	-11.7688
攸	-11.7693
酬	-11.7697
卧	-11.77
牧	-11.7701
烟	-11.7701
摘	-11.7702
顓	-11.7703
艱	-11.7704
榆	-11.7705
鎔	-11.7705
盆	-11.7706
播	-11.7707
蘆	-11.7708
𦂳	-11.771
紊	-11.7711
茲	-11.7714
娄	-11.7715
斬	-11.7717
詣	-11.7719
這	-11.7719
豎	-11.772
祇	-11.7721
娑	-11.7721
玩	-11.7722
燒	-11.7722
愽	-11.7722
譌	-11.7723
花	-11.773
蟻	-11.8146
鼏	-11.8155
隸	-11.8156
産	-11.8165
毒	-11.8166
鷹	-11.8169
途	-11.817
蔵	-11.8172
哲	-11.8174
技	-11.8179
駕	-11.8179
凍	-11.818
轍	-11.8181
懷	-11.8185
勉	-11.8186
柰	-11.8186
恂	-11.8186
祚	-11.8188
蒸	-11.8188
虗	-11.8189
驚	-11.819
汴	-11.819
奄	-11.8191
薇	-11.8193
沖	-11.8194
囤	-11.8195
櫓	-11.8195
瞬	-11.8195
熹	-11.8197
愆	-11.8197
窟	-11.8198
熾	-11.8198
螽	-11.8198
郤	-11.8198
輛	-11.8203
絰	-11.8208
厨	-11.8218
穽	-11.865
穎	-11.8655
㽔	-11.8656
稼	-11.8656
頼	-11.8662
曆	-11.8665
繆	-11.8672
涸	-11.8672
庣	-11.8672
駟	-11.8676
桐	-11.8677
秀	-11.8678
閔	-11.8679
乂	-11.8679
邇	-11.8681
儻	-11.8682
軒	-11.8683
洽	-11.8684
畜	-11.8685
詆	-11.8688
染	-11.8691
萌	-11.8693
羯	-11.8696
胄	-11.8696
絀	-11.8696
宝	-11.8698
炭	-11.8699
朗	-11.8701
蕐	-11.8701
瑜	-11.8701
松	-11.8704
汲	-11.8705
聰	-11.8711
杠	-11.8712
猛	-11.8712
朕	-11.9189
鶉	-11.9193
般	-11.9195
耿	-11.9197
笇	-11.9199
芥	-11.9202
屠	-11.9203
懿	-11.9204
暅	-11.9207
冩	-11.9208
稟	-11.9209
絃	-11.9209
黨	-11.9209
庻	-11.9212
疉	-11.9214
墊	-11.9214
族	-11.9214
轄	-11.9214
鸞	-11.9214
罄	-11.9217
謝	-11.9217
鳬	-11.9217
彷	-11.9217
貌	-11.9218
稀	-11.9219
磁	-11.922
慧	-11.922
妃	-11.9221
險	-11.9221
響	-11.9222
毘	-11.9223
竄	-11.9223
佗	-11.9223
􁅙	-11.9225
麿	-11.9225
崖	-11.9225
飾	-11.9225
緑	-11.9226
矛	-11.9227
𨼆	-11.9228
顔	-11.9229
旨	-11.9233
葭	-11.9237
笑	-11.9732
敏	-11.9733
尅	-11.9744
茶	-11.9745
歎	-11.9746
藴	-11.9748
㝠	-11.975
倪	-11.9754
徂	-11.9755
乏	-11.9756
攜	-11.9756
翭	-11.976
芝	-11.9761
寥	-11.9761
凉	-11.9762
睹	-11.9763
軰	-11.9763
縷	-11.9765
弁	-11.9767
翕	-11.9767
暉	-11.9768
暘	-11.9768
迂	-11.9769
託	-11.9769
臂	-11.977
哭	-11.977
斡	-11.977
謄	-11.977
剌	-11.9771
薩	-11.9773
繳	-11.9774
促	-11.9774
糅	-11.9775
網	-11.9775
攘	-11.9777
弼	-11.9777
蠟	-11.9778
臑	-11.9779
炬	-11.978
煉	-11.9782
畿	-11.9783
墓	-11.9784
霄	-11.9785
溷	-11.9787
潢	-11.9788
瓊	-11.9789
廪	-11.9794
浪	-11.9797
趺	-11.9806
盞	-12.0337
怒	-12.0337
揭	-12.034
獵	-12.0344
祕	-12.0346
估	-12.0348
据	-12.0349
喙	-12.035
藩	-12.0351
奮	-12.0351
贍	-12.0351
赫	-12.0352
彊	-12.0353
寘	-12.0353
睿	-12.0353
貸	-12.0353
聴	-12.0356
墳	-12.0357
霞	-12.0358
賊	-12.0359
鳳	-12.0359
牌	-12.0359
耘	-12.0359
陶	-12.0359
皥	-12.036
儼	-12.0361
遑	-12.0363
凟	-12.0363
快	-12.0364
漠	-12.0367
晶	-12.0368
訶	-12.0368
鐻	-12.0368
貿	-12.0369
翅	-12.0385
瀆	-12.0386
賸	-12.0386
粺	-12.0935
糳	-12.0938
瑁	-12.0948
亨	-12.0963
灌	-12.0964
畸	-12.0965
爍	-12.0965
潘	-12.0966
諾	-12.0969
瞽	-12.0971
冇	-12.0972
敝	-12.0973
縀	-12.0973
聿	-12.0974
蔓	-12.0975
毬	-12.0976
絜	-12.0976
鋦	-12.0976
涯	-12.0977
僕	-12.0977
薦	-12.0979
腐	-12.098
偉	-12.0982
誅	-12.0983
娶	-12.0983
禦	-12.0983
鑑	-12.0984
恪	-12.0984
縛	-12.0985
裨	-12.0985
滑	-12.0987
厭	-12.0987
賤	-12.0988
兢	-12.0989
贊	-12.0991
冒	-12.0991
絳	-12.0994
駭	-12.0994
义	-12.0994
湊	-12.0994
帥	-12.0994
悮	-12.0996
渉	-12.0996
筮	-12.0998
嬰	-12.0999
搖	-12.1
溺	-12.1002
琦	-12.1003
隐	-12.1004
貯	-12.1007
惶	-12.1008
蹤	-12.1008
鰲	-12.1018
躍	-12.1618
齒	-12.1624
忍	-12.1626
侈	-12.1626
憚	-12.1627
壹	-12.1631
譚	-12.1632
吴	-12.1634
拾	-12.1636
廓	-12.1636
戲	-12.1637
臍	-12.1637
夙	-12.1639
搆	-12.1641
鄰	-12.1641
箋	-12.1641
彚	-12.1641
庖	-12.1642
狄	-12.1642
妥	-12.1643
摠	-12.1643
剩	-12.1643
羨	-12.1644
斥	-12.1644
胸	-12.1644
飲	-12.1646
剏	-12.1647
陬	-12.1647
朏	-12.1648
血	-12.1649
寰	-12.165
髪	-12.1651
艾	-12.1651
徙	-12.1651
脉	-12.1654
儲	-12.1654
砂	-12.1654
删	-12.1654
瓚	-12.1655
泣	-12.1656
糯	-12.1656
翟	-12.1658
冕	-12.1658
臚	-12.1659
貼	-12.166
㡳	-12.166
÷	-12.1661
裕	-12.1666
莒	-12.167
懋	-12.1679
吁	-12.2337
牡	-12.2338
燃	-12.2342
昆	-12.2342
椒	-12.2346
挺	-12.2348
棱	-12.2349
偹	-12.2349
輦	-12.235
洵	-12.235
餞	-12.2351
螢	-12.2351
珍	-12.2351
貢	-12.2352
撞	-12.2354
詮	-12.2354
湮	-12.2355
慢	-12.2356
攻	-12.2357
佚	-12.2357
宙	-12.2358
畱	-12.2358
嶺	-12.2358
淪	-12.236
謨	-12.236
眎	-12.236
詎	-12.2361
岀	-12.2362
宦	-12.2362
販	-12.2362
館	-12.2363
祿	-12.2363
阜	-12.2364
匡	-12.2366
札	-12.2366
街	-12.2366
貧	-12.2366
鞏	-12.2367
毁	-12.2367
侣	-12.2368
溟	-12.2368
駮	-12.2368
跋	-12.2369
仝	-12.237
纒	-12.237
恃	-12.237
焚	-12.2371
荀	-12.2371
䖏	-12.2372
宏	-12.2372
頑	-12.2374
撓	-12.2375
賚	-12.2375
詢	-12.2376
乍	-12.2377
堵	-12.2378
饑	-12.2382
妻	-12.2384
苑	-12.2385
償	-12.2394
埂	-12.2402
䢉	-12.3061
㢲	-12.3093
覃	-12.31
型	-12.3103
蓄	-12.3103
邈	-12.3104
臻	-12.3107
隤	-12.3115
矯	-12.3117
肄	-12.3119
滂	-12.3119
控	-12.312
嫁	-12.312
沛	-12.3121
㒺	-12.3122
羞	-12.3123
堢	-12.3124
糊	-12.3124
秭	-12.3125
械	-12.3126
皮	-12.3126
緝	-12.3127
打	-12.3129
旺	-12.313
煌	-12.3131
塘	-12.3132
亮	-12.3132
鱗	-12.3133
菩	-12.3134
嘆	-12.3134
派	-12.3134
靖	-12.3134
慈	-12.3135
臧	-12.3135
泄	-12.3136
斿	-12.3137
飱	-12.3138
韻	-12.3141
荷	-12.3141
旃	-12.3141
琳	-12.3143
奕	-12.3143
盾	-12.3144
彩	-12.3144
晡	-12.3145
鎭	-12.3145
蔑	-12.315
喝	-12.315
鍵	-12.3151
牀	-12.3152
巢	-12.3153
護	-12.3158
璇	-12.3159
鹵	-12.316
担	-12.3168
羡	-12.3172
藍	-12.3172
仄	-12.3929
槽	-12.394
裔	-12.3941
勵	-12.3941
㝷	-12.3941
屑	-12.3942
鋸	-12.3944
玻	-12.3945
杖	-12.3946
鵝	-12.3946
眉	-12.3951
姬	-12.3951
航	-12.3952
虢	-12.3952
伶	-12.3953
挹	-12.3955
閩	-12.3955
嫌	-12.3955
悔	-12.3958
番	-12.3958
慕	-12.3958
祲	-12.3959
亶	-12.396
拜	-12.396
鉦	-12.396
鈴	-12.396
邏	-12.3961
厄	-12.3961
佑	-12.3962
鍼	-12.3963
輾	-12.3963
蘓	-12.3964
儘	-12.3964
桞	-12.3965
冄	-12.3966
柏	-12.3966
暄	-12.3967
糠	-12.3967
郢	-12.3967
摸	-12.3968
雹	-12.3968
煙	-12.3968
淹	-12.3969
赧	-12.3969
婺	-12.3969
濳	-12.397
貽	-12.3972
叉	-12.3972
埃	-12.3972
犂	-12.3973
翹	-12.3973
評	-12.3973
竇	-12.3975
沸	-12.3975
禕	-12.3976
伹	-12.3979
導	-12.398
纏	-12.3981
捨	-12.3981
穏	-12.3981
胎	-12.3984
朂	-12.3984
燔	-12.3984
醇	-12.3984
雁	-12.3986
恊	-12.3991
棓	-12.3997
厠	-12.4001
裝	-12.4003
衘	-12.4047
瞳	-12.4807
仞	-12.483
牝	-12.4831
盪	-12.4835
湧	-12.4838
兎	-12.4841
怨	-12.4843
捐	-12.4843
篤	-12.4852
批	-12.4854
秪	-12.4856
瘁	-12.4856
荘	-12.4856
参	-12.4859
僻	-12.486
鐓	-12.4862
鞘	-12.4863
萊	-12.4863
桄	-12.4863
粤	-12.4864
廐	-12.4865
蜃	-12.4865
豳	-12.4865
澄	-12.4866
雕	-12.4866
檀	-12.4866
猷	-12.4867
迅	-12.4868
灾	-12.4868
眷	-12.4869
甄	-12.487
胷	-12.4872
𣲖	-12.4873
恨	-12.4873
滇	-12.4873
饗	-12.4874
叧	-12.4874
冺	-12.4874
剡	-12.4874
瑩	-12.4875
逃	-12.4876
壓	-12.4876
梧	-12.4876
弘	-12.4877
庠	-12.4878
肘	-12.4878
舶	-12.4878
泯	-12.4878
窪	-12.4879
剥	-12.4879
翌	-12.4879
碎	-12.488
絮	-12.4881
杞	-12.4881
掃	-12.4883
彭	-12.4883
吒	-12.4883
彎	-12.4883
鬰	-12.4884
膺	-12.4885
缾	-12.4886
帖	-12.4886
霸	-12.4886
浚	-12.4887
䡄	-12.4887
縑	-12.4887
𣴎	-12.4887
擾	-12.4888
携	-12.4888
牢	-12.4889
讒	-12.4891
鈇	-12.4892
蝗	-12.4892
澈	-12.4894
悚	-12.4895
藁	-12.4907
糓	-12.4915
替	-12.5823
腓	-12.5825
姤	-12.5832
坑	-12.5835
萃	-12.5836
澗	-12.5844
䕫	-12.5846
晀	-12.5846
睛	-12.5846
瞿	-12.5849
濬	-12.585
夬	-12.5851
庵	-12.5852
輝	-12.5854
晤	-12.5856
雌	-12.5857
掘	-12.5857
憶	-12.5857
蔣	-12.5859
渙	-12.5859
謁	-12.5859
瓉	-12.5859
甞	-12.5859
靂	-12.5859
楷	-12.586
擢	-12.586
碩	-12.5861
閤	-12.5861
肥	-12.5861
誓	-12.5861
態	-12.5861
霹	-12.5861
幻	-12.5862
蕭	-12.5862
詘	-12.5862
藜	-12.5862
叨	-12.5863
諒	-12.5864
揮	-12.5867
熒	-12.5867
誥	-12.5868
樊	-12.5868
膳	-12.5868
尠	-12.5869
鵲	-12.5869
燄	-12.587
鏤	-12.5871
苞	-12.5871
岡	-12.5872
浄	-12.5872
㮣	-12.5873
猥	-12.5873
瓠	-12.5875
㧅	-12.5875
彪	-12.5875
纍	-12.5875
濵	-12.5875
栽	-12.5876
寕	-12.5877
鼻	-12.5877
矜	-12.5877
濛	-12.5877
夔	-12.5877
沃	-12.5877
濱	-12.5878
𤾉	-12.5878
悲	-12.5879
讖	-12.5879
摹	-12.5881
沾	-12.5882
誇	-12.5883
蠢	-12.5883
豁	-12.5883
拓	-12.5885
樣	-12.5885
劫	-12.5887
覘	-12.5887
盗	-12.5887
玊	-12.5887
紘	-12.5888
閠	-12.5888
馱	-12.5889
僉	-12.589
叶	-12.589
蠶	-12.5891
敕	-12.5892
床	-12.5893
渣	-12.5894
挍	-12.5897
澆	-12.5897
吿	-12.5897
畨	-12.5898
諫	-12.5901
届	-12.5901
傑	-12.5902
槍	-12.5915
桀	-12.6892
構	-12.6945
𣺌	-12.6946
酢	-12.6946
液	-12.6946
橛	-12.6954
䘏	-12.6957
鼗	-12.6959
匾	-12.696
歆	-12.6962
掣	-12.6962
噬	-12.6962
訾	-12.6964
操	-12.6965
弛	-12.6965
摭	-12.6965
蛤	-12.6965
鄂	-12.6967
摶	-12.6967
咫	-12.6968
遐	-12.6968
誦	-12.6968
裘	-12.6969
箸	-12.6969
巍	-12.6969
皷	-12.6969
􁀙	-12.6969
壇	-12.697
釵	-12.697
寨	-12.697
耨	-12.6971
壔	-12.6973
凴	-12.6973
磑	-12.6973
拒	-12.6974
悦	-12.6976
飭	-12.6976
膏	-12.6977
姦	-12.6977
枘	-12.6977
糾	-12.6977
翊	-12.6979
塲	-12.6979
頤	-12.698
譴	-12.698
猝	-12.698
穵	-12.6981
雇	-12.6982
簸	-12.6982
輟	-12.6982
紆	-12.6983
陡	-12.6983
汗	-12.6983
邸	-12.6984
崔	-12.6986
焴	-12.6986
𠂻	-12.6988
諱	-12.6988
做	-12.6988
恠	-12.6988
什	-12.6988
璞	-12.699
𥘉	-12.6991
檐	-12.6991
箱	-12.6991
逝	-12.6991
珪	-12.6991
郷	-12.6992
汐	-12.6992
掖	-12.6992
磚	-12.6994
寃	-12.6994
碧	-12.6994
枯	-12.6995
跬	-12.6996
鋒	-12.6996
伎	-12.6997
圉	-12.6998
拆	-12.6999
蹟	-12.7
擕	-12.7
欒	-12.7
豹	-12.7002
煎	-12.7003
舂	-12.7004
曁	-12.7004
煬	-12.7005
蓌	-12.7006
鏗	-12.7007
䜴	-12.7007
愼	-12.7011
琉	-12.7014
頏	-12.7018
遏	-12.7018
鍬	-12.7021
薑	-12.7055
悶	-12.8163
鏇	-12.8169
凄	-12.818
佳	-12.8195
仕	-12.8197
俄	-12.8198
妹	-12.82
擁	-12.8201
詡	-12.8204
郯	-12.8204
礫	-12.8204
嗜	-12.8206
􁂞	-12.8208
媒	-12.8208
彖	-12.8208
諉	-12.8209
倦	-12.821
拽	-12.8211
廬	-12.8211
匱	-12.8215
恍	-12.8215
葮	-12.8215
猴	-12.8215
碁	-12.8216
喉	-12.8217
蚓	-12.8217
邀	-12.8218
唇	-12.8218
矇	-12.8218
棲	-12.8219
搜	-12.822
嫡	-12.822
頸	-12.8221
讓	-12.8223
鑽	-12.8223
黯	-12.8223
禺	-12.8223
孺	-12.8223
厫	-12.8224
窒	-12.8225
蠱	-12.8225
堰	-12.8225
彦	-12.8226
笙	-12.8228
霓	-12.8228
朽	-12.8229
緊	-12.8229
荔	-12.8229
甌	-12.8229
侔	-12.8231
穪	-12.8231
蠻	-12.8231
瑕	-12.8231
誑	-12.8232
晃	-12.8232
􁁬	-12.8233
隣	-12.8233
鴽	-12.8234
澣	-12.8234
㤗	-12.8235
抗	-12.8236
廵	-12.8236
齎	-12.8236
􁀦	-12.8237
奠	-12.8238
捧	-12.8239
錙	-12.8239
臯	-12.8239
蒐	-12.824
晩	-12.8241
奸	-12.8241
芽	-12.8241
訏	-12.8242
汨	-12.8243
漿	-12.8243
篾	-12.8243
窻	-12.8243
蘊	-12.8243
醜	-12.8244
滄	-12.8244
䋲	-12.8244
睂	-12.8244
詠	-12.8245
蓬	-12.8245
閫	-12.8245
貪	-12.8246
冦	-12.8247
㪚	-12.8248
蟠	-12.8248
倐	-12.8248
霽	-12.8248
涓	-12.8249
褁	-12.8249
炫	-12.825
悼	-12.825
訥	-12.8251
扛	-12.8251
斑	-12.8251
昕	-12.8252
㫄	-12.8254
邾	-12.8255
梢	-12.8257
穰	-12.826
桂	-12.8262
粳	-12.8264
帀	-12.8282
漘	-12.8308
杆	-12.9452
吻	-12.958
鏘	-12.9596
籔	-12.9611
莖	-12.9613
沓	-12.9615
䘮	-12.9618
紋	-12.9623
桴	-12.9629
絍	-12.9629
傲	-12.963
溽	-12.9631
攢	-12.9632
棼	-12.9632
鏁	-12.9633
殄	-12.9633
泊	-12.9634
懲	-12.9637
嵌	-12.9638
隩	-12.9638
僚	-12.9639
橄	-12.9639
頫	-12.964
佩	-12.9641
湛	-12.9642
奴	-12.9643
慨	-12.9646
隴	-12.9646
憾	-12.9647
暎	-12.9647
耒	-12.9647
渇	-12.9647
摯	-12.965
硬	-12.965
耰	-12.965
餼	-12.9651
潜	-12.9652
諄	-12.9652
愍	-12.9652
綦	-12.9653
佾	-12.9653
踦	-12.9653
腦	-12.9653
扆	-12.9653
詫	-12.9654
翫	-12.9654
叟	-12.9654
恵	-12.9655
蟬	-12.9655
覲	-12.9656
虐	-12.9656
幼	-12.9657
鐫	-12.9657
塟	-12.9657
濓	-12.9658
坳	-12.9658
聘	-12.9658
甸	-12.9658
頴	-12.9658
蠏	-12.9659
簿	-12.9659
僱	-12.9659
瀛	-12.9659
暖	-12.9659
咮	-12.966
蠡	-12.966
觽	-12.966
墮	-12.9661
弃	-12.9661
磔	-12.9661
姻	-12.9662
綠	-12.9662
窩	-12.9662
耜	-12.9662
迺	-12.9663
从	-12.9663
穩	-12.9663
彛	-12.9664
劇	-12.9665
壞	-12.9666
冗	-12.9667
筐	-12.9667
璿	-12.9668
䜟	-12.9668
夥	-12.9668
瑣	-12.9669
撃	-12.9671
鈿	-12.9671
賑	-12.9672
鍥	-12.9672
騁	-12.9672
侶	-12.9673
洎	-12.9674
飄	-12.9674
滴	-12.9675
饒	-12.9675
醞	-12.9676
陷	-12.9677
眩	-12.9677
緋	-12.9677
悪	-12.9678
恕	-12.9678
崑	-12.9678
䨇	-12.9681
燼	-12.9681
荼	-12.9681
湘	-12.9682
攤	-12.9682
燁	-12.9683
諦	-12.9683
脛	-12.9684
冢	-12.9684
楪	-12.9684
爟	-12.9685
迫	-12.9685
旌	-12.9685
钁	-12.9686
簇	-12.9686
侮	-12.9686
枰	-12.9686
粉	-12.9687
潁	-12.9689
帑	-12.9689
喈	-12.9689
柴	-12.9689
扈	-12.969
礪	-12.9692
鄴	-12.9693
扎	-12.9693
佇	-12.9693
蹈	-12.9694
竽	-12.9694
冐	-12.9699
狭	-12.97
羿	-13.1271
廹	-13.1276
霾	-13.1278
涵	-13.1285
汪	-13.1291
祘	-13.1293
哂	-13.1294
斐	-13.1295
駐	-13.1295
茅	-13.1296
誨	-13.1297
鵞	-13.1299
吟	-13.13
焞	-13.1303
囿	-13.1305
犁	-13.1305
警	-13.1307
頥	-13.1309
擴	-13.1309
愁	-13.1309
堡	-13.131
旂	-13.1311
迸	-13.1312
駢	-13.1312
䌓	-13.1313
㕑	-13.1313
灋	-13.1315
雊	-13.1315
殽	-13.1316
鶴	-13.1316
爛	-13.1316
披	-13.1317
拈	-13.1317
莞	-13.1317
些	-13.1317
耑	-13.1318
眇	-13.1318
杳	-13.1318
裒	-13.1318
垢	-13.132
畀	-13.1322
購	-13.1322
騖	-13.1322
濡	-13.1322
簷	-13.1322
壑	-13.1322
𤨏	-13.1323
恣	-13.1324
阮	-13.1324
裳	-13.1324
骸	-13.1324
覇	-13.1324
嶮	-13.1324
曩	-13.1325
嫉	-13.1325
矧	-13.1325
曙	-13.1325
宴	-13.1326
跂	-13.1326
坼	-13.1326
漁	-13.1326
寂	-13.1327
葱	-13.1327
俊	-13.1327
陪	-13.1327
㦸	-13.1328
耐	-13.1329
亁	-13.1329
叩	-13.1329
橘	-13.133
竢	-13.133
霆	-13.1331
漂	-13.1331
螻	-13.1331
幕	-13.1332
惕	-13.1332
邐	-13.1332
禘	-13.1332
逞	-13.1333
挽	-13.1333
窽	-13.1333
濩	-13.1333
涕	-13.1333
灝	-13.1334
弄	-13.1334
跳	-13.1334
侏	-13.1335
凾	-13.1335
倡	-13.1335
閻	-13.1336
企	-13.1336
怠	-13.1336
畬	-13.1338
潔	-13.1338
煮	-13.1339
碑	-13.1339
雒	-13.1339
硃	-13.1339
珥	-13.1339
庀	-13.1339
伺	-13.134
换	-13.134
喩	-13.134
柯	-13.134
闘	-13.134
岌	-13.1341
襟	-13.1341
妾	-13.1341
遜	-13.1341
麁	-13.1341
勃	-13.1341
驛	-13.1342
净	-13.1342
濮	-13.1342
蛙	-13.1343
曇	-13.1343
馴	-13.1343
詰	-13.1344
剙	-13.1344
寵	-13.1344
誘	-13.1345
瀝	-13.1345
囬	-13.1345
羔	-13.1345
膚	-13.1346
殻	-13.1346
呵	-13.1348
謾	-13.1348
旒	-13.1349
𤯝	-13.1349
陛	-13.135
輞	-13.135
岱	-13.135
臥	-13.1351
坵	-13.1351
紇	-13.1352
恢	-13.1353
捲	-13.1356
筍	-13.1356
葺	-13.1356
禎	-13.1357
綖	-13.1357
滛	-13.1357
椀	-13.1358
澒	-13.1358
艘	-13.136
畊	-13.136
奢	-13.1362
汜	-13.1362
甍	-13.1364
孕	-13.1365
惴	-13.1365
稠	-13.1368
刃	-13.1368
兖	-13.137
錮	-13.1374
欣	-13.1377
塼	-13.1384
腝	-13.1396
阪	-13.1418
訊	-13.3255
肺	-13.3266
脾	-13.3268
肝	-13.3268
刅	-13.3269
塾	-13.3272
䌫	-13.3277
疵	-13.3283
馭	-13.3283
裴	-13.3285
鬭	-13.3287
䑕	-13.3288
霤	-13.3288
皂	-13.3289
銓	-13.3289
㽞	-13.3291
閑	-13.3293
哆	-13.3294
蠧	-13.3295
齡	-13.3296
姪	-13.3296
辤	-13.3297
繒	-13.3298
隷	-13.3298
訢	-13.3298
麄	-13.3298
苖	-13.3299
菊	-13.3299
慘	-13.3301
妣	-13.3302
坊	-13.3303
黏	-13.3303
廼	-13.3303
毗	-13.3305
蹇	-13.3305
弇	-13.3306
䆒	-13.3307
牖	-13.3307
鐸	-13.3307
僭	-13.3308
耆	-13.3308
憤	-13.3308
薺	-13.3309
觱	-13.3309
昃	-13.331
鋟	-13.3312
勇	-13.3312
亳	-13.3312
硫	-13.3312
䖝	-13.3312
煅	-13.3313
滓	-13.3314
翔	-13.3314
噏	-13.3314
諛	-13.3314
㰖	-13.3314
踐	-13.3314
劣	-13.3315
鞠	-13.3315
俚	-13.3316
謫	-13.3317
貟	-13.3317
拉	-13.3318
倭	-13.3318
腸	-13.3318
巖	-13.3318
轅	-13.3318
悠	-13.3318
沲	-13.3319
僊	-13.3319
覿	-13.332
蓲	-13.332
醤	-13.332
戥	-13.3321
鶡	-13.3321
紕	-13.3321
闞	-13.3321
嘻	-13.3322
獄	-13.3322
吝	-13.3322
𣙗	-13.3322
曼	-13.3322
湄	-13.3323
朋	-13.3323
戯	-13.3323
䖍	-13.3324
眡	-13.3324
覷	-13.3324
寖	-13.3324
綢	-13.3324
躭	-13.3325
禨	-13.3325
閎	-13.3325
肭	-13.3325
幡	-13.3325
䧏	-13.3326
璡	-13.3326
廊	-13.3326
㔼	-13.3326
叛	-13.3326
唱	-13.3326
噫	-13.3327
獺	-13.3327
癘	-13.3327
丕	-13.3327
焰	-13.3327
礦	-13.3327
沌	-13.3328
緹	-13.3328
鍳	-13.3328
兀	-13.3329
蕪	-13.3329
窓	-13.3329
黓	-13.3329
謡	-13.3329
槧	-13.333
蔈	-13.333
宸	-13.3331
氛	-13.3332
㐲	-13.3333
噴	-13.3333
隘	-13.3333
麓	-13.3333
覧	-13.3333
砥	-13.3334
獮	-13.3334
押	-13.3335
霍	-13.3335
蓮	-13.3336
皓	-13.3336
姒	-13.3336
邃	-13.3337
灑	-13.3337
蹲	-13.3337
疣	-13.3337
瞢	-13.3337
蜜	-13.3337
脈	-13.3337
歇	-13.3338
瓈	-13.3338
糵	-13.3338
刹	-13.3339
闐	-13.3339
甓	-13.3339
搭	-13.3339
麐	-13.3339
頀	-13.334
蜂	-13.334
冨	-13.3341
覓	-13.3341
竆	-13.3341
鉢	-13.3342
捕	-13.3342
鑕	-13.3342
胝	-13.3342
亜	-13.3342
堋	-13.3342
抛	-13.3343
迆	-13.3343
漕	-13.3343
簋	-13.3344
簠	-13.3344
冖	-13.3344
膩	-13.3345
殳	-13.3345
蹠	-13.3345
昉	-13.3345
犢	-13.3346
芟	-13.3347
狥	-13.3347
芮	-13.3351
岑	-13.3351
潰	-13.3352
畵	-13.3352
攴	-13.3352
盜	-13.3352
顚	-13.3353
緬	-13.3354
訴	-13.3354
痊	-13.3356
鑪	-13.3356
盝	-13.3358
梭	-13.336
夭	-13.3361
瞰	-13.3362
漲	-13.3363
糞	-13.3364
甑	-13.3366
餙	-13.3369
敖	-13.3372
鷃	-13.3385
糙	-13.3394
霰	-13.3396
啄	-13.3404
瞶	-13.3409
觿	-13.5634
央	-13.5707
賃	-13.5709
詐	-13.5732
睠	-13.5749
豉	-13.575
奬	-13.5764
缶	-13.5764
簾	-13.5764
郵	-13.5768
囊	-13.5769
蝎	-13.5774
郞	-13.5777
筈	-13.5778
螳	-13.5781
螂	-13.5784
淸	-13.5785
茨	-13.5786
紵	-13.5786
努	-13.5786
蹙	-13.5787
捩	-13.5788
獶	-13.5789
劵	-13.5789
鵙	-13.5789
絕	-13.5791
檄	-13.5792
頰	-13.5793
陂	-13.5794
罟	-13.5795
㲈	-13.5795
佞	-13.5796
觕	-13.5796
扃	-13.5798
悱	-13.5798
鳶	-13.5798
攈	-13.5798
撼	-13.5799
讐	-13.5799
膝	-13.5799
莾	-13.58
褒	-13.58
憫	-13.58
籟	-13.58
瓿	-13.5802
轆	-13.5802
棃	-13.5802
惰	-13.5803
轤	-13.5803
褲	-13.5803
蹴	-13.5803
譎	-13.5803
彤	-13.5804
衺	-13.5804
痛	-13.5805
劃	-13.5806
谿	-13.5806
蟈	-13.5806
詒	-13.5806
褐	-13.5807
盌	-13.5808
揉	-13.5808
澹	-13.5809
孜	-13.5809
缷	-13.581
衢	-13.581
饔	-13.581
豺	-13.5811
迕	-13.5811
戞	-13.5812
菑	-13.5813
㕔	-13.5813
􁁊	-13.5813
䃤	-13.5813
棧	-13.5814
鍚	-13.5815
暌	-13.5816
儉	-13.5816
縻	-13.5816
挂	-13.5816
㬋	-13.5817
塤	-13.5817
狃	-13.5817
樵	-13.5817
蓐	-13.5817
臋	-13.5818
瓘	-13.5818
黜	-13.5818
畯	-13.5818
琢	-13.5819
㓙	-13.582
伴	-13.582
靳	-13.582
䥴	-13.582
軼	-13.582
阬	-13.582
衫	-13.5821
壩	-13.5821
峭	-13.5821
睨	-13.5821
眸	-13.5822
熖	-13.5823
黮	-13.5823
誚	-13.5823
屍	-13.5823
挑	-13.5823
繙	-13.5824
搏	-13.5824
溘	-13.5824
濤	-13.5824
鍊	-13.5825
凰	-13.5825
剔	-13.5825
攄	-13.5827
鄱	-13.5827
劂	-13.5827
靠	-13.5828
篆	-13.5828
宥	-13.5828
呔	-13.5828
酸	-13.5829
嶰	-13.5829
枋	-13.5829
菜	-13.5829
怖	-13.5831
嬗	-13.5831
笛	-13.5831
棰	-13.5831
蓯	-13.5831
殯	-13.5832
曝	-13.5832
孽	-13.5832
戽	-13.5832
飬	-13.5832
僣	-13.5832
綮	-13.5833
疫	-13.5833
佉	-13.5833
蹄	-13.5834
爪	-13.5834
􁃠	-13.5834
蠲	-13.5834
侖	-13.5834
婚	-13.5834
頡	-13.5834
吠	-13.5834
皎	-13.5835
峴	-13.5835
噣	-13.5835
筏	-13.5835
拏	-13.5836
躡	-13.5836
辣	-13.5836
縵	-13.5836
殁	-13.5836
訃	-13.5836
隍	-13.5836
槪	-13.5836
煤	-13.5836
隰	-13.5836
窈	-13.5838
鎗	-13.5838
郁	-13.5839
剗	-13.5839
驪	-13.5839
場	-13.5839
玦	-13.584
甯	-13.584
怗	-13.584
群	-13.584
褊	-13.584
莎	-13.584
慣	-13.584
瓴	-13.584
尔	-13.5841
碣	-13.5841
睦	-13.5841
囉	-13.5841
恬	-13.5841
煕	-13.5842
画	-13.5842
誡	-13.5842
蚩	-13.5843
糜	-13.5843
笈	-13.5843
菓	-13.5843
䆮	-13.5843
頁	-13.5843
翀	-13.5843
鑴	-13.5843
杼	-13.5844
咀	-13.5844
愧	-13.5845
辜	-13.5845
墩	-13.5845
筧	-13.5845
咒	-13.5845
袖	-13.5846
廸	-13.5846
廾	-13.5846
隮	-13.5846
粹	-13.5847
覔	-13.5847
攅	-13.5847
瘦	-13.5847
岷	-13.5847
淋	-13.5847
漉	-13.5848
冏	-13.5848
䕃	-13.5849
醬	-13.5849
緦	-13.5849
喬	-13.5849
煇	-13.585
闓	-13.585
睽	-13.585
溉	-13.585
斁	-13.585
炳	-13.585
話	-13.5851
窠	-13.5852
駒	-13.5852
緫	-13.5852
喇	-13.5853
樽	-13.5853
撒	-13.5855
縠	-13.5857
壮	-13.5859
煞	-13.586
棘	-13.5861
娓	-13.5863
銍	-13.5863
滸	-13.5863
諜	-13.5864
彞	-13.5865
楫	-13.5865
褚	-13.5866
髦	-13.5866
莩	-13.5867
跌	-13.5868
罇	-13.587
罸	-13.587
樁	-13.5872
粲	-13.5874
浹	-13.5877
桮	-13.5881
療	-13.5882
勁	-13.5885
楯	-13.5892
椉	-13.895
腎	-13.9047
秬	-13.9054
淑	-13.9069
箝	-13.9086
臭	-13.9088
畛	-13.909
剝	-13.9092
㠯	-13.9094
艽	-13.9096
胠	-13.91
晳	-13.9101
汰	-13.9103
蜩	-13.9105
蓆	-13.9105
癖	-13.9107
刼	-13.9107
肓	-13.9109
叁	-13.9109
漾	-13.9111
拂	-13.9113
痰	-13.9113
蓏	-13.9115
狐	-13.9117
蜺	-13.9117
覊	-13.9117
郛	-13.9119
巾	-13.9119
坏	-13.9119
埸	-13.9119
仗	-13.912
仇	-13.9121
冡	-13.9124
鑰	-13.9125
冑	-13.9125
渦	-13.9125
蝶	-13.9125
粢	-13.9126
葶	-13.9126
藶	-13.9126
惘	-13.9126
汁	-13.9126
勲	-13.9127
儗	-13.9127
淞	-13.9127
呾	-13.9127
殞	-13.9128
宁	-13.9128
垤	-13.913
蹕	-13.913
插	-13.913
秃	-13.913
敔	-13.913
絨	-13.913
曺	-13.9132
砲	-13.9132
妬	-13.9132
棺	-13.9132
簧	-13.9132
罫	-13.9134
仔	-13.9134
滙	-13.9134
躁	-13.9134
酣	-13.9134
歡	-13.9134
嘘	-13.9134
耽	-13.9136
弋	-13.9136
滚	-13.9136
孳	-13.9136
粕	-13.9136
糟	-13.9136
萍	-13.914
媿	-13.914
妒	-13.914
渥	-13.914
歾	-13.914
詧	-13.9142
氊	-13.9142
踪	-13.9142
䑃	-13.9142
擘	-13.9142
炙	-13.9144
悅	-13.9144
㢠	-13.9144
䃪	-13.9144
搶	-13.9144
攙	-13.9144
茹	-13.9146
䜿	-13.9146
扉	-13.9146
葽	-13.9146
羙	-13.9146
蝀	-13.9146
螮	-13.9146
嗉	-13.9146
砭	-13.9148
儆	-13.9148
㧞	-13.9148
沼	-13.9148
擎	-13.9148
俛	-13.9148
禱	-13.9149
巒	-13.9149
窶	-13.915
袐	-13.915
㨿	-13.915
眚	-13.915
贗	-13.915
帷	-13.9151
朧	-13.9151
宓	-13.9151
满	-13.9152
釁	-13.9152
卝	-13.9152
塋	-13.9152
墐	-13.9152
斧	-13.9154
拍	-13.9154
晋	-13.9154
洗	-13.9154
酋	-13.9155
輅	-13.9155
㕓	-13.9155
巔	-13.9155
睫	-13.9155
玅	-13.9155
㳂	-13.9155
誼	-13.9157
郜	-13.9157
邁	-13.9157
䓗	-13.9157
圮	-13.9157
晟	-13.9157
袠	-13.9157
墖	-13.9159
剜	-13.9159
蜡	-13.9159
欃	-13.916
琁	-13.9161
瑗	-13.9161
焻	-13.9161
擲	-13.9161
蹊	-13.9161
剞	-13.9161
璽	-13.9161
仆	-13.9162
蟹	-13.9163
斝	-13.9163
辠	-13.9163
澀	-13.9163
貶	-13.9165
?	-13.9165
找	-13.9165
昺	-13.9165
沮	-13.9165
賅	-13.9165
逶	-13.9165
糢	-13.9166
醉	-13.9166
戱	-13.9166
摽	-13.9167
圃	-13.9167
皡	-13.9167
籬	-13.9167
奧	-13.9167
毓	-13.9167
澶	-13.9167
琅	-13.9167
粘	-13.9167
羸	-13.9167
殖	-13.9168
畦	-13.9169
坍	-13.9169
捉	-13.9169
娵	-13.9169
恥	-13.9169
洮	-13.9169
產	-13.9169
絘	-13.9169
帚	-13.9169
庋	-13.9169
恤	-13.9169
藎	-13.9169
跼	-13.9169
䘲	-13.9169
亹	-13.9169
辱	-13.9169
蒭	-13.917
虵	-13.917
鉄	-13.917
碾	-13.9171
㡌	-13.9171
紓	-13.9171
籙	-13.9171
蟣	-13.9171
你	-13.9172
摧	-13.9173
捄	-13.9173
睆	-13.9173
嗇	-13.9173
蛾	-13.9174
捻	-13.9175
夐	-13.9175
濇	-13.9175
弉	-13.9175
慊	-13.9175
攲	-13.9175
皖	-13.9175
郕	-13.9175
秡	-13.9175
囂	-13.9176
葇	-13.9176
刊	-13.9176
曛	-13.9176
罽	-13.9176
聳	-13.9176
荊	-13.9176
屡	-13.9177
幔	-13.9177
熄	-13.9177
樸	-13.9177
毀	-13.9177
疲	-13.9177
怛	-13.9177
澍	-13.9177
蝦	-13.9177
蛛	-13.9177
萠	-13.9178
慰	-13.9178
濂	-13.9178
扺	-13.9179
嘯	-13.9179
亾	-13.9179
貲	-13.9179
郄	-13.9179
佰	-13.9179
枉	-13.918
皿	-13.918
窕	-13.9181
僞	-13.9182
輄	-13.9182
栝	-13.9182
舖	-13.9182
逡	-13.9184
諺	-13.9184
囚	-13.9184
撩	-13.9184
篅	-13.9184
傘	-13.9186
哩	-13.9186
葦	-13.9186
奭	-13.9186
滲	-13.9187
觹	-13.9188
喚	-13.9188
沕	-13.9188
䧟	-13.9188
軻	-13.9188
幢	-13.9188
秖	-13.9188
訝	-13.9188
裡	-13.9189
傜	-13.919
鄢	-13.919
禴	-13.919
卲	-13.919
搹	-13.919
迪	-13.9191
觴	-13.9192
綽	-13.9192
蹶	-13.9192
卬	-13.9192
熠	-13.9192
祊	-13.9192
埒	-13.9192
舀	-13.9194
壅	-13.9196
緻	-13.9196
幬	-13.9196
趂	-13.9198
笥	-13.9198
咱	-13.9198
俶	-13.92
僵	-13.9201
哥	-13.9202
璨	-13.9202
噓	-13.9202
跎	-13.9202
蹉	-13.9202
戶	-13.9204
暵	-13.9206
僑	-13.9206
儧	-13.9206
滕	-13.9206
澮	-13.9206
蒯	-13.9211
㝡	-13.9212
蔗	-13.9219
塹	-13.9225
坂	-13.9238
屎	-13.9254
噶	-14.4082
邕	-14.4148
泮	-14.4151
頊	-14.4202
撚	-15.4063
惪	-15.4064
堉	-15.4065
凱	-15.4066
儞	-15.4067
鵶	-15.4068
驀	-15.4069
衮	-15.407
璟	-15.4071
寀	-15.4072
涬	-15.4073
沱	-15.4074
拔	-15.4075
惚	-15.4076
嘔	-15.4077
嗑	-15.4078
勩	-15.4079
齬	-15.408
齟	-15.4081
髴	-15.4082
髣	-15.4083
粃	-15.4084
矮	-15.4085
瓔	-15.4086
珞	-15.4087
顫	-15.4088
閹	-15.4089
閶	-15.409
鄺	-15.4091
邰	-15.4092
莭	-15.4093
焨	-15.4094
涅	-15.4095
拮	-15.4096
尙	-15.4097
劭	-15.4098
醑	-15.4099
蹰	-15.41
踟	-15.4101
蟋	-15.4102
蟀	-15.4103
蒺	-15.4104
琶	-15.4105
琵	-15.4106
爬	-15.4107
塑	-15.4108
㲄	-15.4109
逵	-15.411
蚯	-15.4111
牾	-15.4112
牴	-15.4113
潭	-15.4114
儅	-15.4115
螣	-15.4116
虨	-15.4117
菉	-15.4118
筀	-15.4119
塡	-15.412
嗚	-15.4121
褭	-15.4122
簪	-15.4123
穡	-15.4124
瓏	-15.4125
玲	-15.4126
牂	-15.4127
灘	-15.4128
涒	-15.4129
泠	-15.413
彿	-15.4131
宷	-15.4132
媧	-15.4133
㮚	-15.4134
瑠	-15.4135
噩	-15.4136
蘋	-15.4136
嵎	-15.4137
畣	-15.4137
鱉	-15.4138
霒	-15.4139
柘	-15.414
紜	-15.4141
詹	-15.4142
漪	-15.4143
曨	-15.4144
棉	-15.4145
嚳	-15.4146
黿	-15.4147
杭	-15.4148
遴	-15.4149
瑇	-15.415
鄔	-15.4151
睺	-15.4152
蕘	-15.4153
墀	-15.4154
蛋	-15.4155
脗	-15.4156
饅	-15.4157
蔟	-15.4158
R	-15.4159
B	-15.416
.	-15.4161
崙	-15.4161
