<unk>	0
<s>	0
</s>	0
之	-3.75338
以	-4.42248
為	-4.56333
也	-4.85669
曰	-4.99593
而	-5.022
不	-5.04713
者	-5.09586
其	-5.13393
有	-5.21767
於	-5.22571
人	-5.41397
王	-5.49037
自	-5.58715
與	-5.59243
使	-5.68644
皆	-5.72687
上	-5.75434
事	-5.76994
無	-5.78514
大	-5.79988
所	-5.81229
言	-5.821
及	-5.87013
(	-5.87493
/)	-5.89669
至	-5.91693
則	-5.94364
一	-5.94419
今	-6.02207
欲	-6.02481
乃	-6.03537
臣	-6.04498
謂	-6.06816
令	-6.11001
行	-6.14582
等	-6.16627
故	-6.18762
兵	-6.18776
復	-6.18962
出	-6.19318
得	-6.19567
在	-6.21005
此	-6.21602
時	-6.22384
中	-6.22976
子	-6.23258
非	-6.26002
將	-6.27658
公	-6.28581
下	-6.29158
相	-6.30638
矣	-6.3172
請	-6.32381
又	-6.33795
見	-6.35
當	-6.36555
如	-6.37379
亦	-6.37512
國	-6.37585
命	-6.39213
官	-6.39477
可	-6.39886
何	-6.40379
多	-6.40726
入	-6.41655
三	-6.42736
軍	-6.45329
從	-6.45357
道	-6.46287
李	-6.49362
用	-6.49413
民	-6.50982
若	-6.52167
州	-6.5237
知	-6.53775
死	-6.54107
已	-6.54796
門	-6.57597
天下	-6.58731
陛下	-6.5906
因	-6.59641
馬	-6.59649
然	-6.60123
乎	-6.60313
立	-6.60844
奏	-6.61132
必	-6.61747
遂	-6.62583
▁	-6.63052
安	-6.63316
張	-6.64584
二	-6.64951
天	-6.6558
宜	-6.6581
重	-6.66858
漢	-6.66875
以為	-6.66893
常	-6.67368
生	-6.67633
文	-6.67725
名	-6.68246
日	-6.68322
歸	-6.68646
雖	-6.68742
聞	-6.68985
元	-6.68995
耳	-6.69253
平	-6.70768
帝	-6.70818
數	-6.71561
求	-6.72049
問	-6.72055
家	-6.725
成	-6.7523
陳	-6.76605
能	-6.76812
長	-6.7717
書	-6.77259
五	-6.786
城	-6.79038
吾	-6.79076
明	-6.79117
未	-6.79119
進	-6.79303
法	-6.79586
師古曰	-6.8001
後	-6.80148
居	-6.80608
或	-6.81055
君	-6.81126
詔	-6.81694
反	-6.82122
既	-6.82623
方	-6.84557
初	-6.85891
衆	-6.8648
先	-6.86602
周	-6.86797
諸	-6.8681
主	-6.86821
注云	-6.86888
不能	-6.8711
遣	-6.87217
前	-6.87817
四	-6.88115
徳	-6.88422
我	-6.88528
劉	-6.89338
意	-6.89915
傳	-6.91882
髙	-6.91967
取	-6.92087
山	-6.92214
武	-6.92255
還	-6.93137
是	-6.934
心	-6.93429
正	-6.93839
殺	-6.94107
守	-6.94117
朝	-6.94354
作	-6.94736
盡	-6.95092
始	-6.9599
去	-6.96937
稱	-6.9697
且	-6.97161
南	-6.97823
不可	-6.9844
太子	-6.98739
地	-6.99109
禮	-6.99127
魏	-6.99689
猶	-7.00792
親	-7.01542
興	-7.01656
錢	-7.01942
外	-7.02419
服	-7.02447
朕	-7.02899
善	-7.03951
唐	-7.04255
議	-7.04718
即	-7.04786
内	-7.05052
失	-7.05105
士	-7.05319
卿	-7.05531
吏	-7.06267
置	-7.06499
世	-7.07818
同	-7.08813
舉	-7.09333
秦	-7.09486
來	-7.10173
食	-7.10179
賜	-7.10556
受	-7.10778
甚	-7.10994
太后	-7.1125
邪	-7.11603
北	-7.12184
召	-7.12289
小	-7.12499
深	-7.1326
宫	-7.13695
東	-7.1375
陽	-7.14449
過	-7.14555
制	-7.14712
通	-7.14844
起	-7.15034
賢	-7.16132
望	-7.16437
發	-7.16745
年	-7.16826
思	-7.17046
少	-7.17551
信	-7.17685
云	-7.17878
亂	-7.1835
水	-7.18378
元年	-7.18494
坐	-7.18793
二年	-7.18793
齊	-7.19273
引	-7.19799
分	-7.19972
直	-7.20276
謀	-7.20475
任	-7.20574
本	-7.21238
實	-7.21295
趙	-7.21593
獨	-7.22109
封	-7.22269
西	-7.22543
論	-7.22674
更	-7.23824
位	-7.23893
權	-7.24139
卒	-7.24315
諫	-7.24557
難	-7.24582
晉	-7.24958
戰	-7.25906
義	-7.25911
尚	-7.26396
建	-7.2643
政	-7.27681
于	-7.27942
定	-7.27954
將軍	-7.28068
朝廷	-7.29031
計	-7.291
好	-7.29771
恐	-7.29993
易	-7.30585
亡	-7.30725
降	-7.30745
三年	-7.3131
武帝	-7.31429
太宗	-7.31445
罪	-7.31447
逺	-7.31659
左右	-7.31962
白	-7.32331
加	-7.32485
嘗	-7.32581
身	-7.33365
陵	-7.33987
賊	-7.34272
奉	-7.34768
物	-7.34947
流	-7.35339
惡	-7.36511
幸	-7.3655
力	-7.36779
由是	-7.36935
拜	-7.37173
六	-7.3743
車	-7.37889
萬	-7.3829
間	-7.38552
天子	-7.38862
度	-7.3887
宰相	-7.39034
益	-7.39302
侯	-7.39338
利	-7.39555
氏	-7.40067
府	-7.40148
石	-7.40182
威	-7.4047
辭	-7.41003
固	-7.4113
素	-7.4119
師	-7.41639
應	-7.41704
誅	-7.42087
明皇	-7.42182
光	-7.42353
樂	-7.42565
留	-7.43037
致	-7.4344
悉	-7.43562
鎮	-7.43822
共	-7.44555
處	-7.44582
夫	-7.44651
怒	-7.45115
楊	-7.45324
治	-7.45502
承	-7.46041
羣臣	-7.46053
表	-7.47528
景	-7.47795
節	-7.4815
七	-7.48208
百	-7.48293
但	-7.48359
對	-7.48415
各	-7.49632
金	-7.50001
后	-7.50008
梁	-7.50093
於是	-7.50192
太	-7.50428
終	-7.50486
功	-7.50661
私	-7.50928
清	-7.50976
輕	-7.52186
廣	-7.52246
才	-7.53479
每	-7.53487
異	-7.5351
志	-7.54092
語	-7.54295
延	-7.54793
誠	-7.54947
刑	-7.54977
疾	-7.55159
備	-7.55258
汝	-7.55307
殿	-7.55316
豈	-7.55359
音	-7.55882
不得	-7.56056
恩	-7.56145
比	-7.56486
和	-7.56703
代	-7.56849
理	-7.57067
九	-7.57273
對曰	-7.57766
告	-7.57777
謝	-7.57807
怨	-7.58071
懼	-7.58128
首	-7.5829
勸	-7.58864
𢎞	-7.59271
女	-7.59317
神	-7.59549
解	-7.59613
焉	-7.59703
文帝	-7.5977
河	-7.5998
盛	-7.60292
並	-7.60504
除	-7.61321
惟	-7.61634
近	-7.6194
執	-7.62092
凡	-7.62151
四年	-7.62624
忠	-7.6266
廢	-7.62767
髙祖	-7.62902
宣	-7.63235
土	-7.63349
收	-7.6336
容	-7.63477
貴	-7.63539
新	-7.6383
攻	-7.64518
舊	-7.6472
止	-7.64721
願	-7.64905
獻	-7.65265
經	-7.6531
嚴	-7.65935
選	-7.65991
德	-7.66238
楚	-7.66267
徐	-7.66315
母	-7.66325
罷	-7.66337
郡	-7.66702
彼	-7.66826
擊	-7.6781
宗	-7.67854
責	-7.67946
衣	-7.67989
哉	-7.68056
永	-7.68552
絶	-7.68605
屬	-7.68687
口	-7.6889
宋	-7.68945
十	-7.68989
老	-7.69043
不敢	-7.69158
詣	-7.69343
章	-7.6954
所以	-7.6972
田	-7.70199
崇	-7.70231
性	-7.70725
遇	-7.70767
爲	-7.71087
敗	-7.71207
左	-7.71486
憂	-7.71505
厚	-7.71514
兩	-7.7155
給	-7.71637
孝	-7.71787
勝	-7.71907
契丹	-7.72026
足	-7.72579
臨	-7.72777
帥	-7.72878
説	-7.72919
破	-7.72983
疑	-7.72992
氣	-7.73488
仁	-7.74083
父	-7.74409
務	-7.74771
變	-7.74959
省	-7.74969
遺	-7.75248
附	-7.75268
動	-7.75302
開	-7.75633
古	-7.75671
免	-7.75719
敬	-7.75757
江	-7.75938
騎	-7.7626
聲	-7.76704
器	-7.76742
賞	-7.76792
風	-7.76849
徳宗	-7.77272
合	-7.77363
昭	-7.77417
州刺史	-7.77629
華	-7.77678
伏	-7.7794
吳	-7.77996
夜	-7.78035
隂	-7.78086
就	-7.78092
改	-7.78243
光武	-7.78275
許	-7.78621
退	-7.78914
八	-7.7903
由	-7.79279
都	-7.79618
酒	-7.80151
百姓	-7.80589
往	-7.81001
㑹	-7.81071
保	-7.81104
堅	-7.81479
色	-7.8193
爭	-7.8197
會	-7.82531
獄	-7.82573
曰吾	-7.82644
業	-7.82652
禁	-7.82683
職	-7.82865
御	-7.82997
薦	-7.83112
唯	-7.83118
圖	-7.83641
迎	-7.83945
布	-7.84045
修	-7.84118
憲宗	-7.84263
龍	-7.84581
節度使	-7.8467
蜀	-7.85206
觀	-7.85759
勞	-7.85948
𫝊	-7.86136
顧	-7.8621
愛	-7.86526
讓	-7.8674
從之	-7.86756
勿	-7.86789
聖	-7.87396
存	-7.87774
號	-7.87782
遷	-7.88154
貶	-7.88214
良	-7.8826
斬	-7.88415
敕	-7.8849
昔	-7.89058
聞之	-7.89068
載	-7.89069
司	-7.89719
無所	-7.89728
尚書	-7.89864
胡	-7.89976
敵	-7.90202
營	-7.90664
美	-7.90811
榮	-7.90873
五年	-7.90895
嵗	-7.90952
國家	-7.90966
孫	-7.91049
負	-7.91105
如此	-7.91134
頗	-7.91552
縣	-7.9173
害	-7.92052
全	-7.92504
𤣥	-7.92513
寧	-7.92523
被	-7.9266
右	-7.92772
寵	-7.93031
邊	-7.93606
急	-7.93688
諸將	-7.93727
徒	-7.94076
集	-7.9416
送	-7.94859
室	-7.95234
喜	-7.95271
咸	-7.95272
便	-7.95378
養	-7.95477
連	-7.95505
諌	-7.95622
曹	-7.95666
聽	-7.9576
決	-7.96084
委	-7.96637
極	-7.96655
燕	-7.96697
面	-7.96836
而已	-7.97055
指	-7.97146
積	-7.97202
輒	-7.9721
據	-7.97228
不知	-7.976
顯	-7.97646
教	-7.97759
公主	-7.98008
推	-7.98392
郎	-7.98448
黄	-7.98582
勢	-7.98676
縱	-7.9886
設	-7.98974
并	-7.98998
乞	-7.99007
百官	-7.99228
韓	-7.99345
著	-7.99521
次	-7.99612
俱	-7.99618
克	-8.0023
納	-8.00281
杜	-8.01215
宻	-8.01266
木	-8.01287
持	-8.01319
史	-8.01338
温	-8.01376
族	-8.01552
授	-8.01594
手	-8.01635
討	-8.01651
戒	-8.0176
說	-8.01841
徴	-8.01847
毎	-8.02027
赦	-8.02078
儀	-8.0223
屢	-8.02629
滅	-8.02631
彊	-8.02648
具	-8.0265
視	-8.02768
待	-8.03025
别	-8.03251
臺	-8.03429
言於	-8.03565
虜	-8.03831
走	-8.03842
餘	-8.03843
為之	-8.03927
交	-8.04348
傷	-8.0445
兼	-8.04465
果	-8.04512
皇	-8.04644
追	-8.04952
充	-8.04964
嗣	-8.04981
學	-8.0537
月	-8.05717
久	-8.05754
然後	-8.05809
祖	-8.05875
以來	-8.06148
崔	-8.06242
逆	-8.06305
謂之	-8.06339
要	-8.06363
尊	-8.06487
畏	-8.06544
隨	-8.06605
郭	-8.06862
懐	-8.06895
姦	-8.06896
伐	-8.0693
者皆	-8.07303
明帝	-8.07361
危	-8.07542
專	-8.07639
第	-8.07653
殺之	-8.07675
市	-8.08115
頭	-8.08239
長安	-8.09084
衛	-8.09474
病	-8.09507
弟	-8.09508
乘	-8.09618
莫	-8.10228
茍	-8.10312
救	-8.10588
遣使	-8.10684
棄	-8.10858
操	-8.10905
須	-8.10951
宦官	-8.11378
草	-8.1142
䇿	-8.11522
羣	-8.11605
部	-8.11727
世宗	-8.11786
甲	-8.12015
皇后	-8.1203
遊	-8.12265
費	-8.12286
察	-8.12325
財	-8.12669
真	-8.12899
禍	-8.13188
嘉	-8.13243
海	-8.13257
蕭	-8.13385
參	-8.13457
有司	-8.13653
典	-8.13683
匈奴	-8.14292
情	-8.14509
千	-8.14512
雲	-8.14971
曲	-8.15698
輔	-8.15798
擇	-8.15813
登	-8.16142
賀	-8.16216
獲	-8.16382
大臣	-8.16482
密	-8.16516
報	-8.1677
聚	-8.16951
累	-8.16971
順	-8.16978
朱	-8.17004
資	-8.17339
結	-8.17635
達	-8.17697
字	-8.17841
己	-8.17884
竟	-8.18129
誰	-8.18296
薄	-8.1854
圍	-8.18612
牛	-8.18648
約	-8.19292
殷	-8.19308
太守	-8.19777
夷	-8.19821
暴	-8.19977
謹	-8.1998
移	-8.20007
恭	-8.20032
文宗	-8.20168
患	-8.20288
乗	-8.20548
今日	-8.20626
俗	-8.20725
考	-8.20763
慮	-8.20801
韋	-8.21429
智	-8.21446
塞	-8.21495
六年	-8.21731
紀	-8.21945
化	-8.22016
弱	-8.22194
違	-8.22246
客	-8.22274
使者	-8.22323
爾	-8.22521
也師古曰	-8.22673
庶	-8.22862
列	-8.22873
黨	-8.22971
徙	-8.22995
運	-8.22997
撫	-8.23034
宴	-8.23117
濟	-8.2345
司馬	-8.23582
敢	-8.23615
康	-8.23665
虎	-8.23747
仍	-8.2382
髙宗	-8.23916
不足	-8.23982
而不	-8.23984
精	-8.24323
散	-8.24379
乆	-8.24405
造	-8.24578
關	-8.2513
形	-8.25232
福	-8.25322
為相	-8.25366
侍	-8.25528
識	-8.2553
繼	-8.25844
欲以	-8.26013
毁	-8.26103
强	-8.26115
息	-8.26154
向	-8.26242
鄭	-8.26746
斷	-8.26812
契丹主	-8.27098
唐主	-8.2717
不從	-8.27438
寳	-8.27495
路	-8.27531
冠	-8.27581
叛	-8.27642
勲	-8.27645
亮	-8.27729
昌	-8.28002
也今	-8.28194
簡	-8.28351
曰此	-8.28396
火	-8.28418
侍中	-8.28705
避	-8.28891
體	-8.28901
微	-8.28915
夏	-8.29023
不如	-8.29063
藏	-8.29174
鄉	-8.29203
歡	-8.29237
衡	-8.29242
監	-8.29625
質	-8.3002
盧	-8.30037
伯	-8.30105
不許	-8.30612
苦	-8.30785
丞相	-8.31161
廟	-8.31308
寛	-8.31323
笑	-8.31454
富	-8.31577
聴	-8.31586
遽	-8.31686
子孫	-8.31801
超	-8.32436
機	-8.32442
恨	-8.32536
政事	-8.33292
休	-8.33345
符	-8.33366
入朝	-8.3357
徵	-8.34042
期	-8.34168
屈	-8.34202
役	-8.34282
肅宗	-8.34317
竊	-8.34332
領	-8.34449
目	-8.34937
震	-8.34953
輸	-8.35009
太祖	-8.3501
呼	-8.35065
昭宗	-8.35173
二十	-8.35265
爵	-8.35407
愚	-8.3568
廷	-8.35698
覆	-8.35761
刻	-8.35847
諸侯	-8.35885
險	-8.35908
循	-8.3597
泣	-8.36044
注	-8.36595
諭	-8.366
優	-8.36692
僧	-8.36745
青	-8.36794
曰朕	-8.37673
貞	-8.37933
曰陛下	-8.38096
横	-8.38174
詐	-8.38276
莊宗	-8.38424
四方	-8.38461
寺	-8.38464
賦	-8.39219
尤	-8.39245
援	-8.39281
飲	-8.39283
傾	-8.3937
京師	-8.39522
犯	-8.39796
友	-8.40124
掌	-8.40284
不肯	-8.40622
沈	-8.40745
施	-8.40885
奈何	-8.41205
滿	-8.41283
射	-8.41837
上言	-8.41938
孤	-8.42018
甞	-8.4204
雅	-8.42042
星	-8.42113
船	-8.4221
博	-8.42609
上書	-8.42647
驚	-8.427
野	-8.4289
泰	-8.42915
投	-8.42978
申	-8.42988
社稷	-8.43018
樓	-8.43703
皇帝	-8.43714
玉	-8.43831
裴	-8.43875
按	-8.43933
兄弟	-8.44042
堂	-8.44331
率	-8.4453
傅	-8.44563
中國	-8.446
洛陽	-8.44676
即位	-8.44727
災	-8.44792
豐	-8.44865
隆	-8.44897
糧	-8.45043
越	-8.45323
導	-8.45512
竒	-8.45771
不復	-8.45777
貪	-8.45792
専	-8.45807
曰今	-8.46032
明宗	-8.46128
𩔖	-8.46317
士卒	-8.46402
儉	-8.46411
裕	-8.46504
蘇	-8.4654
曰臣	-8.46568
襲	-8.46595
八年	-8.46611
奴	-8.46695
愈	-8.46759
習	-8.46761
公卿	-8.46915
空	-8.47577
霸	-8.47711
籍	-8.47716
兒	-8.47796
許之	-8.48061
屯	-8.48631
畫	-8.48654
季	-8.48667
勤	-8.48726
原	-8.49305
之後	-8.49402
賈	-8.49541
户	-8.49541
何以	-8.49986
依	-8.50169
至於	-8.50239
虚	-8.50406
商	-8.50569
邑	-8.50585
繫	-8.50598
知其	-8.50612
林	-8.50652
恃	-8.50694
妻	-8.51082
窮	-8.51111
征	-8.51476
供	-8.51539
駕	-8.51561
賣	-8.51594
懷	-8.51621
紹	-8.51723
自是	-8.51788
大將軍	-8.51813
謁	-8.51859
之士	-8.5222
疏	-8.52347
/)(	-8.52361
假	-8.52449
刺史	-8.52452
祭	-8.5252
内外	-8.52526
特	-8.52545
驕	-8.52591
雄	-8.52615
盗	-8.52626
應劭曰	-8.52639
歲	-8.52687
齊王	-8.5291
先帝	-8.53332
術	-8.53472
俟	-8.53546
㫖	-8.53609
細	-8.53678
惜	-8.53716
略	-8.53771
者也	-8.53783
呉	-8.53798
宣宗	-8.53883
記	-8.54274
宿	-8.54294
奪	-8.54428
校	-8.54432
兄	-8.54464
佐	-8.54531
恱	-8.54574
勇	-8.54658
藩	-8.54681
督	-8.54694
漸	-8.54714
狀	-8.55353
斬之	-8.5536
曰卿	-8.55473
杖	-8.55499
境	-8.55679
囚	-8.55705
里	-8.55738
捕	-8.55753
大怒	-8.5579
離	-8.55986
仲	-8.56399
闗	-8.56532
象	-8.56687
詩	-8.56744
謙	-8.56746
半	-8.56761
奔	-8.56799
策	-8.56846
彦	-8.57444
漢王	-8.57459
成帝	-8.57611
有所	-8.57618
靈	-8.57629
丁	-8.57762
辟	-8.57852
有功	-8.57852
馳	-8.57878
魏主	-8.58189
門漢	-8.58226
元帝	-8.58335
妄	-8.58525
峻	-8.58526
拒	-8.58533
誣	-8.5864
幽	-8.58729
可以	-8.58744
衞	-8.58815
中外	-8.58832
隋	-8.5886
飾	-8.58892
角	-8.58902
總	-8.58917
畢	-8.59015
諸軍	-8.59102
中宗	-8.59349
故事	-8.59574
二人	-8.59705
是時	-8.59867
損	-8.59894
一人	-8.59915
英	-8.5993
慎	-8.60024
掠	-8.60029
歌	-8.60029
助	-8.60052
殊	-8.60071
淵	-8.6008
倉	-8.60094
之間	-8.60164
與之	-8.6031
釋	-8.60603
使人	-8.60848
妃	-8.60995
歴	-8.61019
慶	-8.61028
阿	-8.61085
減	-8.61092
示	-8.61099
竇	-8.61115
託	-8.61126
衰	-8.61146
速	-8.61147
佛	-8.61202
是以	-8.61393
忌	-8.61464
不聽	-8.61775
夫人	-8.61894
律	-8.62049
單于	-8.62152
如淳曰	-8.62175
尋	-8.62191
稍	-8.62232
灋	-8.62235
赤	-8.62236
雜	-8.62253
决	-8.62275
庭	-8.62595
歎曰	-8.6284
馮	-8.6311
禄	-8.63269
秋	-8.63311
材	-8.63315
敦	-8.63346
况	-8.63349
飛	-8.63352
魯	-8.63383
米	-8.63404
署	-8.63405
敬宗	-8.63472
不過	-8.6365
再	-8.63736
人主	-8.63874
之功	-8.63942
願陛下	-8.64118
預	-8.64295
戍	-8.64308
叔	-8.64321
未嘗	-8.64331
乾	-8.64483
尺	-8.64509
盜	-8.64518
御史	-8.64526
之所	-8.64645
代宗	-8.64769
天后	-8.64914
十年	-8.65256
儒	-8.65269
九年	-8.65462
牙	-8.65536
訓	-8.65581
垂	-8.65638
突厥	-8.65686
其子	-8.66131
既而	-8.66582
統	-8.6668
逃	-8.66723
鼓	-8.66746
希	-8.66767
規	-8.66787
晏	-8.66817
寃	-8.6682
招	-8.66827
貨	-8.66833
秀	-8.66836
逼	-8.66842
采	-8.66848
揚	-8.67021
孔	-8.67697
林甫	-8.677
喪	-8.67922
工	-8.67925
候	-8.67955
感	-8.68015
班	-8.6802
效	-8.68022
妾	-8.68024
步	-8.68079
焚	-8.68089
父子	-8.68534
接	-8.68879
冦	-8.69033
虞	-8.69091
赴	-8.69204
太尉	-8.69228
況	-8.6923
弼	-8.69247
同平章事	-8.69272
全忠	-8.69321
豈可	-8.69323
末	-8.69518
無不	-8.69585
之地	-8.69656
丞	-8.69988
短	-8.70367
䝉	-8.70373
薛	-8.70399
侵	-8.70406
拔	-8.70419
不宜	-8.70427
大王	-8.70594
宣帝	-8.70732
舍	-8.71195
均	-8.71257
淮	-8.71327
適	-8.71397
高	-8.71424
農	-8.71452
吉	-8.71552
踰	-8.71584
寢	-8.71591
冀	-8.7162
逐	-8.71662
辨	-8.71679
何如	-8.71852
悦	-8.72332
中書	-8.72695
允	-8.72739
付	-8.72793
試	-8.72793
竹	-8.72838
落	-8.72886
量	-8.72959
七年	-8.73287
死者	-8.73391
將士	-8.73576
乃止	-8.73603
大夫	-8.73643
副	-8.73785
姓	-8.73825
将	-8.73866
壽	-8.73912
貢	-8.73966
融	-8.74014
黜	-8.74055
似	-8.74057
戲	-8.74064
藥	-8.74123
儲	-8.74159
君子	-8.74202
為人	-8.74769
傳三十	-8.74829
用之	-8.75041
幾	-8.75199
刀	-8.75279
擾	-8.75313
案	-8.75336
不為	-8.75352
偽	-8.75379
粟	-8.7538
趣	-8.754
覽	-8.75426
不及	-8.7559
之言	-8.75797
河南	-8.7596
引兵	-8.7637
之心	-8.76379
虛	-8.7653
升	-8.76544
陸	-8.76589
放	-8.76655
辱	-8.7672
澄	-8.76743
輩	-8.76812
浩	-8.77798
述	-8.77844
雍	-8.77847
禹	-8.7786
調	-8.77913
僕	-8.77919
祐	-8.77963
煬帝	-8.77963
戴	-8.77992
溫	-8.78041
舟	-8.78092
猛	-8.78434
曰昔	-8.78463
哀	-8.79095
惠	-8.79154
干	-8.79221
雨	-8.79234
争	-8.79256
背	-8.79295
寇	-8.79304
忘	-8.79483
蜀主	-8.79616
十餘	-8.79716
開元	-8.80058
豫	-8.80427
穆	-8.80496
血	-8.80545
斯	-8.80565
蓋	-8.80656
十二	-8.80657
用事	-8.81101
以此	-8.81507
莫不	-8.8153
讒	-8.81827
卑	-8.81859
徽	-8.81877
驅	-8.81917
羊	-8.8193
恥	-8.81945
補	-8.81956
乏	-8.81987
牧	-8.82817
之事	-8.82893
明日	-8.82934
榖	-8.83043
下詔	-8.83113
園	-8.83225
祠	-8.8325
樹	-8.83321
差	-8.83327
知之	-8.83568
上疏	-8.83918
曰我	-8.84028
厭	-8.84037
其言	-8.84121
後漢	-8.84224
頃	-8.84393
隱	-8.84549
宅	-8.84615
夀	-8.84635
稅	-8.84637
困	-8.84657
露	-8.84699
防	-8.84722
寒	-8.84726
斗	-8.8473
武宗	-8.84947
十二年	-8.85507
切	-8.85617
誅之	-8.85675
世祖	-8.85845
輿	-8.85975
洛	-8.86044
戮	-8.86052
鹿	-8.86074
募	-8.86085
畜	-8.86089
澤	-8.8609
肉	-8.86095
煩	-8.86095
階	-8.86127
顔	-8.86153
人皆	-8.86199
一旦	-8.86436
監軍	-8.8651
品	-8.87214
軍士	-8.87295
骨	-8.87492
最	-8.87577
諫曰	-8.87814
書曰	-8.87876
不以	-8.87978
歎	-8.88053
小人	-8.88249
築	-8.88265
俊	-8.88742
竭	-8.88883
戎	-8.88888
側	-8.88953
抑	-8.88953
橋	-8.88982
浮	-8.88994
豪	-8.89023
北魏	-8.89045
宦者	-8.89085
奏事	-8.89131
闕	-8.89547
天下之	-8.89591
從容	-8.89641
上表	-8.89707
徃	-8.90384
銅	-8.90403
未有	-8.90404
増	-8.90423
春	-8.90424
巧	-8.90432
悔	-8.90445
盈	-8.90446
惑	-8.90451
逸	-8.9047
屏	-8.90473
趨	-8.90505
審	-8.90509
太平	-8.90897
州縣	-8.91129
其所	-8.91215
淮南	-8.91444
其罪	-8.915
早	-8.91635
敏	-8.91667
轉	-8.91678
寶	-8.91687
貞觀	-8.9184
毛	-8.91851
是也	-8.9186
念	-8.91898
旁	-8.91902
魚	-8.91909
㣲	-8.91946
索	-8.91969
匿	-8.91989
不應	-8.92017
魏徴	-8.92027
倫	-8.92047
歳	-8.92048
不受	-8.92361
諸道	-8.92737
京	-8.92825
桓	-8.93002
如是	-8.93041
旦	-8.93064
襄	-8.9314
鑄	-8.93292
範	-8.93321
丘	-8.93362
君臣	-8.93431
游	-8.93441
帶	-8.93444
館	-8.93519
上下	-8.93638
軍中	-8.93661
貧	-8.93773
所言	-8.94038
丹	-8.94148
先是	-8.94296
所在	-8.9436
憲	-8.94618
至是	-8.9468
朔	-8.9476
佞	-8.94801
閉	-8.94837
覺	-8.94919
紫	-8.94931
雪	-8.94948
羽	-8.94956
雞	-8.9496
印	-8.94973
匡	-8.94979
殘	-8.95006
房	-8.95038
自今	-8.95118
三公	-8.95151
四海	-8.95288
堪	-8.95646
之子	-8.95684
尉	-8.95869
宮	-8.96041
子弟	-8.96122
髙帝紀	-8.96407
吐蕃	-8.96507
又曰	-8.96549
擒	-8.96559
曰公	-8.96601
蔡	-8.96627
舒	-8.96676
國之	-8.97033
詔曰	-8.97134
宫中	-8.97287
等皆	-8.97319
谷	-8.98034
之時	-8.98034
肅	-8.98041
欽	-8.98047
珍	-8.98065
殆	-8.981
祚	-8.98127
席	-8.98148
矯	-8.98155
荆	-8.98531
萬人	-8.98662
必有	-8.98924
趙王	-8.99011
之罪	-8.99256
太宗曰	-8.99465
賂	-8.99526
吕	-8.99632
獵	-8.9964
朗	-8.9967
羅	-8.99676
矜	-8.997
穆宗	-8.99713
壁	-8.99775
烈	-8.99831
荒	-8.99838
廷尉	-8.99862
其家	-9
忍	-9.00808
他	-9.00882
不已	-9.00982
振	-9.01089
自古	-9.01101
惡之	-9.0111
傳四十	-9.01142
判	-9.01229
上疏以為	-9.01246
折	-9.01275
鹽	-9.01368
倍	-9.01371
鳯	-9.01373
不欲	-9.01397
割	-9.01413
翰林學士	-9.01446
㧞	-9.01461
高祖	-9.01527
前後	-9.01632
建康	-9.01722
三十	-9.01896
之志	-9.02285
文武	-9.02485
晉王	-9.02748
支	-9.02979
仰	-9.02983
聰	-9.02992
袁	-9.03026
皮	-9.03031
譽	-9.03032
厲	-9.03034
擢	-9.03035
弊	-9.03054
訪	-9.03067
仗	-9.03085
帳	-9.03085
捨	-9.03091
段	-9.03094
迹	-9.03108
翼	-9.0313
痛	-9.03178
吴	-9.03208
革	-9.03211
以示	-9.03381
官爵	-9.03451
得失	-9.04088
所謂	-9.04322
縁	-9.04683
斥	-9.04711
謗	-9.04718
劒	-9.04722
舞	-9.04747
嬰	-9.04764
孟	-9.04771
傳二十	-9.04773
裁	-9.04775
𦙍	-9.04797
卧	-9.04812
廬	-9.04853
貌	-9.04858
海内	-9.04889
建武	-9.04904
競	-9.0493
而去	-9.04952
故也	-9.05727
所為	-9.05738
將兵	-9.05778
端	-9.05914
大事	-9.06053
夕	-9.06334
豈得	-9.06337
鄧	-9.06434
丈	-9.06441
訴	-9.06448
伺	-9.06472
姚	-9.06478
弗	-9.06482
源	-9.06495
削	-9.06508
池	-9.06516
弓	-9.06524
侍郎	-9.0663
為太子	-9.06754
以為然	-9.0712
用兵	-9.07176
時人	-9.07395
天地	-9.07489
故曰	-9.07566
讎	-9.07941
莫敢	-9.08056
旱	-9.08067
到	-9.08072
䕶	-9.08091
尸	-9.08135
彪	-9.08138
崩	-9.08182
饑	-9.08199
慙	-9.082
擁	-9.08218
哭	-9.08224
鄙	-9.08235
緩	-9.08241
恒	-9.08249
扶	-9.08276
屠	-9.08295
怪	-9.08304
彈	-9.08338
遣中使	-9.08367
李林甫	-9.08384
其後	-9.08545
此乃	-9.08888
數百	-9.08992
相與	-9.09194
擊之	-9.09276
後唐	-9.09332
不至	-9.09681
主上	-9.09824
朋黨	-9.09846
帛	-9.09855
談	-9.09879
誤	-9.09942
租	-9.09954
璽	-9.09956
祥	-9.09976
忽	-9.09977
傳五十	-9.10006
種	-9.1001
檢	-9.10011
泉	-9.10012
之意	-9.10037
驗	-9.10042
抵	-9.1005
履	-9.10081
昏	-9.10084
春秋	-9.10087
藩鎮	-9.10114
倚	-9.10114
啓	-9.10135
講	-9.10164
禦	-9.10704
其人	-9.10885
湖	-9.11551
苑	-9.11566
藉	-9.11739
式	-9.11742
辯	-9.11745
構	-9.11777
程	-9.11786
序	-9.11812
濫	-9.11859
院	-9.11865
沖	-9.11872
卷	-9.11876
增	-9.11885
之人	-9.11891
富貴	-9.12028
太和	-9.12052
宗廟	-9.12308
出入	-9.12612
諸王	-9.12619
功臣	-9.13011
不用	-9.13108
僕射	-9.13371
彭	-9.13501
刺	-9.13576
祀	-9.13588
狂	-9.13596
董	-9.13621
録	-9.13663
産	-9.13665
什	-9.13669
塗	-9.13676
屋	-9.13688
庸	-9.13698
畧	-9.137
牢	-9.13705
潞王	-9.13706
午	-9.13714
銀	-9.13718
條	-9.13725
勉	-9.13731
凶	-9.13753
流涕	-9.13773
括	-9.13806
諡	-9.13912
德宗	-9.13991
河東	-9.14085
中原	-9.14211
司徒	-9.14261
中尉	-9.14319
雖有	-9.14565
憚	-9.15111
賤	-9.154
根	-9.1547
禪	-9.15475
渾	-9.15481
憤	-9.15497
税	-9.1551
舅	-9.15512
驛	-9.15514
茂	-9.15518
柔	-9.15538
㓜	-9.15562
抗	-9.15569
它	-9.15573
綱	-9.15625
斤	-9.15626
十三年	-9.15694
之禮	-9.15719
幼	-9.15728
裴度	-9.1579
馮道	-9.158
足以	-9.1586
終不	-9.1599
以下	-9.1604
庫	-9.16157
御史大夫	-9.16363
曰汝	-9.16372
十餘人	-9.16499
詰	-9.16885
冬	-9.17144
劾	-9.173
二千石	-9.17318
錯	-9.17417
管	-9.17427
篤	-9.17454
蔽	-9.17466
郊	-9.17518
京兆尹	-9.17541
醉	-9.17553
晦	-9.17561
金帛	-9.1757
愧	-9.17572
柱	-9.17576
東都	-9.1771
王莽	-9.17769
羌	-9.18082
不然	-9.18146
何為	-9.18424
匹	-9.18675
侯景	-9.18795
詔書	-9.18814
百餘	-9.18915
借	-9.18968
人也	-9.19133
朝臣	-9.19317
孟康曰	-9.19345
蕩	-9.19391
鳥	-9.19399
耕	-9.19418
瑞	-9.19419
薨	-9.19436
笑曰	-9.19441
停	-9.19444
壯	-9.19452
回	-9.19463
浸	-9.19464
恣	-9.19468
鼎	-9.19491
濬	-9.19499
其事	-9.19509
逹	-9.19547
曹操	-9.19562
忿	-9.19585
人情	-9.19587
哀帝	-9.19653
之臣	-9.19754
執政	-9.19835
順帝	-9.19895
王者	-9.1991
東晉	-9.20002
無復	-9.20216
十五	-9.20352
大司馬	-9.20529
山東	-9.20692
婦	-9.20702
舎	-9.20861
曰君	-9.20864
諸州	-9.20886
宰	-9.2115
沙	-9.21153
五十	-9.21338
葬	-9.21363
疎	-9.21384
十一年	-9.2139
繁	-9.21391
臧	-9.21396
鍾	-9.2143
巡	-9.21435
贊	-9.21459
譏	-9.2146
絹	-9.21478
没	-9.2148
突	-9.21496
寸	-9.21499
格	-9.2154
度支	-9.21556
内史	-9.21866
帝王	-9.21892
晉陽	-9.22218
城中	-9.22237
千里	-9.22357
有餘	-9.22451
發兵	-9.22728
諸子	-9.22749
髙帝	-9.2296
議者	-9.23146
閤	-9.23385
鐵	-9.23434
卜	-9.23466
盖	-9.23498
甘	-9.23518
彌	-9.23533
整	-9.23549
烏	-9.23552
遭	-9.23563
無以	-9.23565
掩	-9.23567
潛	-9.2357
􁰎	-9.23577
學士	-9.23607
基	-9.23621
千餘人	-9.2364
中書令	-9.23866
是日	-9.23875
以其	-9.24195
不得已	-9.24398
民間	-9.24484
慰	-9.24549
讀	-9.2458
而無	-9.25079
言之	-9.25208
勒	-9.25425
植	-9.25439
綽	-9.25529
慕	-9.25551
譖	-9.2557
侈	-9.25588
賔客	-9.25603
不出	-9.25604
詳	-9.25605
毅	-9.25619
尹	-9.25623
渠	-9.25636
挾	-9.25697
顥	-9.2572
臣竊	-9.25748
劉裕	-9.25954
元嘉	-9.2596
叔文	-9.2598
東宫	-9.25986
古者	-9.26342
珪	-9.26744
斛	-9.26967
言其	-9.27009
不勝	-9.27011
河北	-9.27051
渡	-9.27196
晟	-9.27197
而死	-9.27326
戚	-9.27385
湯	-9.27456
洪	-9.2761
仙	-9.27618
簿	-9.27632
楚王	-9.27635
軌	-9.27675
玊	-9.27695
范	-9.27712
𦵏	-9.2773
歩	-9.27739
閒	-9.27772
傳六十	-9.27773
久之	-9.27789
李徳裕	-9.27832
奮	-9.27836
魏王	-9.28034
數十	-9.28243
衍	-9.28305
問之	-9.2833
十萬	-9.28556
蕭何	-9.28592
對曰臣	-9.28833
不若	-9.28905
一日	-9.29093
隙	-9.29248
豈不	-9.29354
其意	-9.29535
郡國	-9.29632
大梁	-9.29633
長史	-9.29639
單	-9.29763
𨽻	-9.29782
旬	-9.29785
甫	-9.29794
盟	-9.29804
隠	-9.29818
遵	-9.29825
十四年	-9.29827
孰	-9.29829
取之	-9.2983
剛	-9.29843
朝士	-9.29876
栁	-9.29884
黃	-9.29914
亷	-9.29925
中郎將	-9.29933
妖	-9.29939
介	-9.29946
阻	-9.29948
侍御史	-9.29962
邀	-9.29964
顯祖	-9.2998
人臣	-9.30231
百餘人	-9.30331
怨望	-9.30375
文學	-9.30401
之徒	-9.30704
足下	-9.30824
寡	-9.30963
將帥	-9.31287
泌	-9.31521
數日	-9.31532
百萬	-9.31598
川	-9.31878
斂	-9.31969
麗	-9.31994
重誨	-9.32008
蒲	-9.32019
䧟	-9.32066
却	-9.32067
兆	-9.32093
亭	-9.321
曏	-9.32102
警	-9.32104
巢	-9.32108
伍	-9.32121
科	-9.32132
校尉	-9.3216
縛	-9.32161
/	-9.32168
潰	-9.32169
贈	-9.3217
悲	-9.32178
卓	-9.32186
限	-9.32227
返	-9.32265
朱全忠	-9.32305
太原	-9.32354
固辭	-9.32584
秦王	-9.32884
謀反	-9.32995
不忍	-9.33057
郡縣	-9.33222
江淮	-9.33251
入見	-9.33412
吏民	-9.33566
勃	-9.3417
之法	-9.34211
珠	-9.34231
咎	-9.34286
筆	-9.34302
擅	-9.34323
貫	-9.34347
播	-9.34361
牒	-9.34362
給事中	-9.34368
枉	-9.34376
幹	-9.34386
鄴	-9.34407
悟	-9.34424
齎	-9.34424
睿	-9.34435
級	-9.3444
答	-9.34444
賛	-9.34444
䖍	-9.3448
燒	-9.34483
収	-9.34487
宋璟	-9.34501
協	-9.34508
明堂	-9.34627
彭城	-9.34637
判官	-9.3466
四十	-9.34675
軍國	-9.348
博士	-9.34853
以問	-9.34903
其黨	-9.34915
見之	-9.35132
貴人	-9.35174
而後	-9.35346
數千	-9.35376
州郡	-9.35452
不當	-9.35543
參軍	-9.35948
以求	-9.36026
有罪	-9.36095
曰夫	-9.3615
皆為	-9.36218
後周	-9.36248
祿	-9.36563
彰	-9.3658
躬	-9.36615
辛	-9.36668
十六	-9.3668
秩	-9.36686
苛	-9.36709
懸	-9.36711
井	-9.36712
諷	-9.36753
㡬	-9.36765
晝夜	-9.36777
瓊	-9.3678
湛	-9.368
攝	-9.36801
嵩	-9.36829
詡	-9.36837
車駕	-9.36866
府庫	-9.36899
怒曰	-9.37056
汴	-9.37209
代之	-9.37219
李泌	-9.37476
千人	-9.3758
釋之	-9.3771
無罪	-9.37789
戸	-9.37827
十五年	-9.37963
何不	-9.37971
逢吉	-9.38892
靖	-9.38907
旗	-9.38967
瓦	-9.38969
稽	-9.38981
静	-9.38985
巴	-9.38989
鳯翔	-9.39018
誘	-9.39042
南唐	-9.39061
弩	-9.39073
翰	-9.39087
淫	-9.39096
黒	-9.39102
買	-9.39113
排	-9.39113
閩	-9.39116
陷	-9.39119
踐	-9.39146
廵	-9.39148
御史中丞	-9.39169
瞻	-9.39173
沮	-9.39175
十八	-9.39203
殺人	-9.39348
士大夫	-9.39452
三千	-9.39934
入宫	-9.40001
何所	-9.40026
元載	-9.40175
者以	-9.40176
二千	-9.40312
三百	-9.40415
忠臣	-9.40461
以聞	-9.40764
三日	-9.40779
三人	-9.40838
明公	-9.41145
自稱	-9.41206
罰	-9.41387
張晏曰	-9.41397
服䖍曰	-9.41415
鈞	-9.41442
巖	-9.4145
毒	-9.41454
贓	-9.41462
皆以	-9.41476
穀	-9.41479
駢	-9.41497
襃	-9.41498
曾	-9.41503
豎	-9.41516
奏請	-9.41517
賔	-9.41521
欺	-9.41523
墮	-9.41525
靡	-9.41532
亟	-9.41534
京兆	-9.41535
粲	-9.41536
耗	-9.41538
頓	-9.41564
狼	-9.41568
冊	-9.41576
穿	-9.41596
訟	-9.41629
蠻	-9.41641
聖人	-9.4169
其餘	-9.41696
不免	-9.4184
不悦	-9.41887
待之	-9.41891
至此	-9.41923
不與	-9.41923
置酒	-9.42025
江南	-9.42044
都督	-9.4215
賞賜	-9.42225
關中	-9.42365
道路	-9.42408
亦不	-9.42486
王導	-9.42531
數年	-9.42699
於外	-9.42707
不可以	-9.42987
大喜	-9.43099
不堪	-9.43206
十四	-9.43227
大將	-9.43572
莽	-9.4358
厯	-9.43632
望之	-9.43703
毋	-9.4376
自謂	-9.43779
璋	-9.43835
皆有	-9.4385
鳴	-9.43863
篇	-9.43908
贄	-9.43936
昆	-9.43969
陳平	-9.43973
涉	-9.43974
渭	-9.43981
恕	-9.44
矢	-9.44008
熟	-9.44019
員	-9.44021
巨	-9.44024
辰	-9.44029
柳	-9.44031
莊	-9.44042
環	-9.4406
姬	-9.44062
希烈	-9.44083
觀察使	-9.44084
顗	-9.44089
暮	-9.44091
視之	-9.44096
嶺南	-9.44115
配	-9.44134
叱	-9.44139
慕容	-9.44176
外戚	-9.44188
吏部尚書	-9.44194
者多	-9.44495
臣等	-9.4495
上皇	-9.45065
殿下	-9.45265
門唐	-9.45528
為天子	-9.45732
郎中	-9.45866
之命	-9.46011
後宫	-9.46097
妻子	-9.46237
暉	-9.46365
對曰陛下	-9.46367
宗室	-9.46375
閣	-9.4643
絳	-9.46449
之勢	-9.46489
宥	-9.46509
奢	-9.46521
埶	-9.46525
叙	-9.46527
减	-9.46533
膳	-9.46539
懿	-9.46541
房𤣥齡	-9.46557
桑	-9.4657
慢	-9.46571
激	-9.46571
掾	-9.46589
効	-9.46604
堯	-9.46611
兹	-9.46614
遲	-9.46615
宏	-9.46617
坊	-9.46637
詭	-9.46644
壞	-9.46646
尚書令	-9.46649
都尉	-9.46657
尾	-9.46659
紙	-9.4666
擬	-9.46683
李絳	-9.46711
姑	-9.46711
之義	-9.46713
號曰	-9.4672
晚	-9.46727
臂	-9.46741
仁傑	-9.46748
可汗	-9.46759
禄山	-9.46774
四夷	-9.46898
何必	-9.46934
父母	-9.47165
以上	-9.47566
人心	-9.47577
所宜	-9.47687
上疏曰	-9.47738
傳十	-9.47806
衆心	-9.48001
無事	-9.48291
十七年	-9.48489
其衆	-9.48637
維	-9.49059
名也	-9.49107
麥	-9.49126
也若	-9.49145
舜	-9.49157
社	-9.49167
數萬	-9.4918
項羽	-9.49187
墓	-9.49196
贍	-9.49221
練	-9.49226
冒	-9.49234
謬	-9.49238
𨼆	-9.49246
淺	-9.49254
貢獻	-9.49263
津	-9.49266
肆	-9.49279
陜	-9.49298
通鑑總𩔖卷	-9.49304
距	-9.49336
侃	-9.49343
勅	-9.49361
昶	-9.49389
韓信	-9.49529
郭威	-9.49558
未可	-9.49585
宿衛	-9.49605
盗賊	-9.49635
其父	-9.49702
無益	-9.4979
豈有	-9.49791
尊號	-9.49859
婦人	-9.49905
精兵	-9.49986
黙然	-9.50165
之衆	-9.5017
官軍	-9.50171
人君	-9.50495
上曰	-9.50531
不見	-9.50566
視事	-9.50694
士民	-9.50929
一時	-9.50943
之際	-9.50944
數人	-9.51242
項	-9.51437
不可不	-9.51483
不恱	-9.51535
朝政	-9.51572
男	-9.51597
寄	-9.51786
崇韜	-9.51789
蝗	-9.51811
䘮	-9.51818
膺	-9.5183
後世	-9.51837
纔	-9.51839
駭	-9.51871
劍	-9.51872
懲	-9.51886
陸贄	-9.51887
郭崇韜	-9.51889
牀	-9.51898
完	-9.51905
大中	-9.51925
畋	-9.51933
荅	-9.51946
夢	-9.51954
衝	-9.51956
鄰	-9.51961
凝	-9.51972
不言	-9.51978
蘭	-9.52027
啟	-9.52046
元和	-9.52656
成都	-9.52667
無功	-9.52723
元忠	-9.52766
除之	-9.52829
公孫	-9.52981
之世	-9.52995
百里	-9.53558
召見	-9.53685
後晉	-9.53948
西域	-9.54073
為政	-9.54125
自殺	-9.54342
腹	-9.54362
巾	-9.54512
陶	-9.54514
譛	-9.54571
嫌	-9.5459
歛	-9.54617
仕	-9.54625
伊	-9.54641
麟	-9.54647
蕃	-9.54652
徇	-9.54662
墨	-9.54677
誓	-9.54685
譴	-9.54702
價	-9.54708
脅	-9.54708
句	-9.5471
占	-9.54711
輦	-9.54721
髪	-9.54722
麻	-9.54738
侮	-9.54743
恂	-9.54763
徑	-9.5477
武帝紀	-9.54787
鑿	-9.54789
懿宗	-9.54802
葉	-9.54805
晩	-9.54828
閩主	-9.54909
它日	-9.55019
宫室	-9.55081
桓帝	-9.55108
羣下	-9.55451
臣恐	-9.55595
皇子	-9.55673
大驚	-9.55685
王公	-9.5569
必不	-9.55743
從榮	-9.55861
起居	-9.55976
可謂	-9.56138
輔國	-9.56285
三思	-9.56467
皆不	-9.56586
中山	-9.56674
汝曹	-9.56728
曰若	-9.56817
建安	-9.56976
奉詔	-9.5708
之日	-9.5722
俠	-9.57312
裂	-9.5744
垣	-9.57446
騰	-9.57459
寨	-9.5747
偏	-9.57504
抱	-9.57508
葢	-9.57514
璟	-9.57518
𤣥齡	-9.57531
和親	-9.57541
徧	-9.57557
荀	-9.5757
慈	-9.57588
鮮	-9.57592
行之	-9.57592
樊	-9.57599
曉	-9.57608
傑	-9.57614
隔	-9.57616
乖	-9.57617
庻	-9.57622
俸	-9.5763
琅邪	-9.57642
含	-9.57642
災異	-9.57692
知誥	-9.57913
項王	-9.57914
孔子	-9.58011
耳目	-9.58012
安得	-9.58138
闗中	-9.58212
留守	-9.58387
乃以	-9.58474
請以	-9.58754
司空	-9.59132
来	-9.59281
攻之	-9.6007
二百	-9.60095
十三	-9.60208
之中	-9.60249
宫人	-9.60299
愬	-9.60328
創	-9.6036
也言	-9.6038
棺	-9.60426
滋	-9.60452
㦸	-9.60459
也夫	-9.60461
嶺	-9.6047
藝	-9.60472
贖	-9.60484
詣闕	-9.60504
悉以	-9.60513
朋	-9.60524
監察御史	-9.60545
誦	-9.60555
區	-9.60561
予	-9.60566
捷	-9.60608
拘	-9.60618
滯	-9.60634
叩頭	-9.60684
皇甫	-9.60733
列侯	-9.60764
不聴	-9.60926
莫能	-9.6104
逺近	-9.61049
州司馬	-9.61163
不行	-9.61225
自言	-9.61308
日夜	-9.61434
太常	-9.61503
十七	-9.61606
臣下	-9.61641
之外	-9.61728
東魏	-9.61879
之黨	-9.6198
南北	-9.62006
於上	-9.62019
皇太子	-9.62171
南陽	-9.62355
飲酒	-9.62396
罵	-9.62583
六十	-9.62637
竟不	-9.62704
無敢	-9.62715
愷	-9.63271
弄	-9.63419
械	-9.6342
倒	-9.63435
幣	-9.63444
狐	-9.63448
恤	-9.63453
岳	-9.63455
恪	-9.63463
獸	-9.63475
壊	-9.63493
課	-9.63497
亊	-9.635
鑒	-9.635
暑	-9.63514
咨	-9.63522
活	-9.63534
㓂	-9.63536
皓	-9.63542
琛	-9.63543
黎	-9.63551
即皇帝位	-9.63551
堯舜	-9.63558
肥	-9.6357
晝	-9.63572
齊丘	-9.63572
疲	-9.63587
姦臣	-9.63589
於此	-9.63654
觀之	-9.63683
貴戚	-9.63739
黄巢	-9.63766
頴	-9.63775
朝野	-9.63805
呉主	-9.63811
之術	-9.6397
樞宻使	-9.64007
太師	-9.64143
至于	-9.64212
數千人	-9.64222
何得	-9.6432
將相	-9.64486
劉氏	-9.6454
言曰	-9.64558
古之	-9.64922
未能	-9.64935
之計	-9.64942
卿言	-9.64963
進士	-9.65128
即日	-9.65273
不服	-9.65344
以是	-9.65394
安能	-9.65396
當時	-9.65526
大敗	-9.65809
荆州	-9.65865
非所以	-9.6605
江東	-9.66098
獨不	-9.66157
如故	-9.66167
以備	-9.66295
柄	-9.66353
可求	-9.66374
禁中	-9.66402
翁	-9.66514
仇	-9.6655
窺	-9.66553
悰	-9.66582
壇	-9.66602
龎	-9.6662
鉤	-9.66631
狎	-9.66635
料	-9.66649
璨	-9.6667
齒	-9.66672
揖	-9.66678
渉	-9.66688
普	-9.66694
奚	-9.66694
媚	-9.66697
迫	-9.66704
燧	-9.66719
唱	-9.66761
狗	-9.66765
億	-9.66767
弔	-9.66771
鋒	-9.66774
疆	-9.66776
秀實	-9.66786
時人謂之	-9.66792
散騎常侍	-9.66792
貴妃	-9.66804
座	-9.66807
淳	-9.66835
風俗	-9.66852
不盡	-9.66855
五千	-9.66896
臣光曰	-9.66921
像	-9.66958
一切	-9.67184
少府	-9.67271
不疑	-9.67384
相繼	-9.67581
直言	-9.67694
五百	-9.6775
腹心	-9.67769
元元年	-9.6808
議之	-9.68116
如此則	-9.68232
所親	-9.68237
大功	-9.6844
第一	-9.68595
八十	-9.68697
聞而	-9.68863
人所	-9.68893
卿等	-9.68902
國忠	-9.69104
有此	-9.69193
也故	-9.69327
將吏	-9.69399
漢主	-9.69533
汗	-9.6963
敞	-9.69706
五月	-9.69733
蒼	-9.69744
諫議大夫	-9.69763
閭	-9.69782
算	-9.69786
飢	-9.69799
域	-9.698
有三	-9.69802
見其	-9.69803
秉	-9.69812
邠	-9.69821
童	-9.69845
乂	-9.69865
盤	-9.69866
得之	-9.69875
婢	-9.69881
鬼	-9.69884
輪	-9.69888
撰	-9.69893
壹	-9.69898
悔之	-9.69915
謂侍臣曰	-9.69916
娶	-9.6993
吞	-9.69938
遥	-9.69948
旣	-9.69956
厥	-9.69957
純	-9.6997
冰	-9.69975
崔𦙍	-9.69978
旬日	-9.69997
而退	-9.70049
元帥	-9.70057
曰天下	-9.70089
往往	-9.70112
方今	-9.70114
京城	-9.70167
萬餘人	-9.7034
隂陽	-9.70433
常侍	-9.70549
河陽	-9.70595
將佐	-9.7066
幽州	-9.70753
所欲	-9.70777
表請	-9.70852
義府	-9.70863
乎對曰	-9.71041
舍人	-9.71138
自以	-9.7118
之道	-9.71265
於道	-9.7144
更名	-9.71656
救之	-9.71745
為國	-9.71801
故人	-9.71892
而止	-9.71924
諌曰	-9.71938
先生	-9.72044
遜	-9.72162
告之	-9.72237
不息	-9.72705
遣人	-9.72821
)	-9.73019
錫	-9.7305
檄	-9.73081
喻	-9.73109
李竒曰	-9.73114
漏	-9.73129
庾	-9.73131
為左	-9.73142
寤	-9.73155
促	-9.73157
醫	-9.73161
惶	-9.73164
邸	-9.73175
沒	-9.73177
偃	-9.73195
耶	-9.73198
捐	-9.73213
缺	-9.73218
虧	-9.7323
中書侍郎	-9.73246
育	-9.73257
恢	-9.73261
泄	-9.73261
諂	-9.73281
嶠	-9.73281
城下	-9.73292
碎	-9.73306
賄	-9.73307
賞罰	-9.73307
矩	-9.73314
而行	-9.7333
秦王堅	-9.73334
姚崇	-9.73352
朝夕	-9.73384
銓	-9.73405
敬瑭	-9.73433
疑之	-9.73483
太傅	-9.73498
李晟	-9.73518
何也	-9.7364
棄之	-9.73647
所得	-9.73652
又以	-9.73841
十里	-9.73872
士良	-9.73918
不在	-9.74252
萬緡	-9.74272
彦卿	-9.74332
遂以	-9.74484
之初	-9.74522
乃更	-9.74765
有才	-9.74814
其母	-9.7482
武徳	-9.74986
日月	-9.75079
曽	-9.75092
如何	-9.75128
守之	-9.75191
諫官	-9.75204
舊臣	-9.75232
於前	-9.75249
為宰相	-9.7531
河中	-9.75318
黙	-9.75411
不利	-9.75512
道士	-9.7553
燕王	-9.75584
得免	-9.75607
亦有	-9.75755
稱臣	-9.75758
何足	-9.75947
逮	-9.76048
鑄錢	-9.76137
下獄	-9.76237
紳	-9.76335
為天下	-9.764
取其	-9.76421
銖	-9.76545
泚	-9.76556
而出	-9.76586
貸	-9.76592
挺	-9.76626
璘	-9.76642
儻	-9.76644
佳	-9.76647
諱	-9.7665
蘇林曰	-9.76661
遁	-9.7668
圜	-9.76685
龜	-9.76691
親戚	-9.76693
諸葛亮	-9.767
犬	-9.76701
饋	-9.76703
例	-9.76709
凖	-9.76714
繩	-9.76715
僅	-9.76721
粗	-9.76723
板	-9.76731
頼	-9.76733
誕	-9.76734
韜	-9.76735
鋭	-9.76746
曠	-9.76746
楊國忠	-9.76763
脩	-9.76769
墜	-9.76772
鳳	-9.76779
旋	-9.76794
餉	-9.76796
枕	-9.76818
郭子儀	-9.76834
節度	-9.76871
衣冠	-9.76885
安重誨	-9.76901
愛之	-9.77006
曰臣聞	-9.77006
元振	-9.77057
不能用	-9.77106
馬援	-9.77116
欲與	-9.77168
多所	-9.77191
真卿	-9.77244
魏人	-9.77391
張良	-9.77488
不同	-9.77531
無忌	-9.77571
乆之	-9.77633
不取	-9.77649
一朝	-9.77668
門下	-9.77753
三司	-9.77773
坦	-9.77845
官屬	-9.7795
或曰	-9.77982
出於	-9.78011
未至	-9.781
大軍	-9.78112
衆皆	-9.78373
之禍	-9.78387
唐太宗	-9.78418
三十六	-9.78431
之官	-9.78526
為陛下	-9.78596
也且	-9.78732
三年初	-9.78796
中使	-9.78801
帥衆	-9.79037
三萬	-9.79172
不顧	-9.79261
不知所	-9.79348
為一	-9.7935
而還	-9.79483
所居	-9.79509
家人	-9.79571
極言	-9.79779
賴	-9.79827
以為不可	-9.79856
功名	-9.80015
狄	-9.80113
饒	-9.80127
惲	-9.80128
互	-9.80131
續	-9.80132
憑	-9.80153
訊	-9.80174
李德裕	-9.80182
鴻	-9.80185
妙	-9.802
崔浩	-9.80201
掃	-9.8021
束	-9.80217
扇	-9.80229
中書舎人	-9.8023
織	-9.8023
消	-9.80231
穢	-9.80234
禽	-9.80249
㢘	-9.80251
姊	-9.80252
艾	-9.80253
遼	-9.80256
髮	-9.80261
貯	-9.8027
護	-9.8027
劇	-9.80276
舌	-9.80277
封禪	-9.80278
弛	-9.80282
古人	-9.80288
潁川	-9.80288
饗	-9.80292
霍光	-9.80293
雀	-9.80317
艱難	-9.80327
鞭	-9.80334
壻	-9.80336
征伐	-9.80336
寜	-9.80338
嫁	-9.80369
僖宗	-9.80384
荷	-9.80391
耳今	-9.8056
師傅	-9.80593
各有	-9.80717
軍旅	-9.80759
置之	-9.80839
廣陵	-9.80861
人以	-9.80873
安都	-9.80927
承業	-9.80934
舊制	-9.81009
也陛下	-9.81016
諸司	-9.81021
有隙	-9.8122
二年初	-9.81266
降者	-9.81322
數百人	-9.81332
臨朝	-9.81432
之名	-9.81542
景帝	-9.81602
至徳	-9.81699
是嵗	-9.81751
門外	-9.82137
萬一	-9.822
北齊	-9.82237
謝安	-9.82432
立功	-9.82487
大業	-9.82518
之内	-9.82535
為嗣	-9.82552
常以	-9.82564
三月	-9.82589
隴	-9.82594
世民	-9.82626
得罪	-9.82737
武帝曰	-9.82772
深入	-9.82792
暇	-9.83143
不絶	-9.83217
在位	-9.83361
賜死	-9.83367
畤	-9.83449
受命	-9.83502
宇	-9.83556
否	-9.83641
競為	-9.83657
桀	-9.83745
浚	-9.83768
無度	-9.83795
齊主	-9.83804
匱	-9.83814
譚	-9.83826
幕	-9.83852
提	-9.83854
契	-9.83858
萌	-9.83866
之家	-9.83868
雉	-9.83869
㑹稽	-9.83873
逰	-9.83873
絲	-9.83875
譙	-9.83901
不肖	-9.83904
蓄	-9.83905
罕	-9.83916
謨	-9.83922
虐	-9.83923
某	-9.83936
圗	-9.83939
稼	-9.83945
秦始皇	-9.83946
鼔	-9.83947
瓘	-9.83947
釁	-9.83949
愍	-9.83952
糾	-9.83956
勁	-9.83959
闔	-9.8396
䜟	-9.8396
曜	-9.83962
闇	-9.83967
歎息	-9.8398
羸	-9.83982
骨肉	-9.83984
指揮使	-9.83997
披	-9.83998
餌	-9.83998
狡	-9.84017
弑	-9.84036
嫡	-9.84039
涕泣	-9.84041
詞	-9.84041
鄭注	-9.84046
廉	-9.8405
乘輿	-9.84063
萬餘	-9.84088
叡	-9.84094
仁厚	-9.841
神仙	-9.84135
千餘	-9.84169
賜之	-9.84192
布衣	-9.84221
欲使	-9.84256
梁冀	-9.84328
之故	-9.84487
問以	-9.84586
恐非	-9.84592
元年初	-9.84635
不暇	-9.8472
黄門	-9.84788
大小	-9.84812
銜	-9.84917
副使	-9.85033
謂人曰	-9.85156
不平	-9.85188
克用	-9.85266
之弊	-9.85437
縣令	-9.85448
至尊	-9.85552
朝堂	-9.85685
六軍	-9.85706
失其	-9.85754
不拜	-9.86097
者謂之	-9.86449
中常侍	-9.8649
臣聞	-9.86637
何故	-9.86773
傳七十	-9.86881
之憂	-9.87211
樞宻	-9.87353
之患	-9.8738
後梁	-9.87418
吏部	-9.87438
一年	-9.87509
為我	-9.87549
止之	-9.87555
百人	-9.87564
謟	-9.87615
沛公	-9.87633
九齡	-9.8764
邉	-9.87641
樞	-9.87643
滎陽	-9.87662
洽	-9.877
岐	-9.87706
村	-9.87716
刃	-9.87733
頸	-9.87733
鍾離	-9.87737
界	-9.8775
旌	-9.87766
日磾	-9.8777
枝	-9.87772
豹	-9.87776
強	-9.87781
餐	-9.87783
光禄大夫	-9.87787
中書舍人	-9.87789
姜	-9.87792
茅	-9.87793
鬬	-9.878
悅	-9.87802
汙	-9.87804
恵帝	-9.87806
袁紹	-9.87817
踈	-9.87819
巳	-9.8782
桑維翰	-9.87821
忤	-9.87832
欲立	-9.87835
今陛下	-9.8786
瑜	-9.87865
禍福	-9.87867
霍	-9.87871
愔	-9.87875
薪	-9.87879
柴	-9.87879
郁	-9.87881
狄仁傑	-9.87888
户口	-9.87898
鐡	-9.87903
蒙	-9.87913
躁	-9.87915
淑妃	-9.8793
都指揮使	-9.87963
不食	-9.87965
駿	-9.88005
東西	-9.88037
徳裕	-9.88053
安王	-9.88059
術士	-9.88139
何敢	-9.8817
慶之	-9.88199
隱帝	-9.88212
謂之曰	-9.88224
魏徵	-9.88244
靈帝	-9.883
北伐	-9.88348
沙門	-9.88378
二十四	-9.88396
江陵	-9.88483
甚厚	-9.88493
其才	-9.88497
賢才	-9.88602
所殺	-9.88728
制度	-9.88761
史官	-9.88834
處之	-9.88935
二子	-9.88937
數十人	-9.88955
緡	-9.88978
道子	-9.88994
十八年	-9.89005
均王	-9.89132
法度	-9.89207
不克	-9.89275
魏世祖	-9.89287
皆出	-9.89384
十一	-9.89477
有疾	-9.8949
其實	-9.89509
忌之	-9.89587
宗族	-9.89609
可乎	-9.89627
古今	-9.89822
之才	-9.89874
也又	-9.89997
皆以為	-9.90002
恐其	-9.90137
其弊	-9.90155
是非	-9.9029
或以	-9.90297
乃命	-9.90596
不能自	-9.90841
不信	-9.90848
不報	-9.91003
不聞	-9.91044
諸君	-9.91163
泣曰	-9.91298
出兵	-9.913
嗟	-9.91311
豈非	-9.91425
宗閔	-9.91455
其中	-9.91523
不願	-9.91565
靜	-9.91645
葛	-9.91671
松	-9.9169
標	-9.91721
翔	-9.91724
潘	-9.91728
潜	-9.91742
享	-9.91746
醜	-9.91748
頡利	-9.91758
吏部侍郎	-9.91764
熲	-9.91769
壘	-9.91775
闢	-9.91776
撓	-9.9179
濁	-9.91792
犀	-9.91792
詢	-9.91792
邦	-9.91794
染	-9.91796
斧	-9.91798
溺	-9.91798
胄	-9.91798
辦	-9.91804
吹	-9.91804
耿	-9.91809
囘	-9.9181
憐	-9.91814
羽林	-9.91832
囊	-9.91846
倖	-9.91847
郢	-9.9185
十餘年	-9.9185
之謀	-9.91853
遮	-9.91858
乃出	-9.9187
聘	-9.91876
乗輿	-9.91891
貳	-9.91896
姪	-9.91946
彦澤	-9.91954
隋文帝	-9.91978
中人	-9.91991
右僕射	-9.92043
桓𤣥	-9.92059
太僕	-9.92071
祿山	-9.92173
禍亂	-9.92312
左僕射	-9.9238
一舉	-9.92388
東海	-9.92416
數月	-9.92481
往來	-9.92549
其功	-9.92609
乃遣	-9.92649
安危	-9.92665
二十年	-9.92695
三輔	-9.92706
威權	-9.92734
舎人	-9.9282
守光	-9.92841
遣使者	-9.92843
方士	-9.92862
患之	-9.92993
不自安	-9.93038
大同	-9.93048
武氏	-9.93056
之美	-9.9306
廢立	-9.93137
或謂	-9.93172
矣今	-9.93197
其過	-9.93303
子儀	-9.93521
歸之	-9.93562
以爲	-9.93612
前世	-9.93663
臣請	-9.93698
五日	-9.93731
軍府	-9.93839
李固	-9.93915
語曰	-9.93952
進奉	-9.94036
公私	-9.94109
自然	-9.94146
所知	-9.94305
以待	-9.94456
不死	-9.94591
坦之	-9.94724
其狀	-9.94744
之民	-9.94753
不納	-9.94885
既至	-9.94905
者甚衆	-9.94912
天文	-9.95068
不足以	-9.95126
者必	-9.95214
友珪	-9.95576
琰	-9.9558
徹	-9.9561
逢	-9.95658
祜	-9.95741
衛士	-9.95771
洎	-9.95777
箕	-9.95796
熈	-9.9582
脫	-9.95821
晞	-9.95823
祝	-9.95827
㪚	-9.95829
犇	-9.95835
羞	-9.95837
及其	-9.95865
祕	-9.95867
準	-9.95885
印綬	-9.95908
吉凶	-9.95925
熒惑	-9.95933
欵	-9.95939
宋齊丘	-9.95944
戊	-9.95946
編	-9.9596
祗	-9.95966
芝	-9.95967
貲	-9.95977
熊	-9.95977
照	-9.95977
丕	-9.95981
汲	-9.95985
褒	-9.95987
摧	-9.95989
男女	-9.95995
脱	-9.95999
飽	-9.96003
昱	-9.96004
仁軌	-9.96008
踵	-9.96012
泥	-9.96014
閑	-9.96014
邕	-9.96024
夾	-9.96027
揚雄	-9.96033
喬	-9.96035
百僚	-9.96037
留之	-9.96038
甘露	-9.96038
妹	-9.96039
社稷之	-9.96048
閻	-9.96051
場	-9.96053
𢎞肇	-9.96054
快	-9.96058
艘	-9.96072
張九齡	-9.96081
鄉里	-9.96083
梟	-9.96091
豫章	-9.96097
状	-9.96116
岑	-9.96125
睿宗	-9.9613
戍卒	-9.96135
台	-9.96137
屯田	-9.96141
繇	-9.96142
榜	-9.96151
良久	-9.96157
二月	-9.9616
武王	-9.96202
琮	-9.96212
黄金	-9.96299
泰山	-9.96311
可得	-9.96311
境内	-9.96368
萬嵗	-9.9639
石頭	-9.96554
望風	-9.96587
失色	-9.96658
進退	-9.97019
頃之	-9.97058
王氏	-9.97059
處分	-9.97076
河内	-9.97079
不相	-9.97091
有言	-9.97128
然則	-9.97216
討賊	-9.97218
此言	-9.97244
年少	-9.97282
免官	-9.97307
何憂	-9.97419
作亂	-9.97419
已下	-9.97472
不必	-9.97474
魏髙祖	-9.97506
既得	-9.97632
舉兵	-9.97955
髙祖曰	-9.97962
人多	-9.97994
勿以	-9.98124
後晉天福	-9.98202
信之	-9.98217
亦無	-9.9826
以避	-9.98436
改元	-9.98478
自餘	-9.98633
曰善	-9.98644
曹參	-9.98687
相見	-9.98732
禁軍	-9.98765
遣之	-9.98766
之業	-9.988
孝武帝	-9.98842
而立	-9.98911
於天下	-9.98926
晉灼曰	-9.98933
多不	-9.9902
大明	-9.99079
為治	-9.99221
長者	-9.99226
死不	-9.99253
卿大夫	-9.99436
稱帝	-9.9948
納之	-9.99684
授之	-9.99689
安帝	-9.99718
旅	-9.99729
吳王	-9.99738
死於	-9.99781
户部	-9.99789
吳越	-9.99973
中興	-9.99992
茂貞	-10.0001
蠲	-10.0017
謐	-10.0018
證	-10.0018
謫	-10.002
街	-10.0021
揆	-10.0021
几	-10.0022
德裕	-10.0023
碑	-10.0024
更相	-10.0025
鏐	-10.0025
灌	-10.0027
塹	-10.0027
拯	-10.0027
併	-10.0028
俯	-10.0029
豆	-10.0029
劭	-10.003
琦	-10.003
無私	-10.0031
蔣	-10.0031
傲	-10.0032
㨗	-10.0033
顔真卿	-10.0034
塵	-10.0034
填	-10.0034
戾	-10.0035
敇	-10.0036
勵	-10.0036
偶	-10.0036
籌	-10.0036
翰林	-10.0037
攜	-10.0038
詹事	-10.0039
叚	-10.0039
庾亮	-10.0041
宇文	-10.0045
障	-10.0047
麾下	-10.0048
壯士	-10.005
吐	-10.0054
朔方	-10.0054
上䟽	-10.0055
濤	-10.006
緒	-10.006
永嘉	-10.0063
八月	-10.007
有異	-10.0071
之恩	-10.0073
百司	-10.0073
天命	-10.0077
待罪	-10.0087
以後	-10.0093
其志	-10.0101
五萬	-10.0105
河西	-10.0105
未知	-10.0112
黄帝	-10.0113
詔以	-10.0114
聖徳	-10.0118
乃得	-10.012
襄陽	-10.0121
有過	-10.0126
永平	-10.0148
俊臣	-10.0154
憚之	-10.0154
君集	-10.0163
上意	-10.0169
長樂	-10.0179
惟陛下	-10.0187
議以為	-10.02
除官	-10.0214
在外	-10.0214
攻城	-10.0215
禮義	-10.0216
禁兵	-10.0218
於後	-10.0243
弟子	-10.025
北面	-10.0265
女子	-10.0267
奏之	-10.0274
其上	-10.0281
再拜	-10.0282
於市	-10.031
拒之	-10.0312
國事	-10.0315
十二月	-10.0321
大厯	-10.0321
於下	-10.0338
王猛	-10.0338
未聞	-10.0343
書奏	-10.0345
入城	-10.0357
不安	-10.038
宦	-10.0403
有寵	-10.0407
之過	-10.0419
是為	-10.0421
更生	-10.0422
成功	-10.0424
暉等	-10.0428
中丞	-10.0435
食貨志	-10.0447
兖	-10.045
有寵於	-10.0462
鏡	-10.0463
狩	-10.0466
臯	-10.0468
綺	-10.0472
稷	-10.0475
入相	-10.0475
酷	-10.0475
鮮卑	-10.0476
㫁	-10.0476
酬	-10.0478
委之	-10.0479
鬻	-10.048
堰	-10.048
札	-10.048
僚屬	-10.0481
懦	-10.0481
飯	-10.0481
愁	-10.0482
凢	-10.0483
揺	-10.0483
慟哭	-10.0484
菜	-10.0484
滑	-10.0484
錦	-10.0484
膠	-10.0485
浙	-10.0485
把	-10.0485
冢	-10.0485
匠	-10.0486
熱	-10.0487
阬	-10.0488
賜以	-10.0488
褚	-10.0488
玩	-10.0489
綜	-10.0489
諮	-10.0489
鼂錯	-10.049
為亂	-10.049
岸	-10.049
齋	-10.0491
敖	-10.0491
雷	-10.0492
轡	-10.0493
嬖	-10.0494
殂	-10.0494
恚	-10.0495
戈	-10.0495
萇	-10.0495
跪	-10.0495
固請	-10.0497
逖	-10.0498
蛇	-10.0499
器械	-10.0499
款	-10.05
倦	-10.0501
禕	-10.0501
驢	-10.0502
泓	-10.0502
朴	-10.0502
太史	-10.0503
可否	-10.0505
經略	-10.0508
奇	-10.051
九錫	-10.0512
遠	-10.0512
漢書	-10.0513
混	-10.0513
傳三十四	-10.052
謂曰	-10.052
聰明	-10.052
是夕	-10.0524
飲食	-10.0524
泌曰	-10.0532
太妃	-10.0532
察其	-10.0534
李克用	-10.0538
專權	-10.0538
治之	-10.0541
所用	-10.0551
不失	-10.0554
從者	-10.056
委任	-10.0561
建武元年	-10.0562
髙歡	-10.0563
忠義	-10.0564
交通	-10.0567
自有	-10.0568
其心	-10.0593
後患	-10.0604
少年	-10.0605
處士	-10.0609
嗣復	-10.0615
謂左右曰	-10.0615
金吾	-10.0627
和帝	-10.063
無異	-10.0634
更始	-10.0644
三老	-10.0647
山陵	-10.0653
以事	-10.0654
輕重	-10.0658
之屬	-10.0672
號令	-10.0691
文帝曰	-10.0715
已定	-10.0717
疾之	-10.0721
勝之	-10.0736
何力	-10.074
未及	-10.0772
肯	-10.0775
有變	-10.0783
拜謝	-10.0799
欲令	-10.0801
銜之	-10.0806
文書	-10.0828
也遂	-10.0844
褚遂良	-10.085
以取	-10.0855
出為	-10.0855
先王	-10.0856
自此	-10.0858
觀其	-10.0864
得志	-10.0866
不避	-10.0873
其名	-10.0873
軍事	-10.088
之於是	-10.0882
未定	-10.0895
至長安	-10.0914
討之	-10.0915
𤣥宗	-10.0922
天意	-10.0922
繡	-10.0934
以給	-10.0938
稹	-10.0941
用人	-10.0944
百官公卿表	-10.0945
裘	-10.0945
蠧	-10.0946
綬	-10.0946
不可復	-10.0947
棘	-10.0948
秘	-10.0948
展	-10.0949
倣	-10.0952
敎	-10.0953
紛	-10.0954
懌	-10.0954
飬	-10.0955
鎛	-10.0957
竄	-10.0957
帷	-10.0958
鄧禹	-10.0958
垂拱	-10.0958
蟲	-10.0959
蔡邕	-10.0959
珣	-10.0959
劫	-10.096
繒	-10.096
怠	-10.096
耀	-10.096
黄門侍郎	-10.096
貽	-10.096
隗囂	-10.0961
尼	-10.0961
汾	-10.0962
李茂貞	-10.0963
綱紀	-10.0963
濳	-10.0963
駮	-10.0964
明徹	-10.0964
奬	-10.0964
跡	-10.0966
猜	-10.0966
迭	-10.0966
商賈	-10.0966
戎狄	-10.0967
䞇	-10.0968
搏	-10.097
值	-10.097
曦	-10.0972
綰	-10.0972
怯	-10.0972
滉	-10.0972
李吉甫	-10.0973
風雨	-10.0973
湊	-10.0974
晨	-10.0975
漕	-10.0976
都統	-10.0979
邵	-10.098
淹	-10.0982
仙芝	-10.0983
行瑜	-10.0986
李逢吉	-10.0988
延壽	-10.0988
復何	-10.099
李膺	-10.099
文帝紀	-10.099
汝南	-10.0992
在此	-10.0995
但以	-10.0997
行逢	-10.1001
未幾	-10.1012
利害	-10.1013
私第	-10.1013
前漢	-10.1014
守貞	-10.1017
數十萬	-10.1027
車騎	-10.1033
議郎	-10.1037
其略曰	-10.1042
李榖	-10.1042
當以	-10.1048
二萬	-10.1053
萬物	-10.1054
梁武帝	-10.1058
起兵	-10.1058
顧謂	-10.1063
多矣	-10.1064
張說	-10.1067
而更	-10.1099
張永	-10.1102
追之	-10.1107
縣官	-10.1109
七十	-10.1116
甲兵	-10.1124
涼	-10.1129
詰之	-10.1129
善惡	-10.1132
思之	-10.1135
東南	-10.1147
奏言	-10.1161
百匹	-10.1164
所部	-10.1173
上書言	-10.1178
也音	-10.1179
無道	-10.1182
等曰	-10.1193
之𩔖	-10.122
太后曰	-10.1238
之風	-10.1242
不問	-10.125
之制	-10.1253
中有	-10.1257
問其故	-10.1273
大呼	-10.1276
曰天子	-10.1293
之情	-10.1309
不識	-10.1321
書生	-10.1321
衆人	-10.1327
善之	-10.1337
徐州	-10.1341
猶未	-10.1346
示之	-10.1353
嘗與	-10.139
不可得	-10.1397
六月	-10.1399
受其	-10.1405
此皆	-10.1408
諸公	-10.1411
十人	-10.142
未得	-10.1422
譬	-10.1426
擢為	-10.1429
獻之	-10.1433
不加	-10.1436
誨	-10.1436
懼而	-10.144
鄆	-10.1441
恵	-10.1443
閔	-10.1444
梓	-10.1445
邢	-10.1446
題	-10.1447
沂	-10.1448
錮	-10.145
其地	-10.1451
鄭覃	-10.1452
賓客	-10.1453
上封事	-10.1454
榆	-10.1455
掖庭	-10.1456
綏	-10.1457
祈	-10.1457
洞	-10.1457
畿	-10.1457
閱	-10.1458
厠	-10.146
鷹	-10.146
販	-10.1462
巫	-10.1462
鼻	-10.1462
乃復	-10.1463
雋	-10.1463
自知	-10.1464
忝	-10.1465
僧孺	-10.1465
陌	-10.1466
網	-10.1466
李宗閔	-10.1467
東昏侯	-10.1467
滂	-10.1467
腐	-10.1467
績	-10.1467
竣	-10.1468
寔	-10.1469
性剛	-10.1469
隣	-10.147
谷永	-10.1471
牆	-10.1472
隐	-10.1473
桓溫	-10.1473
鉞	-10.1474
門晉	-10.1474
姻	-10.1474
丈夫	-10.1475
擊毬	-10.1476
汲黯	-10.1477
亞	-10.1477
桓温	-10.1478
趙延壽	-10.1482
翦	-10.1484
讀書	-10.1486
武三思	-10.1488
文靜	-10.149
叔父	-10.1492
獲罪	-10.15
外人	-10.1501
山谷	-10.1502
之誅	-10.1502
萬機	-10.1505
天寶	-10.1505
克寧	-10.1508
泰始	-10.1509
䕶軍	-10.151
縱横	-10.151
公綽	-10.1514
好學	-10.1516
漢中	-10.1517
在於	-10.152
平原	-10.1521
勒兵	-10.1522
永和	-10.1526
未甞	-10.1532
姦邪	-10.1534
天寳	-10.1549
乃使	-10.155
十九	-10.1567
甚盛	-10.1571
自陳	-10.1578
便宜	-10.1579
時有	-10.1583
於内	-10.1585
重之	-10.1592
皇太后	-10.1595
以實	-10.16
神明	-10.1602
以待之	-10.1606
及即位	-10.1614
禮樂	-10.1621
五人	-10.1623
失望	-10.1645
鞫	-10.1648
殿中	-10.1662
際	-10.1665
得進	-10.1668
敢言	-10.1671
車馬	-10.1674
王峻	-10.1678
而卒	-10.1686
一嵗	-10.1687
母子	-10.169
為樂	-10.1693
安樂	-10.1697
平生	-10.171
謀議	-10.1711
若不	-10.1715
盡忠	-10.1715
不下	-10.1747
以白	-10.1748
其主	-10.1749
萬里	-10.1762
為司徒	-10.1765
以致	-10.1776
盡誅	-10.1777
謁者	-10.1778
不忠	-10.1778
喜曰	-10.1791
得無	-10.1795
國人	-10.1815
引見	-10.1821
畏之	-10.1825
言事	-10.183
皆在	-10.1839
必無	-10.1861
握	-10.1895
使君	-10.1897
至京師	-10.1898
誥	-10.19
皆稱	-10.1928
偉	-10.1934
玠	-10.1936
大舉	-10.1949
延齡	-10.1953
毛仲	-10.1959
麾	-10.196
多言	-10.1963
穴	-10.1966
謡	-10.197
歙	-10.197
裒	-10.1973
何謂	-10.1974
烹	-10.1976
赤眉	-10.1976
氐	-10.1977
睦	-10.1977
庚	-10.1977
寘	-10.1977
譟	-10.1979
澣	-10.1979
緯	-10.1979
貂	-10.198
筭	-10.198
苗	-10.198
寓	-10.1981
第五倫	-10.1982
昨	-10.1982
賑	-10.1982
鮑	-10.1983
禳	-10.1983
瑀	-10.1983
墀	-10.1984
𨗳	-10.1984
陰	-10.1984
沐	-10.1984
湘	-10.1984
杞	-10.1984
裴延齡	-10.1985
狥	-10.1985
溝	-10.1985
瓌	-10.1985
擲	-10.1986
弁	-10.1986
蹈	-10.1987
究	-10.1987
觸	-10.1988
牋	-10.1988
霑	-10.1989
額	-10.1989
腰	-10.199
溪	-10.199
香	-10.199
豪傑	-10.199
斃	-10.199
長孫	-10.1991
罔	-10.1992
兩漢博聞	-10.1992
鬱	-10.1992
俛	-10.1993
膏	-10.1993
九江	-10.1993
知詢	-10.1994
太宗謂	-10.1994
函	-10.1994
琬	-10.1994
裝	-10.1994
禀	-10.1995
龔	-10.1995
閲	-10.1996
朱泚	-10.1996
陪	-10.1996
詬	-10.1996
四時	-10.1997
典籖	-10.1999
中書門下	-10.1999
鐘	-10.1999
槩	-10.2
豫州刺史	-10.2
英雄	-10.2001
韓滉	-10.2001
馮異	-10.2003
賦役	-10.2003
韶	-10.2005
之路	-10.2006
牛僧孺	-10.2006
張湯	-10.2009
得人	-10.201
范陽	-10.2012
李義府	-10.2013
長沙	-10.2015
嘉貞	-10.2016
桂	-10.2016
王嘉	-10.2019
湖南	-10.2023
他日	-10.2026
猶有	-10.2029
淮西	-10.2029
聲色	-10.203
惠帝	-10.2037
而歸	-10.2046
輕騎	-10.2057
咸通	-10.2065
酒酣	-10.2068
姓名	-10.2078
不知其	-10.2082
三品	-10.2083
借使	-10.2084
江北	-10.2085
五百人	-10.2088
則有	-10.2089
元濟	-10.2091
楊素	-10.2101
史記	-10.2102
矣乃	-10.2103
告身	-10.2104
之國	-10.2108
不遜	-10.2109
辭位	-10.2112
也太宗	-10.2122
上書曰	-10.2131
則天	-10.2136
大行	-10.2138
者言	-10.2139
章帝	-10.2142
方鎮	-10.2155
以書	-10.2156
為丞相	-10.2158
大恱	-10.2161
讀曰	-10.2161
所能	-10.2164
少卿	-10.2166
於禁中	-10.2171
從官	-10.2173
無狀	-10.2175
以告	-10.2177
迎之	-10.2182
於人	-10.2188
亡國	-10.2189
左右皆	-10.2192
奪其	-10.2195
先王之	-10.2203
而入	-10.2205
以安	-10.2207
降於	-10.2207
以来	-10.2215
足矣	-10.2234
為右	-10.2251
大赦	-10.2259
者謂	-10.2263
行臺	-10.2264
何益	-10.2264
罪人	-10.227
我我	-10.2276
白馬	-10.2285
近臣	-10.2299
未敢	-10.23
漢興	-10.2301
乃與	-10.2309
北門	-10.2309
城門	-10.2321
府兵	-10.2324
職事	-10.2328
水軍	-10.234
於路	-10.2364
甚多	-10.2365
禦之	-10.2371
王衍	-10.2373
甚衆	-10.2375
乃至	-10.2381
而用之	-10.2394
其文	-10.2398
無可	-10.2404
分兵	-10.242
其弟	-10.2423
北方	-10.2441
臣願	-10.2443
之役	-10.2444
之盛	-10.2462
測	-10.2463
名曰	-10.2476
專以	-10.2483
西北	-10.2496
沛	-10.2497
陛	-10.25
主者	-10.2506
樞密	-10.2508
訾	-10.251
臘	-10.2517
穎	-10.2519
魏兵	-10.252
氷	-10.2523
文頴曰	-10.2527
乙	-10.2528
僚	-10.2528
潔	-10.2528
諾	-10.2529
涕	-10.253
魁	-10.253
笏	-10.2532
瑊	-10.2533
饌	-10.2534
胡人	-10.2534
逞	-10.2535
笞	-10.2538
眀	-10.2538
寂	-10.2538
天成元年	-10.254
冕	-10.2541
驍	-10.2542
甄	-10.2542
彧	-10.2542
衛尉	-10.2542
亢	-10.2542
裔	-10.2543
涇	-10.2543
遏	-10.2543
谿	-10.2544
僚佐	-10.2544
元光	-10.2544
駱	-10.2544
雕	-10.2545
繕	-10.2545
繆	-10.2546
健	-10.2547
殷浩	-10.2547
析	-10.2547
拱	-10.2548
糓	-10.2548
朂	-10.2548
黔	-10.2548
愆	-10.2548
攘	-10.2548
彫	-10.2549
劉仁軌	-10.2549
昬	-10.2549
揮	-10.2549
聚歛	-10.2549
澤潞	-10.2549
瑶	-10.255
十一月	-10.255
袍	-10.255
上宋沈樞撰	-10.255
儼	-10.2551
紅	-10.2551
郊祀	-10.2552
誡	-10.2552
劔	-10.2552
孔融	-10.2552
敝	-10.2553
帖	-10.2553
包	-10.2553
頻	-10.2554
董卓	-10.2557
伎	-10.2557
陋	-10.2557
蒼生	-10.2557
稜	-10.2559
逵	-10.2559
暐	-10.2559
傍	-10.256
觧	-10.256
刑罰	-10.256
義熈	-10.256
奄	-10.2561
會昌	-10.2563
主簿	-10.2563
御史臺	-10.2564
樂工	-10.2565
水旱	-10.2565
許敬宗	-10.2566
致仕	-10.2569
孔光	-10.2572
勲舊	-10.2576
石敬瑭	-10.2577
離間	-10.2578
燕人	-10.2581
齊人	-10.2582
魏元忠	-10.2583
夏侯	-10.2585
男子	-10.2585
二十一年	-10.2588
義康	-10.2591
同列	-10.2594
北漢主	-10.2594
石顯	-10.2595
宜加	-10.2596
遷都	-10.2598
劾奏	-10.2599
将軍	-10.2601
方略	-10.2607
魏博	-10.2608
若其	-10.2608
非常之	-10.2611
伏兵	-10.2611
而殺之	-10.2613
不測	-10.2615
武昌	-10.2618
國寶	-10.2624
尚未	-10.2628
左遷	-10.2631
正月	-10.2633
建寧	-10.2641
時事	-10.2647
忠直	-10.265
三十年	-10.2656
事覺	-10.2663
赦天下	-10.2665
兄子	-10.2672
西域傳	-10.2677
封侯	-10.2679
故能	-10.2686
者乎	-10.2687
不容	-10.2696
信任	-10.2699
不早	-10.2701
五經	-10.2704
以成	-10.2708
或勸	-10.2711
施行	-10.2711
卿輩	-10.2712
若以	-10.2715
謂羣臣曰	-10.2743
之吏	-10.2743
十萬緡	-10.2749
賞之	-10.2756
它人	-10.2763
大笑	-10.2764
曰主上	-10.2778
東方	-10.2784
晉齊王	-10.2787
不能制	-10.2789
李石	-10.2807
屬國	-10.2817
不合	-10.2825
為誰	-10.2838
長吏	-10.284
從事	-10.2841
至公	-10.2846
四人	-10.2861
其首	-10.2863
則為	-10.2872
之辭	-10.2876
當死	-10.2891
曰然則	-10.2891
三分	-10.2897
疑其	-10.2903
鞫之	-10.2907
蜀漢	-10.2908
臣不敢	-10.291
略曰	-10.2914
為將	-10.2916
諸侯王	-10.294
奏稱	-10.2943
居中	-10.2945
領軍	-10.2949
知人	-10.2956
天福十二年	-10.2963
即命	-10.2971
晉兵	-10.2973
自負	-10.2974
相公	-10.2976
杖殺	-10.2982
四年初	-10.2982
欲殺	-10.2988
因言	-10.2991
授以	-10.2992
聖王	-10.3
也謂	-10.3
無能	-10.3011
之福	-10.3012
注曰	-10.3017
皆如	-10.3021
二日	-10.3021
為盗	-10.303
以報	-10.3049
涯	-10.3078
千匹	-10.3092
曰彼	-10.3095
崧	-10.3103
版	-10.3104
䟽	-10.3105
畔	-10.3106
九月	-10.3106
余	-10.3108
起於	-10.3108
彦章	-10.311
炭	-10.3111
謂宜	-10.3112
長孫無忌	-10.3115
維翰	-10.3115
流言	-10.3115
婁	-10.3116
諳	-10.3117
珽	-10.3118
胥	-10.3119
詆	-10.312
仇士良	-10.312
平章事	-10.312
僻	-10.3121
羨	-10.3122
曳	-10.3122
隅	-10.3122
斌	-10.3122
勗	-10.3122
嗣源	-10.3123
伸	-10.3123
黜陟	-10.3123
盧杞	-10.3123
鼠	-10.3124
有急	-10.3124
邇	-10.3124
剖	-10.3125
栢	-10.3125
覈	-10.3125
沔	-10.3126
都虞候	-10.3127
簒	-10.3128
郊祀志五	-10.3128
牽	-10.3128
廩	-10.3128
奐	-10.3128
厨	-10.3129
従	-10.313
顛	-10.3131
諒	-10.3132
東方朔	-10.3132
攸	-10.3133
婚	-10.3133
縑	-10.3133
大赦改元	-10.3133
僧尼	-10.3135
波	-10.3135
劣	-10.3135
鹽鐵	-10.3135
太皇太后	-10.3136
奴婢	-10.3136
頊	-10.3137
戯	-10.3138
窘	-10.3138
甲乙	-10.3138
有詔	-10.3139
潤	-10.3139
昧	-10.3139
悍	-10.3139
䧏	-10.314
歆	-10.314
刼	-10.3141
壺	-10.3141
頌	-10.3141
噬	-10.3141
頓首	-10.3142
匹夫	-10.3142
扼	-10.3143
䛕	-10.3143
花	-10.3143
偓	-10.3144
廊	-10.3145
巷	-10.3146
定陶	-10.3146
採	-10.3146
慨	-10.3146
延英	-10.3147
諸葛	-10.3147
輜重	-10.3148
暫	-10.315
譬如	-10.3151
楊邠	-10.3152
有異志	-10.3154
互相	-10.3154
擅權	-10.3154
下宋沈樞撰	-10.3156
陳蕃	-10.3158
埋	-10.3158
千秋	-10.316
交結	-10.3162
西京	-10.3163
李靖	-10.3164
郡太守	-10.3164
王彦章	-10.3165
自安	-10.3165
鞠	-10.3165
月餘	-10.3166
又嘗	-10.3168
懷光	-10.3174
太廟	-10.3175
其身	-10.3176
持節	-10.3177
將行	-10.3178
水陸	-10.3178
延徽	-10.318
升平	-10.3182
小兒	-10.3183
精騎	-10.3183
詩云	-10.3186
記曰	-10.319
憤怒	-10.3192
載以	-10.3194
之變	-10.3195
反覆	-10.3198
復為	-10.3198
輔政	-10.3199
北海	-10.3201
羣小	-10.3206
厚恩	-10.3207
特進	-10.3207
當今	-10.3207
力爭	-10.3212
甲士	-10.323
静帝	-10.3232
第五	-10.3233
越王	-10.3238
聖朝	-10.3241
用法	-10.3241
其辭	-10.3245
律令	-10.3255
選舉	-10.3261
以俟	-10.3262
吳主	-10.3264
聖明	-10.3273
何患	-10.3282
十六年	-10.3283
二十二年	-10.3291
南山	-10.3299
諸道兵	-10.3299
梁主	-10.3301
何用	-10.3312
乃下	-10.3314
戰士	-10.3321
曰吾聞	-10.3339
之餘	-10.3339
修徳	-10.334
之狀	-10.3349
六州	-10.3351
終日	-10.3352
猶言	-10.3354
又謂	-10.3361
元素	-10.3363
威名	-10.3366
呉越	-10.3367
文侯	-10.3368
因此	-10.3372
孝寛	-10.3378
拜之	-10.3378
行營	-10.3384
勿復	-10.3389
兵討	-10.3393
朝服	-10.34
入謝	-10.3403
嘗謂	-10.3404
稱疾	-10.3405
親近	-10.3416
命左右	-10.3417
於庭	-10.343
建州	-10.3442
聞者	-10.3458
寡人	-10.3467
宫女	-10.3474
六國	-10.3476
不治	-10.3496
吾輩	-10.3497
無它	-10.35
左軍	-10.3501
不修	-10.3517
千金	-10.3523
多事	-10.3527
可知	-10.3527
其妻	-10.3543
之末	-10.3544
言事者	-10.3544
與我	-10.3558
未平	-10.3572
所舉	-10.3588
益州	-10.3602
不由	-10.3612
未嘗不	-10.3615
大理	-10.3617
光武紀	-10.3617
義兵	-10.3618
之資	-10.362
以拒	-10.3638
此輩	-10.3638
之政	-10.3639
漢兵	-10.3664
往者	-10.3683
過失	-10.3691
罷兵	-10.3698
上黨	-10.3708
北漢	-10.3708
辜	-10.371
大怒曰	-10.3715
自若	-10.3716
髙下	-10.3716
义	-10.372
鎻	-10.3726
拾遺	-10.3728
徼	-10.3732
炎	-10.3736
逐之	-10.374
趾	-10.3741
鶴	-10.3742
郭璞	-10.3743
苞	-10.3743
宇文融	-10.3743
成帝紀	-10.3745
栗	-10.3745
僭	-10.3745
泗	-10.3745
徭	-10.3746
鉗	-10.3746
柵	-10.3747
蠶	-10.3747
篆	-10.3747
翻	-10.3747
眼	-10.3748
兵部尚書	-10.3748
壬	-10.375
箭	-10.375
公孫述	-10.3751
稽首	-10.3752
嚮	-10.3753
皇甫鎛	-10.3754
錡	-10.3755
芻	-10.3755
刋	-10.3755
剽掠	-10.3755
不獲	-10.3756
汚	-10.3756
奸	-10.3756
鉅	-10.3756
諜	-10.3757
為庶人	-10.3757
𤓰	-10.3757
想	-10.3758
璧	-10.3758
甘泉	-10.3759
哲	-10.3759
乞骸骨	-10.3759
撤	-10.3759
祥瑞	-10.376
叩	-10.3761
燮	-10.3761
尚書左丞	-10.3761
糴	-10.3761
桀紂	-10.3762
諧	-10.3762
措	-10.3762
梁天監	-10.3763
晏球	-10.3764
車騎將軍	-10.3764
酌	-10.3764
扞	-10.3765
鑑	-10.3765
白居易	-10.3766
貨財	-10.3766
吝	-10.3766
姑息	-10.3767
貴賤	-10.3768
纎	-10.3768
癡	-10.3769
楷	-10.3769
勃勃	-10.377
卞	-10.377
司𨽻校尉	-10.3771
棊	-10.3771
貨賂	-10.3771
檢校	-10.3771
宿衞	-10.3772
控	-10.3773
邯	-10.3773
來俊臣	-10.3774
李崧	-10.3778
禱	-10.3779
奉使	-10.378
髙麗	-10.378
味道	-10.3782
蕭望之	-10.3784
周勃	-10.3787
佞邪	-10.3787
恭顯	-10.3788
老弱	-10.3789
兖州	-10.379
是故	-10.3791
闗東	-10.3792
杜預	-10.3792
蘇峻	-10.3793
都䕶	-10.3796
壽陽	-10.3796
李輔國	-10.3798
數百里	-10.3801
帥百官	-10.3801
近習	-10.3803
高帝	-10.3805
征西	-10.3807
勝負	-10.3807
崔光	-10.3808
手足	-10.3809
庭湊	-10.3811
猶豫	-10.3812
張濬	-10.3813
賜爵	-10.3813
節儉	-10.3814
傅太后	-10.3818
江都	-10.3818
侍讀	-10.3818
承嗣	-10.3818
隋主	-10.3818
忠良	-10.3819
父老	-10.382
在東宫	-10.3821
毋得	-10.3821
尤甚	-10.3828
陽侯	-10.383
吾屬	-10.3842
固爭	-10.3844
京官	-10.3847
再三	-10.3861
金陵	-10.3866
莫敢言	-10.3867
孫權	-10.387
權貴	-10.3874
比來	-10.3879
退而	-10.3882
又言	-10.3882
燕主	-10.3886
監國	-10.3886
時政	-10.3887
化為	-10.3888
異於	-10.389
入侍	-10.3893
秦兵	-10.3906
無他	-10.3915
光逺	-10.3917
廢太子	-10.3918
表稱	-10.3918
備徳	-10.3923
力戰	-10.3925
歎曰吾	-10.3926
仁孝	-10.3928
必克	-10.3929
部員外郎	-10.3931
奏以為	-10.3935
上表請	-10.3938
而遣之	-10.3938
州長史	-10.3939
還鎮	-10.3945
萬世	-10.3948
固守	-10.3953
長江	-10.3954
騎射	-10.396
呼曰	-10.3973
安在	-10.3979
已死	-10.3987
承平	-10.399
黨人	-10.3996
登城	-10.3997
所過	-10.3999
異日	-10.3999
妄言	-10.4
景遂	-10.4014
呉王	-10.4015
官吏	-10.4015
治天下	-10.4035
王珪	-10.4039
杖殺之	-10.4045
稱善	-10.4047
可用	-10.4067
陽太守	-10.407
死罪	-10.4071
太公	-10.4081
李氏	-10.4082
南方	-10.4092
日食	-10.4103
先朝	-10.4105
市人	-10.4106
功業	-10.411
漢髙祖	-10.4146
出師	-10.4176
州都督	-10.4188
敕使	-10.4195
入禁中	-10.4195
無遺	-10.4198
平城	-10.4218
正色曰	-10.4225
求和	-10.4229
羣臣皆	-10.4238
且言	-10.4251
家事	-10.4257
蜀王	-10.4257
亦當	-10.429
道濟	-10.4298
悉召	-10.431
欲殺之	-10.4311
南向	-10.432
為御史大夫	-10.4323
樊噲	-10.4384
唐兵	-10.4385
張騫	-10.439
吏卒	-10.4392
與語	-10.4394
轂	-10.4398
雞鳴	-10.4401
琴	-10.4402
不豫	-10.4403
較	-10.4406
錄	-10.4407
茶	-10.4408
异	-10.4408
扆	-10.4409
響	-10.4409
餒	-10.441
卭	-10.4411
餓	-10.4411
遐	-10.4411
償	-10.4411
輯	-10.4412
琳	-10.4412
賓	-10.4413
揣	-10.4413
太中大夫	-10.4414
留後	-10.4414
萬匹	-10.4415
洗	-10.4415
隴右	-10.4415
漁	-10.4415
馭	-10.4416
朱异	-10.4417
犢	-10.4417
鸞	-10.4417
妓	-10.4417
妨	-10.4417
嗜	-10.4418
裹	-10.4418
錦繡	-10.4419
欣	-10.4419
彞	-10.4419
捶	-10.442
奢侈	-10.442
纂	-10.4421
溢	-10.4421
紂	-10.4421
狹	-10.4422
黥	-10.4422
探	-10.4422
西南夷傳	-10.4422
不可勝數	-10.4422
零	-10.4422
掘	-10.4423
蒸	-10.4423
球	-10.4423
寅	-10.4424
娯	-10.4424
猜忌	-10.4424
廖	-10.4424
漆	-10.4425
判度支	-10.4425
朽	-10.4425
租賦	-10.4426
前書音義曰	-10.4426
敬翔	-10.4426
駒	-10.4427
銳	-10.4427
蕭瑀	-10.4427
讜	-10.4428
裏	-10.4428
茹	-10.4428
岑彭	-10.4428
衮	-10.4428
尊卑	-10.443
蹙	-10.4431
郗	-10.4431
喉	-10.4431
隋煬帝	-10.4432
翊	-10.4433
鮪	-10.4433
墳	-10.4433
酷吏	-10.4433
廹	-10.4434
訖	-10.4434
中書侍郎同平章事	-10.4434
峴	-10.4434
油	-10.4435
藝文志	-10.4435
膝	-10.4436
綵	-10.4437
征討	-10.4437
召還	-10.4437
稍稍	-10.4437
椎	-10.4437
旬月	-10.4438
暨	-10.4438
臣愚以為	-10.4439
怖	-10.4439
嬪	-10.4439
沙鉢略	-10.444
李勣	-10.4441
供奉	-10.4442
韓偓	-10.4442
欣然	-10.4445
榻	-10.4446
驟	-10.4447
兩人	-10.4447
侍衛	-10.4449
長子	-10.4452
金銀	-10.4454
公孫𢎞	-10.4455
俄而	-10.4455
潼	-10.4455
顧命	-10.4462
李守貞	-10.4463
受禪	-10.4463
傳五十四	-10.4464
寢疾	-10.4465
仰視	-10.4471
太弟	-10.4471
顯宗	-10.4475
景達	-10.4477
)(	-10.4483
閉門	-10.4484
無賴	-10.449
終身不	-10.4499
景讓	-10.4509
請罷	-10.4509
冬至	-10.4517
之力也	-10.4521
晉室	-10.4523
孝文	-10.4523
賢良	-10.4532
仁義	-10.4535
數十年	-10.4537
止於	-10.454
發言	-10.4542
聖主	-10.4545
孝武	-10.4551
讓能	-10.4553
堅守	-10.4558
太白	-10.4559
元達	-10.4562
汝輩	-10.4567
一家	-10.4572
延光	-10.4583
誅宦官	-10.4591
太過	-10.4593
臣愚	-10.4597
不改	-10.4597
誣奏	-10.4597
殿前	-10.4598
相聚	-10.4603
成敗	-10.4611
相結	-10.4612
將何以	-10.4623
微行	-10.4627
必敗	-10.4636
豈能	-10.4638
上疏言	-10.464
詐為	-10.4649
外官	-10.4651
各以	-10.4654
開門	-10.4655
兵權	-10.4656
侍宴	-10.4657
罵曰	-10.4661
論議	-10.4672
思禮	-10.4676
九州	-10.469
西方	-10.4693
大體	-10.4699
一月	-10.471
不可失	-10.4715
州牧	-10.4721
沈等	-10.4723
元禮	-10.4729
未必	-10.4736
為侍中	-10.4737
稱職	-10.4751
其勢	-10.4753
不止	-10.4755
權重	-10.4779
正色	-10.4793
名士	-10.4796
終不能	-10.4799
周主	-10.4804
安世	-10.4811
亡命	-10.4828
衆議	-10.4846
明主	-10.4849
建議	-10.4858
十九年	-10.4875
乎且	-10.4897
諭之曰	-10.493
何如對曰	-10.4938
西南	-10.4965
人物	-10.4999
青州	-10.5
不忘	-10.5005
清河	-10.5017
久矣	-10.5022
不滿	-10.5034
不覺	-10.5034
何罪	-10.5049
又遣	-10.506
伶	-10.5061
右丞相	-10.5074
嗇夫	-10.5082
周公	-10.5088
味	-10.5099
粤	-10.5112
彗星	-10.5113
覃	-10.5117
兮	-10.5118
坤	-10.5119
驕奢	-10.5123
迺	-10.5123
鴻臚	-10.5125
羨餘	-10.5126
羲	-10.5126
稔	-10.5126
暢	-10.5127
酉	-10.5128
班超	-10.5128
廓	-10.5129
訛	-10.5129
佩	-10.513
剥	-10.5131
芥	-10.5131
檻車	-10.5131
軰	-10.5131
軒	-10.5132
誇	-10.5132
潁	-10.5132
昌邑	-10.5133
關内侯	-10.5133
校獵	-10.5133
毆	-10.5134
糞	-10.5135
奕	-10.5135
毗	-10.5136
璞	-10.5136
褊	-10.5136
户部侍郎	-10.5136
无忌	-10.5136
韋昭曰	-10.5136
虎賁	-10.5137
替	-10.5137
盱	-10.5137
胷	-10.5137
魂	-10.5138
危亡之	-10.5138
慘	-10.5138
筮	-10.5138
洲	-10.5138
倡	-10.5138
蠻夷	-10.5138
赫	-10.5138
甥	-10.5139
鯁	-10.5139
斫	-10.514
希範	-10.514
銷	-10.514
昇	-10.514
贇	-10.5141
蘇逢吉	-10.5141
張柬之	-10.5141
炳	-10.5141
濮	-10.5141
百年	-10.5142
牓	-10.5142
潭	-10.5142
爰	-10.5142
謂宰相曰	-10.5142
暗	-10.5143
寝	-10.5144
髙力士	-10.5144
長官	-10.5144
曵	-10.5145
抱真	-10.5145
酋長	-10.5145
嫉	-10.5145
慧	-10.5145
婦女	-10.5146
鞍	-10.5146
下欽定四庫全書通鑑總𩔖卷	-10.5146
蓄積	-10.5146
兵部侍郎	-10.5146
怡	-10.5146
邏	-10.5147
悼	-10.5147
兢	-10.5148
田令孜	-10.5148
竝	-10.5148
袒	-10.5148
柏	-10.5149
桃	-10.5149
綿	-10.515
饋遺	-10.515
咽	-10.5152
輟	-10.5152
陶侃	-10.5152
執誼	-10.5152
曰不然	-10.5152
河南尹	-10.5153
兩端	-10.5153
釐	-10.5154
儁	-10.5155
朱博	-10.5155
爽	-10.5155
部落	-10.5156
驍勇	-10.5156
蹕	-10.5156
范延光	-10.5156
太上皇	-10.5158
董賢	-10.5158
財賦	-10.5158
河朔	-10.5158
錢帛	-10.5159
膽	-10.5159
牟	-10.5161
獄吏	-10.5162
𢎞農	-10.5162
崔羣	-10.5162
李錡	-10.5162
河東節度使	-10.5163
繫獄	-10.5168
太常卿	-10.5168
左拾遺	-10.5169
遊宴	-10.517
季布	-10.5171
翹	-10.5174
切諫	-10.5174
於上前	-10.5174
樞密使	-10.5174
黄鍾	-10.5174
守宰	-10.5175
韓愈	-10.5176
劉毅	-10.5176
任圜	-10.5177
髙允	-10.5178
山川	-10.5179
忠嗣	-10.518
知祥	-10.5181
師友	-10.5183
安禄山	-10.5184
田宅	-10.5186
昭儀	-10.5187
太祖皇帝	-10.5189
貞觀元年	-10.5189
衞將軍	-10.5193
無辜	-10.5194
善其言	-10.5195
不敢言	-10.5196
獨孤	-10.5197
僧達	-10.5201
乗間	-10.5202
輕薄	-10.5202
德鈞	-10.5204
上表以為	-10.5206
内侍	-10.5206
久不	-10.5207
期年	-10.5207
到官	-10.521
喜怒	-10.5212
肅然	-10.5213
簡文帝	-10.5216
憂懼	-10.5224
韓建	-10.5224
犯法	-10.5227
丙	-10.5227
大都督	-10.5231
儒生	-10.5234
咸陽	-10.5239
光武紀建武	-10.5239
轉相	-10.5242
神䇿軍	-10.5242
寵任	-10.5244
蜀人	-10.5244
坐貶	-10.5247
厚賞	-10.5255
初即位	-10.5257
衣食	-10.5259
文昌	-10.526
不省	-10.5262
江西	-10.5266
奉天	-10.527
牙將	-10.5274
告宻	-10.5276
上言以為	-10.5277
仇讎	-10.5279
稱疾不	-10.5283
衣服	-10.5292
假子	-10.5293
治亂	-10.5304
力士	-10.5317
漢室	-10.5319
昭帝	-10.532
公卿以下	-10.5323
𤣥暉	-10.5326
莫如	-10.533
此所謂	-10.5333
白衣	-10.5336
不爾	-10.534
三族	-10.5347
其財	-10.5347
太山	-10.535
也晉灼曰	-10.535
馬氏	-10.5363
髙氏	-10.5365
至洛陽	-10.5369
部郎中	-10.5369
文章	-10.537
除名	-10.5372
五年初	-10.5372
無一人	-10.5375
仲言	-10.5377
同年	-10.5382
所以為	-10.5385
議論	-10.5386
師徳	-10.5387
小吏	-10.5409
率皆	-10.541
受詔	-10.5412
是後	-10.5417
未易	-10.5417
元帝曰	-10.5423
乃罷	-10.5427
必先	-10.5428
進思	-10.5431
無窮	-10.5447
選人	-10.5448
為尚書令	-10.5458
或云	-10.5461
慰諭	-10.5465
省中	-10.5466
故謂之	-10.5467
明年	-10.547
罷相	-10.547
建平	-10.5471
曰此非	-10.5478
取士	-10.5483
制書	-10.5486
周禮	-10.5497
敵國	-10.5504
趙張	-10.5508
請依	-10.5518
所致	-10.5535
義方	-10.5552
為皇太子	-10.5559
城西	-10.5563
手詔	-10.5577
自隨	-10.5585
何由	-10.5586
多少	-10.5612
立太子	-10.5634
同心	-10.5636
二十七	-10.5638
不能禁	-10.5643
涼州	-10.5649
武帝時	-10.5652
所敗	-10.5655
相望	-10.5692
非其人	-10.57
員外郎	-10.5704
朝恩	-10.5751
心腹	-10.5758
東北	-10.578
吾兒	-10.5818
但當	-10.5829
所由	-10.5836
溥	-10.5847
掖	-10.586
塘	-10.5881
舂	-10.5882
驪	-10.5882
屑	-10.5886
扈	-10.5886
諛	-10.5886
糶	-10.5887
冒頓	-10.5888
荘	-10.5889
觴	-10.5889
賈誼	-10.589
郵	-10.589
岱	-10.5891
補闕	-10.5891
旄	-10.5892
宣帝紀	-10.5892
眦	-10.5894
羈	-10.5894
枚	-10.5894
悖	-10.5895
長孫无忌	-10.5896
弭	-10.5896
𣙜	-10.5896
別	-10.5897
垍	-10.5897
戀	-10.5897
稻	-10.5898
帷幄	-10.5898
即帝位	-10.5898
節度副使	-10.5899
鬱林王	-10.5899
禮部尚書	-10.5899
禽獸	-10.5899
忤㫖	-10.59
擔	-10.59
剪	-10.59
蟠	-10.5901
弋	-10.5901
衷	-10.5901
畆	-10.5901
敘	-10.5902
俘	-10.5902
泛	-10.5902
拙	-10.5903
熾	-10.5904
㗖	-10.5904
冶	-10.5905
藺	-10.5905
倨	-10.5905
宣徽使	-10.5905
訣	-10.5905
欺罔	-10.5905
倩	-10.5905
隗	-10.5906
沸	-10.5906
鶡	-10.5906
旰	-10.5907
諌議大夫	-10.5907
縊	-10.5907
殃	-10.5908
訓注	-10.5908
喧	-10.5909
招討使	-10.5909
煩擾	-10.5909
璽綬	-10.5909
腸	-10.5909
嬖倖	-10.591
總管	-10.591
郝	-10.591
酖	-10.591
眩	-10.5911
闥	-10.5911
估	-10.5911
妬	-10.5912
虢	-10.5912
璹	-10.5912
了	-10.5912
後梁貞明	-10.5913
不敢復言	-10.5914
感悟	-10.5914
参	-10.5914
不可勝紀	-10.5915
迷	-10.5915
掌書記	-10.5915
賦歛	-10.5915
徃徃	-10.5916
艦	-10.5917
翟	-10.5917
珠玉	-10.5917
顯宗紀	-10.5917
仁浦	-10.5918
佗	-10.5918
册	-10.5918
刺客	-10.5918
暹	-10.5918
愁怨	-10.5919
惶恐	-10.592
嗜酒	-10.592
轍	-10.592
謀作亂	-10.592
縉	-10.5921
尚書僕射	-10.5921
巫蠱	-10.5921
閎	-10.5921
袴	-10.5922
撻	-10.5922
楊光逺	-10.5922
貟	-10.5923
亾	-10.5923
優劣	-10.5923
髙熲	-10.5923
瘠	-10.5923
切齒	-10.5924
陸䞇	-10.5924
栖	-10.5925
大破之	-10.5925
馬援傳	-10.5926
西川	-10.5926
橫	-10.5927
號哭	-10.5927
昊	-10.5927
恬	-10.5928
即今之	-10.5929
京口	-10.5929
羡	-10.5929
逃亡	-10.593
後周世宗	-10.593
叅	-10.593
鬼神	-10.5931
元和元年	-10.5931
蘇威	-10.5932
王守澄	-10.5932
懐義	-10.5933
鄴都	-10.5933
魚朝恩	-10.5934
應募	-10.5934
賈誼傳	-10.5934
不離	-10.5934
興元元年	-10.5937
窮極	-10.5937
成臯	-10.5937
租庸使	-10.5938
以下皆	-10.594
祁	-10.594
普思	-10.5943
流血	-10.5944
李愬	-10.5945
琯	-10.5946
族滅	-10.5946
左藏	-10.5947
張釋之	-10.5951
縱火	-10.5953
謂所親曰	-10.5957
承訓	-10.596
解體	-10.596
塢	-10.596
中二千石	-10.5969
開府	-10.597
順宗	-10.597
開元二年	-10.5971
二千餘人	-10.5972
臺閣	-10.5973
貴寵	-10.5973
虚實	-10.598
知逺	-10.5982
太學	-10.5983
財物	-10.5986
桓公	-10.599
杜威	-10.5991
伶人	-10.5992
咸和	-10.5995
食邑	-10.5995
斬首	-10.5996
李振	-10.5998
延賞	-10.5999
髙昌	-10.6001
草制	-10.6003
宻謀	-10.6008
為人臣	-10.6017
三十萬	-10.6017
擢用	-10.6018
權勢	-10.6023
全義	-10.6026
此誠	-10.6037
累日	-10.6047
乗馬	-10.6057
待詔	-10.606
宿將	-10.6062
歸第	-10.6064
安敢	-10.6064
横行	-10.6069
樓下	-10.6077
郡守	-10.6078
曰吾欲	-10.6088
但恐	-10.609
遂良	-10.6091
近世	-10.6097
大悦	-10.6106
盛稱	-10.6113
孫晟	-10.6115
郎官	-10.6127
邊軍	-10.6137
或告	-10.6139
吳漢	-10.614
愛民	-10.6141
責之曰	-10.6151
劉備	-10.6151
騎兵	-10.6152
獻帝	-10.6156
誅殺	-10.6163
武陵	-10.6182
乃爾	-10.6199
逺方	-10.6202
奏罷	-10.6206
為司空	-10.6212
選用	-10.6231
丹陽	-10.6238
徐公	-10.6281
賂遺	-10.6306
語之曰	-10.6346
戸部	-10.6354
濟南	-10.6365
用其言	-10.64
顔色	-10.6429
為人所	-10.6482
竊見	-10.649
罷朝	-10.6502
百五十	-10.6559
二十萬	-10.6579
稱制	-10.6582
後代	-10.6583
汴州	-10.6604
之道也	-10.6605
兵敗	-10.6631
八九	-10.6669
神䇿	-10.6686
勞軍	-10.669
租庸	-10.6699
訐	-10.6704
申錫	-10.6709
頰	-10.671
北邊	-10.6711
鎰	-10.6712
鍔	-10.6713
隕	-10.6714
酈食其	-10.6715
貝	-10.6716
庇	-10.6717
換	-10.6718
匪	-10.6719
覩	-10.6721
耆	-10.6721
銘	-10.6721
潮	-10.6722
鉉	-10.6722
烏孫	-10.6724
渙	-10.6724
免冠謝	-10.6724
宋申錫	-10.6725
人之所	-10.6726
延廣	-10.6726
沈慶之	-10.6727
萊	-10.6727
釣	-10.6727
闈	-10.6728
珍玩	-10.6729
凌	-10.6729
翠	-10.6729
閏	-10.6729
禆	-10.6729
拳	-10.673
鎔	-10.673
瑾	-10.673
帑	-10.673
太極殿	-10.673
肩	-10.6731
頠	-10.6731
殖	-10.6731
澳	-10.6731
宋楊侃輯	-10.6732
欽定四庫全書兩漢博聞卷	-10.6732
姦佞	-10.6732
閹	-10.6732
王莽傳六十九	-10.6732
憾	-10.6733
疇	-10.6733
藴	-10.6733
冬十月	-10.6733
驩	-10.6733
羯	-10.6733
畝	-10.6734
慕容垂	-10.6734
干戈	-10.6735
囂	-10.6735
歐陽	-10.6736
饑寒	-10.6736
頒	-10.6736
班固傳三十	-10.6737
廐	-10.6737
昵	-10.6737
注云前書	-10.6737
彛	-10.6737
隊	-10.6737
朞	-10.6738
矛	-10.6738
壑	-10.6738
吐突承璀	-10.6738
祀南郊	-10.6738
鬭	-10.6738
樵	-10.6738
央	-10.6739
慟	-10.6739
詣行在	-10.674
撞	-10.674
禾	-10.674
濕	-10.674
覲	-10.674
峭	-10.674
建武二年	-10.6741
貎	-10.6741
面折	-10.6743
袁盎	-10.6743
廣順二年	-10.6743
祭祀	-10.6743
貞元三年	-10.6744
叟	-10.6744
賀若弼	-10.6744
燭	-10.6744
瓜	-10.6744
清泰元年	-10.6745
塟	-10.6745
梓宫	-10.6746
右補闕	-10.6746
長興四年	-10.6746
暱	-10.6746
大厯十四年	-10.6746
仄	-10.6746
桓彦範	-10.6746
亞夫	-10.6747
憎	-10.6747
爾雅	-10.6747
司農卿	-10.6747
轅	-10.6747
頥	-10.6748
欽定四庫全書通鑑總𩔖卷	-10.6748
敷	-10.6748
淪	-10.6749
鮑宣	-10.6749
黯	-10.6749
腕	-10.6749
股肱	-10.6749
肘	-10.675
廣明元年	-10.675
春正月	-10.6751
渥	-10.6751
訥	-10.6751
會稽	-10.6751
預朝政	-10.6751
毁譽	-10.6752
□	-10.6752
瑑	-10.6752
白敏中	-10.6752
永貞元年	-10.6752
姿	-10.6753
孔謙	-10.6753
禮部侍郎	-10.6753
太平公主	-10.6754
疆場	-10.6754
延夀	-10.6754
咫尺	-10.6755
伾	-10.6755
裴垍	-10.6755
都押牙	-10.6755
沃	-10.6756
壽春	-10.6756
守澄	-10.6757
蚡	-10.6758
李琪	-10.6759
雒陽	-10.6759
州司户	-10.676
皎	-10.6761
崖	-10.6764
攀	-10.6766
五銖	-10.6766
鄂	-10.6767
吕后	-10.6767
王𤣥謨	-10.6767
金紫	-10.6768
歩騎	-10.6768
汎	-10.6769
嫌疑	-10.6769
兵馬使	-10.677
魏謩	-10.6771
禎	-10.6773
移檄	-10.6774
傾覆	-10.6774
穉	-10.6774
巴蜀	-10.6774
禆將	-10.6775
盈珍	-10.6776
二十餘年	-10.6777
祭酒	-10.6777
樞機	-10.6777
尊寵	-10.6778
張敞	-10.6778
髙駢	-10.678
宣示	-10.678
機務	-10.678
彦超	-10.6781
殆盡	-10.6782
嵗餘	-10.6784
經術	-10.6784
楊綰	-10.6784
詣京師	-10.6785
謝晦	-10.6786
教化	-10.6787
農夫	-10.679
劉知逺	-10.6791
璽書	-10.6792
東京	-10.6793
金玉	-10.6795
部曲	-10.6798
王涯	-10.6798
九卿	-10.6799
少傅	-10.6801
明旦	-10.6801
貧賤	-10.6803
十月	-10.6804
營田	-10.6804
河南北	-10.6808
就第	-10.6809
王偉	-10.6811
福建	-10.6814
兵柄	-10.6814
對䇿	-10.6814
未可知	-10.6822
太微	-10.6822
車載	-10.6823
擊破	-10.6823
胡廣	-10.683
庶政	-10.6831
諸儒	-10.6834
臨江	-10.6836
虚名	-10.6841
闕下	-10.6848
道襲	-10.685
禁止	-10.6853
伏誅	-10.6857
辭色	-10.6861
士庶	-10.6863
適足	-10.6876
入冦	-10.6881
騎士	-10.6887
視朝	-10.6892
四面	-10.6893
握兵	-10.6897
又注	-10.6902
諫曰陛下	-10.6905
行儉	-10.6906
論功	-10.6909
親屬	-10.6911
不逮	-10.6915
渡江	-10.6916
失職	-10.6923
私鑄	-10.6937
楊氏	-10.6937
士開	-10.6938
將校	-10.6939
相接	-10.6945
萬年	-10.6963
三千人	-10.6964
盛徳	-10.6975
武后	-10.6979
武功	-10.6983
盡節	-10.6993
素服	-10.6994
相賀	-10.7002
義士	-10.7004
端門	-10.7032
諸鎮	-10.7033
四月	-10.7034
小過	-10.7045
宴飲	-10.7051
宫闕	-10.7159
築城	-10.7168
無厭	-10.7176
八百	-10.7234
厚賂	-10.7235
讓之曰	-10.7281
何也對曰	-10.7292
離宫	-10.7349
至於此	-10.7392
揚州	-10.7405
二十五年	-10.7416
愕	-10.742
萬騎	-10.745
軍糧	-10.7486
城邑	-10.7585
江左	-10.7596
郊祀志	-10.7608
諤	-10.7614
㩁	-10.7615
孺	-10.7618
拾	-10.7619
藁	-10.7625
昭帝紀	-10.7627
厄	-10.763
低	-10.7631
釗	-10.7632
穰	-10.7632
項籍	-10.7634
殽	-10.7634
愎	-10.7634
黠	-10.7636
烽	-10.7636
陽平公融	-10.7637
梧	-10.7637
羊祜	-10.7637
肇	-10.7638
荀彧	-10.7638
縻	-10.7638
底	-10.7639
吉甫	-10.764
梁孝王	-10.764
複	-10.764
滔	-10.7641
羽翼	-10.7641
交阯	-10.7641
伉	-10.7641
饉	-10.7641
霜	-10.7641
旦夕	-10.7642
寐	-10.7642
兾	-10.7643
扈從	-10.7643
籠	-10.7644
幟	-10.7644
茲	-10.7644
仲長統	-10.7645
戌	-10.7645
奭	-10.7645
渴	-10.7645
殿中侍御史	-10.7645
五品以上	-10.7646
檻	-10.7646
同僚	-10.7647
團	-10.7647
悌	-10.7647
緋	-10.7647
奉朝請	-10.7648
猝	-10.7648
圓	-10.7648
讐	-10.7648
桓譚	-10.7648
巵	-10.7648
縞	-10.7648
枯	-10.7648
綈	-10.7649
皝	-10.7649
旨	-10.7649
雋不疑	-10.7649
以千數	-10.765
宼	-10.765
李珏	-10.765
杜悰	-10.765
癸	-10.765
箱	-10.765
景雲元年	-10.765
澶	-10.765
以萬數	-10.7651
孚	-10.7651
貪殘	-10.7651
搜	-10.7651
跨	-10.7651
兖州刺史	-10.7651
鵠	-10.7651
摹	-10.7651
執金吾	-10.7652
歸田里	-10.7652
黄巾	-10.7652
幡	-10.7652
延熹	-10.7652
逄	-10.7652
冗	-10.7652
懇	-10.7652
冏	-10.7652
丸	-10.7653
肩輿	-10.7653
宫掖	-10.7653
係	-10.7653
西川節度使	-10.7653
嶷	-10.7653
崔祐甫	-10.7654
武承嗣	-10.7654
墉	-10.7654
渤海	-10.7654
覬	-10.7654
擠	-10.7655
幘	-10.7655
譜	-10.7655
墾	-10.7655
阮	-10.7656
逾	-10.7656
范雲	-10.7656
䘏	-10.7656
䑕	-10.7656
堵	-10.7656
開運二年	-10.7656
霞	-10.7656
閔帝	-10.7656
組	-10.7657
髫	-10.7657
灑	-10.7657
杜黄裳	-10.7657
諝	-10.7657
碣	-10.7657
開府儀同三司	-10.7657
百餘里	-10.7658
椒	-10.7658
箠	-10.7658
裴耀卿	-10.7658
裳	-10.7658
蹇	-10.7658
魯仲連	-10.7658
市井	-10.7659
紗	-10.7659
陘	-10.766
鴈門	-10.766
以贍軍	-10.766
布帛	-10.766
神龍元年	-10.766
呂	-10.7661
騶	-10.7661
師丹	-10.7661
須臾	-10.7661
盆	-10.7661
温嶠	-10.7661
束手	-10.7662
顯徳元年	-10.7663
竝同平章事	-10.7663
擊大破之	-10.7663
簾	-10.7663
暠	-10.7663
蹋	-10.7663
事無大小	-10.7664
恣横	-10.7664
欒	-10.7664
棨	-10.7664
焚香	-10.7664
食貨志四	-10.7664
高宗	-10.7665
悛	-10.7665
蔚	-10.7665
覘	-10.7666
依違	-10.7667
拊	-10.7668
矢石	-10.7668
汶	-10.7669
朱滔	-10.7669
荘宗	-10.7672
洋	-10.7672
宴集	-10.7672
疲弊	-10.7674
褚淵	-10.7674
淚	-10.7675
抑損	-10.7675
草木	-10.7675
揔	-10.7676
肱	-10.7677
髀	-10.7677
根本	-10.7677
能否	-10.7679
弄權	-10.7679
旌旗	-10.7679
沈約	-10.7679
中大夫	-10.768
李紳	-10.768
翂	-10.768
建元元年	-10.7682
甚重之	-10.7684
訛言	-10.7684
疾篤	-10.7688
言於上曰	-10.7689
貞元十	-10.7691
蕭曹	-10.7692
宣慰	-10.7692
或問其故	-10.7693
遙	-10.7693
浮華	-10.7694
鄆州	-10.7694
驕縱	-10.7694
江夏	-10.7695
兩京	-10.7695
形勢	-10.7697
熈先	-10.7698
常衮	-10.77
𫝊瓘	-10.7701
棄市	-10.7701
内庫	-10.7702
昌宗	-10.7703
承㫖	-10.7703
正統	-10.7704
文傑	-10.7706
勇力	-10.7708
受賂	-10.7708
韋后	-10.7708
儉素	-10.771
數千里	-10.771
喪亂	-10.771
閤門	-10.7711
殿庭	-10.7711
鎮戍	-10.7713
萬紀	-10.7716
威福	-10.7717
諸吕	-10.7717
正朔	-10.7718
七廟	-10.7719
尚書省	-10.772
鄭光	-10.7723
人人自	-10.7726
唐虞	-10.7726
盜賊	-10.7728
疾病	-10.7728
封爵	-10.7729
劉晏	-10.773
避位	-10.7731
經營	-10.7731
五品	-10.7731
貧民	-10.7736
智光	-10.7737
苑中	-10.7737
司刑	-10.7738
兩省	-10.774
嚴急	-10.774
祖父	-10.7741
大司空	-10.7743
甚謹	-10.7746
直指	-10.7746
門北魏	-10.7747
十餘日	-10.7749
蘇武	-10.7749
禍敗	-10.7757
後庭	-10.7759
南仲	-10.7768
年號	-10.7772
大司徒	-10.7786
師厚	-10.7786
六合	-10.7789
分司	-10.779
名儒	-10.7802
音樂	-10.7803
皆殺之	-10.7805
景延廣	-10.7806
昭義	-10.7809
門户	-10.7825
服御	-10.783
謁見	-10.7831
應對	-10.7832
功曹	-10.7853
年老	-10.7866
愕然	-10.788
敏中	-10.7904
諸子皆	-10.7908
更衣	-10.7928
天下之士	-10.7931
隴西	-10.7981
犯顔	-10.8032
問其故對曰	-10.8033
入宮	-10.8042
曽不	-10.8077
厯數	-10.8155
後漢書	-10.8163
家貧	-10.8238
親信	-10.8326
胡騎	-10.8441
丞相御史	-10.8457
酣	-10.8516
罪惡	-10.8532
兵革	-10.8533
肺	-10.8582
彗	-10.8607
蒯	-10.8607
駟	-10.8611
騫	-10.8615
芳	-10.8616
騁	-10.8616
浦	-10.8618
乳	-10.862
髠	-10.8622
緑	-10.8626
竇憲	-10.8627
粱	-10.8627
鏤	-10.8627
瑗	-10.8627
厪	-10.8627
伋	-10.8628
昫	-10.8629
灌嬰	-10.8629
嘆	-10.8629
田蚡	-10.863
孟知祥	-10.863
曷	-10.863
酎	-10.863
叢	-10.8632
項籍傳	-10.8632
河間王	-10.8632
諍	-10.8632
棲	-10.8633
踊	-10.8633
旻	-10.8633
凍	-10.8633
闌	-10.8634
勔	-10.8634
雙	-10.8635
軀	-10.8635
陳天嘉	-10.8636
勣	-10.8636
建中四年	-10.8637
澗	-10.8637
梯	-10.8637
輅	-10.8637
褐	-10.8638
勛	-10.8638
𢎞俶	-10.8638
張衡傳	-10.8638
知制誥	-10.8638
塗炭	-10.8638
佚	-10.8639
鋸	-10.8639
匕	-10.8639
檀	-10.8639
霄	-10.864
熙	-10.8641
購	-10.8641
斵	-10.8641
手搏	-10.8641
渚	-10.8641
股	-10.8642
汜	-10.8642
挂	-10.8642
夏四月	-10.8642
觖	-10.8642
同光三年	-10.8642
袖	-10.8642
熹	-10.8642
窮困	-10.8643
珉	-10.8643
鈔	-10.8644
詗	-10.8644
絮	-10.8644
賦斂	-10.8644
漢主聰	-10.8645
壓	-10.8645
暴室	-10.8645
辟雍	-10.8645
批	-10.8645
斜封	-10.8645
作威福	-10.8646
酺	-10.8646
隷	-10.8646
衢	-10.8647
蓬	-10.8647
模	-10.8647
漏泄	-10.8647
廣順元年	-10.8647
李世勣	-10.8647
偷安	-10.8648
紈	-10.8648
侔	-10.8648
陣	-10.8648
阜	-10.8648
馮延巳	-10.8649
雌	-10.8649
史𢎞肇	-10.8649
瑄	-10.8649
夙夜	-10.8649
拓	-10.865
奨	-10.865
自古帝王	-10.865
僥	-10.865
誼	-10.8651
罪當死	-10.8651
慎矜	-10.8651
摶	-10.8651
巒	-10.8652
跣	-10.8652
顓	-10.8652
司馬遷傳	-10.8653
孩	-10.8653
太常博士	-10.8653
苟	-10.8653
何能為	-10.8653
艱	-10.8654
窟	-10.8654
鑾	-10.8654
倉庫	-10.8654
晡	-10.8654
陛下誠能	-10.8655
巨萬	-10.8655
厮	-10.8655
敺	-10.8655
睹	-10.8655
擯	-10.8656
開運元年	-10.8657
祐甫	-10.8657
李綘	-10.8657
圖䜟	-10.8657
盧把	-10.8657
三品以上	-10.8658
棟	-10.8658
夷狄	-10.8658
映	-10.8658
家者流出於	-10.8658
張延賞	-10.8658
折衝	-10.8658
苖	-10.8659
仆	-10.8659
王鉷	-10.8659
繫囚	-10.8659
節度判官	-10.8659
長興三年	-10.8659
呈	-10.8659
元和四年	-10.866
須㬰	-10.8661
䕫	-10.8661
裴寂	-10.8661
奢靡	-10.8661
櫓	-10.8662
渾瑊	-10.8662
光禄勲	-10.8662
滌	-10.8662
蕭道成	-10.8663
後唐明宗	-10.8663
閭閻	-10.8663
捉	-10.8663
段凝	-10.8665
吐谷渾	-10.8665
叔孫通	-10.8665
拂衣	-10.8665
承偕	-10.8665
張掖	-10.8666
詠	-10.8666
悖慢	-10.8667
揚雄傳五十七	-10.8667
局	-10.8667
家給人足	-10.8667
檀道濟	-10.8668
防禦	-10.8669
酒泉	-10.8669
京房	-10.8669
元稹	-10.8669
微弱	-10.8669
臨軒	-10.867
冀州刺史	-10.867
蒼頭	-10.867
也前書	-10.867
端明殿學士	-10.8671
唾	-10.8671
侵暴	-10.8671
虎牢	-10.8671
駐	-10.8672
漕運	-10.8672
桐	-10.8672
宣城王	-10.8672
漿	-10.8672
管仲	-10.8674
慄	-10.8674
長城公	-10.8674
宰輔	-10.8675
韋執誼	-10.8676
轉輸	-10.8677
賈充	-10.8678
此其所以	-10.8678
絳侯	-10.8678
領軍將軍	-10.8679
大宛	-10.8679
秦王從榮	-10.8679
流汗	-10.868
儒學	-10.868
幕府	-10.8681
倉猝	-10.8681
第舍	-10.8681
記室	-10.8682
票	-10.8683
揚州刺史	-10.8683
石勒	-10.8684
邊境	-10.8685
遁去	-10.8685
步騎	-10.8686
孟容	-10.8686
談論	-10.8687
師範	-10.8689
兼侍中	-10.8689
登樓	-10.8691
幸東都	-10.8691
茂陵	-10.8693
智伯	-10.8694
累遷	-10.8697
勞苦	-10.8699
鄭𤣥	-10.87
貞觀二年	-10.8702
黄龍	-10.8703
征虜	-10.8703
逆順	-10.8706
父兄	-10.8707
休仁	-10.8707
太史令	-10.8713
錢榖	-10.8713
斷絶	-10.8714
太夫人	-10.8715
江充	-10.8716
罪狀	-10.872
先驅	-10.8721
郭解	-10.8722
損益	-10.8725
尚書郎	-10.8725
繼嗣	-10.8726
試守	-10.8727
令坤	-10.8728
謝𤣥	-10.8729
謝病	-10.8729
朱氏	-10.873
戎服	-10.8731
楊震	-10.8731
宴樂	-10.8734
職業	-10.8735
窮治	-10.8741
歴代	-10.8743
急攻	-10.8745
爵位	-10.8746
簡易	-10.8746
王溥	-10.8751
石虎	-10.8761
江州刺史	-10.8764
太元十	-10.8764
散騎	-10.8852
忠貞	-10.9057
武庫	-10.9242
西羌	-10.9428
八千	-10.9444
桂州	-10.9636
愿	-10.971
軺	-10.972
濯	-10.9724
趙充國	-10.9728
罘	-10.9733
賁	-10.9733
阪	-10.9733
嶽	-10.9736
鞅	-10.9736
築長城	-10.9739
綘	-10.9739
躍	-10.9741
犍	-10.9741
囿	-10.9741
渤	-10.9742
襦	-10.9742
幢	-10.9742
鄭氏曰	-10.9742
爰盎	-10.9743
謔	-10.9743
譯	-10.9743
欠	-10.9743
李大亮	-10.9743
雒	-10.9744
楫	-10.9744
擿	-10.9744
回紇	-10.9744
贏	-10.9744
漳	-10.9744
住	-10.9745
毫	-10.9745
撲	-10.9745
鹽鐵轉運使	-10.9745
司馬懿	-10.9746
愛憎	-10.9746
婆	-10.9746
豕	-10.9746
甘茂	-10.9746
大秦國	-10.9747
甑生	-10.9747
杜如晦	-10.9747
碧	-10.9748
搢紳	-10.9748
幅巾	-10.9748
慤	-10.9748
鱗	-10.9749
酤	-10.9749
訕	-10.975
随	-10.975
神策軍	-10.975
遑	-10.9751
厲聲曰	-10.9751
瘞	-10.9751
珏	-10.9751
臣瓚曰	-10.9751
柩	-10.9752
磨	-10.9752
繞	-10.9752
粉	-10.9752
同光元年	-10.9752
摩訶	-10.9752
何面目	-10.9753
高力士	-10.9754
霧	-10.9754
羡餘	-10.9755
為前鋒	-10.9755
注云漢官儀曰	-10.9756
有憂色	-10.9756
岡	-10.9756
牘	-10.9756
皁	-10.9756
蘇頲	-10.9756
甸	-10.9758
莫肯	-10.9758
愠	-10.9758
椒房	-10.9759
荒淫	-10.9759
開成元年	-10.9759
農桑	-10.9759
殯	-10.9759
佃	-10.9759
隸	-10.9759
祕書監	-10.976
僣	-10.976
眉	-10.976
韋處厚	-10.976
㳺	-10.976
韋澳	-10.976
晃	-10.9761
覇	-10.9761
滄	-10.9761
謠	-10.9761
筠	-10.9761
蘓	-10.9761
陂	-10.9762
屈突通	-10.9762
湜	-10.9762
駙馬都尉	-10.9762
憬	-10.9762
鉦	-10.9762
賜自盡	-10.9763
謚	-10.9763
東川節度使	-10.9763
當是之時	-10.9763
謩	-10.9763
敦煌	-10.9763
紛紛	-10.9763
截	-10.9763
頓首謝	-10.9763
醫藥	-10.9763
泝	-10.9763
草創	-10.9763
跌	-10.9764
泰始七年	-10.9764
靈臺	-10.9764
惻	-10.9764
上欽定四庫全書通鑑總𩔖卷十	-10.9764
紿	-10.9764
宵	-10.9764
國子祭酒	-10.9765
啗	-10.9766
倉廪	-10.9766
冩	-10.9766
挽	-10.9766
百萬之衆	-10.9766
刀筆	-10.9766
滕	-10.9766
興慶宫	-10.9766
驃騎大將軍	-10.9766
杵	-10.9767
萬乘之	-10.9767
嘿	-10.9767
漢儀注	-10.9767
馴	-10.9767
孽	-10.9767
空虛	-10.9767
後周太祖	-10.9767
猾	-10.9768
鳳翔	-10.9768
壼	-10.9768
緣	-10.9768
伃	-10.9769
鎧仗	-10.9769
煙	-10.9769
婁敬	-10.9769
捧	-10.9769
千餘里	-10.977
令狐楚	-10.977
坊市	-10.977
宸	-10.977
數十騎	-10.977
朱穆	-10.977
琨	-10.9771
董仲舒	-10.9771
遍	-10.9771
杲卿	-10.9771
驚駭	-10.9771
挑戰	-10.9771
鐸	-10.9771
盗鑄	-10.9771
天雄節度使	-10.9771
顯徳二年	-10.9772
十六宅	-10.9772
薊	-10.9772
㤀	-10.9772
遊獵	-10.9773
蹂	-10.9773
彝	-10.9773
動揺	-10.9773
至徳元載	-10.9774
勢傾朝野	-10.9774
科第	-10.9774
季述	-10.9774
閭里	-10.9775
大理卿	-10.9775
未央宫	-10.9775
田承嗣	-10.9775
蔣𤣥暉	-10.9775
儋	-10.9775
楊炎	-10.9775
瀛	-10.9776
祭遵	-10.9776
瑟	-10.9776
麤	-10.9776
亘	-10.9777
躡	-10.9777
淖	-10.9777
蛟	-10.9777
司𨽻	-10.9777
妃嬪	-10.9778
演	-10.9778
譬猶	-10.9778
殄	-10.9778
播遷	-10.9778
許諾	-10.9778
疾疫	-10.9779
京畿	-10.9779
数	-10.9779
蹤	-10.9779
牡	-10.9779
耽	-10.9779
弦	-10.9779
元帝紀	-10.9781
鑰	-10.9781
側目	-10.9782
㸃	-10.9782
右拾遺	-10.9782
餅	-10.9783
形似	-10.9783
黙啜	-10.9783
侯君集	-10.9783
戰艦	-10.9783
供奉官	-10.9783
蘄	-10.9783
淮隂	-10.9784
元和三年	-10.9784
桓靈	-10.9784
李昭徳	-10.9785
中傷之	-10.9786
剽	-10.9787
杯	-10.9787
單騎	-10.9787
陛下必欲	-10.9787
東井	-10.9787
驪山	-10.9787
儒林傳	-10.9788
園陵	-10.9789
姬妾	-10.979
靈運	-10.979
郾	-10.9791
雍州刺史	-10.9791
蒱	-10.9792
下邳	-10.9792
深可畏	-10.9792
奔走	-10.9793
恟	-10.9793
疑似	-10.9794
珍寳	-10.9795
切責	-10.9795
荆州刺史	-10.9795
乳母	-10.9796
劉鄩	-10.9797
李廣傳	-10.9797
王彪之	-10.9797
夀春	-10.9798
小黄門	-10.98
傳七十二	-10.9801
引咎	-10.9802
聞之大怒	-10.9803
䝉遜	-10.9803
四十九	-10.9803
之象也	-10.9805
運糧	-10.9805
實録	-10.9807
直學士	-10.9808
羅告	-10.9808
湯武	-10.9808
杜喬	-10.9809
范質	-10.9809
博學	-10.9811
竭力	-10.9812
白刃	-10.9817
安肯	-10.9823
𢎞冀	-10.9824
今日之事	-10.9824
欽義	-10.9826
遜位	-10.9828
慙懼	-10.9829
阿母	-10.9833
夫婦	-10.9863
對曰昔	-10.9917
嘉納	-10.9971
預政	-10.9986
由是有寵	-11.0055
千緡	-11.0132
戒之曰	-11.0159
吏部郎	-11.0211
建武四年	-11.0255
勞之曰	-11.0324
百緡	-11.0605
報仇	-11.0785
更始二年	-11.087
天福三年	-11.0878
俄	-11.093
紞	-11.0952
碁	-11.0956
鄜	-11.0956
牖	-11.0961
郤	-11.0964
勝也紹	-11.0966
顯宗紀永平	-11.0973
師古曰凡言	-11.0973
懈	-11.0975
聶	-11.0975
㳙	-11.0976
安帝紀	-11.0976
幅	-11.098
蕪	-11.0981
態	-11.0984
那	-11.0984
優容之	-11.0984
晙	-11.0984
𤣥謨	-11.0986
磧	-11.0986
宛	-11.099
鳥獸	-11.0991
喙	-11.0991
錐	-11.0991
鄒	-11.0991
菑	-11.0991
灾	-11.0991
廼	-11.0992
蟬	-11.0992
申屠嘉	-11.0992
偫	-11.0993
釀	-11.0993
怙	-11.0993
犒	-11.0993
葺	-11.0994
祫	-11.0995
為青州刺史	-11.0995
裴行儉	-11.0996
任城王澄	-11.0996
陲	-11.0996
涓	-11.0996
嬉	-11.0997
誣罔	-11.0997
貞觀之初	-11.0998
工部尚書	-11.0999
死獄中	-11.0999
戣	-11.0999
鎖	-11.0999
浮屠	-11.1
丙吉	-11.1
彘	-11.1
聼	-11.1
不聊生	-11.1001
裸	-11.1001
藻	-11.1001
鑊	-11.1001
蠡	-11.1001
壤	-11.1001
隘	-11.1001
盎	-11.1002
氏為皇后	-11.1002
孫伏伽	-11.1003
醇	-11.1003
筩	-11.1003
箴	-11.1003
平盧節度使	-11.1003
祇	-11.1004
羅織	-11.1004
濠	-11.1004
酣飲	-11.1004
州别駕	-11.1004
層	-11.1004
躋	-11.1005
乾祐元年	-11.1005
廡下	-11.1005
訟寃	-11.1005
蓬萊	-11.1006
大司農	-11.1006
天下幸甚	-11.1006
羅夫子	-11.1006
不稱㫖	-11.1006
徼幸	-11.1006
沙汰	-11.1007
脚	-11.1007
浴	-11.1007
軫	-11.1007
屣	-11.1007
炅	-11.1007
崔駰傳	-11.1007
宿衛之士	-11.1008
燼	-11.1008
筑	-11.1008
袁粲	-11.1009
楊復恭	-11.1009
聿	-11.1009
仙客	-11.1009
嗚	-11.1009
眠	-11.101
滻	-11.101
脂	-11.101
柬	-11.1011
揷	-11.1011
襄楷	-11.1011
西域傳六十六	-11.1011
縯	-11.1011
薛文傑	-11.1011
徐知誥	-11.1011
踞	-11.1011
栁公權	-11.1011
綾	-11.1011
攘袂	-11.1012
虡	-11.1012
糜	-11.1012
浪	-11.1012
慎夫人	-11.1013
屍	-11.1013
春夏	-11.1013
注云説文曰	-11.1013
渝	-11.1013
王武俊	-11.1013
蔑	-11.1013
鎧	-11.1013
塲	-11.1014
采訪使	-11.1014
黷	-11.1014
薛延陁	-11.1014
誹	-11.1014
相表裏	-11.1014
亥	-11.1014
夏侯勝	-11.1014
毬	-11.1014
刺史縣令	-11.1014
竿	-11.1015
脉	-11.1015
開延英	-11.1015
兖豫	-11.1016
事遂寢	-11.1016
日有食之	-11.1016
邠寧	-11.1016
周赧王	-11.1016
懾	-11.1016
長慶二年	-11.1016
不自勝	-11.1016
寫	-11.1016
猥	-11.1017
後唐同光元年	-11.1017
佶	-11.1017
地理志八	-11.1017
誑	-11.1017
夭	-11.1017
臧否	-11.1017
西京留守	-11.1018
挈	-11.1018
讙	-11.1018
丹陽尹	-11.1018
好讀書	-11.1018
案驗	-11.1018
符瑞	-11.1019
廣平王	-11.1019
卵	-11.1019
秋冬	-11.1019
賢良方正	-11.1019
盪	-11.1019
精銳	-11.1019
幕僚	-11.1019
劉仁贍	-11.1019
租税	-11.1019
縉紳	-11.1019
惋	-11.1019
綯	-11.1019
倓	-11.1019
邊鎬	-11.102
劉向傳	-11.1021
僦	-11.1021
旗幟	-11.1021
䍐	-11.1021
牝	-11.1021
躧	-11.1021
猷	-11.1021
瑁	-11.1021
竄匿	-11.1021
嶲	-11.1021
大理少卿	-11.1021
桞	-11.1021
李巽	-11.1021
榖帛	-11.1022
衮冕	-11.1022
摘	-11.1022
醴	-11.1023
灰	-11.1023
匡範	-11.1023
拂	-11.1023
著作郎	-11.1023
抄掠	-11.1023
杜佑	-11.1023
彬	-11.1023
鴟	-11.1024
弑逆	-11.1024
耆老	-11.1024
左馮翊	-11.1024
稀	-11.1024
琪	-11.1024
杭	-11.1025
焦	-11.1025
袁術	-11.1025
百萬斛	-11.1025
慧龍	-11.1025
評	-11.1025
侍側	-11.1025
燔	-11.1025
後唐莊宗	-11.1025
比肩	-11.1025
稚	-11.1025
范滂	-11.1025
贅	-11.1025
貿	-11.1026
校書郎	-11.1026
䟦扈	-11.1027
韻	-11.1027
鴆	-11.1027
盧坦	-11.1027
鍛	-11.1027
絙	-11.1027
楊秉	-11.1028
竇融	-11.1028
蕭衍	-11.1029
昆弟	-11.1029
慰撫	-11.1029
冦恂	-11.103
幄	-11.103
亷恥	-11.103
絢	-11.1031
十餘里	-11.1031
和士開	-11.1031
爾朱榮	-11.1032
龕	-11.1032
橐	-11.1032
鄭畋	-11.1032
弇	-11.1033
禹錫	-11.1033
鏖	-11.1033
躍馬	-11.1034
營繕	-11.1034
塔	-11.1034
付廷尉	-11.1035
於地下	-11.1036
晨夜	-11.1036
恵妃	-11.1036
述律后	-11.1038
昕	-11.1038
髙貴鄉公	-11.1038
譴責	-11.1039
路巖	-11.104
約束	-11.104
開皇十	-11.104
何尚之	-11.1042
潼闗	-11.1042
瑨	-11.1043
飲藥	-11.1045
修宫室	-11.1045
凶逆	-11.1045
大厯元年	-11.1045
晏駕	-11.1046
掾史	-11.1047
毓	-11.1048
尺寸	-11.1049
魯肅	-11.1049
富饒	-11.1054
震駭	-11.1054
作色曰	-11.106
韓全誨	-11.1135
曰嗟乎	-11.1168
光武紀更始	-11.1179
潞州	-11.154
月丙	-11.2226
瑣	-11.238
媒	-11.2382
捽	-11.2388
脽	-11.2389
嶼	-11.2393
甬	-11.24
鳴鏑	-11.24
芮	-11.2401
佽	-11.2403
惰	-11.2405
彭城王義康	-11.2406
邳	-11.2406
李陵傳	-11.2406
畨	-11.2406
琅	-11.2406
勰	-11.2409
麴	-11.2409
嗇	-11.2412
技	-11.2412
罽	-11.2412
闊	-11.2414
元和十四年	-11.2414
孛	-11.2414
荀朂	-11.2415
蔬	-11.2415
糒	-11.2415
疫	-11.2416
洒	-11.2416
枝葉	-11.2417
驂	-11.2417
諶	-11.2418
篋	-11.2418
瑩	-11.2418
卯	-11.2418
巽	-11.2419
裴炎	-11.2419
叙傳七十	-11.2419
劉盆子	-11.242
虯	-11.2422
鷂	-11.2422
頂	-11.2422
恃功驕	-11.2422
錄尚書事	-11.2423
鞬	-11.2423
郴	-11.2423
問計於	-11.2423
左庶子	-11.2423
轢	-11.2424
岑文本	-11.2424
確	-11.2424
蔡興宗	-11.2424
虖	-11.2424
診	-11.2424
噲	-11.2425
棧	-11.2425
糟	-11.2426
聨	-11.2426
東平王	-11.2426
姦猾	-11.2426
僮	-11.2426
牛仙客	-11.2427
玘	-11.2427
同光二年	-11.2427
垂涕	-11.2427
鎬	-11.2428
鹵	-11.2428
豆盧革	-11.2428
鄧艾	-11.2428
鄗	-11.2428
杲	-11.2429
司馬相如傳二十七	-11.2429
成安君	-11.2429
筐	-11.2429
誚	-11.2429
用度不足	-11.2429
繒帛	-11.2429
蔣琬	-11.243
涇原	-11.243
䙝	-11.243
瘴	-11.243
衘	-11.243
僮僕	-11.243
匈奴傳六十四	-11.243
摩	-11.243
元康九年	-11.243
李訓鄭注	-11.243
從事中郎	-11.2431
宗楚客	-11.2431
孔緯	-11.2431
猴	-11.2432
膚	-11.2432
薛仁貴	-11.2432
耏	-11.2432
皇城使	-11.2433
出入宫掖	-11.2433
葭莩	-11.2433
鴈	-11.2433
璫	-11.2433
炙	-11.2433
磐	-11.2433
昆明池	-11.2433
譎	-11.2433
悚	-11.2433
玫	-11.2433
鄜坊	-11.2433
鍾謨	-11.2433
慧範	-11.2434
淮泗	-11.2434
踐阼	-11.2434
噉	-11.2434
墟	-11.2434
徐湛之	-11.2435
賈捐之	-11.2435
韓安國	-11.2435
悴	-11.2435
酋	-11.2435
張揖曰	-11.2436
州諸軍事	-11.2436
蹶	-11.2436
區區	-11.2436
覺寤	-11.2436
為己任	-11.2436
牲	-11.2436
穫	-11.2436
戇	-11.2436
永光元年	-11.2437
帯	-11.2437
琇	-11.2437
祔	-11.2437
蕞	-11.2437
姦宄	-11.2437
迎佛骨	-11.2437
宇文泰	-11.2438
朱𢎞昭	-11.2438
壕	-11.2438
王世充	-11.2438
駝	-11.2438
以天下為己任	-11.2438
將若之何	-11.2438
品藻	-11.2439
兜	-11.2439
曖昧	-11.2439
佩刀	-11.2439
長慶四年	-11.2439
郅	-11.2439
相如傳二十七	-11.2439
瓉	-11.2439
製	-11.2439
泣訴於	-11.2439
源乾曜	-11.2439
匄	-11.2439
愜	-11.2439
旼	-11.2439
搜捕	-11.244
叩頭流血	-11.244
腹心之疾	-11.244
殫	-11.2441
淄青	-11.2441
嫗	-11.2441
東方朔傳三十五	-11.2442
戢	-11.2442
閫	-11.2442
緜	-11.2442
上疏曰臣聞	-11.2442
凱	-11.2442
天授元年	-11.2442
賞賚	-11.2442
莫知所	-11.2443
廬陵王	-11.2443
貉	-11.2443
都官尚書	-11.2444
舛	-11.2444
僃	-11.2444
壮	-11.2444
建興元年	-11.2444
朱敬則	-11.2444
昃	-11.2444
刄	-11.2445
娱	-11.2445
櫜	-11.2445
番	-11.2445
隼	-11.2445
液	-11.2445
綸	-11.2445
永淳元年	-11.2445
峽	-11.2445
槃	-11.2445
玖	-11.2445
嘏	-11.2445
長慶元年	-11.2446
衫	-11.2446
侣	-11.2446
咄	-11.2446
己亥	-11.2446
祖珽	-11.2446
稠	-11.2446
豹尾	-11.2446
𢎞肈	-11.2446
長壽元年	-11.2447
邊幅	-11.2447
徭役	-11.2448
涿	-11.2448
遣其將	-11.2449
㳂	-11.2449
㝠	-11.2449
州安置	-11.2449
與宰相論	-11.2449
商旅	-11.2449
籯	-11.2449
鱣	-11.2449
惕	-11.245
蠭	-11.245
羽檄	-11.245
釋名曰	-11.245
鍊	-11.245
六品以下	-11.245
樸	-11.245
閥	-11.245
翫	-11.245
鼓譟	-11.2451
緘	-11.2451
黑	-11.2451
鴟夷	-11.2451
堡	-11.2451
鄭絪	-11.2451
匝	-11.2451
令狐綯	-11.2453
虎魄	-11.2453
拭	-11.2454
有大功於	-11.2454
哥	-11.2455
殷仲文	-11.2455
縠	-11.2455
攬	-11.2455
刓	-11.2455
勍敵	-11.2456
閩主曦	-11.2456
疽	-11.2456
渠犂	-11.2456
佯	-11.2457
鵲	-11.2457
俾	-11.2457
洶	-11.2457
秣	-11.2457
郃	-11.2458
永泰元年	-11.2458
淨	-11.2458
轉運使	-11.2459
舟艦	-11.2459
粹	-11.246
鯨魚	-11.246
弈	-11.246
悖逆	-11.246
乾祐二年	-11.246
砥	-11.246
錚	-11.246
蹴	-11.2461
廣順三年	-11.2461
徐邈	-11.2461
翕	-11.2462
窮奢極	-11.2462
嗚咽	-11.2462
以本官	-11.2463
弓矢	-11.2463
托	-11.2463
葦	-11.2464
社稷之福	-11.2464
後周顯德	-11.2464
忻	-11.2465
壅	-11.2466
冡	-11.2466
霍去病	-11.2467
顒	-11.2467
為謀主	-11.2468
萬石君	-11.2468
朏	-11.2469
宇宙	-11.2469
軼	-11.2472
韓熈載	-11.2472
回鶻	-11.2473
茸	-11.2475
房琯	-11.2487
仕宦	-11.2487
為賊所	-11.25
季札	-11.2533
天監十	-11.2548
千四百	-11.2772
十萬斛	-11.3004
鷤	-11.402
禖	-11.4042
絫	-11.4043
糵	-11.4048
醬	-11.4052
姨舅	-11.4055
玢	-11.4056
撟	-11.4056
路温舒	-11.4057
廻	-11.406
訢	-11.406
輜	-11.4062
馥	-11.4063
鉷	-11.4063
拓䟦	-11.4065
莋	-11.4067
諦	-11.407
蹻	-11.407
羆	-11.4071
軾	-11.4071
葵	-11.4071
櫂	-11.4071
楊虞卿	-11.4071
中行說	-11.4071
璣	-11.4072
髻	-11.4072
虓	-11.4072
稟	-11.4073
皆此𩔖也	-11.4073
沈攸之	-11.4073
刳	-11.4074
阨	-11.4076
蕡	-11.4076
葱嶺	-11.4077
瓠	-11.4077
跅	-11.4077
冲	-11.4078
蒿	-11.4078
王求禮	-11.4079
班偼伃	-11.4081
蒯通傳	-11.4081
影	-11.4081
工部侍郎	-11.4081
偏禆	-11.4081
籙	-11.4083
鄒陽傳	-11.4083
枌	-11.4083
戊巳	-11.4084
淄	-11.4084
紊	-11.4086
廣雅曰	-11.4086
胙	-11.4087
不可勝計	-11.4087
灼	-11.4087
漢官儀曰	-11.4088
銛	-11.4088
錢千萬	-11.4088
顯徳六年	-11.4088
不亦可乎	-11.4088
蔓	-11.4089
淑	-11.4089
抽	-11.4089
平帝紀元始	-11.4089
齡	-11.409
虞世南	-11.409
專制朝政	-11.4091
陳子昻	-11.4091
注云風俗通曰	-11.4092
禇	-11.4092
樹機能	-11.4092
𤣥武門	-11.4092
搒	-11.4092
紇	-11.4092
諠譁	-11.4093
太子洗馬	-11.4093
嵇	-11.4093
架	-11.4093
埒	-11.4093
道行軍總管	-11.4093
開封尹	-11.4094
粥	-11.4094
説文云	-11.4094
為邊患	-11.4094
韍	-11.4094
清泰二年	-11.4094
刪	-11.4094
幸華清宫	-11.4094
甯	-11.4095
騖	-11.4095
定陶共皇	-11.4095
賕	-11.4095
魄	-11.4096
光禄卿	-11.4096
鄣	-11.4096
籥	-11.4097
党	-11.4097
醒	-11.4098
門下侍郎同平章事	-11.4098
斜	-11.4098
撾	-11.4099
盻	-11.4099
爾朱兆	-11.4099
缿	-11.4099
逡	-11.41
有力焉	-11.41
在相位	-11.41
竦	-11.4101
謟諛	-11.4101
嫚	-11.4101
臣瓉曰	-11.4101
曩	-11.4101
袂	-11.4101
翟璜	-11.4102
氊	-11.4102
罹	-11.4102
堞	-11.4102
獠	-11.4102
瘡	-11.4102
廣志曰	-11.4102
籍没其家	-11.4102
蹔	-11.4102
撥	-11.4102
詿誤	-11.4102
讒慝	-11.4102
銜枚	-11.4102
糲	-11.4102
睢	-11.4102
夸	-11.4103
神䇿六軍	-11.4103
君臣之分	-11.4103
姚元之	-11.4103
寇謙之	-11.4104
諠	-11.4104
控鶴	-11.4104
踣	-11.4104
挫	-11.4104
道不拾遺	-11.4104
稗	-11.4104
函谷闗	-11.4105
欄	-11.4105
綃	-11.4105
襟	-11.4105
到彦之	-11.4105
叶	-11.4106
瘁	-11.4106
繹	-11.4106
芒	-11.4106
迪	-11.4106
彀	-11.4106
修洛陽宫	-11.4107
曰何謂也	-11.4107
詔報曰	-11.4107
𠫭	-11.4107
威震天下	-11.4107
鐵劵	-11.4107
槨	-11.4107
鑄鐵錢	-11.4107
鷹犬	-11.4107
濡	-11.4108
佐命功	-11.4108
康延孝	-11.4108
度遼將軍	-11.4108
昂	-11.4108
栅	-11.4108
為諫大夫	-11.4109
罪不至死	-11.4109
苞苴	-11.4109
般	-11.4109
筏	-11.4109
邁	-11.4109
府藏空竭	-11.4109
杜正倫	-11.411
烝	-11.411
荆南節度使	-11.411
言於明皇曰	-11.411
佑	-11.411
帽	-11.411
絃	-11.411
行軍司馬	-11.411
璆	-11.4111
臭	-11.4111
門東漢	-11.4111
沾	-11.4111
韋貽範	-11.4111
絡	-11.4112
東昬侯	-11.4112
胎	-11.4112
莢	-11.4112
顯徳四年	-11.4113
太子少保	-11.4113
頑	-11.4113
肅宗紀元和	-11.4113
觀察判官	-11.4113
途	-11.4114
倢	-11.4114
天祐二年	-11.4114
裴光庭	-11.4114
哂	-11.4114
搤	-11.4114
憕	-11.4114
槐	-11.4115
婁師徳	-11.4115
通事舍人	-11.4115
亨	-11.4115
長慶三年	-11.4115
讟	-11.4115
隻	-11.4115
舁	-11.4116
耿弇	-11.4116
沉	-11.4116
皥	-11.4116
坎	-11.4116
偷	-11.4116
所向無前	-11.4117
療	-11.4117
艫	-11.4117
鄂岳	-11.4117
翜	-11.4117
耻	-11.4117
滛	-11.4117
紿之曰	-11.4117
俶	-11.4117
詈	-11.4117
𫉬	-11.4117
絰	-11.4118
大王誠能	-11.4118
縢	-11.4118
燾	-11.4118
輿服志	-11.4118
靳	-11.4118
舋	-11.4118
箸	-11.4118
隲	-11.4118
於便殿	-11.4118
溷	-11.4119
懟	-11.4119
爪	-11.4119
卞壼	-11.4119
邈	-11.412
謂同列曰	-11.4121
建中元年	-11.4121
筯	-11.4122
坏	-11.4122
耒	-11.4122
豺狼	-11.4122
叨	-11.4123
蠟	-11.4123
俞	-11.4123
陳後主	-11.4123
麋	-11.4123
柘	-11.4123
聦	-11.4124
呵	-11.4124
鉤弋	-11.4124
蠱	-11.4124
漂	-11.4125
訃	-11.4125
大通元年	-11.4125
聊	-11.4125
鈎	-11.4125
求救於	-11.4125
珙	-11.4126
長廣王	-11.4126
馬全節	-11.4127
劉穆之	-11.4127
慿	-11.4127
礪	-11.4127
綠	-11.4127
丘墟	-11.4128
僵	-11.4128
稺	-11.4129
綮	-11.4129
竇儼上疏	-11.413
貊	-11.413
計將安出	-11.4131
太康元年	-11.4131
魏𤣥同	-11.4131
張𤣥素	-11.4132
頽	-11.4132
櫝	-11.4133
㒺	-11.4133
迂	-11.4133
王叔文之黨	-11.4133
獿	-11.4133
成徳節度使	-11.4133
㟁	-11.4133
鈇	-11.4133
崔季舒	-11.4135
晷	-11.4136
籖	-11.4137
言無不從	-11.4138
以萬計	-11.4138
封徳彛	-11.4139
以私財	-11.414
繭	-11.4143
獺	-11.4156
紆	-11.416
謂公卿曰	-11.4773
全誨等	-11.588
天福元年	-11.5903
醖	-11.6009
輼輬車	-11.6015
䳏	-11.6016
軷	-11.6022
荀朂馮紞	-11.6024
橛	-11.603
袝	-11.6035
枸	-11.6046
畦	-11.6046
釂	-11.6046
夔	-11.6052
蜺	-11.6054
歐	-11.6054
奈	-11.6058
紬	-11.6058
盲	-11.606
湔	-11.6063
纍	-11.6069
秃	-11.607
梗	-11.607
今陛下能乎其不可	-11.607
天福二年	-11.607
嗷	-11.6071
嘲	-11.6072
鼙	-11.6072
冊禮使	-11.6073
悔之何及	-11.6073
于定國	-11.6073
秭	-11.6073
禘	-11.6074
肄	-11.6074
勍	-11.6075
朱守殷	-11.6076
螟	-11.6076
寖	-11.6077
兀	-11.6077
䟆	-11.6077
哺	-11.6078
籞	-11.6078
廨	-11.6079
軿	-11.6079
朱虚侯	-11.608
婆羅門	-11.608
鄧展曰	-11.608
吁	-11.6081
耐	-11.6081
槀	-11.6082
垢	-11.6082
懣	-11.6082
槍	-11.6082
思潮等	-11.6082
餞	-11.6083
鋋	-11.6083
李紹宏	-11.6083
盾	-11.6083
頤	-11.6083
偕	-11.6084
武德元年	-11.6084
什七八	-11.6084
音張戀反	-11.6084
絞	-11.6084
李斐曰	-11.6084
衽	-11.6085
儆	-11.6085
五品已上	-11.6085
才兼文武	-11.6085
襁	-11.6086
聳	-11.6086
頲	-11.6087
奉表稱臣	-11.6087
歷	-11.6087
渇	-11.6088
犁	-11.6089
王夷甫	-11.6089
劵	-11.6089
坑	-11.6089
蚩	-11.6089
舒元輿	-11.6089
挹	-11.6089
詛	-11.609
得風疾	-11.609
冎	-11.609
陳大建十三年	-11.609
軨	-11.609
綴	-11.6091
傳國寳	-11.6091
蟻	-11.6091
漲	-11.6091
蔕芥	-11.6091
么	-11.6091
祕書郎	-11.6092
仞	-11.6092
曼	-11.6092
杼	-11.6092
歟	-11.6092
楊思恭	-11.6092
嬴	-11.6093
上林苑	-11.6093
􁚫	-11.6093
泳	-11.6093
轉禍為福	-11.6094
吟	-11.6094
忠武節度使	-11.6094
平帝紀	-11.6094
纚	-11.6094
覡	-11.6094
壙	-11.6094
鶻	-11.6094
越騎校尉	-11.6094
會稽王昱	-11.6095
江文蔚	-11.6095
鑄五銖錢	-11.6095
研	-11.6095
地理志	-11.6096
裴子野論曰	-11.6096
蓄異志	-11.6096
之故吏也	-11.6096
浣	-11.6096
薛廣徳	-11.6097
譔	-11.6097
店	-11.6097
光祿大夫	-11.6097
吾丘壽王	-11.6097
浹	-11.6097
靴	-11.6097
脈	-11.6097
上柱國	-11.6098
今俗呼	-11.6098
雛	-11.6098
冉	-11.6098
太子少師	-11.6098
寳厯元年	-11.6098
猗	-11.6098
羮	-11.6098
耦	-11.6098
孔目官	-11.6098
得休息	-11.6098
轝	-11.6098
漫	-11.6098
鳬	-11.6098
孟漢瓊	-11.6099
豬	-11.6099
刷	-11.61
爛	-11.61
斛律光	-11.61
鬚	-11.61
纊	-11.61
鴻都門	-11.61
鰒	-11.61
華陽國志	-11.6101
恃寵驕恣	-11.6101
兎	-11.6101
洮	-11.6101
礙	-11.6101
少陽院	-11.6101
盧懷慎	-11.6101
崔𤣥暐	-11.6102
淡	-11.6102
輙	-11.6102
呪	-11.6102
事皆先白	-11.6102
打	-11.6103
景龍元年	-11.6103
自兵興以來	-11.6103
二百九十	-11.6103
録事參軍	-11.6103
永昌元年	-11.6103
守孤城	-11.6104
抜	-11.6104
勾	-11.6104
餽	-11.6104
娣	-11.6104
宫又自此而從於	-11.6104
椽	-11.6105
州團練使	-11.6105
祕不發喪	-11.6105
糗	-11.6105
燈	-11.6105
酸	-11.6105
刑法志	-11.6105
辠	-11.6105
刎	-11.6106
掣	-11.6106
鄧景山	-11.6106
吠	-11.6106
傖	-11.6106
紏	-11.6107
噐	-11.6107
殱	-11.6107
瘦	-11.6107
郭太傳	-11.6108
濶	-11.6108
賣官鬻獄	-11.6108
豁	-11.6108
歧	-11.6108
搔	-11.6108
權傾人主	-11.6108
皇泰主	-11.6108
宣徽北院使	-11.6109
舳	-11.6109
館陶公主	-11.6109
蠅	-11.6109
神龍二年	-11.6109
䕃	-11.6109
乾祐三年	-11.6109
瞑	-11.6109
莖	-11.6109
澧	-11.611
息夫躬	-11.611
赭	-11.611
堤	-11.611
羣臣莫及	-11.611
甌	-11.611
矟	-11.6111
烏合之衆	-11.6111
駰	-11.6111
廪	-11.6111
㝢	-11.6112
㶚	-11.6112
不過二三	-11.6112
覦	-11.6112
勮	-11.6112
碩	-11.6112
邙	-11.6112
鷇	-11.6112
黄仁諷	-11.6112
様	-11.6112
永康元年	-11.6113
順流而下	-11.6113
縫	-11.6113
悸	-11.6113
梵	-11.6113
畯	-11.6113
爵闗内侯	-11.6114
盧懐慎	-11.6114
拉	-11.6114
炬	-11.6114
憙	-11.6114
摛	-11.6114
槽	-11.6114
蘇安恒	-11.6114
詎	-11.6114
赴國難	-11.6114
鈴	-11.6114
開運三年	-11.6116
逍	-11.6116
隄	-11.6116
齧	-11.6116
領尚書事	-11.6117
逓	-11.6117
鑕	-11.6117
澠	-11.6117
治書侍御史	-11.6117
邃	-11.6117
催	-11.6117
自即位以來	-11.6117
迴	-11.6117
註	-11.6117
山南東道節度	-11.6118
桄	-11.6118
鉏	-11.6118
蹏	-11.6118
骸	-11.6119
慴	-11.6119
鏁	-11.6119
不亦善乎	-11.6119
左金吾大將軍	-11.6119
努	-11.6119
廣徳元年	-11.6119
釃	-11.6119
多祚等	-11.6119
臧宫傳	-11.6119
衿	-11.612
丑	-11.612
腦	-11.612
為鄂岳觀察使	-11.612
縋	-11.612
蹊	-11.612
絪	-11.612
鷙	-11.6121
娛	-11.6121
杖一百	-11.6121
櫑	-11.6121
永明二年	-11.6122
充位而已	-11.6122
鬢	-11.6122
鵝	-11.6122
瓶	-11.6122
忽忽不樂	-11.6122
尚結賛	-11.6122
颺	-11.6122
燎	-11.6123
羇	-11.6123
阿保機	-11.6123
鬱鬱不得志	-11.6123
儔	-11.6123
各得其所	-11.6123
瀹	-11.6123
慝	-11.6124
玭	-11.6124
棹	-11.6124
猪	-11.6124
蠋	-11.6124
萃	-11.6125
崤	-11.6126
曙	-11.6126
道路以目	-11.6126
橈	-11.6127
杜重威	-11.6127
璵	-11.6127
甕	-11.6127
藍	-11.6127
豚	-11.6128
啖	-11.6129
竟陵王子良	-11.613
翟方進	-11.613
髙士廉	-11.613
縮	-11.6131
狙	-11.6131
濵	-11.6132
元載王縉	-11.6132
韋保衡	-11.6133
核	-11.6134
蒼梧王	-11.6135
梨	-11.6135
檝	-11.6136
輝	-11.6136
鄩	-11.6136
斆	-11.6138
周威烈王二十三年	-11.6139
昭陽殿	-11.6139
夘	-11.6139
屩	-11.6143
賈山傳	-11.6145
槥	-11.6146
啼	-11.6147
𢎞恭石顯	-11.6148
鄭元弼	-11.6157
門外又立	-11.6157
臻	-11.6158
檉	-11.6159
辟疑赦其罰	-11.616
永元十	-11.6194
李尋傳	-11.6195
楊賜傳	-11.6415
褚遂良上疏以	-11.6596
駔	-11.8495
瘃	-11.8518
皸	-11.8521
鼲	-11.8528
蜮	-11.8529
躅	-11.854
稾	-11.8543
宋沈樞撰	-11.8546
霓	-11.855
鼐	-11.8552
崔昭緯	-11.8553
葆	-11.8554
鼒	-11.8554
罄	-11.8558
裞	-11.8561
詹	-11.8561
堆	-11.8563
𦕈	-11.8563
虹	-11.8564
元嘉二十八年	-11.8564
長楊五柞	-11.8564
縣土炭	-11.8565
皇甫徳參	-11.8567
螖	-11.8568
大𣗳將軍	-11.857
鋊	-11.857
軒轅集	-11.8571
伊邪莫演	-11.8571
狷	-11.8572
寥	-11.8572
劉屈氂傳	-11.8574
武帝紀元鼎	-11.8575
趙元楷	-11.8575
㰱	-11.8575
昭帝紀元鳳	-11.8575
亹	-11.8575
柯	-11.8576
滇	-11.8576
蔡景厯	-11.8576
娘	-11.8578
紱	-11.8578
鄱	-11.8578
問所從來	-11.8578
齓	-11.8578
四鎮十姓	-11.8578
塊	-11.8578
嗤	-11.8579
捲	-11.8579
墻	-11.8579
時和年豐	-11.8579
獻瓜果者	-11.8579
盂	-11.8579
誹謗朝政	-11.8579
漠	-11.8581
袁象先	-11.8581
煌	-11.8582
湎	-11.8582
摇	-11.8582
讞	-11.8582
髯	-11.8582
閽	-11.8582
湯沐邑	-11.8582
勸課農桑	-11.8583
鄧皇后傳	-11.8583
將作大匠	-11.8583
籩	-11.8583
罽賔國	-11.8583
鄠	-11.8583
駑	-11.8583
臠	-11.8583
𧖟	-11.8583
埆	-11.8583
劓	-11.8585
崔潭峻	-11.8585
棣	-11.8585
罌	-11.8585
憶	-11.8585
儈	-11.8586
飼	-11.8586
圭	-11.8586
鍉	-11.8586
鐫	-11.8586
權侔人主	-11.8586
棱	-11.8586
曖	-11.8587
璜	-11.8587
卑辭厚禮	-11.8587
璿	-11.8587
陛下富於春秋	-11.8588
陴	-11.8588
彩	-11.8589
軹	-11.8589
旃	-11.8589
洛口倉	-11.8589
戹	-11.8589
捃	-11.8589
承平日久	-11.8589
鬼薪白粲	-11.8589
麽	-11.8589
夙	-11.859
系	-11.859
䫇	-11.859
寳厯二年	-11.859
閼	-11.859
柢	-11.859
繯	-11.859
肈	-11.859
惴	-11.8592
觀軍容使	-11.8592
不亦難乎	-11.8592
卦	-11.8592
安審琦	-11.8592
以應天心	-11.8592
讇	-11.8593
曰事急矣	-11.8593
五行志七下之	-11.8593
槊	-11.8593
釡	-11.8593
䊪	-11.8593
申公白生	-11.8594
瀆	-11.8594
􁂥	-11.8594
醢	-11.8594
庫以掌之	-11.8594
性傾巧	-11.8594
跂	-11.8594
屛	-11.8596
張宗奭	-11.8596
剔	-11.8596
榭	-11.8596
醮	-11.8596
柹	-11.8596
莒	-11.8596
撝	-11.8596
薫	-11.8596
嶢	-11.8596
禺	-11.8596
䣛	-11.8596
㳟	-11.8597
周興來俊臣	-11.8597
秪	-11.8597
簪	-11.8597
鬌	-11.8597
匣	-11.8597
朱友謙	-11.8597
觚	-11.8597
𣗳	-11.8599
芟	-11.8599
攪	-11.8599
筵	-11.8599
茵	-11.86
縶	-11.86
瑒	-11.86
圯	-11.86
諫議大夫褚遂良曰	-11.86
伽	-11.86
倪若水	-11.86
尫	-11.86
舘	-11.86
漬	-11.86
霆	-11.86
遞	-11.86
吮	-11.86
砂	-11.8601
洄	-11.8601
逗	-11.8601
斾	-11.8601
出入卧内	-11.8601
姦吏因縁	-11.8601
雇	-11.8601
以日易月	-11.8601
裋	-11.8601
悽	-11.8603
礫	-11.8603
赧	-11.8603
銀青光禄大夫	-11.8603
袁恕已	-11.8603
闚	-11.8603
壚	-11.8603
涪	-11.8603
見怪則修	-11.8603
髙行周符彦卿	-11.8604
殍	-11.8604
張易之兄弟	-11.8604
卬	-11.8604
昉	-11.8604
紓	-11.8604
𨕖	-11.8604
繋	-11.8604
菽	-11.8604
迕	-11.8604
劘	-11.8604
烱	-11.8604
虫	-11.8604
蔡邕傳五十下	-11.8605
同中書門下三品	-11.8606
睨	-11.8606
鄭餘慶	-11.8606
狠	-11.8606
澆	-11.8606
祧	-11.8606
令四人擊毬賭三川	-11.8606
旒	-11.8606
炊	-11.8606
玦	-11.8606
禧	-11.8606
蝦	-11.8606
豆盧革韋説	-11.8606
邰	-11.8606
喑	-11.8607
莩	-11.8607
宋元嘉八年魏	-11.8607
應天順人	-11.8607
鑣	-11.8607
朓	-11.8607
跖	-11.8607
拆	-11.8608
亂臣賊子	-11.8608
俎	-11.8608
僉	-11.8608
奠	-11.8608
猫	-11.8608
詘	-11.8608
諮議參軍	-11.8608
以社稷大計	-11.8608
飭	-11.8608
㑹稽王昱	-11.8608
瓴	-11.8608
瞽	-11.8608
程行湛	-11.8608
譁	-11.861
更思其次	-11.861
賖	-11.861
乾符元年	-11.861
相顧失色	-11.861
甓	-11.861
緍	-11.861
䋁	-11.861
僊	-11.861
秘書監	-11.861
馮奉世傳	-11.861
烏秅國	-11.861
鉆	-11.861
苴	-11.8611
髓	-11.8611
縝	-11.8611
衒	-11.8611
禮部尚書蘇循	-11.8611
没弈于	-11.8611
袐	-11.8611
西都賦云	-11.8611
墯	-11.8611
薛萬徹	-11.8611
擐	-11.8611
攤	-11.8611
硤	-11.8611
必核其真然後授其	-11.8611
肌	-11.8611
儀同三司	-11.8612
山南西道節度使	-11.8612
軸	-11.8612
擕	-11.8612
必核其真然後	-11.8612
太宰義恭	-11.8612
奥	-11.8612
丹青之信	-11.8612
顔師古	-11.8612
李彦韜	-11.8614
狸	-11.8614
陀	-11.8614
雊	-11.8614
張廷範	-11.8614
杜鴻漸	-11.8614
煮	-11.8614
瘢	-11.8614
嶸	-11.8614
皂	-11.8614
笥	-11.8615
公私困竭	-11.8615
島	-11.8615
於天津橋	-11.8615
眷	-11.8615
售	-11.8615
慕容紹宗	-11.8615
掔	-11.8615
獪	-11.8615
峯	-11.8615
纛	-11.8615
謂宰相曰朕毎	-11.8615
侑	-11.8615
躪	-11.8615
鋤	-11.8617
庖	-11.8617
昻	-11.8617
黙然良久曰	-11.8617
笠	-11.8617
秒	-11.8617
史館修撰	-11.8618
員外散騎侍郎	-11.8618
墅	-11.8618
扵	-11.8618
的	-11.8618
㕓	-11.8619
櫛	-11.8619
變凶逆之族為忠義之門	-11.8619
崔慎由	-11.8619
中常侍侯覽	-11.8619
餗	-11.8619
臼	-11.8619
簺	-11.8619
富商大賈	-11.8621
磬	-11.8621
郎顗傳二十	-11.8621
雩	-11.8621
人面獸心	-11.8621
裾	-11.8621
褎	-11.8621
葱	-11.8621
楹	-11.8622
無所忌憚	-11.8622
隧	-11.8622
屨	-11.8622
婞	-11.8622
人曰伯蔚	-11.8622
亶	-11.8622
起受侯印	-11.8622
𤨏	-11.8622
枷	-11.8622
鏑	-11.8623
悔無及矣	-11.8624
纒	-11.8624
湏	-11.8624
鄄	-11.8624
以防壅蔽	-11.8624
執失思力	-11.8624
含章殿	-11.8625
跳	-11.8625
戱	-11.8625
眇	-11.8625
毐	-11.8625
綆	-11.8625
惔	-11.8626
都督中外諸軍事	-11.8626
芸	-11.8626
㕘	-11.8626
此上䇿也	-11.8626
崔元藻	-11.8626
暄	-11.8626
麪	-11.8626
兔	-11.8628
竈	-11.8628
肅宗紀建初	-11.8628
嚬	-11.8628
潢	-11.8628
穹	-11.8628
邴	-11.8629
應對如流	-11.8629
鈍	-11.8629
涌	-11.863
曇	-11.8632
摭	-11.8632
髦	-11.8632
請昭宗遷都洛陽	-11.8632
後梁開平二年	-11.8633
瓆	-11.8633
薛謙光	-11.8633
埃	-11.8635
為刑部尚書	-11.8635
盧從愿	-11.8635
侲	-11.8635
媿	-11.8635
蚌	-11.8635
都官員外郎	-11.8636
醪	-11.8637
跬	-11.8637
凑	-11.864
媯	-11.864
澹	-11.864
元嘉二十九年	-11.864
繻	-11.864
傭	-11.8642
籬	-11.8642
穽	-11.8643
縌	-11.8643
洩	-11.8643
荆南髙季興	-11.8643
飄	-11.8644
憺	-11.8647
黄魯曽	-11.8647
蓺	-11.865
汁	-11.8653
韝	-11.8655
蘧	-11.8657
媟	-11.8658
鍰	-11.8658
繦	-11.866
瞀	-11.8669
阹	-11.8678
鷁	-11.868
躢	-11.8687
肖	-12.185
堊	-12.1852
墍	-12.1852
鴂	-12.1852
豽	-12.1857
㥯	-12.1861
潘峭毛文錫	-12.1863
羅渾擎	-12.1863
癉	-12.1865
契刀錯刀	-12.1865
蛾	-12.1865
殪	-12.1869
溲	-12.1873
居安思危	-12.1878
聃	-12.1879
斐	-12.188
締	-12.1883
簋	-12.1884
絳紗袍	-12.1884
㲪	-12.1884
李必駱甲	-12.1884
宜為車轂	-12.1886
毾	-12.1886
肝	-12.1888
司馬温公論	-12.1888
竸	-12.1888
曬	-12.189
擎	-12.189
者為正邪則	-12.189
裂地而封	-12.1892
淮南厲王傳	-12.1894
纆	-12.1894
蟊	-12.1896
國子司業	-12.1896
臆	-12.1896
惀	-12.1896
蝡	-12.1896
亳	-12.1898
絭	-12.1898
鳻	-12.1898
夐	-12.19
子孰與起文曰不如子起曰	-12.19
偪	-12.1902
婿	-12.1904
确	-12.1904
埤	-12.1906
喘	-12.1906
青葢入洛	-12.1906
蘆	-12.1906
幻	-12.1906
洼	-12.1906
鼉	-12.1906
僖	-12.1907
鍖	-12.1907
吕霍上官	-12.1908
盭	-12.1908
墊	-12.1908
何負於汝而反	-12.1908
黄霧四塞	-12.1908
債	-12.1908
辨羣臣之邪正	-12.1908
倅	-12.1908
餤	-12.1908
陳永定元年	-12.1909
磔	-12.1909
企	-12.1909
閉闗絶約於齊	-12.1909
殺傷萬計	-12.1909
皷	-12.1909
窋	-12.1909
轔	-12.1909
鬵	-12.1909
據敖倉之粟塞成臯之	-12.1911
溉	-12.1911
肝腦塗地	-12.1911
笋	-12.1911
鞮	-12.1911
扁	-12.1913
廙	-12.1913
道士趙歸真	-12.1913
自相魚肉	-12.1913
豔	-12.1913
傚	-12.1913
偃武修文	-12.1913
犴	-12.1913
徴逺年逋欠	-12.1913
籣	-12.1913
豢	-12.1915
怨嗟盈路	-12.1915
氂	-12.1915
槖	-12.1915
鍜	-12.1915
作兩稅法	-12.1915
峙	-12.1915
田承嗣為安史父子立祠堂	-12.1915
鈐	-12.1915
緝	-12.1917
歇	-12.1917
義不負二陸	-12.1917
闓	-12.1917
痕	-12.1917
筋	-12.1917
望府廨即拜	-12.1917
勑	-12.1917
員外同正	-12.1917
机	-12.1917
深自結納	-12.1917
恼	-12.1917
戬	-12.1917
懽	-12.1919
窖	-12.1919
呌	-12.1919
扺	-12.1919
翶	-12.1919
罏	-12.1919
馮衍傳十八	-12.1921
宂	-12.1921
縹	-12.1921
属	-12.1921
後梁開平元年	-12.1921
禁私度僧尼	-12.1921
嗛	-12.1921
立武昭儀為后	-12.1921
薇	-12.1921
夏官侍郎姚元崇	-12.1923
陛下所親見也今	-12.1923
羹	-12.1923
除舊布新	-12.1923
圠	-12.1923
坱	-12.1923
泣下霑衿	-12.1923
纖	-12.1923
順國節度使杜威	-12.1923
苐	-12.1925
幍	-12.1925
倐	-12.1925
隰	-12.1925
弓箭庫使	-12.1925
撼	-12.1925
讀貞觀政要	-12.1925
安豐王延明	-12.1925
濊	-12.1925
磑	-12.1925
阿那肱	-12.1925
勦	-12.1927
倘	-12.1927
冥	-12.1927
褰	-12.1927
塤	-12.1927
株	-12.1927
翃	-12.1927
䒷	-12.1927
毹	-12.1927
氍	-12.1927
苃	-12.1927
武惠妃為皇后	-12.1929
僅以身免	-12.1929
包藏禍心	-12.1929
郷	-12.1929
鷰	-12.1929
刖	-12.1929
州防禦使張彦	-12.1929
卉	-12.1929
瞳	-12.1929
與知樞宻劉	-12.1929
㡌	-12.1929
䯢	-12.1929
榛	-12.1929
碓	-12.1929
諫官要在舉職	-12.1929
飱	-12.1929
賚	-12.193
副都統朱瑾	-12.1931
爇	-12.1931
倪	-12.1931
李元紘杜暹	-12.1931
襃衣博帶	-12.1931
彤	-12.1931
緫	-12.1931
以法度裁制藩鎮	-12.1931
針	-12.1931
甃	-12.1931
發連弩射	-12.1932
埸	-12.1933
熏	-12.1933
禍亂之興皆由	-12.1933
為亂兵所害	-12.1933
瞶	-12.1933
募戍卒耕荒田	-12.1933
驥	-12.1933
檛	-12.1934
明徳馬皇后傳十	-12.1934
規畫皆稱上意	-12.1935
未審陛下欲何所	-12.1935
殁	-12.1935
片	-12.1935
麈	-12.1935
何嫌何疑	-12.1935
大通二年爾朱榮	-12.1935
江夏王義恭	-12.1935
珍禽竒獸	-12.1935
珥	-12.1935
韲	-12.1935
嘔	-12.1935
緭	-12.1935
陳宣帝大建	-12.1935
靚	-12.1935
荻	-12.1936
關某張飛	-12.1936
翳	-12.1936
騃	-12.1936
牣	-12.1936
戎為三公與時浮沈	-12.1936
敡	-12.1936
賜衣一襲	-12.1936
全身逺害	-12.1936
昭義節度使劉從諫	-12.1936
穗	-12.1936
缾	-12.1936
躬擐甲胄	-12.1936
廏	-12.1936
柳仲郢為	-12.1936
謏	-12.1936
騊	-12.1936
惡衣菲食	-12.1937
憂形於色	-12.1938
桎	-12.1938
兇	-12.1938
掦	-12.1938
橢	-12.1938
燃	-12.1938
甿	-12.1938
堕	-12.1938
洺	-12.1938
事各有司存	-12.1938
十為百名曰	-12.1938
取之如拾芥耳	-12.1938
有功則賞有罪則刑	-12.1938
有諍臣風采	-12.1938
裴度自興元入朝李逢吉之黨百計毁之	-12.1938
鄖	-12.1938
非人主所宜親也	-12.1938
駼	-12.1938
梃	-12.194
榱	-12.194
後周顯徳三年	-12.194
荼	-12.194
在徳不在險	-12.194
抉	-12.194
端拱無為	-12.194
裙	-12.194
飡	-12.194
鴩	-12.194
宋璟疾負罪	-12.194
時人服其明而譏其細	-12.194
翡	-12.194
埽	-12.1942
俚	-12.1942
眤	-12.1942
數與近習謀誅大臣	-12.1942
瘳	-12.1942
堂後主書滑渙	-12.1942
奏請多踰分	-12.1942
窒	-12.1942
𢃄	-12.1942
鑽	-12.1942
陟	-12.1943
讌	-12.1944
扣	-12.1944
絀	-12.1944
凋	-12.1944
脆	-12.1944
怍	-12.1944
著作佐郎	-12.1944
鏗	-12.1944
刑部尚書顔真卿	-12.1944
壟	-12.1944
天䇿府學士	-12.1944
藪	-12.1944
行養老禮	-12.1944
幧	-12.1944
弧	-12.1944
擘	-12.1944
晻	-12.1944
深溝髙壘	-12.1944
米一斗得酒一斗為	-12.1944
肓	-12.1944
賭	-12.1944
挑	-12.1944
謾	-12.1946
淆	-12.1946
抄	-12.1946
拍	-12.1946
鄼	-12.1946
褭	-12.1946
陿	-12.1946
姧	-12.1946
李鷃上慶雲圖	-12.1946
農區田法方	-12.1946
汰	-12.1947
太清元年東魏	-12.1948
虗	-12.1948
刈	-12.1948
鐙	-12.1948
廢昏立明	-12.1948
御史中丞袁淑	-12.1948
獬	-12.1948
訴於憲宗憲宗	-12.1948
宗瞿然曰	-12.1948
沽	-12.1948
猜忌不委任臣下	-12.1948
薳	-12.1948
褘	-12.1948
見幾而作不俟終日	-12.1948
謩綽有祖風	-12.1948
駁	-12.1948
凰	-12.195
贄上奏其略曰	-12.195
循名責實	-12.195
踧	-12.195
非人力所及	-12.195
幐	-12.195
扛	-12.195
斿	-12.195
棗	-12.195
注云漢武内傳曰	-12.195
淮陽憲王	-12.195
澡	-12.195
獻可替否	-12.195
畎	-12.195
畮	-12.195
粃	-12.195
臍	-12.195
諴	-12.195
盥	-12.1951
土崩瓦解	-12.1952
戡	-12.1952
偵	-12.1952
瀝	-12.1952
眄	-12.1952
𢷬	-12.1952
可與為善可與為	-12.1952
洋王從璋	-12.1952
窈	-12.1952
捫	-12.1952
聾	-12.1954
貪暴不法	-12.1954
自知名位已極	-12.1954
涸	-12.1954
皐	-12.1954
儂	-12.1954
趙武靈王	-12.1954
頹	-12.1954
瓚	-12.1956
鐐	-12.1956
扑	-12.1956
荔	-12.1956
貰	-12.1956
擇禍莫若輕	-12.1956
虺	-12.1956
尉遲敬徳	-12.1956
狼子野心	-12.1956
耄	-12.1956
騐	-12.1956
刑部尚書張	-12.1956
慓	-12.1956
砭	-12.1956
逝	-12.1956
鄘	-12.1956
騅	-12.1956
舉大觴屬	-12.1958
彎	-12.1958
交臂事賊	-12.1958
鎮海鎮東節度	-12.1958
拷	-12.1958
嗔	-12.1958
之獨不降意於	-12.1958
吾丘夀王	-12.1958
知内侍省事	-12.1958
附下罔上	-12.1958
鴨	-12.1958
張説欲取立后	-12.196
鍤	-12.196
覊	-12.196
辭氣不屈	-12.196
乞歸九華舊𨼆	-12.196
疊	-12.196
脯	-12.196
萯	-12.196
螭	-12.196
黨錮傳序	-12.196
灘	-12.196
焫	-12.196
膋	-12.196
通鑑總𩔖	-12.196
訶	-12.1961
續漢志曰	-12.1961
右驍衛將軍	-12.1962
即皇帝位于南郊	-12.1962
迅	-12.1962
楯	-12.1962
眭	-12.1962
黍	-12.1962
陗	-12.1962
駍	-12.1962
讃	-12.1963
撃	-12.1963
鄭州防禦使	-12.1963
閡	-12.1963
與王伾相依附	-12.1963
天授非人力也	-12.1963
僂	-12.1963
安成王頊	-12.1963
徹樂減膳	-12.1963
泊	-12.1963
翰林學士承㫖韓偓	-12.1963
受詩於浮丘伯	-12.1963
周廣謝惲	-12.1963
撙	-12.1963
潾	-12.1963
年憲宗問宰相	-12.1965
張弓注矢	-12.1965
翅	-12.1965
㢘頗李牧	-12.1965
麀	-12.1965
伴	-12.1967
眺	-12.1967
崔民幹為第	-12.1967
栩	-12.1967
菁	-12.1967
咀	-12.1967
鍠	-12.1967
紲	-12.1969
孑	-12.1969
卓英倩等	-12.1969
柷	-12.1969
沅	-12.1969
綝	-12.1969
閩王延鈞	-12.1969
濛	-12.1971
㛰	-12.1971
看	-12.1971
百戰百勝	-12.1971
鍼	-12.1971
滁	-12.1971
痩	-12.1971
卻	-12.1971
恃權而貪	-12.1971
温依周公居攝	-12.1971
鏽	-12.1971
月乙亥	-12.1973
傕	-12.1973
餙	-12.1973
蚤	-12.1973
芋	-12.1973
増白帝之守	-12.1973
抶	-12.1975
殞	-12.1975
樊愛能何徽	-12.1975
􁐼	-12.1975
岷	-12.1977
穆然無間	-12.1977
延巳與其黨	-12.1977
澁	-12.1977
准	-12.1977
綂	-12.1977
休守正不阿	-12.1979
彖	-12.1979
楊昭儉諫	-12.1979
黌	-12.1979
該	-12.1981
矧	-12.1983
㓗	-12.1983
注云東觀記曰	-12.1983
釘	-12.1985
氾	-12.1994
旟	-12.1998
為浙西觀察使	-12.1998
刮	-12.1998
煑	-12.2006
衎	-12.2006
泰階六符	-12.2006
珧	-12.2012
鄯	-12.2017
鵰	-12.2037
潞	-12.478
沈懐文數以直諫忤㫖	-12.6777
龍眼荔支	-12.6799
坐樹大鯁永言前	-12.6808
藏微時耕具	-12.6815
開諫諍之塗	-12.6818
表求封南越王	-12.6824
輼	-12.6827
秦宣公作密畤	-12.683
納東昏余妃	-12.683
輬	-12.683
以荀羨王羲之	-12.6837
不宜專用南陽人	-12.6843
呉主頗悟太子和	-12.6843
䤥	-12.6846
璡嘗上書言事明日黜為下邽令自是諫	-12.6849
欲示威淮北	-12.6849
每上封事輒削其草	-12.6849
大權明召諸諫官謂曰今明主在上羣臣	-12.6852
李林甫欲蔽塞人主視聴自	-12.6852
盡鍾鳴則息	-12.6852
盡鼓鳴則起晝	-12.6852
匃	-12.6855
疚	-12.6856
太子宜勤學問親師友	-12.6856
稹上疏論諌職	-12.6856
衳	-12.6856
超擁愛妻抱愛子	-12.6856
金丹性加躁急	-12.6856
穿長安城引内灃水注第中大陂以行船	-12.6862
魁頭露紒	-12.6862
一馬易四十縑	-12.6862
三七二百一十嵗	-12.6862
幸商第見穿城引水意恨内銜之	-12.6865
也易曰渙汗其大號言	-12.6865
以山水文籍自娯	-12.6865
出畨禺城下	-12.6865
窗	-12.6865
鴞	-12.6865
太子仁恕實守文之徳	-12.6868
一紙書賢於十部從事	-12.6868
不得月支要領	-12.6868
大省州縣官員	-12.6868
李泌請復所減州縣官	-12.6868
死諸葛走生仲達	-12.6868
為將當有怯弱時	-12.6868
牂柯江江廣	-12.6868
縰	-12.6868
謂宫之外門為司馬門	-12.6868
亦助聖天意如此陛下豈可不承順之哉	-12.6871
貼	-12.6871
以孽代宗啓窺窬之源	-12.6871
樂遜上言四亊	-12.6871
豉	-12.6871
贜	-12.6871
郭䖍瓘奏奴	-12.6871
帝嘗出射雉	-12.6874
襖	-12.6874
上封事者多訐人細事	-12.6874
先破秦入咸陽	-12.6874
慊	-12.6874
縁邊置場市党項馬	-12.6874
耉	-12.6874
鐀	-12.6874
魏収撰魏書	-12.6874
之喜乃為親屈	-12.6878
沈深有局度	-12.6878
當馳道埋偶人	-12.6878
裒慙憤發疾	-12.6878
鸞旗在前屬車在後	-12.6881
執左道以亂政	-12.6881
不勞人以市恩	-12.6881
五侯爭以奢侈相尚	-12.6881
以一身易十囚之死	-12.6881
徐知訓驕倨	-12.6881
朝廷事有不便允輒求見	-12.6881
李林甫口有蜜腹有劒	-12.6881
璠	-12.6881
腹中有鱗甲	-12.6881
自朝至暮或連日不出羣臣莫知其所言	-12.6881
與矯同其字從手	-12.6881
裴頠著崇有論	-12.6881
訿	-12.6881
颯	-12.6881
髐	-12.6881
鬼目曰芝草買菜曰平慮草	-12.6881
𢎞昭不欲舊人在帝側	-12.6881
皇甫謐圈稱之徒及諸地理書説	-12.6884
竇太后而以馮貴人配	-12.6884
炫	-12.6884
以金代火金畏於火故	-12.6884
掎	-12.6884
赤草生於水崖	-12.6884
之而於私室屏處	-12.6884
嶬	-12.6884
戰國合從連衡	-12.6884
時有上事為激訐者	-12.6884
者豈非不欲其父之惡彰	-12.6884
謂羣臣曰君父一也父有過子何不作書	-12.6884
陳伐魏取陳蔡之	-12.6884
不令賈復别將	-12.6884
公祐授首之徴	-12.6884
土功不時蝗蟲為災	-12.6884
宗使有司閲視無之亦不罪也左補闕權	-12.6884
宣懐飬女為中皇后	-12.6884
房暠充樞密使	-12.6884
皆為朋黨邪陛下亦宜稍	-12.6884
老奴矣即歸晉陽邑邑成疾不復起後唐	-12.6884
行賞罰今羣情衆口喧於朝市豈京城士	-12.6884
輿上奏以為延齡取常賦支用未盡者充	-12.6884
閑廐宫苑使李齊運	-12.6884
陸贄請遣使賑撫	-12.6884
疎網者陛下務在寛典獄官務在急刑	-12.6887
安姓字自相錯互語又不經班氏不載	-12.6887
書諸家皆臆	-12.6887
使使束帛加璧安車	-12.6887
之以此沛公得具知天下阨塞户口多少	-12.6887
仁罕第仁罕	-12.6887
元年沛公西入咸陽諸	-12.6887
人王起等覆試詔黜朗等十人貶徽	-12.6887
宫苑使王允平别建一樓以清暑	-12.6887
捍	-12.6887
紳皆曰誠如文昌言穆宗乃命中書	-12.6887
秦法十里一亭亭	-12.6887
僰	-12.6887
别置推事院	-12.6887
副使於是延朗居中用事暠雖為使長其	-12.6887
劉延朗求賂	-12.6887
務修徳信以懷吳人	-12.6887
啻	-12.6887
宗恱為之罷獵	-12.6887
實無所増也虚費吏人簿書而已京城西	-12.6887
屐	-12.6887
崔元略以諸父事内	-12.6887
延朗後議貢獻賂厚者先得内地賂薄者	-12.6887
由是諸將帥皆怨憤潞王不能察	-12.6887
莋馬僰僮	-12.6887
踞牀洗足	-12.6887
金百斤馬五十匹	-12.6887
姨	-12.6889
日陛下特察繫囚李珍等無罪百僚慶	-12.689
皆賀聖明臣乃知亦有無罪之人挂	-12.689
皆明珠文犀	-12.689
益怒援妻孥惶懼不敢以䘮還舊塋	-12.689
受學於甘陵周福及即	-12.689
天下規矩房伯武因師獲印周仲進二家	-12.689
時同郡河南尹房植有名當朝鄉人為之	-12.689
由是甘陵有南北部黨人之議自此始矣	-12.689
綰請立明堂以朝諸侯	-12.689
爭棄甲投兵	-12.689
所避朕聞其過而天下不知可不謂忠乎	-12.689
彰君之短明己之直此豈忠臣所為乎如	-12.689
樓觀以百數今日宅家曽無避暑之所	-12.689
牘及印封皆令	-12.689
說不欲行漢强使之說	-12.689
元朔二年主父偃	-12.689
匙	-12.689
君臣酣歌自夕逹旦	-12.689
延齡奏稱長安咸陽有陂澤數百頃可牧	-12.689
所言輒削草藁	-12.689
捕禽鳥以供園池之翫	-12.689
董偃有斬罪三	-12.689
鋪	-12.689
髙宗出畋遇雨	-12.689
廡	-12.6893
􁆣	-12.6893
有司以蕡指切左右不敢以聞	-12.6893
私屬官主家事者也	-12.6893
者必百計去之尤忌文學之士	-12.6893
莊宗苦溽暑於禁中擇	-12.6893
讚	-12.6893
十月五星聚東井	-12.6893
咤	-12.6893
士君子所為邪取而焚之時人多之自是	-12.6893
姦或盜摩錢質而取鋊	-12.6893
子龍一身都為膽也	-12.6893
張說首建封禪之議	-12.6893
徐鉉言貢舉	-12.6893
熬	-12.6893
輕車騎士材官樓船	-12.6893
造萬金堂於西園	-12.6893
非從來征伐之意天下其誰不解體乎王	-12.6893
排擯李德裕之黨	-12.6896
肴	-12.6896
始建國三年王莽遣	-12.6896
娠	-12.6896
所厚勢位將逼	-12.6896
蕡由是不得仕於朝終於使府御史	-12.6896
見形容以人自照	-12.6896
八十餘萬田亦稱是	-12.6896
其上而下無覬覦	-12.6896
大秦穆護祅僧	-12.6896
悾	-12.6896
楊炎喬琳並	-12.6896
歉	-12.6896
永明三年王儉領國子祭酒	-12.6896
濩	-12.6896
笛	-12.6896
羅鉗吉網	-12.6896
舉繩牀以鬬而死所部千餘人至死無一	-12.6896
酪	-12.6896
𨼆士韋祖思	-12.6896
掉	-12.6899
投蜺天下怨海内亂	-12.6899
賻	-12.69
吿	-12.69
至死罵不絶聲	-12.69
以仲叔為不足問	-12.69
汁盡數升不死不勝毒憤掊地爪甲殆盡	-12.69
至霸不及政事徒勞苦而已仲叔恨曰	-12.69
天寶元年李林甫為相凡才望功業出	-12.69
涇原節度使姚令言	-12.69
相代墜而復升莫有退者	-12.69
藹	-12.69
應天以實不以文	-12.69
匭	-12.69
山阻用材官	-12.69
弹	-12.69
徐台符請誅誣告	-12.69
忠言至諫希得	-12.69
教授於河汾之間	-12.69
樣	-12.69
河南指麾可定	-12.69
知足不辱知止不殆	-12.69
裕宗閔各分朋黨更相傾軋垂四十年	-12.69
誹謗訞言之罪	-12.69
跱	-12.69
顧私恩毁忠節	-12.69
航	-12.6903
縣飛書誹謗下獄死	-12.6903
共治一秃翁	-12.6903
畚	-12.6903
近代稅農以養兵未有農富給而	-12.6903
也辟而不問是失人也遂辭出投劾而去	-12.6903
來朝獻雅樂對三雍宫	-12.6903
飛龍使唐文扆	-12.6903
副四海之望稱神	-12.6903
槎	-12.6903
白居易上言以為欲令實惠及人無如	-12.6903
李克誠襲䧟汝州執别駕李元平	-12.6903
熨	-12.6903
輩宜用此為戒事有	-12.6903
中書知印止委上相	-12.6903
詔曰古之治天下朝有進善之旌	-12.6903
妣	-12.6906
交言開元四年明皇將幸東都以	-12.6906
訴於明皇明皇嗟歎良久益重璟王毛仲	-12.6906
量入以為出計農而發兵故雖有水旱之	-12.6906
左將軍辛慶忌	-12.6906
攣	-12.6906
薦人或起家至二千石權移主上	-12.6906
褌	-12.6906
蹄	-12.6906
紺	-12.6906
虱	-12.6906
内侯三老五更皆以二千石禄養終厥身	-12.6906
忘身狥國故紀綱粗立仇士良深惡之	-12.6906
筦	-12.6906
金匱石室者	-12.6906
卒教北人水戰	-12.6906
可蹻足而待也今人知不以羊追狼蟹捕	-12.6906
帝始御中興殿	-12.6906
庭歴階登堂	-12.6906
李珏相繼罷去召淮南節度使李	-12.6906
毒之在體必割其緩處	-12.6906
為災宜如馬植所奏詔從之皆論如法後	-12.6906
相逐其不能濟固宜矣	-12.6906
而令重車弱卒與肥馬	-12.6906
劉知幾表陳四事	-12.6906
幔	-12.6906
引司農金錢繒帛	-12.6906
沓	-12.6906
浟	-12.6906
臥	-12.6906
鞪	-12.6906
頓兵堅城之下	-12.6906
不離刑曹此囚終無	-12.6906
叉	-12.6906
弮	-12.6906
悒	-12.6906
李希烈自稱天下都元帥	-12.6906
深知兩朝之弊	-12.6906
潘承祐上書陳十	-12.6906
盡載府庫之實以	-12.6906
笞劉叟于宫門	-12.6906
荀恱作申鑒五篇	-12.6906
行稅間架除陌錢法	-12.6906
言突厥可取之狀	-12.6906
詔以東都軍儲不足貸商旅富人錢	-12.6906
子姪皆仕諸朝	-12.6907
睡	-12.6909
詮	-12.6909
欲殺青簡以寫經書	-12.6909
璟風度凝逺人莫測其際在塗竟不與思	-12.6909
西京留守令馳驛詣闕遣内侍楊思	-12.6909
曰臣請借前箸	-12.6909
湧	-12.6909
盡未吾亦欲除吏	-12.6909
委棄軍資器械	-12.6909
鬛	-12.6909
王屢以書勸晉王稱帝	-12.6909
楣	-12.6909
謂人曰使吾居此數月則海内無事矣	-12.6909
下泗間不足戍守議者必以	-12.6909
以消旱災致和氣也昔周饑克殷而年豐	-12.6909
典犯贓及故殺人平日大赦所不免今因	-12.6909
同平章事盧商與御史中丞封敖	-12.6909
心也乞再加裁定詔兩省五品以上議之	-12.6909
有寃滯今所原死罪無寃可雪恐凶險僥	-12.6909
胡衰不足避而不知我之病甚	-12.6909
芬	-12.6909
適與行期相會何足異也	-12.6909
鷺	-12.6909
人目為三不開	-12.6909
信臣無以鎮撫臣請自行徳宗俛首未言	-12.6909
唯有謝安意以自比也武帝深委仗之	-12.6909
并省四百餘縣	-12.6909
惎	-12.6909
極傾諂之態	-12.6909
正人如松栢特立不倚邪人如藤蘿非附	-12.6909
裕入朝至京師以徳裕	-12.6909
都之日豈取苻氏舊材以立太廟乎此特	-12.6909
願陛下克謹天戒納忠諫逺諂諛明皇弗	-12.6909
齒常之後多為名	-12.6909
以供數月之費仍賜空名	-12.6909
啞	-12.6909
弄國權枉害無辜上下怨怒	-12.6909
斮	-12.6909
有能出家財助國稍多者賜之	-12.6909
清泰元年吳蔣延徽敗閩兵	-12.6909
樽	-12.6912
慎厚辯論有餘習文法吏事縁飾以儒術	-12.6912
㸑	-12.6912
兊	-12.6912
吸	-12.6912
汴至洛朝臣必有竄逐者時人謂之鴟梟	-12.6912
辯給以治財賦得幸於明皇始廣置諸使	-12.6912
錢質如周錢文曰半兩重如其文	-12.6912
以益之軍士皆不滿望始怨恨有離心矣	-12.6912
囷	-12.6912
曰我輩須自㸃檢孔吏部不肯居朝廷矣	-12.6912
無如之何以石同平章事充荆南節度使	-12.6912
士卒殺逐主帥	-12.6912
孱	-12.6912
相謂曰吾輩豈可不自愧乎遂相與輯睦	-12.6912
筝	-12.6912
繢	-12.6912
自稱荆臺𨼆士	-12.6912
駕又問姚崇對曰太廟屋材皆苻堅時物	-12.6912
主心始疑於是旁詢小臣以察執政如	-12.6912
亨醢分裂又	-12.6912
人震恐太后及福王繼鵬泣謂璘曰文傑	-12.6912
以北山石為槨	-12.6912
作徙戎論以警朝廷	-12.6912
光琦稱舊例	-12.6912
内頓首伏青蒲上	-12.6912
勇如信布彊如梁籍	-12.6912
城遂圍建州閩主璘遣驃騎大將軍王延	-12.6912
如公之能適足為國家之禍耳馮延巳等	-12.6912
如王莽然卒潤鑊伏	-12.6912
如程務挺張䖍朂王方翼劉敬同李多祚	-12.6912
定徴稅期限	-12.6912
彴	-12.6912
徳宗以幽州兵在鳳翔思得重臣代之盧	-12.6912
忠直為徳宗所重欲出之於外已得	-12.6912
支徴當州貞元二年逃户所欠錢四千餘	-12.6912
曰晟山東鄙儒文章不如公詼諧不如公	-12.6912
疾俗吏苛刻	-12.6912
結同府在己上者延巳稍以計逐之延巳	-12.6912
而明皇乃許之杖景仙一百流嶺南惡處	-12.6912
胡藩言於裕曰	-12.6912
詐不如公然主上使公與齊王遊處	-12.6912
躓	-12.6912
遺愛尚上女髙陽公主	-12.6912
鎰知為把所排而無辭以免因再拜受命	-12.6912
陳憲守懸瓠	-12.6912
春秋演孔圖曰	-12.6915
十年武彊令裴景仙坐	-12.6915
命明皇怒命集衆斬之大理卿李朝	-12.6915
持節從中都官徒千二百人	-12.6915
朝㑹議開陳其端使人主自擇不肯面折	-12.6915
商於之地六百里	-12.6915
嚢	-12.6915
失其職而上心益侈百姓皆怨苦之為人	-12.6915
好恬素不樂勢利	-12.6915
得風疾不能履地自是人不聞穆宗起居	-12.6915
忠於唐室救其患難所以老奴三十餘年	-12.6915
啇	-12.6915
日磾以上公之尊秉髦節之使	-12.6915
畏徳宗威名表獻錢三十萬	-12.6915
辭崔祐甫請遣使慰勞淄青將士因以正	-12.6915
强歛以資㓂敵	-12.6915
資一兵其水旱所傷非時調發不在此數	-12.6915
以利權授之世宗征	-12.6915
四方用度不乏美之力也	-12.6915
鞏	-12.6915
三年之制未終遽爾行幸恐未契天心	-12.6915
卒皆朋黨之人良由執心不定故奸邪得	-12.6915
汀	-12.6915
爨	-12.6915
㫿	-12.6918
插	-12.6918
殻	-12.6918
濺	-12.6918
嘯	-12.6918
嫂	-12.6918
岫	-12.6918
捋	-12.6918
暝	-12.6918
樠	-12.6918
皦	-12.6918
篣	-12.6918
无	-12.6921
瞿	-12.6921
翬	-12.6922
闘	-12.6922
鍳	-12.6922
桶	-12.6922
潕	-12.6922
紐	-12.6922
嫺	-12.6922
攢	-12.6922
瘖	-12.6922
縈	-12.6925
嘶	-12.6925
濞	-12.6925
仭	-12.6925
誎	-12.6925
偝	-12.6925
姒	-12.6925
毼	-12.6925
琱	-12.6925
眯	-12.6925
絇	-12.6925
纈	-12.6925
胸	-12.6925
頞	-12.6925
遘	-12.6928
蒐	-12.6928
揭	-12.6928
脊	-12.6928
腑	-12.6928
褉	-12.6928
郿	-12.6928
埓	-12.6928
磯	-12.6928
莠	-12.6928
訝	-12.6928
輣	-12.6928
鍪	-12.6928
剉	-12.6928
厝	-12.6928
湫	-12.6928
碭	-12.6928
烟	-12.6931
麫	-12.6931
侫	-12.6931
柸	-12.6931
釜	-12.6931
齗	-12.6931
鼂	-12.6933
啄	-12.6934
匏	-12.6934
莞	-12.6934
踝	-12.6934
縷	-12.6934
璇	-12.6934
禋	-12.6934
紵	-12.6934
麵	-12.6934
禫	-12.6934
藿	-12.6934
譲	-12.6934
踶	-12.6934
􁊀	-12.6934
㤗	-12.6934
䜿	-12.6934
剴	-12.6934
巂	-12.6934
戩	-12.6934
碾	-12.6934
纓	-12.6934
蝯	-12.6934
㬰	-12.6934
芰	-12.6937
衾	-12.6937
䦨	-12.6937
緬	-12.6937
丱	-12.6937
㕑	-12.6937
妍	-12.6937
蕝	-12.6937
誌	-12.6937
迨	-12.6937
臾	-12.6937
蔵	-12.694
煉	-12.6941
㯶	-12.6941
揩	-12.6941
兠	-12.6941
皛	-12.6941
箎	-12.6941
鉥	-12.6941
黻	-12.6941
􁐠	-12.6941
啜	-12.6943
臚	-12.6943
胝	-12.6944
葭	-12.6944
鸛	-12.6944
冝	-12.6944
蛤	-12.6944
鐃	-12.6944
鶉	-12.6944
􁐰	-12.6944
㓕	-12.6947
乍	-12.6947
囑	-12.6947
玷	-12.6947
僑	-12.6947
懋	-12.6947
菌	-12.6947
扉	-12.6947
棓	-12.6947
筲	-12.6947
縦	-12.6947
鄔	-12.6947
髭	-12.6947
𠻳	-12.6947
着	-12.695
鏃	-12.695
綖	-12.695
䑛	-12.695
螫	-12.695
凟	-12.695
廕	-12.695
傿	-12.695
墠	-12.695
媪	-12.695
愉	-12.695
枳	-12.695
洫	-12.695
湓	-12.695
蹛	-12.695
遹	-12.695
鍥	-12.695
鱓	-12.695
噫	-12.6953
線	-12.6953
蛉	-12.6953
鞚	-12.6953
傪	-12.6953
惬	-12.6953
棃	-12.6953
汪	-12.6953
胛	-12.6953
􁂄	-12.6953
煎	-12.6953
絆	-12.6953
鞞	-12.6953
屡	-12.6956
櫨	-12.6956
剸	-12.6956
悶	-12.6956
柿	-12.6956
灞	-12.6956
飈	-12.6956
愴	-12.6956
挟	-12.6956
淬	-12.6956
鞾	-12.6956
嘖	-12.6956
嵑	-12.6956
斑	-12.6956
犖	-12.6956
翥	-12.6956
諲	-12.6956
􁪒	-12.6956
豺	-12.6959
謳	-12.6959
靁	-12.6959
戶	-12.6959
沼	-12.6959
豸	-12.6959
淯	-12.6959
隤	-12.6959
廆	-12.6959
蹟	-12.6959
擥	-12.6962
螺	-12.6962
浄	-12.6963
祅	-12.6963
䭾	-12.6963
只	-12.6963
巍	-12.6963
筒	-12.6963
酲	-12.6963
􁋷	-12.6963
疵	-12.6966
璏	-12.6966
艶	-12.6966
礌	-12.6966
詁	-12.6966
潦	-12.6969
尅	-12.6969
挶	-12.6969
撠	-12.6969
昀	-12.6969
樐	-12.6969
淝	-12.6969
猨	-12.6969
魅	-12.6972
閨	-12.6972
􁋙	-12.6972
鳩	-12.6972
飜	-12.6972
曄	-12.6972
歋	-12.6972
廸	-12.6975
燥	-12.6975
搖	-12.6975
魴	-12.6975
憯	-12.6975
榦	-12.6975
闍	-12.6975
魔	-12.6975
姤	-12.6978
琢	-12.6978
簮	-12.6978
僱	-12.6978
猒	-12.6978
纇	-12.6978
茗	-12.6981
甖	-12.6981
掬	-12.6984
廂	-12.6984
渦	-12.6984
滓	-12.6985
舸	-12.6988
豳	-12.6988
陕	-12.6988
悃	-12.6988
鋝	-12.6988
胞	-12.6991
耘	-12.6997
姆	-12.6997
塾	-12.6997
咫	-12.6999
擣	-12.7
諓	-12.7
吃	-12.7003
螢	-12.7003
酗	-12.7003
鋟	-12.701
㠶	-12.701
縓	-12.7016
蒜	-12.7016
跼	-12.7016
饟	-12.7032
旐	-12.7035
𤯝	-13.6723
𢡟	-13.6724
齷	-13.6725
齪	-13.6726
鼷	-13.6727
黛	-13.6728
麝	-13.6729
鸂	-13.673
鶒	-13.6731
鶄	-13.6732
鵁	-13.6733
鰥	-13.6734
鯀	-13.6735
頟	-13.6736
靺	-13.6737
阽	-13.6738
闐	-13.6739
閶	-13.674
鐔	-13.6741
鎚	-13.6742
鎗	-13.6743
鋼	-13.6744
銚	-13.6745
鉛	-13.6746
醻	-13.6747
鄢	-13.6748
郄	-13.6749
遨	-13.675
遛	-13.6751
逷	-13.6752
透	-13.6753
蹯	-13.6754
踖	-13.6755
讋	-13.6756
謌	-13.6757
諏	-13.6758
訞	-13.6759
襤	-13.676
褶	-13.6761
裎	-13.6762
蟹	-13.6763
蜣	-13.6764
蜚	-13.6765
蜕	-13.6766
蛣	-13.6767
蘿	-13.6768
薩	-13.6769
薏	-13.677
蔞	-13.6771
蓼	-13.6772
蒢	-13.6773
菱	-13.6774
菩	-13.6775
莪	-13.6776
苡	-13.6777
芡	-13.6778
舷	-13.6779
舶	-13.678
臝	-13.6781
臏	-13.6782
膜	-13.6783
腴	-13.6784
脣	-13.6785
胾	-13.6786
胃	-13.6787
罟	-13.6788
纘	-13.6789
橜	-13.679
櫬	-13.679
翣	-13.679
纁	-13.679
緼	-13.6791
緦	-13.6792
糠	-13.6793
糚	-13.6794
粕	-13.6795
篡	-13.6796
笮	-13.6797
窆	-13.6798
礱	-13.6799
磻	-13.68
盍	-13.6801
癩	-13.6802
疹	-13.6803
璡	-13.6804
瑋	-13.6805
㢠	-13.6806
摰	-13.6806
琊	-13.6806
琁	-13.6807
熺	-13.6808
炟	-13.6809
灃	-13.681
瀕	-13.6811
濘	-13.6812
澭	-13.6813
叄	-13.6814
帚	-13.6814
潯	-13.6814
溽	-13.6815
溆	-13.6816
湬	-13.6817
洙	-13.6818
泫	-13.6819
泆	-13.682
沱	-13.6821
沗	-13.6822
汛	-13.6823
毳	-13.6824
殤	-13.6825
櫩	-13.6826
磾	-13.6826
櫃	-13.6827
樅	-13.6828
楔	-13.6829
椹	-13.683
椁	-13.6831
棠	-13.6832
栽	-13.6833
晊	-13.6834
旭	-13.6835
擗	-13.6836
摺	-13.6837
洟	-13.6838
紒	-13.6838
憔	-13.6838
慍	-13.6839
愞	-13.684
惚	-13.6841
惆	-13.6842
恍	-13.6843
徨	-13.6844
彷	-13.6845
刲	-13.6846
姐	-13.6846
娉	-13.6846
宕	-13.6846
怫	-13.6846
搆	-13.6846
旂	-13.6846
淘	-13.6846
珦	-13.6846
廱	-13.6846
廌	-13.6847
嵬	-13.6848
崛	-13.6849
峘	-13.685
寀	-13.6851
媛	-13.6852
娬	-13.6853
㹠	-13.6854
䑓	-13.6854
凥	-13.6854
概	-13.6854
歠	-13.6854
洹	-13.6854
牚	-13.6854
礦	-13.6854
娃	-13.6854
妲	-13.6855
堧	-13.6856
堙	-13.6857
垠	-13.6858
阯	-13.6859
坂	-13.6859
圎	-13.686
圄	-13.6861
倳	-13.6862
囬	-13.6862
孕	-13.6862
扎	-13.6862
搃	-13.6862
昪	-13.6862
檥	-13.6862
殣	-13.6862
淋	-13.6862
漉	-13.6862
濃	-13.6862
牎	-13.6862
牗	-13.6862
粳	-13.6862
囹	-13.6862
唳	-13.6863
唇	-13.6864
厦	-13.6865
匽	-13.6866
匐	-13.6867
匍	-13.6868
倔	-13.6869
俔	-13.687
剜	-13.687
单	-13.687
厓	-13.687
婺	-13.687
瑰	-13.687
眥	-13.687
礚	-13.687
穊	-13.687
箜	-13.687
篌	-13.687
簳	-13.687
粢	-13.687
耇	-13.687
侗	-13.687
亓	-13.6871
䳨	-13.6872
㽔	-13.6873
㼐	-13.6874
宄	-13.6875
㷭	-13.6875
㬋	-13.6876
熒	-13.6876
詿	-13.6877
㢸	-13.6877
㕔	-13.6878
侏	-13.6878
偡	-13.6878
僔	-13.6878
冽	-13.6878
圃	-13.6878
婬	-13.6878
彠	-13.6878
桉	-13.6878
梏	-13.6878
槲	-13.6878
氅	-13.6878
渗	-13.6878
炔	-13.6878
璩	-13.6878
禊	-13.6878
㢮	-13.6878
鷃	-13.6879
鬰	-13.688
髒	-13.6881
甑	-13.6881
驄	-13.6882
騠	-13.6883
駃	-13.6884
頔	-13.6885
㮰	-13.6886
䁹	-13.6886
冷	-13.6886
憮	-13.6886
掀	-13.6886
掇	-13.6886
昜	-13.6886
櫻	-13.6886
熄	-13.6886
玼	-13.6886
瑳	-13.6886
箔	-13.6886
簦	-13.6886
紼	-13.6886
絛	-13.6886
羕	-13.6886
錙	-13.6886
酇	-13.6887
轜	-13.6888
輈	-13.6889
軻	-13.689
蹲	-13.6891
蹰	-13.6892
踟	-13.6893
䦧	-13.6894
偹	-13.6894
匊	-13.6894
噂	-13.6894
塜	-13.6894
媾	-13.6894
嫈	-13.6894
徂	-13.6894
慆	-13.6894
搴	-13.6894
撕	-13.6894
攅	-13.6894
栭	-13.6894
橕	-13.6894
沭	-13.6894
涖	-13.6894
湩	-13.6894
溶	-13.6894
滏	-13.6894
澘	-13.6894
瀍	-13.6894
產	-13.6894
癕	-13.6894
簠	-13.6894
糇	-13.6894
詖	-13.6894
褓	-13.6895
裨	-13.6896
蟆	-13.6897
蚶	-13.6898
萴	-13.6899
荃	-13.69
胏	-13.6901
㐲	-13.6902
㣥	-13.6902
佇	-13.6902
倮	-13.6902
埇	-13.6902
培	-13.6902
巔	-13.6902
廋	-13.6902
柰	-13.6902
殛	-13.6902
洵	-13.6902
洿	-13.6902
湼	-13.6902
烜	-13.6902
璉	-13.6902
痼	-13.6902
祍	-13.6902
祼	-13.6902
稂	-13.6902
箙	-13.6902
簟	-13.6902
籜	-13.6902
釭	-13.6902
耨	-13.6902
羖	-13.6903
糅	-13.6904
矅	-13.6905
皿	-13.6906
痍	-13.6907
瑕	-13.6908
瑇	-13.6909
搢	-13.6909
噀	-13.691
坻	-13.691
壖	-13.691
姝	-13.691
娰	-13.691
婉	-13.691
嬈	-13.691
峰	-13.691
嶇	-13.691
晶	-13.691
榴	-13.691
檿	-13.691
欋	-13.691
殳	-13.691
派	-13.691
瀧	-13.691
瓮	-13.691
瘼	-13.691
盌	-13.691
筴	-13.691
箝	-13.691
琡	-13.691
珫	-13.6911
牁	-13.6912
燉	-13.6913
炕	-13.6914
澍	-13.6915
澈	-13.6916
漚	-13.6917
䟦	-13.6917
㰆	-13.6918
㺯	-13.6918
㽞	-13.6918
䖵	-13.6918
个	-13.6918
倕	-13.6918
剝	-13.6918
叵	-13.6918
咺	-13.6918
啎	-13.6918
嘻	-13.6918
塉	-13.6918
嫫	-13.6918
彡	-13.6918
忖	-13.6918
恊	-13.6918
搠	-13.6918
杠	-13.6918
栝	-13.6918
桁	-13.6918
泜	-13.6918
煇	-13.6918
煨	-13.6918
燻	-13.6918
痁	-13.6918
笨	-13.6918
緂	-13.6918
羗	-13.6918
蜜	-13.6918
沁	-13.6918
杻	-13.6919
曮	-13.692
摸	-13.6921
揄	-13.6922
徘	-13.6923
徊	-13.6924
婪	-13.6925
犂	-13.6925
蔕	-13.6926
䄠	-13.6926
侁	-13.6926
僴	-13.6926
儶	-13.6926
冨	-13.6926
嚨	-13.6926
搥	-13.6926
摠	-13.6926
晸	-13.6926
朘	-13.6926
柎	-13.6926
栰	-13.6926
氈	-13.6926
牸	-13.6926
狁	-13.6926
獫	-13.6926
獮	-13.6926
痊	-13.6926
穸	-13.6926
竂	-13.6926
竪	-13.6926
簫	-13.6926
簴	-13.6926
羶	-13.6926
墱	-13.6926
劬	-13.6927
剌	-13.6928
凛	-13.6929
儷	-13.693
倜	-13.6931
丏	-13.6932
鯤	-13.6933
㬥	-13.6934
䄡	-13.6934
倭	-13.6934
剺	-13.6934
嘑	-13.6934
噏	-13.6934
姙	-13.6934
彄	-13.6934
忲	-13.6934
扄	-13.6934
撚	-13.6934
斸	-13.6934
柁	-13.6934
桮	-13.6934
涅	-13.6934
燁	-13.6934
爼	-13.6934
癃	-13.6934
瞍	-13.6934
祟	-13.6934
稊	-13.6934
窀	-13.6934
粘	-13.6934
紡	-13.6934
繪	-13.6934
騀	-13.6934
駊	-13.6935
霽	-13.6936
雎	-13.6937
鑠	-13.6938
蹉	-13.6939
踘	-13.694
蕚	-13.6941
阼	-13.6941
宙	-13.6941
茯	-13.6942
㟭	-13.6942
㢲	-13.6942
丐	-13.6942
両	-13.6942
两	-13.6942
刅	-13.6942
劼	-13.6942
埜	-13.6942
壄	-13.6942
嬌	-13.6942
徉	-13.6942
徜	-13.6942
怳	-13.6942
怵	-13.6942
抃	-13.6942
抒	-13.6942
抛	-13.6942
挼	-13.6942
暌	-13.6942
棋	-13.6942
榼	-13.6942
橑	-13.6942
浞	-13.6942
湍	-13.6942
瑝	-13.6942
眊	-13.6942
祺	-13.6942
粒	-13.6942
糊	-13.6942
緻	-13.6942
翷	-13.6942
苓	-13.6943
翌	-13.6944
縚	-13.6945
籀	-13.6946
种	-13.6947
祏	-13.6948
璃	-13.6949
瑫	-13.695
䞉	-13.695
勱	-13.695
噓	-13.695
嫣	-13.695
帟	-13.695
忱	-13.695
忸	-13.695
怩	-13.695
恌	-13.695
恧	-13.695
慇	-13.695
慳	-13.695
懃	-13.695
撅	-13.695
撩	-13.695
敫	-13.695
枹	-13.695
柈	-13.695
棼	-13.695
楨	-13.695
檟	-13.695
氓	-13.695
沇	-13.695
澌	-13.695
濼	-13.695
燦	-13.695
犛	-13.695
猿	-13.695
玳	-13.695
珮	-13.695
璙	-13.695
甪	-13.695
眞	-13.695
睫	-13.695
禠	-13.695
窄	-13.695
粣	-13.695
繚	-13.695
菲	-13.695
邽	-13.695
瑚	-13.6951
琉	-13.6952
珊	-13.6953
牕	-13.6954
湣	-13.6955
榔	-13.6956
桔	-13.6957
柧	-13.6958
㥽	-13.6958
㻡	-13.6958
䘖	-13.6958
䵷	-13.6958
倀	-13.6958
儕	-13.6958
吼	-13.6958
咷	-13.6958
圮	-13.6958
夣	-13.6958
夲	-13.6958
娒	-13.6958
嵐	-13.6958
忼	-13.6958
怱	-13.6958
憫	-13.6958
揃	-13.6958
摴	-13.6958
摽	-13.6958
术	-13.6958
槁	-13.6958
汩	-13.6958
淅	-13.6958
渒	-13.6958
滳	-13.6958
漑	-13.6958
潑	-13.6958
澪	-13.6958
灕	-13.6958
煦	-13.6958
爻	-13.6958
猘	-13.6958
疋	-13.6958
磊	-13.6958
礬	-13.6958
祛	-13.6958
祤	-13.6958
禿	-13.6958
秅	-13.6958
笭	-13.6958
絁	-13.6958
絍	-13.6958
查	-13.6959
柞	-13.696
柙	-13.6961
朐	-13.6962
攄	-13.6963
抔	-13.6964
鯨	-13.6965
懔	-13.6965
怛	-13.6966
㩧	-13.6966
儺	-13.6966
冐	-13.6966
勌	-13.6966
咋	-13.6966
噱	-13.6966
塈	-13.6966
壒	-13.6966
嫠	-13.6966
嫪	-13.6966
帀	-13.6966
开	-13.6966
彚	-13.6966
恙	-13.6966
愒	-13.6966
慾	-13.6966
撮	-13.6966
攖	-13.6966
昈	-13.6966
昐	-13.6966
昴	-13.6966
晴	-13.6966
栟	-13.6966
椀	-13.6966
櫚	-13.6966
欹	-13.6966
歈	-13.6966
沴	-13.6966
焰	-13.6966
爐	-13.6966
爺	-13.6966
瞬	-13.6966
硯	-13.6966
秔	-13.6966
窻	-13.6966
篾	-13.6966
緄	-13.6966
罥	-13.6966
藤	-13.6966
軋	-13.6966
崙	-13.6967
孥	-13.6968
婕	-13.6969
娥	-13.697
妤	-13.6971
墝	-13.6972
圉	-13.6973
圈	-13.6974
㒞	-13.6974
㬺	-13.6974
䁬	-13.6974
䧺	-13.6974
僶	-13.6974
剿	-13.6974
卨	-13.6974
喈	-13.6974
媵	-13.6974
幃	-13.6974
惣	-13.6974
抆	-13.6974
携	-13.6974
摯	-13.6974
擑	-13.6974
暖	-13.6974
桴	-13.6974
橤	-13.6974
港	-13.6974
珝	-13.6974
町	-13.6974
睇	-13.6974
礮	-13.6974
秬	-13.6974
窕	-13.6974
筍	-13.6974
耎	-13.6974
喟	-13.6975
喋	-13.6976
喁	-13.6977
呐	-13.6978
剄	-13.6979
佻	-13.698
鸃	-13.6981
鵔	-13.6982
勘	-13.6982
坡	-13.6982
垓	-13.6982
堉	-13.6982
塠	-13.6982
尿	-13.6982
帕	-13.6982
忩	-13.6982
氛	-13.6982
洑	-13.6982
瀘	-13.6982
炷	-13.6982
疣	-13.6982
盃	-13.6982
笲	-13.6982
馨	-13.6983
頵	-13.6984
需	-13.6985
隍	-13.6986
閬	-13.6987
迄	-13.6988
謇	-13.6989
袤	-13.699
㵸	-13.699
僩	-13.699
哽	-13.699
嚼	-13.699
屹	-13.699
忒	-13.699
慚	-13.699
檣	-13.699
汖	-13.699
漣	-13.699
濱	-13.699
炤	-13.699
癎	-13.699
眚	-13.699
絓	-13.699
緇	-13.699
類	-13.699
茨	-13.6991
腋	-13.6992
肜	-13.6993
矍	-13.6994
盩	-13.6995
瀼	-13.6996
瀣	-13.6997
湟	-13.6998
俌	-13.6998
呻	-13.6998
嚚	-13.6998
帢	-13.6998
扦	-13.6998
棻	-13.6998
縡	-13.6998
晁	-13.6999
戛	-13.7
彍	-13.7001
崑	-13.7002
娑	-13.7003
厔	-13.7004
闒	-13.7005
鈆	-13.7006
䄛	-13.7006
僄	-13.7006
吒	-13.7006
堇	-13.7006
尃	-13.7006
庵	-13.7006
愊	-13.7006
憊	-13.7006
憸	-13.7006
狭	-13.7006
睥	-13.7006
禒	-13.7006
窠	-13.7006
詾	-13.7007
話	-13.7008
蓮	-13.7009
苾	-13.701
艨	-13.7011
艟	-13.7012
綦	-13.7013
窬	-13.7014
䘵	-13.7014
僨	-13.7014
剕	-13.7014
勠	-13.7014
掞	-13.7014
晋	-13.7014
曕	-13.7014
焯	-13.7014
縳	-13.7014
羔	-13.7014
琚	-13.7015
猖	-13.7016
歔	-13.7017
欷	-13.7018
枋	-13.7019
憒	-13.702
悵	-13.7021
悠	-13.7022
仿	-13.7022
啑	-13.7022
幌	-13.7022
悺	-13.7022
撿	-13.7022
漼	-13.7022
獷	-13.7022
篪	-13.7022
寮	-13.7023
塋	-13.7024
鼈	-13.7025
麒	-13.7026
鵬	-13.7027
頷	-13.7028
邾	-13.7029
蜂	-13.703
枮	-13.703
淤	-13.703
粮	-13.703
磝	-13.7031
磁	-13.7032
碻	-13.7033
琶	-13.7034
琵	-13.7035
櫟	-13.7036
慺	-13.7037
慷	-13.7038
牌	-13.7038
愀	-13.7039
庠	-13.704
嚕	-13.7041
凉	-13.7042
俳	-13.7043
詼	-13.7044
罳	-13.7045
瞋	-13.7046
寰	-13.7046
揉	-13.7046
瑛	-13.7047
牂	-13.7048
沆	-13.7049
樗	-13.705
斟	-13.7051
侖	-13.7052
佼	-13.7053
輳	-13.7054
姏	-13.7055
庳	-13.7055
紜	-13.7055
穡	-13.7056
禰	-13.7057
癘	-13.7058
狽	-13.7059
掊	-13.706
偼	-13.7061
鸚	-13.7062
囏	-13.7063
妺	-13.7063
寗	-13.7063
笈	-13.7063
鵡	-13.7063
陁	-13.7064
鄲	-13.7065
紘	-13.7066
竺	-13.7067
眙	-13.7068
忷	-13.7069
伷	-13.707
䂮	-13.7071
奩	-13.7071
霖	-13.7071
謖	-13.7072
倧	-13.7073
膂	-13.7074
睚	-13.7075
梅	-13.7076
岌	-13.7077
驤	-13.7078
椿	-13.7079
翮	-13.7079
跋	-13.7079
蠕	-13.708
驃	-13.7081
阡	-13.7082
鉢	-13.7083
刁	-13.7084
顙	-13.7085
猩	-13.7086
峨	-13.7087
縲	-13.7087
駙	-13.7087
騷	-13.7088
逋	-13.7089
諺	-13.709
輻	-13.7091
珂	-13.7092
押	-13.7093
頡	-13.7094
滎	-13.7095
酈	-13.7096
璀	-13.7097
苻	-13.7098
瑭	-13.7099
孜	-13.71
怏	-13.7101
煬	-13.7102
券	-13.7103
匈	-13.7103
沫	-13.7103
