<unk>	0
<s>	0
</s>	0
/	-3.64846
之	-3.9455
(	-4.12242
)	-4.24262
)(	-4.42402
也	-4.76488
以	-4.82921
曰	-4.87359
為	-4.88725
而	-4.91031
有	-5.05631
於	-5.07863
不	-5.08883
其	-5.10137
人	-5.37714
王	-5.52119
者	-5.58772
無	-5.60731
見	-5.71288
子	-5.7402
大	-5.75465
中	-5.7771
一	-5.80708
山	-5.85603
言	-5.89761
上	-5.92316
天	-5.94535
三	-5.97787
自	-5.98031
在	-6.00896
公	-6.04012
與	-6.05463
云	-6.05648
則	-6.07327
所	-6.10024
至	-6.10938
如	-6.11311
此	-6.11768
時	-6.12211
故	-6.15486
行	-6.15984
文	-6.17838
生	-6.18423
帝	-6.20585
傳	-6.20615
水	-6.20828
漢	-6.2247
書	-6.24076
下	-6.2464
日	-6.25723
乃	-6.27698
是	-6.29726
國	-6.29936
長	-6.29992
風	-6.30573
明	-6.30991
城	-6.32491
作	-6.33971
名	-6.34256
事	-6.35446
道	-6.3563
相	-6.37669
得	-6.37716
出	-6.37853
何	-6.40298
周	-6.41928
五	-6.42414
南	-6.42763
二	-6.42942
君	-6.44017
▁	-6.4708
若	-6.47232
東	-6.47347
陽	-6.48195
方	-6.48378
世	-6.48515
雲	-6.4857
西	-6.48648
謂	-6.49127
矣	-6.51036
成	-6.51138
心	-6.51828
非	-6.56721
平	-6.57054
臣	-6.57708
將	-6.58231
又	-6.58326
及	-6.58411
兮	-6.58489
州	-6.58765
入	-6.59124
命	-6.59365
年	-6.60579
北	-6.60579
金	-6.61745
從	-6.618
門	-6.62986
未	-6.63001
皆	-6.6363
石	-6.63794
後	-6.64007
詩	-6.64065
神	-6.64077
歸	-6.64638
地	-6.64816
使	-6.64969
我	-6.65621
同	-6.66119
四	-6.67176
秦	-6.67611
齊	-6.67617
馬	-6.68036
安	-6.68053
氏	-6.68154
九	-6.68493
魏	-6.69072
知	-6.70807
可	-6.70979
今	-6.70985
當	-6.72393
玉	-6.72469
乎	-6.72628
賦	-6.73556
亦	-6.73715
樂	-6.73728
華	-6.74054
武	-6.76042
思	-6.76218
遂	-6.76265
令	-6.76461
郡	-6.76677
復	-6.76731
多	-6.76911
六	-6.77716
朝	-6.78009
梁	-6.78265
光	-6.79166
龍	-6.79865
流	-6.79956
士	-6.81527
陵	-6.82222
經	-6.82376
欲	-6.8259
河	-6.83855
然	-6.84682
能	-6.85792
居	-6.85948
聞	-6.86662
軍	-6.86856
徳	-6.8747
家	-6.88056
惟	-6.88315
用	-6.89039
兵	-6.8925
官	-6.89359
正	-6.90002
江	-6.90206
禮	-6.90294
去	-6.90317
始	-6.90347
前	-6.90452
焉	-6.91228
先	-6.91771
爲	-6.91966
晉	-6.9213
陳	-6.92564
侯	-6.92735
封	-6.92974
和	-6.93018
望	-6.93166
即	-6.93227
清	-6.93894
重	-6.93903
百	-6.94282
楚	-6.9437
已	-6.94479
靈	-6.95026
常	-6.95485
聲	-6.95522
髙	-6.95552
來	-6.95622
既	-6.95947
白	-6.96474
于	-6.97002
飛	-6.99132
樹	-6.99611
逺	-6.99761
縣	-6.99847
高	-6.99897
景	-6.99937
死	-6.99959
字	-7.00261
師	-7.00472
立	-7.00963
車	-7.02024
月	-7.02542
宫	-7.0275
青	-7.03177
本	-7.03233
歌	-7.03383
氣	-7.0418
稱	-7.04379
還	-7.05381
通	-7.05785
身	-7.05856
志	-7.06763
太	-7.06791
春	-7.07234
義	-7.07649
夏	-7.07786
七	-7.07956
或	-7.08008
小	-7.08143
起	-7.08557
因	-7.09055
信	-7.11031
終	-7.11124
元	-7.11166
張	-7.11669
萬	-7.1234
物	-7.13113
實	-7.13173
林	-7.13956
猶	-7.14257
異	-7.14881
諸	-7.15664
女	-7.16559
注	-7.17661
表	-7.17727
八	-7.18421
民	-7.18615
都	-7.19117
法	-7.20644
觀	-7.2129
應	-7.21358
情	-7.22184
必	-7.22532
秋	-7.22883
主	-7.23639
酒	-7.23867
星	-7.24164
夜	-7.24332
等	-7.24504
難	-7.253
雖	-7.25388
德	-7.25777
黄	-7.26068
伯	-7.26263
初	-7.26325
衣	-7.26666
舊	-7.27106
首	-7.27238
木	-7.27246
分	-7.27362
集	-7.28095
意	-7.28252
音	-7.28569
合	-7.2923
節	-7.29418
孝	-7.29802
左傳	-7.30067
離	-7.3027
外	-7.30318
皇	-7.30725
永	-7.30811
食	-7.31097
内	-7.31367
吾	-7.31421
發	-7.31625
謂之	-7.31655
臺	-7.31995
夫	-7.32006
絶	-7.32058
海	-7.3243
功	-7.32443
位	-7.32571
路	-7.32814
臨	-7.32858
辭	-7.32987
廣	-7.3306
舉	-7.33674
問	-7.33681
服	-7.33794
少	-7.34264
鳥	-7.34476
古	-7.34501
善	-7.35421
色	-7.35621
悲	-7.36472
哀	-7.36472
𤣥	-7.36487
别	-7.37339
定	-7.37722
獨	-7.37799
父	-7.37839
好	-7.38277
趙	-7.38323
論	-7.38658
賢	-7.38685
盡	-7.3883
處	-7.39
衆	-7.39602
宗	-7.39697
載	-7.39939
新	-7.40193
數	-7.4024
象	-7.40673
開	-7.40832
興	-7.41176
親	-7.41307
受	-7.41845
乗	-7.42006
登	-7.42162
斯	-7.42311
取	-7.42365
豈	-7.42436
詔	-7.42511
十	-7.4267
千	-7.42882
遊	-7.43179
深	-7.43501
圖	-7.43525
漢書	-7.44049
過	-7.44482
章	-7.45515
學	-7.45805
求	-7.45985
置	-7.46184
燕	-7.46547
代	-7.46875
劉	-7.47036
連	-7.47158
屬	-7.47271
鄭	-7.47877
孫	-7.48412
草	-7.48625
鳴	-7.48775
降	-7.49158
曲	-7.49852
餘	-7.49867
火	-7.50262
極	-7.50514
祖	-7.50691
政	-7.51273
反	-7.51342
田	-7.51787
遺	-7.5187
榮	-7.52272
謝	-7.52321
司	-7.52601
巳	-7.52664
彼	-7.53207
形	-7.53312
遷	-7.53376
易	-7.53402
土	-7.53547
空	-7.5407
奉	-7.54234
止	-7.54764
宣	-7.54831
容	-7.54938
昔	-7.55374
進	-7.56052
交	-7.56178
哉	-7.56373
守	-7.56436
足	-7.56903
亡	-7.57669
天下	-7.57719
失	-7.57831
傷	-7.5786
老	-7.57904
度	-7.57944
兩	-7.58092
尚書	-7.58135
以為	-7.58422
並	-7.58962
竹	-7.59061
▁(	-7.59454
直	-7.59454
按	-7.59477
客	-7.5953
蘭	-7.59845
盛	-7.59984
語	-7.60039
一作	-7.6005
室	-7.60684
卒	-7.60827
亂	-7.61027
測曰	-7.61165
吳	-7.61683
里	-7.61917
戰	-7.6206
丹	-7.6209
美	-7.628
寒	-7.62925
懐	-7.62978
動	-7.63232
耳	-7.63237
精	-7.63351
左	-7.63666
威	-7.64097
莫	-7.64297
號	-7.64618
感	-7.64688
更	-7.64836
不可	-7.65019
隂	-7.65085
且	-7.65382
承	-7.6541
母	-7.65676
落	-7.65785
將軍	-7.66161
不能	-7.66212
建	-7.6629
詳	-7.66362
野	-7.66516
拜	-7.66638
間	-7.66756
傳曰	-7.67096
赤	-7.67122
紀	-7.6749
才	-7.67659
解	-7.67784
序	-7.68054
朱	-7.68074
尚	-7.68326
雨	-7.68537
聖	-7.68552
昭	-7.69402
谷	-7.69405
宜	-7.69413
宋	-7.6981
治	-7.69982
顧	-7.70722
㑹	-7.7094
理	-7.71213
史	-7.71339
請	-7.71576
疾	-7.71617
羽	-7.71704
魚	-7.71743
記	-7.71872
變	-7.71903
典	-7.71925
願	-7.72162
引	-7.7292
葉	-7.73442
共	-7.73484
良	-7.73565
武帝	-7.74458
幽	-7.74646
貴	-7.74749
池	-7.7503
爾	-7.75072
對	-7.7549
丘	-7.7563
府	-7.75684
獻	-7.75769
垂	-7.75962
原	-7.76375
體	-7.76468
濟	-7.76489
泉	-7.76567
祭	-7.76581
洛	-7.76589
改	-7.76715
授	-7.77062
窮	-7.7718
廟	-7.77278
越	-7.77309
川	-7.77321
儀	-7.7742
懷	-7.77925
魯	-7.78132
留	-7.7876
卿	-7.78938
仁	-7.79165
微	-7.79802
伏	-7.79893
蕭	-7.79911
仲	-7.80004
花	-7.80576
羣	-7.80795
李	-7.8086
伐	-7.80916
射	-7.81064
疑	-7.81145
碑	-7.81332
憂	-7.81587
叔	-7.81643
天子	-7.81768
制	-7.82186
結	-7.82292
加	-7.824
邑	-7.82497
澤	-7.82612
遣	-7.82666
徒	-7.83013
化	-7.83094
賜	-7.83245
隨	-7.83333
敬	-7.84211
愛	-7.8428
由	-7.84444
而不	-7.84519
州刺史	-7.84742
甚	-7.84988
坐	-7.85213
陸	-7.85889
浮	-7.85987
崇	-7.86132
夷	-7.8614
征	-7.86255
凡	-7.86386
揚	-7.86439
著	-7.86682
素	-7.86945
後漢	-7.87287
舞	-7.87455
俗	-7.87456
俱	-7.87562
比	-7.87644
虎	-7.87685
衡	-7.87715
香	-7.87735
殿	-7.87991
利	-7.8833
右	-7.88357
駕	-7.88796
似	-7.89141
闗	-7.89474
延	-7.89826
固	-7.89951
佛	-7.89991
執	-7.90102
真	-7.90119
照	-7.9015
致	-7.90354
史記	-7.90561
勝	-7.90894
營	-7.90913
期	-7.9116
君子	-7.91598
近	-7.91748
元年	-7.91905
識	-7.91961
被	-7.92098
列	-7.92366
性	-7.92368
珠	-7.92411
波	-7.92554
季	-7.93086
輕	-7.9339
戎	-7.93508
巻	-7.94293
部	-7.94846
昌	-7.94968
頭	-7.95299
關	-7.95538
任	-7.95562
次	-7.95727
恩	-7.95962
蜀	-7.95986
轉	-7.96108
藏	-7.9611
庭	-7.96186
咸	-7.96276
冠	-7.96308
於是	-7.96336
送	-7.96584
銘	-7.96596
闕	-7.966
業	-7.96766
是以	-7.9689
目	-7.97037
琴	-7.97039
吏	-7.97308
羅	-7.97404
力	-7.97462
人也	-7.97758
韓	-7.97813
視	-7.98155
孤	-7.98448
鼎	-7.98484
口	-7.9869
嘉	-7.98742
后	-7.99193
敗	-7.9926
烏	-7.99898
移	-8.00198
寧	-8.00226
類	-8.00441
尊	-8.00576
荆	-8.00667
篇	-8.00692
殷	-8.00693
所以	-8.00723
園	-8.01034
存	-8.01148
姓	-8.01197
散	-8.01349
遇	-8.01491
堂	-8.01602
殺	-8.01787
虞	-8.01914
甲	-8.0193
積	-8.01966
勞	-8.01969
亭	-8.02382
克	-8.02424
雄	-8.02581
報	-8.02581
驚	-8.02593
奏	-8.02631
尺	-8.0324
露	-8.034
往	-8.03567
息	-8.03735
許	-8.03909
鏡	-8.03954
穆	-8.04331
便	-8.044
御	-8.04792
沙	-8.04794
器	-8.0482
説	-8.04873
謀	-8.0502
歲	-8.05105
含	-8.05125
冬	-8.05293
嵗	-8.05331
衛	-8.0537
郊	-8.05512
紫	-8.05534
奔	-8.0572
手	-8.05756
忠	-8.05843
薄	-8.06053
二年	-8.06288
兹	-8.06567
祀	-8.06621
教	-8.06711
旣	-8.06778
向	-8.07258
三年	-8.07347
蒼	-8.07413
江陵	-8.07442
市	-8.07524
告	-8.07797
貞	-8.07979
飲	-8.08396
松	-8.08564
芳	-8.08699
尋	-8.08752
念	-8.08853
横	-8.08989
就	-8.09226
弟	-8.09369
諸侯	-8.0941
益	-8.095
塞	-8.10126
牛	-8.10159
呉	-8.10194
各	-8.10391
苦	-8.10483
迎	-8.10644
夫人	-8.1074
滿	-8.11341
仰	-8.11489
但	-8.11662
誰	-8.11663
久	-8.11679
仙	-8.11748
啓	-8.12351
忽	-8.12394
贈	-8.12562
淵	-8.12758
胡	-8.1283
之所	-8.1301
楊	-8.13154
負	-8.13345
宿	-8.1338
余	-8.13913
惠	-8.13928
備	-8.14114
追	-8.14374
破	-8.14502
休	-8.14653
幸	-8.1486
造	-8.14872
嘗	-8.14945
待	-8.15036
雙	-8.15097
滅	-8.15306
桑	-8.15354
養	-8.15374
靡	-8.15466
塵	-8.1548
獲	-8.15606
麗	-8.15704
質	-8.15863
豐	-8.16115
孔	-8.16175
律	-8.16315
英	-8.16403
妻	-8.16491
宅	-8.16909
葢	-8.17122
曹	-8.17225
太守	-8.1749
鄉	-8.17835
鼓	-8.17852
惡	-8.18422
憲	-8.18461
具	-8.19243
怨	-8.19569
角	-8.19671
雪	-8.19687
顯	-8.19787
𢎞	-8.19941
斷	-8.19949
大將軍	-8.1999
周禮	-8.20085
機	-8.20231
鴻	-8.2024
顔	-8.20253
率	-8.20427
爵	-8.20444
懸	-8.20475
桓	-8.20724
喜	-8.20762
長安	-8.20811
依	-8.20822
唐	-8.20969
智	-8.21599
運	-8.2186
考	-8.22034
翼	-8.22111
誠	-8.22418
康	-8.22529
太子	-8.22541
采	-8.22929
徐	-8.23013
修	-8.23195
夕	-8.23466
京	-8.23528
病	-8.23707
寳	-8.23715
枝	-8.23748
不得	-8.23868
舟	-8.23989
騎	-8.24073
杜	-8.24204
攻	-8.24237
寄	-8.24308
說	-8.24431
除	-8.24552
慶	-8.24567
忘	-8.2459
本傳	-8.24771
暮	-8.24817
婦	-8.25029
劒	-8.25056
者也	-8.25195
管	-8.25619
雅	-8.25629
大夫	-8.25751
牧	-8.25933
蓋	-8.26121
布	-8.26155
春秋	-8.26162
商	-8.26192
虚	-8.26253
歡	-8.26871
注云	-8.26951
施	-8.27086
殊	-8.271
退	-8.27658
掌	-8.28169
来	-8.28184
伊	-8.28312
兄	-8.2854
苑	-8.28707
詠	-8.2888
柱	-8.29021
族	-8.29065
帶	-8.29093
雜	-8.29377
升	-8.29392
鎮	-8.29603
歎	-8.29741
振	-8.29745
鶴	-8.30739
釋	-8.30818
兼	-8.31143
聽	-8.31166
賊	-8.31371
指	-8.3139
端	-8.31508
司馬	-8.31886
種	-8.31977
職	-8.32039
彌	-8.32333
禹	-8.32551
達	-8.32561
末	-8.32617
召	-8.32844
二十	-8.32922
罪	-8.32927
馳	-8.32963
面	-8.33193
逢	-8.33208
郭	-8.33439
申	-8.33487
樓	-8.33513
畫	-8.33747
推	-8.33785
黃	-8.33916
符	-8.34051
讓	-8.3409
嚴	-8.34112
霜	-8.34113
太祖	-8.34162
千里	-8.34439
吹	-8.34582
折	-8.34702
竒	-8.34725
汝	-8.34906
納	-8.34994
辛	-8.35016
喪	-8.35299
肅	-8.35358
日月	-8.3537
辰	-8.35555
恒	-8.35595
接	-8.35646
福	-8.36307
保	-8.36451
寶	-8.36548
沉	-8.36652
圍	-8.36763
沈	-8.36886
融	-8.37153
句	-8.37191
盈	-8.37309
銅	-8.37536
漢書曰	-8.3755
鍾	-8.3783
房	-8.37833
廢	-8.38101
權	-8.38133
假	-8.38162
頌	-8.38163
嗟	-8.38279
璧	-8.38409
刻	-8.38446
是也	-8.38505
友	-8.38555
持	-8.386
泰	-8.38716
階	-8.38759
領	-8.3901
棄	-8.39146
順	-8.39399
恭	-8.40367
要	-8.40396
户	-8.40705
抱	-8.4073
軒	-8.40731
博	-8.40909
周書	-8.40996
阿	-8.4104
討	-8.41263
履	-8.41353
第	-8.41355
孟	-8.41671
隆	-8.41763
後漢書	-8.41849
讀	-8.42057
莊	-8.42243
堯	-8.42277
徙	-8.42284
危	-8.42305
龜	-8.4231
塗	-8.42729
羊	-8.42967
議	-8.42972
半	-8.43294
震	-8.43607
懼	-8.43637
覆	-8.43652
旦	-8.43722
妙	-8.4375
朔	-8.43929
步	-8.43947
飾	-8.4398
邊	-8.44005
隠	-8.4401
影	-8.44061
毛	-8.44136
襲	-8.44312
厥	-8.44325
又曰	-8.44471
干	-8.44561
據	-8.44594
䇿	-8.44603
設	-8.44679
厯	-8.44964
總	-8.44975
烈	-8.45068
桂	-8.45269
庶	-8.45359
傾	-8.45378
皇帝	-8.45544
舍	-8.4559
投	-8.45694
害	-8.46026
至於	-8.4612
井	-8.46314
聚	-8.4635
南史	-8.46642
仕	-8.46697
墓	-8.46707
襄	-8.46745
玄	-8.46918
辟	-8.47037
簡	-8.4704
晋	-8.47276
并	-8.47318
鳳	-8.47366
所謂	-8.47441
陶	-8.47794
勤	-8.47794
隱	-8.47804
湘	-8.48411
津	-8.48421
崩	-8.48449
疏	-8.485
虛	-8.48749
須	-8.48752
每	-8.48815
寵	-8.48821
嗣	-8.4908
切	-8.4951
爰	-8.49594
雷	-8.49828
録	-8.49833
愁	-8.49934
淮	-8.50171
操	-8.50194
逐	-8.5057
衰	-8.50583
邦	-8.50601
丈	-8.50639
之後	-8.50644
予	-8.50697
甘	-8.5085
姬	-8.509
維	-8.50907
禍	-8.50919
天地	-8.51236
繁	-8.51355
荒	-8.51411
壽	-8.516
輿	-8.51636
源	-8.51658
船	-8.51935
徃	-8.52085
元帝	-8.52119
根	-8.52347
刑	-8.52394
栁	-8.52679
弱	-8.52681
儒	-8.52693
會	-8.52749
茂	-8.53051
避	-8.53066
累	-8.53129
可以	-8.53147
違	-8.53186
迹	-8.53186
記曰	-8.53217
洛陽	-8.53385
傅	-8.53712
走	-8.53786
果	-8.53853
賞	-8.53872
郎	-8.53882
湯	-8.5417
詩云	-8.54395
蘇	-8.54487
術	-8.54542
計	-8.5459
泣	-8.54618
招	-8.54626
敢	-8.54776
參	-8.548
私	-8.54945
閣	-8.54971
夢	-8.55038
輔	-8.55053
侍	-8.55238
増	-8.55684
特	-8.55701
岳	-8.55716
侯景	-8.55773
秀	-8.55782
書曰	-8.55821
游	-8.56152
旗	-8.56463
温	-8.56493
附	-8.56503
工	-8.56802
恨	-8.56914
統	-8.57219
淵明	-8.57258
弓	-8.57565
徴	-8.57639
驅	-8.57656
渭	-8.57925
撫	-8.57937
庸	-8.57968
畢	-8.57988
歩	-8.57995
恐	-8.58003
習	-8.58426
范	-8.5864
歴	-8.58754
䝉	-8.58762
紛	-8.58919
或曰	-8.59026
舜	-8.59091
十二	-8.59162
絲	-8.59165
不知	-8.59201
獸	-8.59514
葬	-8.59543
配	-8.59626
吉	-8.59866
見哀江	-8.59868
祥	-8.59955
傳云	-8.60241
屈	-8.60283
鸞	-8.60358
厚	-8.60392
南賦	-8.60497
逸	-8.60626
巴	-8.60659
仍	-8.60672
斗	-8.60845
陰	-8.60928
蔡	-8.61042
險	-8.61104
逆	-8.61113
想	-8.61209
兒	-8.61358
都督	-8.61477
岸	-8.61479
悉	-8.61522
繼	-8.61537
輪	-8.61749
禽	-8.61931
晨	-8.62006
凌	-8.62027
晉書	-8.62125
壯	-8.62327
答	-8.62404
築	-8.62665
雀	-8.62744
全	-8.62769
燭	-8.63065
藥	-8.63139
魂	-8.63185
寸	-8.63533
鬱	-8.63591
慮	-8.63621
孔子	-8.63768
或謂之	-8.63796
侍中	-8.6384
儉	-8.63863
翠	-8.64
舒	-8.64367
慕	-8.64369
鳯	-8.64393
雍	-8.64628
鐘	-8.64691
蕩	-8.6482
基	-8.64854
逝	-8.64917
将	-8.64962
早	-8.65207
趙王	-8.65245
詩曰	-8.65447
祠	-8.65565
勲	-8.65571
之間	-8.65706
霞	-8.65716
社	-8.65957
細	-8.65962
響	-8.66141
錢	-8.66358
寢	-8.66455
屋	-8.66459
寜	-8.66829
短	-8.66842
瑞	-8.66858
支	-8.67197
枯	-8.67288
亮	-8.67322
煙	-8.67367
援	-8.6754
雞	-8.67551
賔	-8.67649
佐	-8.67707
帷	-8.67715
厲	-8.67743
子曰	-8.67755
宴	-8.67768
班	-8.68038
絃	-8.68203
文帝	-8.68528
超	-8.68548
左右	-8.68592
委	-8.68609
橋	-8.68775
某	-8.68966
注曰	-8.69023
陣	-8.69302
乘	-8.69331
蒲	-8.69352
再	-8.69372
銀	-8.69771
慈	-8.69803
笑	-8.70147
資	-8.70221
雉	-8.70255
索	-8.70261
館	-8.70265
帳	-8.70279
没	-8.70311
幾	-8.70315
禪	-8.70458
宇	-8.70509
庾	-8.70552
匈奴	-8.70609
省	-8.70706
竟	-8.70724
披	-8.70746
徵	-8.71549
充	-8.71559
辨	-8.71599
席	-8.71608
適	-8.71634
四年	-8.71818
擬	-8.7218
禮記	-8.72386
免	-8.72469
霸	-8.72814
策	-8.72885
丁	-8.72887
𦵏	-8.73308
調	-8.7332
桃	-8.73357
詞	-8.73361
慙	-8.73379
黄帝	-8.73766
畧	-8.738
患	-8.7384
映	-8.73881
左氏傳曰	-8.73946
賈	-8.74213
怒	-8.74218
盤	-8.74244
訓	-8.74329
靜	-8.74368
藻	-8.744
僧	-8.74678
銜	-8.74705
兆	-8.75174
壁	-8.75607
錦	-8.7562
條	-8.75635
先生	-8.75678
旅	-8.75702
覽	-8.75712
收	-8.75723
翔	-8.7574
喻	-8.75856
擊	-8.76053
校	-8.76119
杖	-8.76429
勸	-8.76529
誅	-8.7658
允	-8.76626
狀	-8.76889
耶	-8.77056
瞻	-8.77089
籍	-8.77488
廻	-8.77499
候	-8.77503
洪	-8.77579
戸	-8.77888
密	-8.77901
戒	-8.77934
中有	-8.78049
託	-8.78052
界	-8.78177
吴	-8.78346
故云	-8.7845
卜	-8.78462
荷	-8.78466
巖	-8.78481
廬	-8.78499
愚	-8.78529
五年	-8.78688
盧	-8.78875
洲	-8.78941
述	-8.78965
遠	-8.79009
約	-8.79305
竊	-8.79445
戚	-8.79737
到	-8.7979
遭	-8.79879
弗	-8.79904
斬	-8.80325
勢	-8.80339
浦	-8.80351
贊	-8.80356
邪	-8.80373
冀	-8.80405
曜	-8.8047
曰吾	-8.80666
渡	-8.80775
巢	-8.8085
回	-8.81388
史記曰	-8.81407
呼	-8.81764
冥	-8.81792
堅	-8.81825
裔	-8.82185
壇	-8.82229
吕	-8.82258
脩	-8.82322
聊	-8.82421
盟	-8.82665
齒	-8.82808
躬	-8.82813
役	-8.82825
雁	-8.83078
掩	-8.83294
昆	-8.83303
飄	-8.8333
聖人	-8.83434
富	-8.8358
後漢書曰	-8.83645
農	-8.83758
渚	-8.83862
南陽	-8.84055
不足	-8.84109
血	-8.84154
略	-8.84235
察	-8.84869
而無	-8.84875
山之	-8.85109
熊	-8.85188
䕶	-8.8521
鹿	-8.85211
刺	-8.8522
畏	-8.85267
宰	-8.85347
選	-8.85652
宮	-8.85676
人之	-8.8569
衞	-8.85717
急	-8.85844
放	-8.85874
賀	-8.86244
境	-8.86255
夀	-8.86259
渠	-8.86265
純	-8.86308
瓊	-8.8637
談	-8.86371
卷	-8.86482
乾	-8.86782
敦	-8.8679
品	-8.86853
貧	-8.86876
軌	-8.86895
司徒	-8.86897
扶	-8.87082
荀	-8.87263
帥	-8.87292
眉	-8.87322
背	-8.87331
量	-8.87345
覺	-8.87352
阻	-8.87383
淚	-8.87412
乆	-8.87452
無所	-8.87546
遥	-8.87828
緑	-8.87888
童	-8.87946
臣聞	-8.87989
遐	-8.8802
鼔	-8.8834
紅	-8.88354
側	-8.8842
蒙	-8.88454
賦曰	-8.88671
防	-8.8882
勒	-8.88878
講	-8.88891
介	-8.88911
兄弟	-8.88931
薦	-8.88936
績	-8.88979
匪	-8.89078
師古曰	-8.89364
又云	-8.89378
蓮	-8.89389
屯	-8.89409
漸	-8.89432
遵	-8.89456
欽	-8.89531
霧	-8.89553
綺	-8.89568
豫	-8.89706
盜	-8.89848
墨	-8.90007
丗	-8.90039
司空	-8.90083
髙祖	-8.90269
隋書	-8.90501
芝	-8.90511
曾	-8.90531
唯	-8.90582
謹	-8.90928
袁	-8.90969
馮	-8.90998
崔	-8.91016
電	-8.91083
攸	-8.91139
三月	-8.91294
鄴	-8.91465
妾	-8.91544
錫	-8.91557
寺	-8.91963
穴	-8.92013
泥	-8.92018
柳	-8.92042
嶺	-8.9206
莫不	-8.92062
甫	-8.92062
諱	-8.92076
牙	-8.92085
珍	-8.92155
國公	-8.92554
倫	-8.92698
刀	-8.93116
獵	-8.93124
尸	-8.9313
曠	-8.93199
禁	-8.93203
如此	-8.9354
骨	-8.93627
聘	-8.93635
救	-8.93721
戲	-8.93722
赴	-8.93775
三十	-8.93962
志曰	-8.94046
皮	-8.94215
撃	-8.9423
况	-8.94284
爭	-8.94305
譬	-8.9431
採	-8.94368
示	-8.94533
哭	-8.94816
植	-8.94823
逰	-8.9489
盖	-8.94902
式	-8.94911
後周	-8.94959
矢	-8.95326
潛	-8.9536
鮮	-8.95404
耀	-8.95442
拔	-8.95868
增	-8.95928
桐	-8.95947
佩	-8.95949
迴	-8.95962
柱國	-8.95976
譽	-8.95983
曽	-8.96007
論語	-8.96028
國之	-8.9604
吟	-8.9606
穀	-8.96444
隴	-8.96502
於此	-8.96504
昏	-8.96507
肉	-8.96515
尾	-8.96518
䘮	-8.9652
聴	-8.96567
嶽	-8.96613
不敢	-8.96771
繫	-8.96942
竇	-8.96958
蛇	-8.97032
扇	-8.9711
拂	-8.97152
悼	-8.97712
陛下	-8.9831
秉	-8.98793
太尉	-8.98796
啟	-8.98798
頃	-8.98798
旁	-8.98805
偃	-8.98864
寂	-8.98922
鬼	-8.99259
本傳云	-8.99281
圓	-8.99292
占	-8.99354
頓	-8.99357
燈	-8.99387
革	-8.99404
狄	-8.99419
賓	-8.9943
歳	-8.99492
一名	-8.99511
男	-8.99794
葛	-8.99896
鄰	-8.99946
峻	-9.00016
遲	-9.00108
本紀	-9.00129
文王	-9.00547
輒	-9.00551
洞	-9.00584
翻	-9.00593
明帝	-9.0066
侵	-9.01118
光武	-9.01121
湖	-9.01134
名曰	-9.01184
沒	-9.01203
寡	-9.01316
東海	-9.01391
十五	-9.01539
戈	-9.01703
財	-9.01739
僕	-9.01764
㣲	-9.01864
故曰	-9.02139
燒	-9.02248
織	-9.02263
萬物	-9.02315
膺	-9.02365
旌	-9.02411
規	-9.0245
黎	-9.02779
荆州	-9.02948
裁	-9.02952
河南	-9.0303
凝	-9.03031
育	-9.03032
輝	-9.03074
十里	-9.03164
茅	-9.03513
禄	-9.03529
丞相	-9.03633
踰	-9.04158
他	-9.0418
辱	-9.04212
騰	-9.04219
欣	-9.04227
味	-9.04256
奮	-9.04301
炎	-9.04621
頗	-9.04751
耕	-9.04767
繞	-9.04801
詣	-9.04812
祗	-9.04842
惜	-9.04889
正月	-9.04926
妃	-9.05365
偏	-9.05455
鱗	-9.05481
哲	-9.05487
子山	-9.05952
差	-9.05997
續	-9.06008
務	-9.06026
勿	-9.06112
旋	-9.06114
氷	-9.06121
鐵	-9.06602
誓	-9.06623
幼	-9.06627
勇	-9.06638
墳	-9.06665
蔽	-9.06677
提	-9.0669
篤	-9.06766
白馬	-9.06961
姑	-9.07223
岐	-9.07226
凶	-9.07256
忌	-9.07314
衍	-9.07332
災	-9.07341
淑	-9.0738
閑	-9.07405
跡	-9.07435
疑作	-9.07817
公子	-9.07941
縱	-9.07952
蓬	-9.07968
毎	-9.07983
屢	-9.07998
莊子	-9.08248
偉	-9.08456
揺	-9.08494
悦	-9.08524
愈	-9.08543
罷	-9.08597
雕	-9.08614
江南	-9.08714
幕	-9.09094
臯	-9.09112
劍	-9.09147
藩	-9.09159
溪	-9.09192
裳	-9.09286
孰	-9.09302
對曰	-9.09382
尹	-9.09651
域	-9.0976
四方	-9.0977
題	-9.0981
筆	-9.0985
逹	-9.09885
單	-9.10335
虜	-9.10446
薨	-9.10447
值	-9.10503
協	-9.10506
秩	-9.10525
邈	-9.106
宻	-9.11133
滕	-9.11695
爽	-9.11767
寛	-9.11788
希	-9.11864
祚	-9.11872
之事	-9.11934
然後	-9.12364
一首	-9.12371
卧	-9.12436
卑	-9.12462
停	-9.12487
痛	-9.12487
優	-9.125
競	-9.12503
試	-9.12503
陸機	-9.12539
帝紀	-9.12783
六年	-9.12797
貌	-9.13051
誕	-9.13136
自然	-9.13285
四十	-9.13384
佳	-9.13404
戴	-9.1374
杯	-9.13792
倚	-9.13824
𢎞農	-9.13826
淫	-9.13837
慎	-9.13842
之間謂之	-9.13949
區	-9.13979
陷	-9.14447
百里	-9.14521
嬰	-9.14523
棲	-9.1458
公孫	-9.1494
舎	-9.15127
緯	-9.15134
鑿	-9.15165
導	-9.15172
狐	-9.15179
都賦	-9.15233
賦云	-9.15239
武王	-9.15518
彭	-9.15735
粟	-9.15739
或問	-9.1575
綸	-9.158
醉	-9.15825
漏	-9.15872
月令	-9.16009
皇后	-9.16034
不見	-9.16324
觸	-9.16455
西魏	-9.16502
乞	-9.16515
虹	-9.16537
途	-9.16565
㫖	-9.1657
渭生曰	-9.16597
不如	-9.16759
稽	-9.17094
預	-9.17181
倉	-9.17182
契	-9.17185
昧	-9.17203
懿	-9.17281
柔	-9.17303
東南	-9.17308
僕射	-9.1743
萬里	-9.17724
紹	-9.17932
匡	-9.17936
不復	-9.18055
牀	-9.18523
毁	-9.18607
榖	-9.18615
助	-9.1862
恥	-9.18641
錯	-9.18686
乏	-9.18696
麟	-9.18699
周公	-9.18734
貢	-9.18779
而後	-9.18786
北史	-9.18938
遼	-9.18959
射賦	-9.19128
箭	-9.19252
枚	-9.19269
强	-9.19294
揮	-9.19447
西北	-9.19496
滋	-9.19555
并序	-9.1959
單于	-9.19974
静	-9.2003
韻	-9.20106
淮南	-9.2026
晏	-9.20566
灰	-9.2073
否	-9.20742
擁	-9.20743
最	-9.20745
殘	-9.20758
看	-9.20759
豹	-9.2079
弦	-9.20831
網	-9.20853
京師	-9.20991
二首	-9.21039
宣帝	-9.21063
徽	-9.21566
激	-9.21622
賤	-9.21771
刺史	-9.21781
山川	-9.22042
老子	-9.22057
嘆	-9.22176
辯	-9.22222
珪	-9.2225
肆	-9.22274
暫	-9.22279
徑	-9.223
茍	-9.22303
鑒	-9.22323
瑟	-9.22336
四海	-9.22507
台	-9.22908
均	-9.22915
鋒	-9.22919
上有	-9.2295
繩	-9.22958
案	-9.22983
貫	-9.22991
州諸軍事	-9.23008
碧	-9.23018
享	-9.2302
矯	-9.23043
以下	-9.23613
鄧	-9.23632
補	-9.23664
埋	-9.23671
獄	-9.23688
循	-9.237
敷	-9.23721
澄	-9.23748
踐	-9.23753
悟	-9.23756
武帝紀	-9.24068
也又	-9.24249
宇文	-9.2479
決	-9.2516
奄	-9.2517
涕	-9.25172
臧	-9.25181
涼	-9.25191
夭	-9.25194
犯	-9.25198
叅	-9.25223
誤	-9.25223
凉	-9.25245
消	-9.2526
烟	-9.25354
監	-9.25742
郢	-9.258
菊	-9.25967
朗	-9.25968
尤	-9.25999
摧	-9.26013
眷	-9.26014
謁	-9.26022
翰	-9.26066
五十	-9.26519
穿	-9.26611
胥	-9.26653
腹	-9.26691
謙	-9.26775
暴	-9.26783
巧	-9.2679
煩	-9.26812
厭	-9.26816
瑶	-9.2684
俊	-9.2686
而已	-9.26871
見和	-9.27018
見馬	-9.27196
槐	-9.274
冢	-9.27422
釣	-9.27424
禹貢	-9.27425
猿	-9.27444
三日	-9.275
四時	-9.27574
號曰	-9.27709
魏志	-9.27884
粲	-9.27943
膏	-9.28172
蟲	-9.28199
棘	-9.28225
髮	-9.28235
幹	-9.28255
濯	-9.28336
鑄	-9.28362
徘徊	-9.2847
鄭注云	-9.28491
百姓	-9.28621
沛	-9.2879
何以	-9.2881
姜	-9.28984
拒	-9.29028
奚	-9.29083
借	-9.29086
保定	-9.29097
其所	-9.2963
督	-9.29724
裏	-9.29782
矜	-9.29798
衝	-9.2982
猛	-9.29837
疆	-9.29841
誄	-9.29924
聞之	-9.30123
寇	-9.30493
怪	-9.3064
隔	-9.30645
樊	-9.30657
罔	-9.30701
播	-9.30723
賛	-9.30724
芬	-9.30762
暉	-9.30776
相如	-9.30782
俯	-9.30783
今日	-9.31018
之地	-9.31275
憐	-9.31412
給	-9.31418
乖	-9.31424
豪	-9.3145
梓	-9.31451
剛	-9.31457
潤	-9.31511
冕	-9.31532
氏之	-9.31542
西域	-9.31548
群	-9.31575
太史	-9.31817
羌	-9.32118
翟	-9.32118
京兆	-9.32189
調曲	-9.32203
黑	-9.32218
忍	-9.32225
地理志	-9.32244
韋	-9.32261
返	-9.33033
齋	-9.33042
頻	-9.33049
綿	-9.33143
百年	-9.33398
環	-9.33814
住	-9.33831
牽	-9.3385
閉	-9.33857
夾	-9.33862
十餘	-9.34032
明月	-9.34111
褒	-9.34245
尉	-9.34476
曰此	-9.34488
仙人	-9.34585
平原	-9.34596
枕	-9.34627
巾	-9.34631
慧	-9.34641
庚	-9.34671
閭	-9.34676
裂	-9.34691
撰	-9.34743
墜	-9.3478
七十	-9.35228
溫	-9.3536
醜	-9.35432
竈	-9.35434
匹	-9.35465
圭	-9.35484
蟬	-9.35491
淮南子曰	-9.35518
敵	-9.35525
材	-9.35544
惑	-9.35546
逼	-9.35552
弄	-9.35581
都尉	-9.35615
潜	-9.35669
子孫	-9.3573
一人	-9.35819
正義曰	-9.36269
冰	-9.36296
鉤	-9.36306
蠻	-9.36322
澗	-9.36369
妖	-9.36386
遁	-9.36387
吐	-9.36389
抗	-9.36433
恱	-9.36446
緒	-9.36474
五月	-9.36845
零	-9.36999
乙	-9.37119
却	-9.37138
郭璞	-9.37151
棺	-9.37158
宛	-9.37164
倒	-9.37167
困	-9.37251
愧	-9.3727
晉書曰	-9.3728
之功	-9.37318
西南	-9.37656
之禮	-9.37703
渾	-9.37956
割	-9.37973
狼	-9.37998
慘	-9.38037
摩	-9.38039
傍	-9.3808
損	-9.38099
蠶	-9.38117
晩	-9.38174
荅	-9.382
隅	-9.38254
太傅	-9.38274
屏	-9.3882
麥	-9.38822
鮑	-9.38861
之言	-9.38873
焚	-9.38909
格	-9.3893
弔	-9.38933
綠	-9.38955
責	-9.38957
汲	-9.3896
黙	-9.38996
淳	-9.39007
公之	-9.39403
際	-9.39494
晝	-9.39722
鄙	-9.39733
閒	-9.39763
散騎常侍	-9.3977
以自	-9.3978
彰	-9.39825
藉	-9.39835
西河	-9.39838
姿	-9.39907
覩	-9.39908
􁀙	-9.40422
十年	-9.40546
胄	-9.40637
豆	-9.40641
霍	-9.40684
滔	-9.40745
翳	-9.40762
甘泉	-9.4077
恵	-9.40797
知其	-9.40818
爾雅	-9.40847
淮南子	-9.4098
公卿	-9.41011
高祖	-9.41239
徹	-9.41335
奴	-9.41449
愍	-9.41504
詧	-9.41507
普	-9.41516
廟歌	-9.41528
包	-9.41532
誘	-9.41584
三公	-9.41609
周易	-9.41625
東魏	-9.42135
杜預曰	-9.42219
熟	-9.42382
轂	-9.42406
竭	-9.42416
汾	-9.42424
錄	-9.42438
従	-9.42451
俄	-9.42466
小人	-9.42478
敏	-9.42486
訪	-9.4251
綏	-9.42518
躍	-9.42568
六十	-9.42571
仲尼	-9.42652
邁	-9.42664
雍州	-9.42667
經曰	-9.42817
丞	-9.43206
爾雅曰	-9.43238
蕃	-9.43292
隋	-9.43296
卦	-9.43308
毒	-9.4332
彈	-9.43333
濵	-9.43377
驗	-9.43384
觴	-9.43435
妄	-9.43449
如何	-9.43469
揚雄	-9.43482
趣	-9.43497
此云	-9.43674
河陽	-9.43918
那	-9.44101
之情	-9.44206
魏文帝	-9.44219
展	-9.44222
汝南	-9.44233
令㫖荅	-9.44252
熙	-9.44259
段	-9.44271
受命	-9.44331
促	-9.44374
淪	-9.44388
東西	-9.44671
風雲	-9.44837
逃	-9.45128
坂	-9.45154
梅	-9.45161
犀	-9.45171
樞	-9.45171
七月	-9.45197
程	-9.4522
饗	-9.45231
遜	-9.45237
效	-9.45252
彦	-9.45268
渉	-9.4527
髪	-9.45281
芒	-9.45297
喬	-9.45299
之道	-9.45542
成都	-9.45626
襄陽	-9.45765
字子	-9.45806
韶	-9.45996
墮	-9.46009
即位	-9.46097
旬	-9.46106
攀	-9.46135
輸	-9.46138
奪	-9.46142
堪	-9.46209
皓	-9.46217
酌	-9.46229
羣臣	-9.46298
歌曰	-9.46693
足下	-9.46719
駿	-9.46949
嵩	-9.46971
梵	-9.46973
其後	-9.46976
屠	-9.46982
晦	-9.46985
彊	-9.47013
叛	-9.47027
十六	-9.47051
㤗	-9.47095
憤	-9.47097
灌	-9.47106
濁	-9.47111
攝	-9.47185
中興	-9.47565
有三	-9.47699
黨	-9.47738
南山	-9.47874
迷	-9.47951
邵	-9.47997
齡	-9.48018
溢	-9.48024
專	-9.48026
輟	-9.48046
岑	-9.48069
長史	-9.48134
未有	-9.48243
龍門	-9.48417
黃帝	-9.48606
諦	-9.48711
長沙	-9.48712
項	-9.48816
璽	-9.48898
牲	-9.48907
巨	-9.48941
决	-9.48993
纓	-9.49044
箴	-9.49054
𬒳	-9.49119
者皆	-9.49169
君之	-9.49306
二月	-9.49397
五百	-9.49566
是為	-9.4981
印	-9.49819
員	-9.49829
潁川	-9.49843
綬	-9.49851
諫	-9.49856
疎	-9.49859
捨	-9.49882
況	-9.49892
誦	-9.49894
酬	-9.49897
嗚呼哀哉	-9.49906
叢	-9.49953
斜	-9.49968
儀同	-9.5
車騎	-9.50064
帛	-9.50764
河内	-9.50863
僚	-9.50877
憶	-9.50895
午	-9.50896
熈	-9.50899
俟	-9.50907
赫	-9.50909
崖	-9.50938
飢	-9.50994
抑	-9.51021
河東	-9.51085
四月	-9.51144
也漢書	-9.51145
其一	-9.51567
彪	-9.51793
淹	-9.51811
繡	-9.51837
壺	-9.51866
洗	-9.51872
舌	-9.51894
詎	-9.51895
暢	-9.51909
腸	-9.51911
巫	-9.51915
轡	-9.52028
測	-9.52082
山中	-9.52167
五色	-9.52206
第一	-9.52271
齊王	-9.52546
古人	-9.52672
寅	-9.52787
黒	-9.52816
亷	-9.52818
範	-9.52839
悔	-9.52871
歛	-9.52873
戮	-9.52881
祈	-9.52911
以來	-9.53029
文章	-9.53126
有一	-9.5319
數十	-9.53654
銘曰	-9.53654
之義	-9.53663
足以	-9.53705
淺	-9.53817
牢	-9.53824
潘岳	-9.5384
稍	-9.53859
駭	-9.53892
歇	-9.53893
晚	-9.5393
洄曰	-9.53946
東北	-9.53975
説文曰	-9.54041
言其	-9.54264
太后	-9.54292
陳留	-9.5445
明堂	-9.54686
毅	-9.54706
束	-9.54746
桓公	-9.54746
見宗	-9.5475
壘	-9.5484
憑	-9.54842
亥	-9.54852
畿	-9.54881
縁	-9.54889
缺	-9.54896
世家	-9.5492
滯	-9.54965
豫章	-9.54984
白日	-9.5508
天下之	-9.55121
扶風	-9.55142
未嘗	-9.55456
樂府	-9.5551
宋玉	-9.55638
簫	-9.55868
董	-9.55876
膠	-9.55881
牆	-9.55892
敎	-9.55902
蕪	-9.55903
校尉	-9.55905
箕	-9.55941
争	-9.55941
咨	-9.55951
泰山	-9.55955
綱	-9.55957
壤	-9.55979
常侍	-9.56113
漁	-9.5626
昭王	-9.56751
檀	-9.56787
公主	-9.56815
絳	-9.56862
上林	-9.56863
榆	-9.56872
陪	-9.56905
艱	-9.56963
河橋	-9.57079
其中	-9.57188
長城	-9.57524
薛	-9.57849
應劭曰	-9.57849
朝廷	-9.57865
賚	-9.57892
己	-9.57938
邉	-9.57953
陋	-9.57957
稷	-9.57979
時人	-9.58009
咎	-9.58036
闇	-9.58056
王子	-9.58162
亦有	-9.58241
炯曰	-9.58304
不及	-9.58304
有五	-9.5831
也按	-9.58607
東宫	-9.5879
以其	-9.58914
崑崙	-9.58957
低	-9.58982
陜	-9.58986
窺	-9.58988
枉	-9.5899
脫	-9.59041
㝠	-9.59048
鵠	-9.5905
之中	-9.59169
弘	-9.59228
使者	-9.59412
藝	-9.59679
菩薩	-9.59856
弩	-9.59958
潁	-9.59961
驃騎	-9.59969
柏	-9.59984
供	-9.60005
騷	-9.60035
中大夫	-9.60066
座	-9.60073
椒	-9.60089
腰	-9.6014
峯	-9.60161
曰昔	-9.60185
平生	-9.6032
遣使	-9.60362
蓋聞	-9.6041
之間曰	-9.60535
九月	-9.60625
草木	-9.60679
見其	-9.60681
驪	-9.61067
禦	-9.61085
芙蓉	-9.61093
朕	-9.61123
斂	-9.61134
緣	-9.61144
饒	-9.6115
奕	-9.61178
偽	-9.61209
慷慨	-9.61277
悵	-9.6129
古今	-9.61338
文武	-9.61364
名也	-9.61413
必有	-9.61539
百官	-9.61591
百餘	-9.61699
之子	-9.61708
将軍	-9.62047
縣注	-9.62071
婁	-9.6213
浴	-9.62171
驥	-9.62175
謨	-9.62181
製	-9.62181
兖	-9.62212
社稷	-9.62221
奠	-9.62236
叙	-9.62257
潭	-9.62267
綵	-9.62268
裔碑	-9.62273
祁	-9.62285
勁	-9.62289
廵	-9.62292
黍	-9.62303
湑曰	-9.6233
杜預	-9.62384
有餘	-9.6242
悠悠	-9.62466
黄金	-9.6247
以爲	-9.62574
天道	-9.62842
故人	-9.63069
侃	-9.6323
以此	-9.63265
暗	-9.6333
夙	-9.63357
魄	-9.63368
七年	-9.63582
開府	-9.63597
平陽	-9.63608
一日	-9.6367
千年	-9.63798
大都督	-9.64332
突	-9.6438
蔡邕	-9.64384
碎	-9.64398
湛	-9.644
函	-9.64407
西京雜記	-9.64421
可知	-9.64445
邕	-9.64491
底	-9.64492
偶	-9.64521
眇	-9.64581
閨	-9.64589
注見	-9.64841
以上	-9.64866
北海	-9.65321
二人	-9.65416
刃	-9.65427
嫁	-9.65507
掾	-9.65514
括	-9.65543
驂	-9.65605
几	-9.6561
而去	-9.65677
浪	-9.65689
蕙	-9.65762
楚王	-9.65886
大司馬	-9.65947
上書	-9.65954
南方	-9.66001
婦人	-9.66292
未詳	-9.66426
乳	-9.66543
為大	-9.66575
聰	-9.66623
戊	-9.66634
馭	-9.66641
㦸	-9.66677
㑹稽	-9.66681
貪	-9.66711
祝	-9.66713
肯	-9.66745
襟	-9.66787
誨	-9.66842
佇	-9.66851
歟	-9.66855
疇	-9.66865
名為	-9.66955
十三	-9.67013
之下	-9.67021
七日	-9.67046
僧辯	-9.67329
之上	-9.6733
天之	-9.67362
童子	-9.67411
天和	-9.67455
讀法	-9.67499
三千	-9.67582
粉	-9.67688
醫	-9.6774
籠	-9.67752
審	-9.67769
眼	-9.67825
爛	-9.67837
賣	-9.67857
雌	-9.67857
薪	-9.67924
寐	-9.67929
戾	-9.67959
鴈	-9.68004
神明	-9.6816
秦王	-9.68199
殺之	-9.68201
山海經	-9.68212
文學	-9.68394
人生	-9.68468
十八	-9.68698
陽侯	-9.68804
囊	-9.68857
米	-9.68912
像	-9.68925
酉	-9.68953
譙	-9.68961
涉	-9.68965
暑	-9.68979
曹植	-9.69004
冶	-9.69018
使人	-9.69032
猷	-9.69033
宵	-9.69044
逮	-9.6914
壑	-9.69157
儲	-9.69165
人所	-9.69471
白虎	-9.69515
有所	-9.69534
三百	-9.69592
曰天	-9.69726
武成	-9.69771
一曰	-9.69855
之士	-9.69859
孟子	-9.69865
宗廟	-9.69943
婆	-9.69988
故以	-9.70025
麾	-9.70073
買	-9.70079
軫	-9.70131
卓	-9.7014
擇	-9.70156
笛	-9.70176
司馬相如	-9.70182
逕	-9.70198
罕	-9.70213
曉	-9.70228
駟	-9.70229
恃	-9.70248
編	-9.70271
太清	-9.70308
東方	-9.7039
咸陽	-9.70407
女子	-9.7047
皆有	-9.7071
博物志	-9.71312
隂陽	-9.71339
卭	-9.71352
戍	-9.71353
創	-9.71386
削	-9.7139
纂	-9.71394
誥	-9.71398
棠	-9.71398
囘	-9.7141
函谷	-9.71416
慰	-9.71437
筵	-9.71447
揚州	-9.71453
琴瑟	-9.71492
翮	-9.71514
無不	-9.71628
生於	-9.71782
中書	-9.71819
見司馬	-9.71984
可得	-9.72048
曰我	-9.72198
其上	-9.72294
豈不	-9.72303
勃	-9.72456
邱	-9.7247
者謂	-9.72474
竝	-9.72492
子之	-9.72516
犬	-9.72518
羲	-9.72526
冦	-9.7254
韜	-9.72541
斧	-9.72578
肥	-9.72579
鈞	-9.72611
栖	-9.72677
眺	-9.7269
唱	-9.72722
䟽	-9.72728
子也	-9.72747
蹈	-9.7277
可謂	-9.73026
出入	-9.7335
八十	-9.7347
也次三	-9.73609
旄	-9.73631
也言	-9.73694
囚	-9.73701
鹽	-9.73753
瓜	-9.73758
祿	-9.73786
漳	-9.73806
耿	-9.73817
泗	-9.73819
圃	-9.73825
恢	-9.73831
謬	-9.73851
擾	-9.73854
匠	-9.73864
諧	-9.73878
姦	-9.73894
父子	-9.7391
墟	-9.73939
有大	-9.73969
冝	-9.7401
使持節	-9.74159
前後	-9.74768
楚辭曰	-9.74795
是謂	-9.74813
也次二	-9.74833
也次八	-9.74837
也次七	-9.74839
也次四	-9.74843
也次五	-9.74851
也次六	-9.74854
啼	-9.7494
卽	-9.74941
巡	-9.74993
阮	-9.75004
填	-9.75031
莖	-9.75049
洽	-9.75076
十一月	-9.75082
玩	-9.75109
楚辭	-9.75125
凱	-9.75132
戀	-9.75167
㳺	-9.75196
若夫	-9.75251
憲碑	-9.75396
周之	-9.75401
父母	-9.75508
功臣	-9.75536
金石	-9.75688
然則	-9.75775
益州	-9.76065
者謂之	-9.76107
脂	-9.76122
也上九	-9.76123
□(	-9.76172
速	-9.76179
匿	-9.76217
未詳按	-9.76232
肇	-9.76232
蟻	-9.76235
圜丘	-9.76238
甞	-9.76244
鞭	-9.76246
潔	-9.76256
裘	-9.76274
寫	-9.76279
擅	-9.76336
驕	-9.76347
雖復	-9.7635
嘯	-9.76356
寥	-9.76364
苗	-9.76392
虧	-9.76405
限	-9.76407
世祖	-9.76418
千金	-9.76423
六月	-9.76718
隋志	-9.77041
水出	-9.77133
太平	-9.77168
國語	-9.7719
禮樂	-9.77296
熱	-9.77429
禮記曰	-9.77454
署	-9.77501
汗	-9.77509
軸	-9.77519
弟子	-9.77519
賴	-9.77542
註	-9.77561
灼	-9.7757
柴	-9.77583
悽	-9.77595
朋	-9.77597
初一	-9.77598
戢	-9.77606
流水	-9.77618
頴	-9.77632
繁弨曰	-9.77633
繫辭	-9.77869
内史	-9.7789
曰夫	-9.77921
第三	-9.78223
琳	-9.78326
太公	-9.78536
溺	-9.78769
尼	-9.78782
𨽻	-9.78783
欵	-9.78783
靖	-9.78802
騫	-9.78804
乍	-9.78812
刋	-9.78814
衿	-9.78828
鵲	-9.78835
饑	-9.78856
冡	-9.78867
窟	-9.78891
染	-9.78909
軀	-9.78913
者不	-9.7896
扵	-9.78999
古之	-9.79218
王褒	-9.79352
山在	-9.79408
陽縣	-9.79466
三輔	-9.79586
之月	-9.79598
南北	-9.79969
東方朔	-9.79988
見步陸	-9.80025
貳	-9.80043
㡬	-9.80052
用之	-9.80061
擒	-9.80078
鳩	-9.80086
沐	-9.80089
趨	-9.80091
袖	-9.80107
耆	-9.80114
菱	-9.80136
朽	-9.80146
裕	-9.80162
桀	-9.80171
貽	-9.80178
㧞	-9.80192
塘	-9.80194
皎	-9.80197
開國	-9.80198
層	-9.80225
穢	-9.80235
冲	-9.80273
沾	-9.80313
御史	-9.80333
豫州	-9.80538
博士	-9.80566
諡	-9.80746
閔	-9.80885
語曰	-9.80924
上帝	-9.80929
五日	-9.8108
美人	-9.81178
琨	-9.81218
迦	-9.81289
南楚	-9.81356
完	-9.81362
裴	-9.81382
標	-9.81384
千載	-9.8141
秘	-9.81412
警	-9.8145
笙	-9.81451
宏	-9.81459
烽	-9.81465
廉	-9.81473
幣	-9.81485
膽	-9.81498
衢	-9.81508
廓	-9.81525
組	-9.81529
楚之	-9.81571
浩	-9.81576
徂	-9.81581
進爵	-9.81586
之神	-9.81691
化為	-9.81786
承聖	-9.81831
十一	-9.82002
相與	-9.82205
建武	-9.82405
神仙傳	-9.82415
王室	-9.82431
逞	-9.82534
冀州	-9.82559
也故	-9.82584
簡文	-9.82611
讚	-9.82642
局	-9.82681
祐	-9.82703
瓦	-9.82713
棟	-9.82716
萊	-9.82716
糧	-9.82724
坎	-9.82731
壬	-9.82731
𤓰	-9.82732
沖	-9.82733
丙	-9.82744
䖍	-9.82747
狹	-9.82806
漠	-9.82824
山有	-9.82847
狂	-9.82862
泛	-9.82863
羈	-9.82868
慿	-9.82939
暇	-9.82957
既而	-9.83128
見傷	-9.83146
郡公	-9.83287
富貴	-9.83506
見擬	-9.83611
時有	-9.839
敖	-9.83992
二子	-9.84042
娶	-9.84042
副	-9.84122
之戰	-9.84127
矩	-9.8415
艾	-9.84151
隕	-9.84169
殆	-9.84178
練	-9.84195
整	-9.84212
擢	-9.84214
又有	-9.84276
成王	-9.84299
山河	-9.8447
見祀	-9.84693
之志	-9.84843
見齊王	-9.84986
産	-9.85107
天官書	-9.85204
上下	-9.85258
取其	-9.85266
舂	-9.85385
睢	-9.85403
丑	-9.85502
娥	-9.85509
勅	-9.85526
挺	-9.85535
柯	-9.85535
峽	-9.85544
橫	-9.85575
怡	-9.85591
鄕	-9.85596
扈	-9.85606
縈	-9.85621
俾	-9.85649
風雨	-9.85668
庻	-9.85674
劉向	-9.85771
千餘	-9.85821
得其	-9.85868
後魏	-9.85953
梁元帝	-9.85968
神農	-9.85976
此言	-9.86
漢武帝	-9.86046
文選	-9.86076
古者	-9.86189
武昌	-9.86284
隴西	-9.86389
九年	-9.86547
無復	-9.86698
陂	-9.86778
費	-9.86842
恂	-9.86857
沈約	-9.86885
板	-9.86888
遙	-9.86907
建平王	-9.86923
析	-9.8693
探	-9.86935
餐	-9.86939
所作	-9.86963
炳	-9.86976
寤	-9.86985
世之	-9.86994
屈原	-9.86994
煥	-9.86996
遘	-9.87014
十四	-9.87021
晞	-9.8711
𥘉	-9.87114
陟	-9.87156
明徹	-9.87213
則有	-9.87261
之時	-9.87342
十九	-9.87682
主人	-9.87699
國家	-9.87707
仁義	-9.87718
之日	-9.87787
建安	-9.88078
咏	-9.88109
寃	-9.88191
八月	-9.88216
欒	-9.8825
欺	-9.88284
冊	-9.88299
蒸	-9.88318
顛	-9.88323
夫子	-9.88343
䕃	-9.88346
握	-9.88351
釁	-9.8837
赦	-9.88371
班固	-9.88384
奇	-9.88389
弊	-9.88405
儔	-9.88471
無以	-9.88474
禮也	-9.88511
不相	-9.88598
彭城	-9.88608
陽郡	-9.8871
遼東	-9.88725
韓信	-9.88814
宗室	-9.8885
出自	-9.88872
之法	-9.89008
之臣	-9.89028
數百	-9.89134
徐州	-9.89269
中郎	-9.89338
減	-9.89445
法師	-9.89616
鬬	-9.89627
不勝	-9.89697
鳳凰	-9.89701
帝王世紀	-9.89705
南宫	-9.89706
欽定四庫全書	-9.89713
臻	-9.89754
愆	-9.89777
羞	-9.89791
炤	-9.89807
與之	-9.89822
㓜	-9.89829
檢	-9.8983
太常	-9.89848
悠	-9.89848
昊天	-9.89925
而死	-9.89955
王僧辯	-9.9008
晏子	-9.90103
之屬	-9.90349
五帝	-9.90703
之亂	-9.90747
風塵	-9.90749
曰今	-9.90915
江漢	-9.90952
邯鄲	-9.91057
龕	-9.91062
者言	-9.91144
謡	-9.9115
兔	-9.9115
斛	-9.91152
媚	-9.91154
逾	-9.91166
闈	-9.9117
漂	-9.91174
宦	-9.91191
虢	-9.91209
顓頊	-9.91214
轍	-9.91222
觧	-9.91234
飈	-9.91253
凋	-9.91259
頽	-9.91296
互	-9.91314
吝	-9.91321
也若	-9.91451
曰臣	-9.91691
人皆	-9.91734
時年	-9.9177
而成	-9.92165
延年	-9.92232
圗	-9.92558
丸	-9.92576
鄒	-9.92601
潘	-9.92643
杞	-9.92645
釐	-9.92651
抵	-9.9266
䰟	-9.92691
滎陽	-9.927
未央	-9.92734
頼	-9.92747
璣	-9.92747
廊	-9.92807
藹	-9.92809
園賦	-9.92982
皇太子	-9.93009
大将軍	-9.93012
非其	-9.93122
建德	-9.93182
各有	-9.93185
於時	-9.9334
中國	-9.93638
江東	-9.93689
□	-9.93712
郡有	-9.9388
浮雲	-9.93937
王者	-9.93995
伍	-9.94009
逞碑	-9.94042
驃騎大將軍	-9.94049
之名	-9.94063
殯	-9.94082
綽	-9.94086
梟	-9.9412
膝	-9.94135
肩吾	-9.94147
之心	-9.94174
強	-9.94177
殞	-9.94182
抽	-9.94187
婉	-9.94187
纎	-9.94221
墀	-9.94231
霄	-9.94232
殖	-9.9424
寒暑	-9.94243
其年	-9.94256
由是	-9.94257
碩	-9.94258
倦	-9.943
霜露	-9.94392
成帝	-9.94406
生民	-9.94418
莊子曰	-9.94817
上將	-9.94858
第二	-9.94963
視之	-9.9503
之徒	-9.9543
佳人	-9.95501
藍	-9.95563
潰	-9.95569
吕氏春秋	-9.95606
巷	-9.95613
輅	-9.95625
豕	-9.95637
文昌	-9.95639
溝	-9.95639
狩	-9.95652
沃	-9.95657
乂	-9.95677
濬	-9.95695
涇	-9.95716
服之	-9.95723
噐	-9.95727
踵	-9.95732
濫	-9.95736
㝷	-9.95781
靖節	-9.95864
參差	-9.95949
也今	-9.95974
王莽	-9.96076
其文	-9.96094
有四	-9.96168
文公	-9.96266
中軍	-9.96322
江淮	-9.96348
雖有	-9.96367
之外	-9.96499
十六年	-9.96558
東都	-9.96608
總管	-9.96626
寓	-9.97057
詐	-9.97059
壊	-9.9707
苞	-9.97134
垣	-9.9716
鏤	-9.97171
嬴	-9.97178
𦙍	-9.97197
檄	-9.97201
筮	-9.97205
漫	-9.97217
闡	-9.97218
飬	-9.97232
項羽	-9.97236
萌	-9.97244
黜	-9.97262
排	-9.9727
謳	-9.97313
迄	-9.97346
之氣	-9.97403
再拜	-9.97468
昔者	-9.97603
是時	-9.97619
不同	-9.9781
公侯	-9.98294
莽	-9.98416
張儀	-9.98605
周禮曰	-9.9861
街	-9.98611
序曰	-9.98669
仗	-9.98671
滑	-9.98707
嶠	-9.98714
挾	-9.98714
鉞	-9.98715
拘	-9.98717
仞	-9.98729
挽	-9.98729
慨	-9.98747
畜	-9.98763
紂	-9.98763
漆	-9.98771
炭	-9.98788
軒轅	-9.98799
掃	-9.98804
斤	-9.98808
綜	-9.98837
恤	-9.98859
銷	-9.98865
汎	-9.9888
騁	-9.9889
剖	-9.98896
懽	-9.98911
捐	-9.98913
吉凶	-9.98942
少年	-9.99065
爾朱	-9.99093
飲酒	-9.99271
九州	-9.99307
所在	-9.99386
蜀志	-9.99665
甲子	-9.99783
大夏	-9.99831
安得	-10.0014
弧	-10.0022
儀同三司	-10.0023
檀弓	-10.0028
冒	-10.0029
頸	-10.0031
鶉	-10.0032
敞	-10.0034
廣陵	-10.0037
坤	-10.0038
貨	-10.0038
替	-10.0042
翦	-10.0042
鑠	-10.0045
樽	-10.0048
彫	-10.005
桃花	-10.0053
踈	-10.0054
封禪	-10.0066
門外	-10.0074
又按	-10.0079
新野	-10.009
丹陽	-10.0131
也夫	-10.0138
說文	-10.0157
之國	-10.0165
宜陽	-10.0165
呂	-10.0185
髻	-10.0189
賁	-10.019
億	-10.019
王母	-10.019
艦	-10.0192
甸	-10.0194
蠡	-10.0195
郡國志	-10.0197
輙	-10.0198
邇	-10.0199
匱	-10.0199
南郊	-10.02
主簿	-10.0201
寔	-10.0203
沸	-10.0203
麻	-10.0207
隣	-10.021
紆	-10.0212
庾信	-10.0215
秦始皇	-10.0215
周太祖	-10.0224
◍	-10.0226
通考	-10.0232
子産	-10.0236
十月	-10.0306
陽氣	-10.0315
奉和	-10.0316
涓	-10.034
乎曰	-10.0344
翅	-10.0351
譜	-10.0352
後魏置	-10.0353
笳	-10.0354
捕	-10.0355
蘆	-10.0355
癸	-10.036
旒	-10.0361
睦	-10.0361
白雲	-10.0361
勉	-10.0364
圓丘	-10.0365
陌	-10.0367
論曰	-10.0367
黔	-10.037
魏武	-10.0374
緩	-10.0376
四首	-10.0379
逈	-10.0381
郡守	-10.0396
鬼神	-10.0406
紀曰	-10.0412
東齊	-10.042
雲臺	-10.0421
北方	-10.0433
孝武	-10.0438
水經注	-10.0441
李陵	-10.0452
之謂	-10.0467
列子	-10.0476
代郡	-10.05
之職	-10.0503
酋	-10.0503
一旦	-10.0513
又諮	-10.0519
鷹	-10.0519
障	-10.052
臂	-10.052
開府儀同三司	-10.0521
鞍	-10.0521
轅	-10.0522
吞	-10.0524
弼	-10.0525
肩	-10.0525
纔	-10.0525
之山	-10.0525
未能	-10.0526
氛	-10.0527
閻	-10.0528
栗	-10.0529
賈誼	-10.053
茲	-10.0531
繇	-10.0531
杳	-10.0531
天文志	-10.0532
了	-10.0534
醴	-10.0536
甘露	-10.0536
禀	-10.0537
牖	-10.0537
廼	-10.0538
稚	-10.0539
思歸	-10.0543
郢州	-10.0546
見春	-10.0547
何如	-10.0552
妻子	-10.0562
李善	-10.0574
四句	-10.0575
南郡	-10.0577
而行	-10.0584
張衡	-10.0586
辭曰	-10.0614
王孫	-10.0629
晉侯	-10.0632
有司	-10.0666
龎	-10.068
括地志	-10.0684
證	-10.0684
彤	-10.0686
價	-10.069
紙	-10.0694
弋	-10.0694
箋	-10.0695
札	-10.0695
駒	-10.0695
礙	-10.0695
劭	-10.0696
油	-10.0696
禾	-10.0696
混	-10.0697
梁州	-10.0698
僉	-10.0699
蔚	-10.07
建鄴	-10.0702
疲	-10.0702
綴	-10.0702
㓕	-10.0703
跨	-10.0704
別	-10.0705
苔	-10.0705
奢	-10.0706
門下	-10.0706
侍郎	-10.0706
衮	-10.0707
矦	-10.0708
穹	-10.0711
奸	-10.0711
玉門	-10.0712
鄉里	-10.0719
况復	-10.0728
古詩	-10.0732
從事	-10.0744
秋風	-10.0755
八年	-10.0764
之際	-10.078
東平	-10.0787
山海經曰	-10.0795
州郡	-10.0801
相見	-10.0809
字伯	-10.0833
皇夏	-10.0835
縣有	-10.0835
不言	-10.0837
伽	-10.0855
晋書	-10.0858
翁	-10.086
煌	-10.0863
護	-10.0864
収	-10.0865
亟	-10.0866
旱	-10.0866
俎	-10.0867
徧	-10.0868
廣武	-10.0868
列女傳	-10.0869
紳	-10.0869
邸	-10.087
算	-10.087
龔	-10.087
藪	-10.0871
禱	-10.0873
栢	-10.0874
揖	-10.0874
闥	-10.0874
烝	-10.0874
弭	-10.088
効	-10.0881
艶	-10.0882
瀾	-10.0887
中山	-10.0889
慕容	-10.0892
永安	-10.0895
十三年	-10.0908
二句	-10.0911
王逸	-10.0912
字仲	-10.094
三十六	-10.0975
文子	-10.0981
一朝	-10.101
天官	-10.1014
蕭何	-10.102
陛	-10.1021
棊	-10.1028
柩	-10.1031
諸葛亮	-10.1031
淨	-10.1033
岷	-10.1033
寉	-10.1036
列仙傳	-10.1037
譏	-10.1039
科	-10.104
瑜	-10.104
旂	-10.1041
蹇	-10.1041
版	-10.1042
稼	-10.1043
阜	-10.1043
羨	-10.1046
樓船	-10.1049
幄	-10.1051
袂	-10.1052
愴	-10.1052
揆	-10.1054
殿下	-10.1055
聖人之	-10.1057
太師	-10.106
渡河	-10.1072
頓首	-10.1075
霸先	-10.108
祭祀	-10.1082
張華	-10.1098
蘇武	-10.1098
清風	-10.1101
水經注曰	-10.1129
志云	-10.1135
海内	-10.1139
韓子	-10.1149
萬國	-10.1151
臺城	-10.1154
持節	-10.1179
河圖	-10.1191
言已	-10.1191
詩序	-10.1193
纍	-10.1204
寡人	-10.1207
君臣	-10.1209
一篇	-10.121
圜	-10.1215
眠	-10.1216
拭	-10.1217
毗	-10.1219
戌	-10.1219
濕	-10.1219
鬢	-10.1219
諸軍	-10.1221
翕	-10.1222
鷺	-10.1223
謚	-10.1223
舅	-10.1224
鳶	-10.1224
紐	-10.1227
傷心	-10.1227
般	-10.1228
涯	-10.1228
遽	-10.1229
拾	-10.123
隐	-10.123
纒	-10.123
訟	-10.1231
構	-10.1231
悴	-10.1233
寂寞	-10.1234
流星	-10.1234
秦晉	-10.1239
賔客	-10.1244
建康	-10.1247
所居	-10.1267
不食	-10.1311
長平	-10.1314
諸將	-10.1314
丈夫	-10.1318
二十八	-10.1337
建徳	-10.134
郎中	-10.1362
十二年	-10.1363
十日	-10.137
銳	-10.1386
霍去病	-10.1388
複	-10.1388
冉	-10.1392
撝	-10.1396
飯	-10.1397
冢宰	-10.1399
光禄大夫	-10.14
株	-10.14
悽愴	-10.1401
濤	-10.1402
檻	-10.1402
郁	-10.1403
昇	-10.1403
茫茫	-10.1404
嵇康	-10.1406
該	-10.1406
泊	-10.1407
瀆	-10.1408
鳯凰	-10.1408
西王母	-10.141
鏘	-10.141
呈	-10.141
隙	-10.1412
惻	-10.1415
旃	-10.1417
丕	-10.1417
恪	-10.1419
漢書地理志曰	-10.1449
二千	-10.1458
長子	-10.148
乃作	-10.1514
不過	-10.1532
當時	-10.1554
之文	-10.1566
陀	-10.157
庫	-10.1574
蛾	-10.1577
竿	-10.1581
柄	-10.1582
咏懐	-10.1583
授使持節	-10.1583
溟	-10.1584
酣	-10.1586
卯	-10.1587
長樂	-10.1588
絡	-10.159
稀	-10.1593
俘	-10.1593
焦	-10.1594
馴	-10.1595
諒	-10.1598
彩	-10.1599
輩	-10.1601
企	-10.1602
金陵	-10.1603
忝	-10.1603
猗	-10.1604
燿	-10.1604
蹤	-10.1604
曖	-10.1607
縱横	-10.1609
不忘	-10.1616
西方	-10.1627
茂陵	-10.1631
終始	-10.1636
食邑	-10.1643
笑曰	-10.1649
置酒	-10.1706
晉陽	-10.1712
白帝	-10.1713
華隂	-10.1724
帝即位	-10.1757
狗	-10.1767
竄	-10.1768
㕘	-10.1769
酷	-10.1769
繹	-10.1772
諌	-10.1777
鈎	-10.1777
黯	-10.1781
趾	-10.1782
肝	-10.1782
頂	-10.1784
羡	-10.1785
毫	-10.1785
濱	-10.1786
迫	-10.1788
楹	-10.1788
拊	-10.1794
嗜	-10.1797
玉帛	-10.1807
來聘	-10.1809
星辰	-10.1816
布衣	-10.182
楚子	-10.1848
昔在	-10.1855
太原	-10.1867
冠軍	-10.1874
王粲	-10.1879
始皇	-10.1898
疏云	-10.1899
答曰	-10.1924
措	-10.1951
谿	-10.1958
箱	-10.196
縮	-10.1962
沮	-10.1962
慟	-10.1963
臥	-10.1964
譚	-10.1965
倍	-10.1965
藜	-10.1966
崤	-10.1967
村	-10.1968
燧	-10.1969
埃	-10.197
冩	-10.197
蒿	-10.1971
三危	-10.1971
嘆曰	-10.1972
鳬	-10.1972
罍	-10.1972
輦	-10.1974
紘	-10.1974
斾	-10.1978
潯陽	-10.1978
鑣	-10.1979
蘋	-10.198
鴛鴦	-10.1981
愷	-10.1981
翹	-10.1989
馥	-10.1993
歷	-10.1994
流涕	-10.2001
穆穆	-10.2003
賦序	-10.2004
宗伯	-10.2008
太康	-10.2017
之至	-10.2025
李廣	-10.2028
參軍	-10.203
天地之	-10.2031
十一年	-10.2032
臨川	-10.205
左傳晉	-10.2054
諸子	-10.2055
家語	-10.21
飛燕	-10.2107
故名	-10.2108
八風	-10.2144
貂	-10.2154
墓誌銘	-10.2158
湘東王	-10.216
一切	-10.216
罰	-10.2163
婚	-10.2164
塟	-10.2164
梯	-10.2165
脱	-10.2165
例	-10.2166
叱	-10.2166
闔	-10.2167
曄	-10.2168
勑	-10.2168
闢	-10.2168
槃	-10.2168
子弟	-10.2169
閶闔	-10.217
牒	-10.2172
賜姓	-10.2174
岡	-10.2176
窓	-10.218
曷	-10.2182
辜	-10.2192
唐虞	-10.2198
荆州刺史	-10.2205
承制	-10.2206
未知	-10.2209
建章	-10.2227
説文	-10.2262
改封	-10.2269
宫室	-10.2287
石頭	-10.2291
髙帝	-10.2303
神仙	-10.2306
山谷	-10.2332
石室	-10.2338
棗	-10.2343
子貢	-10.2344
現	-10.2346
諮	-10.2351
裝	-10.2353
梁書	-10.2354
岱	-10.2357
梨	-10.2358
薨於	-10.2359
拓	-10.2362
篆	-10.2362
汪	-10.2363
磬	-10.2363
叩	-10.2364
掘	-10.2365
傑	-10.2365
跋	-10.2365
蟠	-10.2366
劇	-10.2367
曹子建	-10.2367
拱	-10.2369
舄	-10.237
畔	-10.2374
祇	-10.2374
挂	-10.2376
諸葛	-10.2386
江淹	-10.2387
稽首	-10.2397
魏志曰	-10.2406
率衆	-10.2411
桂陽	-10.2419
十二月	-10.2427
往來	-10.2443
二十四	-10.2452
第五	-10.2476
諡曰	-10.2478
黄河	-10.2492
楚地	-10.2498
昭陽	-10.2549
鼻	-10.2555
紇	-10.2556
鯨	-10.2557
憚	-10.256
碣	-10.2561
爪	-10.2561
専	-10.2568
睿	-10.2569
蜺	-10.257
骸	-10.2571
讎	-10.2572
臣某言	-10.2572
武庫	-10.2574
霑	-10.2574
讃	-10.2574
倐忽	-10.2574
雩	-10.2575
潮	-10.2575
后稷	-10.2576
譲	-10.2578
怖	-10.2581
十有二	-10.2581
橘	-10.2589
蕭條	-10.2594
索隠曰	-10.2619
州總管	-10.2632
風吹	-10.2662
即是	-10.2662
萬年	-10.2678
十五年	-10.2692
自闗而西	-10.2725
自闗而東	-10.2731
非常	-10.2748
海岱	-10.2752
杏	-10.2758
麋	-10.2763
活	-10.2764
冇	-10.2768
袍	-10.2771
渤海	-10.2773
系	-10.2774
杵	-10.2775
蜜	-10.2776
訦	-10.2778
逵	-10.2778
臭	-10.2779
榦	-10.278
随	-10.278
河洛	-10.2781
緝	-10.2781
㸃	-10.2784
航	-10.2786
秣	-10.2786
囂	-10.2787
二千石	-10.2788
樵	-10.2791
疊	-10.2793
平陵	-10.2802
徐州刺史	-10.2807
建業	-10.2823
咸池	-10.2826
白露	-10.2872
鄭𤣥	-10.2879
以示	-10.288
齊侯	-10.2888
在長安	-10.2972
蟄	-10.2972
牟	-10.2977
汁	-10.298
闗中	-10.298
妨	-10.2982
彞	-10.2984
酈	-10.2984
犧	-10.2985
慢	-10.2985
姚	-10.2987
敝	-10.2987
嵇	-10.2989
穆天子傳	-10.2989
峰	-10.2989
搆	-10.2993
叟	-10.2995
盪	-10.3001
誡	-10.3001
荆軻	-10.3002
眞	-10.3004
覿	-10.3005
晝夜	-10.3008
毀	-10.3008
鄭注	-10.3008
岫	-10.3011
男女	-10.3011
貞測曰	-10.3022
沛公	-10.304
聲聞	-10.3045
永嘉	-10.3048
白鶴	-10.3061
以喻	-10.3071
成功	-10.3098
雲夢	-10.3112
仲禮	-10.3127
漁陽	-10.3135
碑文	-10.3163
西京賦	-10.3164
入闗	-10.3181
鐸	-10.3195
戰國䇿	-10.3199
鬭	-10.32
餓	-10.32
處士	-10.3201
苖	-10.3203
孝閔	-10.3203
豎	-10.3204
楷	-10.3204
膳	-10.3205
華陽國志	-10.3207
團	-10.3207
藿	-10.3209
孚	-10.3209
讐	-10.3209
璋	-10.321
戯	-10.3211
攜	-10.3211
嘲	-10.3212
竺	-10.3213
亢	-10.3213
恬	-10.3213
荼	-10.3214
奥	-10.3215
灾	-10.3216
漿	-10.3217
褐	-10.3219
璇	-10.322
萃	-10.322
祕	-10.3221
浸	-10.3222
臨江	-10.3225
扶桑	-10.3228
肅肅	-10.3236
叔向	-10.325
爾乃	-10.3253
上黨	-10.3264
天監	-10.3286
朝夕	-10.3311
張良	-10.3314
不可得	-10.3315
丘陵	-10.3344
漢地理志	-10.3357
梁武帝	-10.3387
諸軍事	-10.3398
學士	-10.3399
塲	-10.3411
百萬	-10.3412
弑	-10.3415
跪	-10.3415
沔	-10.3419
縹	-10.3421
殄	-10.3423
曼	-10.3424
螢	-10.3424
嫌	-10.3424
琮	-10.3427
臨淄	-10.3429
歐	-10.3429
儻	-10.343
繳	-10.3432
仇	-10.3432
付	-10.3435
鞠	-10.3436
聳	-10.3436
西京	-10.3437
緜	-10.3437
杼	-10.3437
蕭驃騎	-10.3438
虐	-10.3439
駐	-10.344
詩序曰	-10.3442
宇宙	-10.3446
渝	-10.3448
澹	-10.3452
外戚	-10.3452
管仲	-10.3453
馬援	-10.3492
炎帝	-10.3504
日暮	-10.3534
誰能	-10.3538
改元	-10.3547
進表	-10.355
長楊	-10.3606
伯夷	-10.3612
河曲	-10.3614
侯莫陳	-10.3635
燮	-10.3643
鵬	-10.3643
故鄉	-10.3645
婢	-10.3646
氐	-10.3647
聼	-10.3648
劫	-10.3651
墻	-10.3653
法苑珠林	-10.3654
璞	-10.3654
儼	-10.3656
沂	-10.3657
爼	-10.366
距	-10.366
敕	-10.366
覃	-10.366
甄	-10.3662
液	-10.3662
妓	-10.3665
係	-10.3666
阮籍	-10.3666
詭	-10.3666
侈	-10.3667
氓	-10.3667
滌	-10.3667
迭	-10.3669
泠	-10.3669
孔融	-10.3674
啇	-10.3676
雞鳴	-10.368
囬	-10.3687
孤竹	-10.3704
杖賦	-10.3707
世説曰	-10.3717
毛詩	-10.3721
變化	-10.3727
世説	-10.3733
羽林	-10.3753
父老	-10.3768
鄭注曰	-10.3782
忠臣	-10.3801
渡江	-10.3807
頠	-10.3875
孔安國	-10.3876
欄	-10.3878
廷	-10.3878
筠	-10.388
熾	-10.3881
亳	-10.3881
魁	-10.3881
譯	-10.3882
盎	-10.3882
簿	-10.3886
粤	-10.3886
廷尉	-10.3887
蛟	-10.3887
蚩尤	-10.3888
冷	-10.3889
禰	-10.3889
俠	-10.389
拙	-10.3891
催	-10.3891
宥	-10.3893
渥	-10.3895
片	-10.3895
䧟	-10.3896
驤	-10.3897
妹	-10.3898
軾	-10.3898
匝	-10.39
徼	-10.39
陶潛	-10.3901
躡	-10.3903
蔓	-10.3903
馨	-10.3904
諷	-10.3905
遏	-10.3906
奈何	-10.3907
淡	-10.3915
舜典	-10.3916
零落	-10.3917
光禄	-10.3917
聿	-10.3918
雁門	-10.393
逸民	-10.3943
三輔黄圖曰	-10.3943
吏民	-10.3964
王琳	-10.397
豈直	-10.3984
千秋	-10.4033
離别	-10.4036
郊祀	-10.4082
瑯邪	-10.4107
法身	-10.4112
孟康曰	-10.4115
砥	-10.4116
盥	-10.4117
訖	-10.4117
犢	-10.4119
鄂	-10.4119
蚌	-10.4119
潼	-10.412
模	-10.412
縷	-10.4122
繒	-10.4123
葭	-10.4123
伊何	-10.4123
股肱	-10.4124
衫	-10.4124
印綬	-10.4124
數千	-10.4125
車騎將軍	-10.4125
顥	-10.4125
豳	-10.4125
凍	-10.4127
快	-10.413
搏	-10.4131
軼	-10.4131
㫁	-10.4132
諾	-10.4133
鑑	-10.4134
罹	-10.4134
恕	-10.4135
灑	-10.4136
蓮花	-10.4139
祜	-10.4139
簾	-10.4141
瘁	-10.4142
雛	-10.4142
扉	-10.4143
後周置	-10.4146
疇昔	-10.4146
寕	-10.4147
遑	-10.4148
伎	-10.4149
郷	-10.4149
皷	-10.4152
舍利	-10.4152
受禪	-10.4161
十餘年	-10.4174
南征	-10.42
少府	-10.421
閔帝	-10.4225
東京	-10.4264
江左	-10.4286
熒	-10.4348
抱樸子	-10.4355
邾	-10.4356
奐	-10.4358
踐阼	-10.436
崔豹古今注	-10.4361
鄭康成	-10.4363
莒	-10.4367
風俗	-10.4368
郊特牲	-10.4368
濛	-10.4368
邙	-10.4371
僑	-10.4371
縛	-10.4371
琰	-10.4371
昨	-10.4372
涸	-10.4372
盗	-10.4372
誌	-10.4373
釵	-10.4373
櫟	-10.4374
羆	-10.4374
暖	-10.4375
喧	-10.4379
餌	-10.438
隰	-10.438
瓚	-10.438
悅	-10.4382
躑躅	-10.4383
斥	-10.4383
搖	-10.4383
酸	-10.4386
凄	-10.4388
齊神武	-10.4388
祉	-10.4389
罄	-10.4393
俛	-10.4396
鐘鼓	-10.4396
忠貞	-10.4398
織女	-10.4402
后妃	-10.4407
翼翼	-10.4411
孺子	-10.4414
世界	-10.4417
小兒	-10.4425
徐陵	-10.4466
黎陽	-10.4468
北斗	-10.4496
武皇帝	-10.4528
哀江南賦	-10.4603
卵	-10.4607
述異記	-10.4609
蓬萊	-10.461
甕	-10.4613
僖	-10.4614
藐	-10.4614
葵	-10.4614
屑	-10.4616
稟	-10.4619
舘	-10.4619
稜	-10.462
豔	-10.4622
郤	-10.4622
項籍	-10.4623
忿	-10.4624
豆盧	-10.4626
級	-10.4627
謐	-10.4627
琬	-10.4627
干戈	-10.463
囿	-10.463
滄	-10.4631
樹穀曰	-10.4632
萍	-10.4634
窈窕	-10.464
輯	-10.464
惆悵	-10.4641
騖	-10.4641
傲	-10.4642
沙苑	-10.4647
親戚	-10.4652
零陵	-10.4654
表裏	-10.4655
師曠	-10.4659
歎息	-10.4661
連珠	-10.469
衛青	-10.4711
陰陽	-10.4719
世說	-10.4761
左傳昭	-10.4795
􁁊	-10.4852
羇旅	-10.4859
涪	-10.4864
馮翊	-10.4869
捧	-10.487
貝	-10.487
覇	-10.487
詡	-10.487
鑾	-10.4871
咽	-10.4873
驛	-10.4873
媯	-10.4874
帖	-10.4875
鄢	-10.4875
漢官儀	-10.4875
控	-10.4876
胸	-10.4876
繆	-10.4877
褰	-10.4878
稻	-10.4879
誼	-10.4879
䑕	-10.488
的	-10.488
茹	-10.488
黛	-10.488
泄	-10.4881
禋	-10.4881
森	-10.4882
牕	-10.4882
槩	-10.4884
樸	-10.4885
猥	-10.4885
爐	-10.4885
挹	-10.4885
黿	-10.4886
蠲	-10.4886
換	-10.4888
簷	-10.4888
臘	-10.489
沼	-10.4894
冨	-10.4895
鷰	-10.4896
翩	-10.4899
羇	-10.4899
絕	-10.4902
携	-10.4902
䑓	-10.4908
遥望	-10.4917
文帝紀	-10.4933
記室	-10.4957
𢎞正	-10.4971
孺	-10.5106
曇	-10.5122
毘	-10.5128
昴	-10.5128
㳟	-10.513
堰	-10.5131
薇	-10.5132
鈴	-10.5133
淄	-10.5133
嶷	-10.5134
琅邪	-10.5134
埒	-10.5136
鴟	-10.5136
左傳僖	-10.5136
匣	-10.5138
班超	-10.5138
衷	-10.5138
兗	-10.514
準	-10.514
詳哀江南賦	-10.5141
裹	-10.5143
壝	-10.5143
咫	-10.5143
朂	-10.5144
倡	-10.5144
五行志	-10.5144
憎	-10.5144
湄	-10.5145
風俗通	-10.5146
蜂	-10.5146
襃	-10.5147
峨	-10.5148
詹	-10.5148
昭明太子	-10.5149
紈	-10.5149
翩翩	-10.5152
涵	-10.5152
墉	-10.5154
豫州刺史	-10.5156
泝	-10.5156
儉碑	-10.5156
葩	-10.5159
逍遥	-10.5161
侣	-10.5161
中央	-10.5165
娯	-10.5165
肴	-10.5165
羲和	-10.517
閒居	-10.518
郡領	-10.5186
屏風	-10.5199
撫軍	-10.521
本姓	-10.5241
梗	-10.5388
燄	-10.5389
楨	-10.5397
魅	-10.5399
鮮卑	-10.5401
拾遺記	-10.5401
服䖍曰	-10.5401
槎	-10.5402
穉	-10.5403
渴	-10.5403
鄱陽	-10.5404
羊祜	-10.5404
姊	-10.5405
繭	-10.5406
雒	-10.5407
蒼梧	-10.5411
庖	-10.5411
謝靈運	-10.5412
涌	-10.5415
椎	-10.5415
瑩	-10.5419
艫	-10.542
任約	-10.542
媿	-10.542
恠	-10.542
螭	-10.5421
迥	-10.5422
洪範	-10.5423
叡	-10.5423
侔	-10.5424
瑤	-10.5424
珮	-10.5428
晷	-10.5431
慨然	-10.5438
妍	-10.5438
寺碑	-10.5444
于謹	-10.5456
集中有	-10.5458
萬騎	-10.5493
功曹	-10.5495
藝文	-10.553
貴賤	-10.5597
三輔黄圖	-10.5604
芥	-10.567
臚	-10.5673
吳越春秋	-10.5673
穰	-10.5674
㨗	-10.5674
如淳曰	-10.5675
畝	-10.5675
刹	-10.5676
邢	-10.5677
庾子山集巻	-10.5679
旨	-10.5681
楫	-10.5682
煮	-10.5683
汜	-10.5685
慚	-10.5685
湧	-10.5686
妝	-10.5686
璜	-10.5686
殤	-10.5686
簒	-10.5687
蹕	-10.5688
巵	-10.5688
供養	-10.5689
芻	-10.5689
笋	-10.569
謗	-10.569
後漢郡國志	-10.5691
鐫	-10.5691
劾	-10.5692
詰	-10.5695
偕	-10.5695
墓誌	-10.5696
藴	-10.5697
只	-10.5697
蔑	-10.5698
吁	-10.5698
庇	-10.5698
怠	-10.5699
霖	-10.5699
弁	-10.5699
兎	-10.5699
贍	-10.57
鮑昭	-10.5701
斃	-10.5702
𤣥圃	-10.5704
羙	-10.5705
迤	-10.5706
太乙	-10.5706
靣	-10.5706
中郎將	-10.5707
訊	-10.571
曹操	-10.5714
弱冠	-10.572
未審	-10.5723
飲食	-10.5756
夫婦	-10.576
顔色	-10.5764
猜	-10.596
异	-10.5962
翊	-10.5963
妤	-10.5963
褕	-10.5964
彎	-10.5965
紱	-10.5967
柵	-10.5968
淇	-10.5969
梁簡文帝	-10.5969
抱朴子	-10.597
燼	-10.597
剪	-10.5971
隊	-10.5972
餞	-10.5972
裾	-10.5972
併	-10.5973
籌	-10.5974
陘	-10.5975
蕤	-10.5976
瑯琊	-10.5976
簧	-10.5977
畆	-10.5977
藺	-10.5978
魴	-10.5979
玊	-10.5979
亞	-10.5979
殁	-10.5979
恣	-10.598
此章喻	-10.5982
届	-10.5982
慊	-10.5984
樗	-10.5986
鷄	-10.5988
篠	-10.5988
耽	-10.599
攬	-10.5992
東坡曰	-10.5994
陸士衡	-10.5998
貧賤	-10.6001
頑	-10.6001
毛傳曰	-10.6004
莫敢	-10.6012
令尹	-10.6024
楊僕	-10.6223
維摩經	-10.6248
隗	-10.6252
昊	-10.6253
塔	-10.6258
隋書地理志	-10.6259
韓詩外傳	-10.626
尅	-10.6261
兇	-10.6262
沱	-10.6264
摛	-10.6266
諺	-10.6267
檝	-10.6267
茵	-10.6267
㢘	-10.6267
初學記	-10.6268
燔	-10.6268
潢	-10.6269
佚	-10.6269
欹	-10.6269
隴頭	-10.627
澠	-10.6271
擣	-10.6271
撓	-10.6272
璿	-10.6272
胎	-10.6273
弛	-10.6274
郵	-10.6274
鬯	-10.6274
劣	-10.6274
隴右	-10.6274
濳	-10.6275
葱	-10.6275
彈琴	-10.6276
匏	-10.6276
尚瑗曰	-10.6276
甥	-10.628
柰何	-10.6285
蔵	-10.6286
苟	-10.629
迢	-10.6291
菲	-10.6291
俯仰	-10.6293
熊耳	-10.6297
十七年	-10.6361
左氏傳	-10.6413
荆州記	-10.6433
漢書地理志	-10.6512
䧏	-10.6554
韋昭曰	-10.6554
髓	-10.6555
煎	-10.6558
抄	-10.6559
娑	-10.656
見長孫	-10.6561
漬	-10.6563
糾	-10.6563
閼	-10.6564
諭	-10.6565
穎	-10.6567
截	-10.6568
鼠	-10.6569
賀拔	-10.6569
霓	-10.6569
孟津	-10.6569
嚳	-10.657
兢	-10.6571
昶	-10.6571
斑	-10.6572
敘	-10.6573
驟	-10.6573
虵	-10.6574
鵾	-10.6574
寗	-10.6574
究	-10.6574
較	-10.6574
欷	-10.6574
械	-10.6576
交阯	-10.6577
麒麟	-10.6577
惕	-10.6581
漾	-10.6582
駰	-10.6582
濡	-10.6583
飽	-10.6583
司寇	-10.6583
梧桐	-10.6584
壞	-10.6585
演	-10.6586
鷁	-10.6588
覲	-10.6592
薫	-10.6594
誣	-10.6597
迅	-10.6598
洞庭	-10.6599
又諮若	-10.6603
荘子	-10.6604
通語也	-10.683
禘	-10.6871
華嚴經	-10.6877
肱	-10.6878
酆	-10.6878
滕王逌	-10.6879
媒	-10.688
鷲	-10.688
東觀漢記	-10.688
夸	-10.6881
撥	-10.6883
頡	-10.6883
洛神賦	-10.6884
琯	-10.6885
庠	-10.6885
侍御史	-10.6887
厄	-10.6888
課	-10.6888
伶	-10.6888
骨肉	-10.6888
葦	-10.689
鬻	-10.689
蓄	-10.689
驍	-10.6891
姒	-10.6892
桞	-10.6892
虎賁	-10.6893
研	-10.6893
嬪	-10.6894
董卓	-10.6894
闊	-10.6895
臯陶	-10.6896
鞅	-10.6896
曩	-10.6896
態	-10.6896
卉	-10.6899
寥廓	-10.6899
讌	-10.69
恊	-10.69
流寓	-10.69
竦	-10.6901
話	-10.6903
揖讓	-10.6907
松柏	-10.6909
■	-10.691
夙夜	-10.6923
鸚	-10.7184
幡	-10.7191
壓	-10.7191
矛	-10.7193
掠	-10.7194
虺	-10.7198
朓	-10.7198
幷	-10.7199
毋	-10.7199
磾	-10.7199
闍	-10.7199
暈	-10.7199
黷	-10.7202
鬟	-10.7202
阪	-10.7202
隘	-10.7203
瀝	-10.7203
天和四年	-10.7204
濶	-10.7204
挈	-10.7205
筑	-10.7205
柘	-10.7207
脣	-10.7208
挑	-10.7208
嚮	-10.7209
鼈	-10.721
鯉	-10.7211
曙	-10.7211
邀	-10.7212
閤	-10.7212
巍巍	-10.7213
梧	-10.7214
閩	-10.7215
廹	-10.7215
盼	-10.7216
摘	-10.7216
棣	-10.7216
燎	-10.7216
胙	-10.7217
粧	-10.7218
之所歌也	-10.7219
崑	-10.7219
瑕	-10.7219
姻	-10.7222
趙泉山曰	-10.7223
○	-10.7223
綢繆	-10.7224
菽	-10.7226
蛟龍	-10.7227
璇璣	-10.723
堯舜	-10.7231
亹	-10.7234
之别名	-10.7252
自闗而西秦晉之間	-10.7504
菩提	-10.7513
薊	-10.7522
邳	-10.7522
逖	-10.7525
滴	-10.7526
番	-10.7527
蠕	-10.7528
餉	-10.7529
魏地形志	-10.7531
咏懷	-10.7532
張衡西京賦	-10.7532
酸棗	-10.7533
眩	-10.7534
灞	-10.7534
堤	-10.7536
伺	-10.7537
剋	-10.7537
讒	-10.7538
珥	-10.7538
鋪	-10.7539
袁紹	-10.7541
挫	-10.7542
劉歆	-10.7542
脅	-10.7542
彛	-10.7543
僅	-10.7544
閎	-10.7545
樹榖曰	-10.7548
宕	-10.7548
雎	-10.7548
愉	-10.7549
峩	-10.7549
菜	-10.755
滛	-10.7553
鑪	-10.7554
松栢	-10.7555
簮	-10.7555
衘	-10.7555
璠	-10.7555
托	-10.7558
少昊	-10.7558
矧	-10.7565
北史本傳	-10.7567
議郎	-10.7611
見紇干	-10.7709
置總管府	-10.7864
蛤	-10.7867
阿含經	-10.7868
逌	-10.7873
釋名曰	-10.7873
毛萇	-10.7873
睟	-10.7874
昱	-10.7874
獠	-10.7875
摯	-10.7876
藤	-10.7876
逋	-10.7878
募	-10.7879
齎	-10.7879
帆	-10.788
楯	-10.788
漢書音義	-10.7881
擔	-10.7882
判	-10.7882
笄	-10.7883
旍	-10.7885
羿	-10.7885
伸	-10.7886
簞	-10.7886
浚	-10.7886
夔	-10.7887
畤	-10.7887
舳	-10.7888
殫	-10.7888
薰	-10.7889
搗	-10.7889
鄧禹	-10.7889
沫	-10.789
柝	-10.789
勾	-10.789
塋	-10.789
攘	-10.7891
噪	-10.7891
琛	-10.7892
瑣	-10.7892
鎭	-10.7893
牋	-10.7894
肖	-10.7895
擕	-10.7895
懋	-10.7896
翫	-10.7897
宋均曰	-10.7897
冐	-10.7897
瞽	-10.7902
遯	-10.7902
娛	-10.7903
悌	-10.7905
禽獸	-10.7905
糓	-10.7914
祼	-10.7914
淹留	-10.7914
問其故	-10.7951
耦	-10.8226
額	-10.8226
牝	-10.8228
琉璃	-10.8234
見賀婁	-10.8236
場	-10.8236
頒	-10.8237
覧	-10.8237
隄	-10.8238
搢	-10.8238
厨	-10.8238
鐡	-10.8239
租	-10.824
㸔	-10.824
須臾	-10.8241
帙	-10.8241
儷	-10.8242
蒐	-10.8242
礪	-10.8242
竹書紀年	-10.8242
賈逵	-10.8243
鏑	-10.8243
羸	-10.8243
羈旅	-10.8243
㝢	-10.8243
霆	-10.8244
確	-10.8244
毓	-10.8244
汭	-10.8245
鴻溝	-10.8245
天和元年	-10.8246
弃	-10.8248
詘	-10.8249
汙	-10.825
掖	-10.825
墖	-10.8251
僭	-10.8251
沓	-10.8251
靄	-10.8251
粹	-10.8252
潦	-10.8253
緬	-10.8253
佞	-10.8255
渇	-10.8258
滄海	-10.8259
徇	-10.8259
彷	-10.826
踊	-10.826
鼉	-10.8261
𨳩	-10.8262
織錦	-10.8262
苕	-10.8263
踟	-10.8265
殉	-10.8267
嶮	-10.8273
贈淮	-10.8416
䧺	-10.8594
絮	-10.8594
汧	-10.8594
纊	-10.8603
沅	-10.8603
島	-10.8604
燉煌	-10.8604
塜	-10.8604
股	-10.8606
後漢光武紀	-10.8607
刼	-10.8607
陶侃	-10.8608
笥	-10.8608
薊北門	-10.8609
孕	-10.8609
壹	-10.861
劔	-10.861
亊	-10.8611
蘇林曰	-10.8613
勵	-10.8613
琅	-10.8613
邃	-10.8614
嗚呼	-10.8614
悶	-10.8614
鬚	-10.8615
沿	-10.8616
粒	-10.8616
娟	-10.8616
豺狼	-10.8617
侮	-10.8617
樊噲	-10.8617
疚	-10.8618
愔	-10.8618
莱	-10.8618
笏	-10.8619
櫂	-10.862
膚	-10.862
昆明池	-10.862
冬十月	-10.8622
擥	-10.8622
屣	-10.8624
籬	-10.8625
訴	-10.8629
瞰	-10.863
飡	-10.8637
暨	-10.8646
孜	-10.865
藹藹	-10.8653
斫	-10.8974
熏	-10.8981
爻	-10.8984
剝	-10.8984
殽	-10.8986
鯢	-10.8987
溝洫	-10.8989
襜	-10.899
蠧	-10.899
靑	-10.8991
見為閻	-10.8991
祫	-10.8991
皥	-10.8991
峙	-10.8993
澆	-10.8994
肺	-10.8994
太祖文皇帝	-10.8994
汶	-10.8994
倪	-10.8994
溜	-10.8995
販	-10.8995
償	-10.8995
涅槃	-10.8996
隻	-10.8996
羮	-10.8996
晉安王	-10.8997
諮議	-10.8997
閲	-10.8997
苴	-10.8997
暄	-10.8998
圉	-10.8998
凖	-10.8999
漢郊祀志	-10.8999
寰	-10.9001
捜	-10.9001
把	-10.9001
宓	-10.9002
河南尹	-10.9002
嶇	-10.9002
彬	-10.9003
軻	-10.9004
隼	-10.9005
幃	-10.9005
濮	-10.9005
垢	-10.9005
雋	-10.9005
腐	-10.9006
頳	-10.9006
閟	-10.9006
鄶	-10.9007
縫	-10.9007
唳	-10.9009
淒	-10.9009
鉛	-10.9009
寘	-10.9012
颷	-10.9012
技	-10.9014
濃	-10.9014
厠	-10.9015
覊	-10.9015
儋	-10.9018
汀	-10.902
霏	-10.9029
尚書大傳	-10.9033
秦晉之間	-10.9134
匹磾	-10.9347
鉢	-10.9371
盾	-10.9376
擲	-10.9381
脤	-10.9382
昬	-10.9383
臼	-10.9383
絹	-10.9383
鋭	-10.9384
兕	-10.9385
撞	-10.9386
暝	-10.9388
涿	-10.9388
禺	-10.9389
炊	-10.9389
捲	-10.939
隧	-10.939
赭	-10.939
􁇒	-10.9391
渙	-10.9392
摹	-10.9392
碁	-10.9392
公羊傳	-10.9393
核	-10.9395
兾	-10.9395
武陵王紀	-10.9395
愠	-10.9396
湍	-10.9396
什	-10.9396
榭	-10.9397
貶	-10.9397
犍	-10.9397
扁	-10.9397
籥	-10.9397
茫	-10.9398
司𨽻校尉	-10.9398
藝文類聚	-10.9398
僣	-10.9399
輶	-10.9399
﨑	-10.9399
架	-10.9399
卞	-10.9399
稅	-10.9399
神道碑	-10.9401
瓢	-10.9401
叚	-10.9401
槨	-10.9402
䄂	-10.9403
榴	-10.9404
簪	-10.9405
遶	-10.9406
鮪	-10.9406
騂	-10.9406
溉	-10.9407
砧	-10.9408
𬒮	-10.9409
饋	-10.941
赫赫	-10.941
椀	-10.9411
汚	-10.9412
眄	-10.9412
齠	-10.9413
纖	-10.9415
攅	-10.9416
睹	-10.9417
䂓	-10.9417
攄	-10.9419
貺	-10.9419
遨	-10.9425
烹	-10.9425
飜	-10.9431
臏	-10.9783
隴坻	-10.9792
綾	-10.9794
散騎侍郎	-10.9798
筐	-10.98
吐谷渾	-10.9801
勳	-10.9801
扣	-10.9801
縣開國公	-10.9804
雲笈七籖	-10.9805
縣注舊曰	-10.9805
倩	-10.9805
琱	-10.9806
㺯	-10.9806
筩	-10.9806
大統三年	-10.9808
磨	-10.9808
斟	-10.9809
針	-10.9809
孽	-10.9809
闌	-10.981
牲牷	-10.9811
罃	-10.9811
䕫	-10.9813
坼	-10.9813
茨	-10.9814
窈	-10.9814
瘳	-10.9814
䘏	-10.9814
楓	-10.9815
惶	-10.9815
殲	-10.9815
塊	-10.9816
睇	-10.9816
籜	-10.9816
騐	-10.9816
洎	-10.9816
惲	-10.9816
鹵	-10.9817
塢	-10.9817
醪	-10.9817
㷀	-10.9817
葆	-10.9818
貍	-10.9818
彝	-10.9819
袒	-10.9819
厦	-10.9819
曵	-10.982
遞	-10.982
狡	-10.982
御史中丞	-10.9821
两	-10.9822
巒	-10.9822
芸	-10.9823
殃	-10.9823
襁	-10.9823
萎	-10.9824
榛	-10.9824
宸	-10.9824
寮	-10.9825
伋	-10.9827
贖	-10.9828
拯	-10.9829
肌	-10.9831
瑰	-10.9831
嬉	-10.9832
湯東澗曰	-10.9834
謹啓雲再拜	-10.9835
蹊	-10.9837
慼	-10.9839
嵓	-10.9841
棹	-10.9842
黍稷	-10.9844
炯	-11.0116
祧	-11.0226
隋書地志	-11.0228
芰	-11.0231
媫妤	-11.0234
靈光殿賦	-11.0235
噲	-11.0235
鉅鹿	-11.0236
產	-11.0237
狎	-11.0239
瀛	-11.024
綖	-11.024
頊	-11.0242
澧	-11.0245
踦	-11.0246
臆	-11.0247
鉏	-11.0247
鋤	-11.0247
縑	-11.0247
榻	-11.0248
煉	-11.0248
釘	-11.0249
匈	-11.025
緹	-11.025
燃	-11.0251
脆	-11.0252
㳂	-11.0252
瓠	-11.0252
縉	-11.0253
豺	-11.0253
螻	-11.0254
熹	-11.0255
崆	-11.0255
堵	-11.0255
蓍	-11.0256
旟	-11.0257
怛	-11.0257
嶼	-11.0259
鄜	-11.0261
减	-11.0264
悚	-11.0264
瑱	-11.0264
泱	-11.0265
祟	-11.0266
蹙	-11.0269
縠	-11.0272
醇	-11.0276
蘂	-11.0277
聆	-11.0281
唫	-11.0655
隲	-11.0663
顗	-11.0678
扞	-11.0684
弇	-11.0686
隷	-11.069
奩	-11.0694
鑊	-11.0695
鞏	-11.0696
璫	-11.0697
螺	-11.0698
綈	-11.0698
煑	-11.0698
噬	-11.0698
莢	-11.0699
竽	-11.07
晴	-11.07
蹶	-11.07
佗	-11.0701
瘞	-11.0702
縵	-11.0702
悖	-11.0703
芟	-11.0703
砂	-11.0704
闐	-11.0704
閱	-11.0705
榜	-11.0705
髦	-11.0705
籙	-11.0705
禎	-11.0705
堦	-11.0706
鍊	-11.0707
沴	-11.0707
洮	-11.0707
嬖	-11.0708
巔	-11.0708
帯	-11.071
甍	-11.0711
點	-11.0711
爍	-11.0712
撤	-11.0712
扄	-11.0712
霰	-11.0712
嫡	-11.0714
牡	-11.0714
赩	-11.0714
躁	-11.0716
窆	-11.0716
蕚	-11.0717
亘	-11.0718
苻	-11.0719
箏	-11.072
曆	-11.0722
搴	-11.0724
飭	-11.0726
滎	-11.1112
央	-11.1131
襦	-11.1157
苫	-11.1157
鄯	-11.1158
涔	-11.1162
遍	-11.1163
錡	-11.1163
揄	-11.1165
菑	-11.1166
瑾	-11.1166
鉦	-11.1166
瀨	-11.1167
騏	-11.1168
嘶	-11.117
腦	-11.1171
郅	-11.1172
賄	-11.1172
吠	-11.1173
壚	-11.1173
蹄	-11.1174
球	-11.1174
騶	-11.1174
叨	-11.1175
慄	-11.1175
膂	-11.1175
坑	-11.1176
鈔	-11.1176
坦	-11.1176
釀	-11.1176
圯	-11.1176
嘻	-11.1177
黠	-11.1178
濞	-11.1178
姪	-11.1179
壅	-11.1179
鐃	-11.1179
綘	-11.1179
枳	-11.118
嶓	-11.118
慝	-11.1181
顏	-11.1181
炙	-11.1183
紺	-11.1183
滂	-11.1183
櫨	-11.1184
捷	-11.1184
瑗	-11.1185
穗	-11.1186
翺	-11.1186
曳	-11.1186
縶	-11.1187
氲	-11.1188
駢	-11.1188
穡	-11.1189
磧	-11.119
篸	-11.1191
憇	-11.1191
訣	-11.1191
衾	-11.1192
唇	-11.1193
霤	-11.1193
峴	-11.1194
粗	-11.1194
沬	-11.1194
艷	-11.1195
詢	-11.1197
豢	-11.1197
瓶	-11.1198
緇	-11.1199
騑	-11.1201
稔	-11.1201
猋	-11.1206
旐	-11.1207
楽	-11.1209
荘	-11.1621
傒	-11.1652
巽	-11.1661
繕	-11.1662
哺	-11.1663
諶	-11.1666
鼇	-11.1666
硯	-11.1666
爟	-11.1667
万	-11.1667
讖	-11.1667
款	-11.1669
靨	-11.1669
譴	-11.1669
忤	-11.167
壻	-11.167
蘧	-11.167
貸	-11.1671
縊	-11.1672
燥	-11.1672
税	-11.1672
柰	-11.1672
跂	-11.1672
鮒	-11.1673
鵝	-11.1673
鍼	-11.1674
鳧	-11.1674
瀘	-11.1675
艘	-11.1675
螟	-11.1676
黥	-11.1676
刷	-11.1677
蔣	-11.1677
饌	-11.1679
糜	-11.168
皁	-11.168
派	-11.168
憫	-11.1681
豁	-11.1682
瞿	-11.1682
紡	-11.1682
蟀	-11.1682
秬	-11.1682
鷂	-11.1683
塚	-11.1683
濩	-11.1683
邯	-11.1684
虬	-11.1685
菴	-11.1685
贏	-11.1686
緼	-11.1686
餒	-11.1687
塹	-11.1687
嬌	-11.1688
怵	-11.1688
阡	-11.169
剥	-11.1691
彿	-11.1692
迺	-11.1692
湮	-11.1693
檐	-11.1694
朴	-11.1695
竪	-11.1696
懲	-11.1696
聯	-11.1697
鏗	-11.1697
孌	-11.1697
簟	-11.17
顚	-11.1701
萱	-11.1706
吸	-11.1707
淩	-11.1707
鬰	-11.1709
狙	-11.2162
薩	-11.2165
栴	-11.2169
偈	-11.218
瑀	-11.2182
伉	-11.2182
驄	-11.2184
禅	-11.2185
楸	-11.2186
緗	-11.2186
劌	-11.2188
奈	-11.2188
玠	-11.2191
摶	-11.2191
姨	-11.2192
蕉	-11.2192
芋	-11.2193
蜮	-11.2193
疋	-11.2194
荻	-11.2196
懶	-11.2196
艮	-11.2196
瘠	-11.2198
遮	-11.2199
缾	-11.2199
搜	-11.2201
顙	-11.2201
掛	-11.2201
歆	-11.2202
跌	-11.2202
䦨	-11.2203
㐫	-11.2203
郿	-11.2203
裨	-11.2204
劬	-11.2204
枿	-11.2204
蔥	-11.2205
舸	-11.2205
忻	-11.2205
蝕	-11.2206
踞	-11.2206
拉	-11.2206
盲	-11.2206
烱	-11.2207
軹	-11.2208
搔	-11.2208
矰	-11.2208
怯	-11.2208
昃	-11.2209
皋	-11.221
鉅	-11.2211
泯	-11.2212
崛	-11.2212
旻	-11.2213
洙	-11.2213
兠	-11.2213
螽	-11.2214
幔	-11.2216
筋	-11.2216
訾	-11.2216
蛛	-11.2217
遒	-11.2217
煒	-11.2217
聦	-11.222
隤	-11.222
夐	-11.2221
浹	-11.2221
摽	-11.2224
壮	-11.2226
躭	-11.2226
揔	-11.2227
窗	-11.2227
蘿	-11.2233
瑚	-11.2234
憒	-11.2726
庳	-11.2739
鉉	-11.2739
蝶	-11.2741
煢	-11.2744
幘	-11.2744
䜟	-11.2745
聨	-11.2748
亨	-11.2748
笈	-11.275
湥	-11.275
箸	-11.2751
珩	-11.2752
廐	-11.2753
巋	-11.2754
晡	-11.2755
璆	-11.2755
燋	-11.2755
摰	-11.2756
暘	-11.2756
桴	-11.2757
窻	-11.2757
療	-11.2758
炫	-11.2759
殪	-11.2761
韡	-11.2761
垠	-11.2761
狥	-11.2762
値	-11.2762
菖	-11.2762
廩	-11.2762
締	-11.2763
蜩	-11.2763
蔬	-11.2763
蓐	-11.2763
䟦	-11.2764
昻	-11.2764
紊	-11.2764
玕	-11.2765
惣	-11.2765
㒺	-11.2766
晃	-11.2766
霽	-11.2767
憔	-11.2768
腕	-11.2768
囀	-11.2769
皝	-11.2771
漉	-11.2772
㐮	-11.2773
旭	-11.2773
荔	-11.2774
畦	-11.2774
盻	-11.2774
闋	-11.2776
彧	-11.2776
紜	-11.2777
殂	-11.2778
睠	-11.2779
㽔	-11.2779
懦	-11.2779
嵯	-11.2779
縞	-11.278
跼	-11.278
㳙	-11.2782
㟁	-11.2783
倕	-11.2783
蚩	-11.2783
騮	-11.2784
溶	-11.2785
壟	-11.2788
腥	-11.2788
郞	-11.279
蜡	-11.2793
渊	-11.2796
孑	-11.3315
岧	-11.3332
㤀	-11.3332
亾	-11.3333
幢	-11.3334
彘	-11.3336
郯	-11.3336
隸	-11.3336
芙	-11.3337
健	-11.3337
颯	-11.3338
訛	-11.334
翬	-11.3341
裵	-11.3343
挿	-11.3343
偪	-11.3344
笠	-11.3344
絜	-11.3344
荏	-11.3344
吼	-11.3344
莘	-11.3345
髫	-11.3345
剡	-11.3346
盆	-11.3346
凜	-11.3346
妬	-11.3346
媵	-11.3347
脚	-11.3347
璩	-11.3347
閏	-11.3348
牘	-11.3349
祛	-11.3349
洒	-11.3349
扃	-11.3349
仄	-11.335
蔗	-11.335
穫	-11.335
蚤	-11.335
懇	-11.3351
涖	-11.3351
脯	-11.3351
溥	-11.3352
粱	-11.3352
裒	-11.3353
畋	-11.3353
僮	-11.3353
泫	-11.3354
窘	-11.3354
竅	-11.3354
汩	-11.3354
愼	-11.3354
煇	-11.3355
頺	-11.3355
菌	-11.3355
娣	-11.3356
蹯	-11.3356
埽	-11.3356
鏃	-11.3357
冤	-11.3357
羗	-11.3357
惵	-11.3358
奰	-11.3359
顆	-11.336
帨	-11.336
廖	-11.336
曝	-11.336
鍳	-11.3361
䋲	-11.3363
幰	-11.3364
􁀴	-11.3365
呌	-11.3365
漱	-11.3365
㓗	-11.3367
繪	-11.3367
亶	-11.3367
黻	-11.337
苒	-11.337
惄	-11.3372
湓	-11.3373
拖	-11.3373
籟	-11.3375
鷗	-11.3376
鎧	-11.3389
盂	-11.3944
絓	-11.3947
瞢	-11.3948
从	-11.3949
鋸	-11.3951
袴	-11.3952
輜	-11.3954
犂	-11.3954
鷦	-11.3956
蕖	-11.396
耨	-11.3961
彗	-11.3964
妣	-11.3965
檟	-11.3965
懌	-11.3966
銑	-11.3967
紵	-11.3967
炬	-11.3967
菟	-11.3967
坻	-11.3968
疫	-11.3968
啄	-11.3968
擄	-11.3969
笮	-11.397
駮	-11.397
澡	-11.397
刁	-11.397
浣	-11.3971
購	-11.3971
渺	-11.3971
遡	-11.3972
袞	-11.3972
嶰	-11.3973
袪	-11.3974
誇	-11.3974
柚	-11.3974
麤	-11.3974
煜	-11.3974
栱	-11.3974
漕	-11.3975
羔	-11.3976
颺	-11.3976
玦	-11.3978
喉	-11.3978
熠	-11.3978
貿	-11.3979
胷	-11.3979
嫄	-11.3979
筍	-11.398
磯	-11.398
猪	-11.398
迨	-11.3981
鴛	-11.3982
廡	-11.3982
廱	-11.3982
蛉	-11.3983
㲲	-11.3983
錮	-11.3983
棃	-11.3983
壌	-11.3984
斌	-11.3984
僻	-11.3984
脉	-11.3985
逓	-11.3985
撲	-11.3986
譔	-11.3986
崎	-11.3986
倐	-11.3987
躋	-11.3988
憮	-11.3988
皦	-11.3988
梢	-11.3988
垓	-11.3989
畒	-11.3991
駑	-11.3991
灘	-11.3991
蹻	-11.3992
莎	-11.3992
勰	-11.3994
迪	-11.3995
晻	-11.3995
蹀	-11.3995
凢	-11.3995
枻	-11.3995
嚼	-11.3997
湏	-11.3997
泳	-11.3998
糞	-11.3998
蚊	-11.3999
岨	-11.3999
泬	-11.3999
岀	-11.4006
啾	-11.4007
滸	-11.4008
盌	-11.4606
倏	-11.4609
鏖	-11.4612
肄	-11.4621
瘡	-11.4623
絆	-11.4625
鞮	-11.4626
紗	-11.4627
頷	-11.4627
牂	-11.4627
佯	-11.4628
概	-11.4628
栩	-11.4628
釧	-11.4629
訝	-11.4629
錐	-11.4629
吻	-11.4629
墊	-11.463
瞳	-11.463
啖	-11.463
豬	-11.4631
蓼	-11.4631
摭	-11.4631
畬	-11.4631
輻	-11.4632
耄	-11.4632
佑	-11.4633
薙	-11.4633
痼	-11.4633
奬	-11.4634
噎	-11.4635
嗚	-11.4635
檥	-11.4635
貲	-11.4635
邴	-11.4636
緘	-11.4636
賂	-11.4637
苛	-11.4638
猾	-11.4638
嘏	-11.4639
纁	-11.4639
檣	-11.4639
枹	-11.4639
蠱	-11.464
筝	-11.464
玫	-11.4641
斚	-11.4642
頥	-11.4642
蠢	-11.4643
册	-11.4643
廙	-11.4643
軨	-11.4643
綰	-11.4644
尒	-11.4644
侖	-11.4644
晰	-11.4645
閽	-11.4645
藕	-11.4645
鑚	-11.4645
勗	-11.4646
㶚	-11.4646
麓	-11.4646
瑁	-11.4646
圻	-11.4647
綍	-11.4648
魔	-11.4648
闞	-11.4649
罝	-11.465
繐	-11.465
漲	-11.4651
勦	-11.4652
涘	-11.4652
耻	-11.4652
幻	-11.4652
鎩	-11.4653
鵩	-11.4653
插	-11.4654
囷	-11.4654
着	-11.4654
蜻	-11.4655
湊	-11.4655
矚	-11.4655
床	-11.4655
袤	-11.4656
厝	-11.4656
磴	-11.4657
櫳	-11.4657
掇	-11.4657
拳	-11.4657
怙	-11.4657
鄣	-11.4658
謠	-11.4658
参	-11.4658
鷃	-11.4658
洶	-11.4659
皐	-11.4659
窅	-11.4659
湲	-11.4659
轔	-11.4659
辦	-11.466
麈	-11.4661
蝸	-11.4661
刈	-11.4662
鞶	-11.4663
埸	-11.4665
𥙷	-11.4669
儛	-11.467
壷	-11.4671
齔	-11.4673
洌	-11.5299
褘	-11.5325
郄	-11.5327
懣	-11.5329
嫗	-11.533
喙	-11.5336
帑	-11.5338
蟹	-11.5339
洩	-11.534
箄	-11.5341
梳	-11.5341
朞	-11.5342
旰	-11.5343
磐	-11.5344
酤	-11.5344
祓	-11.5345
𡨕	-11.5345
倘	-11.5345
鴉	-11.5346
恙	-11.5347
翥	-11.5347
栘	-11.5347
喋	-11.5347
齓	-11.5348
鼙	-11.5348
妒	-11.5348
贅	-11.5348
鴆	-11.5349
幅	-11.535
巂	-11.535
桁	-11.535
溱	-11.5351
喘	-11.5351
票	-11.5351
彥	-11.5351
簴	-11.5353
湼	-11.5353
藋	-11.5353
睨	-11.5353
邠	-11.5353
珽	-11.5353
譖	-11.5353
雹	-11.5353
查	-11.5354
瓴	-11.5355
譎	-11.5356
顒	-11.5357
嘘	-11.5357
郇	-11.5358
棧	-11.5358
墾	-11.5358
蜘	-11.5359
曺	-11.5359
篋	-11.5359
宙	-11.5359
蹔	-11.5359
叶	-11.536
俞	-11.536
淖	-11.5361
抃	-11.5361
倜	-11.5362
廚	-11.5362
蹲	-11.5362
壠	-11.5363
鷇	-11.5363
賑	-11.5363
讋	-11.5364
禇	-11.5364
評	-11.5365
薤	-11.5365
隈	-11.5365
櫬	-11.5365
屍	-11.5365
哽	-11.5366
筭	-11.5367
餅	-11.5367
耒	-11.5367
酎	-11.5367
痾	-11.5368
嚶	-11.5368
莩	-11.5369
斵	-11.537
状	-11.537
沄	-11.537
奭	-11.5372
聶	-11.5372
沆	-11.5373
婺	-11.5373
蠅	-11.5374
歙	-11.5374
槿	-11.5375
覔	-11.5376
柙	-11.5376
氾	-11.5378
貟	-11.5379
猨	-11.538
緫	-11.538
煴	-11.5389
坡	-11.5392
櫺	-11.5394
諠	-11.5395
癭	-11.608
屨	-11.61
祊	-11.6104
耋	-11.6105
艇	-11.6105
恚	-11.6105
洹	-11.6106
飴	-11.6107
鷟	-11.6107
貎	-11.6108
瀼	-11.6111
鈇	-11.6112
狸	-11.6112
佾	-11.6112
盃	-11.6113
銓	-11.6113
勛	-11.6114
碓	-11.6114
杪	-11.6114
廂	-11.6114
椽	-11.6115
瞋	-11.6115
埀	-11.6115
圈	-11.6115
獍	-11.6117
箇	-11.6117
莞	-11.6118
甑	-11.6119
杭	-11.612
線	-11.612
鍤	-11.612
厮	-11.612
晼	-11.612
鼗	-11.6121
瀍	-11.6121
憩	-11.6121
鬲	-11.6121
褧	-11.6121
蓂	-11.6122
蜚	-11.6122
嵬	-11.6123
闚	-11.6123
惇	-11.6123
膋	-11.6124
鼂	-11.6124
罽	-11.6124
翾	-11.6124
蛩	-11.6124
諜	-11.6125
彚	-11.6125
蔕	-11.6126
姧	-11.6127
陬	-11.6127
沌	-11.6127
暎	-11.6127
唾	-11.6128
刮	-11.6128
瑒	-11.6128
譟	-11.6129
舫	-11.6129
寝	-11.6129
藁	-11.6129
蔭	-11.6129
嗇	-11.6129
晤	-11.613
孀	-11.6131
槁	-11.6131
嶸	-11.6131
姝	-11.6132
縻	-11.6132
楛	-11.6132
汨	-11.6132
蝎	-11.6132
蘩	-11.6133
呵	-11.6133
崧	-11.6133
逄	-11.6134
簣	-11.6134
覯	-11.6134
鎬	-11.6134
躇	-11.6134
豚	-11.6135
麝	-11.6135
喟	-11.6136
澈	-11.6136
泮	-11.6136
凰	-11.6137
匕	-11.6137
鷙	-11.6137
坏	-11.6137
魑	-11.6138
炅	-11.6138
誚	-11.6138
恧	-11.6138
竚	-11.6138
刪	-11.6139
蛄	-11.6139
唘	-11.614
潺	-11.614
嘈	-11.6141
櫓	-11.6141
扆	-11.6141
鶩	-11.6141
昂	-11.6142
虗	-11.6145
冏	-11.6146
逍	-11.6148
斐	-11.6148
沚	-11.6148
濆	-11.6148
縟	-11.6148
咀	-11.615
橈	-11.6152
滇	-11.6153
璉	-11.6172
剞	-11.6175
韍	-11.6919
罵	-11.692
聾	-11.6923
楞	-11.6932
惱	-11.6934
嶧	-11.6935
蜃	-11.6938
漯	-11.6938
煦	-11.6938
脛	-11.6939
驢	-11.6939
峭	-11.6941
狽	-11.6941
虔	-11.6942
繻	-11.6942
蝗	-11.6943
玖	-11.6944
脊	-11.6945
甖	-11.6946
仆	-11.6947
默	-11.6947
渤	-11.6948
孥	-11.6948
縢	-11.6948
釡	-11.6949
慤	-11.6949
詵	-11.695
瑪	-11.6952
贄	-11.6952
儁	-11.6952
抜	-11.6952
瘦	-11.6953
𢷬	-11.6953
褊	-11.6953
浄	-11.6954
緱	-11.6955
兑	-11.6955
嫂	-11.6955
埤	-11.6956
莅	-11.6956
惋	-11.6956
悍	-11.6957
椁	-11.6957
捫	-11.6957
顓	-11.6957
淸	-11.6958
跳	-11.6958
裙	-11.6958
薺	-11.6959
羯	-11.6959
籩	-11.6959
畚	-11.696
批	-11.6961
鞞	-11.6961
啞	-11.6962
頤	-11.6964
雝	-11.6964
胃	-11.6965
愬	-11.6966
畛	-11.6966
鍵	-11.6966
詮	-11.6966
扛	-11.6967
酢	-11.6967
珉	-11.6967
凊	-11.6969
畱	-11.6969
閶	-11.6969
訶	-11.6969
躊	-11.6969
嶤	-11.697
栽	-11.697
燦	-11.6971
讙	-11.6971
跗	-11.6971
滻	-11.6972
罇	-11.6972
絺	-11.6972
昵	-11.6973
廏	-11.6973
琢	-11.6974
駁	-11.6974
櫩	-11.6975
腴	-11.6976
洋	-11.6976
蕨	-11.6977
堙	-11.6978
幌	-11.6978
醒	-11.6979
蜿	-11.698
氊	-11.698
瓏	-11.698
閈	-11.698
跖	-11.698
晣	-11.698
懔	-11.6981
関	-11.6982
覈	-11.6982
嘿	-11.6982
玲	-11.6982
牎	-11.6983
謇	-11.6983
彯	-11.6984
穸	-11.6986
咲	-11.6988
窬	-11.6988
僰	-11.6989
媛	-11.6989
飮	-11.699
皢	-11.7829
豨	-11.7833
桮	-11.7835
硎	-11.7839
騄	-11.7841
濘	-11.7841
郈	-11.7842
厓	-11.7843
貔	-11.7845
瞀	-11.7847
鹹	-11.7848
駝	-11.7849
蘓	-11.7852
圏	-11.7852
鸑	-11.7852
淝	-11.7853
鄆	-11.7855
犁	-11.7855
槌	-11.7855
褥	-11.7855
捍	-11.7856
墅	-11.7856
軟	-11.7857
煬	-11.7858
匄	-11.7858
錬	-11.7858
恡	-11.7858
殻	-11.7858
纘	-11.7858
髠	-11.7859
倨	-11.7859
輈	-11.786
栭	-11.786
駸	-11.786
酹	-11.7861
睎	-11.7861
嶢	-11.7861
俸	-11.7862
馘	-11.7862
邛	-11.7862
慍	-11.7863
膓	-11.7863
猴	-11.7863
歔	-11.7864
漣	-11.7864
䍧	-11.7865
耐	-11.7865
謫	-11.7865
湔	-11.7865
廪	-11.7866
瓌	-11.7866
詆	-11.7867
袿	-11.7868
瓉	-11.7868
刎	-11.7868
兌	-11.7869
舲	-11.7869
踴	-11.7869
蓽	-11.7869
湫	-11.7869
賮	-11.787
喚	-11.787
幟	-11.787
勱	-11.787
篡	-11.7871
璃	-11.7871
迂	-11.7872
愜	-11.7872
甓	-11.7872
鈿	-11.7872
鯀	-11.7873
髟	-11.7873
𣲖	-11.7873
净	-11.7874
毳	-11.7874
溘	-11.7874
歿	-11.7875
蒯	-11.7875
昀	-11.7875
紋	-11.7876
曦	-11.7876
篁	-11.7877
舛	-11.7877
盍	-11.7877
瞑	-11.7878
逥	-11.7878
紏	-11.7879
緌	-11.788
髯	-11.7881
戶	-11.7881
糝	-11.7882
龐	-11.7882
渌	-11.7883
陁	-11.7883
􁀈	-11.7883
槍	-11.7884
鯁	-11.7884
咄	-11.7885
黼	-11.7885
􁗁	-11.7885
耘	-11.7886
蕐	-11.7886
徨	-11.7886
駱	-11.7886
莾	-11.7887
愽	-11.7887
偷	-11.7887
頎	-11.7887
龠	-11.7888
貉	-11.7888
滲	-11.7888
尙	-11.7888
吊	-11.7889
豋	-11.7889
賖	-11.789
礫	-11.7891
兀	-11.7891
漪	-11.7892
徊	-11.7893
軰	-11.7893
娱	-11.7895
濠	-11.7895
駛	-11.7895
襪	-11.7897
嬾	-11.7898
軆	-11.79
儕	-11.7901
嬋	-11.7901
綉	-11.7905
㱕	-11.7914
劂	-11.7917
驎	-11.8814
潯	-11.8828
叉	-11.8831
甌	-11.8834
棼	-11.8837
廛	-11.8838
瀑	-11.8841
夘	-11.8841
𦍑	-11.8843
楣	-11.8843
摺	-11.8843
葅	-11.8846
泓	-11.8847
粢	-11.8847
郜	-11.8847
罏	-11.8848
鞬	-11.8848
摻	-11.8848
䎡	-11.8849
燻	-11.8849
剽	-11.8852
拏	-11.8852
瘼	-11.8854
璨	-11.8854
衒	-11.8854
嘔	-11.8855
驩	-11.8855
卻	-11.8855
噫	-11.8857
鈍	-11.8857
濊	-11.8857
褵	-11.8857
弢	-11.8858
鄠	-11.8858
焜	-11.8858
佃	-11.8859
楮	-11.8859
郗	-11.886
餽	-11.886
畵	-11.886
逷	-11.886
槖	-11.886
准	-11.8861
㸑	-11.8861
淥	-11.8861
齧	-11.8861
逡	-11.8863
㳫	-11.8863
蠖	-11.8863
戱	-11.8864
懍	-11.8864
逅	-11.8864
斁	-11.8864
簇	-11.8865
卬	-11.8865
撮	-11.8865
隩	-11.8865
韙	-11.8865
阼	-11.8865
孩	-11.8866
韎	-11.8866
燐	-11.8866
耗	-11.8866
跕	-11.8866
㵼	-11.8866
臾	-11.8866
覓	-11.8867
怳	-11.8868
爕	-11.8869
睫	-11.8869
斲	-11.8869
蒜	-11.8869
蘖	-11.8869
櫪	-11.8869
撾	-11.8869
鉗	-11.8869
紓	-11.887
皂	-11.887
嘖	-11.8871
縯	-11.8871
蒨	-11.8871
麞	-11.8872
臠	-11.8872
匐	-11.8872
揭	-11.8873
匍	-11.8873
澣	-11.8873
隳	-11.8874
闘	-11.8874
懅	-11.8874
躓	-11.8874
萼	-11.8874
凑	-11.8874
晁	-11.8875
貊	-11.8875
聮	-11.8875
鞗	-11.8876
弨	-11.8876
邐	-11.8877
懈	-11.8877
鄅	-11.8877
僥	-11.8877
繢	-11.8878
糅	-11.8878
袵	-11.8878
廆	-11.8879
磵	-11.8879
枌	-11.8879
鄗	-11.8879
䓁	-11.888
碌	-11.888
悸	-11.888
鶯	-11.888
巘	-11.8881
褚	-11.8881
𬗟	-11.8881
猒	-11.8882
迕	-11.8882
犇	-11.8884
簉	-11.8884
葺	-11.8885
暌	-11.8886
忒	-11.8886
瀣	-11.8886
椿	-11.8886
蹟	-11.8887
継	-11.8887
簜	-11.8888
稠	-11.8889
鍪	-11.889
瑋	-11.889
姢	-11.889
眡	-11.889
攪	-11.889
冗	-11.8891
鍜	-11.8891
廨	-11.8892
𦕈	-11.8893
耜	-11.8897
樛	-11.8898
冺	-11.8898
䆳	-11.8898
憙	-11.8899
燠	-11.8899
嶂	-11.8903
窕	-11.9911
睒	-11.9913
羝	-11.9917
讟	-11.9931
襌	-11.9938
騾	-11.9939
鵀	-11.9944
跙	-11.9945
麑	-11.9948
胝	-11.9949
蹋	-11.9953
袛	-11.9953
絞	-11.9955
娃	-11.9956
歜	-11.9959
攢	-11.9959
囹	-11.996
鶡	-11.9961
莓	-11.9962
枸	-11.9962
逗	-11.9962
鴨	-11.9962
穟	-11.9963
噉	-11.9963
曬	-11.9964
螮	-11.9964
傭	-11.9965
戕	-11.9966
塾	-11.9966
揷	-11.9966
榱	-11.9967
櫻	-11.9968
樠	-11.9968
穂	-11.9968
髀	-11.9968
閹	-11.9968
汰	-11.9968
絢	-11.9968
闠	-11.9968
捉	-11.9969
哇	-11.9969
騅	-11.9969
縳	-11.9969
􁁜	-11.997
洊	-11.997
杲	-11.997
緄	-11.997
埏	-11.9971
㡌	-11.9971
憾	-11.9971
揜	-11.9971
縿	-11.9971
輴	-11.9971
圄	-11.9972
譁	-11.9972
添	-11.9972
嬀	-11.9972
矞	-11.9972
悃	-11.9972
鶂	-11.9972
襚	-11.9973
鷯	-11.9973
沗	-11.9973
耰	-11.9974
尖	-11.9974
蒹	-11.9975
斿	-11.9975
閫	-11.9976
鶚	-11.9976
娉	-11.9976
篾	-11.9976
咷	-11.9976
鬪	-11.9976
幬	-11.9977
擯	-11.9977
秫	-11.9977
打	-11.9977
鶬	-11.9978
坊	-11.9978
􁁃	-11.9978
罟	-11.9978
沽	-11.9978
鍔	-11.9978
縦	-11.998
悝	-11.998
􁈹	-11.998
筒	-11.998
咤	-11.998
擎	-11.9982
叫	-11.9983
捃	-11.9983
熛	-11.9983
賒	-11.9983
姥	-11.9984
䬃	-11.9984
刳	-11.9984
祔	-11.9984
銖	-11.9985
枲	-11.9985
戡	-11.9986
絰	-11.9986
掞	-11.9986
嫉	-11.9986
它	-11.9986
虡	-11.9987
窳	-11.9987
料	-11.9988
醖	-11.9988
謔	-11.9988
蟪	-11.9988
莬	-11.9989
堋	-11.9989
裛	-11.9989
孳	-11.9989
疵	-11.999
䓗	-11.999
昕	-11.999
僞	-11.999
溼	-11.9991
矟	-11.9991
栅	-11.9992
嶄	-11.9992
勺	-11.9992
蹉	-11.9992
无	-11.9993
嫠	-11.9993
崚	-11.9993
皃	-11.9994
腫	-11.9995
觚	-11.9995
𪷟	-11.9995
彜	-11.9997
藂	-11.9997
陲	-11.9997
湎	-11.9998
焱	-12.0001
机	-12.0002
糟	-12.0002
拆	-12.0004
芽	-12.0005
䆫	-12.0005
僊	-12.0006
隮	-12.0006
儵	-12.0007
耉	-12.0007
崐	-12.0008
噭	-12.0008
泌	-12.001
冽	-12.0011
窀	-12.0011
聒	-12.0012
椅	-12.0014
蓱	-12.0021
棨	-12.0026
断	-12.0038
輓	-12.1156
䫏	-12.1185
菩	-12.1186
筏	-12.1193
麄	-12.1193
鎗	-12.1193
瘥	-12.1193
綆	-12.1197
鐲	-12.1198
腮	-12.12
柢	-12.1203
墠	-12.1203
蹹	-12.1203
蹛	-12.1204
虓	-12.1204
熲	-12.1204
踆	-12.1205
躔	-12.1205
薁	-12.1206
䜛	-12.1209
杓	-12.1209
摐	-12.1209
驃	-12.1211
鬛	-12.1211
惰	-12.1211
筰	-12.1211
涙	-12.1211
訕	-12.1211
殳	-12.1212
吭	-12.1213
僵	-12.1213
噴	-12.1216
崱	-12.1216
礥	-12.1216
醬	-12.1216
軿	-12.1217
綝	-12.1217
鱠	-12.1218
㮰	-12.1219
睡	-12.122
脇	-12.122
鴦	-12.122
纈	-12.1221
顱	-12.1221
伃	-12.1221
装	-12.1221
櫝	-12.1221
氅	-12.1222
卣	-12.1222
澁	-12.1222
筴	-12.1222
扼	-12.1223
輳	-12.1223
潄	-12.1223
鵞	-12.1223
曀	-12.1224
踣	-12.1224
涂	-12.1224
槱	-12.1225
靦	-12.1226
冮	-12.1226
櫛	-12.1227
暠	-12.1227
眀	-12.1228
陴	-12.1228
巍	-12.1228
㕛	-12.1228
丼	-12.1228
莠	-12.1229
阯	-12.1229
淼	-12.123
疴	-12.123
瑇	-12.123
㓂	-12.123
份	-12.123
艤	-12.123
璘	-12.1231
奨	-12.1231
凛	-12.1232
肓	-12.1232
莭	-12.1232
艧	-12.1232
腊	-12.1232
皖	-12.1232
溷	-12.1233
㽞	-12.1233
傕	-12.1233
鈕	-12.1234
㕓	-12.1234
酖	-12.1234
瀏	-12.1234
澳	-12.1235
𥿄	-12.1235
揣	-12.1235
繚	-12.1235
賻	-12.1235
仭	-12.1235
靳	-12.1235
杌	-12.1236
絏	-12.1236
颸	-12.1236
玳	-12.1236
曛	-12.1236
肘	-12.1236
岌	-12.1236
峚	-12.1237
獺	-12.1237
𥚑	-12.1238
跱	-12.1238
䦯	-12.1238
纛	-12.1238
赬	-12.1238
呱	-12.1239
岏	-12.1239
佟	-12.1239
軏	-12.1239
膾	-12.124
醢	-12.124
澨	-12.124
詁	-12.124
皤	-12.124
嗤	-12.124
篚	-12.124
挐	-12.1242
麴	-12.1243
麕	-12.1243
羹	-12.1244
擗	-12.1244
轜	-12.1244
坳	-12.1245
浙	-12.1247
灣	-12.1247
旜	-12.1247
赧	-12.1248
蘅	-12.1249
淋	-12.1249
糺	-12.1249
隍	-12.1249
薜	-12.125
崗	-12.125
栝	-12.1251
𥙿	-12.1251
漭	-12.1252
舩	-12.1252
〇	-12.1252
藟	-12.1256
㩦	-12.1256
羶	-12.1256
饕	-12.1256
傃	-12.1257
拍	-12.1257
踧	-12.1259
薈	-12.1259
菰	-12.1265
【	-12.1269
焭	-12.127
褭	-12.1274
夣	-12.128
尔	-12.1289
襤	-12.2596
䣛	-12.261
戹	-12.2616
鬷	-12.2616
攓	-12.2619
吃	-12.2621
檠	-12.2624
筥	-12.2624
娠	-12.2629
蚖	-12.263
枰	-12.263
厖	-12.2633
棋	-12.2633
鯤	-12.2634
惆	-12.2634
缶	-12.2635
緤	-12.2637
歃	-12.2637
笞	-12.2638
瀕	-12.264
畀	-12.264
泡	-12.264
椘	-12.264
訏	-12.264
盱	-12.2641
㪚	-12.2641
熬	-12.2642
疽	-12.2642
攣	-12.2642
釭	-12.2642
甪	-12.2642
榹	-12.2643
絙	-12.2643
透	-12.2643
殛	-12.2643
撩	-12.2644
惴	-12.2645
岩	-12.2645
椹	-12.2645
顇	-12.2645
鰩	-12.2645
禔	-12.2645
棫	-12.2646
嗷	-12.2646
䨇	-12.2647
夹	-12.2647
鎖	-12.2649
轊	-12.2649
凟	-12.2649
犴	-12.265
奘	-12.265
崢	-12.265
肸	-12.2651
怍	-12.2651
衽	-12.2651
蹌	-12.2651
洧	-12.2651
嶔	-12.2652
纚	-12.2652
罘	-12.2652
糒	-12.2652
郴	-12.2653
轤	-12.2653
馺	-12.2653
尫	-12.2654
灃	-12.2654
盭	-12.2654
滓	-12.2654
刖	-12.2654
軔	-12.2654
諤	-12.2655
坰	-12.2655
蕘	-12.2655
蘊	-12.2655
呑	-12.2655
轓	-12.2655
贇	-12.2656
淯	-12.2656
廸	-12.2657
髩	-12.2657
禊	-12.2657
蹠	-12.2657
賫	-12.2658
輀	-12.2658
嘒	-12.2658
吮	-12.2658
飱	-12.2658
蘄	-12.2659
暦	-12.2659
貰	-12.2659
蹴	-12.2659
嶲	-12.2659
郫	-12.266
詖	-12.2661
堇	-12.2661
媪	-12.2662
忳	-12.2662
淬	-12.2663
覘	-12.2663
貯	-12.2663
捎	-12.2663
纉	-12.2664
柹	-12.2664
橑	-12.2664
韞	-12.2664
薌	-12.2665
􁁉	-12.2665
姣	-12.2666
贓	-12.2666
㢠	-12.2666
哮	-12.2667
慇	-12.2667
撿	-12.2667
舋	-12.2668
攡	-12.2668
筞	-12.2668
搥	-12.2669
塍	-12.2669
嚬	-12.2669
賾	-12.267
㨿	-12.267
芮	-12.267
獫	-12.267
蛻	-12.267
祲	-12.2671
葐	-12.2671
殱	-12.2672
脈	-12.2673
謩	-12.2673
凈	-12.2673
遟	-12.2673
綦	-12.2673
堞	-12.2674
榼	-12.2674
踔	-12.2674
倖	-12.2675
辤	-12.2675
崿	-12.2676
芍	-12.2676
矝	-12.2677
唶	-12.2677
蟣	-12.2678
䌫	-12.2678
悁	-12.2678
鏟	-12.2678
噍	-12.2678
彂	-12.2679
鴞	-12.2679
阬	-12.2679
霾	-12.268
愾	-12.2681
瀬	-12.2681
􁂍	-12.2681
礲	-12.2681
㓙	-12.2683
蒞	-12.2683
眥	-12.2685
梭	-12.2685
虫	-12.2685
愿	-12.2686
腓	-12.2686
灧	-12.2686
􁅃	-12.2687
嵒	-12.2687
懵	-12.269
諍	-12.2692
楼	-12.2698
𣏌	-12.2699
瀰	-12.27
𬞞	-12.27
􁆡	-12.2703
𡵨	-12.2705
噱	-12.2731
􁖖	-12.4243
釗	-12.4257
藎	-12.4261
瘤	-12.4262
釜	-12.4268
瓿	-12.4272
􁖠	-12.4276
涅	-12.4276
垤	-12.428
綟	-12.428
澌	-12.4281
蒍	-12.4283
掣	-12.4284
滮	-12.4284
塡	-12.4284
毻	-12.4285
徠	-12.4288
拑	-12.4291
牷	-12.4292
甬	-12.4292
鄱	-12.4293
剃	-12.4293
樚	-12.4293
祏	-12.4295
勣	-12.4295
陕	-12.4296
諂	-12.4296
緺	-12.4298
俴	-12.43
㰱	-12.43
脾	-12.43
帔	-12.43
焯	-12.4301
薳	-12.4301
㕔	-12.4301
阽	-12.4302
噀	-12.4302
鸇	-12.4304
㻞	-12.4304
孱	-12.4304
愕	-12.4304
􁌌	-12.4306
跛	-12.4307
諐	-12.4307
鍚	-12.4307
帽	-12.4308
弹	-12.4308
翌	-12.4308
簺	-12.4308
拄	-12.4309
荄	-12.4309
槥	-12.4309
鰓	-12.431
鼚	-12.431
湟	-12.431
秃	-12.431
晳	-12.431
聫	-12.431
靁	-12.431
􁃛	-12.431
㢲	-12.4311
爇	-12.4311
獮	-12.4311
鎰	-12.4312
琚	-12.4312
倢	-12.4312
瞬	-12.4313
型	-12.4313
悞	-12.4314
憬	-12.4314
属	-12.4314
裸	-12.4314
鬐	-12.4315
芣	-12.4315
苢	-12.4315
蜉	-12.4316
餔	-12.4316
蜒	-12.4317
珈	-12.4317
莵	-12.4317
䲹	-12.4318
蜯	-12.4318
龢	-12.4319
霹	-12.4319
靂	-12.4319
衎	-12.432
彖	-12.432
俚	-12.4321
閴	-12.4321
搦	-12.4321
曈	-12.4321
襍	-12.4321
攺	-12.4322
痊	-12.4322
臍	-12.4322
薆	-12.4322
醅	-12.4323
屮	-12.4323
繅	-12.4323
酧	-12.4323
袠	-12.4323
蓧	-12.4323
螂	-12.4323
邽	-12.4324
蔀	-12.4324
絀	-12.4324
蛭	-12.4324
獯	-12.4324
虱	-12.4324
唁	-12.4325
姆	-12.4325
砭	-12.4326
覬	-12.4326
刄	-12.4326
僃	-12.4326
贔	-12.4326
雰	-12.4326
螳	-12.4326
餼	-12.4327
朏	-12.4327
阨	-12.4327
𫐠	-12.4328
怊	-12.4328
臊	-12.4329
倮	-12.4329
錞	-12.4329
飪	-12.4329
筦	-12.433
辝	-12.433
鸛	-12.433
畊	-12.433
渫	-12.4331
慾	-12.4331
綃	-12.4331
壼	-12.4331
炕	-12.4331
紲	-12.4331
枓	-12.4332
啁	-12.4332
噏	-12.4332
潏	-12.4332
夤	-12.4332
尠	-12.4332
慴	-12.4333
蜓	-12.4333
轄	-12.4333
嫣	-12.4333
檉	-12.4333
勍	-12.4334
醑	-12.4334
逑	-12.4334
䲭	-12.4334
朐	-12.4334
繋	-12.4334
爨	-12.4335
櫜	-12.4335
甿	-12.4336
紼	-12.4336
躐	-12.4336
腋	-12.4336
掬	-12.4336
畨	-12.4337
忩	-12.4337
餚	-12.4338
廽	-12.4338
筌	-12.4338
鰥	-12.4338
聃	-12.4338
昩	-12.4338
襞	-12.4338
斮	-12.4338
乱	-12.4339
渟	-12.4339
秤	-12.434
倣	-12.434
迮	-12.434
雘	-12.434
磔	-12.4341
罸	-12.4341
祑	-12.4341
敺	-12.4342
禆	-12.4342
僝	-12.4342
絫	-12.4342
懃	-12.4343
䡖	-12.4344
炮	-12.4344
軺	-12.4344
嵸	-12.4344
暐	-12.4345
亰	-12.4345
邅	-12.4345
悰	-12.4346
攫	-12.4346
樟	-12.4346
繾	-12.4346
瘴	-12.4346
𧖟	-12.4347
㟧	-12.4347
需	-12.4348
琹	-12.4348
崒	-12.4348
蹐	-12.4349
綣	-12.4349
崟	-12.4349
佉	-12.435
沇	-12.4351
妲	-12.4351
牗	-12.4351
圎	-12.4351
㒒	-12.4352
媮	-12.4352
沭	-12.4352
餗	-12.4353
轢	-12.4353
縲	-12.4354
譛	-12.4354
恍	-12.4355
矇	-12.4355
砌	-12.4355
壈	-12.4355
蓀	-12.4356
渰	-12.4357
㠶	-12.4357
攙	-12.4358
蕣	-12.4359
熳	-12.4359
蹂	-12.4359
搶	-12.436
擠	-12.436
沁	-12.4361
鼯	-12.4362
迁	-12.4362
皜	-12.4363
蝨	-12.4368
􁂋	-12.4368
嚢	-12.4369
遄	-12.4372
竆	-12.4373
勌	-12.4383
鐮	-12.6228
軑	-12.6254
䤨	-12.6258
侟	-12.6267
蔆	-12.6273
鐶	-12.6274
眙	-12.6278
診	-12.6279
獪	-12.6279
狭	-12.6284
穽	-12.6287
窋	-12.6288
焰	-12.629
醯	-12.6292
腆	-12.6292
朦	-12.6293
捭	-12.6293
橿	-12.6294
巛	-12.6295
咒	-12.6295
餳	-12.6295
邏	-12.6295
酅	-12.6295
瓮	-12.6296
鋏	-12.6297
耇	-12.6298
䰞	-12.6298
鳦	-12.6298
擘	-12.6299
綷	-12.6301
遝	-12.6301
茄	-12.6301
挟	-12.6301
硤	-12.6302
籖	-12.6302
傺	-12.6303
繘	-12.6303
韯	-12.6303
洼	-12.6304
燀	-12.6304
竢	-12.6304
倬	-12.6304
鎌	-12.6305
哢	-12.6305
掎	-12.6305
蓊	-12.6306
窌	-12.6306
瞶	-12.6307
萇	-12.6307
喆	-12.6307
煞	-12.6307
佻	-12.6308
膰	-12.6308
琇	-12.6309
髏	-12.6309
逴	-12.6309
徉	-12.631
虙	-12.631
䤋	-12.6311
糠	-12.6312
腯	-12.6312
爥	-12.6312
蘪	-12.6312
嬈	-12.6312
縌	-12.6312
㬰	-12.6312
窿	-12.6312
頰	-12.6313
媾	-12.6314
屎	-12.6314
裺	-12.6314
􁊿	-12.6314
姞	-12.6315
隃	-12.6315
粥	-12.6315
娩	-12.6315
怩	-12.6316
癯	-12.6316
飫	-12.6316
娼	-12.6316
嵆	-12.6316
姉	-12.6316
屆	-12.6316
歘	-12.6316
萑	-12.6317
臝	-12.6317
閡	-12.6317
迆	-12.6317
址	-12.6317
闤	-12.6317
攷	-12.6317
軋	-12.6318
豝	-12.6318
珣	-12.6318
漚	-12.6318
矍	-12.6318
鈐	-12.6318
爚	-12.6319
茀	-12.6319
棓	-12.6319
䔩	-12.632
闓	-12.632
噤	-12.632
饘	-12.632
噓	-12.632
睛	-12.632
暹	-12.6321
㩣	-12.6321
剸	-12.6321
夲	-12.6321
迸	-12.6321
妊	-12.6321
撒	-12.6321
檮	-12.6322
歠	-12.6322
䦧	-12.6322
匯	-12.6323
懟	-12.6323
癡	-12.6323
戟	-12.6323
疢	-12.6323
䄖	-12.6324
芡	-12.6324
牴	-12.6325
蓿	-12.6325
鈆	-12.6325
雊	-12.6326
潞	-12.6326
猖	-12.6326
洏	-12.6326
蘺	-12.6326
鏁	-12.6326
葹	-12.6326
苜	-12.6326
踪	-12.6327
夥	-12.6327
些	-12.6327
挍	-12.6327
蘢	-12.6328
蠟	-12.6328
俶	-12.6328
匭	-12.6328
窴	-12.6328
鵕	-12.6328
訢	-12.6328
橦	-12.6329
郍	-12.6329
蠒	-12.6329
簸	-12.6329
筈	-12.6329
燾	-12.6329
襆	-12.6329
褏	-12.6329
郝	-12.633
灂	-12.633
堊	-12.633
嵋	-12.633
悮	-12.633
蟾	-12.633
磚	-12.633
数	-12.6331
朧	-12.6331
窶	-12.6331
摇	-12.6331
畯	-12.6331
劃	-12.6332
洿	-12.6332
璪	-12.6332
舶	-12.6333
蝥	-12.6333
豊	-12.6333
朅	-12.6333
騭	-12.6333
溆	-12.6333
萏	-12.6334
膜	-12.6334
褎	-12.6334
頏	-12.6334
璅	-12.6334
瀦	-12.6334
鵃	-12.6335
襯	-12.6335
輆	-12.6335
棿	-12.6335
嫩	-12.6335
窹	-12.6335
叠	-12.6336
燬	-12.6336
紉	-12.6336
慺	-12.6336
潠	-12.6336
埶	-12.6337
悛	-12.6337
煨	-12.6337
􁂦	-12.6337
湝	-12.6337
窠	-12.6339
姙	-12.6339
粳	-12.6339
蛸	-12.6339
戅	-12.6339
駃	-12.634
賽	-12.634
悒	-12.6341
踡	-12.6342
茘	-12.6342
剔	-12.6342
甜	-12.6343
妥	-12.6343
捶	-12.6343
姱	-12.6344
珂	-12.6344
誑	-12.6344
芹	-12.6345
汴	-12.6345
鱉	-12.6345
捽	-12.6346
舡	-12.6347
擿	-12.6347
屡	-12.6348
桷	-12.6348
菹	-12.6348
鑁	-12.6348
苧	-12.6349
唏	-12.6349
箎	-12.6349
曁	-12.6349
瀉	-12.635
栒	-12.6351
甯	-12.6352
扳	-12.6352
寖	-12.6353
㤙	-12.6354
儆	-12.6354
曯	-12.6356
杶	-12.6356
术	-12.6357
睽	-12.6358
掉	-12.6358
棁	-12.6359
阹	-12.6359
軷	-12.6359
悙	-12.636
漼	-12.6361
坯	-12.6361
堆	-12.6362
簁	-12.6363
鐙	-12.6363
侶	-12.6366
頹	-12.6367
矅	-12.6367
痕	-12.6368
剗	-12.6369
忼	-12.6369
􁔛	-12.6369
巇	-12.637
曕	-12.6372
邰	-12.6372
綢	-12.6376
粮	-12.6376
舁	-12.6377
嵎	-12.6388
鋌	-12.8717
簍	-12.8731
鴠	-12.8733
緍	-12.8743
懆	-12.8753
㬥	-12.8753
猝	-12.8754
浼	-12.8756
倂	-12.8758
踶	-12.8758
媱	-12.8758
鍇	-12.876
􁋉	-12.876
膊	-12.8767
愮	-12.8768
翿	-12.8769
䀩	-12.8771
擷	-12.8772
玈	-12.8773
躆	-12.8774
緻	-12.8775
僛	-12.8778
挻	-12.8778
胹	-12.8779
塼	-12.8779
熖	-12.878
逭	-12.878
卺	-12.8782
㴱	-12.8785
蔟	-12.8787
礧	-12.8787
籯	-12.8787
慱	-12.8789
螾	-12.8789
㤯	-12.8789
缻	-12.879
盬	-12.879
耼	-12.8792
臶	-12.8792
濜	-12.8792
紿	-12.8793
泲	-12.8793
㕑	-12.8796
髳	-12.8796
狷	-12.8797
荗	-12.8797
稾	-12.8797
礼	-12.8798
撻	-12.8799
苹	-12.88
屐	-12.88
槊	-12.8801
㣧	-12.8801
𤯝	-12.8801
姡	-12.8801
􁄂	-12.8801
苐	-12.8801
泒	-12.8801
覉	-12.8803
惎	-12.8803
惏	-12.8803
澀	-12.8804
蓁	-12.8804
忸	-12.8805
𣙜	-12.8805
鎔	-12.8805
晠	-12.8805
楗	-12.8805
淆	-12.8805
卹	-12.8805
噩	-12.8805
趺	-12.8805
錘	-12.8805
禖	-12.8807
槪	-12.8807
𦂳	-12.8807
裼	-12.8808
斆	-12.8808
箔	-12.8808
􁂳	-12.8808
譌	-12.881
愄	-12.881
犨	-12.881
齦	-12.881
窒	-12.8811
偲	-12.8811
嘽	-12.8811
蜍	-12.8811
嬛	-12.8811
顦	-12.8811
魋	-12.8811
嚌	-12.8811
禭	-12.8811
鯽	-12.8812
穣	-12.8812
觝	-12.8812
晢	-12.8813
􁈯	-12.8813
𥜗	-12.8814
伴	-12.8814
簙	-12.8814
蛡	-12.8814
螿	-12.8814
楂	-12.8815
袊	-12.8815
柑	-12.8815
鳲	-12.8815
觔	-12.8815
枵	-12.8815
咋	-12.8815
慥	-12.8816
䴥	-12.8817
鸎	-12.8817
菆	-12.8817
睂	-12.8817
籊	-12.8817
氂	-12.8818
纏	-12.8818
鮐	-12.8818
啻	-12.8818
塸	-12.8818
蜐	-12.8818
􁤽	-12.8818
鴸	-12.8818
狠	-12.8819
纜	-12.8819
􁋊	-12.8819
幪	-12.8819
屩	-12.882
霣	-12.882
奎	-12.882
秭	-12.882
鑽	-12.882
痁	-12.8821
棚	-12.8821
㢤	-12.8821
淤	-12.8821
桎	-12.8821
梏	-12.8821
鼐	-12.8821
冋	-12.8822
溠	-12.8822
啗	-12.8822
荐	-12.8822
絪	-12.8822
麨	-12.8822
揉	-12.8823
澍	-12.8823
蹷	-12.8823
偹	-12.8823
澇	-12.8823
芭	-12.8823
𤾉	-12.8824
碭	-12.8825
揃	-12.8825
謟	-12.8825
扎	-12.8825
皡	-12.8825
銔	-12.8825
袐	-12.8825
丧	-12.8826
燁	-12.8826
懹	-12.8826
鑴	-12.8826
馗	-12.8826
茸	-12.8828
謖	-12.8828
壃	-12.8828
宼	-12.8828
暱	-12.8828
顰	-12.8828
玆	-12.8829
繄	-12.8829
梲	-12.8829
薏	-12.8829
韭	-12.883
轆	-12.883
䆒	-12.883
胼	-12.883
弸	-12.883
鷕	-12.883
䥴	-12.883
戻	-12.883
蟧	-12.883
瑯	-12.8832
蠓	-12.8832
奓	-12.8832
榥	-12.8832
睞	-12.8832
芉	-12.8832
醱	-12.8832
賃	-12.8833
歧	-12.8833
酇	-12.8833
墄	-12.8833
爝	-12.8833
臉	-12.8833
墐	-12.8833
宄	-12.8833
腔	-12.8833
蚣	-12.8833
蝑	-12.8833
詒	-12.8834
眸	-12.8835
唼	-12.8835
砮	-12.8835
蚕	-12.8835
鰕	-12.8835
靃	-12.8835
蒺	-12.8835
諄	-12.8836
㬦	-12.8836
柜	-12.8836
嵕	-12.8836
廌	-12.8836
飇	-12.8836
􁑾	-12.8836
芾	-12.8837
售	-12.8837
擺	-12.8837
琁	-12.8837
靚	-12.8838
溳	-12.8839
螗	-12.8839
刓	-12.8839
臞	-12.8839
蓑	-12.8839
􁠨	-12.8839
柞	-12.8839
儺	-12.884
磪	-12.884
漻	-12.884
𤨏	-12.8841
冑	-12.8841
攖	-12.8841
眂	-12.8842
芷	-12.8843
蹵	-12.8843
淊	-12.8843
䞇	-12.8843
綂	-12.8843
楩	-12.8844
㠋	-12.8844
旛	-12.8844
蜋	-12.8844
駓	-12.8844
𡑞	-12.8844
蚪	-12.8844
礌	-12.8844
壙	-12.8844
瑛	-12.8844
鄖	-12.8845
訥	-12.8846
慓	-12.8846
趍	-12.8846
楬	-12.8846
葳	-12.8847
洫	-12.8847
疹	-12.8847
㕍	-12.8847
箘	-12.8847
飊	-12.8847
𤏡	-12.8847
煖	-12.8847
穠	-12.8847
鮫	-12.8848
仿	-12.8848
嚚	-12.8848
鯷	-12.885
澶	-12.885
𬎼	-12.885
袈	-12.885
堣	-12.8851
鬂	-12.8851
戞	-12.8853
閾	-12.8853
蘚	-12.8853
瀴	-12.8853
巓	-12.8853
声	-12.8854
厪	-12.8854
債	-12.8854
碕	-12.8855
蕋	-12.8855
慷	-12.8857
荑	-12.8857
𬗋	-12.8857
咺	-12.8857
駍	-12.8858
狖	-12.886
忮	-12.8861
砰	-12.8861
惘	-12.8862
暧	-12.8862
胤	-12.8864
痺	-12.8865
隟	-12.8865
庱	-12.8866
遌	-12.8866
悪	-12.8866
彀	-12.8868
尭	-12.8868
矗	-12.8868
罻	-12.8869
惝	-12.8871
翛	-12.8871
遰	-12.8872
耔	-12.8873
适	-12.8873
崕	-12.8875
這	-12.8875
様	-12.8884
玃	-12.8886
癢	-12.8891
淙	-12.8897
虻	-12.8898
攍	-13.2028
矲	-13.2045
䑋	-13.2047
僷	-13.2051
䰂	-13.2057
紒	-13.2057
隑	-13.2062
觥	-13.2072
甀	-13.2072
艖	-13.2072
徥	-13.2074
鄷	-13.2076
􁛾	-13.2076
歰	-13.2078
襻	-13.2078
􁃵	-13.2086
喛	-13.2086
膐	-13.2086
倀	-13.2088
湑	-13.2088
徯	-13.2089
攗	-13.2089
䭒	-13.2089
洄	-13.209
㥾	-13.2091
鶤	-13.2093
遴	-13.2093
佂	-13.2093
嘼	-13.2093
摸	-13.2093
侠	-13.2095
隺	-13.2095
飵	-13.2095
廞	-13.2097
惽	-13.2097
惔	-13.2097
􁈿	-13.2097
啑	-13.2101
􁖻	-13.2101
肬	-13.2101
箊	-13.2103
橧	-13.2103
奧	-13.2103
籝	-13.2105
􁅨	-13.2105
艸	-13.2105
紩	-13.2105
粃	-13.2105
妯	-13.2105
疥	-13.2107
蔏	-13.2107
袚	-13.2107
窣	-13.2108
𤇺	-13.2109
磑	-13.2109
蚨	-13.2109
㛯	-13.2109
柲	-13.2109
眴	-13.2111
癘	-13.2111
澷	-13.2111
鐔	-13.2111
鶝	-13.2111
迒	-13.2112
旴	-13.2112
喢	-13.2113
啣	-13.2113
拌	-13.2113
媠	-13.2114
紕	-13.2114
娗	-13.2114
埳	-13.2115
謵	-13.2116
踠	-13.2116
錪	-13.2116
擏	-13.2116
䛳	-13.2116
䁙	-13.2116
簳	-13.2116
筳	-13.2118
鄀	-13.2118
㷭	-13.212
撟	-13.212
炁	-13.212
㫄	-13.212
悋	-13.212
瓞	-13.212
鴂	-13.2122
髭	-13.2122
帊	-13.2122
檋	-13.2124
䇶	-13.2124
螫	-13.2124
􁧂	-13.2124
婬	-13.2124
詬	-13.2124
壖	-13.2124
撑	-13.2124
蠾	-13.2124
鸒	-13.2126
䏁	-13.2126
澦	-13.2127
囓	-13.2128
墩	-13.2128
倯	-13.213
㫿	-13.213
殚	-13.213
戩	-13.2132
懾	-13.2132
鋋	-13.2132
㲄	-13.2132
浛	-13.2132
熿	-13.2132
絅	-13.2132
蛒	-13.2132
魾	-13.2132
麖	-13.2132
裯	-13.2133
黶	-13.2134
枋	-13.2134
縡	-13.2134
牾	-13.2136
㐲	-13.2136
埭	-13.2136
丰	-13.2136
嗽	-13.2136
膩	-13.2136
䀡	-13.2136
􁖵	-13.2136
傜	-13.2136
麰	-13.2136
凷	-13.2138
甗	-13.2138
蛆	-13.2138
敭	-13.2139
傀	-13.2139
欸	-13.2139
忭	-13.2139
幙	-13.214
蝓	-13.214
鱸	-13.214
矔	-13.214
􁏹	-13.214
窽	-13.214
螘	-13.2141
䖏	-13.2141
杠	-13.2141
滉	-13.2141
跬	-13.2141
晹	-13.2142
縗	-13.2142
帬	-13.2143
韔	-13.2143
樴	-13.2143
僔	-13.2143
稲	-13.2143
蚗	-13.2143
虯	-13.2143
鄽	-13.2143
踤	-13.2145
憭	-13.2145
苣	-13.2145
惙	-13.2145
胊	-13.2145
蓴	-13.2145
縰	-13.2145
䲧	-13.2145
啜	-13.2145
􁏋	-13.2145
梠	-13.2145
遹	-13.2146
怱	-13.2147
麽	-13.2147
嫵	-13.2147
塤	-13.2147
籀	-13.2147
堨	-13.2147
坌	-13.2147
妺	-13.2147
屭	-13.2147
皛	-13.2147
踝	-13.2147
㤿	-13.2147
埜	-13.2147
惷	-13.2147
惸	-13.2147
蠀	-13.2147
􁓣	-13.2147
嚻	-13.2149
瘖	-13.2149
謾	-13.2149
櫑	-13.2149
犒	-13.2149
鶵	-13.2149
苽	-13.2149
做	-13.2149
廿	-13.215
鳻	-13.2151
蓉	-13.2151
惛	-13.2151
吿	-13.2151
鱣	-13.2151
淟	-13.2151
撣	-13.2151
煤	-13.2151
箾	-13.2152
綯	-13.2153
剉	-13.2153
敇	-13.2153
禧	-13.2153
磷	-13.2153
誺	-13.2153
刧	-13.2153
灝	-13.2153
躅	-13.2153
楶	-13.2154
鏦	-13.2155
荇	-13.2155
茗	-13.2155
鼅	-13.2155
抆	-13.2155
衂	-13.2155
滷	-13.2155
箒	-13.2155
咮	-13.2155
爱	-13.2155
謏	-13.2155
鍬	-13.2155
𣆀	-13.2155
􁛀	-13.2155
禨	-13.2156
鵜	-13.2157
换	-13.2157
緦	-13.2157
涊	-13.2157
籃	-13.2157
匙	-13.2159
浥	-13.2159
貙	-13.2159
憊	-13.2159
騩	-13.2159
偭	-13.2159
橐	-13.2159
毚	-13.2159
潸	-13.2159
圮	-13.2159
惓	-13.2159
撼	-13.2159
鼷	-13.2159
㬓	-13.216
𣢾	-13.2161
蝘	-13.2161
冄	-13.2161
苓	-13.2161
𥚹	-13.2161
􁂻	-13.2161
漑	-13.2161
輣	-13.2161
媐	-13.2161
窊	-13.2161
頋	-13.2161
樅	-13.2161
袩	-13.2161
𫝊	-13.2162
纆	-13.2163
剌	-13.2163
䪥	-13.2163
荚	-13.2163
堕	-13.2164
鶼	-13.2164
樷	-13.2165
蛙	-13.2165
佔	-13.2165
撙	-13.2165
梔	-13.2165
澥	-13.2165
茆	-13.2165
螉	-13.2165
蔪	-13.2165
开	-13.2166
摠	-13.2166
濉	-13.2166
醞	-13.2167
䫻	-13.2167
曨	-13.2167
炷	-13.2167
罦	-13.2167
蟒	-13.2167
屇	-13.2168
噆	-13.2168
薶	-13.2168
瞹	-13.2168
篖	-13.2168
莋	-13.2168
菘	-13.2168
虖	-13.2168
蝽	-13.2168
諛	-13.2168
腒	-13.2169
沲	-13.217
轕	-13.217
㥄	-13.217
嘹	-13.217
凾	-13.217
籞	-13.217
輼	-13.2171
闉	-13.2172
萠	-13.2172
㑂	-13.2172
沍	-13.2172
㓪	-13.2172
卾	-13.2172
懕	-13.2172
讞	-13.2172
憗	-13.2173
瘢	-13.2174
箠	-13.2174
醊	-13.2174
􁈷	-13.2174
踳	-13.2176
􁈓	-13.2176
劑	-13.2176
錠	-13.2176
謎	-13.2177
䭾	-13.2177
滳	-13.2178
壄	-13.2178
嶙	-13.2178
浡	-13.2178
䃕	-13.2178
蘼	-13.2178
徤	-13.2178
碻	-13.2178
禠	-13.2178
种	-13.2178
寞	-13.2179
俳	-13.218
肪	-13.218
灊	-13.218
臛	-13.218
单	-13.218
哨	-13.218
菅	-13.218
剿	-13.218
􁆍	-13.2181
霈	-13.2182
垌	-13.2182
淈	-13.2182
蟺	-13.2182
欀	-13.2182
睚	-13.2182
􁧥	-13.2182
仔	-13.2183
鷫	-13.2183
懊	-13.2184
䑛	-13.2184
拈	-13.2184
嶃	-13.2184
埓	-13.2184
喑	-13.2184
忙	-13.2184
悆	-13.2184
諳	-13.2186
愒	-13.2186
沕	-13.2186
磥	-13.2186
奫	-13.2186
繂	-13.2186
罥	-13.2186
麫	-13.2187
跚	-13.2188
筯	-13.2188
兜	-13.219
瀄	-13.219
斈	-13.219
甃	-13.219
萆	-13.219
墱	-13.219
膬	-13.219
剏	-13.219
惚	-13.2191
抒	-13.2191
劓	-13.2192
虆	-13.2192
偒	-13.2192
偫	-13.2192
搉	-13.2192
茱	-13.2193
羂	-13.2193
𥅆	-13.2194
劘	-13.2194
竑	-13.2194
偓	-13.2194
謌	-13.2195
汛	-13.2195
秪	-13.2195
崯	-13.2197
贗	-13.2197
􁀾	-13.2197
菼	-13.2199
酲	-13.2199
脰	-13.2199
濺	-13.2201
忱	-13.2201
糴	-13.2201
憖	-13.2201
䌓	-13.2203
廕	-13.2203
愀	-13.2205
巉	-13.2205
苾	-13.2205
胾	-13.2207
癉	-13.2207
輵	-13.2207
諴	-13.2207
汞	-13.2209
徘	-13.2209
褁	-13.2211
趋	-13.2211
蠃	-13.2211
胞	-13.2213
朶	-13.2216
餙	-13.2217
踏	-13.2219
祍	-13.2221
􁽏	-13.2221
獷	-13.2222
仟	-13.2222
蝉	-13.2224
潚	-13.2228
㳤	-13.2229
弈	-13.224
灇	-13.2248
裊	-13.2255
欝	-13.2259
輨	-13.7016
􁖫	-13.7016
骹	-13.7019
竘	-13.7025
􁡍	-13.7025
嘴	-13.7034
㽹	-13.7034
啙	-13.7034
惃	-13.7034
愂	-13.7034
揫	-13.7034
眲	-13.7034
蟞	-13.7034
衇	-13.7034
讁	-13.7034
􁝳	-13.7034
㼚	-13.7038
㽀	-13.7041
侹	-13.7041
瓭	-13.7041
䫵	-13.7041
㡋	-13.7044
㶄	-13.7044
㼻	-13.7044
䍃	-13.7044
儓	-13.7044
悀	-13.7044
􁖕	-13.7044
􁖙	-13.7044
箙	-13.7047
㿿	-13.7047
䀀	-13.7047
屝	-13.7047
掍	-13.7047
揠	-13.7047
椷	-13.7047
盞	-13.7047
閜	-13.7047
􁑕	-13.7047
􁑖	-13.7047
䑄	-13.705
䈱	-13.705
䠆	-13.705
癁	-13.705
􁖦	-13.705
􁖱	-13.705
􁗦	-13.705
劋	-13.7053
籅	-13.7053
􁖲	-13.7053
糦	-13.7056
頜	-13.7056
􁈀	-13.7056
篷	-13.706
恔	-13.706
􁄭	-13.706
腎	-13.7063
鷱	-13.7063
錕	-13.7066
鍑	-13.7066
鷿	-13.7069
㷶	-13.7069
瘌	-13.7069
􁉲	-13.7069
猍	-13.7072
聓	-13.7072
㷅	-13.7072
芔	-13.7072
諑	-13.7072
釥	-13.7072
㥢	-13.7075
䕁	-13.7075
緉	-13.7075
瞷	-13.7078
􁖚	-13.7078
㧙	-13.7078
䠇	-13.7078
呬	-13.7078
摫	-13.7078
矤	-13.7078
鑙	-13.7078
􁅀	-13.7078
􁖤	-13.7078
鶊	-13.7081
瘱	-13.7082
菀	-13.7082
廋	-13.7085
嫭	-13.7085
憡	-13.7085
揞	-13.7085
撏	-13.7085
𧹞	-13.7085
􁖯	-13.7085
陭	-13.7088
勔	-13.7088
挴	-13.7088
餥	-13.7088
黸	-13.7091
緡	-13.7091
亄	-13.7091
娌	-13.7091
漎	-13.7091
筡	-13.7091
頖	-13.7091
􁋗	-13.7091
貕	-13.7094
㲻	-13.7094
掊	-13.7094
葼	-13.7094
魊	-13.7094
􁖴	-13.7094
㒌	-13.7097
徜	-13.7099
帀	-13.71
晲	-13.71
号	-13.71
裡	-13.71
䔖	-13.71
蜴	-13.7103
籓	-13.7104
㚟	-13.7104
䆛	-13.7104
蘴	-13.7104
蟝	-13.7104
􁇵	-13.7104
螔	-13.7107
牌	-13.7107
茇	-13.7107
㕹	-13.7107
儇	-13.7107
劵	-13.7107
甂	-13.7107
酳	-13.7108
壒	-13.711
戦	-13.711
蚰	-13.711
霪	-13.711
鄔	-13.7113
媟	-13.7113
摉	-13.7113
􁆑	-13.7113
惹	-13.7113
歊	-13.7113
㩌	-13.7116
貒	-13.7116
揀	-13.7116
桶	-13.7116
鉼	-13.7116
䉛	-13.7116
体	-13.7116
諼	-13.7116
鶗	-13.7116
抍	-13.7116
葰	-13.7116
􁂛	-13.7116
􁖐	-13.7116
􁣽	-13.7116
敲	-13.7119
纑	-13.7119
陿	-13.7119
贐	-13.7119
喊	-13.7119
曚	-13.7119
睺	-13.7119
酪	-13.7119
魃	-13.7119
㜲	-13.7119
䠛	-13.7119
􁖡	-13.7119
衙	-13.7122
䆠	-13.7122
欞	-13.7122
鸅	-13.7122
珤	-13.7122
坪	-13.7122
姼	-13.7122
擈	-13.7122
菓	-13.7122
鏞	-13.7122
􁎹	-13.7122
弤	-13.7122
弿	-13.7122
歾	-13.7122
餦	-13.7122
鵙	-13.7122
􁢾	-13.7122
酃	-13.7126
烜	-13.7126
縕	-13.7126
諟	-13.7126
姹	-13.7126
􁏜	-13.7126
𦦨	-13.7126
䁓	-13.7126
么	-13.7126
劳	-13.7126
鋡	-13.7126
郲	-13.7126
䂄	-13.7129
嫚	-13.7129
竞	-13.7129
蕡	-13.7129
潎	-13.7129
澂	-13.7129
璡	-13.7129
毆	-13.7129
㥏	-13.7129
䴭	-13.7129
伆	-13.7129
倭	-13.7129
凭	-13.7129
嘳	-13.7129
跰	-13.7129
􁖞	-13.7129
劈	-13.713
㯶	-13.7131
菉	-13.7132
埛	-13.7132
昲	-13.7132
䜿	-13.7132
愎	-13.7132
熢	-13.7132
澎	-13.7132
餬	-13.7132
黏	-13.7132
䓑	-13.7132
䴽	-13.7132
夬	-13.7132
彡	-13.7132
欱	-13.7132
紶	-13.7132
縏	-13.7132
螬	-13.7132
迵	-13.7132
鍛	-13.7132
郛	-13.7132
㨖	-13.7135
烘	-13.7135
眎	-13.7135
晶	-13.7135
梴	-13.7135
蚭	-13.7135
醸	-13.7135
㥷	-13.7135
㨆	-13.7135
䈔	-13.7135
僪	-13.7135
婓	-13.7135
眮	-13.7135
艐	-13.7135
觿	-13.7135
訔	-13.7135
槳	-13.7137
䖟	-13.7138
押	-13.7138
䝨	-13.7138
櫚	-13.7138
癩	-13.7138
褉	-13.7138
襠	-13.7138
怚	-13.7138
賡	-13.7138
賭	-13.7138
骫	-13.7138
􁇠	-13.7138
癖	-13.7138
䭔	-13.7138
棍	-13.7138
笫	-13.7138
纗	-13.7138
褖	-13.7138
襺	-13.7138
驁	-13.7138
峍	-13.7138
玘	-13.7138
楠	-13.714
靬	-13.7141
鑷	-13.7141
蚿	-13.7141
僂	-13.7141
麪	-13.7141
褌	-13.7141
䍚	-13.7141
嗌	-13.7141
獡	-13.7141
􁽐	-13.7141
吒	-13.7142
訂	-13.7143
麒	-13.7143
媫	-13.7144
琦	-13.7144
爆	-13.7144
瓘	-13.7144
碗	-13.7144
紬	-13.7144
蘗	-13.7144
鳸	-13.7144
㧖	-13.7144
㫋	-13.7144
暀	-13.7144
煕	-13.7144
硋	-13.7144
邜	-13.7144
郺	-13.7144
鈲	-13.7144
鍉	-13.7144
尓	-13.7145
籤	-13.7145
蚑	-13.7147
臮	-13.7148
奂	-13.7148
躒	-13.7148
輂	-13.7148
眚	-13.7148
礬	-13.7148
􁚙	-13.7148
榬	-13.7148
艻	-13.7148
􁖎	-13.7148
簨	-13.715
燹	-13.715
䄡	-13.715
呴	-13.7151
㟻	-13.7151
蓲	-13.7151
齕	-13.7151
剟	-13.7151
橛	-13.7151
絣	-13.7151
倞	-13.7151
処	-13.7151
另	-13.7151
変	-13.7151
暁	-13.7151
薯	-13.7151
誖	-13.7151
􁑑	-13.7151
罌	-13.7151
鑰	-13.7151
􁋆	-13.7151
􁱈	-13.7151
悕	-13.7154
荃	-13.7154
骼	-13.7154
贋	-13.7154
鵗	-13.7154
􁑼	-13.7154
献	-13.7154
訃	-13.7154
陼	-13.7154
䖹	-13.7154
圑	-13.7154
䎒	-13.7154
䴵	-13.7154
䵑	-13.7154
僄	-13.7154
篼	-13.7154
莤	-13.7154
蚼	-13.7154
訩	-13.7154
鉿	-13.7154
鍠	-13.7154
鐺	-13.7154
􁂰	-13.7154
􁕵	-13.7154
􁖮	-13.7154
􁞚	-13.7154
樁	-13.7155
删	-13.7156
甈	-13.7157
帚	-13.7157
鶅	-13.7157
羼	-13.7157
翣	-13.7157
鷷	-13.7157
儈	-13.7157
嫰	-13.7157
耡	-13.7157
迓	-13.7157
偵	-13.7157
炰	-13.7157
矸	-13.7157
鉟	-13.7157
雈	-13.7157
𫀆	-13.7157
􁖀	-13.7157
􁫗	-13.7157
恝	-13.7159
癰	-13.716
瘟	-13.716
箑	-13.716
憺	-13.716
潨	-13.716
稗	-13.716
㘭	-13.716
㘿	-13.716
㟪	-13.716
㩻	-13.716
忞	-13.716
慗	-13.716
捬	-13.716
摣	-13.716
洵	-13.716
韚	-13.716
鬌	-13.716
􁈏	-13.716
􁵰	-13.716
䳜	-13.7162
􁚫	-13.7162
侗	-13.7163
媺	-13.7163
鷸	-13.7163
鄫	-13.7163
淦	-13.7163
喫	-13.7163
园	-13.7163
婵	-13.7163
嵺	-13.7163
攴	-13.7163
漙	-13.7163
碍	-13.7163
繯	-13.7163
荂	-13.7163
鍱	-13.7163
鴚	-13.7163
鵷	-13.7163
􁐉	-13.7163
􁫷	-13.7163
漅	-13.7165
駹	-13.7165
轠	-13.7166
𣑽	-13.7166
咍	-13.7167
簋	-13.7167
柿	-13.7167
灸	-13.7167
鄞	-13.7167
䡄	-13.7167
棻	-13.7167
㩀	-13.7167
㰸	-13.7167
䈽	-13.7167
傋	-13.7167
呀	-13.7167
岪	-13.7167
扸	-13.7167
拽	-13.7167
揩	-13.7167
櫴	-13.7167
礿	-13.7167
籛	-13.7167
羕	-13.7167
蟓	-13.7167
觜	-13.7167
𣺌	-13.7167
􁒅	-13.7167
􁵚	-13.7167
賵	-13.7168
酥	-13.7168
葑	-13.7169
瘵	-13.717
髴	-13.717
狴	-13.717
蝤	-13.717
尢	-13.717
鋟	-13.717
庂	-13.717
櫃	-13.717
玷	-13.717
秸	-13.717
頞	-13.717
駉	-13.717
㖧	-13.717
㗲	-13.717
㯂	-13.717
呪	-13.717
􁖥	-13.717
禳	-13.717
芼	-13.717
喝	-13.7172
夗	-13.7173
蜾	-13.7173
􁑴	-13.7173
捋	-13.7173
􁊛	-13.7173
澱	-13.7173
篲	-13.7173
㒁	-13.7173
喀	-13.7173
搰	-13.7173
臿	-13.7173
蒭	-13.7173
蜇	-13.7173
鮓	-13.7173
鳿	-13.7173
麁	-13.7173
􁴢	-13.7173
甎	-13.7176
蠁	-13.7176
滃	-13.7176
㘽	-13.7176
槀	-13.7176
璀	-13.7176
傘	-13.7176
惨	-13.7176
槧	-13.7176
涎	-13.7176
澒	-13.7176
繖	-13.7176
䒼	-13.7176
灕	-13.7176
硊	-13.7176
絭	-13.7176
营	-13.7176
蛬	-13.7176
鄩	-13.7176
􁇻	-13.7176
􁋙	-13.7176
􁍒	-13.7176
􁢜	-13.7176
儐	-13.7179
柷	-13.7179
饔	-13.7179
𠻳	-13.7179
鞀	-13.7179
詼	-13.7179
匼	-13.7179
尨	-13.7179
􁳐	-13.7179
嗔	-13.7179
姤	-13.7179
崽	-13.7179
帕	-13.7179
矹	-13.7179
硉	-13.7179
銍	-13.7179
䢵	-13.7181
滙	-13.7182
玅	-13.7182
祌	-13.7182
䬀	-13.7182
䬟	-13.7182
嶬	-13.7182
慜	-13.7182
枒	-13.7182
摎	-13.7182
嗢	-13.7185
臇	-13.7185
鼃	-13.7185
㞦	-13.7185
弰	-13.7185
蛵	-13.7185
㽵	-13.7185
兊	-13.7185
徕	-13.7185
颼	-13.7185
􁪰	-13.7185
㸐	-13.7185
䡍	-13.7185
佈	-13.7185
俔	-13.7185
僎	-13.7185
撇	-13.7185
柍	-13.7185
湜	-13.7185
紃	-13.7185
翶	-13.7185
鍐	-13.7185
饜	-13.7185
􁛩	-13.7185
篻	-13.7188
囯	-13.7189
轙	-13.7189
罿	-13.7189
烋	-13.7189
磎	-13.7189
貼	-13.7189
􁈲	-13.7189
䛕	-13.7189
愰	-13.7189
岠	-13.7189
浞	-13.7189
漈	-13.7189
􁁎	-13.7189
抌	-13.7191
狃	-13.7191
挼	-13.7192
蕈	-13.7192
虰	-13.7192
嘷	-13.7192
囙	-13.7192
嶟	-13.7192
炘	-13.7192
􁁾	-13.7192
􁇆	-13.7192
蓆	-13.7193
鄊	-13.7193
昈	-13.7195
曭	-13.7195
縜	-13.7195
蔾	-13.7195
蕢	-13.7195
旝	-13.7195
柟	-13.7198
圴	-13.7198
狶	-13.7198
鷩	-13.7198
蜷	-13.7198
毈	-13.7198
谹	-13.7198
􁖍	-13.7198
擂	-13.7201
抶	-13.7201
猱	-13.7201
􁚁	-13.7201
欻	-13.7201
榝	-13.7201
輠	-13.7201
慠	-13.7203
䍐	-13.7204
琊	-13.7204
膿	-13.7204
􁕀	-13.7204
悾	-13.7204
齲	-13.7205
鶞	-13.7207
憞	-13.7207
淛	-13.7207
鷖	-13.7207
􁀍	-13.7207
㜸	-13.7207
軄	-13.721
曶	-13.7211
􁲍	-13.7211
㑉	-13.7211
姗	-13.7211
崪	-13.7211
怫	-13.7211
葸	-13.7211
鬃	-13.7211
姐	-13.7214
搤	-13.7214
剬	-13.7214
稌	-13.7214
缸	-13.7214
􁥧	-13.7214
哂	-13.7217
穨	-13.7217
韵	-13.7217
􁁅	-13.7217
屼	-13.7217
帰	-13.7217
簌	-13.7217
痩	-13.722
櫰	-13.722
咿	-13.7223
躧	-13.7223
䬠	-13.7223
偟	-13.7223
嵐	-13.7223
饛	-13.7223
洑	-13.7226
絇	-13.7226
咬	-13.7226
髄	-13.7226
亀	-13.723
礚	-13.723
繦	-13.7233
􁄜	-13.7233
㹈	-13.7233
騤	-13.7233
昺	-13.7236
塉	-13.7236
嬗	-13.7236
珎	-13.7236
餱	-13.7239
壕	-13.7239
肎	-13.7239
寀	-13.7239
䠞	-13.7239
捿	-13.7242
蕊	-13.7242
猫	-13.7245
痏	-13.7264
􁀌	-13.7277
踽	-13.7318
􁽎	-14.68
􁧁	-14.6801
􁖣	-14.6802
􁖓	-14.6803
􁖒	-14.6804
齷	-14.6805
齰	-14.6806
齬	-14.6807
齪	-14.6808
齟	-14.6809
齞	-14.681
鼮	-14.6811
鼦	-14.6812
麃	-14.6813
鹺	-14.6814
鸊	-14.6815
鵑	-14.6816
鴜	-14.6817
鳷	-14.6818
鱟	-14.6819
鰌	-14.682
鬆	-14.6821
骭	-14.6822
騕	-14.6823
駽	-14.6824
駔	-14.6825
饁	-14.6826
飌	-14.6827
顣	-14.6828
鞻	-14.6829
鞹	-14.683
鞌	-14.6831
隥	-14.6832
閧	-14.6833
鑼	-14.6834
鐻	-14.6835
鏝	-14.6836
鏌	-14.6837
鎻	-14.6838
鍋	-14.6839
錙	-14.684
鋺	-14.6841
鋣	-14.6842
鋂	-14.6843
鈒	-14.6844
釳	-14.6845
醺	-14.6846
醟	-14.6847
鄄	-14.6848
邶	-14.6849
逳	-14.685
迃	-14.6851
輹	-14.6852
輗	-14.6853
蹳	-14.6854
蹍	-14.6855
跣	-14.6856
趹	-14.6857
豖	-14.6858
豉	-14.6859
謱	-14.686
謰	-14.6861
誹	-14.6862
詛	-14.6863
詈	-14.6864
觳	-14.6865
觫	-14.6866
襵	-14.6867
裎	-14.6868
袷	-14.6869
袨	-14.687
袌	-14.6871
衲	-14.6872
衱	-14.6873
蠨	-14.6874
蠛	-14.6875
蠙	-14.6876
蟆	-14.6877
蝦	-14.6878
蝟	-14.6879
蛺	-14.688
蛥	-14.6881
蛁	-14.6882
蘸	-14.6883
蕕	-14.6884
蕆	-14.6885
蔘	-14.6886
蔂	-14.6887
蓞	-14.6888
葽	-14.6889
菂	-14.689
茰	-14.6891
芖	-14.6892
艒	-14.6893
臒	-14.6894
胔	-14.6895
罅	-14.6896
缽	-14.6897
繿	-14.6898
綻	-14.6899
紝	-14.69
糶	-14.6901
粺	-14.6902
簵	-14.6903
簦	-14.6904
簔	-14.6905
簏	-14.6906
篨	-14.6907
篣	-14.6908
箬	-14.6909
箝	-14.691
箖	-14.6911
筕	-14.6912
笯	-14.6913
笘	-14.6914
稺	-14.6915
稆	-14.6916
秺	-14.6917
秅	-14.6918
禕	-14.6919
礎	-14.692
硿	-14.6921
矉	-14.6922
瞤	-14.6923
眦	-14.6924
癑	-14.6925
疣	-14.6926
甊	-14.6927
琪	-14.6928
琕	-14.6929
琈	-14.693
珇	-14.6931
獒	-14.6932
獐	-14.6933
爬	-14.6934
熻	-14.6935
煅	-14.6936
烻	-14.6937
瀇	-14.6938
湌	-14.6939
渗	-14.694
洺	-14.6941
殮	-14.6942
䁑	-14.6942
䁡	-14.6942
曍	-14.6942
殜	-14.6943
歍	-14.6944
欋	-14.6945
欂	-14.6946
櫼	-14.6947
檜	-14.6948
橡	-14.6949
橚	-14.695
椯	-14.6951
椓	-14.6952
椉	-14.6953
棖	-14.6954
棐	-14.6955
桔	-14.6956
柁	-14.6957
枤	-14.6958
枅	-14.6959
杘	-14.696
暟	-14.6961
晱	-14.6962
敧	-14.6963
抾	-14.6964
抏	-14.6965
扢	-14.6966
䖘	-14.6966
憸	-14.6967
憝	-14.6968
慫	-14.6969
慂	-14.697
悺	-14.6971
恰	-14.6972
忪	-14.6973
廅	-14.6974
皾	-14.6974
袋	-14.6974
店	-14.6975
幨	-14.6976
幧	-14.6977
帞	-14.6978
嶻	-14.6979
嶭	-14.698
嶜	-14.6981
嶀	-14.6982
䋺	-14.6982
崺	-14.6983
崝	-14.6984
崃	-14.6985
峛	-14.6986
峋	-14.6987
岞	-14.6988
屜	-14.6989
宁	-14.699
㮥	-14.699
䶆	-14.699
睗	-14.699
嬺	-14.6991
嫳	-14.6992
媔	-14.6993
婷	-14.6994
婀	-14.6995
娬	-14.6996
娜	-14.6997
堧	-14.6998
㩴	-14.6998
㾈	-14.6998
䈿	-14.6998
䗔	-14.6998
憋	-14.6998
梱	-14.6998
檧	-14.6998
牓	-14.6998
堡	-14.6999
垁	-14.7
嚜	-14.7001
噣	-14.7002
唈	-14.7003
咳	-14.7004
咥	-14.7005
呶	-14.7006
㯃	-14.7006
䡺	-14.7006
嗅	-14.7006
圂	-14.7006
懱	-14.7006
瀧	-14.7006
痿	-14.7006
卲	-14.7007
匜	-14.7008
剰	-14.7009
冴	-14.701
偘	-14.7011
倔	-14.7012
倌	-14.7013
俙	-14.7014
㗤	-14.7014
㙛	-14.7014
㦒	-14.7014
㼖	-14.7014
䈐	-14.7014
䳚	-14.7014
件	-14.7014
凥	-14.7014
哳	-14.7014
媞	-14.7014
崥	-14.7014
帤	-14.7014
忚	-14.7014
攽	-14.7014
朹	-14.7014
瘎	-14.7014
侼	-14.7015
侐	-14.7016
伀	-14.7017
仮	-14.7018
両	-14.7019
丐	-14.702
䰎	-14.7021
䩕	-14.7022
㗔	-14.7022
䁺	-14.7022
僆	-14.7022
匽	-14.7022
嫓	-14.7022
孿	-14.7022
巸	-14.7022
慣	-14.7022
拇	-14.7022
槣	-14.7022
䧙	-14.7023
䥥	-14.7024
䜴	-14.7025
䜎	-14.7026
䙡	-14.7027
䘿	-14.7028
䘪	-14.7029
䘖	-14.703
䁲	-14.703
䋀	-14.703
䘨	-14.703
倇	-14.703
抈	-14.703
汋	-14.703
漮	-14.703
䗁	-14.7031
䓲	-14.7032
䑿	-14.7033
䏴	-14.7034
䏔	-14.7035
䋚	-14.7036
䃭	-14.7037
䀼	-14.7038
㙁	-14.7038
㩩	-14.7038
䐁	-14.7038
䒰	-14.7038
䙢	-14.7038
䧞	-14.7038
䫴	-14.7038
䵱	-14.7038
埝	-14.7038
婿	-14.7038
扱	-14.7038
扲	-14.7038
挌	-14.7038
擭	-14.7038
攋	-14.7038
璺	-14.7038
畣	-14.7038
癆	-14.7038
眤	-14.7038
瞵	-14.7038
碨	-14.7038
㽈	-14.7039
㼐	-14.704
㻬	-14.7041
㹠	-14.7042
㵳	-14.7043
㵟	-14.7044
㲈	-14.7045
㪷	-14.7046
㘈	-14.7046
㩒	-14.7046
䐜	-14.7046
䒀	-14.7046
僇	-14.7046
唭	-14.7046
喭	-14.7046
坁	-14.7046
庀	-14.7046
恌	-14.7046
抖	-14.7046
撈	-14.7046
斻	-14.7046
柎	-14.7046
㤰	-14.7047
㟿	-14.7048
㒧	-14.7049
㐜	-14.705
騊	-14.7051
駼	-14.7052
韲	-14.7053
靴	-14.7054
轘	-14.7054
㧻	-14.7054
㮪	-14.7054
㼶	-14.7054
䃷	-14.7054
䩜	-14.7054
䭓	-14.7054
䳫	-14.7054
伇	-14.7054
哿	-14.7054
嚙	-14.7054
悈	-14.7054
搪	-14.7054
淴	-14.7054
瘙	-14.7054
瘭	-14.7054
磈	-14.7054
釦	-14.7055
醽	-14.7056
醮	-14.7057
鄋	-14.7058
轗	-14.7059
跑	-14.706
趦	-14.7061
趄	-14.7062
㼡	-14.7062
䙔	-14.7062
䬯	-14.7062
䳕	-14.7062
仃	-14.7062
幭	-14.7062
攩	-14.7062
晫	-14.7062
濰	-14.7062
瓺	-14.7062
蝮	-14.7062
貅	-14.7063
裟	-14.7064
蠰	-14.7065
蝣	-14.7066
蝀	-14.7067
虀	-14.7068
蒱	-14.7069
莪	-14.707
㖪	-14.707
㯸	-14.707
䈪	-14.707
䵓	-14.707
䵨	-14.707
倅	-14.707
倓	-14.707
傖	-14.707
劙	-14.707
叀	-14.707
娋	-14.707
孅	-14.707
摵	-14.707
暓	-14.707
欚	-14.707
泭	-14.707
濎	-14.707
濴	-14.707
瓽	-14.707
疪	-14.707
痗	-14.707
瘇	-14.707
苡	-14.7071
芑	-14.7072
臷	-14.7073
胯	-14.7074
耤	-14.7075
繣	-14.7076
緲	-14.7077
籧	-14.7078
㓊	-14.7078
㶇	-14.7078
㼴	-14.7078
㼵	-14.7078
䀂	-14.7078
䋸	-14.7078
䎀	-14.7078
䬅	-14.7078
估	-14.7078
抉	-14.7078
掫	-14.7078
旆	-14.7078
昳	-14.7078
毱	-14.7078
珞	-14.7078
瓔	-14.7078
盰	-14.7078
睩	-14.7078
簹	-14.7079
篔	-14.708
禡	-14.7081
礒	-14.7082
磋	-14.7083
砢	-14.7084
珀	-14.7085
獌	-14.7086
㝎	-14.7086
㰏	-14.7086
㳊	-14.7086
㷈	-14.7086
㼰	-14.7086
㽄	-14.7086
䖆	-14.7086
䖻	-14.7086
䮾	-14.7086
䵍	-14.7086
俿	-14.7086
媓	-14.7086
幛	-14.7086
捆	-14.7086
楕	-14.7086
樏	-14.7086
樲	-14.7086
橢	-14.7086
泔	-14.7086
涬	-14.7086
灔	-14.7086
炖	-14.7086
焃	-14.7086
煓	-14.7086
爠	-14.7086
瘀	-14.7086
礱	-14.7086
艗	-14.7086
烙	-14.7087
灨	-14.7088
漦	-14.7089
滈	-14.709
洚	-14.7091
汍	-14.7092
殗	-14.7093
栟	-14.7094
髣	-14.7094
㓨	-14.7094
㔯	-14.7094
㦟	-14.7094
䚧	-14.7094
䜏	-14.7094
䳄	-14.7094
壍	-14.7094
孊	-14.7094
嶚	-14.7094
巗	-14.7094
拚	-14.7094
欐	-14.7094
狚	-14.7094
瘐	-14.7094
矑	-14.7094
硝	-14.7094
赮	-14.7094
枇	-14.7095
杷	-14.7096
晊	-14.7097
敳	-14.7098
抹	-14.7099
戭	-14.71
憍	-14.7101
恛	-14.7102
㡳	-14.7102
㤕	-14.7102
䖡	-14.7102
䟷	-14.7102
䠯	-14.7102
䬧	-14.7102
僈	-14.7102
勮	-14.7102
噄	-14.7102
嚘	-14.7102
垺	-14.7102
孛	-14.7102
忦	-14.7102
怤	-14.7102
愋	-14.7102
憵	-14.7102
拫	-14.7102
旺	-14.7102
梀	-14.7102
楴	-14.7102
淲	-14.7102
溓	-14.7102
烓	-14.7102
獏	-14.7102
皣	-14.7102
徭	-14.7103
彲	-14.7104
巃	-14.7105
嶣	-14.7106
岍	-14.7107
婼	-14.7108
婪	-14.7109
堳	-14.711
㦗	-14.711
䃀	-14.711
䎵	-14.711
䘴	-14.711
䬵	-14.711
䭉	-14.711
儃	-14.711
圅	-14.711
埢	-14.711
婩	-14.711
孠	-14.711
峕	-14.711
峪	-14.711
忖	-14.711
悷	-14.711
摴	-14.711
撚	-14.711
杝	-14.711
毣	-14.711
瑴	-14.711
眢	-14.711
坱	-14.7111
圠	-14.7112
嚭	-14.7113
唴	-14.7114
哰	-14.7115
䱉	-14.7116
㽥	-14.7117
㹀	-14.7118
燉	-14.7118
㔾	-14.7118
㗇	-14.7118
㜘	-14.7118
㬅	-14.7118
䊸	-14.7118
䌪	-14.7118
䖭	-14.7118
䗅	-14.7118
䙭	-14.7118
䴹	-14.7118
䵆	-14.7118
仝	-14.7118
喖	-14.7118
噞	-14.7118
圣	-14.7118
堈	-14.7118
墇	-14.7118
壉	-14.7118
娷	-14.7118
媌	-14.7118
岭	-14.7118
嶕	-14.7118
巆	-14.7118
悤	-14.7118
掜	-14.7118
撠	-14.7118
旉	-14.7118
棒	-14.7118
汏	-14.7118
港	-14.7118
漶	-14.7118
熺	-14.7118
玻	-14.7118
疉	-14.7118
眕	-14.7118
硏	-14.7118
㤨	-14.7119
㘓	-14.712
鼄	-14.7121
鸝	-14.7122
鷞	-14.7123
鶻	-14.7124
鱅	-14.7125
鱄	-14.7126
㡩	-14.7126
㷄	-14.7126
䱥	-14.7126
伻	-14.7126
凗	-14.7126
吂	-14.7126
囏	-14.7126
壳	-14.7126
娵	-14.7126
帡	-14.7126
恇	-14.7126
懝	-14.7126
懴	-14.7126
樎	-14.7126
檂	-14.7126
潕	-14.7126
灋	-14.7126
熂	-14.7126
瓈	-14.7126
睱	-14.7126
瞟	-14.7126
瞱	-14.7126
硖	-14.7126
秊	-14.7126
籕	-14.7126
鰅	-14.7127
髒	-14.7128
髑	-14.7129
骯	-14.713
闑	-14.7131
閌	-14.7132
鏩	-14.7133
銚	-14.7134
㒊	-14.7134
㖄	-14.7134
㠑	-14.7134
㮏	-14.7134
㲨	-14.7134
佴	-14.7134
变	-14.7134
嗞	-14.7134
圊	-14.7134
培	-14.7134
堲	-14.7134
妦	-14.7134
姸	-14.7134
媳	-14.7134
嫜	-14.7134
嫿	-14.7134
崨	-14.7134
嵱	-14.7134
嵷	-14.7134
嶫	-14.7134
惬	-14.7134
抨	-14.7134
捴	-14.7134
枘	-14.7134
樼	-14.7134
橊	-14.7134
橙	-14.7134
檦	-14.7134
欑	-14.7134
浻	-14.7134
涑	-14.7134
璁	-14.7134
璝	-14.7134
瓣	-14.7134
畞	-14.7134
釨	-14.7135
醨	-14.7136
鄼	-14.7137
鄮	-14.7138
唄	-14.7138
鄏	-14.7139
輾	-14.714
踸	-14.7141
跎	-14.7142
㓛	-14.7142
㬱	-14.7142
㰞	-14.7142
㲪	-14.7142
䙃	-14.7142
䱟	-14.7142
䳏	-14.7142
佅	-14.7142
傠	-14.7142
僘	-14.7142
凹	-14.7142
劎	-14.7142
勻	-14.7142
匧	-14.7142
厫	-14.7142
吱	-14.7142
呐	-14.7142
哻	-14.7142
堬	-14.7142
堽	-14.7142
墌	-14.7142
嫺	-14.7142
巣	-14.7142
廯	-14.7142
惧	-14.7142
戬	-14.7142
扑	-14.7142
扺	-14.7142
拃	-14.7142
掐	-14.7142
揥	-14.7142
揬	-14.7142
攉	-14.7142
旿	-14.7142
杫	-14.7142
桯	-14.7142
椸	-14.7142
榅	-14.7142
樺	-14.7142
毖	-14.7142
泪	-14.7142
溤	-14.7142
漘	-14.7142
焬	-14.7142
牑	-14.7142
珶	-14.7142
甽	-14.7142
疼	-14.7142
皬	-14.7142
瞭	-14.7142
矌	-14.7142
趯	-14.7143
赳	-14.7144
譊	-14.7145
蚺	-14.7146
瓖	-14.7146
蚡	-14.7147
蚍	-14.7148
薢	-14.7149
薝	-14.715
㠨	-14.715
㫤	-14.715
㬬	-14.715
㼀	-14.715
䄜	-14.715
䄠	-14.715
䎗	-14.715
䖤	-14.715
䗃	-14.715
䘯	-14.715
䘸	-14.715
䪻	-14.715
严	-14.715
你	-14.715
偎	-14.715
儴	-14.715
剱	-14.715
勘	-14.715
啒	-14.715
嗺	-14.715
囉	-14.715
囕	-14.715
圩	-14.715
埻	-14.715
嵳	-14.715
巑	-14.715
愡	-14.715
找	-14.715
抯	-14.715
撡	-14.715
敻	-14.715
晜	-14.715
梃	-14.715
梬	-14.715
樣	-14.715
歉	-14.715
殼	-14.715
涾	-14.715
湃	-14.715
湩	-14.715
濾	-14.715
焴	-14.715
犗	-14.715
瑲	-14.715
痰	-14.715
瘉	-14.715
碯	-14.715
碼	-14.715
絁	-14.715
綫	-14.715
薔	-14.7151
蔔	-14.7152
蔌	-14.7153
蒔	-14.7154
䊚	-14.7154
儡	-14.7154
萁	-14.7155
茩	-14.7156
芊	-14.7157
臑	-14.7158
㑶	-14.7159
㡞	-14.7159
㥅	-14.7159
㦥	-14.7159
㫒	-14.7159
㬢	-14.7159
㮦	-14.7159
㮳	-14.7159
㵕	-14.7159
㺒	-14.7159
㻛	-14.7159
䋎	-14.7159
䘃	-14.7159
䘹	-14.7159
䙝	-14.7159
䧢	-14.7159
䰇	-14.7159
䳘	-14.7159
䴊	-14.7159
傚	-14.7159
冿	-14.7159
凙	-14.7159
厷	-14.7159
圁	-14.7159
埌	-14.7159
嶝	-14.7159
帍	-14.7159
帪	-14.7159
慌	-14.7159
懤	-14.7159
扮	-14.7159
担	-14.7159
捈	-14.7159
擴	-14.7159
朖	-14.7159
柬	-14.7159
欖	-14.7159
洨	-14.7159
湞	-14.7159
澓	-14.7159
灮	-14.7159
犖	-14.7159
璚	-14.7159
畍	-14.7159
皿	-14.7159
睆	-14.7159
硨	-14.7159
磲	-14.7159
腑	-14.7159
羃	-14.716
筲	-14.7161
窄	-14.7162
㛠	-14.7163
䑽	-14.7163
䪕	-14.7163
侁	-14.7163
熄	-14.7163
瘈	-14.7163
眧	-14.7163
碾	-14.7163
磳	-14.7163
硱	-14.7164
崍	-14.7165
盩	-14.7165
䑠	-14.7166
恟	-14.7166
磕	-14.7166
禩	-14.7166
玁	-14.7166
搘	-14.7166
搣	-14.7166
䂥	-14.7166
琉	-14.7166
㘩	-14.7167
㣣	-14.7167
㣼	-14.7167
㧾	-14.7167
㪯	-14.7167
㭙	-14.7167
㷸	-14.7167
䋶	-14.7167
䍿	-14.7167
䔍	-14.7167
䖝	-14.7167
䗐	-14.7167
䗥	-14.7167
䠶	-14.7167
䧿	-14.7167
䮽	-14.7167
䵃	-14.7167
佖	-14.7167
偊	-14.7167
偨	-14.7167
偱	-14.7167
傂	-14.7167
僡	-14.7167
刅	-14.7167
刲	-14.7167
券	-14.7167
剜	-14.7167
厰	-14.7167
吡	-14.7167
呹	-14.7167
喿	-14.7167
圥	-14.7167
坷	-14.7167
埴	-14.7167
堠	-14.7167
墡	-14.7167
墦	-14.7167
宧	-14.7167
屖	-14.7167
屴	-14.7167
嵊	-14.7167
帟	-14.7167
弥	-14.7167
彋	-14.7167
憯	-14.7167
懭	-14.7167
捼	-14.7167
搷	-14.7167
擑	-14.7167
攎	-14.7167
旓	-14.7167
暵	-14.7167
殹	-14.7167
涒	-14.7167
溈	-14.7167
漴	-14.7167
潑	-14.7167
濙	-14.7167
炒	-14.7167
煽	-14.7167
熨	-14.7167
獝	-14.7167
畟	-14.7167
痔	-14.7167
癕	-14.7167
睪	-14.7167
矖	-14.7167
砦	-14.7167
硣	-14.7167
硬	-14.7167
碪	-14.7167
祅	-14.7167
薑	-14.7167
蚴	-14.7167
獅	-14.7167
䚕	-14.7168
狧	-14.7168
搯	-14.7169
瀺	-14.7169
冾	-14.717
漝	-14.717
㯮	-14.7171
侄	-14.7171
垜	-14.7171
懺	-14.7171
戺	-14.7171
气	-14.7171
滬	-14.7171
獼	-14.7171
滹	-14.7171
滏	-14.7172
溰	-14.7173
廧	-14.7174
㕧	-14.7175
㡛	-14.7175
㨶	-14.7175
䅈	-14.7175
䆁	-14.7175
䌞	-14.7175
䒹	-14.7175
䓆	-14.7175
䦕	-14.7175
䨬	-14.7175
䳌	-14.7175
䳵	-14.7175
傎	-14.7175
儂	-14.7175
呻	-14.7175
咅	-14.7175
哆	-14.7175
噑	-14.7175
嚇	-14.7175
埿	-14.7175
堛	-14.7175
塿	-14.7175
墲	-14.7175
娄	-14.7175
峿	-14.7175
嵪	-14.7175
嶪	-14.7175
很	-14.7175
忲	-14.7175
懀	-14.7175
掦	-14.7175
晧	-14.7175
曤	-14.7175
朩	-14.7175
朮	-14.7175
杆	-14.7175
梩	-14.7175
橰	-14.7175
滆	-14.7175
獿	-14.7175
玹	-14.7175
瑂	-14.7175
疁	-14.7175
磟	-14.7175
禛	-14.7175
秡	-14.7175
帗	-14.7175
尻	-14.7176
躑	-14.7177
嬿	-14.7177
嫽	-14.7178
嫘	-14.7179
媦	-14.718
嘬	-14.7181
匆	-14.7182
㓮	-14.7183
㝅	-14.7183
㟎	-14.7183
㟼	-14.7183
㵿	-14.7183
㺄	-14.7183
䀨	-14.7183
䁨	-14.7183
䃿	-14.7183
䇣	-14.7183
䦘	-14.7183
䳨	-14.7183
伹	-14.7183
呆	-14.7183
呦	-14.7183
妘	-14.7183
娈	-14.7183
嵌	-14.7183
帢	-14.7183
庽	-14.7183
彏	-14.7183
拷	-14.7183
据	-14.7183
捻	-14.7183
撍	-14.7183
昫	-14.7183
柫	-14.7183
栾	-14.7183
椴	-14.7183
洟	-14.7183
溲	-14.7183
滫	-14.7183
犛	-14.7183
猰	-14.7183
痟	-14.7183
眝	-14.7183
瞥	-14.7183
匃	-14.7183
僾	-14.7184
侘	-14.7185
仡	-14.7186
䓤	-14.7187
䂦	-14.7188
㯹	-14.7189
黽	-14.719
㒃	-14.7191
㭊	-14.7191
㿽	-14.7191
䈤	-14.7191
䙚	-14.7191
䚩	-14.7191
䪨	-14.7191
勠	-14.7191
嗄	-14.7191
堒	-14.7191
墬	-14.7191
嬲	-14.7191
屹	-14.7191
幦	-14.7191
愊	-14.7191
憢	-14.7191
扤	-14.7191
暏	-14.7191
杉	-14.7191
桲	-14.7191
棰	-14.7191
椵	-14.7191
殍	-14.7191
毉	-14.7191
済	-14.7191
爓	-14.7191
瘣	-14.7191
眃	-14.7191
矘	-14.7191
磓	-14.7191
魎	-14.7191
魍	-14.7192
餮	-14.7193
閿	-14.7194
酩	-14.7195
酊	-14.7196
躞	-14.7197
蕰	-14.7198
崙	-14.7198
鄲	-14.7199
㖒	-14.7199
㭈	-14.7199
㮨	-14.7199
㯕	-14.7199
㴞	-14.7199
㴵	-14.7199
䇲	-14.7199
䥩	-14.7199
侻	-14.7199
傿	-14.7199
剓	-14.7199
卨	-14.7199
叵	-14.7199
呷	-14.7199
屶	-14.7199
崞	-14.7199
揲	-14.7199
摚	-14.7199
曌	-14.7199
桭	-14.7199
桼	-14.7199
楢	-14.7199
樘	-14.7199
櫖	-14.7199
泙	-14.7199
潧	-14.7199
濭	-14.7199
焫	-14.7199
煗	-14.7199
熮	-14.7199
祽	-14.7199
羑	-14.7199
綌	-14.72
篌	-14.7201
箜	-14.7202
璲	-14.7203
瑨	-14.7204
澘	-14.7205
歈	-14.7206
旖	-14.7207
㙻	-14.7207
㟭	-14.7207
㮣	-14.7207
㸦	-14.7207
偯	-14.7207
寠	-14.7207
戁	-14.7207
扅	-14.7207
昜	-14.7207
柸	-14.7207
栧	-14.7207
桒	-14.7207
槭	-14.7207
樾	-14.7207
檵	-14.7207
滭	-14.7207
熸	-14.7207
疐	-14.7207
痒	-14.7207
旎	-14.7208
摳	-14.7209
嶒	-14.721
崘	-14.7211
疈	-14.7211
嬙	-14.7212
嫫	-14.7213
嫦	-14.7214
娀	-14.7215
㕮	-14.7215
䗕	-14.7215
䨥	-14.7215
䫟	-14.7215
凳	-14.7215
哴	-14.7215
塪	-14.7215
怗	-14.7215
掔	-14.7215
欎	-14.7215
瀐	-14.7215
狻	-14.7215
畾	-14.7215
瞪	-14.7215
硌	-14.7215
磝	-14.7215
僬	-14.7216
佺	-14.7217
㠝	-14.7218
韱	-14.7219
阸	-14.722
釃	-14.7221
酺	-14.7222
郟	-14.7223
㟓	-14.7223
㣿	-14.7223
㩁	-14.7223
䲋	-14.7223
刦	-14.7223
勖	-14.7223
噈	-14.7223
寑	-14.7223
彠	-14.7223
恫	-14.7223
懜	-14.7223
拪	-14.7223
拿	-14.7223
摟	-14.7223
栲	-14.7223
梂	-14.7223
涷	-14.7223
瀹	-14.7223
犄	-14.7223
猊	-14.7223
瑑	-14.7223
瓛	-14.7223
町	-14.7223
蝠	-14.7224
蝙	-14.7225
葡	-14.7226
菡	-14.7227
茝	-14.7228
翎	-14.7229
羖	-14.723
籋	-14.7231
㐶	-14.7231
㞹	-14.7231
㟅	-14.7231
㟴	-14.7231
㥜	-14.7231
㩱	-14.7231
㾗	-14.7231
䡋	-14.7231
䥫	-14.7231
倥	-14.7231
囋	-14.7231
宂	-14.7231
岎	-14.7231
岒	-14.7231
峗	-14.7231
崼	-14.7231
嵃	-14.7231
嵑	-14.7231
嶋	-14.7231
嶵	-14.7231
戛	-14.7231
捖	-14.7231
摼	-14.7231
晬	-14.7231
楡	-14.7231
猵	-14.7231
獑	-14.7231
瑘	-14.7231
璖	-14.7231
磍	-14.7231
祵	-14.7231
秔	-14.7231
禴	-14.7232
祺	-14.7233
澮	-14.7234
溽	-14.7235
榔	-14.7236
戔	-14.7237
戇	-14.7238
悢	-14.7239
㦤	-14.7239
与	-14.7239
佷	-14.7239
婞	-14.7239
歯	-14.7239
漓	-14.7239
玞	-14.7239
珷	-14.7239
瞍	-14.7239
秖	-14.7239
怏	-14.724
嫖	-14.7241
姮	-14.7242
埵	-14.7243
喤	-14.7244
厔	-14.7245
努	-14.7246
䊧	-14.7247
㦲	-14.7247
傱	-14.7247
嚊	-14.7247
岋	-14.7247
嵁	-14.7247
挒	-14.7247
枊	-14.7247
濈	-14.7247
濔	-14.7247
蘤	-14.7247
㯽	-14.7248
驊	-14.7249
郸	-14.725
紞	-14.7251
簀	-14.7252
窫	-14.7253
琥	-14.7254
塏	-14.7255
㒹	-14.7255
墧	-14.7255
墯	-14.7255
扡	-14.7255
敔	-14.7255
湹	-14.7255
狿	-14.7255
獱	-14.7255
佽	-14.7256
个	-14.7257
㛹	-14.7258
饉	-14.7259
郕	-14.726
踖	-14.7261
誾	-14.7262
蝴	-14.7263
㟍	-14.7263
䲛	-14.7263
傴	-14.7263
岓	-14.7263
嵣	-14.7263
巄	-14.7263
憣	-14.7263
摲	-14.7263
洓	-14.7263
浱	-14.7263
瑌	-14.7263
畷	-14.7263
瞧	-14.7263
蕞	-14.7264
艅	-14.7265
臟	-14.7266
耏	-14.7267
瞞	-14.7268
牁	-14.7269
淅	-14.727
怔	-14.7271
㼾	-14.7271
摡	-14.7271
暾	-14.7271
甋	-14.7271
睃	-14.7271
嗈	-14.7272
剄	-14.7273
鎡	-14.7274
邲	-14.7275
邂	-14.7276
褸	-14.7277
猩	-14.7278
牱	-14.7279
㭬	-14.7279
䬼	-14.7279
伕	-14.7279
寍	-14.7279
瀁	-14.728
欃	-14.7281
擐	-14.7282
峥	-14.7283
咆	-14.7284
駙	-14.7285
趪	-14.7286
艎	-14.7287
㶑	-14.7287
䇔	-14.7287
嘄	-14.7287
敡	-14.7287
斉	-14.7287
梦	-14.7287
潵	-14.7287
磊	-14.7288
磁	-14.7289
瑠	-14.729
狁	-14.7291
焞	-14.7292
湣	-14.7293
氤	-14.7294
喁	-14.7295
枙	-14.7295
槫	-14.7295
欨	-14.7295
溏	-14.7295
禝	-14.7295
僶	-14.7296
黌	-14.7297
瑙	-14.7298
侏	-14.7299
驦	-14.73
驌	-14.7301
璵	-14.7302
渦	-14.7303
泚	-14.7303
瞫	-14.7303
嫋	-14.7304
讜	-14.7305
琶	-14.7306
琵	-14.7307
珊	-14.7308
瀟	-14.7309
褓	-14.731
芃	-14.7311
嘰	-14.7311
繽	-14.7312
獬	-14.7313
媧	-14.7314
娘	-14.7315
菁	-14.7316
䍦	-14.7317
嵫	-14.7318
崦	-14.7319
䨴	-14.7319
伭	-14.7319
匊	-14.7319
嚥	-14.7319
慆	-14.7319
搭	-14.7319
墋	-14.732
駘	-14.7321
豸	-14.7322
萄	-14.7323
畹	-14.7324
悄	-14.7325
蟋	-14.7326
瀚	-14.7327
埆	-14.7328
峡	-14.7328
膴	-14.7329
蒀	-14.733
昉	-14.7331
閬	-14.7332
畎	-14.7333
峒	-14.7334
喈	-14.7335
磻	-14.7336
翡	-14.7337
忉	-14.7338
蹰	-14.7339
鵡	-14.734
逶	-14.7341
婕	-14.7342
萋	-14.7343
悗	-14.7344
颻	-14.7344
