<unk>	0
<s>	0
</s>	0
之	-3.66722
而	-4.61588
也	-4.62327
以	-4.75311
爲	-4.8235
不	-4.8306
其	-4.92089
有	-4.96339
者	-4.96378
人	-5.17827
一	-5.21746
無	-5.24342
曰	-5.33057
於	-5.34526
)	-5.39157
(	-5.40038
大	-5.46644
則	-5.48752
天	-5.49623
生	-5.66691
道	-5.68135
上	-5.68764
子	-5.74948
自	-5.78604
三	-5.80349
中	-5.85616
與	-5.85684
行	-5.8583
神	-5.88514
此	-5.90162
/	-5.91776
言	-5.92614
心	-5.94947
至	-5.97081
得	-5.97245
如	-5.97688
在	-5.98534
故	-5.99344
乎	-6.00011
矣	-6.00155
王	-6.02186
事	-6.02574
日	-6.03281
所	-6.03308
是	-6.03346
見	-6.07418
非	-6.08225
知	-6.09379
時	-6.09969
下	-6.15221
若	-6.15805
相	-6.16659
明	-6.18814
山	-6.18991
四	-6.19328
二	-6.19512
然	-6.20204
五	-6.22224
水	-6.22506
于	-6.226
我	-6.23446
皆	-6.23913
乃	-6.28297
可	-6.31161
成	-6.32147
何	-6.35612
公	-6.36097
身	-6.37655
能	-6.38173
金	-6.3989
亦	-6.40843
名	-6.4164
命	-6.43905
作	-6.45361
君	-6.45414
出	-6.45841
正	-6.46403
同	-6.46522
用	-6.46898
氣	-6.48939
來	-6.49303
未	-6.4967
文	-6.49672
世	-6.49775
德	-6.49918
使	-6.51508
主	-6.52028
今	-6.53006
又	-6.53157
⬤	-6.5374
民	-6.54361
九	-6.54707
靈	-6.54906
方	-6.55493
國	-6.55675
安	-6.55983
當	-6.56327
復	-6.56528
法	-6.58707
入	-6.58727
光	-6.59491
或	-6.60541
經	-6.607
後	-6.6171
帝	-6.62058
書	-6.63123
及	-6.63209
欲	-6.63581
吾	-6.64123
玄	-6.64437
物	-6.64729
諸	-6.64944
化	-6.65618
地	-6.65869
六	-6.66505
長	-6.66646
眞	-6.67731
哉	-6.68466
夫	-6.68487
家	-6.69218
焉	-6.69471
即	-6.70598
將	-6.71023
居	-6.71513
善	-6.72097
聖	-6.72254
多	-6.72653
宫	-6.74154
陽	-6.74187
星	-6.74426
必	-6.74618
▁	-6.74728
立	-6.74833
從	-6.7517
官	-6.7544
年	-6.76544
常	-6.77153
已	-6.77627
風	-6.78329
八	-6.789
龍	-6.78934
不可	-6.79431
聞	-6.80237
去	-6.80263
高	-6.80985
雲	-6.81214
扵	-6.81601
元	-6.8232
福	-6.82392
前	-6.82624
重	-6.8276
初	-6.82783
仙	-6.8349
雖	-6.83598
石	-6.83601
門	-6.83795
死	-6.84091
東	-6.84137
分	-6.84338
玉	-6.84876
本	-6.85423
難	-6.85454
觀	-6.85472
臣	-6.865
禮	-6.87716
過	-6.89105
天下	-6.89112
師	-6.89502
應	-6.89536
異	-6.90608
萬	-6.91048
度	-6.91196
利	-6.91692
衆	-6.92088
七	-6.92437
信	-6.92538
)(	-6.92612
始	-6.92813
謂	-6.9571
通	-6.96464
火	-6.97028
處	-6.97414
樂	-6.99178
傳	-6.99338
朝	-7.00083
先	-7.00221
平	-7.00819
不能	-7.01569
月	-7.01686
歸	-7.01693
云	-7.01795
惟	-7.0206
耳	-7.02228
起	-7.02363
周	-7.02447
因	-7.02859
盡	-7.03341
形	-7.03551
數	-7.03731
白	-7.04004
遂	-7.04054
合	-7.04435
小	-7.04451
女	-7.0454
外	-7.05128
失	-7.05734
而不	-7.06646
南	-7.06834
内	-7.07298
令	-7.07595
求	-7.07868
清	-7.0841
意	-7.08493
定	-7.08943
問	-7.09306
終	-7.09945
土	-7.10735
流	-7.11174
易	-7.12192
受	-7.12264
惡	-7.12531
和	-7.12624
既	-7.12687
義	-7.13209
親	-7.14529
太	-7.14786
守	-7.15456
位	-7.16821
莫	-7.16933
且	-7.17427
西	-7.1771
獨	-7.18182
字	-7.18228
實	-7.18474
止	-7.18514
木	-7.18726
仁	-7.18737
百	-7.19135
學	-7.19141
理	-7.19181
空	-7.19331
十	-7.19361
以爲	-7.19414
功	-7.19475
章	-7.1987
士	-7.20246
宜	-7.20441
教	-7.20711
說	-7.20947
治	-7.21415
會	-7.21919
宗	-7.22537
順	-7.24151
氏	-7.24279
彼	-7.24445
飛	-7.25017
馬	-7.25217
張	-7.25629
貴	-7.25828
性	-7.26148
稱	-7.26389
變	-7.26512
取	-7.2701
皇	-7.27187
徃	-7.27204
吉	-7.27261
少	-7.27974
真	-7.28009
喜	-7.28043
凡	-7.28184
開	-7.28694
志	-7.28756
華	-7.28839
妙	-7.29427
聲	-7.2947
齊	-7.29512
深	-7.29863
黄	-7.30471
精	-7.30573
極	-7.30716
食	-7.30797
己	-7.31234
遇	-7.31327
父	-7.31428
動	-7.31631
尊	-7.31803
母	-7.32248
望	-7.32673
老	-7.32725
之所	-7.33185
等	-7.33428
足	-7.33502
益	-7.33689
所以	-7.34051
封	-7.34321
為	-7.34407
思	-7.34671
服	-7.3499
反	-7.35271
猶	-7.3578
舉	-7.35909
願	-7.36784
憂	-7.37
興	-7.37217
兩	-7.37267
論	-7.37278
爾	-7.37662
直	-7.3781
加	-7.38348
色	-7.38499
亂	-7.38609
亡	-7.38624
賢	-7.39114
奉	-7.3921
尚	-7.39426
體	-7.39551
力	-7.39707
存	-7.39709
間	-7.40292
坐	-7.40383
好	-7.40654
發	-7.41363
節	-7.41439
祖	-7.41573
號	-7.42132
豈	-7.42187
致	-7.42698
青	-7.43119
漢	-7.43121
斯	-7.43171
各	-7.43401
衣	-7.43488
還	-7.43626
建	-7.44279
蓋	-7.44344
海	-7.44655
邪	-7.4497
古	-7.45132
兵	-7.45281
州	-7.45416
北	-7.46747
誠	-7.47501
千	-7.479
請	-7.48156
語	-7.48309
降	-7.48373
告	-7.48649
制	-7.49502
君子	-7.49816
登	-7.50157
不知	-7.50526
伯	-7.50636
目	-7.50875
更	-7.51009
虛	-7.51224
天地	-7.51262
洞	-7.51384
雨	-7.51552
離	-7.51683
進	-7.51825
絶	-7.52266
任	-7.52516
隂	-7.52531
丹	-7.52569
臨	-7.52596
全	-7.52987
視	-7.53192
歲	-7.53263
口	-7.5372
武	-7.53793
傷	-7.55268
修	-7.55287
春	-7.55566
念	-7.55812
甚	-7.55931
保	-7.56151
愛	-7.56212
隨	-7.57097
可以	-7.57156
俱	-7.57704
由	-7.57781
交	-7.57798
陳	-7.58238
所謂	-7.58424
固	-7.58543
象	-7.59528
夜	-7.59701
害	-7.59769
兮	-7.59927
室	-7.60071
遊	-7.60239
香	-7.60607
照	-7.61106
詩	-7.61309
廣	-7.61335
次	-7.62224
罪	-7.62328
鬼	-7.62457
運	-7.63283
業	-7.63474
殺	-7.63522
持	-7.64113
載	-7.64184
息	-7.64716
頭	-7.64997
解	-7.65896
河	-7.6612
永	-7.66433
向	-7.66881
汝	-7.67067
濟	-7.67197
敬	-7.67285
乾	-7.67646
要	-7.67692
予	-7.67828
宋	-7.67841
果	-7.68303
寳	-7.68486
壽	-7.68551
遠	-7.68586
恩	-7.68619
孝	-7.68712
苦	-7.6877
嘗	-7.68955
符	-7.69044
景	-7.69094
侯	-7.69217
紫	-7.69288
乘	-7.69567
執	-7.69678
辭	-7.69751
財	-7.69966
夏	-7.70157
廟	-7.70519
禍	-7.70683
感	-7.70781
記	-7.70845
府	-7.71731
司	-7.72002
録曰	-7.72005
首	-7.72332
顯	-7.72528
城	-7.72716
勝	-7.73211
聖人	-7.73211
自然	-7.73433
政	-7.73646
不得	-7.73788
田	-7.73884
秦	-7.73912
比	-7.74002
凶	-7.74111
代	-7.74421
疾	-7.74492
伏	-7.74895
都	-7.76202
養	-7.76644
音	-7.76982
除	-7.77336
車	-7.77403
情	-7.77487
疑	-7.78078
窮	-7.78145
病	-7.78199
賜	-7.78886
拜	-7.78909
殿	-7.79218
危	-7.79279
圖	-7.79386
智	-7.79782
陰	-7.80181
巳	-7.80202
計	-7.80492
昭	-7.80571
宣	-7.80584
但	-7.80617
卷	-7.80794
刑	-7.81626
報	-7.81917
手	-7.821
也夫	-7.82131
左	-7.82209
並	-7.83257
施	-7.83321
孫	-7.83583
患	-7.83623
遺	-7.84229
徒	-7.84377
虎	-7.84773
辰	-7.8494
申	-7.85555
者也	-7.85615
美	-7.85886
近	-7.85897
便	-7.86015
散	-7.86145
特	-7.86261
許	-7.86279
李	-7.86788
崇	-7.86869
唐	-7.87022
授	-7.87302
右	-7.87674
藏	-7.87879
召	-7.87966
里	-7.8813
酒	-7.88604
久	-7.88799
萬物	-7.8918
慶	-7.89222
堂	-7.89271
羅	-7.89387
卒	-7.89596
對	-7.89642
指	-7.89714
秋	-7.90022
御	-7.90371
十二	-7.9042
表	-7.90587
屬	-7.90658
靜	-7.90843
敢	-7.90882
就	-7.91207
□	-7.9135
魯	-7.9176
承	-7.92002
宿	-7.9211
澤	-7.92226
路	-7.92319
无	-7.92354
貞	-7.92402
誰	-7.92709
江	-7.92742
咸	-7.93264
忠	-7.93437
仰	-7.93448
幽	-7.93698
轉	-7.93701
良	-7.93855
達	-7.93869
耶	-7.9388
奏	-7.94102
虚	-7.94107
强	-7.94463
后	-7.94496
而後	-7.9475
禄	-7.94808
須	-7.95107
脩	-7.95541
權	-7.96124
獻	-7.96142
忘	-7.96273
著	-7.96429
○	-7.96517
幾	-7.96589
到	-7.97015
識	-7.97055
惠	-7.97234
破	-7.97244
共	-7.97488
結	-7.97491
人之	-7.97657
舊	-7.97667
列	-7.97703
寧	-7.97811
徳	-7.97931
花	-7.98122
休	-7.98375
剛	-7.98466
泉	-7.98511
弗	-7.98556
盛	-7.98603
適	-7.98724
謂之	-7.98761
每	-7.99174
牛	-7.99406
容	-7.99488
蒙	-7.99888
壇	-8.00067
無所	-8.00497
林	-8.00514
根	-8.00625
唯	-8.00669
微	-8.00674
其所	-8.01024
端	-8.01159
新	-8.01963
寒	-8.02094
滅	-8.02296
魚	-8.02303
慈	-8.02509
輔	-8.02533
日月	-8.02653
勞	-8.02724
留	-8.02785
待	-8.02785
泰山	-8.02888
戒	-8.03038
祀	-8.03267
臺	-8.03371
滿	-8.03431
議	-8.03629
真人	-8.0363
謀	-8.0382
史	-8.04364
落	-8.04371
期	-8.04376
斗	-8.04608
面	-8.04898
職	-8.05063
祠	-8.05083
造	-8.05214
畢	-8.0527
聽	-8.05279
隱	-8.05664
庭	-8.05757
泰	-8.06076
輕	-8.06161
回	-8.06176
獲	-8.06231
别	-8.06345
依	-8.06413
先生	-8.06427
齋	-8.06591
夢	-8.0664
謝	-8.07101
履	-8.07118
斷	-8.07166
按	-8.07314
設	-8.07324
損	-8.07771
恐	-8.0782
餘	-8.07836
才	-8.08071
客	-8.08127
驚	-8.08321
歌	-8.08352
藥	-8.08397
群	-8.0852
素	-8.08687
集	-8.0904
卦	-8.0911
爭	-8.09281
關	-8.09295
震	-8.09533
品	-8.09542
威	-8.09819
喪	-8.0997
退	-8.09978
坤	-8.10026
詔	-8.10213
推	-8.10474
十五	-8.10687
具	-8.10736
雷	-8.10919
午	-8.10934
似	-8.10959
故曰	-8.11063
灾	-8.1121
井	-8.11234
備	-8.1126
紀	-8.11455
厚	-8.1168
塵	-8.1175
昔	-8.11985
梁	-8.12384
嚴	-8.12733
甲	-8.12892
妄	-8.13082
儀	-8.13111
柔	-8.13589
季	-8.1362
富	-8.1375
累	-8.13995
顧	-8.14112
而已	-8.1432
俗	-8.14345
衛	-8.14487
佛	-8.14909
夷	-8.15263
積	-8.15663
孤	-8.15733
冠	-8.15883
野	-8.15915
機	-8.16039
類	-8.16042
典	-8.16157
逆	-8.1633
卿	-8.16413
寅	-8.16454
一切	-8.1649
忽	-8.16535
再	-8.16767
不見	-8.17077
考	-8.1727
赤	-8.17567
免	-8.17824
鳥	-8.18038
懷	-8.18125
一日	-8.18279
榮	-8.1829
遣	-8.1835
克	-8.18353
友	-8.18939
升	-8.19137
逢	-8.19273
愚	-8.19397
曾	-8.19541
盖	-8.19674
妻	-8.20003
胡	-8.20189
天尊	-8.20319
叔	-8.20422
舍	-8.20517
恭	-8.20598
嵗	-8.20628
炁	-8.20631
幸	-8.20759
越	-8.20799
軍	-8.20916
奇	-8.21229
不敢	-8.21376
私	-8.21424
畫	-8.21539
吴	-8.2156
余	-8.21602
谷	-8.21818
切	-8.21885
嘉	-8.22129
兹	-8.2236
苟	-8.22508
朱	-8.2267
陵	-8.22781
引	-8.23241
歷	-8.23465
垂	-8.23524
草	-8.23763
悟	-8.238
眞人	-8.24025
源	-8.24279
也故	-8.24332
敗	-8.24678
賊	-8.25145
怒	-8.2516
棄	-8.25209
丘	-8.25223
務	-8.25235
之道	-8.25395
碑	-8.25406
勿	-8.25627
吕	-8.25708
楚	-8.25777
迎	-8.25797
刻	-8.25862
玉帝	-8.26326
録	-8.26397
浮	-8.26529
是以	-8.26643
折	-8.26913
負	-8.27176
魂	-8.27278
布	-8.27399
印	-8.27551
遷	-8.27715
啓	-8.27718
延	-8.27991
侍	-8.28038
境	-8.28336
魔	-8.28626
專	-8.28629
畏	-8.28648
繼	-8.28685
覺	-8.2918
察	-8.29258
伐	-8.2926
維	-8.29316
消	-8.29474
假	-8.2953
曲	-8.29824
揚	-8.29825
看	-8.30289
亨	-8.30333
孔子	-8.30642
他	-8.30645
半	-8.30983
愈	-8.31048
卯	-8.31137
嗣	-8.31166
晋	-8.31275
鳴	-8.3131
羊	-8.31327
祥	-8.31527
原	-8.3154
縣	-8.31586
如此	-8.31829
序	-8.31912
劉	-8.32139
災	-8.32238
護	-8.32615
仲	-8.32854
簡	-8.32867
巽	-8.32929
池	-8.33113
十三	-8.33345
困	-8.33442
逐	-8.33489
無註	-8.33874
部	-8.3391
普	-8.33927
康	-8.34074
戰	-8.34108
亥	-8.34208
置	-8.34306
坎	-8.34357
資	-8.34389
冬	-8.34428
吏	-8.34527
有所	-8.34706
十一	-8.34737
夫人	-8.34871
祝	-8.34948
於是	-8.35506
何以	-8.35628
廢	-8.35648
掌	-8.35681
尤	-8.35916
不足	-8.35929
婦	-8.35995
不爲	-8.3601
童	-8.36248
禹	-8.36254
最	-8.365
昌	-8.36729
被	-8.36893
悉	-8.37329
丑	-8.37377
之事	-8.37829
聚	-8.37867
峰	-8.38078
改	-8.38089
庶	-8.38104
哀	-8.38118
嶽	-8.38146
象曰	-8.38217
謹	-8.38422
縁	-8.38454
覆	-8.38752
輪	-8.38888
迷	-8.39156
姓	-8.39228
崖	-8.39349
率	-8.39458
朕	-8.39604
房	-8.39709
走	-8.39825
駕	-8.40179
秘	-8.40423
露	-8.40433
釋	-8.40759
又曰	-8.40974
否	-8.41051
趙	-8.41135
蒼	-8.41142
衰	-8.41177
孰	-8.41342
詞	-8.41439
彖曰	-8.41653
决	-8.42105
天下之	-8.42107
末	-8.42133
十六	-8.42296
厥	-8.42701
堅	-8.42704
惑	-8.42776
質	-8.42812
户	-8.42983
功德	-8.4302
脫	-8.43088
况	-8.43112
醮	-8.43383
連	-8.43443
商	-8.43477
堯	-8.4381
然後	-8.43848
救	-8.43957
之時	-8.43967
曰吾	-8.43979
險	-8.44119
懼	-8.44141
界	-8.44238
工	-8.44253
上帝	-8.44495
父母	-8.44664
悔	-8.44711
弱	-8.44817
弟	-8.45098
老子	-8.45371
尋	-8.45409
壁	-8.45541
儒	-8.4602
勢	-8.46054
春秋	-8.46203
祭	-8.46348
紅	-8.46479
鼎	-8.46537
寵	-8.46559
超	-8.46887
勤	-8.46967
左右	-8.46994
九天	-8.47042
限	-8.47125
統	-8.47427
二十	-8.4743
咎	-8.47654
呼	-8.4768
只	-8.47701
示	-8.47869
接	-8.47918
翼	-8.47963
放	-8.47978
徐	-8.48291
魏	-8.48317
淵	-8.48334
冥	-8.48614
避	-8.48664
燕	-8.48733
哭	-8.4894
收	-8.49093
郡	-8.49368
之間	-8.49377
秀	-8.4939
穴	-8.49563
迹	-8.49566
邑	-8.49735
㣲	-8.49744
珠	-8.4982
刼	-8.50087
格	-8.50146
逺	-8.50148
酉	-8.50246
祈	-8.5034
默	-8.50487
薄	-8.50499
之心	-8.50584
至於	-8.50611
帶	-8.50685
器	-8.5076
羽	-8.50813
某	-8.50837
違	-8.50877
役	-8.50881
艮	-8.50927
韓	-8.51201
兊	-8.51258
十八	-8.51532
參	-8.51573
上下	-8.51928
背	-8.51965
丁	-8.52221
責	-8.52315
殊	-8.5235
十四	-8.52401
岳	-8.52707
太上	-8.53023
宇	-8.53029
移	-8.53047
尅	-8.53146
角	-8.53445
盈	-8.53805
而無	-8.53994
革	-8.54103
血	-8.54243
鳳	-8.54247
不及	-8.54432
篇	-8.54495
舜	-8.54542
虞	-8.54554
玉女	-8.54636
干	-8.54959
歟	-8.54966
勑	-8.55278
未嘗	-8.55889
亭	-8.55971
頂	-8.55991
助	-8.5616
慮	-8.56536
步	-8.56551
知其	-8.56827
漸	-8.56842
辯	-8.56863
悲	-8.56982
子孫	-8.57011
然而	-8.57057
英	-8.57142
毋	-8.57361
禁	-8.57639
怨	-8.57667
骨	-8.5772
誦	-8.57728
筆	-8.58038
貧	-8.58056
招	-8.58061
兼	-8.58072
却	-8.58147
科	-8.58274
甘	-8.58426
三年	-8.58428
忌	-8.58552
量	-8.58613
旦	-8.58636
曹	-8.58732
大夫	-8.59131
衆生	-8.59188
肅	-8.59206
碧	-8.59212
第	-8.5922
天子	-8.59362
之言	-8.59365
約	-8.59642
笑	-8.60251
效	-8.60427
鄭	-8.6045
攝	-8.60457
扶	-8.60798
管	-8.60881
皇帝	-8.61045
縱	-8.61195
㫖	-8.61223
讀	-8.61524
欽	-8.61606
孔	-8.61611
抱	-8.61706
松	-8.61871
無爲	-8.61871
現	-8.62067
急	-8.6212
鄉	-8.62312
庚	-8.62327
道士	-8.62439
雪	-8.62601
杖	-8.62748
天門	-8.62805
籙	-8.62812
圓	-8.62818
諸侯	-8.63203
顔	-8.63226
輿	-8.63288
舟	-8.63385
十七	-8.63476
豐	-8.63613
獄	-8.63616
注	-8.63632
戌	-8.63691
盤	-8.63737
是故	-8.63762
薦	-8.63977
三十	-8.64006
恒	-8.64085
瑞	-8.64101
晨	-8.64107
罔	-8.64132
題	-8.64505
鶴	-8.64525
市	-8.64622
髙	-8.64628
夫子	-8.64775
貪	-8.649
奚	-8.64981
名曰	-8.65205
大天王	-8.65237
旅	-8.65312
毒	-8.65338
楊	-8.65355
送	-8.65391
領	-8.65434
塞	-8.65437
沉	-8.65459
然則	-8.655
弘	-8.65726
壯	-8.65837
小人	-8.65937
錫	-8.66215
光明	-8.66255
營	-8.66287
京	-8.66517
鍾	-8.66641
隆	-8.66724
大道	-8.6675
昇	-8.66861
上清	-8.66878
人也	-8.67039
後世	-8.67044
省	-8.67124
辱	-8.67131
湯	-8.67177
增	-8.67205
必有	-8.67267
純	-8.67371
貌	-8.67502
術	-8.67725
貫	-8.67864
如是	-8.67883
禱	-8.67945
温	-8.67946
没	-8.67961
蛇	-8.6797
配	-8.67999
游	-8.68389
錢	-8.68413
讓	-8.68464
遍	-8.68472
而爲	-8.68625
飲	-8.68732
早	-8.688
邦	-8.68851
闕	-8.69087
不同	-8.69128
子曰	-8.69245
尾	-8.69275
種	-8.69298
眼	-8.69785
投	-8.70158
犯	-8.7016
寶	-8.7033
太子	-8.70411
是非	-8.70488
厲	-8.7054
豫	-8.70575
妖	-8.70612
鼓	-8.70615
之中	-8.70922
暗	-8.71397
賈	-8.71486
育	-8.71536
之後	-8.71777
是也	-8.71888
賛	-8.71894
懸	-8.71917
像	-8.71919
撫	-8.71923
旋	-8.71926
寡	-8.72043
了	-8.72393
䟽	-8.7241
辛	-8.72728
寂	-8.72823
雄	-8.72861
兒	-8.72871
昏	-8.72884
曜	-8.73026
文王	-8.73099
不然	-8.73291
悅	-8.73721
奔	-8.73795
訟	-8.73818
黑	-8.73886
不可以	-8.74119
證	-8.74154
誅	-8.74258
弟子	-8.74561
想	-8.74672
龜	-8.74728
毛	-8.74966
傾	-8.75142
監	-8.75226
旺	-8.75334
兄弟	-8.75388
宰	-8.75401
黄帝	-8.75551
變化	-8.7564
誥	-8.75939
影	-8.76082
例	-8.76106
習	-8.76122
仁義	-8.76433
希	-8.76502
淫	-8.76559
樹	-8.76624
調	-8.76665
乾坤	-8.76722
富貴	-8.76901
峯	-8.76998
謙	-8.77016
竟	-8.7704
雙	-8.77072
跡	-8.77512
殷	-8.77518
充	-8.7754
納	-8.77559
陸	-8.7796
密	-8.77995
諸天	-8.78095
族	-8.78489
追	-8.78506
而有	-8.78652
隂陽	-8.78915
元始	-8.78958
勸	-8.78966
天地之	-8.79249
莫不	-8.79253
試	-8.79401
蘇	-8.79405
俯	-8.79407
擊	-8.79442
長生	-8.79723
策	-8.79906
徹	-8.7993
無窮	-8.80205
可謂	-8.80345
含	-8.80394
男	-8.80416
細	-8.80436
籍	-8.80441
狀	-8.80756
俾	-8.8093
冲	-8.81048
足以	-8.81343
愼	-8.81368
諭	-8.81371
彌	-8.81373
偏	-8.8139
暴	-8.8139
毁	-8.81415
篤	-8.8143
繫	-8.81461
此經	-8.81586
鬼神	-8.81764
辟	-8.81927
給	-8.81946
閉	-8.8196
欺	-8.81962
殆	-8.82378
未有	-8.82457
局	-8.82775
横	-8.82814
鎮	-8.82862
十方	-8.82867
沙	-8.82916
舞	-8.82948
階	-8.82962
霞	-8.83346
卜	-8.83393
速	-8.83413
荒	-8.83435
鹿	-8.83467
曉	-8.83469
之意	-8.83581
句	-8.83828
嘆	-8.83885
律	-8.83948
郷	-8.83964
靡	-8.83978
以其	-8.84359
怪	-8.84434
式	-8.84898
旣	-8.84907
巧	-8.84922
拱	-8.84963
孟	-8.85075
奪	-8.85118
郭註	-8.85166
不如	-8.85188
廼	-8.85406
勉	-8.85417
溪	-8.85439
材	-8.85456
乙	-8.86041
而不知	-8.863
附	-8.86415
録曰愚觀	-8.86469
觧	-8.86489
夕	-8.86921
三月	-8.86954
凢	-8.86973
乆	-8.86981
眞君	-8.87206
者皆	-8.8732
住	-8.87379
兄	-8.87407
無有	-8.87544
川	-8.87836
享	-8.88025
雜	-8.88041
屋	-8.88089
湏	-8.88124
頌	-8.88137
之上	-8.88251
賴	-8.88569
防	-8.88615
對曰	-8.88616
儉	-8.88656
魄	-8.88694
差	-8.89123
謁	-8.89135
尺	-8.89157
暮	-8.89157
祐	-8.89219
裏	-8.89231
今日	-8.89575
蕩	-8.89654
擇	-8.8966
瞻	-8.89674
委	-8.89694
瓊	-8.89745
詣	-8.90175
樓	-8.90207
麗	-8.90212
者不	-8.90296
僧	-8.90326
爲人	-8.90375
巖	-8.90677
周公	-8.90696
葉	-8.90754
畜	-8.90817
遭	-8.90842
征	-8.91238
厄	-8.91277
烏	-8.91341
圍	-8.91372
来	-8.9182
郭	-8.91857
慕	-8.91878
索	-8.9189
桑	-8.92478
燈	-8.92478
之則	-8.92636
爻	-8.929
衡	-8.92942
振	-8.92964
賦	-8.92971
總	-8.93012
歡	-8.93495
爵	-8.93502
得其	-8.93502
祗	-8.93534
述	-8.9354
諫	-8.93546
拘	-8.93553
味	-8.9356
神明	-8.93674
六十	-8.93731
十九	-8.93832
兆	-8.9384
孚	-8.93875
域	-8.94034
翠	-8.94135
提	-8.94136
四十	-8.94559
付	-8.94661
波	-8.94666
仍	-8.94677
閑	-8.9468
融	-8.94698
姑	-8.94709
禪	-8.94949
不以	-8.94952
鑒	-8.95162
馳	-8.95192
循	-8.95211
均	-8.95237
條	-8.95256
遲	-8.95263
烈	-8.95267
邊	-8.95377
用之	-8.95581
采	-8.95808
甫	-8.95813
嗚呼	-8.9582
殘	-8.95829
環	-8.95866
竊	-8.96297
敵	-8.96307
贈	-8.9632
翁	-8.96328
潜	-8.96381
躬	-8.96397
封禪	-8.96536
寸	-8.96566
刃	-8.96686
宅	-8.96815
三界	-8.96825
訓	-8.96945
霄	-8.97106
有餘	-8.97348
寄	-8.97524
厭	-8.97542
驗	-8.9757
二十四	-8.97636
賤	-8.97671
帛	-8.97909
亦不	-8.97915
之士	-8.97987
閣	-8.98121
殃	-8.98149
太平	-8.98166
四方	-8.98172
社	-8.98173
葬	-8.98175
莊	-8.98523
盜	-8.98635
凌	-8.98699
驅	-8.98746
晦	-8.98778
廬	-8.98785
煉	-8.98813
九五	-8.9912
遯	-8.99206
覽	-8.99263
蔽	-8.99315
講	-8.99318
屈	-8.99319
朝廷	-8.99323
綱	-8.99335
以此	-8.99515
神仙	-8.99542
侵	-8.99665
將軍	-8.99681
也若	-8.99693
幼	-8.99849
罷	-8.99879
枝	-8.99885
㓕	-8.99914
亦有	-9.00106
戊	-9.00305
洪	-9.00378
刀	-9.0044
羣	-9.00485
并	-9.00543
自得	-9.00665
古之	-9.00777
真君	-9.00803
混	-9.00882
愽	-9.01068
巨	-9.0107
介	-9.01084
辨	-9.01091
側	-9.01099
途	-9.01099
賞	-9.01104
尸	-9.01156
枯	-9.01163
庫	-9.01497
嶺	-9.01574
父子	-9.01616
天之	-9.01619
芝	-9.01681
倚	-9.01732
陛下	-9.01785
千里	-9.02017
丈	-9.02023
雖有	-9.02034
際	-9.02041
無不	-9.02208
焚	-9.02243
農	-9.02311
契	-9.02317
五行	-9.02486
之義	-9.02517
是時	-9.0258
者非	-9.02753
倫	-9.02761
詳	-9.02783
戴	-9.02869
勇	-9.02916
穀	-9.02939
補	-9.03472
徴	-9.03523
之情	-9.03743
偶	-9.03812
造化	-9.04004
趨	-9.04106
宴	-9.0413
吟	-9.04173
竹	-9.0419
見其	-9.04218
也其	-9.04701
人間	-9.04712
烟	-9.04741
柳	-9.04744
愆	-9.04781
醉	-9.04786
射	-9.04803
狂	-9.0482
夾	-9.05328
國家	-9.05415
赴	-9.05436
係	-9.05441
壞	-9.05448
班	-9.05463
洞賔	-9.05476
學者	-9.05703
玉皇	-9.05987
基	-9.06031
程	-9.06036
蓬	-9.06048
完	-9.06068
曰此	-9.06365
二年	-9.06429
丙	-9.0646
昧	-9.06686
供	-9.06688
銀	-9.06722
天師	-9.06724
萬世	-9.06869
萬里	-9.07203
凝	-9.07301
憲	-9.07312
席	-9.07338
獸	-9.07352
尚書	-9.07359
抑	-9.07365
也今	-9.07382
囚	-9.07887
齒	-9.07919
又何	-9.07964
占	-9.08
癸	-9.08256
岱	-9.08271
劫	-9.08417
訣	-9.0861
腹	-9.08671
略	-9.08691
操	-9.08752
譽	-9.09207
卑	-9.09209
輝	-9.09229
不成	-9.09243
茂	-9.09244
桃	-9.09251
死生	-9.09287
其心	-9.09604
陰陽	-9.09737
妾	-9.09758
包	-9.09807
衍	-9.09845
朔	-9.09972
允	-9.10034
樞	-9.10051
人心	-9.10314
雖然	-9.10336
一人	-9.10378
耗	-9.10388
吐	-9.1055
无咎	-9.10556
稽首	-9.10638
當作	-9.10676
以來	-9.10756
壬	-9.11083
肉	-9.11223
堯舜	-9.1128
座	-9.11288
霜	-9.11296
麟	-9.11342
億	-9.11343
㐫	-9.11444
元年	-9.11565
三日	-9.11658
聖人之	-9.11786
判	-9.11839
㑹	-9.11851
稽	-9.11923
磨	-9.11928
傍	-9.11963
正月	-9.11968
恃	-9.12539
傅	-9.12541
匪	-9.12557
陶	-9.12566
佑	-9.1258
塗	-9.12604
攻	-9.12629
肆	-9.12634
返	-9.12639
騎	-9.12674
談	-9.12683
院	-9.12688
選	-9.13235
僞	-9.13239
泣	-9.13278
鸞	-9.13279
旁	-9.1328
泥	-9.13307
五十	-9.13495
大吉	-9.13496
五色	-9.13685
演	-9.13816
仕	-9.13927
竭	-9.1393
蜀	-9.13936
牧	-9.13945
蹇	-9.13962
愧	-9.14001
剥	-9.14007
男女	-9.1403
姚	-9.14352
導	-9.14595
遵	-9.14625
鄰	-9.14639
溺	-9.1464
稍	-9.14658
一時	-9.15013
也而	-9.15024
蠱	-9.15266
戎	-9.15271
乞	-9.15363
夀	-9.15363
憑	-9.1539
太陽	-9.15462
伸	-9.16009
不信	-9.16016
竒	-9.16023
慢	-9.16076
錯	-9.16082
答	-9.16094
湖	-9.16095
穿	-9.16096
婚姻	-9.16111
於此	-9.16438
惜	-9.16518
卧	-9.16733
雅	-9.16773
柱	-9.16788
耀	-9.16789
趣	-9.16792
姜	-9.16813
晝	-9.16839
之所以	-9.17081
之功	-9.17231
帥	-9.1742
誓	-9.17435
瀆	-9.1747
廉	-9.17486
髮	-9.17498
浩	-9.17503
而能	-9.17682
短	-9.18037
詩曰	-9.18084
徧	-9.18088
杜	-9.18145
寬	-9.18157
墨	-9.18183
屢	-9.18197
墓	-9.182
叅	-9.18207
則有	-9.18207
忍	-9.18252
世界	-9.18522
五嶽	-9.18563
初九	-9.18605
無以	-9.18721
值	-9.18863
註	-9.18897
熟	-9.18915
東方	-9.18933
尹	-9.18938
醫	-9.18944
籖	-9.18949
津	-9.18967
道者	-9.19016
四時	-9.19113
白雲	-9.19177
爽	-9.19587
鴻	-9.196
䖏	-9.19624
畧	-9.19629
捨	-9.1975
帝君	-9.20049
之法	-9.20109
支	-9.2016
中有	-9.20256
燭	-9.203
盟	-9.20305
徑	-9.20324
劒	-9.20408
候	-9.20468
六二	-9.20541
寺	-9.21031
校	-9.21034
之謂	-9.21047
逸	-9.21069
胎	-9.2111
遥	-9.21115
冀	-9.21131
史記	-9.21309
未詳	-9.21352
錦	-9.21401
聞之	-9.21588
洛	-9.21722
彰	-9.21771
輙	-9.21827
痛	-9.21831
岱宗	-9.21871
續	-9.21871
阿	-9.21877
倉	-9.21892
七十	-9.21897
佩	-9.21927
司馬	-9.2209
無極	-9.22332
據	-9.2255
耕	-9.22607
着	-9.22612
缺	-9.22634
盗	-9.22642
物之	-9.2273
堪	-9.22957
未能	-9.23191
橋	-9.23265
觸	-9.23284
貨	-9.2332
敷	-9.23324
福禄	-9.23578
使人	-9.23753
三五	-9.238
穆	-9.23846
濁	-9.24046
文章	-9.24047
遽	-9.2406
映	-9.24063
費	-9.24084
勅	-9.2411
褒	-9.24116
逃	-9.24168
天上	-9.24255
六五	-9.24298
八卦	-9.24566
相與	-9.24691
古今	-9.24749
穢	-9.24806
嗟	-9.24865
雞	-9.24866
隔	-9.24871
乗	-9.24896
則無	-9.24943
至于	-9.25127
八十	-9.25265
出入	-9.25562
夭	-9.25577
覩	-9.25608
借	-9.25654
單	-9.25654
訪	-9.25672
鑿	-9.25677
底	-9.25684
之象	-9.25994
與之	-9.26041
旱	-9.26215
潤	-9.2633
涉	-9.26343
測	-9.26366
預	-9.26379
佐	-9.26417
而不能	-9.26566
身命	-9.26798
元君	-9.26846
當時	-9.26985
廷	-9.27049
自是	-9.27062
垣	-9.27119
荆	-9.27187
屯	-9.2722
恨	-9.27225
煙	-9.2727
四海	-9.27654
之徒	-9.27784
閩	-9.27886
道之	-9.27934
範	-9.2796
弊	-9.27962
障	-9.27975
犬	-9.27984
點	-9.28009
墮	-9.28036
敦	-9.28104
世間	-9.28122
道人	-9.28267
而自	-9.28547
萃	-9.28559
弼	-9.28626
朋	-9.28709
不利	-9.28712
禦	-9.28714
行人	-9.28727
諱	-9.28762
金闕	-9.28836
甲子	-9.28957
失其	-9.29011
無量	-9.29113
天王	-9.29132
星君	-9.29438
六四	-9.29466
蔡	-9.2952
採	-9.29586
也此	-9.29625
人皆	-9.29821
箕	-9.30015
則不	-9.30035
拔	-9.30309
靖	-9.30317
飄	-9.30335
響	-9.30337
襲	-9.30349
歳	-9.30384
范	-9.30394
逰	-9.30409
下䧏	-9.30459
中國	-9.30544
妃	-9.31066
愁	-9.31183
芳	-9.31225
十年	-9.31274
鐵	-9.31283
百姓	-9.31438
所在	-9.31692
騰	-9.3194
館	-9.31975
是謂	-9.31984
雍	-9.3199
絲	-9.31991
怠	-9.32004
踰	-9.32038
牽	-9.32038
頃	-9.32041
狼	-9.32047
世之	-9.32055
則爲	-9.32065
斬	-9.32065
文昌	-9.3209
第一	-9.32139
君臣	-9.32205
神通	-9.32273
矣故	-9.32398
桓	-9.32651
逹	-9.32806
鮮	-9.32807
倍	-9.32808
郊	-9.32836
淺	-9.32868
托	-9.3287
瑶	-9.32891
星辰	-9.33345
不足以	-9.33601
九二	-9.33604
渾	-9.33607
萬物之	-9.33611
圭	-9.33788
視之	-9.34214
各有	-9.34291
凈	-9.343
持經	-9.34439
頓	-9.34459
潔	-9.34472
狐	-9.34544
不明	-9.34655
不相	-9.3484
者以	-9.34876
耳目	-9.35055
何如	-9.35219
峻	-9.35287
亢	-9.353
吹	-9.35367
豈非	-9.35368
鼻	-9.35388
溢	-9.3541
闡	-9.35451
眞經	-9.35494
御史	-9.35561
之地	-9.3595
知之	-9.36009
戍	-9.36065
爲主	-9.36127
徵	-9.36167
軒	-9.36201
矢	-9.36269
飢	-9.36281
之德	-9.36527
水火	-9.36686
不過	-9.36707
生於	-9.36748
西南	-9.36886
罰	-9.36968
賔	-9.37008
究	-9.37026
其身	-9.37028
審	-9.37029
社稷	-9.37041
攸	-9.37047
賀	-9.37062
禽	-9.37093
戲	-9.37111
鏡	-9.37136
擾	-9.37145
清凈	-9.37277
若有	-9.37325
言之	-9.37399
庸	-9.37686
言其	-9.37801
歩	-9.37831
削	-9.37864
顛	-9.37881
巢	-9.37884
寢	-9.37896
葛	-9.37914
饗	-9.37927
黃	-9.37941
崩	-9.37961
規	-9.37963
赦	-9.37964
優	-9.37972
一作	-9.3832
天宫	-9.38589
出於	-9.38686
飾	-9.38751
其事	-9.38762
摩	-9.38774
黨	-9.38788
之說	-9.38802
桀	-9.38803
屏	-9.38863
毫	-9.38869
蕭	-9.38882
地獄	-9.39192
三千	-9.39622
擁	-9.39702
活	-9.39705
氷	-9.39707
矧	-9.39725
觀之	-9.39751
蘭	-9.39795
爐	-9.39856
之禮	-9.40102
三代	-9.40145
旡	-9.40403
博	-9.4056
胥	-9.40568
悖	-9.4059
舌	-9.40598
炎	-9.40614
誤	-9.40624
鑑	-9.40642
乎其	-9.40645
其德	-9.40915
是爲	-9.40944
之際	-9.41
而下	-9.41022
貢	-9.41137
無上	-9.41177
學道	-9.41421
滯	-9.41455
庇	-9.41466
需	-9.41546
爲天下	-9.41819
三元	-9.41942
産	-9.41985
廵	-9.42063
矣夫	-9.42281
讃	-9.42289
彭	-9.42344
層	-9.42379
披	-9.42396
慾	-9.42415
膺	-9.42423
劍	-9.42424
不復	-9.42454
倒	-9.4249
而去	-9.42539
茅	-9.42559
聖賢	-9.42628
九四	-9.42634
之日	-9.42745
禮樂	-9.42878
天道	-9.42978
至扵	-9.43062
姬	-9.43287
淑	-9.43305
梵	-9.43316
寇	-9.43338
不宜	-9.43488
不用	-9.43508
無心	-9.43809
大龍王	-9.44078
終身	-9.4415
徃來	-9.44157
風雨	-9.44163
奕	-9.44192
神之	-9.44213
秉	-9.44217
蓮	-9.44249
牙	-9.44261
子之	-9.44446
而行	-9.44468
奈何	-9.44504
有司	-9.44702
録曰此	-9.44818
禍福	-9.4497
人所	-9.45008
豈不	-9.4512
由是	-9.4513
嫁	-9.45155
虜	-9.45164
嬰	-9.45165
盧	-9.45171
佳	-9.4518
荷	-9.45185
而非	-9.45189
逍遥	-9.45197
有功	-9.45198
漏	-9.45203
羙	-9.45234
道德	-9.45416
道也	-9.45522
不在	-9.45527
及其	-9.45865
東海	-9.45899
無形	-9.45906
矜	-9.46074
若是	-9.4608
詠	-9.46087
編	-9.46096
築	-9.46181
不免	-9.46254
何也	-9.46274
二人	-9.46275
生死	-9.46392
太宗	-9.46774
道教	-9.46842
竅	-9.46929
鬱	-9.47025
艱	-9.47035
歎	-9.47065
探	-9.47071
紂	-9.47077
几	-9.47092
䧟	-9.47097
淮	-9.4711
沈	-9.47128
山之	-9.47265
使者	-9.4739
不聞	-9.47402
莫能	-9.47727
太極	-9.47863
眀	-9.47972
孽	-9.48007
伊	-9.48009
篆	-9.48013
丈人	-9.48015
迴	-9.48016
册	-9.48025
恤	-9.48048
聼	-9.48049
墜	-9.48057
蔵	-9.48089
植	-9.48096
民之	-9.48239
十月	-9.48346
也録曰	-9.48442
靈濟	-9.48683
之氣	-9.48693
慈悲	-9.4872
不知其	-9.4872
自有	-9.48754
不言	-9.48784
脉	-9.48898
東西	-9.48944
筭	-9.48955
繩	-9.48979
僕	-9.48984
九十	-9.49
岩	-9.49051
懿	-9.49063
廻	-9.49076
狗	-9.49087
眉	-9.49095
砂	-9.4922
不知所	-9.49536
人之所	-9.49668
者爲	-9.49809
七十二	-9.49816
員	-9.49911
曆	-9.49916
侈	-9.4995
見之	-9.49951
歛	-9.49981
紹	-9.49986
頼	-9.49997
戚	-9.50006
憐	-9.50017
晉	-9.50032
案	-9.50077
孟子	-9.50092
之下	-9.50131
世人	-9.50194
九年	-9.50218
於人	-9.5053
五月	-9.50557
不安	-9.5071
家人	-9.50724
如何	-9.50727
吉凶	-9.50757
之内	-9.50838
也然	-9.50841
仗	-9.50924
揖	-9.50986
片	-9.51001
銘	-9.51012
閭	-9.51023
恊	-9.51036
者亦	-9.51251
性命	-9.51297
失物	-9.51567
其人	-9.51623
終日	-9.51641
襄	-9.51764
停	-9.52015
耻	-9.52026
賁	-9.52088
大人	-9.52259
其言	-9.52321
日觀	-9.52396
不自	-9.52439
無所不	-9.5258
不食	-9.5261
國之	-9.52638
者乎	-9.52747
孛	-9.52796
也故曰	-9.52867
隅	-9.52888
黎	-9.52927
雀	-9.52971
俄	-9.5299
措	-9.52996
粟	-9.52999
踈	-9.53003
額	-9.53043
六月	-9.53045
把	-9.53082
碧霞	-9.53092
大臣	-9.53181
進退	-9.53216
東嶽	-9.53237
相傳	-9.53607
善惡	-9.53683
則雖	-9.53701
𥘉	-9.53903
不得已	-9.53932
翊	-9.53954
眷	-9.53972
染	-9.53995
陟	-9.54018
舒	-9.54035
聴	-9.54043
旗	-9.54049
攀	-9.54059
整	-9.5406
奸	-9.54062
渡	-9.54098
内外	-9.5418
元帥	-9.54203
草木	-9.543
七日	-9.54303
千萬	-9.54367
不可得	-9.54382
帝之	-9.54387
之故	-9.54641
十五日	-9.54726
副	-9.54857
洗	-9.54929
正一	-9.54944
拂	-9.55012
緒	-9.55034
緑	-9.55094
西北	-9.55132
以成	-9.55431
肯	-9.55555
卦之	-9.55645
宸	-9.5599
彩	-9.56043
醜	-9.56087
旌	-9.56096
掃	-9.56097
齡	-9.56105
哲	-9.56108
鍊	-9.56111
寓	-9.56147
墻	-9.56149
其中	-9.56369
古人	-9.56552
山川	-9.56586
天命	-9.56627
初六	-9.56641
抵	-9.56677
武王	-9.56941
驕	-9.57045
三十六	-9.57064
併	-9.57072
七月	-9.57096
擬	-9.57111
卓	-9.57129
討	-9.5713
敏	-9.57137
百里	-9.57138
聘	-9.57158
芒	-9.57161
仇	-9.57216
汲	-9.5724
東南	-9.57271
曰子	-9.57288
與物	-9.57358
孔子曰	-9.57472
先王	-9.57513
不出	-9.57519
所以爲	-9.57638
之精	-9.58022
澗	-9.58038
沖	-9.58053
霧	-9.58098
婁	-9.5811
偃	-9.58141
暇	-9.58146
阻	-9.58176
奮	-9.58187
蟲	-9.58189
囊	-9.58217
飯	-9.58224
冝	-9.58246
飽	-9.58282
四月	-9.583
有一	-9.58312
晴	-9.58316
而成	-9.58671
王者	-9.58886
曰我	-9.58927
不忍	-9.59107
穹	-9.59193
暫	-9.59194
璧	-9.5921
珍	-9.59286
矣此	-9.59347
而况	-9.59358
聖母	-9.59409
麻	-9.59433
故能	-9.59803
老君	-9.59843
一云	-9.59876
與人	-9.5988
其子	-9.59951
者必	-9.59993
官事	-9.6017
婚	-9.60266
莫之	-9.6028
睽	-9.60289
號曰	-9.60308
賓	-9.60324
往	-9.60345
曷	-9.60362
𣗳	-9.60363
頗	-9.60388
無事	-9.60469
琴	-9.6053
受命	-9.60537
何爲	-9.60658
之名	-9.60941
百年	-9.61257
吝	-9.61336
朗	-9.61354
蘇註	-9.61371
熙	-9.6142
䘮	-9.61439
饑	-9.61442
至道	-9.61448
上有	-9.61449
慧	-9.61453
網	-9.61465
筮	-9.61495
禳	-9.61513
詐	-9.61524
大聖	-9.61569
疆	-9.61842
二十八	-9.61966
不肯	-9.62083
男子	-9.62157
其後	-9.62171
埋	-9.62453
園	-9.62464
煩	-9.62512
猛	-9.62551
產	-9.62566
藝	-9.62574
浪	-9.62586
嘯	-9.62612
戮	-9.62617
繞	-9.62705
文武	-9.62822
登泰山	-9.6287
皇后	-9.62961
裳	-9.63225
也非	-9.63263
詩云	-9.63296
檢	-9.63512
窺	-9.63629
赫	-9.63633
榜	-9.63635
滋	-9.6365
携	-9.63654
叩	-9.63666
紛	-9.63668
淪	-9.63669
緫	-9.63675
摇	-9.63689
减	-9.6371
不但	-9.63962
得道	-9.64118
不許	-9.64175
至今	-9.64229
苐	-9.64493
有道	-9.64616
名山	-9.64637
之始	-9.64691
古本	-9.64716
踐	-9.64815
軫	-9.64816
束	-9.6482
澄	-9.64832
吞	-9.64832
爰	-9.64846
唱	-9.64855
激	-9.64859
筵	-9.64864
鵲	-9.6487
喻	-9.64942
買	-9.64957
晝夜	-9.64981
觀其	-9.65094
者有	-9.65121
帝王	-9.65123
咒	-9.65336
罗	-9.65519
鎭	-9.65876
祕	-9.65893
訖	-9.65927
淡	-9.65937
礙	-9.65948
奎	-9.6597
淳	-9.6602
姦	-9.66048
天人	-9.66278
即位	-9.66297
太后	-9.66332
以是	-9.66545
譬	-9.66613
可不	-9.66677
其名	-9.66713
五年	-9.66757
德之	-9.66808
蔭	-9.66876
快	-9.67045
秩	-9.6707
競	-9.67078
陷	-9.67087
寥	-9.67088
娶	-9.67093
𡚖	-9.67099
逮	-9.67106
飮	-9.67108
胃	-9.67116
鴈	-9.67132
米	-9.67133
刺	-9.67133
乳	-9.67142
繁	-9.67155
突	-9.67163
液	-9.67165
遐	-9.67167
徤	-9.67174
岸	-9.67205
壺	-9.67217
祭祀	-9.67227
可也	-9.67261
不失	-9.67327
可見	-9.67332
明堂	-9.67377
之理	-9.67404
妙法	-9.67682
之本	-9.67926
五帝	-9.68008
可知	-9.68104
巔	-9.68191
幹	-9.68209
播	-9.68238
那	-9.68253
閱	-9.68265
掩	-9.68265
趾	-9.68272
奴	-9.68279
恣	-9.68291
綿	-9.683
尉	-9.68303
逝	-9.68308
僅	-9.68313
爛	-9.68322
饒	-9.68337
旛	-9.68337
腰	-9.68338
般	-9.68338
涯	-9.68345
儲	-9.68376
霸	-9.68414
王母	-9.68457
矣而	-9.6848
鉛	-9.68492
一年	-9.6856
使我	-9.68578
又有	-9.68641
玉堂	-9.68671
仙人	-9.68701
以上	-9.68765
而不可	-9.68779
南方	-9.68821
群臣	-9.68871
羅义女	-9.69168
婦人	-9.69205
曰汝	-9.69289
虔	-9.69362
聖誕	-9.69375
廓	-9.69453
大明	-9.69476
虧	-9.69483
懽	-9.69506
幣	-9.69516
蕃	-9.69521
晩	-9.69533
握	-9.69534
銅	-9.69554
大帝	-9.69555
臧	-9.69588
至矣	-9.69709
不死	-9.69753
學士	-9.69899
武帝	-9.69949
至此	-9.70036
以下	-9.70221
太祖	-9.70293
太守	-9.70564
頤	-9.70595
馮	-9.70613
皈依	-9.70656
肩	-9.7067
臂	-9.70674
託	-9.70716
二十五	-9.70727
割	-9.70733
棲	-9.70735
皷	-9.70739
餌	-9.70745
夫婦	-9.70769
前後	-9.70777
而已矣	-9.70782
祖宗	-9.7086
庶幾	-9.70866
供養	-9.70927
南山	-9.70959
亦可	-9.70963
靈濟宫	-9.7097
君之	-9.70972
公子	-9.71176
也又	-9.71183
東北	-9.71282
之外	-9.71406
魁	-9.7174
敝	-9.7183
三十二	-9.7183
祚	-9.71842
低	-9.71885
柄	-9.71891
旬	-9.71903
亮	-9.71923
翰	-9.71943
嘉靖	-9.71944
枉	-9.71951
聯	-9.71966
丞相	-9.71996
嫌	-9.72007
二十三	-9.72533
不勝	-9.72682
不忘	-9.72776
大小	-9.72802
之類	-9.72973
曠	-9.73049
壑	-9.73061
牲	-9.73083
麓	-9.73129
咨	-9.73137
偕	-9.73145
輩	-9.73153
績	-9.7316
吉星	-9.73161
牝	-9.7317
袍	-9.73176
岀	-9.73195
翻	-9.73226
輸	-9.73232
其道	-9.73234
焦	-9.73247
賣	-9.73253
不至	-9.73266
裘	-9.73267
太乙	-9.7334
聦明	-9.73365
未必	-9.73367
受福	-9.73496
明日	-9.73537
而復	-9.73613
曰臣	-9.73693
加封	-9.7378
二三	-9.73984
人者	-9.74019
不善	-9.74072
䧏	-9.74091
人以	-9.74179
仁宗	-9.74179
八月	-9.74214
勒	-9.74306
蹈	-9.7433
漠	-9.74332
靈寳	-9.74381
欣	-9.74394
鐘	-9.7441
枕	-9.74411
桂	-9.74424
皮	-9.74424
奥	-9.74437
崔	-9.74437
膚	-9.7445
其性	-9.74499
絶頂	-9.74621
北極	-9.74738
大有	-9.74787
在上	-9.74909
受其	-9.7503
杳	-9.75114
皆有	-9.75188
二十一	-9.75225
之至也	-9.75333
皆以	-9.75376
夬	-9.75507
懇	-9.75521
查	-9.75568
他日	-9.75576
牒	-9.75591
惟神	-9.75594
標	-9.75605
難靈應藥王扁鵲君能救	-9.75621
夙	-9.75622
展	-9.75633
噫	-9.75645
而反	-9.75647
㓂	-9.75663
羞	-9.75676
躍	-9.75686
灌	-9.75718
藩	-9.75732
互	-9.75733
至是	-9.76092
安得	-9.76167
不若	-9.76273
猶有	-9.7638
誕	-9.76517
二月	-9.76532
也蓋	-9.76629
生民	-9.76701
栢	-9.76848
文公	-9.76863
濡	-9.76908
俊	-9.76916
涕	-9.76927
矯	-9.76966
排	-9.76993
至聖	-9.76998
吁	-9.77001
行者	-9.77052
匿	-9.77067
箇	-9.77092
乎夫	-9.77099
再拜	-9.77151
氏之	-9.77203
治天下	-9.77373
貞吉	-9.77456
無憂	-9.77582
不動	-9.77584
思之	-9.77759
峪	-9.77915
精神	-9.78001
伏以	-9.78146
二十六	-9.78208
巾	-9.78217
援	-9.7822
至人	-9.78227
稷	-9.78235
絳	-9.7824
項	-9.78249
幻	-9.78256
慰	-9.78262
熱	-9.78264
誣	-9.7828
虐	-9.78281
傑	-9.78282
禾	-9.78288
宻	-9.78318
伏羲	-9.78329
酌	-9.78358
麥	-9.78378
䑓	-9.78443
飲食	-9.78464
千古	-9.78537
伏願	-9.78676
本無	-9.78737
録之	-9.78802
莊子	-9.78833
與天	-9.7899
元吉	-9.79014
乎此	-9.79161
出門	-9.79398
太清	-9.79498
創	-9.79506
恬	-9.79523
垢	-9.79547
老聃	-9.79551
荅	-9.79564
焕	-9.79573
崑崙	-9.79589
郞	-9.7964
雷霆	-9.7965
伍	-9.79662
裂	-9.79688
九月	-9.7974
遁	-9.79753
九色	-9.79807
玉清	-9.79885
齊魯	-9.80005
也是故	-9.80043
桓公	-9.80074
何謂	-9.80085
三清	-9.80124
在岳	-9.80221
西方	-9.80248
若夫	-9.80396
不亦	-9.80628
徽	-9.80714
峽	-9.80816
纏	-9.80844
自在	-9.80847
閻	-9.80848
遜	-9.80866
迫	-9.80874
簾	-9.80895
數十	-9.80909
恕	-9.80912
棟	-9.80913
十餘	-9.80917
翔	-9.80939
不行	-9.80958
瓦	-9.80961
灰	-9.80978
乏	-9.80983
奢	-9.80986
爲我	-9.81004
之妙	-9.81048
一身	-9.81144
天帝	-9.81264
者其	-9.81362
所由	-9.81366
不欲	-9.81525
主有	-9.81544
山東	-9.81563
正直	-9.8157
永樂	-9.81608
在於	-9.81622
而天下	-9.81724
八年	-9.81763
自然之	-9.82012
歸妹	-9.82152
巫	-9.82199
戾	-9.822
㧞	-9.82208
暉	-9.82212
山林	-9.82215
泄	-9.82234
之謂也	-9.82234
紙	-9.82237
沛	-9.82272
随	-9.82278
鄙	-9.82279
苗	-9.82282
濕	-9.82289
截	-9.82308
的	-9.82312
郤	-9.82314
電	-9.82325
捧	-9.82348
佞	-9.82353
掛	-9.82361
神人	-9.82392
童子	-9.82437
者何	-9.82443
禪師	-9.82466
下有	-9.82503
不見其	-9.82628
京師	-9.8263
一二	-9.8267
君子之	-9.8269
北斗	-9.82737
死者	-9.82752
宫主	-9.83136
都御史	-9.83208
十里	-9.83244
而生	-9.83307
公曰	-9.8343
闢	-9.83461
爾時	-9.83494
邇	-9.83599
莽	-9.83614
争	-9.83627
漫	-9.8365
甞	-9.8367
污	-9.83699
膏	-9.83699
腐	-9.83702
冨	-9.83708
成功	-9.8371
暢	-9.8372
庵	-9.83725
絡	-9.83743
科名	-9.83813
太和	-9.83841
䏻	-9.8386
玉京	-9.8391
至誠	-9.83947
以正	-9.84146
之變	-9.84221
也然則	-9.84435
利貞	-9.84473
是經	-9.84497
感應	-9.84498
不離	-9.84517
亦無	-9.84577
匹	-9.84866
勃	-9.84928
董	-9.84938
狄	-9.84956
醴	-9.84958
晏	-9.84973
緩	-9.84979
沐浴	-9.84985
苑	-9.85003
馭	-9.85019
練	-9.8502
啇	-9.85036
渉	-9.85077
錬	-9.85078
蓬萊	-9.85134
釣	-9.85134
⬤⬤	-9.85163
日出	-9.85341
躔	-9.85343
無名	-9.8547
玄都	-9.85635
女子	-9.85652
而得	-9.8566
終始	-9.85682
扵是	-9.8574
香火	-9.85847
可得	-9.85882
言也	-9.85933
之主	-9.8596
不祥	-9.86047
然也	-9.86203
有大	-9.86273
貴人	-9.8631
而言	-9.86343
俟	-9.86388
叙	-9.86403
自古	-9.86414
捷	-9.86423
燒	-9.86429
詭	-9.86429
元始天尊	-9.86448
叛	-9.86452
可以爲	-9.86471
牢	-9.86477
高宗	-9.86481
巡	-9.86481
籠	-9.86496
其間	-9.86505
以待	-9.86528
鄕	-9.86533
偈	-9.86561
二子	-9.86686
於道	-9.86751
分明	-9.86774
長安	-9.87057
龍虎	-9.8706
哉故	-9.87116
不必	-9.87181
未知	-9.8747
二十七	-9.87498
場	-9.875
白日	-9.87531
相逢	-9.87554
古本作	-9.87644
其實	-9.87688
渠	-9.87713
孕	-9.87734
物而	-9.87794
斧	-9.87796
化爲	-9.87798
樸	-9.878
郎	-9.87801
珪	-9.87819
准	-9.87828
拒	-9.87858
喬	-9.87867
纔	-9.87869
較	-9.87873
所居	-9.87873
泠	-9.87889
毅	-9.87891
偉	-9.87904
勳	-9.87911
此日	-9.87944
謬	-9.87947
二十二	-9.87981
洩	-9.87992
不通	-9.88007
鉢	-9.88021
豈有	-9.88025
公孫	-9.88218
之道也	-9.88321
矣然	-9.88524
不受	-9.88541
此皆	-9.88545
左傳	-9.88655
若此	-9.88868
五方	-9.89083
上天	-9.89086
以養	-9.89174
闔	-9.89224
撰	-9.89232
臻	-9.89244
駭	-9.89273
天符	-9.89295
釐	-9.89302
乖	-9.89309
朴	-9.89319
暑	-9.89342
冕	-9.89349
阜	-9.89371
溥	-9.8939
恠	-9.89406
驪	-9.89423
動而	-9.89448
爲大	-9.89478
以致	-9.89517
道場	-9.89635
其母	-9.89665
得以	-9.89778
物也	-9.89839
各自	-9.89886
北方	-9.89924
四五	-9.89956
禮義	-9.90142
孟子曰	-9.90176
呪	-9.90379
人物	-9.90535
罡	-9.90563
明夷	-9.90627
肇	-9.90648
人口	-9.90652
正一嗣教	-9.90662
附録	-9.90717
离	-9.90726
鄧	-9.90745
之學	-9.90764
飬	-9.90792
大光明	-9.90793
亟	-9.90795
徙	-9.90815
関	-9.90848
太玄	-9.90859
嬰兒	-9.90862
妨	-9.90926
文帝	-9.90934
五星	-9.90973
則是	-9.91088
仲尼	-9.912
疾病	-9.91222
未嘗不	-9.91444
福德	-9.91445
其志	-9.91509
之難	-9.91577
之盛	-9.91587
非有	-9.91756
人有	-9.91897
台	-9.91898
卄	-9.92129
貳	-9.92192
零	-9.92195
製	-9.92206
輦	-9.92219
故無	-9.92222
距	-9.92262
朽	-9.92276
一念	-9.92293
屠	-9.92344
涣	-9.92353
則知	-9.92355
烹	-9.92363
朋友	-9.92373
遏	-9.92383
謗	-9.92402
汞	-9.92433
者無	-9.92482
紫微	-9.92496
召見	-9.9255
喜神	-9.92808
南北	-9.92824
太陰	-9.92835
時有	-9.92916
衆人	-9.92987
十二月	-9.92991
宫中	-9.93001
君子以	-9.93048
非其	-9.93143
其形	-9.93242
不待	-9.93397
何所	-9.93403
不識	-9.93569
不止	-9.9358
皈	-9.93595
蓍	-9.93661
惶	-9.93681
隋	-9.93685
該	-9.93704
憫	-9.93753
泯	-9.93764
糧	-9.93766
梅	-9.9378
吉象曰	-9.93794
鷄	-9.93802
寫	-9.93807
敕	-9.93828
梯	-9.93851
萌	-9.93861
臭	-9.93863
橫	-9.93879
週	-9.93927
飛昇	-9.9396
八百	-9.9404
妻子	-9.94089
禄元	-9.94116
之志	-9.94307
天文	-9.94358
女人	-9.94536
中孚	-9.94564
生者	-9.94596
姓名	-9.94708
無私	-9.94751
高祖	-9.95194
梓	-9.95202
邵	-9.95208
豕	-9.95211
粹	-9.95236
之數	-9.95257
萬年	-9.9526
千年	-9.95271
至眞	-9.95285
雉	-9.9529
濤	-9.95296
頻	-9.95327
挾	-9.95329
疫	-9.95344
盆	-9.95345
以自	-9.95428
認	-9.95436
神呪	-9.95481
薪	-9.95547
眞宗	-9.9559
未濟	-9.95628
仙妃	-9.95628
无妄	-9.95663
家宅	-9.95689
其神	-9.95932
登岱	-9.95977
而求	-9.95979
平生	-9.96045
六親	-9.96151
高上	-9.96193
威靈	-9.96227
不生	-9.96239
貴賤	-9.96416
南極	-9.96657
洲	-9.96663
後人	-9.96695
曰君	-9.96703
匠	-9.96709
奠	-9.96788
其有	-9.9679
淨	-9.96796
晚	-9.96815
帝曰	-9.96839
呈	-9.9685
湧	-9.96861
祉	-9.96875
其所以	-9.96889
岐	-9.9689
陋	-9.96891
摧	-9.96898
兎	-9.96922
之世	-9.96965
疇	-9.96983
世俗	-9.97022
有言	-9.97157
甚矣	-9.97163
逄	-9.97217
乎哉	-9.97232
曰朕	-9.97387
古者	-9.97458
一旦	-9.97541
公卿	-9.97611
未可	-9.97619
者謂	-9.97647
有孚	-9.97925
初二	-9.98092
相應	-9.981
也吾	-9.98118
八煞	-9.98118
遣使	-9.98192
一言	-9.98225
利益	-9.98327
跪	-9.98342
不容	-9.98364
九天金闕	-9.98398
玩	-9.98412
藉	-9.98432
擢	-9.98438
禀	-9.98452
躋	-9.9846
鞭	-9.9846
膽	-9.98472
藴	-9.98473
態	-9.98485
雌	-9.9851
得失	-9.98519
逼	-9.98541
舎	-9.98543
辜	-9.98543
札	-9.9855
尼	-9.98559
蛟	-9.9856
効	-9.98579
肥	-9.98585
登岳	-9.98589
虫	-9.98596
久矣	-9.986
從之	-9.98606
上九	-9.98678
不與	-9.98785
虛無	-9.99054
之寳	-9.99176
宰相	-9.99239
無妄	-9.99274
坊	-9.99544
之命	-9.99632
化生	-9.99735
丞	-9.99796
何其	-9.99832
文魁	-9.99896
傲	-9.99899
括	-10.0001
所得	-10.0002
添	-10.0003
同人	-10.0004
戀	-10.0005
侮	-10.0005
骸	-10.0005
囂	-10.0006
寐	-10.0007
墟	-10.0008
第三	-10.0009
泊	-10.0009
睹	-10.0012
弄	-10.0015
捕	-10.0016
船	-10.0017
噐	-10.0018
獵	-10.0022
解脫	-10.0037
修行	-10.0041
飲酒	-10.0046
未聞	-10.005
所欲	-10.0065
上元	-10.0073
官禄	-10.0075
七殺	-10.0081
四年	-10.0093
三四	-10.0098
求財	-10.0098
不求	-10.0107
殺之	-10.0111
今之	-10.0114
莊公	-10.0124
觀者	-10.0146
終不	-10.0153
太公	-10.0155
峙	-10.0157
揮	-10.0166
踵	-10.0167
嗔	-10.0168
毀	-10.0169
於天下	-10.0171
丸	-10.0171
薛	-10.0172
徼	-10.0175
宛	-10.0175
明年	-10.0175
輒	-10.0176
床	-10.0178
僚	-10.0179
杯	-10.0182
榖	-10.0182
筆乘	-10.0184
腸	-10.0187
韻	-10.0188
於天	-10.0201
道家	-10.0204
猶未	-10.0223
因縁	-10.0224
神化	-10.0228
第二	-10.0236
食之	-10.0251
之吉	-10.0252
不絶	-10.0255
人生	-10.0259
先帝	-10.026
以告	-10.026
之患	-10.0269
元氣	-10.0278
催官	-10.03
貴元	-10.0301
我心	-10.0307
仁元	-10.0316
此言	-10.0317
天厨	-10.032
之位	-10.0322
諧	-10.0333
虗	-10.0334
技	-10.0335
倪	-10.0336
濯	-10.0337
裁	-10.0337
扶桑	-10.0338
謚	-10.0339
鼠	-10.0339
弓	-10.0339
鰲峰	-10.034
潮	-10.0341
孔雀明王	-10.0341
陞	-10.0344
隙	-10.0345
祇	-10.0347
禄神	-10.035
疊	-10.0352
自以爲	-10.0356
神靈	-10.036
百官	-10.0371
萬民	-10.0395
太史	-10.0396
和氣	-10.0402
人事	-10.0404
子貢	-10.0411
能知	-10.0416
存亡	-10.0426
功成	-10.0438
所用	-10.0438
父老	-10.0441
黄金	-10.0448
泰山之	-10.0455
七八	-10.0473
惡星	-10.0474
未免	-10.0477
求之	-10.0479
六年	-10.0481
如今	-10.0496
邁	-10.0498
之論	-10.0499
坦	-10.0499
旨	-10.0501
苔	-10.0502
涼	-10.0502
於外	-10.0504
綸	-10.0505
軸	-10.0509
舅	-10.0509
肝	-10.0509
畆	-10.0509
嘆曰	-10.0512
漁	-10.0512
森	-10.0512
恍惚	-10.0513
裔	-10.0513
膠	-10.0514
頑	-10.0514
潰	-10.0515
遑	-10.0516
拳	-10.0517
渙	-10.0517
靄	-10.0518
安能	-10.0525
五日	-10.0525
九三	-10.0537
以示	-10.0538
而死	-10.0539
忠孝	-10.0554
至尊	-10.0555
而又	-10.0559
王公	-10.0571
自知	-10.0578
笑曰	-10.0583
豈可	-10.0588
故云	-10.0592
不顧	-10.0593
何必	-10.0594
問之	-10.0596
廟在	-10.0602
三教	-10.0604
天理	-10.0607
或有	-10.0623
馬元	-10.0631
在天	-10.0638
一名	-10.0644
此是	-10.0645
衣冠	-10.0667
中元	-10.0669
吿	-10.0671
昴	-10.0675
壤	-10.0675
蟻	-10.0676
入室	-10.0677
擅	-10.0677
貽	-10.0678
簿	-10.0679
寰	-10.0679
謫	-10.0679
沐	-10.0679
惕	-10.0679
誌	-10.068
大過	-10.068
縮	-10.068
薦元	-10.0682
署	-10.0682
弃	-10.0683
督	-10.0683
織	-10.0684
函	-10.0685
蠻	-10.0685
而出	-10.0687
茫	-10.0688
豹	-10.0689
茶	-10.069
貧賤	-10.0691
皈命	-10.0696
袖	-10.0696
山中	-10.07
最上	-10.07
無情	-10.0703
消息	-10.0705
又云	-10.0707
莫若	-10.0715
喜怒	-10.072
玄宗	-10.0721
此之謂	-10.0739
謀望	-10.0741
登臨	-10.0747
不當	-10.0748
一宫	-10.076
皆得	-10.0771
未見	-10.0773
從容	-10.0775
固有	-10.0786
書曰	-10.0801
十一月	-10.0801
之禍	-10.081
其始	-10.0813
無間	-10.083
命宫	-10.0838
故也	-10.0841
豪	-10.0854
煥	-10.0855
潭	-10.0856
莊子曰	-10.0856
鑄	-10.0857
恢	-10.0859
駒	-10.0861
炭	-10.0862
闇	-10.0862
拾	-10.0866
两	-10.0866
魔耶女	-10.087
或曰	-10.0876
之君	-10.0878
得中	-10.0878
曾子	-10.088
初五	-10.0883
賢者	-10.0902
氣象	-10.0909
主人	-10.0909
相得	-10.091
既濟	-10.0911
有情	-10.0914
手足	-10.0918
漢書	-10.0919
君臣之	-10.0934
洞天	-10.0939
不已	-10.0953
七政	-10.0964
而上	-10.0976
亦非	-10.0982
無常	-10.1006
天福	-10.1007
仁者	-10.1011
聦	-10.1015
以安	-10.1015
之文	-10.1017
江南	-10.1022
跨	-10.1023
属	-10.1026
確	-10.1026
槩	-10.1027
恍	-10.1028
汙	-10.1029
無益	-10.103
皓	-10.1031
區	-10.1031
警	-10.1032
溝	-10.1032
誨	-10.1035
光武	-10.1037
萬神	-10.1037
碎	-10.1039
綏	-10.1041
羲	-10.1041
狩	-10.1041
豁	-10.1042
強	-10.1044
憎	-10.1045
躡	-10.1045
種種	-10.1047
占病	-10.105
乎天	-10.1054
則以	-10.1055
救苦	-10.1064
官印	-10.1064
河圖	-10.1078
也是以	-10.1081
不覺	-10.1081
其本	-10.1091
小畜	-10.1092
以明	-10.1109
自此	-10.111
之門	-10.1114
七年	-10.1119
二十九	-10.1123
一方	-10.1127
當以	-10.1135
三百	-10.1137
者矣	-10.1142
妙道	-10.1143
衣食	-10.1145
不得不	-10.115
無知	-10.1182
度人	-10.1184
他人	-10.1187
五老	-10.1201
所言	-10.1202
吊	-10.1207
禽獸	-10.121
狹	-10.1211
薰	-10.1212
租	-10.1212
聳	-10.1212
巒	-10.1213
紫氣	-10.1214
滑	-10.1215
裕	-10.1215
殁	-10.1216
拯	-10.1217
顏	-10.1218
其義	-10.1218
霽	-10.1219
竈	-10.1219
汎	-10.1219
巍巍	-10.1219
匡	-10.1219
捐	-10.122
媚	-10.122
誇	-10.1222
僉	-10.1222
鞅	-10.1222
伺	-10.1222
斤	-10.1223
歴	-10.1228
紛紛	-10.1231
出于	-10.1233
軌	-10.1237
徃徃	-10.1237
十餘年	-10.1239
以求	-10.1254
而實	-10.1254
大慈	-10.1263
者雖	-10.1276
先天	-10.1282
忠信	-10.1297
六三	-10.13
也郭註	-10.1305
而忘	-10.1313
諸神	-10.1342
⬤(	-10.1356
羊刄	-10.1356
修道	-10.1359
方便	-10.1373
夫子之	-10.1378
準	-10.1389
抗	-10.1392
偷	-10.1396
陣	-10.1398
菩薩	-10.1399
板	-10.14
墳	-10.14
悠	-10.1401
盍	-10.1401
彈	-10.1403
誼	-10.1404
瘟	-10.1404
少年	-10.1404
慨	-10.1405
銳	-10.1406
故有	-10.1407
巿	-10.1408
憚	-10.1409
虔誠	-10.141
汗	-10.1411
緯	-10.1411
符籙	-10.1418
經云	-10.142
空中	-10.1431
宗廟	-10.1434
小過	-10.1438
二五	-10.1444
反覆	-10.1445
流行	-10.1454
自謂	-10.1468
惜乎	-10.1475
數百	-10.1476
無患	-10.1477
后土	-10.1477
祀之	-10.1495
而知	-10.15
無聲	-10.1523
寡人	-10.1548
中正	-10.157
奬	-10.1574
村	-10.1579
明道	-10.1579
汶	-10.1583
妬	-10.1583
熊	-10.1584
曰昔	-10.1584
三合	-10.1585
若人	-10.1585
勾	-10.1586
脚	-10.1586
系	-10.1587
驛	-10.1588
澹	-10.159
弑	-10.1593
剪	-10.1595
嗜	-10.1595
夷狄	-10.1598
殉	-10.1598
故以	-10.1599
隸	-10.16
寍	-10.16
盲	-10.1601
東華	-10.1601
闊	-10.1603
則天下	-10.1603
剛柔	-10.1611
一切衆生	-10.1615
百世	-10.1618
一曰	-10.1619
威儀	-10.162
清淨	-10.1627
登封	-10.1627
之機	-10.1629
其意	-10.1636
非常	-10.1651
十三年	-10.1659
十四十	-10.1669
其餘	-10.167
聖意	-10.1672
之録曰	-10.1678
戒之	-10.168
金石	-10.1684
六合	-10.1692
之樂	-10.1706
成王	-10.1732
人身	-10.1732
不盡	-10.1748
儒者	-10.1764
攷	-10.1766
九天玉闕	-10.1766
覲	-10.1767
闘	-10.1769
靈應	-10.1773
僣	-10.1773
當其	-10.1776
老人	-10.1778
鳩	-10.178
洞玄	-10.178
萊	-10.1781
汪	-10.1781
洽	-10.1783
瑩	-10.1784
弦	-10.1786
閔	-10.1786
泛	-10.1788
邉	-10.1788
倦	-10.1788
混沌	-10.1789
昨	-10.1789
豆	-10.1791
黍	-10.1791
宦	-10.1792
昩	-10.1793
口舌	-10.1794
黜	-10.1797
遮	-10.1797
眠	-10.1798
頸	-10.18
所不能	-10.1806
千餘	-10.1822
不思	-10.1823
百萬	-10.1839
以天下	-10.184
一百	-10.1849
作福	-10.1851
而化	-10.1858
歸于	-10.1879
任之	-10.188
孰能	-10.1891
十日	-10.1899
右第	-10.19
人情	-10.1908
下降	-10.1925
正法	-10.1927
之罪	-10.1928
可得而	-10.1929
無咎	-10.1932
吉祥檀熾鈞	-10.1942
治之	-10.1946
從事	-10.1946
可乎	-10.1961
姤	-10.1966
御帳	-10.197
揭	-10.197
耿	-10.1971
狥	-10.1974
磴	-10.1975
頴	-10.1976
柴	-10.1977
頽	-10.1979
躁	-10.1979
諷	-10.1979
翳	-10.198
團	-10.1981
頒	-10.1981
懋	-10.1981
之㫖	-10.1982
衝	-10.1982
宇宙	-10.1982
株	-10.1982
取其	-10.1986
罹	-10.1989
漿	-10.199
遠矣	-10.199
斜	-10.1991
航	-10.1991
按春秋	-10.1996
平安	-10.1996
財帛	-10.2002
萬事	-10.2012
冥冥	-10.2036
司命	-10.2036
不肖	-10.2051
百餘	-10.2056
爲君	-10.2064
青天	-10.2078
之術	-10.2094
不變	-10.2112
孰爲	-10.2113
將以	-10.2129
立廟	-10.2132
即是	-10.2143
三天	-10.2149
與天地	-10.2156
大衆	-10.2158
哀公	-10.2161
易曰	-10.2165
之用	-10.2168
替	-10.2173
棺	-10.2176
冤	-10.2176
宏	-10.2177
之餘	-10.2178
齎	-10.2178
丕	-10.2179
萬曆	-10.218
嚥	-10.2181
駢	-10.2183
罕	-10.2183
元神	-10.2185
滄海	-10.2186
憶	-10.2186
中央	-10.2187
島	-10.2187
黒	-10.2188
欝	-10.2191
二日	-10.22
之美	-10.2202
山下	-10.2202
哉夫	-10.2205
大畜	-10.2224
可與	-10.2229
人倫	-10.2229
玉闕	-10.2235
不惟	-10.2246
讀書	-10.2251
四象	-10.2252
延年	-10.2253
清靜	-10.2257
則必	-10.2257
上昇	-10.2261
以禮	-10.2262
之宗	-10.2264
雖欲	-10.2265
諸仙	-10.2268
志心	-10.2271
二字	-10.2271
有天下	-10.2273
一生	-10.2278
未得	-10.228
也苟	-10.2291
其家	-10.23
吾聞	-10.2307
地府	-10.231
其行	-10.2315
不可得而	-10.2316
吉祥	-10.2318
漢之	-10.2318
其君	-10.2318
群生	-10.2327
而歸	-10.233
病者	-10.2353
誦經	-10.2366
竇	-10.2366
而止	-10.2371
護國	-10.2371
三寳	-10.2372
讒	-10.2374
粗	-10.2376
逈	-10.2385
瓜	-10.2385
大壯	-10.2386
老氏	-10.2387
之先	-10.2387
樊	-10.2387
茍	-10.2387
毎	-10.2388
鈞	-10.2388
彊	-10.2388
教化	-10.239
玄天上帝感應靈籤第	-10.2391
幾何	-10.2393
膝	-10.2393
縈	-10.2393
歡喜	-10.2398
歷代	-10.24
之勢	-10.2401
入於	-10.2402
不敬	-10.2405
快樂	-10.2406
孝子	-10.2407
註云	-10.2417
豈知	-10.2418
風吹	-10.2422
白鶴	-10.2427
何處	-10.2436
昊天	-10.2438
篇云	-10.2438
太素	-10.2443
而來	-10.2449
未始有	-10.2455
人民	-10.246
子産	-10.2475
則其	-10.2484
云云	-10.2492
進士	-10.2494
無方	-10.2504
正道	-10.2504
功名	-10.2516
不失其	-10.2518
遊於	-10.2526
天性	-10.2533
音吉祥檀熾鈞	-10.2536
昊	-10.2546
湛	-10.2558
奈	-10.2559
有疾	-10.2569
跂	-10.2574
度主	-10.2578
衢	-10.2582
拙	-10.2583
猷	-10.2584
貸	-10.2585
姻	-10.2588
蒸	-10.2589
荀	-10.259
韋	-10.259
変	-10.2593
十四年	-10.2593
壽命	-10.2593
弘道録	-10.2593
遼	-10.2594
捍	-10.2594
虹	-10.2595
噬嗑	-10.2596
籤	-10.2596
煌	-10.2597
水帝大龍王	-10.2597
洒	-10.2597
焚香	-10.2597
三皇	-10.2598
頥	-10.2598
解曰占家宅	-10.2599
稼	-10.26
吸	-10.26
懲	-10.2601
鳯	-10.2601
蟾	-10.2602
從而	-10.2605
鈴	-10.2612
其下	-10.2616
物物	-10.2619
啓請	-10.2622
諸將	-10.2632
之狀	-10.264
上皇	-10.2656
大抵	-10.268
而不得	-10.2683
之迹	-10.27
其功	-10.2703
聖衆	-10.2721
之宫	-10.2724
莫如	-10.2747
廟旺	-10.2752
第四	-10.2757
令人	-10.2783
稅	-10.2786
叩齒	-10.2789
宥	-10.2791
無爲而	-10.2792
利有攸徃	-10.2795
帳	-10.2796
俞	-10.2799
壹	-10.28
聊	-10.2802
睦	-10.2803
嚮	-10.2803
級	-10.2803
久之	-10.2803
轍	-10.2804
彦	-10.2804
乹	-10.2804
綺	-10.2805
鰲	-10.2805
諾	-10.2806
鈎	-10.2806
頓首	-10.2806
斥	-10.2806
攘	-10.2807
十一年	-10.2807
夙夜	-10.2808
誘	-10.2809
諒	-10.2811
跳	-10.2811
叟	-10.2816
圃	-10.2816
兔	-10.2817
湘	-10.2817
僊	-10.2818
於前	-10.2819
邈	-10.282
忽然	-10.2828
則又	-10.285
而卒	-10.2856
未始	-10.2871
恭惟	-10.2875
政事	-10.2893
是以聖人	-10.2898
積善	-10.291
神霄	-10.291
不堪	-10.2917
青帝	-10.292
箕子	-10.2942
天機	-10.2969
祖師	-10.2971
大將軍	-10.2971
至德	-10.2994
扇	-10.301
妙行	-10.3011
浸	-10.3013
暘	-10.3014
浚	-10.3016
軀	-10.3019
絹	-10.3019
悶	-10.3019
肺	-10.302
羸	-10.3021
邀	-10.3022
咲	-10.3023
畔	-10.3023
艾	-10.3024
蹤	-10.3025
蟠	-10.3026
迄	-10.3026
料	-10.3027
須臾	-10.3028
憤	-10.303
伏㠯	-10.3036
洪武	-10.3038
三公	-10.3041
非但	-10.3042
彬	-10.3044
萬丈	-10.3046
丈夫	-10.3069
八十一	-10.3087
日新	-10.3095
入廟	-10.3099
金陵	-10.3132
六甲	-10.3142
分野	-10.3149
開元	-10.3149
水中	-10.3162
自生	-10.3171
不由	-10.3178
五千	-10.32
擎㳺	-10.32
仲尼曰	-10.3201
神功	-10.3215
始終	-10.322
浙	-10.3222
剛中	-10.3224
自己	-10.3228
跛	-10.3229
無邊	-10.3234
億萬	-10.3235
繡	-10.3236
剖	-10.3236
檀	-10.3237
詎	-10.3238
十二年	-10.3239
代天師諱	-10.3239
扁	-10.3239
鳳凰	-10.324
揺	-10.324
諌	-10.3241
霑	-10.3244
怡	-10.3244
竿	-10.3245
鋒	-10.3245
神通品	-10.3246
婢	-10.3246
抽	-10.3247
壅	-10.3247
撓	-10.3248
岑	-10.3248
渴	-10.3248
詢	-10.3249
珮	-10.325
太尉	-10.3252
梧	-10.3252
便是	-10.3252
簫	-10.3253
魅	-10.3258
安寧	-10.3261
蟄	-10.3261
天嗣	-10.3281
親睦	-10.3291
太常	-10.3294
豈無	-10.3323
爲天子	-10.3327
奉行	-10.335
從此	-10.3352
其上	-10.3353
多矣	-10.3374
第五	-10.3389
在外	-10.3401
上六	-10.3412
耳非	-10.3416
道路	-10.3426
在位	-10.3439
一毫	-10.3448
▲	-10.3453
檜	-10.3454
減	-10.3458
址	-10.3461
酬	-10.3462
嶂	-10.3463
跋	-10.3466
踪	-10.3467
冒	-10.3468
眺	-10.3469
衮	-10.3471
扣	-10.3472
窟	-10.3472
𡨋	-10.3473
區區	-10.3473
繪	-10.3473
兀	-10.3474
慚	-10.3474
媒	-10.3474
驟	-10.3474
渭	-10.3475
氛	-10.3475
蹟	-10.3475
忙	-10.3475
浴	-10.3476
選擇	-10.3477
咫尺	-10.3477
駐	-10.3478
瘡	-10.3478
翰林	-10.3479
庚申	-10.3481
失之	-10.3483
不改	-10.3485
奉獻	-10.3509
獨立	-10.3515
混合	-10.3517
居中	-10.3523
酒食	-10.3535
分别	-10.3581
無他	-10.3583
白虎	-10.3589
豈能	-10.362
丑寅	-10.3625
也聖人	-10.3628
下民	-10.363
風雲	-10.3631
帝王之	-10.3631
入于	-10.3646
出乎	-10.3657
教主	-10.3667
有形	-10.3667
文明	-10.3667
岱嶽	-10.3673
塊	-10.3677
自爾	-10.3688
敖	-10.3693
祁	-10.3695
鬻	-10.3695
赫赫	-10.3697
價	-10.3698
搜	-10.37
銷	-10.3702
洋	-10.3702
牀	-10.3702
滛	-10.3703
衷	-10.3704
倘	-10.3704
淹	-10.3706
壘	-10.371
婆	-10.3711
笙	-10.3712
股	-10.3712
惹	-10.3713
擲	-10.3715
萬古	-10.3715
地支	-10.3717
翟	-10.3718
姒	-10.3719
忘其	-10.372
璞	-10.3722
河南	-10.3723
咽	-10.3723
唐虞	-10.3724
漢天師	-10.3726
聰明	-10.373
堅固	-10.373
子弟	-10.3731
太山	-10.376
江河	-10.3765
禮部	-10.3776
法界	-10.3781
門户	-10.3783
六畜	-10.3819
於物	-10.3827
矣故曰	-10.3828
妙化	-10.3834
無疆	-10.3847
得地	-10.3856
悉皆	-10.3858
金剛	-10.3874
足矣	-10.3882
扵此	-10.3916
貺	-10.3927
雕	-10.3928
田宅	-10.3931
冰	-10.3936
鷹	-10.3936
虚空	-10.3936
慎	-10.3937
羡	-10.3937
好生	-10.3938
称	-10.3938
兢	-10.394
況	-10.394
鴟	-10.3941
陪	-10.3943
段	-10.3944
粉	-10.3944
嫡	-10.3945
漂	-10.3945
滌	-10.3948
鱗	-10.3949
蠢	-10.3949
跌	-10.395
数	-10.3952
翕	-10.3953
无咎象曰	-10.3953
侣	-10.3956
高明	-10.3961
隣	-10.3962
未盡	-10.3979
州人	-10.3983
副使	-10.3987
靈寶	-10.3989
襄公	-10.3999
山河	-10.401
成就	-10.4011
福地	-10.402
普度	-10.4023
此所以	-10.4032
浮雲	-10.4035
封泰山	-10.4038
雲房	-10.4051
靈文	-10.4059
無功	-10.4076
是已	-10.4082
門外	-10.4139
化形	-10.4145
㬋	-10.4148
籟	-10.4171
巍	-10.4172
忿	-10.4173
霍	-10.4175
戈	-10.4176
馨	-10.4178
嵐	-10.4179
炳	-10.4181
腎	-10.4181
戯	-10.4183
喧	-10.4183
綬	-10.4184
促	-10.4184
智慧	-10.4185
恪	-10.4186
熾	-10.4187
幢	-10.4188
㓛	-10.4188
誦此經	-10.4189
歆	-10.419
不得其	-10.419
沿	-10.419
謨	-10.4191
韶	-10.4191
磬	-10.4192
寃	-10.4192
無註未濟	-10.4194
俯仰	-10.4194
迯	-10.4195
孩	-10.4195
稀	-10.4196
煎	-10.4197
悠悠	-10.4197
鯉	-10.4199
𡻕	-10.4199
姿	-10.42
静	-10.42
無註豐	-10.4203
禄動	-10.4221
所遇	-10.424
遠近	-10.4243
冠衣	-10.4247
中原	-10.4262
不寧	-10.4271
九州	-10.4279
齊侯	-10.4296
勿用	-10.4318
五岳	-10.4322
鄉人	-10.4327
肖	-10.4341
報應	-10.4342
濟度	-10.4352
言語	-10.4357
利害	-10.4359
王室	-10.436
工夫	-10.4362
宫室	-10.4392
誰能	-10.4401
六十四	-10.4403
冬至	-10.4412
昆	-10.4421
蓄	-10.4422
紅鸞	-10.4424
徘徊	-10.4424
爪	-10.4425
繇	-10.4426
叢	-10.4428
油	-10.4432
桐	-10.4432
鉅	-10.4433
由此	-10.4434
癡	-10.4434
譚	-10.4434
軒轅	-10.4435
閃	-10.4436
蔑	-10.4436
巷	-10.4437
廊	-10.4437
餐	-10.4438
日觀峰	-10.4438
二女	-10.4438
瓶	-10.4438
侍郎	-10.4439
啞	-10.4439
燥	-10.4439
裴	-10.4439
尚饗	-10.444
獅子	-10.444
聲名	-10.4441
恱喜	-10.4441
無註大壯	-10.4444
詰	-10.4444
聾	-10.4444
伊尹	-10.4445
存焉	-10.4445
氐	-10.4445
屍	-10.4446
這	-10.4447
僖公	-10.4447
殄	-10.4449
稻	-10.4452
劔	-10.4453
沾	-10.4453
碣	-10.4456
運限	-10.446
十七年	-10.4467
齋戒	-10.4479
斯文	-10.449
鷟曰	-10.4493
榮華	-10.4498
說經	-10.4505
江海	-10.4514
莫知其	-10.4516
故聖人	-10.4526
如意	-10.4526
玄元	-10.4535
無註師	-10.4535
星斗	-10.4571
尚未	-10.46
在岳頂	-10.461
安樂	-10.464
刑刃	-10.465
岱岳	-10.4661
嵩	-10.4673
諛	-10.4675
臘	-10.4678
贅	-10.4678
霖	-10.4682
毛頭	-10.4683
茹	-10.4687
注生	-10.4687
惇	-10.4688
臯	-10.4688
廿	-10.4689
琦	-10.4689
餙	-10.469
憩	-10.469
㸃	-10.469
太上老君	-10.469
峭	-10.4692
袁	-10.4693
匱	-10.4694
煩惱	-10.4694
豊	-10.4695
琅	-10.4696
倏	-10.4697
忤	-10.4697
蠶	-10.4698
恱	-10.4699
貝	-10.4699
薨	-10.4699
溟	-10.4702
卞	-10.4702
僵	-10.4703
唇	-10.4704
黯	-10.4704
𡨚	-10.4704
穩	-10.4704
四季	-10.4705
銜	-10.4706
菜	-10.4706
桃花	-10.4706
黙	-10.4712
冉	-10.4717
脯	-10.4717
盛德	-10.4722
無註謙	-10.4724
芽	-10.4725
五代	-10.4741
勞苦	-10.475
兩儀	-10.4754
不啻	-10.4758
照臨	-10.4777
化形爲	-10.479
道德之	-10.4793
譬如	-10.4795
丹田	-10.4798
周易	-10.4798
千載	-10.4801
江西	-10.4803
歲合	-10.4823
海内	-10.4831
用兵	-10.4845
奪其	-10.4853
入朝	-10.4869
紫雲	-10.4876
也六五	-10.489
父兄	-10.4908
不違	-10.4935
洪恩眞君	-10.4944
苞	-10.4944
弔	-10.4945
圡	-10.4946
東封	-10.4946
净	-10.4947
瀉	-10.4948
栗	-10.4949
涵	-10.4952
鶉	-10.4952
閒	-10.4953
盜賊	-10.4955
牖	-10.4956
齧	-10.4957
牡	-10.4957
翌	-10.4958
愍	-10.4959
蓮花	-10.496
羿	-10.496
睡	-10.4961
筐	-10.4961
筋	-10.4961
涇	-10.4961
岡	-10.4962
洞賓	-10.4962
迪	-10.4962
儔	-10.4964
怕	-10.4966
遶	-10.4967
榻	-10.497
寒暑	-10.497
萬國	-10.497
綵	-10.4973
蘿	-10.4974
無註兊	-10.4974
覓	-10.4976
管仲	-10.4976
好事	-10.4976
庶人	-10.4977
淮南	-10.4978
吏部	-10.4979
悔亡	-10.4998
執政	-10.5026
厥後	-10.5072
好惡	-10.5073
論語	-10.5074
忠臣	-10.5088
立祠	-10.5101
濟南	-10.5104
先君	-10.5133
也上九	-10.5137
文字	-10.5158
也上六	-10.518
陛	-10.5196
黄河	-10.52
光照	-10.5203
培	-10.5209
疲	-10.521
髪	-10.5215
大悲大願大聖大慈	-10.5217
饋	-10.5218
棗	-10.5219
顛倒	-10.522
巴	-10.522
郁	-10.5221
曰陛下	-10.5221
睿	-10.5222
僻	-10.5223
壊	-10.5223
番	-10.5223
涸	-10.5224
叨	-10.5225
灼	-10.5226
醇	-10.5226
勵	-10.5227
涓	-10.5227
倡	-10.5228
状	-10.5228
鹽	-10.5229
癘	-10.5229
痊	-10.523
殖	-10.523
凍	-10.5231
譏	-10.5232
忝	-10.5233
焰	-10.5234
轡	-10.5234
也九三	-10.5236
無註小過	-10.5236
呵	-10.5236
蝗	-10.5236
御製	-10.5237
透	-10.5239
鄒	-10.5241
蝦	-10.5246
長存	-10.5248
無註大有	-10.525
北海	-10.5251
致祭	-10.5261
無註井	-10.5262
洛陽	-10.5264
何由	-10.5265
恭敬	-10.527
散花	-10.5274
弘治	-10.5277
水府	-10.529
純陽	-10.5293
任其自	-10.5307
酆都	-10.5315
中庸	-10.5318
夫妻	-10.5343
惡業	-10.5357
凶星	-10.5361
玄妙	-10.5377
聲色	-10.5385
未曾	-10.5387
神咒	-10.5395
萬象	-10.5408
三十年	-10.5436
暈	-10.5447
太白	-10.5477
擎	-10.5478
修眞	-10.5482
未嘗有	-10.5483
和今將聖德虔誠讃	-10.5485
陀	-10.5486
持是經人	-10.5487
方時化曰	-10.549
媪	-10.5493
灣	-10.5494
指揮	-10.5495
構	-10.5496
償	-10.5496
噬	-10.5497
什	-10.5497
幡	-10.5497
帖	-10.5498
曩	-10.5498
孺	-10.5498
浩刼	-10.55
匣	-10.5501
畒	-10.5501
第十	-10.5501
孔雀	-10.5502
膳	-10.5503
樵	-10.5503
泗	-10.5503
縛	-10.5503
漆	-10.5505
撥	-10.5505
擒	-10.5506
芬	-10.5506
猿	-10.5506
嘻	-10.5507
鎻	-10.5507
城隍	-10.5507
話	-10.5508
啼	-10.551
鬚	-10.551
奔走	-10.5511
蒲	-10.5511
乍	-10.5512
暨	-10.5512
無註蹇	-10.5512
無註頥	-10.5512
娱	-10.5513
了悟	-10.5514
打	-10.5515
黍稷	-10.5517
松栢	-10.5517
無註大畜	-10.5517
無註大過	-10.5518
謾	-10.5518
昂	-10.5521
蘆	-10.5522
无不利	-10.5523
無註同人	-10.5524
愚按	-10.5531
莫測	-10.5535
無註巽	-10.5537
夜半	-10.554
長短	-10.5547
歲殿	-10.5549
紫府	-10.5595
九霄	-10.5601
穆公	-10.5605
南宫	-10.5608
秦漢	-10.562
所好	-10.5633
子午	-10.5649
也六三	-10.5693
七寳	-10.57
豈惟	-10.571
里許	-10.5729
列子	-10.5744
倣	-10.5769
約束	-10.577
紳	-10.5774
壓	-10.5774
巖巖	-10.5778
析	-10.578
彙	-10.5781
餓	-10.5781
㳺	-10.5782
懐	-10.5787
嗚	-10.5787
忻	-10.5787
慙	-10.5787
鎖	-10.5787
軾	-10.5788
臯陶	-10.5789
伏念某	-10.5789
太虚	-10.5789
斛	-10.579
慝	-10.579
懴	-10.5791
滔	-10.5791
派	-10.5792
骨肉	-10.5792
挺	-10.5792
鰥	-10.5792
竄	-10.5792
諤	-10.5792
掠	-10.5792
隕	-10.5792
無註中孚	-10.5793
謡	-10.5795
谿	-10.5796
歇	-10.5797
苛	-10.5797
耆	-10.5798
無註睽	-10.58
眩	-10.5801
下界	-10.5802
太虛	-10.5804
無註噬嗑	-10.5805
藍	-10.5805
無註萃	-10.5806
甘露	-10.5808
無註旅	-10.5812
無註艮	-10.5813
侍衛	-10.5817
萬壑	-10.5824
羽士	-10.5827
無註震	-10.583
色之光	-10.5832
無註泰	-10.5837
高功	-10.5845
無註臨	-10.5856
祈福	-10.5864
水旱	-10.5865
得之以	-10.5867
救度	-10.5876
相侵	-10.5879
憂患	-10.5895
何須	-10.5898
不知其所	-10.5914
偶然	-10.5921
刻石	-10.5993
著書	-10.6011
彖	-10.6027
貞觀	-10.6032
儼	-10.6036
畜生	-10.6037
煞	-10.6048
娣	-10.6049
厨	-10.6055
悃	-10.6067
蹶	-10.6071
曳	-10.6073
眇	-10.6073
貯	-10.6073
疏	-10.6075
歐陽	-10.6076
輟	-10.6077
跖	-10.6078
寔	-10.6078
肌	-10.6079
縹緲	-10.6079
療	-10.608
仲淹	-10.608
棠	-10.608
襟	-10.608
㤗	-10.6081
𨼆	-10.6081
賞罰	-10.6081
茫茫	-10.6081
哺	-10.6082
三尺	-10.6084
帷	-10.6084
淚	-10.6084
線	-10.6085
諦	-10.6085
沸	-10.6086
讎	-10.6086
綴	-10.6087
之氣更受鍊	-10.6087
柰	-10.6087
宵	-10.6088
控	-10.6091
無註旣濟	-10.6093
搆	-10.6094
檄	-10.6095
掖	-10.6097
盻	-10.6098
䜛	-10.6098
無註需	-10.6098
隠	-10.6099
緊	-10.61
鳬	-10.61
無註屯	-10.6102
紏	-10.6104
長跪	-10.6105
匹夫	-10.6118
陳蔡	-10.6122
無註否	-10.6122
消除	-10.6125
無註咸	-10.6129
天樞院	-10.6142
朝夕	-10.6146
先儒	-10.6154
南面	-10.6189
秦封	-10.619
敢問	-10.62
龍穴	-10.6214
石室	-10.6216
祖業	-10.6221
根本	-10.6229
正統	-10.6233
此其所以	-10.6237
九炁	-10.6246
无所	-10.625
虛空	-10.6255
大㐫	-10.6263
士大夫	-10.6294
年二月	-10.6297
亦可以	-10.632
於其間	-10.6342
聰	-10.6351
乙酉	-10.6373
檻	-10.6374
梟	-10.6375
楹	-10.6376
渝	-10.6377
挹	-10.638
擔	-10.638
燔	-10.6381
癸亥	-10.6382
䰟	-10.6384
鞏	-10.6385
瘞	-10.6386
濬	-10.6387
浦	-10.6387
譴	-10.6389
訛	-10.639
惻	-10.6391
腥	-10.6391
之氣諱	-10.6392
丙午	-10.6393
鮑	-10.6393
吠	-10.6394
迂	-10.6395
插	-10.6395
渺	-10.6396
駟	-10.6397
雷電	-10.6397
縷	-10.6399
無註夬	-10.6399
十八盤	-10.6401
餓鬼	-10.6402
讚	-10.6402
江湖	-10.6404
嫗	-10.6404
針	-10.6407
開闢	-10.6407
旄	-10.6409
凶象曰	-10.6415
漢武帝	-10.6415
甲辰	-10.642
無註訟	-10.6422
無註升	-10.6422
紫㣲	-10.6424
良久	-10.644
無註比	-10.6444
劉氏	-10.6458
臣等	-10.6459
十九年	-10.6465
哀樂	-10.6482
尋常	-10.6486
紫虛	-10.6487
風俗	-10.652
廟食	-10.6522
輕重	-10.6543
三寸	-10.6593
造物	-10.6599
僧道	-10.6606
盥	-10.6666
徂徠	-10.6672
𠔃	-10.6672
樽	-10.668
形容	-10.6682
幅	-10.6682
瞽	-10.6682
纖	-10.6684
蛻	-10.6688
個	-10.6688
騫	-10.6691
妹	-10.6691
鬥	-10.6691
豚	-10.6691
輯	-10.6692
葺	-10.6693
庠	-10.6693
椿	-10.6696
惰	-10.6697
飭	-10.6698
沌	-10.6698
冐	-10.6698
鞠	-10.6699
觴	-10.67
急急如律令	-10.67
𢙣	-10.6701
莒	-10.6701
棘	-10.6702
甕	-10.6703
衘	-10.6704
菽	-10.6704
燎	-10.6705
刖	-10.6708
斡	-10.6709
䑕	-10.6709
綿綿	-10.671
無註明夷	-10.6711
眷屬	-10.6712
庚午	-10.6713
瞻仰	-10.6713
安得不	-10.6713
挈	-10.6714
佈	-10.6716
雛	-10.6716
無註家人	-10.6716
無註賁	-10.6717
無註漸	-10.6721
無註鼎	-10.6729
祀典	-10.6732
泰嶽	-10.6733
無註坎	-10.6734
雲霧	-10.6739
艱難	-10.6745
叔孫	-10.6745
隱隱	-10.6751
夫唯	-10.6765
巳亥	-10.6766
無註節	-10.6768
一粒	-10.6769
飛鳥	-10.6778
汝等	-10.6785
天地之間	-10.6796
經典	-10.6815
無註觀	-10.682
常住	-10.6833
吏民	-10.6858
五松	-10.6858
天地萬物	-10.6966
揲	-10.6997
酷	-10.7003
剡	-10.7009
滕	-10.7011
蒿	-10.7014
碩	-10.7014
屹	-10.7016
冶	-10.7016
蠅	-10.7017
尔	-10.7017
鉞	-10.7018
隘	-10.7018
遘	-10.7018
稔	-10.7018
賫	-10.7019
懈	-10.7019
奄	-10.702
瀑	-10.7021
叱	-10.7021
体	-10.7021
晶	-10.7023
塔	-10.7023
慘	-10.7024
繹	-10.7026
乙卯	-10.7027
凋	-10.7027
無註渙	-10.7027
姪	-10.7028
無註歸妹	-10.7028
做	-10.7029
謟	-10.7029
秋毫	-10.7029
麾	-10.703
屑	-10.703
六十四卦	-10.7032
増	-10.7034
槐	-10.7036
甲寅	-10.7037
鰲峯	-10.7037
無註剥	-10.704
遷移	-10.704
稼穡	-10.7042
無註小畜	-10.7042
祟	-10.7044
一切諸	-10.7049
飛騰	-10.705
叔向	-10.7057
朕惟	-10.7061
萬仞	-10.7063
無註坤	-10.7066
丹臺	-10.7092
左手	-10.7099
雷雨	-10.71
司徒	-10.7108
兖州	-10.7136
兆民	-10.7138
諸儒	-10.7139
仞	-10.7301
河伯	-10.7311
粒	-10.7317
敞	-10.7323
𣑽	-10.7324
胷	-10.7329
璽	-10.7333
利涉大川	-10.7342
塘	-10.7344
梗	-10.7344
塑	-10.7346
睢	-10.7347
糞	-10.7347
迭	-10.7349
邸	-10.7349
各有所	-10.735
慟	-10.735
丙戌	-10.735
窒	-10.7351
荼	-10.7352
佚	-10.7352
蠲	-10.7353
叠	-10.7353
不可思議	-10.7354
迨	-10.7355
寤	-10.7356
募	-10.7356
踴躍	-10.7356
曙	-10.7356
填	-10.7357
猜	-10.7358
悚	-10.7358
釁	-10.7359
塵埃	-10.736
簷	-10.7361
壼	-10.7362
鵠	-10.7362
沆	-10.7363
髓	-10.7364
濃	-10.7364
亘	-10.7364
纓	-10.7365
皇太后	-10.7367
卵	-10.7368
無註离	-10.7369
后妃	-10.737
俠	-10.7372
歷刼	-10.7374
祈禱	-10.7375
濫	-10.7378
瘦	-10.7378
敢忘	-10.7381
昆弟	-10.7382
西王母	-10.7383
尊卑	-10.7388
誓願	-10.7392
英宗	-10.7422
天台	-10.743
申酉	-10.7434
孔氏	-10.7446
誕生	-10.7453
動靜	-10.7454
李氏	-10.7529
年九月	-10.7573
勲	-10.7666
犧	-10.7674
娘	-10.768
灑	-10.7685
隻	-10.7687
隗	-10.7689
罵	-10.769
噴	-10.7691
剋	-10.7691
狡	-10.7693
椒	-10.7693
冢	-10.7695
捲	-10.7695
輻	-10.7696
鋪	-10.7696
壬午	-10.7697
斃	-10.7697
刊	-10.7697
皎	-10.7697
榆	-10.7697
蚤	-10.7697
霓	-10.7699
菑	-10.77
繆	-10.77
沃	-10.77
悮	-10.7701
蕪	-10.7701
戟	-10.7701
蝕	-10.7702
踞	-10.7704
蜩	-10.7704
蕩蕩	-10.7704
餒	-10.7704
渚	-10.7704
簪	-10.7704
迓	-10.7705
訾	-10.7705
臟	-10.7706
峨	-10.7706
潦	-10.7706
雌雄	-10.7707
喉	-10.7708
嬴	-10.7708
熹	-10.7709
菊	-10.771
换	-10.771
虵	-10.7711
脾	-10.7712
鷄鳴	-10.7712
渥	-10.7712
裝	-10.7714
侍郞	-10.7714
伴	-10.7716
趍	-10.7721
無註蠱	-10.7726
鶴鳴	-10.7728
湛然	-10.7729
修煉	-10.773
祭酒	-10.773
旣濟	-10.7738
嵩山	-10.774
春三月	-10.7741
吉曜	-10.7742
無註履	-10.7754
布政	-10.7756
晋侯	-10.7762
回首	-10.7765
無註隨	-10.7767
癸未	-10.7768
混元	-10.7769
堂堂	-10.7775
坎離	-10.7777
嗣教	-10.7779
梁父	-10.7782
惡曜	-10.783
窈冥	-10.783
萬劫	-10.7838
可見矣	-10.7851
乙丑	-10.7861
道德經	-10.7963
宫龍女	-10.7997
夸	-10.8037
燦	-10.8043
辛卯	-10.8045
換	-10.8048
虬	-10.8048
丁卯	-10.8049
狎	-10.8049
戊午	-10.8049
豪傑	-10.8049
坡	-10.8049
竪	-10.805
薇	-10.8051
丁亥	-10.8051
贄	-10.8052
懺	-10.8052
忱	-10.8053
挫	-10.8054
汾	-10.8055
囿	-10.8055
惱	-10.8055
枯槁	-10.8056
稚	-10.8056
胸	-10.8057
芥	-10.8057
濮	-10.8058
嘿	-10.8059
蜂	-10.806
枝葉	-10.8061
陜	-10.8062
璋	-10.8064
啄	-10.8065
元至正十三年贈	-10.8065
丁酉	-10.8065
二十八宿	-10.8069
稿	-10.8069
辦	-10.8071
牟	-10.8071
規模	-10.8072
椽	-10.8072
秦始皇	-10.8073
入覲	-10.8073
參差	-10.8074
腦	-10.8077
爵禄	-10.8085
大夫松	-10.8086
霖雨	-10.8089
無註困	-10.809
秦松	-10.8093
彭祖	-10.8094
勉强	-10.8094
希夷	-10.8094
儼然	-10.8095
無註損	-10.8104
目録	-10.8113
卯酉	-10.8116
十有五	-10.8123
布衣	-10.8131
功曹	-10.8159
千二百	-10.8163
可使之	-10.8218
秋冬	-10.8227
錦衣	-10.8298
笏	-10.8391
兕	-10.8393
愬	-10.841
禋	-10.8413
催	-10.8414
搏	-10.8416
騁	-10.8418
悵	-10.842
杼	-10.842
賚	-10.8421
蒿里	-10.8422
轂	-10.8422
彝	-10.8422
迅	-10.8422
烝	-10.8423
姊	-10.8424
喘	-10.8424
藹	-10.8424
藻	-10.8425
㝠	-10.8425
杏	-10.8426
年月日時	-10.8427
凟	-10.8428
磚	-10.8428
啖	-10.8428
股肱	-10.8428
辛丑	-10.8429
沼	-10.8429
䖍	-10.8429
戊申	-10.843
叫	-10.843
暖	-10.843
冷	-10.843
丙申	-10.8431
攬	-10.8431
肘	-10.8431
粮	-10.8432
瞰	-10.8432
逾	-10.8432
芻	-10.8432
醒	-10.8433
鉤	-10.8434
嶼	-10.8434
武王伐紂	-10.8434
崔嵬	-10.8434
羔	-10.8434
易林卷第	-10.8435
元亨利貞	-10.8435
嫁娶	-10.8435
笠	-10.8435
虎豹	-10.8435
粧	-10.8435
欠	-10.8436
葵	-10.8436
熏	-10.8437
研	-10.8437
干戈	-10.8437
六甲生男	-10.8437
贖	-10.8438
盗賊	-10.8439
椎	-10.8439
呼吸	-10.8441
無註姤	-10.8443
籌	-10.8444
苦惱	-10.8444
支離	-10.8445
蚕	-10.845
圜	-10.8452
燃	-10.8453
槨	-10.8454
靈貺	-10.8455
紹興	-10.8457
無註豫	-10.8457
玉檢	-10.8458
祠宇	-10.8471
謹告	-10.8473
留連	-10.8477
振衣	-10.848
判官	-10.8486
龍虎山	-10.8488
演說	-10.8523
各得其	-10.8534
衣裳	-10.8597
冠帶	-10.8627
壙	-10.8788
巉	-10.8791
躅	-10.8794
嵓	-10.8797
戊寅	-10.8799
毓	-10.8799
滂	-10.88
胄	-10.88
柯	-10.8801
怖	-10.8802
閨	-10.8804
毗	-10.8805
薩	-10.8806
奴僕	-10.8806
塟	-10.8807
汜	-10.8807
鯀	-10.8807
蟬	-10.8808
婉	-10.8808
癸巳	-10.8808
遨	-10.8809
扈	-10.8809
乂	-10.881
嗇	-10.881
嶢	-10.881
悼	-10.8811
健	-10.8812
蔓	-10.8812
蹄	-10.8812
慄	-10.8812
都督	-10.8813
伊川	-10.8814
劣	-10.8814
軿	-10.8816
辛酉	-10.8817
曄	-10.8817
矩	-10.8817
洪範	-10.8817
耄	-10.8818
莊嚴	-10.8818
潢	-10.882
屨	-10.882
貶	-10.8821
臆	-10.8821
香稅	-10.8822
捉	-10.8822
宋眞宗	-10.8823
狸	-10.8823
僥倖	-10.8823
賂	-10.8824
捫	-10.8824
爾時元始天尊	-10.8824
盂	-10.8824
尭	-10.8826
顔淵	-10.8828
栖	-10.8828
軽	-10.8828
呉	-10.883
熒	-10.883
叅政	-10.8834
架	-10.8838
胷中	-10.8845
無註革	-10.8847
碧落	-10.8861
問其故	-10.8871
顔色	-10.8882
䕃	-10.9158
酉戌	-10.9166
(□)	-10.918
憧	-10.919
柩	-10.9191
延禧	-10.9193
泰安州	-10.9195
掘	-10.9197
讐	-10.9199
怙	-10.9199
闚	-10.9199
利見大人	-10.92
王畿曰	-10.9201
驅邪院	-10.9201
鄷	-10.9202
罄	-10.9202
賑	-10.9202
狙	-10.9203
濱	-10.9205
大矣哉	-10.9205
訴	-10.9205
褐	-10.9206
穰	-10.9207
縊	-10.9208
阪	-10.9208
劇	-10.921
陂	-10.921
綽	-10.9211
丙辰	-10.9211
鵬	-10.9211
媾	-10.9211
北斗下䧏	-10.9211
磐	-10.9212
瞑	-10.9212
仆	-10.9212
断	-10.9213
壬申	-10.9213
琳	-10.9214
蔚	-10.9214
藜	-10.9214
堆	-10.9215
怯	-10.9215
湮	-10.9215
籥	-10.9215
裹	-10.9215
瀛	-10.9216
盪	-10.9216
妻妾	-10.9216
庖	-10.9217
彤	-10.9217
憾	-10.9218
堵	-10.922
孔孟	-10.922
坑	-10.9221
版	-10.9221
斑	-10.9222
刧	-10.9222
挂	-10.9223
炙	-10.9224
踏	-10.9226
贊	-10.9226
幕	-10.9228
諭祭	-10.9229
纒	-10.9229
英雄	-10.9229
宫観	-10.923
穎	-10.9231
峩	-10.9592
鉉	-10.9596
凖	-10.9604
燧	-10.9605
梳	-10.9606
箱	-10.9606
袂	-10.9609
妣	-10.9614
纂	-10.9616
僖	-10.9617
唎	-10.9619
惚	-10.962
螫	-10.962
荘	-10.9622
脂	-10.9622
鰌	-10.9622
甌	-10.9624
珊	-10.9624
圯	-10.9625
曽	-10.9625
弁	-10.9628
囬	-10.9628
咏	-10.9629
盾	-10.9629
唾	-10.9629
蚊	-10.9629
觜	-10.963
塲	-10.963
詆	-10.963
滄	-10.9633
蹉	-10.9634
侔	-10.9635
贍	-10.9635
脇	-10.9637
娥	-10.9637
販	-10.9637
厠	-10.9638
昬	-10.9639
聿	-10.964
魴	-10.9641
曼	-10.9642
匏	-10.9643
杭	-10.9644
揆	-10.9644
湫	-10.9644
渤	-10.9647
畋	-10.9647
瞿	-10.9654
兖	-10.9845
窈	-10.9874
裒	-11.0036
虺	-11.0037
魍	-11.0039
篡	-11.0046
泮	-11.0047
裙	-11.0048
巓	-11.0049
蟒	-11.0051
畿	-11.0052
碍	-11.0052
顚	-11.0056
撻	-11.0056
猪	-11.0056
郢	-11.0056
庥	-11.0056
弩	-11.0056
朵	-11.0058
糠	-11.0058
疵	-11.0059
嬖	-11.0059
讖	-11.0059
枚	-11.0059
譛	-11.0061
聶	-11.0063
肢	-11.0065
竦	-11.0067
逞	-11.0067
抄	-11.0067
斟	-11.0067
跣	-11.0068
逕	-11.0068
欄	-11.0068
䇿	-11.0068
佯	-11.0069
鐫	-11.0069
俎	-11.007
劄	-11.007
婿	-11.007
貲	-11.007
殫	-11.0071
沮	-11.0071
螟	-11.0072
沴	-11.0072
搔	-11.0074
濂	-11.0074
璣	-11.0075
晟	-11.0075
殞	-11.0076
輅	-11.0077
殽	-11.008
酣	-11.0081
盃	-11.0083
騐	-11.0084
㓗	-11.0086
啻	-11.0415
迦	-11.0484
迥	-11.0494
芸	-11.0499
拊	-11.0502
鴉	-11.0502
瑣	-11.0502
廡	-11.0503
寞	-11.0503
紐	-11.0503
潞	-11.0504
扉	-11.0506
褥	-11.0507
羈	-11.0508
俛	-11.0508
箭	-11.051
軻	-11.0511
娑	-11.0511
屐	-11.0511
雹	-11.0512
劾	-11.0512
漕	-11.0512
煢	-11.0512
沂	-11.0514
閽	-11.0514
琢	-11.0514
棣	-11.0515
闈	-11.0515
訝	-11.0515
叶	-11.0516
寘	-11.0516
謳	-11.0517
吒	-11.0517
瞳	-11.0517
滴	-11.0517
璘	-11.0517
迤	-11.0518
藁	-11.0519
犢	-11.0519
寛	-11.0519
瑟	-11.052
舄	-11.052
繕	-11.0521
廪	-11.0521
嬉	-11.0522
彘	-11.0522
紺	-11.0522
闌	-11.0522
侑	-11.0522
踊	-11.0523
你	-11.0524
鄂	-11.0524
𩲸	-11.0525
顙	-11.0526
蔣	-11.0527
課	-11.0527
抛	-11.0527
徂	-11.0528
龐	-11.0528
翅	-11.0529
刹	-11.053
攺	-11.0531
蒞	-11.0532
妓	-11.0532
瘳	-11.0533
髯	-11.0533
憒	-11.0534
弧	-11.0535
絃	-11.0537
聆	-11.0974
梨	-11.0975
馴	-11.0975
售	-11.0976
粤	-11.0978
媵	-11.0979
簋	-11.0979
峴	-11.098
凛	-11.098
雝	-11.098
迢	-11.0981
琰	-11.0981
菲	-11.0983
腋	-11.0983
款	-11.0984
䕶	-11.0984
饌	-11.0985
唵	-11.0985
瑜	-11.0986
皂	-11.0986
債	-11.0986
遞	-11.0989
弋	-11.099
裊	-11.099
貿	-11.099
葱	-11.0991
縉	-11.0991
祜	-11.0992
勁	-11.0992
簇	-11.0993
埃	-11.0994
嫉	-11.0994
汴	-11.0994
泓	-11.0994
紵	-11.0995
饉	-11.0995
隊	-11.0996
鈆	-11.0996
躓	-11.0997
丗	-11.0997
挑	-11.0998
黔	-11.0998
蔬	-11.0999
僂	-11.0999
鋤	-11.0999
拭	-11.0999
舡	-11.1
槃	-11.1001
葆	-11.1001
痼	-11.1001
鉏	-11.1001
緝	-11.1002
藟	-11.1002
摘	-11.1002
閬	-11.1003
縫	-11.1004
騷	-11.1005
宮	-11.1006
評	-11.101
蠡	-11.1011
夔	-11.1011
炊	-11.1016
瓢	-11.1017
菴	-11.102
俸	-11.1022
麽	-11.1462
乱	-11.1473
拓	-11.1475
圉	-11.1477
嬪	-11.1479
訶	-11.1479
瀝	-11.1479
驢	-11.148
飱	-11.1481
緣	-11.1482
餉	-11.1482
侃	-11.1483
逋	-11.1483
衫	-11.1484
牌	-11.1486
隴	-11.1486
姝	-11.1487
禆	-11.1487
覃	-11.1488
㓙	-11.1489
鐡	-11.149
餅	-11.149
惺	-11.1491
术	-11.1491
挽	-11.1492
譯	-11.1492
駿	-11.1492
內	-11.1493
鳧	-11.1493
臾	-11.1494
濛	-11.1494
褻	-11.1494
墉	-11.1495
亶	-11.1496
甸	-11.1496
脊	-11.1496
綜	-11.1497
馥	-11.1498
轅	-11.1498
愴	-11.1498
秪	-11.1498
彪	-11.1499
笞	-11.1499
珎	-11.1499
栽	-11.1499
耽	-11.15
蘋	-11.15
紘	-11.15
禎	-11.1501
汚	-11.1502
汨	-11.1502
衙	-11.1503
姧	-11.1504
迍	-11.1506
橐	-11.1506
怵	-11.1507
璇	-11.1508
羹	-11.151
胞	-11.1511
漱	-11.1514
紆	-11.1515
算	-11.1517
藤	-11.1525
寨	-11.1956
删	-11.1998
潼	-11.2
綦	-11.2002
勘	-11.2003
訥	-11.2003
憊	-11.2007
捌	-11.2009
裡	-11.201
瓠	-11.201
邃	-11.2011
模	-11.2012
眚	-11.2013
観	-11.2013
衲	-11.2014
倖	-11.2015
咀	-11.2015
譜	-11.2015
纍	-11.2015
猾	-11.2016
兇	-11.2016
楷	-11.2016
槁	-11.2016
篋	-11.2017
扃	-11.2017
徇	-11.2017
龔	-11.2018
紗	-11.2019
雎	-11.2019
褰	-11.2019
圮	-11.202
𩔗	-11.2021
閎	-11.2021
笱	-11.2023
怏	-11.2024
詮	-11.2024
券	-11.2025
粢	-11.2026
菩	-11.2026
拍	-11.2027
悍	-11.2027
陌	-11.2027
紋	-11.2028
銓	-11.2028
茨	-11.2028
袴	-11.2028
叉	-11.203
葦	-11.203
顆	-11.203
窗	-11.2031
礪	-11.2032
悴	-11.2034
悌	-11.2034
拈	-11.2036
繚	-11.2036
濠	-11.2037
㳒	-11.2038
店	-11.2038
炷	-11.2038
粲	-11.2041
喫	-11.2043
紇	-11.2054
酆	-11.2441
扦	-11.2546
橘	-11.2552
鏘	-11.2555
閤	-11.2557
袋	-11.2557
灘	-11.2562
盎	-11.2562
黽	-11.2562
帑	-11.2564
𣲖	-11.2564
刁	-11.2565
覔	-11.2566
眸	-11.2566
拇	-11.2566
瑀	-11.2568
覬	-11.2569
冑	-11.2569
沫	-11.2569
鱉	-11.2569
醢	-11.257
廽	-11.257
嚚	-11.2571
刮	-11.2572
杓	-11.2572
霆	-11.2572
蹕	-11.2572
燁	-11.2573
坪	-11.2573
禧	-11.2573
攖	-11.2574
鉗	-11.2574
牂	-11.2574
拆	-11.2574
鑰	-11.2574
翛	-11.2575
㡌	-11.2575
閟	-11.2575
丐	-11.2576
歉	-11.2576
揣	-11.2576
弭	-11.2577
黛	-11.2577
睨	-11.2577
蓼	-11.2577
蹲	-11.2578
鳶	-11.2578
糟	-11.2578
𦔳	-11.2579
蘂	-11.2579
窘	-11.2579
鬢	-11.2579
翹	-11.258
些	-11.2581
箒	-11.2582
賽	-11.2583
恂	-11.2583
衹	-11.2585
簧	-11.2585
劵	-11.2585
潘	-11.2586
衿	-11.2586
轟	-11.2587
鈔	-11.2587
誡	-11.2587
艷	-11.2588
欵	-11.2588
粥	-11.2588
臍	-11.259
䖝	-11.259
𣇄	-11.2591
廖	-11.2591
畦	-11.2593
巵	-11.2594
貼	-11.2597
亹	-11.2599
旃	-11.26
葷	-11.26
庻	-11.2601
楫	-11.2601
酸	-11.2605
堤	-11.2608
迸	-11.261
笛	-11.2613
魘	-11.2626
戸	-11.3122
央	-11.3127
鉄	-11.3131
烜	-11.3144
劭	-11.3146
譙	-11.3146
𡖥	-11.3149
鬭	-11.3151
兜	-11.3153
窩	-11.3153
脅	-11.3154
囑	-11.3155
夣	-11.3156
躭	-11.3156
攫	-11.3156
斁	-11.3157
遄	-11.3157
嘔	-11.3158
耦	-11.3159
笈	-11.316
忮	-11.3161
藪	-11.3162
驥	-11.3162
駁	-11.3163
巘	-11.3163
蠆	-11.3163
汹	-11.3164
錐	-11.3164
絆	-11.3164
沓	-11.3165
腫	-11.3165
蠹	-11.3166
芮	-11.3166
筴	-11.3166
玅	-11.3167
瑕	-11.3167
蘧	-11.3168
攣	-11.3168
燄	-11.3168
套	-11.3168
苴	-11.3168
㢤	-11.3169
儻	-11.317
頡	-11.317
凾	-11.317
腓	-11.3171
阮	-11.3171
茗	-11.3171
蒂	-11.3171
搬	-11.3172
爍	-11.3172
莘	-11.3173
冩	-11.3173
釜	-11.3174
魃	-11.3175
誑	-11.3175
件	-11.3175
墠	-11.3176
焱	-11.3176
㨿	-11.3177
騂	-11.3177
閏	-11.3177
羨	-11.3177
痴	-11.3177
押	-11.3178
恙	-11.3179
緘	-11.318
街	-11.318
顓	-11.3181
慳	-11.3182
桴	-11.3182
恵	-11.3184
鷖	-11.3184
靠	-11.32
穉	-11.3204
杵	-11.3737
斲	-11.3752
阯	-11.3766
鎬	-11.3767
偽	-11.3768
萍	-11.3769
〇	-11.3769
蝶	-11.3773
栁	-11.3775
蛾	-11.3775
砌	-11.3776
痕	-11.3776
瑾	-11.3776
昃	-11.3777
杲	-11.3778
窆	-11.3778
詹	-11.3779
弛	-11.378
紱	-11.3781
瑰	-11.3781
蓐	-11.3782
剔	-11.3785
寑	-11.3785
槎	-11.3786
卹	-11.3787
瘠	-11.3787
舂	-11.3788
噉	-11.3788
鴞	-11.3791
硃	-11.3791
佗	-11.3792
撲	-11.3793
衞	-11.3793
澆	-11.3793
仝	-11.3793
幄	-11.3794
蠧	-11.3794
隳	-11.3795
猴	-11.3795
藿	-11.3795
暌	-11.3796
凉	-11.3797
嘘	-11.3797
愕	-11.3798
訊	-11.3799
嶸	-11.3799
媿	-11.3799
酢	-11.38
撑	-11.3802
絰	-11.3803
撼	-11.3804
祛	-11.3804
痾	-11.3806
饕	-11.3807
瘁	-11.3807
羖	-11.3807
孑	-11.3811
盬	-11.3811
𡍼	-11.3811
伎	-11.3817
气	-11.439
蔀	-11.4409
脢	-11.4427
覈	-11.4431
妥	-11.4435
盞	-11.4436
愠	-11.4436
髣	-11.4437
塋	-11.4439
顥	-11.4439
矛	-11.4441
漾	-11.4441
疽	-11.4442
胤	-11.4442
殛	-11.4444
丰	-11.4445
礴	-11.4445
塚	-11.4446
潺	-11.4446
枋	-11.4446
掉	-11.4447
姥	-11.4447
萼	-11.4448
緬	-11.4448
煖	-11.4448
畛	-11.4449
㩀	-11.445
銖	-11.445
踦	-11.4451
瘴	-11.4451
蹙	-11.4453
琮	-11.4454
燿	-11.4454
澡	-11.4455
瑤	-11.4455
核	-11.4455
玷	-11.4455
掇	-11.4455
隼	-11.4455
㦸	-11.4457
頋	-11.4457
它	-11.4457
颺	-11.4458
嚼	-11.4458
畤	-11.4458
噪	-11.4459
呴	-11.446
甥	-11.4462
讙	-11.4462
徭	-11.4463
鴛	-11.4463
欒	-11.4463
賄	-11.4463
螻	-11.4463
㳟	-11.4463
嬀	-11.4463
煦	-11.4463
啜	-11.4463
恰	-11.4464
鶯	-11.4465
詵	-11.4465
犀	-11.4466
傭	-11.4466
閫	-11.4466
氓	-11.4466
鵝	-11.4469
衒	-11.4469
戢	-11.447
磊	-11.447
漲	-11.447
泱	-11.447
譎	-11.447
忒	-11.4471
冽	-11.4472
厦	-11.4473
駘	-11.4473
綘	-11.4475
詛	-11.4478
刳	-11.4479
鬯	-11.4484
璨	-11.4484
瑋	-11.4495
咥	-11.5101
窕	-11.5141
吳	-11.5142
彫	-11.5145
覿	-11.5149
䙱	-11.515
娠	-11.5151
耐	-11.5155
𢦙	-11.5155
啣	-11.5156
暝	-11.5157
叁	-11.5157
閼	-11.5158
戕	-11.5159
肱	-11.5159
詫	-11.5159
悽	-11.516
舛	-11.5161
爨	-11.5161
嬌	-11.5161
絜	-11.5161
疥	-11.5161
寮	-11.5162
鎔	-11.5163
鷙	-11.5163
錮	-11.5163
蜎	-11.5163
紊	-11.5164
溉	-11.5164
荔	-11.5164
駡	-11.5165
㡬	-11.5165
舘	-11.5166
唤	-11.5167
叚	-11.5167
釡	-11.5167
螳	-11.5168
缶	-11.5168
耋	-11.5168
杞	-11.5169
犖	-11.5169
鑚	-11.5169
垓	-11.517
秒	-11.517
郵	-11.517
蹴	-11.5171
霹	-11.5171
匝	-11.5171
嚙	-11.5172
𣈆	-11.5172
葩	-11.5173
欻	-11.5173
絢	-11.5173
癰	-11.5174
鈍	-11.5174
卻	-11.5174
勺	-11.5174
浹	-11.5175
伽	-11.5175
劎	-11.5175
朂	-11.5175
擘	-11.5175
劬	-11.5176
狠	-11.5176
穫	-11.5177
喙	-11.5178
牘	-11.5178
曛	-11.5179
諶	-11.5179
彜	-11.518
猖	-11.518
拖	-11.518
嵯	-11.5181
麋	-11.5181
児	-11.5182
臬	-11.5182
愷	-11.5183
髻	-11.5184
喚	-11.5184
晃	-11.5186
麑	-11.5186
縲	-11.5187
瞀	-11.5189
墊	-11.5189
鎡	-11.519
顒	-11.519
俻	-11.5191
脛	-11.5191
韜	-11.5192
蜜	-11.5194
隤	-11.5201
潛	-11.5212
瓘	-11.5213
歐	-11.5911
喈	-11.5912
逭	-11.5916
榷	-11.5919
崧	-11.5919
凑	-11.5919
枳	-11.592
愉	-11.5921
緇	-11.5922
嶙	-11.5922
屛	-11.5922
娄	-11.5923
橈	-11.5924
霈	-11.5926
錡	-11.5928
廳	-11.5928
𦵏	-11.593
嗷	-11.593
旭	-11.5931
楓	-11.5931
朧	-11.5931
竝	-11.5932
髴	-11.5933
崚	-11.5933
企	-11.5933
郝	-11.5933
藐	-11.5933
亞	-11.5935
袒	-11.5935
掣	-11.5936
眥	-11.5937
摶	-11.5938
鯨	-11.5938
彷	-11.5939
枷	-11.5939
湊	-11.5939
獐	-11.5939
詘	-11.594
訂	-11.594
涅	-11.594
义	-11.594
湎	-11.594
疋	-11.5941
俘	-11.5941
妍	-11.5941
釀	-11.5941
愿	-11.5942
拄	-11.5942
厘	-11.5942
繳	-11.5942
蘄	-11.5942
腑	-11.5942
鮒	-11.5942
驩	-11.5942
鏤	-11.5942
批	-11.5943
㛰	-11.5943
萋	-11.5944
騶	-11.5944
疚	-11.5944
翺	-11.5944
踒	-11.5945
嗃	-11.5945
褁	-11.5946
鍼	-11.5946
誚	-11.5946
𡖖	-11.5947
喋	-11.5947
慊	-11.5948
筦	-11.5948
窅	-11.5949
燮	-11.5949
跟	-11.5949
豺	-11.595
翫	-11.5952
歧	-11.5952
荐	-11.5952
樣	-11.5953
緡	-11.5953
羝	-11.5955
旂	-11.5957
蚩	-11.5958
綾	-11.5958
喝	-11.596
黼	-11.5965
燼	-11.5968
煑	-11.5968
籬	-11.597
鷇	-11.597
璟	-11.5976
伋	-11.5984
圈	-11.6741
晁	-11.6748
矦	-11.6749
膂	-11.6749
嵒	-11.6751
澶	-11.6751
菌	-11.6753
𥁞	-11.6754
韞	-11.6755
囘	-11.6757
吽	-11.6757
蝎	-11.6758
輹	-11.6758
𩛙	-11.676
雩	-11.676
勣	-11.676
璚	-11.6761
趯	-11.6763
逵	-11.6764
羶	-11.6764
翩	-11.6764
䄂	-11.6764
酋	-11.6765
齚	-11.6765
漳	-11.6766
寖	-11.6767
掊	-11.6767
抹	-11.6768
組	-11.6768
嶠	-11.6768
酧	-11.6768
蛙	-11.6769
祻	-11.677
庾	-11.677
㓜	-11.6771
筌	-11.6771
趺	-11.6771
旻	-11.6772
劓	-11.6772
坂	-11.6772
机	-11.6773
鼔	-11.6773
褚	-11.6773
贏	-11.6774
飈	-11.6774
歘	-11.6775
儋	-11.6775
阨	-11.6775
頰	-11.6775
仔	-11.6775
鍳	-11.6776
参	-11.6777
溶	-11.6777
猥	-11.6777
崑	-11.6777
謐	-11.6777
衽	-11.6777
魑	-11.6778
屣	-11.6779
邳	-11.6779
苓	-11.6779
趕	-11.6779
籩	-11.6779
睫	-11.678
帽	-11.6781
濵	-11.6781
瀾	-11.6781
竺	-11.6782
瑚	-11.6782
簽	-11.6782
潯	-11.6782
搖	-11.6783
紿	-11.6783
撝	-11.6783
棋	-11.6783
隧	-11.6784
憇	-11.6784
届	-11.6784
猗	-11.6784
騮	-11.6784
緼	-11.6785
嶧	-11.6785
騏	-11.6785
洎	-11.6785
辝	-11.6785
淂	-11.6785
圄	-11.6786
揀	-11.6788
儆	-11.6788
漬	-11.6789
螺	-11.6789
撮	-11.6789
渇	-11.6791
覇	-11.6793
錄	-11.6793
菓	-11.6794
圗	-11.6794
娯	-11.6796
冗	-11.6797
爕	-11.6797
艶	-11.6799
黻	-11.6799
襌	-11.68
駱	-11.6803
琪	-11.6807
鷟	-11.7556
啾	-11.7639
楮	-11.7646
鑠	-11.7653
隹	-11.7655
灝	-11.7657
桷	-11.7657
玲	-11.7658
瓏	-11.7659
汩	-11.766
杪	-11.766
磾	-11.766
軟	-11.7661
櫝	-11.7661
砥	-11.7663
鈺	-11.7663
髏	-11.7663
髑	-11.7663
媲	-11.7665
鬰	-11.7666
匐	-11.7666
扞	-11.7667
冊	-11.7667
尖	-11.7669
柒	-11.767
疣	-11.7671
蟹	-11.7671
陬	-11.7671
𨑰	-11.7671
嗄	-11.7672
潄	-11.7672
匍	-11.7672
嶒	-11.7672
纆	-11.7673
玖	-11.7673
噂	-11.7673
禴	-11.7673
鶻	-11.7673
泡	-11.7674
杉	-11.7674
坵	-11.7674
繒	-11.7674
崒	-11.7674
棚	-11.7675
彗	-11.7675
熬	-11.7675
涘	-11.7675
霾	-11.7675
湍	-11.7676
汔	-11.7676
盱	-11.7676
嚶	-11.7676
沽	-11.7677
捻	-11.7677
莖	-11.7678
雁	-11.7678
淘	-11.7678
詒	-11.768
懌	-11.768
凱	-11.768
迕	-11.7681
箴	-11.7681
揉	-11.7681
躚	-11.7681
鞋	-11.7682
偪	-11.7682
腊	-11.7682
廛	-11.7683
襍	-11.7684
糜	-11.7684
慿	-11.7685
鸇	-11.7685
鞍	-11.7685
贛	-11.7687
鼈	-11.7687
隰	-11.7687
怛	-11.7687
鯤	-11.7687
穗	-11.7687
伶	-11.7688
暦	-11.7688
柝	-11.7689
蕢	-11.7689
撤	-11.769
罣	-11.769
浄	-11.7692
徘	-11.7692
怍	-11.7693
羆	-11.7693
欎	-11.7693
吼	-11.7694
𥝠	-11.7694
罩	-11.7694
螽	-11.7694
猬	-11.7695
蜃	-11.7696
瑗	-11.7697
甦	-11.7697
玻	-11.7698
𥂁	-11.7698
碌	-11.7698
沱	-11.7698
珏	-11.7699
将	-11.7699
氅	-11.77
圎	-11.77
凹	-11.7702
奭	-11.7702
諉	-11.7703
擺	-11.7705
裾	-11.7708
悛	-11.7709
墀	-11.7709
輜	-11.7714
搭	-11.7718
沬	-11.7729
峕	-11.8576
昉	-11.8648
壮	-11.8653
咳	-11.8653
脆	-11.8654
埏	-11.8656
掬	-11.8658
駑	-11.8658
鴆	-11.8659
惔	-11.8659
秤	-11.866
胚	-11.8661
罐	-11.8661
醯	-11.8662
摹	-11.8662
笥	-11.8663
訐	-11.8663
蘩	-11.8664
懾	-11.8665
蜚	-11.8665
揜	-11.8666
隍	-11.8667
驂	-11.8668
濓	-11.8669
纘	-11.867
襦	-11.867
𥙷	-11.867
泳	-11.8671
諜	-11.8672
莪	-11.8673
倕	-11.8673
驎	-11.8673
蓆	-11.8674
痰	-11.8674
𥿄	-11.8675
迺	-11.8676
坼	-11.8676
襖	-11.8676
漚	-11.8677
蝟	-11.8677
矚	-11.8677
襁	-11.8678
倅	-11.8678
凭	-11.8678
鹵	-11.8678
迩	-11.8678
癃	-11.8678
栩	-11.8678
茵	-11.8678
瞞	-11.8679
怎	-11.8679
餽	-11.8679
逓	-11.868
笻	-11.868
燠	-11.868
鬧	-11.8681
𣣔	-11.8681
俶	-11.8681
僮	-11.8681
㝷	-11.8681
帯	-11.8681
軄	-11.8681
傴	-11.8681
柏	-11.8682
扆	-11.8682
鵉	-11.8683
燋	-11.8684
邕	-11.8684
泌	-11.8684
犠	-11.8686
慵	-11.8686
貉	-11.8686
剩	-11.8686
簮	-11.8687
殯	-11.8687
械	-11.8687
穡	-11.8687
浣	-11.8688
膾	-11.8688
摯	-11.8688
洙	-11.8688
崗	-11.8688
岏	-11.8689
瓣	-11.8689
櫛	-11.8689
茀	-11.869
臚	-11.869
厓	-11.869
晡	-11.8691
螭	-11.8691
喑	-11.8692
翦	-11.8693
嵌	-11.8693
瘵	-11.8693
塢	-11.8693
匕	-11.8695
崢	-11.8695
摭	-11.8695
臓	-11.8696
憔	-11.8696
蓊	-11.8696
刋	-11.8697
麄	-11.8697
榭	-11.8698
阡	-11.8699
煬	-11.87
絺	-11.87
兌	-11.8702
駰	-11.8702
禺	-11.8703
劈	-11.8704
闥	-11.8704
营	-11.8705
詈	-11.8706
蝸	-11.8711
汁	-11.8713
糴	-11.8723
棊	-11.8727
駝	-11.9737
㣧	-11.9747
鵰	-11.9757
觔	-11.9758
氊	-11.9758
淋	-11.976
縶	-11.9762
媛	-11.9764
磅	-11.9766
撞	-11.9766
剌	-11.9766
抃	-11.9766
𢡖	-11.9767
歙	-11.9767
肚	-11.9767
虢	-11.977
筏	-11.9771
懶	-11.9771
攔	-11.9771
涌	-11.9773
渦	-11.9773
罟	-11.9775
餞	-11.9775
抉	-11.9777
淩	-11.9777
孥	-11.9778
塡	-11.9778
眄	-11.9778
洸	-11.9779
踴	-11.9779
甄	-11.9779
晞	-11.9779
隈	-11.9781
謄	-11.9781
燾	-11.9781
廐	-11.9781
婺	-11.9782
樗	-11.9782
终	-11.9782
呻	-11.9783
呌	-11.9783
蹷	-11.9783
慱	-11.9783
蚓	-11.9783
輳	-11.9784
𧇊	-11.9785
竽	-11.9785
塩	-11.9786
鯁	-11.9786
懟	-11.9786
愜	-11.9786
騖	-11.9786
窀	-11.9787
噲	-11.9787
譁	-11.9788
帙	-11.9788
缾	-11.9788
鶵	-11.9788
曇	-11.9788
纉	-11.9788
甑	-11.9789
𦖟	-11.9789
掾	-11.9789
矗	-11.9789
賒	-11.9789
穸	-11.9789
濶	-11.9789
飡	-11.9789
秃	-11.9789
耨	-11.979
釵	-11.979
惴	-11.979
炤	-11.979
彥	-11.979
泝	-11.979
瑄	-11.9791
稠	-11.9791
訃	-11.9791
縞	-11.9791
泚	-11.9791
簒	-11.9792
陔	-11.9792
爼	-11.9793
莆	-11.9793
卬	-11.9793
磯	-11.9793
弹	-11.9793
湣	-11.9793
阼	-11.9794
厮	-11.9794
娟	-11.9794
籲	-11.9794
靴	-11.9795
誳	-11.9795
糗	-11.9795
昱	-11.9795
鬛	-11.9796
稟	-11.9796
濺	-11.9797
蕡	-11.9797
瞬	-11.9797
䆒	-11.9797
莩	-11.9797
竑	-11.9797
囁	-11.9797
稜	-11.9798
髦	-11.9799
鷦	-11.9799
娵	-11.9799
髠	-11.9799
毘	-11.98
聃	-11.98
厢	-11.9801
冦	-11.9801
犇	-11.9801
浥	-11.9801
淸	-11.9801
絮	-11.9801
覷	-11.9801
涿	-11.9801
臝	-11.9802
峥	-11.9803
嘏	-11.9804
楝	-11.9805
様	-11.9805
淄	-11.9806
貂	-11.9806
畨	-11.9806
𦕈	-11.9808
曦	-11.9808
𤼵	-11.9808
臊	-11.9809
𦎟	-11.981
焼	-11.981
礫	-11.981
鐃	-11.981
幘	-11.981
蕉	-11.981
岵	-11.9811
貟	-11.9812
僑	-11.9813
𨽻	-11.9814
罅	-11.9814
牆	-11.9816
壷	-11.9817
黿	-11.9817
痍	-11.9822
岌	-11.9822
靳	-11.9825
荃	-11.9832
恁	-12.0984
从	-12.1
磁	-12.1001
渿	-12.1002
囉	-12.1007
餧	-12.1009
陡	-12.1009
韙	-12.1011
怳	-12.1012
蚌	-12.1013
楯	-12.1018
𡾓	-12.1019
擴	-12.102
菁	-12.102
諍	-12.1021
埴	-12.1021
芴	-12.1021
凄	-12.1021
嶷	-12.1022
謔	-12.1022
崛	-12.1023
偵	-12.1023
陲	-12.1023
緦	-12.1023
邾	-12.1023
侗	-12.1024
糾	-12.1024
懦	-12.1025
蛛	-12.1026
餔	-12.1026
臼	-12.1027
獘	-12.1028
羗	-12.1028
璉	-12.1028
縟	-12.1028
嵂	-12.1028
沔	-12.1029
燬	-12.1029
祲	-12.103
芷	-12.103
搥	-12.103
筥	-12.103
髀	-12.1032
榴	-12.1032
耒	-12.1032
卉	-12.1032
蛤	-12.1033
嚳	-12.1033
胖	-12.1033
攄	-12.1034
刷	-12.1034
糊	-12.1034
塜	-12.1035
弢	-12.1035
隮	-12.1037
遡	-12.1037
疼	-12.1037
鋾	-12.1039
惧	-12.1039
瞢	-12.1039
紓	-12.1039
撒	-12.1039
瓌	-12.1039
苧	-12.104
焯	-12.104
筠	-12.104
閶	-12.104
蠒	-12.1041
𠕂	-12.1041
餼	-12.1041
収	-12.1041
玆	-12.1041
毖	-12.1041
煇	-12.1042
鼫	-12.1042
颯	-12.1043
酗	-12.1043
螗	-12.1043
纊	-12.1044
譲	-12.1044
箋	-12.1044
銑	-12.1045
耘	-12.1046
哮	-12.1047
拷	-12.1047
澥	-12.1047
衾	-12.1047
倨	-12.1047
剜	-12.1047
鎗	-12.1048
吻	-12.1048
胝	-12.1048
醖	-12.1048
殳	-12.1049
隲	-12.1049
薊	-12.1049
榱	-12.105
扎	-12.105
鏗	-12.105
殪	-12.105
垠	-12.1051
蠟	-12.1051
蘚	-12.1051
雒	-12.1051
殻	-12.1051
決	-12.1052
潑	-12.1052
宄	-12.1052
咤	-12.1052
諺	-12.1052
擣	-12.1052
獰	-12.1053
寕	-12.1054
矰	-12.1054
縵	-12.1054
曝	-12.1056
瑠	-12.1056
劑	-12.1057
咄	-12.1057
袤	-12.1058
炬	-12.1058
貔	-12.106
鼃	-12.106
甃	-12.1061
廕	-12.1061
蟆	-12.1061
掲	-12.1062
汯	-12.1063
埒	-12.1063
璃	-12.1063
馘	-12.1064
麝	-12.1064
嫂	-12.1064
痒	-12.1065
淙	-12.1065
沒	-12.1067
踟	-12.1068
嗽	-12.1069
犂	-12.1071
翥	-12.1073
粱	-12.1073
焞	-12.1073
牗	-12.1073
諏	-12.1074
棹	-12.1075
凸	-12.1077
籓	-12.1078
堦	-12.2419
柅	-12.2423
筲	-12.2428
胍	-12.243
矉	-12.2435
舁	-12.2436
娼	-12.2437
瓴	-12.2437
縢	-12.2438
万	-12.244
拏	-12.2441
賾	-12.2441
糓	-12.2443
漓	-12.2443
拉	-12.2444
暎	-12.2445
獼	-12.2447
諮	-12.2447
騾	-12.2447
夥	-12.2447
瀼	-12.2447
瞪	-12.2447
慼	-12.2448
懊	-12.2449
旒	-12.2449
衎	-12.245
扼	-12.2451
賭	-12.2451
讞	-12.2453
嘒	-12.2453
箸	-12.2453
蓁	-12.2453
鑣	-12.2453
覯	-12.2454
炮	-12.2454
齕	-12.2455
揄	-12.2456
瘧	-12.2456
琥	-12.2456
攅	-12.2456
巋	-12.2457
淖	-12.2458
摠	-12.2459
溜	-12.2459
睇	-12.2459
惘	-12.2459
烱	-12.2459
炰	-12.2459
漶	-12.246
䜟	-12.246
佾	-12.246
錙	-12.246
砦	-12.246
嶻	-12.2461
殤	-12.2461
觥	-12.2461
荻	-12.2462
榔	-12.2462
躐	-12.2462
芹	-12.2463
鹹	-12.2463
奧	-12.2463
蹬	-12.2463
癖	-12.2464
倶	-12.2464
搶	-12.2464
鎧	-12.2464
呱	-12.2465
膀	-12.2465
蹊	-12.2465
軋	-12.2465
羌	-12.2465
泆	-12.2465
熄	-12.2465
玦	-12.2465
蒨	-12.2466
狃	-12.2466
恥	-12.2466
汰	-12.2466
膩	-12.2467
崿	-12.2467
礱	-12.2467
劌	-12.2467
吃	-12.2467
磽	-12.2467
邠	-12.2467
噦	-12.2468
袵	-12.2468
幃	-12.2468
翮	-12.2468
岫	-12.2468
鑾	-12.2468
褓	-12.2468
霊	-12.2468
覘	-12.2469
踣	-12.247
鱠	-12.247
玃	-12.2471
絪	-12.2471
諄	-12.2471
蜿	-12.2471
矅	-12.2472
皦	-12.2473
笄	-12.2473
詬	-12.2473
韄	-12.2473
汀	-12.2474
蕊	-12.2474
敘	-12.2474
邢	-12.2474
甜	-12.2477
肴	-12.2477
墩	-12.2477
怱	-12.2477
崕	-12.2477
槌	-12.2477
遒	-12.2477
榼	-12.2477
蘖	-12.2478
柘	-12.2479
袱	-12.2479
嵬	-12.2479
匀	-12.248
槽	-12.248
鞶	-12.248
煒	-12.248
訕	-12.248
仃	-12.2481
鷰	-12.2481
爇	-12.2481
厪	-12.2481
寜	-12.2482
樾	-12.2482
藺	-12.2482
瓉	-12.2482
駮	-12.2483
堕	-12.2483
䥫	-12.2483
漉	-12.2483
菟	-12.2483
厖	-12.2483
痔	-12.2483
𩥵	-12.2484
斕	-12.2484
磔	-12.2484
莱	-12.2485
洿	-12.2485
憮	-12.2486
楼	-12.2486
沭	-12.2486
牋	-12.2486
縧	-12.2486
蜋	-12.2486
宙	-12.2487
墾	-12.2488
諂	-12.2488
繄	-12.2488
瘥	-12.2489
餮	-12.2489
咈	-12.2489
估	-12.249
趎	-12.249
醬	-12.249
㫁	-12.2491
经	-12.2492
証	-12.2492
襴	-12.2492
鶚	-12.2492
涎	-12.2492
侏	-12.2492
挨	-12.2493
徊	-12.2494
礎	-12.2495
懵	-12.2495
酥	-12.2495
蕨	-12.2496
萇	-12.2496
殂	-12.2496
鋸	-12.2497
簟	-12.2497
蠁	-12.2497
瘢	-12.2497
祺	-12.2498
頷	-12.25
讟	-12.25
儷	-12.25
偹	-12.2501
闋	-12.2501
輈	-12.2501
幟	-12.2502
蒯	-12.2502
蜡	-12.2504
熇	-12.2504
瞶	-12.2504
腆	-12.2504
渫	-12.2505
忉	-12.2505
噀	-12.2506
佇	-12.2507
繽	-12.2507
奂	-12.251
豵	-12.251
駈	-12.2511
甍	-12.2512
𠁗	-12.2513
硬	-12.2514
豜	-12.2522
嘴	-12.2532
緜	-12.4048
廚	-12.408
𩬊	-12.4083
錠	-12.4088
嘙	-12.4092
啍	-12.4094
鄲	-12.4096
縯	-12.4097
坳	-12.4102
綫	-12.4104
嗑	-12.4105
蔕	-12.4105
簀	-12.4105
㖿	-12.4106
鎰	-12.4106
曏	-12.4109
彚	-12.411
鵷	-12.4111
鈠	-12.4112
呂	-12.4113
覧	-12.4113
穠	-12.4113
竚	-12.4113
豶	-12.4113
痢	-12.4113
檐	-12.4114
皺	-12.4114
倐	-12.4115
褫	-12.4115
眯	-12.4116
轄	-12.4116
淬	-12.4117
揔	-12.4117
晷	-12.4118
癭	-12.4118
澇	-12.4119
咬	-12.4119
攢	-12.4119
哩	-12.412
𨇠	-12.412
潁	-12.412
攪	-12.412
顱	-12.412
躶	-12.412
𩐎	-12.4121
跱	-12.4121
么	-12.4121
雱	-12.4121
臲	-12.4121
捄	-12.4122
凂	-12.4122
酖	-12.4122
脣	-12.4122
堞	-12.4123
胱	-12.4123
濩	-12.4123
洄	-12.4123
赭	-12.4124
𢹂	-12.4124
甖	-12.4124
擠	-12.4125
价	-12.4125
𨂷	-12.4125
逖	-12.4126
猨	-12.4126
𤑔	-12.4126
㗸	-12.4126
癩	-12.4126
𠏉	-12.4127
堊	-12.4127
淤	-12.4127
湑	-12.4128
𣏌	-12.4128
瘖	-12.4128
轝	-12.4129
港	-12.4129
剽	-12.4129
炫	-12.413
箎	-12.413
膈	-12.413
飜	-12.4131
尓	-12.4131
贋	-12.4131
亷	-12.4132
疹	-12.4132
廩	-12.4132
螢	-12.4132
釃	-12.4132
冏	-12.4133
榦	-12.4134
髫	-12.4134
㾮	-12.4135
另	-12.4135
洵	-12.4135
禰	-12.4135
怩	-12.4136
帔	-12.4136
杙	-12.4136
黷	-12.4137
癉	-12.4138
癯	-12.4138
籛	-12.4138
儘	-12.4138
献	-12.4139
卭	-12.4139
蠋	-12.4139
鋟	-12.4139
饜	-12.4139
碁	-12.414
萎	-12.414
憯	-12.414
蜲	-12.4141
慴	-12.4141
嬙	-12.4141
枲	-12.4141
敺	-12.4141
滓	-12.4141
鷂	-12.4141
顰	-12.4142
塈	-12.4142
閥	-12.4142
畀	-12.4142
莎	-12.4142
仸	-12.4142
歃	-12.4142
纛	-12.4142
枘	-12.4142
仄	-12.4143
旆	-12.4143
𩔖	-12.4143
庄	-12.4143
昵	-12.4143
剉	-12.4144
宓	-12.4144
汭	-12.4144
熖	-12.4144
殲	-12.4144
瀨	-12.4145
鎸	-12.4145
讌	-12.4145
圻	-12.4145
栝	-12.4145
驊	-12.4145
杠	-12.4146
琛	-12.4146
畲	-12.4146
瀟	-12.4146
灸	-12.4146
鷗	-12.4147
㝎	-12.4147
嚅	-12.4147
畚	-12.4148
飧	-12.4148
縂	-12.4148
縳	-12.4149
捶	-12.4149
雚	-12.4149
瀚	-12.4149
蜺	-12.415
蝮	-12.415
垤	-12.415
芾	-12.415
蹻	-12.415
傀	-12.4151
謢	-12.4151
嘶	-12.4151
複	-12.4151
驄	-12.4151
鷁	-12.4151
嗅	-12.4151
帡	-12.4152
恚	-12.4152
䂓	-12.4152
胼	-12.4152
賡	-12.4153
莭	-12.4153
龕	-12.4155
荳	-12.4155
琬	-12.4155
瑯	-12.4156
襪	-12.4156
絞	-12.4156
別	-12.4157
缸	-12.4157
䑛	-12.4158
靦	-12.4158
巇	-12.4158
伉	-12.4158
堙	-12.4159
葭	-12.416
唳	-12.4162
淆	-12.4162
鈸	-12.4163
球	-12.4163
締	-12.4163
罍	-12.4164
鶂	-12.4164
豢	-12.4165
臰	-12.4165
枸	-12.4166
韐	-12.4166
諗	-12.4167
趐	-12.4167
鐸	-12.4169
帕	-12.4169
蹠	-12.4169
秣	-12.417
滎	-12.4172
嚬	-12.4173
忖	-12.4173
氈	-12.4174
禫	-12.4174
鶩	-12.4175
礼	-12.4176
嵋	-12.4182
嫩	-12.4182
鬷	-12.4182
翬	-12.4184
両	-12.4185
隄	-12.4189
坯	-12.4192
耈	-12.4196
姆	-12.42
緱	-12.4205
瀹	-12.6069
闃	-12.6083
臀	-12.6085
装	-12.6086
瘼	-12.609
繟	-12.6092
瀣	-12.6093
跼	-12.6095
刓	-12.6099
硯	-12.61
双	-12.6101
栅	-12.6103
踧	-12.6104
咫	-12.6104
窠	-12.6107
儵	-12.6107
谺	-12.6108
閙	-12.6108
譔	-12.611
嵎	-12.611
摳	-12.611
谽	-12.6111
妝	-12.6111
仿	-12.6111
鏜	-12.6111
亰	-12.6111
赧	-12.6112
蛭	-12.6113
寗	-12.6113
暄	-12.6115
誶	-12.6115
姙	-12.6116
䕫	-12.6116
冺	-12.6116
听	-12.6116
瞥	-12.6116
薤	-12.6117
𠒋	-12.6117
搗	-12.6117
瑛	-12.6118
戛	-12.6118
梱	-12.6118
夘	-12.6119
瞠	-12.6119
篷	-12.6119
噠	-12.6119
饈	-12.612
轊	-12.612
緋	-12.612
緹	-12.612
軺	-12.6121
鯢	-12.6121
症	-12.6121
杌	-12.6122
濙	-12.6122
暵	-12.6123
菰	-12.6123
薈	-12.6123
聒	-12.6123
靉	-12.6123
飴	-12.6123
熠	-12.6123
泒	-12.6124
𣾰	-12.6124
継	-12.6125
桎	-12.6125
滉	-12.6125
盼	-12.6125
荇	-12.6125
悞	-12.6125
叭	-12.6125
洌	-12.6125
蹐	-12.6126
祧	-12.6126
叡	-12.6126
剏	-12.6126
踖	-12.6127
棧	-12.6128
鑱	-12.6128
悸	-12.6128
漭	-12.6128
变	-12.6128
窶	-12.6128
朶	-12.6129
唆	-12.6129
筍	-12.6129
晻	-12.6129
囷	-12.6129
媱	-12.6129
觳	-12.613
閡	-12.613
渰	-12.613
禕	-12.613
㮣	-12.613
轠	-12.613
媮	-12.6131
鐺	-12.6131
刦	-12.6131
睠	-12.6131
繋	-12.6131
絛	-12.6132
忬	-12.6133
爚	-12.6133
斌	-12.6134
僭	-12.6134
戡	-12.6134
牿	-12.6134
剿	-12.6134
嘈	-12.6134
妺	-12.6134
絙	-12.6134
誹	-12.6134
郕	-12.6135
蕞	-12.6135
醪	-12.6135
斫	-12.6136
茸	-12.6136
蜒	-12.6136
珦	-12.6136
桞	-12.6136
傚	-12.6136
蕘	-12.6136
辠	-12.6136
胏	-12.6136
闐	-12.6137
崦	-12.6137
莧	-12.6137
慆	-12.6137
搨	-12.6137
刄	-12.6138
叄	-12.6138
鎚	-12.6138
蔴	-12.6138
帆	-12.6138
朏	-12.6138
饔	-12.6138
倩	-12.6138
兠	-12.6138
繭	-12.6138
筯	-12.6138
驀	-12.6139
儐	-12.6139
豸	-12.6139
慤	-12.6139
猳	-12.6139
勦	-12.6139
鮪	-12.6139
獫	-12.6139
幔	-12.6139
箬	-12.6139
塾	-12.614
痺	-12.614
粃	-12.6141
腪	-12.6141
譌	-12.6142
拗	-12.6142
搯	-12.6142
咆	-12.6142
藳	-12.6143
桔	-12.6143
飼	-12.6143
駵	-12.6143
卼	-12.6144
𢖍	-12.6144
幛	-12.6144
蹋	-12.6144
勛	-12.6144
䦧	-12.6144
楔	-12.6144
躰	-12.6144
捴	-12.6145
肄	-12.6145
驃	-12.6145
萑	-12.6145
哆	-12.6146
桶	-12.6146
鏟	-12.6146
頳	-12.6146
声	-12.6147
榕	-12.6147
邐	-12.6147
洧	-12.6147
嗛	-12.6147
祔	-12.6148
禘	-12.6148
縻	-12.6148
踝	-12.6148
慇	-12.6148
婪	-12.6149
薜	-12.6149
煜	-12.6149
峒	-12.6149
拿	-12.6149
𠫵	-12.615
莠	-12.615
麤	-12.615
䋲	-12.6151
靨	-12.6151
弰	-12.6151
洊	-12.6151
棨	-12.6151
晤	-12.6151
抜	-12.6152
偁	-12.6152
适	-12.6152
篝	-12.6153
緍	-12.6153
簣	-12.6154
樟	-12.6154
綉	-12.6155
鏞	-12.6156
沁	-12.6156
傘	-12.6157
憸	-12.6157
罌	-12.6157
哂	-12.6157
拐	-12.6158
専	-12.6158
惓	-12.6158
愔	-12.6158
涪	-12.6158
渟	-12.6158
噓	-12.6158
邅	-12.6158
扳	-12.6159
墅	-12.6159
皋	-12.616
旰	-12.616
斐	-12.6161
煽	-12.6161
慣	-12.6161
詡	-12.6161
瞋	-12.6161
莛	-12.6162
譖	-12.6162
瞤	-12.6162
鏑	-12.6162
俚	-12.6163
麵	-12.6164
聵	-12.6164
𤱶	-12.6164
鸑	-12.6164
糵	-12.6165
鑊	-12.6165
俑	-12.6165
鏌	-12.6166
鰕	-12.6166
犁	-12.6166
懃	-12.6166
溱	-12.6169
齬	-12.617
睛	-12.6171
窓	-12.6171
綻	-12.6171
狶	-12.6172
嶮	-12.6172
糖	-12.6172
蒐	-12.6172
諳	-12.6172
粘	-12.6173
謌	-12.6174
髭	-12.6174
埜	-12.6174
𧕏	-12.6174
笋	-12.6175
䌓	-12.6175
蓏	-12.6176
羮	-12.6177
軰	-12.6178
茁	-12.6178
樛	-12.6178
𩣭	-12.6179
扛	-12.6179
闞	-12.6179
砭	-12.6184
跰	-12.6186
佷	-12.6186
敲	-12.6187
縝	-12.6187
畸	-12.6188
佃	-12.6189
鱸	-12.619
薑	-12.6193
簸	-12.6196
闓	-12.6198
蚿	-12.6203
爺	-12.6233
捚	-12.8564
蕋	-12.8579
櫟	-12.8583
惵	-12.8586
闍	-12.8589
竢	-12.859
踶	-12.859
哪	-12.859
瘤	-12.8591
晢	-12.8593
胹	-12.8593
蹔	-12.8594
遴	-12.8596
甯	-12.8597
騙	-12.8598
幬	-12.8598
澣	-12.86
頄	-12.86
繻	-12.8601
僦	-12.8601
戶	-12.8601
睆	-12.8601
礀	-12.8602
煴	-12.8604
鏐	-12.8604
巃	-12.8605
磷	-12.8605
孳	-12.8607
喁	-12.8608
斂	-12.8608
窞	-12.8609
泂	-12.861
确	-12.8611
屦	-12.8611
協	-12.8612
驍	-12.8612
雊	-12.8612
雋	-12.8612
鐻	-12.8612
怫	-12.8614
觫	-12.8614
鈇	-12.8615
弇	-12.8615
閹	-12.8616
頊	-12.8616
薫	-12.8616
壖	-12.8616
昶	-12.8616
滃	-12.8616
琇	-12.8616
鍠	-12.8616
儃	-12.8616
𦍤	-12.8618
淦	-12.8619
謇	-12.8619
寝	-12.8619
歅	-12.8619
虀	-12.8621
蝨	-12.8621
頫	-12.8622
耜	-12.8622
齗	-12.8622
煆	-12.8623
諟	-12.8623
腕	-12.8625
哽	-12.8625
种	-12.8625
睎	-12.8625
虖	-12.8625
嗎	-12.8625
沷	-12.8625
㖡	-12.8626
旴	-12.8626
裨	-12.8626
悝	-12.8626
欹	-12.8626
鍤	-12.8627
飪	-12.8627
羯	-12.8627
笳	-12.8627
鼷	-12.8628
隷	-12.8628
䆮	-12.8628
倬	-12.8628
澍	-12.8628
堇	-12.8628
尒	-12.8628
骼	-12.8629
嗤	-12.8629
蟊	-12.8629
辣	-12.8629
淇	-12.863
虱	-12.863
髩	-12.863
蛄	-12.863
躄	-12.863
紼	-12.8632
刈	-12.8632
攙	-12.8632
阬	-12.8632
𧺫	-12.8632
葳	-12.8633
緲	-12.8633
嗌	-12.8633
柞	-12.8633
槍	-12.8633
窪	-12.8633
碓	-12.8634
籃	-12.8634
鬬	-12.8634
朐	-12.8634
噍	-12.8634
晒	-12.8634
稗	-12.8634
蠓	-12.8634
飊	-12.8634
屇	-12.8635
珞	-12.8635
酅	-12.8636
劃	-12.8636
疢	-12.8636
饘	-12.8636
宼	-12.8636
浞	-12.8636
舋	-12.8636
蒭	-12.8636
蹌	-12.8636
蛩	-12.8637
沍	-12.8637
鍚	-12.8637
壻	-12.8637
揶	-12.8637
曀	-12.8637
閲	-12.8637
嶪	-12.8638
匙	-12.8639
擿	-12.8639
嵨	-12.8639
弣	-12.864
犨	-12.864
𥠖	-12.864
礚	-12.864
莅	-12.8641
唫	-12.8641
𨓜	-12.8641
𥬇	-12.8641
㨗	-12.8641
夤	-12.8641
罘	-12.8641
搉	-12.8641
蓴	-12.8641
吮	-12.8641
掄	-12.8641
鬟	-12.8641
嬛	-12.8641
惛	-12.8641
掀	-12.8643
櫻	-12.8643
㬌	-12.8643
枌	-12.8643
柸	-12.8643
箠	-12.8643
揵	-12.8643
欷	-12.8644
艤	-12.8644
芘	-12.8644
蕙	-12.8644
沲	-12.8644
皤	-12.8644
絁	-12.8644
嘵	-12.8645
硎	-12.8645
褊	-12.8646
瘰	-12.8646
軏	-12.8646
倭	-12.8646
暍	-12.8646
貰	-12.8646
趄	-12.8646
𥮅	-12.8646
蝢	-12.8646
鷺	-12.8646
穽	-12.8647
滈	-12.8647
輾	-12.8647
矮	-12.8647
鸛	-12.8647
𧷢	-12.8647
籀	-12.8647
𦕎	-12.8647
潨	-12.8648
珥	-12.8648
据	-12.8648
脱	-12.8648
豨	-12.8648
韡	-12.8648
秕	-12.865
呀	-12.865
塤	-12.865
薺	-12.8651
跏	-12.8651
泬	-12.8651
兾	-12.8651
縑	-12.8651
挲	-12.8651
蹵	-12.8651
苹	-12.8651
鄆	-12.8651
𩀱	-12.8651
祼	-12.8652
癆	-12.8652
釘	-12.8652
䖟	-12.8652
珵	-12.8652
洮	-12.8652
曵	-12.8654
騋	-12.8654
綃	-12.8654
祓	-12.8655
鍜	-12.8655
摽	-12.8655
璫	-12.8655
貆	-12.8657
硨	-12.8657
禬	-12.8657
軛	-12.8657
垍	-12.8657
邯	-12.8658
橛	-12.8658
椄	-12.8658
硤	-12.8658
菡	-12.8658
𦤀	-12.8658
芋	-12.8658
𡟬	-12.8658
䓁	-12.8659
礦	-12.8659
沕	-12.8659
釗	-12.8659
婬	-12.8661
賅	-12.8661
溲	-12.8662
靣	-12.8662
訢	-12.8662
胭	-12.8663
忭	-12.8663
霰	-12.8663
秧	-12.8664
𥨸	-12.8664
呐	-12.8664
剠	-12.8665
菹	-12.8665
勗	-12.8665
轔	-12.8665
䆫	-12.8665
捽	-12.8665
殮	-12.8665
鮐	-12.8665
份	-12.8666
描	-12.8666
盒	-12.8668
佺	-12.8668
鋼	-12.8668
莾	-12.8669
猝	-12.8669
酤	-12.8669
鈐	-12.8669
尻	-12.8669
郇	-12.8669
傫	-12.8669
滸	-12.867
櫃	-12.8671
禜	-12.8672
鴝	-12.8672
鵶	-12.8673
猫	-12.8673
鴿	-12.8675
棐	-12.8675
蹍	-12.8675
騘	-12.8675
杇	-12.8676
癢	-12.8677
嶤	-12.8677
卺	-12.8679
秬	-12.8679
埠	-12.868
洫	-12.8683
獮	-12.8683
嶄	-12.8683
翣	-12.8684
珂	-12.8686
恧	-12.8688
颶	-12.869
鼍	-12.869
楘	-12.8693
蜷	-12.8693
㠯	-12.8694
嚎	-12.8697
麩	-12.87
𠃔	-12.8704
郜	-12.8709
𪃘	-12.872
鑼	-13.1839
碾	-13.1855
騤	-13.1857
翾	-13.1885
噎	-13.1893
闉	-13.1895
涂	-13.1899
圩	-13.1901
眎	-13.1905
纇	-13.1907
梲	-13.1909
𩇯	-13.1911
鼂	-13.1911
嗒	-13.1913
遹	-13.1915
𨶒	-13.1915
𢗲	-13.1915
㵿	-13.1916
扄	-13.1916
葑	-13.1918
嚤	-13.1918
咜	-13.1918
瞭	-13.192
厝	-13.1922
禩	-13.1922
鬨	-13.1922
匯	-13.1924
彿	-13.1928
咐	-13.1928
嚇	-13.1928
拽	-13.193
扮	-13.193
俐	-13.193
噤	-13.1932
洴	-13.1932
澼	-13.1932
絖	-13.1932
𣶬	-13.1932
憍	-13.1934
敇	-13.1934
𡚁	-13.1934
迈	-13.1936
顫	-13.1936
宂	-13.1936
椁	-13.1938
贓	-13.1938
斿	-13.1938
犍	-13.194
櫨	-13.194
靚	-13.194
楠	-13.194
啟	-13.194
緎	-13.194
鼇	-13.194
辤	-13.1941
鵓	-13.1941
篿	-13.1941
琞	-13.1942
詧	-13.1942
獗	-13.1943
逡	-13.1945
糅	-13.1945
㧾	-13.1945
舶	-13.1945
烙	-13.1945
弥	-13.1947
俺	-13.1947
眈	-13.1947
牓	-13.1947
璜	-13.1949
獺	-13.1949
䥴	-13.1949
琹	-13.1949
綆	-13.1949
哦	-13.1949
曖	-13.1949
党	-13.1951
吱	-13.1951
戇	-13.1951
屎	-13.1951
罽	-13.1951
懔	-13.1951
蘸	-13.1951
蒜	-13.1953
邴	-13.1953
鄴	-13.1953
单	-13.1953
嫚	-13.1953
昕	-13.1953
掐	-13.1953
椅	-13.1953
肹	-13.1953
黠	-13.1955
牷	-13.1955
鬲	-13.1955
𦁕	-13.1955
揪	-13.1955
蕚	-13.1955
觚	-13.1955
臠	-13.1955
蕤	-13.1955
鱔	-13.1955
澮	-13.1957
腮	-13.1957
醺	-13.1957
䄀	-13.1957
暾	-13.1957
瀁	-13.1957
翎	-13.1957
㡳	-13.1957
儛	-13.1957
苕	-13.1957
裀	-13.1957
鄖	-13.1957
楣	-13.1959
䏂	-13.1959
濔	-13.1959
嘐	-13.1959
遅	-13.1959
陏	-13.1959
槲	-13.1959
覌	-13.1959
踆	-13.1959
棫	-13.1959
淟	-13.1959
猩	-13.1959
訩	-13.1959
酹	-13.1959
汒	-13.1959
耰	-13.1959
顕	-13.1959
鈃	-13.1961
廠	-13.1961
鑪	-13.1961
喓	-13.1961
稂	-13.1961
聪	-13.1961
豔	-13.1961
鋩	-13.1963
䘒	-13.1963
秭	-13.1963
莢	-13.1963
剸	-13.1963
癬	-13.1963
瓮	-13.1963
鴶	-13.1963
筝	-13.1963
赩	-13.1963
袐	-13.1965
唃	-13.1965
玭	-13.1965
𢃄	-13.1965
儡	-13.1965
垊	-13.1965
櫳	-13.1965
瘍	-13.1965
稲	-13.1965
袠	-13.1965
郛	-13.1965
忡	-13.1965
町	-13.1965
遙	-13.1965
勩	-13.1967
玫	-13.1967
篨	-13.1967
缻	-13.1967
慹	-13.1967
璿	-13.1967
蠖	-13.1967
旹	-13.1967
窾	-13.1967
瀺	-13.1967
瞎	-13.1967
祅	-13.1967
脹	-13.1967
藕	-13.1968
嶇	-13.1969
彂	-13.1969
絀	-13.1969
獯	-13.1969
糶	-13.1969
异	-13.1969
𤓰	-13.1969
㳙	-13.1969
邲	-13.1969
頨	-13.1969
瀬	-13.197
嘖	-13.197
蛉	-13.197
覕	-13.197
淝	-13.197
鉦	-13.197
黥	-13.197
𡱝	-13.197
桒	-13.1971
徠	-13.1972
岷	-13.1972
痞	-13.1972
颸	-13.1972
涊	-13.1972
荣	-13.1972
臏	-13.1972
擯	-13.1974
珓	-13.1974
銛	-13.1974
窖	-13.1974
簦	-13.1974
罇	-13.1974
綰	-13.1974
誄	-13.1974
躩	-13.1974
剗	-13.1974
徉	-13.1974
摺	-13.1974
毉	-13.1974
螘	-13.1974
𢡟	-13.1974
溷	-13.1974
喭	-13.1976
摟	-13.1976
郗	-13.1976
儕	-13.1976
逑	-13.1976
鴂	-13.1976
䕷	-13.1976
蜓	-13.1976
榛	-13.1976
倜	-13.1976
碭	-13.1976
倀	-13.1976
巗	-13.1976
狟	-13.1976
芩	-13.1976
滲	-13.1978
圾	-13.1978
捏	-13.1978
𪔂	-13.1978
尢	-13.1978
昺	-13.1978
羭	-13.1978
蠐	-13.198
戺	-13.198
簑	-13.198
扺	-13.198
胔	-13.198
鄊	-13.198
幙	-13.198
暱	-13.198
獹	-13.198
劘	-13.198
瘉	-13.198
尨	-13.198
湟	-13.1982
艘	-13.1982
黏	-13.1982
鴨	-13.1982
獠	-13.1982
鏁	-13.1982
𥥆	-13.1982
浡	-13.1982
酪	-13.1982
隟	-13.1982
郾	-13.1982
惋	-13.1982
艧	-13.1982
霂	-13.1982
篲	-13.1982
蜆	-13.1982
襯	-13.1982
遝	-13.1984
耎	-13.1984
爗	-13.1984
甎	-13.1984
𠎝	-13.1984
梏	-13.1984
隽	-13.1984
尪	-13.1984
拮	-13.1984
餚	-13.1984
閾	-13.1984
慷	-13.1986
篦	-13.1986
㸑	-13.1986
檮	-13.1986
魊	-13.1986
祍	-13.1986
禊	-13.1986
繙	-13.1986
宝	-13.1986
晰	-13.1986
禔	-13.1986
騅	-13.1986
砢	-13.1988
唶	-13.1988
褅	-13.1988
蕈	-13.1988
芫	-13.1988
蝱	-13.1988
嚧	-13.1988
婭	-13.1988
壠	-13.1988
纚	-13.1988
籧	-13.199
惝	-13.199
优	-13.199
濆	-13.199
芍	-13.199
泪	-13.199
絯	-13.199
㭿	-13.199
誸	-13.199
𤣱	-13.199
帟	-13.1992
㹠	-13.1992
萱	-13.1992
謭	-13.1992
昳	-13.1992
潸	-13.1992
蜴	-13.1992
嘷	-13.1992
衵	-13.1994
艸	-13.1994
蛆	-13.1994
韭	-13.1994
𩝫	-13.1994
兂	-13.1995
槖	-13.1996
鯈	-13.1996
譟	-13.1996
喔	-13.1996
銕	-13.1996
齁	-13.1996
馗	-13.1997
膜	-13.1997
䔩	-13.1999
垾	-13.1999
槢	-13.1999
璆	-13.1999
閴	-13.1999
臈	-13.1999
萸	-13.1999
吷	-13.1999
䪡	-13.1999
霔	-13.1999
囱	-13.2001
窄	-13.2001
籯	-13.2001
鑽	-13.2001
飫	-13.2001
挐	-13.2001
晳	-13.2001
拌	-13.2001
軼	-13.2003
綖	-13.2003
瑁	-13.2003
努	-13.2003
𠜇	-13.2003
懂	-13.2003
仭	-13.2003
湄	-13.2003
獝	-13.2003
焂	-13.2005
菱	-13.2005
戣	-13.2005
醊	-13.2005
㤕	-13.2005
𧨨	-13.2005
㬰	-13.2007
腴	-13.2007
屺	-13.2007
曶	-13.2007
㠋	-13.2007
撈	-13.2007
縹	-13.2007
褲	-13.2007
聮	-13.2009
鶡	-13.2009
癱	-13.2009
瀕	-13.2009
嘹	-13.2009
肋	-13.2011
佒	-13.2011
姁	-13.2011
紉	-13.2013
砍	-13.2013
薌	-13.2013
𤔵	-13.2015
踔	-13.2015
䇺	-13.2015
尠	-13.2015
㦲	-13.2015
啗	-13.2017
澁	-13.2017
錚	-13.2017
覦	-13.2017
趂	-13.2017
驤	-13.2017
杗	-13.2019
琚	-13.2019
纁	-13.2019
嬋	-13.2021
佀	-13.2021
篩	-13.2021
饁	-13.2021
䦕	-13.2023
劖	-13.2023
嵿	-13.2024
毬	-13.2024
犒	-13.2025
臉	-13.2025
矻	-13.2026
悋	-13.2026
篾	-13.2026
爹	-13.2026
㝡	-13.2028
玠	-13.2028
閗	-13.2028
澌	-13.203
曚	-13.203
崐	-13.2032
𤇆	-13.2032
楗	-13.2036
陁	-13.204
𨚫	-13.2042
眡	-13.2042
燐	-13.2042
齟	-13.2044
鶺	-13.2044
悈	-13.2046
彛	-13.2061
鬮	-13.21
阴	-13.6835
裩	-13.6845
鶬	-13.6854
尃	-13.6866
胠	-13.6879
屧	-13.6882
硝	-13.6884
艇	-13.6885
碕	-13.6885
棕	-13.6888
澠	-13.6889
帨	-13.6891
輶	-13.6891
抖	-13.6892
湜	-13.6892
鄠	-13.6895
謞	-13.6895
磪	-13.6897
僝	-13.6898
鷸	-13.6898
皜	-13.6898
誾	-13.6898
厫	-13.6901
騕	-13.6901
呺	-13.6904
𥚑	-13.6904
㴠	-13.6907
难	-13.6907
㐲	-13.6907
摑	-13.6907
椑	-13.691
窳	-13.691
𦆵	-13.691
俏	-13.691
炯	-13.691
熈	-13.6911
獅	-13.6913
埸	-13.6914
嶭	-13.6914
壎	-13.6914
翏	-13.6914
梭	-13.692
豉	-13.692
宎	-13.692
洼	-13.692
窢	-13.692
摻	-13.692
蚯	-13.692
銼	-13.692
髐	-13.692
𤯝	-13.6923
匾	-13.6923
屡	-13.6923
購	-13.6923
魭	-13.6923
嵸	-13.6923
妮	-13.6923
呢	-13.6923
楬	-13.6926
飰	-13.6926
咼	-13.6926
纜	-13.6926
㬹	-13.6926
𣧎	-13.6928
溍	-13.6929
娩	-13.6929
扔	-13.6929
殚	-13.6929
麏	-13.6929
𥟵	-13.6929
穪	-13.6929
媯	-13.6929
怭	-13.6929
淠	-13.6929
譐	-13.6929
鑷	-13.6929
庀	-13.6932
碨	-13.6932
鵞	-13.6932
貍	-13.6933
皚	-13.6933
𧄸	-13.6933
栱	-13.6933
㝢	-13.6936
謵	-13.6936
麪	-13.6936
哿	-13.6936
㯱	-13.6936
僛	-13.6936
珙	-13.6936
䙝	-13.6938
唁	-13.6939
屩	-13.6939
擕	-13.6939
橡	-13.6939
敎	-13.6939
欿	-13.6939
坌	-13.6942
票	-13.6942
喃	-13.6942
薔	-13.6942
宕	-13.6942
貎	-13.6942
寀	-13.6942
旼	-13.6942
枓	-13.6942
汋	-13.6942
矌	-13.6942
繢	-13.6942
㱊	-13.6942
偆	-13.6942
傞	-13.6942
恟	-13.6942
𢆻	-13.6942
経	-13.6945
櫪	-13.6945
躧	-13.6945
顋	-13.6948
黧	-13.6948
澈	-13.6948
耉	-13.6948
搃	-13.6948
鏖	-13.6948
翀	-13.6948
怜	-13.6948
紾	-13.6948
秔	-13.6948
纈	-13.6948
廧	-13.6948
麞	-13.6948
妸	-13.6948
歔	-13.6948
汏	-13.6948
疳	-13.6948
磝	-13.6948
謩	-13.6948
醻	-13.6948
𢧐	-13.6948
繰	-13.6951
絫	-13.6951
撿	-13.6951
隩	-13.6951
蓽	-13.6951
贐	-13.6951
郯	-13.6951
霅	-13.6951
䇲	-13.6951
䋅	-13.6951
秖	-13.6951
譊	-13.6951
悄	-13.6955
椆	-13.6955
臥	-13.6955
鎁	-13.6955
剙	-13.6955
嗢	-13.6955
姨	-13.6955
茆	-13.6955
馹	-13.6955
𥗬	-13.6955
婣	-13.6955
徔	-13.6955
戆	-13.6955
扐	-13.6955
扑	-13.6955
棓	-13.6955
猭	-13.6955
殟	-13.6958
概	-13.6958
伇	-13.6958
鵂	-13.6958
䧺	-13.6958
㯶	-13.6958
嘲	-13.6958
芑	-13.6958
媟	-13.6958
淒	-13.6958
紈	-13.6958
飇	-13.6958
凳	-13.6958
堡	-13.6958
柙	-13.6958
櫜	-13.6958
灶	-13.6958
稯	-13.6958
縭	-13.6958
繅	-13.6958
繶	-13.6958
罸	-13.6958
蹂	-13.6958
颼	-13.6958
猋	-13.6961
揩	-13.6961
咯	-13.6961
园	-13.6961
趫	-13.6961
弈	-13.6961
橰	-13.6961
歿	-13.6961
蓧	-13.6961
䃘	-13.6961
佌	-13.6961
噭	-13.6961
埓	-13.6961
戹	-13.6961
攎	-13.6961
梔	-13.6961
泏	-13.6961
渢	-13.6961
瀤	-13.6961
顇	-13.6961
𣉇	-13.6961
𥧌	-13.6961
呬	-13.6964
畎	-13.6964
𩔰	-13.6964
鼯	-13.6964
僨	-13.6964
眹	-13.6964
祢	-13.6964
歠	-13.6964
裼	-13.6964
斾	-13.6964
椹	-13.6964
淯	-13.6964
睟	-13.6964
詇	-13.6964
豎	-13.6964
顦	-13.6964
𩑺	-13.6964
疸	-13.6964
缹	-13.6964
荑	-13.6964
鄫	-13.6964
鼐	-13.6964
𥚹	-13.6964
擥	-13.6967
𨺚	-13.6967
䏶	-13.6967
秫	-13.6967
酳	-13.6967
㸦	-13.6967
䡾	-13.6967
媢	-13.6967
抒	-13.6967
毶	-13.6967
灧	-13.6967
眢	-13.6967
翐	-13.6967
跲	-13.6967
鈕	-13.6967
閇	-13.6967
餱	-13.6967
𦖦	-13.6967
撃	-13.697
矞	-13.697
鼪	-13.697
畊	-13.697
僇	-13.697
趁	-13.697
䄠	-13.697
疔	-13.697
輊	-13.697
竉	-13.697
諔	-13.697
緌	-13.697
蓂	-13.697
眭	-13.6973
洐	-13.6973
曒	-13.6973
犴	-13.6973
瘏	-13.6973
腿	-13.6973
菅	-13.6973
楀	-13.6973
烘	-13.6973
狪	-13.6973
璲	-13.6973
皞	-13.6973
硜	-13.6973
碗	-13.6973
竣	-13.6973
翂	-13.6973
誔	-13.6973
跈	-13.6973
輓	-13.6973
醨	-13.6973
鎛	-13.6973
鮫	-13.6973
麃	-13.6973
𡩖	-13.6973
𢢽	-13.6973
𣁎	-13.6973
𨹧	-13.6973
凰	-13.6974
礧	-13.6976
檠	-13.6976
幍	-13.6976
璦	-13.6976
汐	-13.6977
鬍	-13.6977
鏃	-13.6977
囅	-13.6977
嫓	-13.6977
翡	-13.6977
鄯	-13.6977
驁	-13.6977
𣵀	-13.6977
𧃳	-13.6977
倔	-13.6977
皿	-13.6977
聀	-13.6977
虆	-13.6977
覤	-13.6977
鬖	-13.698
觝	-13.698
豗	-13.698
鏹	-13.698
韃	-13.698
狢	-13.698
咦	-13.698
跽	-13.698
𢷤	-13.698
嚱	-13.698
岓	-13.698
恡	-13.698
擐	-13.698
濘	-13.698
癥	-13.698
艦	-13.698
蔾	-13.698
鮓	-13.698
俋	-13.698
儂	-13.698
挃	-13.698
泲	-13.698
痀	-13.698
闑	-13.698
𡙇	-13.698
硉	-13.6983
炒	-13.6983
猒	-13.6983
渌	-13.6983
琉	-13.6983
戳	-13.6983
皃	-13.6983
漙	-13.6983
潙	-13.6983
碏	-13.6983
𠇮	-13.6983
䍧	-13.6983
㴻	-13.6983
儗	-13.6983
勮	-13.6983
畹	-13.6983
胙	-13.6983
髽	-13.6983
焙	-13.6986
蜮	-13.6986
閘	-13.6986
癕	-13.6986
韁	-13.6986
愒	-13.6986
噏	-13.6986
笀	-13.6986
狷	-13.6986
莞	-13.6986
蕕	-13.6986
黬	-13.6986
㢘	-13.6986
㫺	-13.6986
冡	-13.6986
咍	-13.6986
綠	-13.6986
裸	-13.6986
訏	-13.6986
鬐	-13.6986
𥨊	-13.6986
穏	-13.6989
𨗉	-13.6989
觱	-13.6989
乕	-13.6989
曣	-13.6989
檡	-13.6989
惄	-13.6989
獧	-13.6989
蔞	-13.6989
賻	-13.6989
懣	-13.6989
饞	-13.6989
鬴	-13.6989
垔	-13.6989
漻	-13.6989
訽	-13.6989
渀	-13.6992
𨒫	-13.6992
郅	-13.6992
拸	-13.6992
怔	-13.6992
鍔	-13.6992
舫	-13.6992
㮏	-13.6992
咂	-13.6992
揃	-13.6992
攦	-13.6992
敉	-13.6992
熛	-13.6992
陃	-13.6992
𨔼	-13.6992
噳	-13.6992
忪	-13.6992
𡨜	-13.6992
惲	-13.6995
橑	-13.6995
躪	-13.6996
銚	-13.6996
咋	-13.6996
篙	-13.6996
泫	-13.6996
酎	-13.6996
僔	-13.6996
軆	-13.6996
邰	-13.6996
鱖	-13.6998
会	-13.6999
茲	-13.6999
橾	-13.6999
𡟋	-13.6999
嶔	-13.6999
愎	-13.6999
豳	-13.6999
畱	-13.6999
稌	-13.6999
吡	-13.6999
鎒	-13.6999
伹	-13.6999
帚	-13.6999
曨	-13.6999
祤	-13.6999
筞	-13.6999
諓	-13.6999
磈	-13.7002
釿	-13.7002
冂	-13.7002
痿	-13.7002
緄	-13.7002
邏	-13.7002
椳	-13.7002
診	-13.7005
𡺿	-13.7005
孠	-13.7005
馱	-13.7005
崌	-13.7005
迁	-13.7005
坻	-13.7005
慒	-13.7005
憝	-13.7005
昻	-13.7005
蛮	-13.7008
髧	-13.7008
𩀌	-13.7008
崷	-13.7008
饎	-13.7008
俍	-13.7008
滚	-13.7008
梠	-13.7008
叐	-13.7008
啚	-13.7008
暁	-13.7008
馺	-13.7011
𧟋	-13.7011
呆	-13.7011
嵱	-13.7011
鷔	-13.7011
抅	-13.7011
櫖	-13.7011
窱	-13.7011
齲	-13.7011
螣	-13.7014
挒	-13.7014
筒	-13.7014
杻	-13.7014
螬	-13.7014
㪷	-13.7014
擗	-13.7014
絻	-13.7017
鎌	-13.7018
䆳	-13.7018
膍	-13.7018
郄	-13.7018
醑	-13.7018
庋	-13.7018
樐	-13.7018
遟	-13.7018
颷	-13.7018
騃	-13.702
墁	-13.7021
甿	-13.7021
擡	-13.7021
唪	-13.7021
胲	-13.7021
烽	-13.7021
蚪	-13.7021
𥳠	-13.7021
摸	-13.7024
頁	-13.7024
賖	-13.7027
紬	-13.7027
駊	-13.7027
㾛	-13.7027
擦	-13.7027
壚	-13.703
袊	-13.703
蒔	-13.703
逗	-13.703
鞞	-13.703
䔧	-13.703
罃	-13.703
箔	-13.703
殢	-13.703
䟦	-13.703
箾	-13.703
䁀	-13.7033
撾	-13.7033
僁	-13.7033
藇	-13.7036
阱	-13.7036
崙	-13.7039
杆	-13.7039
娉	-13.704
灜	-13.704
㨂	-13.7043
𣗥	-13.7043
潗	-13.7043
䃽	-13.7043
榬	-13.7043
駪	-13.7043
轤	-13.7046
苖	-13.7049
罭	-13.7049
觖	-13.7049
醹	-13.7052
嘽	-13.7052
奩	-13.7052
瘨	-13.7055
憰	-13.7055
怲	-13.7055
砲	-13.7055
𢥞	-13.7055
泅	-13.7059
扢	-13.7062
䓹	-13.7062
鼖	-13.7065
浤	-13.7068
瀥	-13.7068
皁	-13.7071
悒	-13.7087
誴	-13.71
嘕	-13.7112
㟁	-13.7152
㴎	-14.6681
嚓	-14.6713
㕣	-14.6721
敫	-14.6745
氶	-14.6745
㐮	-14.6769
㝃	-14.6793
妊	-14.6793
〔	-14.6801
㽔	-14.6801
妒	-14.6801
寎	-14.6801
䂊	-14.6809
硖	-14.6809
磕	-14.6809
嶬	-14.6817
皐	-14.6817
礞	-14.6817
㐴	-14.6825
姱	-14.6833
斚	-14.6833
毆	-14.6833
枣	-14.6841
査	-14.6841
瓚	-14.6841
刅	-14.6849
愫	-14.6849
昜	-14.6849
涞	-14.6849
淈	-14.6849
㼜	-14.6857
䏏	-14.6857
嗼	-14.6857
惷	-14.6857
慉	-14.6857
枅	-14.6857
䜵	-14.6865
䝿	-14.6865
䨥	-14.6865
东	-14.6865
呾	-14.6865
囀	-14.6865
圴	-14.6865
娭	-14.6865
嫟	-14.6865
嬃	-14.6865
悪	-14.6865
熉	-14.6865
㕖	-14.6873
喏	-14.6873
峍	-14.6873
揰	-14.6873
搦	-14.6873
枹	-14.6873
牣	-14.6873
砬	-14.6873
个	-14.6881
栥	-14.6881
櫕	-14.6881
泿	-14.6881
㸐	-14.6889
啊	-14.6889
墤	-14.6889
媍	-14.6889
岉	-14.6889
幌	-14.6889
惾	-14.6889
扚	-14.6889
槪	-14.6889
樠	-14.6889
櫚	-14.6889
湶	-14.6889
漴	-14.6889
琠	-14.6889
瑳	-14.6889
砊	-14.6889
㢮	-14.6897
䨜	-14.6897
唄	-14.6897
孶	-14.6897
嵲	-14.6897
嶆	-14.6897
彠	-14.6897
掏	-14.6897
檛	-14.6897
沗	-14.6897
瀏	-14.6897
■	-14.6905
㒜	-14.6905
佘	-14.6905
冋	-14.6905
喎	-14.6905
囏	-14.6905
幨	-14.6905
抨	-14.6905
抰	-14.6905
捺	-14.6905
撽	-14.6905
柭	-14.6905
洚	-14.6905
浯	-14.6905
濾	-14.6905
琯	-14.6905
磢	-14.6905
𩵄	-14.6905
𩳐	-14.6906
𩲃	-14.6907
𩃱	-14.6908
𨥯	-14.6909
𨓦	-14.691
𦨚	-14.6911
𦢌	-14.6912
㞦	-14.6913
㫪	-14.6913
刜	-14.6913
噱	-14.6913
岊	-14.6913
弝	-14.6913
惨	-14.6913
枻	-14.6913
梃	-14.6913
槮	-14.6913
洁	-14.6913
涙	-14.6913
瀦	-14.6913
疴	-14.6913
矬	-14.6913
礒	-14.6913
𤴯	-14.6913
𤏘	-14.6914
𢌞	-14.6915
𢂽	-14.6916
𡩬	-14.6917
𡊨	-14.6918
𠫭	-14.6919
𠌯	-14.692
㒆	-14.6921
㠙	-14.6921
㬍	-14.6921
䋈	-14.6921
丢	-14.6921
剷	-14.6921
勔	-14.6921
垺	-14.6921
奐	-14.6921
抺	-14.6921
挻	-14.6921
斠	-14.6921
柷	-14.6921
棬	-14.6921
楸	-14.6921
槷	-14.6921
汍	-14.6921
濜	-14.6921
玳	-14.6921
痪	-14.6921
𠈁	-14.6921
齯	-14.6922
齮	-14.6923
黝	-14.6924
黕	-14.6925
鸋	-14.6926
鶘	-14.6927
鵻	-14.6928
㫤	-14.6929
䜅	-14.6929
䝟	-14.6929
僾	-14.6929
呶	-14.6929
呿	-14.6929
奘	-14.6929
孼	-14.6929
岞	-14.6929
峗	-14.6929
嵁	-14.6929
悱	-14.6929
搂	-14.6929
撣	-14.6929
枢	-14.6929
溼	-14.6929
狆	-14.6929
猵	-14.6929
睖	-14.6929
襮	-14.6929
鵴	-14.6929
鵜	-14.693
鴒	-14.6931
鱄	-14.6932
鰋	-14.6933
鮀	-14.6934
魓	-14.6935
魒	-14.6936
㞐	-14.6937
㢠	-14.6937
䏿	-14.6937
䦨	-14.6937
䮰	-14.6937
亀	-14.6937
侻	-14.6937
僤	-14.6937
剮	-14.6937
喆	-14.6937
嚆	-14.6937
嬿	-14.6937
宷	-14.6937
峬	-14.6937
慁	-14.6937
揫	-14.6937
撙	-14.6937
攛	-14.6937
旎	-14.6937
旖	-14.6937
晜	-14.6937
枤	-14.6937
甆	-14.6937
甗	-14.6937
鬽	-14.6937
鬘	-14.6938
髁	-14.6939
駙	-14.694
飂	-14.6941
頠	-14.6942
靆	-14.6943
霤	-14.6944
崆	-14.6945
㟧	-14.6945
㮔	-14.6945
䄋	-14.6945
䅪	-14.6945
䨑	-14.6945
䨴	-14.6945
匄	-14.6945
吭	-14.6945
嚗	-14.6945
奓	-14.6945
崳	-14.6945
帗	-14.6945
愮	-14.6945
懠	-14.6945
挿	-14.6945
搐	-14.6945
撕	-14.6945
朅	-14.6945
朘	-14.6945
椋	-14.6945
榥	-14.6945
殱	-14.6945
洑	-14.6945
浿	-14.6945
渻	-14.6945
滀	-14.6945
煮	-14.6945
瑇	-14.6945
瓅	-14.6945
盩	-14.6945
霡	-14.6945
霎	-14.6946
闤	-14.6947
闠	-14.6948
鏸	-14.6949
鍪	-14.695
醷	-14.6951
鄞	-14.6952
㤙	-14.6953
㹖	-14.6953
䀄	-14.6953
䃢	-14.6953
佋	-14.6953
埀	-14.6953
嬈	-14.6953
崓	-14.6953
懞	-14.6953
搴	-14.6953
摛	-14.6953
杕	-14.6953
柀	-14.6953
椓	-14.6953
檳	-14.6953
櫂	-14.6953
櫓	-14.6953
欖	-14.6953
洰	-14.6953
洶	-14.6953
滇	-14.6953
瀘	-14.6953
燉	-14.6953
燹	-14.6953
爆	-14.6953
牏	-14.6953
牐	-14.6953
狖	-14.6953
獪	-14.6953
玓	-14.6953
癇	-14.6953
砠	-14.6953
碒	-14.6953
磑	-14.6953
迼	-14.6953
轢	-14.6954
蹭	-14.6955
踑	-14.6956
跫	-14.6957
豀	-14.6958
诚	-14.6959
譮	-14.696
㕥	-14.6961
㦤	-14.6961
㨇	-14.6961
䀨	-14.6961
䘏	-14.6961
䠱	-14.6961
䨱	-14.6961
䮐	-14.6961
䱔	-14.6961
丄	-14.6961
亏	-14.6961
侅	-14.6961
侐	-14.6961
俣	-14.6961
僓	-14.6961
刾	-14.6961
劳	-14.6961
卅	-14.6961
呮	-14.6961
咺	-14.6961
唏	-14.6961
嚕	-14.6961
嚜	-14.6961
嚵	-14.6961
媕	-14.6961
宁	-14.6961
崟	-14.6961
廌	-14.6961
彎	-14.6961
徯	-14.6961
忧	-14.6961
怊	-14.6961
愾	-14.6961
慠	-14.6961
憀	-14.6961
捸	-14.6961
揕	-14.6961
摝	-14.6961
撗	-14.6961
曬	-14.6961
枇	-14.6961
柜	-14.6961
桮	-14.6961
槧	-14.6961
檷	-14.6961
氁	-14.6961
泙	-14.6961
洹	-14.6961
澦	-14.6961
濇	-14.6961
熌	-14.6961
燀	-14.6961
珉	-14.6961
疪	-14.6961
瘝	-14.6961
眗	-14.6961
砉	-14.6961
碙	-14.6961
謑	-14.6961
謋	-14.6962
詼	-14.6963
觭	-14.6964
覊	-14.6965
蟺	-14.6966
蟈	-14.6967
蝤	-14.6968
㙴	-14.6969
㟋	-14.6969
㭈	-14.6969
㷆	-14.6969
㷍	-14.6969
㺽	-14.6969
䁕	-14.6969
䌚	-14.6969
䗲	-14.6969
䤾	-14.6969
䨇	-14.6969
䴡	-14.6969
丼	-14.6969
侹	-14.6969
俈	-14.6969
俳	-14.6969
倞	-14.6969
傛	-14.6969
嗊	-14.6969
嗥	-14.6969
囓	-14.6969
坝	-14.6969
垛	-14.6969
堮	-14.6969
夐	-14.6969
姐	-14.6969
娃	-14.6969
寠	-14.6969
帀	-14.6969
庙	-14.6969
忐	-14.6969
忑	-14.6969
扷	-14.6969
捃	-14.6969
捋	-14.6969
搊	-14.6969
擉	-14.6969
敭	-14.6969
晘	-14.6969
枮	-14.6969
柟	-14.6969
棖	-14.6969
椀	-14.6969
権	-14.6969
樿	-14.6969
歪	-14.6969
燺	-14.6969
爀	-14.6969
玘	-14.6969
璡	-14.6969
痂	-14.6969
睚	-14.6969
蜊	-14.6969
蚹	-14.697
藘	-14.6971
藋	-14.6972
蔻	-14.6973
茱	-14.6974
芧	-14.6975
膿	-14.6976
㕍	-14.6977
㕼	-14.6977
㢃	-14.6977
㫙	-14.6977
㴞	-14.6977
㵸	-14.6977
㼁	-14.6977
䚹	-14.6977
䟲	-14.6977
䦎	-14.6977
劊	-14.6977
吚	-14.6977
唼	-14.6977
嘊	-14.6977
嘩	-14.6977
垪	-14.6977
埤	-14.6977
堲	-14.6977
塉	-14.6977
尫	-14.6977
尽	-14.6977
幞	-14.6977
庒	-14.6977
惏	-14.6977
愰	-14.6977
揗	-14.6977
攜	-14.6977
攵	-14.6977
斄	-14.6977
昷	-14.6977
晹	-14.6977
柎	-14.6977
柠	-14.6977
楥	-14.6977
橵	-14.6977
檣	-14.6977
櫸	-14.6977
欏	-14.6977
欸	-14.6977
湢	-14.6977
湼	-14.6977
滍	-14.6977
潠	-14.6977
瀲	-14.6977
炕	-14.6977
爓	-14.6977
爝	-14.6977
玗	-14.6977
玿	-14.6977
珫	-14.6977
甾	-14.6977
疤	-14.6977
磵	-14.6977
胈	-14.6977
肳	-14.6978
聡	-14.6979
耇	-14.698
翱	-14.6981
羜	-14.6982
罳	-14.6983
綯	-14.6984
㚥	-14.6985
㩜	-14.6985
㰰	-14.6985
㳂	-14.6985
㺵	-14.6985
䑢	-14.6985
䘵	-14.6985
䠶	-14.6985
䩻	-14.6985
丫	-14.6985
乜	-14.6985
亊	-14.6985
佟	-14.6985
佶	-14.6985
侶	-14.6985
僯	-14.6985
僶	-14.6985
哨	-14.6985
啁	-14.6985
啷	-14.6985
喇	-14.6985
嘅	-14.6985
噆	-14.6985
噯	-14.6985
圕	-14.6985
坸	-14.6985
壌	-14.6985
岺	-14.6985
巣	-14.6985
帠	-14.6985
忔	-14.6985
忼	-14.6985
惣	-14.6985
惮	-14.6985
憼	-14.6985
挕	-14.6985
掞	-14.6985
撏	-14.6985
攓	-14.6985
斒	-14.6985
旿	-14.6985
暊	-14.6985
楳	-14.6985
槿	-14.6985
沄	-14.6985
泀	-14.6985
渍	-14.6985
澧	-14.6985
瀀	-14.6985
灵	-14.6985
煗	-14.6985
牎	-14.6985
珢	-14.6985
痤	-14.6985
瘸	-14.6985
皡	-14.6985
皴	-14.6985
眕	-14.6985
眘	-14.6985
睪	-14.6985
砰	-14.6985
硫	-14.6985
綮	-14.6985
糯	-14.6986
糒	-14.6987
篌	-14.6988
箜	-14.6989
筤	-14.699
筑	-14.6991
竁	-14.6992
㜐	-14.6993
䏢	-14.6993
䛕	-14.6993
䳓	-14.6993
傖	-14.6993
儿	-14.6993
哥	-14.6993
囤	-14.6993
坩	-14.6993
妲	-14.6993
岘	-14.6993
愳	-14.6993
扭	-14.6993
搤	-14.6993
斸	-14.6993
朾	-14.6993
杰	-14.6993
杷	-14.6993
桄	-14.6993
楨	-14.6993
榘	-14.6993
樅	-14.6993
檼	-14.6993
淅	-14.6993
湆	-14.6993
湓	-14.6993
溧	-14.6993
澿	-14.6993
灭	-14.6993
燫	-14.6993
犿	-14.6993
狮	-14.6993
獍	-14.6993
痏	-14.6993
痗	-14.6993
痨	-14.6993
磗	-14.6993
礲	-14.6993
磥	-14.6994
瞚	-14.6995
睞	-14.6996
眊	-14.6997
盏	-14.6998
盌	-14.6999
癊	-14.7
㫋	-14.7001
㫼	-14.7001
㭝	-14.7001
䈎	-14.7001
䔷	-14.7001
䧬	-14.7001
傋	-14.7001
傎	-14.7001
卣	-14.7001
咶	-14.7001
嘱	-14.7001
圏	-14.7001
圳	-14.7001
坋	-14.7001
坧	-14.7001
型	-14.7001
墐	-14.7001
奨	-14.7001
嫭	-14.7001
尿	-14.7001
旐	-14.7001
楒	-14.7001
楢	-14.7001
楪	-14.7001
樺	-14.7001
浬	-14.7001
淛	-14.7001
牱	-14.7001
牸	-14.7001
狫	-14.7001
猺	-14.7001
玹	-14.7001
玼	-14.7001
珝	-14.7001
珣	-14.7001
璝	-14.7001
璠	-14.7001
痩	-14.7001
眛	-14.7001
瘣	-14.7001
瘋	-14.7002
痠	-14.7003
甬	-14.7004
瓐	-14.7005
瑨	-14.7006
琱	-14.7007
玞	-14.7008
㮛	-14.7009
佅	-14.7009
卝	-14.7009
厺	-14.7009
哄	-14.7009
喊	-14.7009
嚢	-14.7009
塹	-14.7009
壃	-14.7009
妪	-14.7009
嫐	-14.7009
岠	-14.7009
很	-14.7009
徢	-14.7009
徸	-14.7009
恌	-14.7009
悕	-14.7009
憹	-14.7009
戃	-14.7009
撇	-14.7009
晣	-14.7009
朿	-14.7009
椸	-14.7009
楎	-14.7009
殙	-14.7009
汳	-14.7009
溈	-14.7009
烖	-14.7009
犛	-14.7009
疝	-14.7009
瘕	-14.7009
盇	-14.7009
矑	-14.7009
猻	-14.7009
猢	-14.701
狽	-14.7011
狌	-14.7012
犗	-14.7013
牴	-14.7014
燌	-14.7015
烋	-14.7016
㮶	-14.7017
䀪	-14.7017
䘖	-14.7017
亵	-14.7017
厤	-14.7017
嚩	-14.7017
墄	-14.7017
嫋	-14.7017
斈	-14.7017
枍	-14.7017
柑	-14.7017
棒	-14.7017
棰	-14.7017
槥	-14.7017
殍	-14.7017
漈	-14.7017
猰	-14.7017
瘺	-14.7017
癙	-14.7017
矝	-14.7017
矼	-14.7017
礡	-14.7017
瀍	-14.7017
瀋	-14.7018
溽	-14.7019
湔	-14.702
渑	-14.7021
泞	-14.7022
沚	-14.7023
氂	-14.7024
㑂	-14.7025
䓞	-14.7025
䓪	-14.7025
倿	-14.7025
则	-14.7025
咻	-14.7025
岭	-14.7025
廂	-14.7025
扯	-14.7025
拴	-14.7025
斨	-14.7025
柂	-14.7025
柈	-14.7025
栲	-14.7025
桬	-14.7025
樘	-14.7025
橙	-14.7025
檽	-14.7025
歜	-14.7025
殣	-14.7025
湀	-14.7025
湁	-14.7025
澳	-14.7025
濰	-14.7025
畬	-14.7025
欬	-14.7025
欂	-14.7026
椶	-14.7027
椰	-14.7028
棅	-14.7029
柿	-14.703
柤	-14.7031
枽	-14.7032
㗀	-14.7033
㮚	-14.7033
㵾	-14.7033
䲭	-14.7033
儞	-14.7033
匭	-14.7033
喨	-14.7033
嗾	-14.7033
嘬	-14.7033
壟	-14.7033
忂	-14.7033
悗	-14.7033
担	-14.7033
掔	-14.7033
搕	-14.7033
昞	-14.7033
栵	-14.7033
毚	-14.7033
潾	-14.7033
瀵	-14.7033
獖	-14.7033
痟	-14.7033
朞	-14.7033
暋	-14.7034
晥	-14.7035
晛	-14.7036
晊	-14.7037
晅	-14.7038
斵	-14.7039
斔	-14.704
僥	-14.7041
摉	-14.7041
㩁	-14.7041
㴾	-14.7041
㷀	-14.7041
䔍	-14.7041
䵝	-14.7041
仵	-14.7041
俵	-14.7041
劙	-14.7041
块	-14.7041
墯	-14.7041
崤	-14.7041
广	-14.7041
廸	-14.7041
懥	-14.7041
掺	-14.7041
搫	-14.7041
攑	-14.7041
敔	-14.7041
枼	-14.7041
檟	-14.7041
櫌	-14.7041
殭	-14.7041
泐	-14.7041
溫	-14.7041
滁	-14.7041
澟	-14.7041
掜	-14.7042
扜	-14.7043
慓	-14.7044
悆	-14.7045
恓	-14.7046
忞	-14.7047
徜	-14.7048
廋	-14.7049
㗁	-14.7049
㟎	-14.7049
㠑	-14.7049
䊶	-14.7049
圊	-14.7049
嫣	-14.7049
懤	-14.7049
挩	-14.7049
敂	-14.7049
椊	-14.7049
楃	-14.7049
滾	-14.7049
烕	-14.7049
眴	-14.7049
砮	-14.7049
廆	-14.705
巑	-14.7051
嶰	-14.7052
崺	-14.7053
峛	-14.7054
屼	-14.7055
孱	-14.7056
孀	-14.7057
崎	-14.7057
㯀	-14.7057
㸔	-14.7057
儌	-14.7057
嚌	-14.7057
撚	-14.7057
楽	-14.7057
毱	-14.7057
狴	-14.7057
玊	-14.7057
璺	-14.7057
嫵	-14.7058
嫠	-14.7059
媳	-14.706
婤	-14.7061
娌	-14.7062
姣	-14.7063
妯	-14.7064
妁	-14.7065
㾱	-14.7065
傔	-14.7065
圔	-14.7065
崪	-14.7065
憟	-14.7065
报	-14.7065
瓷	-14.7065
瘓	-14.7065
壝	-14.7066
塏	-14.7067
堠	-14.7068
坏	-14.7069
图	-14.707
嚭	-14.7071
嗋	-14.7072
喂	-14.7073
㗳	-14.7074
䰐	-14.7074
亐	-14.7074
唉	-14.7074
圬	-14.7074
壩	-14.7074
弅	-14.7074
憨	-14.7074
捥	-14.7074
擋	-14.7074
攏	-14.7074
毯	-14.7074
湕	-14.7074
璖	-14.7074
矇	-14.7074
哈	-14.7074
哇	-14.7075
吔	-14.7076
剴	-14.7077
剄	-14.7078
冱	-14.7079
冓	-14.708
偬	-14.7081
䓗	-14.7082
䫉	-14.7082
叻	-14.7082
埧	-14.7082
娺	-14.7082
婠	-14.7082
屭	-14.7082
峦	-14.7082
录	-14.7082
捩	-14.7082
斝	-14.7082
朒	-14.7082
柛	-14.7082
檦	-14.7082
溘	-14.7082
煅	-14.7082
獈	-14.7082
珩	-14.7082
甪	-14.7082
倥	-14.7082
俔	-14.7083
侲	-14.7084
侉	-14.7085
串	-14.7086
䰢	-14.7087
䘃	-14.7088
䍚	-14.7089
咢	-14.709
囦	-14.709
婷	-14.709
嵷	-14.709
搓	-14.709
涔	-14.709
潎	-14.709
璸	-14.709
䅮	-14.709
㺄	-14.7091
㘽	-14.7092
㘭	-14.7093
㕙	-14.7094
㔶	-14.7095
麯	-14.7096
鷽	-14.7097
偊	-14.7098
厩	-14.7098
埽	-14.7098
嶝	-14.7098
棍	-14.7098
涽	-14.7098
漪	-14.7098
潴	-14.7098
瘐	-14.7098
鱮	-14.7098
駴	-14.7099
頲	-14.71
頏	-14.7101
頍	-14.7102
鐍	-14.7103
鍭	-14.7104
酩	-14.7105
卋	-14.7106
怐	-14.7106
愗	-14.7106
抶	-14.7106
珽	-14.7106
瑊	-14.7106
矹	-14.7106
酊	-14.7106
輐	-14.7107
趦	-14.7108
讜	-14.7109
譒	-14.711
蠮	-14.7111
蟪	-14.7112
螮	-14.7113
崴	-14.7114
师	-14.7114
张	-14.7114
徛	-14.7114
戝	-14.7114
桍	-14.7114
猱	-14.7114
螉	-14.7114
蝝	-14.7115
蜱	-14.7116
蜍	-14.7117
虻	-14.7118
蘅	-14.7119
薏	-14.712
萏	-14.7121
㷱	-14.7122
䕌	-14.7122
侰	-14.7122
姈	-14.7122
檾	-14.7122
濳	-14.7122
眶	-14.7122
苡	-14.7122
脰	-14.7123
縠	-14.7124
紽	-14.7125
紡	-14.7126
糢	-14.7127
簠	-14.7128
竆	-14.7129
䊮	-14.713
忩	-14.713
摐	-14.713
磲	-14.713
磧	-14.7131
盅	-14.7132
癧	-14.7133
痘	-14.7134
瑪	-14.7135
瑙	-14.7136
琶	-14.7137
㳅	-14.7138
彾	-14.7138
掦	-14.7138
琵	-14.7138
珈	-14.7139
煨	-14.714
滹	-14.7141
涒	-14.7142
檝	-14.7143
檎	-14.7144
橦	-14.7145
䉛	-14.7146
楩	-14.7146
椡	-14.7147
曌	-14.7148
捜	-14.7149
戬	-14.715
惒	-14.7151
徬	-14.7152
幎	-14.7153
䀽	-14.7154
爬	-14.7154
痱	-14.7154
姮	-14.7154
妤	-14.7155
奰	-14.7156
坷	-14.7157
嚀	-14.7158
叮	-14.7159
𧕍	-14.716
𤢜	-14.7161
杴	-14.7162
𠺶	-14.7162
鼾	-14.7163
鼉	-14.7164
黈	-14.7165
鳲	-14.7166
鱷	-14.7167
鱣	-14.7168
陕	-14.7169
鍵	-14.717
検	-14.717
煤	-14.717
甀	-14.717
醎	-14.7171
酈	-14.7172
跬	-14.7173
跑	-14.7174
謦	-14.7175
誙	-14.7176
詁	-14.7177
覡	-14.7178
蠕	-14.7179
蜘	-14.718
虰	-14.7181
薿	-14.7182
蔦	-14.7183
葂	-14.7184
菶	-14.7185
莓	-14.7186
檩	-14.7186
瓔	-14.7186
芚	-14.7187
芃	-14.7188
翽	-14.7189
綈	-14.719
篚	-14.7191
盭	-14.7192
痡	-14.7193
獬	-14.7194
犲	-14.7195
焄	-14.7196
瀐	-14.7197
澎	-14.7198
漦	-14.7199
滙	-14.72
湃	-14.7201
洟	-14.7202
楞	-14.7203
桁	-14.7204
栻	-14.7205
搰	-14.7206
愸	-14.7207
愊	-14.7208
恑	-14.7209
忸	-14.721
忷	-14.7211
弨	-14.7212
开	-14.7213
庳	-14.7214
嵫	-14.7215
嫦	-14.7216
嫄	-14.7217
噰	-14.7218
喤	-14.7219
叵	-14.722
偓	-14.7221
伫	-14.7222
鴳	-14.7223
騄	-14.7224
霶	-14.7225
袽	-14.7226
岈	-14.7227
蚍	-14.7227
蘝	-14.7228
腔	-14.7229
肓	-14.723
縐	-14.7231
粕	-14.7232
窿	-14.7233
睥	-14.7234
畯	-14.7235
瓞	-14.7236
璀	-14.7237
牾	-14.7238
熳	-14.7239
沅	-14.724
愢	-14.7241
幪	-14.7242
嶾	-14.7243
嵳	-14.7244
嵉	-14.7245
娛	-14.7246
埳	-14.7247
嚏	-14.7248
刎	-14.7249
䗫	-14.725
䄇	-14.7251
颻	-14.7252
醐	-14.7253
醍	-14.7254
蹁	-14.7255
螂	-14.7256
蝣	-14.7257
蝠	-14.7258
蝙	-14.7259
腯	-14.726
脗	-14.7261
肸	-14.7262
肫	-14.7263
细	-14.7264
繘	-14.7265
綌	-14.7266
磋	-14.7267
碼	-14.7268
碯	-14.7269
砧	-14.727
皥	-14.7271
瓿	-14.7272
珀	-14.7273
湲	-14.7274
戔	-14.7275
惸	-14.7276
恝	-14.7277
媧	-14.7278
姞	-14.7279
嚾	-14.728
呦	-14.7281
匆	-14.7282
䴸	-14.7283
鴥	-14.7284
鄏	-14.7285
郟	-14.7286
輗	-14.7287
貅	-14.7288
詿	-14.7289
裟	-14.729
袈	-14.7291
蝃	-14.7292
膻	-14.7293
窬	-14.7294
瑘	-14.7295
玁	-14.7296
焜	-14.7297
嵇	-14.7298
噩	-14.7299
䵃	-14.73
㠝	-14.7301
𥼶	-14.7302
鷯	-14.7303
餗	-14.7304
邙	-14.7305
邂	-14.7306
逅	-14.7307
貊	-14.7308
襤	-14.7309
褸	-14.731
絨	-14.7311
甓	-14.7312
峋	-14.7313
咷	-14.7314
㶁	-14.7315
齷	-14.7316
鴦	-14.7317
靂	-14.7318
閈	-14.7319
躇	-14.732
苢	-14.7321
芣	-14.7322
臞	-14.7323
翶	-14.7324
簞	-14.7325
琊	-14.7326
瀰	-14.7327
柬	-14.7328
柚	-14.7329
枵	-14.733
愀	-14.7331
塿	-14.7332
騑	-14.7333
鈳	-14.7334
蹢	-14.7335
蝀	-14.7336
虩	-14.7337
綢	-14.7338
絏	-14.7339
瓈	-14.734
柢	-14.7341
懨	-14.7342
彀	-14.7343
婕	-14.7344
嘍	-14.7345
嗈	-14.7346
唧	-14.7347
刲	-14.7348
蒺	-14.7349
瞍	-14.735
璈	-14.7351
狁	-14.7352
惆	-14.7353
囹	-14.7354
喟	-14.7355
駸	-14.7356
逶	-14.7357
譆	-14.7358
朦	-14.7359
惙	-14.736
鄱	-14.7361
躑	-14.7362
躊	-14.7363
跎	-14.7364
稊	-14.7365
矍	-14.7366
漣	-14.7367
涬	-14.7368
亳	-14.7369
𠻸	-14.737
蹰	-14.7371
蜉	-14.7372
徨	-14.7373
嫫	-14.7374
葫	-14.7375
姹	-14.7376
剰	-14.7377
霏	-14.7378
紜	-14.7379
蟇	-14.738
廙	-14.7381
搢	-14.7382
齪	-14.7383
魎	-14.7384
睺	-14.7385
暐	-14.7386
䡘	-14.7387
孜	-14.7388
氤	-14.7389
羑	-14.739
氲	-14.7391
岧	-14.7392
麒	-14.7393
匈	-14.7394
蓉	-14.7395
芙	-14.7396
畍	-14.7397
逍	-14.7397
