<unk>	0
<s>	0
</s>	0
。	-1.89874
之	-4.75289
者	-4.75363
也	-4.86223
為	-5.17569
不	-5.22614
以	-5.26489
,	-5.267
有	-5.28885
▁	-5.29287
一	-5.29778
故	-5.30435
佛	-5.35623
而	-5.36859
無	-5.43399
心	-5.45366
是	-5.58147
此	-5.59404
即	-5.59986
(	-5.61497
)	-5.61937
如	-5.63661
其	-5.64502
於	-5.6492
人	-5.6532
中	-5.68657
則	-5.70559
生	-5.77042
二	-5.88695
若	-5.92711
行	-5.93742
自	-5.94347
得	-5.95705
非	-5.97191
見	-5.98327
大	-6.00925
三	-6.02432
法	-6.04056
相	-6.04856
念佛	-6.0541
*	-6.07133
云	-6.08884
名	-6.10435
念	-6.10943
時	-6.12804
曰	-6.14648
言	-6.16571
觀	-6.20253
皆	-6.20863
我	-6.23186
又	-6.24893
身	-6.25741
亦	-6.26333
說	-6.27202
所	-6.27509
願	-6.28588
在	-6.29168
眾生	-6.30176
經	-6.31407
明	-6.32649
淨土	-6.35057
至	-6.37302
下	-6.37582
今	-6.37797
上	-6.39924
成	-6.40697
等	-6.41296
入	-6.42413
能	-6.42788
與	-6.4289
四	-6.43317
事	-6.43462
諸	-6.43838
謂	-6.43962
或	-6.44595
當	-6.44723
同	-6.4506
作	-6.45404
道	-6.48388
乃	-6.5073
因	-6.53814
然	-6.55962
巳	-6.57725
空	-6.57955
多	-6.58342
菩薩	-6.5876
出	-6.59106
一切	-6.59937
知	-6.60214
矣	-6.61322
修	-6.61442
常	-6.6282
可	-6.64524
信	-6.65581
及	-6.65786
欲	-6.65872
五	-6.66428
後	-6.67795
何	-6.68058
】	-6.68527
從	-6.69973
教	-6.70393
聞	-6.70883
正	-6.71608
難	-6.72297
乎	-6.73079
雖	-6.73517
彼	-6.74906
淨	-6.7631
理	-6.76409
真	-6.76983
日	-6.77459
盡	-6.7748
來	-6.78006
本	-6.78321
門	-6.784
前	-6.78863
業	-6.80775
義	-6.80903
未	-6.81091
善	-6.82712
必	-6.84418
分	-6.85807
處	-6.8677
天	-6.87165
但	-6.87953
方	-6.88403
苦	-6.88556
起	-6.89621
實	-6.90614
意	-6.90684
問	-6.90688
子	-6.90781
文	-6.9137
光	-6.92609
定	-6.93117
樂	-6.93146
通	-6.93435
彌陀	-6.93837
眾	-6.939
。【	-6.94617
求	-6.94637
初	-6.94949
既	-6.95867
師	-6.97185
論	-6.98244
智	-6.98426
性	-6.98548
證	-6.98787
現	-6.98804
往生	-6.99206
地	-6.99257
隨	-6.99282
果	-6.99288
西方	-6.99318
緣	-6.99473
具	-6.99984
體	-7.00931
應	-7.01245
發	-7.01534
、	-7.01541
深	-7.0201
世	-7.02262
妙	-7.03108
別	-7.04064
受	-7.04123
諸佛	-7.04246
十	-7.05336
復	-7.06318
勝	-7.07125
令	-7.08645
要	-7.08827
去	-7.0896
疏	-7.0931
釋	-7.09682
水	-7.10612
持	-7.11066
用	-7.1114
覺	-7.11376
解	-7.11741
阿彌陀佛	-7.11792
無量	-7.11863
想	-7.1244
如是	-7.12468
便	-7.13566
惡	-7.14308
境	-7.14458
歸	-7.14961
王	-7.15367
力	-7.15586
先	-7.15599
聲	-7.17107
次	-7.17548
不能	-7.18686
如來	-7.19998
離	-7.21072
山	-7.21642
顯	-7.21855
依	-7.21868
寶	-7.22276
化	-7.22569
他	-7.22971
重	-7.2358
戒	-7.23619
稱	-7.24055
。】「	-7.24657
唯	-7.24725
圓	-7.25127
外	-7.25831
六	-7.25927
疑	-7.26393
家	-7.26707
取	-7.26756
異	-7.27317
功德	-7.27327
土	-7.27992
開	-7.28536
色	-7.29143
須	-7.29486
語	-7.2971
立	-7.29718
汝	-7.298
華	-7.30023
不可	-7.30509
一念	-7.30898
七	-7.31139
。」【	-7.31265
八	-7.31279
過	-7.31308
會	-7.31458
德	-7.31475
吾	-7.33071
住	-7.33214
廣	-7.33601
耶	-7.34039
將	-7.34049
死	-7.34053
僧	-7.34131
生死	-7.35159
悟	-7.35956
報	-7.364
宗	-7.36706
照	-7.38705
香	-7.38879
斷	-7.39034
示	-7.39145
鈔	-7.39356
識	-7.39433
更	-7.39522
耳	-7.40115
數	-7.40637
由	-7.40845
合	-7.41688
即是	-7.42031
聖	-7.42094
哉	-7.42216
俱	-7.42257
且	-7.42357
還	-7.42907
長	-7.43037
金	-7.43068
莫	-7.43497
安	-7.44422
小	-7.45156
法界	-7.4555
萬	-7.45971
往	-7.46008
學	-7.46521
神	-7.46795
夫	-7.47108
千	-7.4724
海	-7.47527
使	-7.477
極	-7.48002
攝	-7.48282
不得	-7.48472
月	-7.48682
位	-7.49177
易	-7.49731
清淨	-7.49788
勸	-7.50113
凡	-7.50427
豈	-7.50584
年	-7.5078
風	-7.51561
餘	-7.51906
流	-7.52363
全	-7.52476
物	-7.52495
滅	-7.52565
音	-7.52659
了	-7.52678
指	-7.53363
坐	-7.53668
根	-7.5399
光明	-7.54
居	-7.5471
一心	-7.54998
舉	-7.5514
遠	-7.55487
乃至	-7.55607
口	-7.56722
少	-7.56873
高	-7.57561
不知	-7.57647
極樂	-7.57648
向	-7.57813
度	-7.57972
到	-7.5848
答	-7.58703
命	-7.58912
猶	-7.59076
國	-7.59274
內	-7.59387
轉	-7.59486
病	-7.59893
遂	-7.60367
總	-7.60621
食	-7.60869
情	-7.60888
著	-7.60988
破	-7.6105
;	-7.61121
慧	-7.61214
妄	-7.61243
禪	-7.61329
除	-7.61349
終	-7.61935
兩	-7.62014
親	-7.62024
引	-7.62303
▁南無	-7.62342
十方	-7.62445
世界	-7.62535
種	-7.62967
是故	-7.63299
況	-7.63396
三昧	-7.63678
惟	-7.63738
傳	-7.64333
記	-7.64433
方便	-7.64737
書	-7.64832
百	-7.66149
于	-7.66544
界	-7.67094
斯	-7.68086
執	-7.68147
約	-7.68256
焉	-7.68699
西	-7.69004
迷	-7.69258
已	-7.6948
始	-7.69788
障	-7.70071
利	-7.70354
機	-7.70466
思	-7.70953
對	-7.70995
共	-7.71128
經云	-7.71473
清	-7.71503
好	-7.71779
尚	-7.71793
各	-7.71896
像	-7.72483
修行	-7.72505
悉	-7.72934
福	-7.73074
讚	-7.73538
足	-7.73602
頭	-7.73776
滿	-7.74076
切	-7.74513
愛	-7.74536
公	-7.74577
直	-7.75047
感	-7.75048
所謂	-7.75405
捨	-7.75954
娑婆	-7.76171
造	-7.76199
惑	-7.76488
所以	-7.76928
益	-7.77312
莊嚴	-7.7734
魔	-7.77404
劫	-7.77563
專	-7.79325
臨終	-7.79362
集	-7.79678
罪	-7.79791
普	-7.79913
止	-7.80239
獨	-7.80539
結	-7.80646
失	-7.80825
眼	-7.81339
邪	-7.81607
凡夫	-7.82703
請	-7.83472
」	-7.83481
九	-7.83499
略	-7.83812
蓮華	-7.84176
樹	-7.84623
路	-7.84824
自然	-7.85052
願往生	-7.85554
動	-7.85741
久	-7.86089
功	-7.86497
白	-7.86745
。「	-7.8678
而不	-7.86984
手	-7.87424
形	-7.87549
超	-7.87826
字	-7.88523
世間	-7.88684
主	-7.88859
如此	-7.89092
法身	-7.89244
目	-7.9009
絕	-7.901
禮	-7.90289
見佛	-7.91535
成就	-7.91767
靈	-7.92028
壽	-7.92223
乘	-7.92595
喻	-7.92707
.	-7.93804
只	-7.95032
珠	-7.95172
發願	-7.95493
首	-7.95617
花	-7.96007
號	-7.96109
大乘	-7.96173
期	-7.96319
宜	-7.96665
屬	-7.9673
菩提	-7.96862
徧	-7.97038
甚	-7.97339
遇	-7.97351
名為	-7.97646
古	-7.97674
老	-7.9806
殺	-7.98128
量	-7.9819
塵	-7.98392
種種	-7.98482
假	-7.98652
解脫	-7.98767
輕	-7.9881
夢	-7.99338
煩惱	-7.99362
念念	-7.99567
爾	-8.00013
火	-8.00063
就	-8.00093
間	-8.00159
蓋	-8.0033
法門	-8.0059
誠	-8.01612
地獄	-8.01788
因緣	-8.02931
志	-8.02947
成佛	-8.02989
達	-8.03297
生淨土	-8.03456
施	-8.03625
說法	-8.03664
雲	-8.0503
雜	-8.05056
散	-8.05404
供養	-8.05815
頓	-8.05845
第一	-8.05945
衣	-8.05974
忽	-8.06164
藏	-8.06393
之人	-8.06635
句	-8.06948
近	-8.07118
習	-8.07809
。△	-8.07897
順	-8.08344
遍	-8.08968
一一	-8.09085
氣	-8.09143
類	-8.09456
加	-8.09736
不同	-8.1035
具足	-8.10447
此經	-8.10493
○	-8.10732
持名	-8.11142
母	-8.1136
致	-8.11447
序	-8.11635
卷	-8.11647
以為	-8.11786
此云	-8.1204
最	-8.12437
究竟	-8.12609
故云	-8.1271
寺	-8.12738
無生	-8.12917
之心	-8.13272
故曰	-8.13409
智慧	-8.13634
:「	-8.13925
早	-8.14105
弟子	-8.14117
釋迦	-8.14333
面	-8.1474
不退	-8.14798
彼佛	-8.14985
現前	-8.15185
速	-8.15208
淨業	-8.15216
舍利弗	-8.15532
反	-8.15573
無量樂	-8.16088
」「	-8.16372
自性	-8.16416
計	-8.16807
聽	-8.16822
夜	-8.16828
十念	-8.1731
虗	-8.17791
慈	-8.17802
似	-8.18076
禪師	-8.18351
尊	-8.18374
獲	-8.1913
善根	-8.19187
兼	-8.19199
墮	-8.19283
喜	-8.19572
微	-8.19605
參	-8.19818
偏	-8.19847
疾	-8.20081
息	-8.20551
恐	-8.20777
一切眾生	-8.20851
存	-8.20929
和	-8.21194
趣	-8.21763
並	-8.21778
法師	-8.21933
云何	-8.224
女	-8.22448
精進	-8.22467
不離	-8.22715
誦	-8.22774
登	-8.23336
品	-8.23347
縱	-8.23692
無有	-8.2373
忘	-8.23866
精	-8.23869
佛法	-8.23984
元	-8.24161
父母	-8.24227
涅槃	-8.24967
敬	-8.25195
看	-8.25607
譬如	-8.25678
池	-8.25731
祖	-8.2577
東	-8.2618
決定	-8.26212
國土	-8.26806
石	-8.26827
不信	-8.27651
?	-8.2777
殊	-8.28084
二者	-8.28253
三界	-8.28257
救	-8.28435
皆是	-8.28459
消	-8.28521
平	-8.28576
奉	-8.28826
變	-8.2914
蓮	-8.29161
那	-8.29535
進	-8.29551
增	-8.29699
宿	-8.30476
永	-8.30511
落	-8.30616
告	-8.30668
以此	-8.31655
觀經	-8.31854
幾	-8.32137
歲	-8.32353
世尊	-8.32696
一日	-8.32846
雙	-8.32997
周	-8.33001
又云	-8.33036
寂	-8.33121
無邊	-8.33461
亂	-8.33749
問曰	-8.33844
勿	-8.34062
脫	-8.34524
述	-8.35057
忍	-8.3506
悲	-8.35131
出家	-8.35147
貪	-8.3535
竟	-8.35818
行者	-8.35904
望	-8.36046
關	-8.3619
影	-8.36698
聲聞	-8.36861
》	-8.3688
之所	-8.36926
答曰	-8.37051
待	-8.37158
余	-8.37183
漸	-8.37817
一生	-8.37916
被	-8.38174
旨	-8.3845
却	-8.38764
染	-8.38773
誰	-8.38793
交	-8.38866
懷	-8.39069
道場	-8.39256
痛	-8.39375
藥	-8.39476
輪	-8.39669
是也	-8.39671
自在	-8.39802
齊	-8.39802
不可思議	-8.39885
陰	-8.39948
裏	-8.3996
三寶	-8.40009
林	-8.40163
九品	-8.40318
自心	-8.40332
辨	-8.40455
權	-8.40591
設	-8.40591
穢	-8.40752
無明	-8.40854
談	-8.40925
諸法	-8.41028
每	-8.41029
一心不亂	-8.41111
室	-8.41387
固	-8.41514
發心	-8.41831
據	-8.42043
都	-8.4216
亡	-8.4216
得生	-8.42337
俗	-8.42418
橫	-8.42472
靜	-8.42549
積	-8.42903
讀	-8.42951
龍	-8.42981
般若	-8.43105
窮	-8.43295
君	-8.43623
特	-8.43856
城	-8.43987
尋	-8.44095
強	-8.44368
勤	-8.44421
因果	-8.44536
再	-8.44563
飛	-8.44722
比	-8.44784
譯	-8.44784
朝	-8.45025
七日	-8.4512
愚	-8.45211
急	-8.45321
堂	-8.45481
一者	-8.45483
收	-8.45528
居士	-8.45585
棄	-8.4636
人天	-8.46389
退	-8.46488
《	-8.46497
昔	-8.46516
無礙	-8.46563
嚴	-8.46598
堅	-8.47166
當知	-8.47245
不見	-8.47253
剎	-8.47412
密	-8.47516
第二	-8.47658
無不	-8.47946
表	-8.47988
懺悔	-8.48038
南	-8.48152
恒	-8.48154
不生	-8.48168
懺	-8.48507
偈	-8.48697
無所	-8.48836
放	-8.48932
舍	-8.48972
臨	-8.4908
賢	-8.49356
標	-8.49415
否	-8.49532
羅	-8.49609
念佛三昧	-8.4962
故知	-8.49786
資	-8.50039
決	-8.50197
華嚴	-8.50197
虗空	-8.50354
太	-8.50355
容	-8.50428
歷	-8.5066
原	-8.50747
士	-8.50998
厭	-8.51146
恩	-8.5116
誓	-8.51184
予	-8.51277
真如	-8.51401
:『	-8.51471
無盡	-8.51519
不思議	-8.51714
大師	-8.51749
十二	-8.51827
備	-8.51955
覆	-8.52055
濟	-8.52567
慈悲	-8.52617
陳	-8.52814
助	-8.53074
壞	-8.53395
垂	-8.53426
葢	-8.53517
分別	-8.53595
境界	-8.53737
翻	-8.53818
如何	-8.54044
護	-8.5429
鳥	-8.5431
章	-8.54604
歡喜	-8.5489
是為	-8.55179
。○	-8.55292
列	-8.55475
徹	-8.5556
若不	-8.55665
留	-8.56009
邊	-8.56045
提	-8.56149
源	-8.56261
含	-8.56536
并	-8.56574
末	-8.56687
願力	-8.5672
於此	-8.56923
相應	-8.56932
唯心	-8.57108
豈不	-8.57125
亦不	-8.57152
新	-8.5749
儒	-8.57637
玉	-8.57966
雨	-8.58017
平等	-8.58039
承	-8.58431
宋	-8.58947
遊	-8.58985
大眾	-8.59188
燈	-8.60106
迴向	-8.60143
味	-8.60305
三觀	-8.60375
半	-8.60457
判	-8.60641
唐	-8.60827
七寶	-8.61016
今日	-8.61075
咸	-8.61426
依正	-8.61589
詳	-8.61778
之中	-8.61782
憂	-8.61847
休	-8.6212
觸	-8.62232
契	-8.62397
鏡	-8.62505
法性	-8.62897
視	-8.62897
的	-8.62907
純	-8.63048
害	-8.63087
阿彌陀	-8.63101
鬼	-8.6314
淺	-8.63158
幸	-8.63177
之法	-8.63197
真實	-8.63255
實相	-8.63267
錢	-8.63366
官	-8.63554
一句彌陀	-8.63643
氏	-8.63734
二乘	-8.63737
無上	-8.63852
簡	-8.63857
故名	-8.64031
此土	-8.64218
冥	-8.64291
佛土	-8.64341
現在	-8.64371
聚	-8.64484
佛言	-8.64771
是以	-8.64773
是名	-8.65337
可以	-8.65358
載	-8.65694
接引	-8.65786
亦無	-8.65881
阿難	-8.66096
細	-8.66293
沒	-8.66608
融	-8.66726
興	-8.66762
熟	-8.66826
科	-8.669
投	-8.67576
比丘	-8.67803
第三	-8.67985
身心	-8.68175
葉	-8.68346
天台	-8.68597
接	-8.6872
父	-8.6876
治	-8.68817
錄	-8.68903
一時	-8.69057
世人	-8.69186
南無	-8.69558
。」【【	-8.69622
畢	-8.69673
孝	-8.70025
良	-8.70409
憶	-8.70423
隱	-8.7059
然後	-8.70966
曾	-8.71016
黃	-8.71109
我今	-8.71544
生彼國	-8.71871
端	-8.71875
億	-8.71902
茲	-8.7212
昏	-8.72479
許	-8.72885
玄	-8.72966
守	-8.72977
徒	-8.73037
臺	-8.73159
越	-8.73182
印	-8.7321
貴	-8.73409
寧	-8.73647
發菩提心	-8.73725
之時	-8.73801
仙	-8.74092
州	-8.74711
諸天	-8.74723
遺	-8.7481
求生	-8.74836
無常	-8.74877
刻	-8.74903
例	-8.75161
部	-8.75246
美	-8.75358
生滅	-8.75595
閒	-8.75789
神通	-8.75882
出世	-8.75983
無非	-8.76049
彼國	-8.76237
互	-8.76341
春	-8.76478
三者	-8.76483
觀音	-8.76506
網	-8.76552
錯	-8.7671
馬	-8.76963
至心	-8.76995
推	-8.77319
拔	-8.77596
不取正覺	-8.77615
寒	-8.77726
血	-8.77805
無量壽佛	-8.77836
題	-8.77851
法華	-8.77889
究	-8.77971
名號	-8.78087
任	-8.78355
免	-8.78561
座	-8.78617
省	-8.78716
妄想	-8.79006
圓融	-8.79008
利益	-8.79138
器	-8.79302
五濁	-8.79416
行人	-8.79634
得往生	-8.79717
悔	-8.79821
愈	-8.7983
大悲	-8.79908
若人	-8.80024
仰	-8.80082
心性	-8.80094
智者	-8.80177
文殊	-8.80353
十六	-8.80397
底	-8.80559
念阿彌陀佛	-8.8056
極樂世界	-8.80745
所說	-8.80783
仁	-8.80796
草	-8.80805
一人	-8.81151
點	-8.81651
歎	-8.81907
置	-8.81957
齋	-8.81974
宣	-8.82094
回向	-8.82161
服	-8.82214
輪迴	-8.82382
波	-8.82411
木	-8.82434
回	-8.82637
節	-8.82678
舌	-8.82808
。』	-8.82821
至於	-8.82954
沙	-8.83052
癡	-8.83161
廣大	-8.83196
慮	-8.83602
張	-8.83617
圖	-8.83633
逆	-8.83753
蒙	-8.83803
羣	-8.83865
何以故	-8.83921
頂	-8.83946
求生淨土	-8.84035
三身	-8.84114
信心	-8.84498
大小	-8.84557
友	-8.84692
正念	-8.84714
患	-8.85106
猶如	-8.85147
隔	-8.85153
可謂	-8.85202
胎	-8.85225
運	-8.8531
江	-8.85345
謂之	-8.85398
覩	-8.8557
聖人	-8.85726
幽	-8.85791
幻	-8.85855
導	-8.85894
惡業	-8.85918
客	-8.86006
而巳	-8.86023
步	-8.86027
民	-8.86204
傷	-8.86316
呪	-8.86442
安養	-8.86484
盛	-8.86504
經文	-8.86855
參禪	-8.86951
伏	-8.87011
驗	-8.87037
毀	-8.87053
笑	-8.87273
梵	-8.87368
一切法	-8.87388
謗	-8.8774
誤	-8.87763
財	-8.87785
劣	-8.88048
日月	-8.88192
上品	-8.88255
辭	-8.88504
講	-8.8882
婆	-8.89283
同居	-8.89381
代	-8.89441
途	-8.89502
仍	-8.89787
諸眾生	-8.89934
際	-8.90003
不必	-8.90315
供	-8.90583
託	-8.90621
彰	-8.90743
降	-8.90777
小乘	-8.91022
牛	-8.91054
未來	-8.91097
象	-8.91121
之理	-8.91563
尤	-8.91664
濁	-8.91842
遣	-8.92132
安樂	-8.92173
帝	-8.92265
逢	-8.92504
祇	-8.92509
相好	-8.9257
。」	-8.92575
刀	-8.92922
授	-8.93093
暗	-8.93141
命終	-8.93147
辯	-8.93384
陽	-8.93395
亦有	-8.93529
普賢	-8.93611
大願	-8.93696
阿	-8.93723
諦	-8.93832
沈	-8.93919
適	-8.93951
寂光	-8.93962
累	-8.94151
不二	-8.94291
言之	-8.94304
露	-8.94434
臨命終時	-8.94461
「	-8.94514
纔	-8.94689
逐	-8.94734
何況	-8.94971
不如	-8.9518
無間	-8.95227
預	-8.95262
摩	-8.95412
差	-8.95527
違	-8.95725
背	-8.95807
次第	-8.95903
生彼	-8.95984
單	-8.96045
此則	-8.96143
正法	-8.9648
此是	-8.96552
彌勒	-8.96745
不動	-8.97024
肉	-8.97094
弘	-8.97157
繫	-8.97189
合掌	-8.97219
彼土	-8.97473
金剛	-8.97486
名曰	-8.97527
拜	-8.97819
迴	-8.97846
有情	-8.97875
若能	-8.98018
宮	-8.98088
光佛	-8.98158
晝夜	-8.98272
犯	-8.98545
不淨	-8.98549
魚	-8.98583
蓮花	-8.98653
眷屬	-8.98809
不為	-8.98861
善惡	-8.99006
詩	-8.99173
念彌陀	-8.99188
淨穢	-8.99208
不出	-8.99344
名字	-8.99548
務	-8.99666
化佛	-9.00158
持戒	-9.00171
徑	-9.00188
佛國	-9.00265
之說	-9.00592
質	-9.00738
豈非	-9.00838
河	-9.01002
樓	-9.01049
青	-9.01169
制	-9.01382
養	-9.01447
揚	-9.01453
報身	-9.01488
諸經	-9.01498
悉皆	-9.01525
三業	-9.01535
何故	-9.01582
過去	-9.01599
修淨土	-9.01887
顛倒	-9.0192
車	-9.01969
信願	-9.0203
▁二	-9.02194
暫	-9.02259
鐵	-9.02528
階	-9.02586
佛身	-9.02622
我心	-9.02656
沙門	-9.02689
一句	-9.02689
願共諸眾生往生安樂國	-9.02863
觀佛	-9.03025
分明	-9.03092
。】△	-9.03092
外道	-9.03237
其心	-9.03286
雖有	-9.03377
遙	-9.03381
值	-9.03417
改	-9.03511
相續	-9.03551
唱	-9.03675
何以	-9.04256
鼓	-9.04268
船	-9.04536
某	-9.04566
礙	-9.04631
無量壽	-9.04663
所有	-9.04767
輩	-9.0481
塔	-9.04892
心中	-9.05051
哀	-9.05068
浮	-9.05128
初心	-9.05402
亦名	-9.05438
百千	-9.05524
更無	-9.05599
之事	-9.0584
稱名	-9.05917
大本	-9.06043
三乘	-9.06104
邪見	-9.06128
流通	-9.062
勞	-9.06236
亦可	-9.06242
懸	-9.06336
舟	-9.06642
微妙	-9.0667
他方	-9.06808
有一	-9.07014
本來	-9.07041
獄	-9.07073
負	-9.07203
律	-9.07253
作佛	-9.07343
十八	-9.07633
四土	-9.07727
戀	-9.07806
無相	-9.07843
苟	-9.08219
亦復如是	-9.08254
常住	-9.08403
辦	-9.08438
天下	-9.0857
不斷	-9.08654
欣	-9.08747
泥	-9.08777
冤	-9.08892
不可得	-9.08914
一聲	-9.09085
兒	-9.09187
苦海	-9.09281
第四	-9.0935
憑	-9.09385
曉	-9.09691
二種	-9.09761
儀	-9.09957
所見	-9.09966
呼	-9.09967
垢	-9.10171
奇	-9.10208
攝受	-9.10257
遮	-9.10276
亦是	-9.1028
八萬四千	-9.10291
終日	-9.10549
狂	-9.10656
玅	-9.10687
陀	-9.10716
不妨	-9.1093
毛	-9.10948
受持	-9.11019
阿彌	-9.11299
毒	-9.11307
昧	-9.11309
六道	-9.11392
不覺	-9.11487
演	-9.11528
連	-9.11544
金色	-9.11579
佛說	-9.11624
論云	-9.11636
附	-9.11892
迎	-9.11898
有緣	-9.11905
十方諸佛	-9.11915
又如	-9.12116
佛性	-9.12129
這	-9.12149
曲	-9.12174
來迎	-9.12407
可知	-9.12703
畢竟	-9.12757
修習	-9.12765
謹	-9.12875
萬法	-9.12977
珍	-9.13339
揀	-9.13418
繫念	-9.13472
誓願	-9.13473
聞法	-9.13717
其人	-9.13954
北	-9.13986
漢	-9.14096
甘	-9.14099
福德	-9.14121
無窮	-9.14298
穢土	-9.14336
第十	-9.14365
打	-9.14411
怨	-9.14783
事理	-9.15184
中有	-9.15208
此人	-9.15313
支	-9.15369
若有	-9.15376
右	-9.15393
空中	-9.15428
延	-9.15444
黑	-9.15495
此心	-9.1556
箇	-9.1556
然則	-9.15585
受用	-9.15626
壽命	-9.15644
之義	-9.15649
舊	-9.15707
堪	-9.15765
薄	-9.15801
畫	-9.15858
調	-9.15975
而為	-9.16026
音聲	-9.1603
有二	-9.16136
夫人	-9.1627
爾時	-9.16362
沉	-9.16387
富貴	-9.16418
皆有	-9.16507
里	-9.16656
把	-9.16753
默	-9.16794
無數	-9.16819
即得往生	-9.1691
本無	-9.1728
聖眾	-9.17351
頌	-9.17436
祖師	-9.17591
大海	-9.17642
謬	-9.17656
稍	-9.17716
鳴	-9.17747
此身	-9.17925
敢	-9.18037
無量壽經	-9.18071
伹	-9.18442
本性	-9.185
該	-9.18748
謝	-9.18753
賊	-9.18812
三塗	-9.18943
虛空	-9.18982
執持名號	-9.19089
三種	-9.19148
大士	-9.19276
嘗	-9.19302
於是	-9.1932
洞	-9.19433
秋	-9.19472
佛號	-9.19561
廢	-9.19573
西方淨土	-9.19623
彌	-9.19627
遭	-9.19775
此等	-9.19828
豈可	-9.19835
三諦	-9.19948
其中	-9.20043
啟	-9.20143
敘	-9.20176
骨	-9.20208
建	-9.20387
送	-9.20483
頃	-9.20523
毫	-9.20647
四句	-9.20779
博	-9.20799
慕	-9.21148
觀想	-9.21175
驚	-9.2118
百年	-9.21312
希	-9.21326
經中	-9.21693
所作	-9.21711
今生	-9.21771
勉	-9.21855
佛剎	-9.22067
天人	-9.22082
虛	-9.22107
中道	-9.22116
梵語	-9.22244
寶樹	-9.22289
禮拜	-9.22359
不聞	-9.22527
減	-9.22548
思惟	-9.22561
燒	-9.22592
是則	-9.22643
深信	-9.22681
畜生	-9.22701
西方極樂世界	-9.22803
無始	-9.22843
倒	-9.22871
:	-9.23189
有三	-9.23222
生者	-9.23223
擇	-9.23233
尊者	-9.23251
姓	-9.2326
自巳	-9.23343
不成	-9.23343
善知識	-9.2343
亦如是	-9.2344
根本	-9.23549
讚歎	-9.23674
不足	-9.2383
布	-9.23906
盜	-9.24
損	-9.24015
慶	-9.24081
脩	-9.2413
諸菩薩	-9.24171
六根	-9.24237
臣	-9.24414
多少	-9.24482
皆悉	-9.24545
者也	-9.2466
一佛	-9.24666
工夫	-9.24702
懼	-9.24736
淨土之	-9.24744
之言	-9.24806
縛	-9.25032
鄉	-9.25113
牽	-9.25307
之後	-9.25344
悅	-9.25362
倍	-9.25426
孤	-9.25679
做	-9.25742
往生淨土	-9.25904
何處	-9.26098
佛名	-9.26149
髮	-9.26177
法藏	-9.26293
無念	-9.26729
響	-9.26898
貧	-9.26915
彼此	-9.27154
若無	-9.27229
恒沙	-9.27417
學者	-9.27421
巧	-9.27425
知識	-9.27459
程	-9.27493
纏	-9.27594
滯	-9.27626
涉	-9.27643
此方	-9.27803
肯	-9.27919
一法	-9.27977
本願	-9.28008
二十	-9.2808
差別	-9.28139
度生	-9.2816
女人	-9.28236
甞	-9.28263
譬	-9.28278
遲	-9.28352
未能	-9.2859
圓滿	-9.28707
篇	-9.28769
莫不	-9.28915
顧	-9.29398
行願	-9.294
遵	-9.29509
爭	-9.29516
稽首	-9.29556
枝	-9.29631
天樂	-9.29815
游	-9.29899
舍利	-9.29971
▁初	-9.30131
旋	-9.30264
歸依	-9.30348
無漏	-9.30349
憶念	-9.30404
隨意	-9.30537
潔	-9.30659
熱	-9.30663
如上	-9.30801
隨緣	-9.30826
惱	-9.3083
段	-9.30884
修道	-9.30979
統	-9.31025
色身	-9.31155
孰	-9.31263
或有	-9.31698
典	-9.31742
招	-9.31791
淨土法門	-9.31791
活	-9.31795
局	-9.31838
萬劫	-9.31901
文字	-9.31945
全體	-9.31994
正因	-9.32115
飲	-9.32137
臥	-9.32149
而無	-9.32165
慢	-9.32363
十方世界	-9.32508
專念	-9.32583
見彌陀	-9.32768
須彌	-9.33288
果報	-9.33536
是佛	-9.33572
帶	-9.33607
禪定	-9.33631
快樂	-9.33688
麤	-9.3377
乖	-9.33787
受苦	-9.33814
性具	-9.33839
之外	-9.33942
其所	-9.3424
微塵	-9.34452
貫	-9.34568
二初	-9.34723
一切諸佛	-9.34803
較	-9.34869
睡	-9.34922
蓮池	-9.34937
不過	-9.35195
恭敬	-9.35209
認	-9.35302
晨	-9.35321
群	-9.35328
馳	-9.35342
溺	-9.3536
屋	-9.35405
男女	-9.35407
!	-9.35411
和尚	-9.35552
察	-9.35555
星	-9.35697
顏	-9.35699
婬	-9.35702
繁	-9.3571
跡	-9.3578
惜	-9.35927
註	-9.36113
教人	-9.36118
走	-9.36185
而逝	-9.36187
不肯	-9.36203
幢	-9.36254
殿	-9.3637
之意	-9.36387
阿彌陀經	-9.36453
營	-9.36562
廬山	-9.36563
飲食	-9.36597
十五	-9.36627
不識	-9.36697
復有	-9.36772
之道	-9.3682
映	-9.36939
徵	-9.36941
富	-9.36972
追	-9.36983
寸	-9.37135
十界	-9.37406
經論	-9.37643
閉	-9.37714
無量無邊	-9.37731
充	-9.3775
才	-9.37759
晉	-9.37761
無為	-9.37798
紅	-9.37839
願我	-9.38492
三十	-9.3864
田	-9.38644
念佛人	-9.38691
一心念佛	-9.38736
得見	-9.38944
忙	-9.3897
觀音勢至	-9.38989
觧	-9.39006
直指	-9.39066
增長	-9.39353
迹	-9.39391
領	-9.39401
古今	-9.39461
而得	-9.39513
續	-9.39584
贊	-9.39665
可見	-9.39817
保	-9.39827
圓頓	-9.39844
恨	-9.39893
而生	-9.40109
三品	-9.40153
皮	-9.40243
塵勞	-9.40272
己	-9.40442
則無	-9.40512
乞	-9.40596
審	-9.40611
而言	-9.40642
禮佛	-9.40662
衰	-9.40685
喪	-9.40694
我等	-9.40725
便是	-9.40863
同一	-9.40924
迦	-9.40983
閻浮	-9.41023
夏	-9.41159
申	-9.41577
堅固	-9.41639
實報	-9.41688
相似	-9.41758
補	-9.41878
尼	-9.41918
苦樂	-9.41958
化生	-9.41963
李	-9.42007
賢聖	-9.42068
佛告	-9.42096
惡道	-9.42144
第	-9.42215
稱讚	-9.42302
磨	-9.42392
孔子	-9.42492
感應	-9.42753
念佛者	-9.42794
此乃	-9.42944
有何	-9.4298
長者	-9.43085
禁	-9.43287
盲	-9.43309
師子	-9.43363
故也	-9.43396
飯	-9.43484
萬行	-9.43525
東方	-9.43662
澄	-9.43673
為一	-9.43716
不善	-9.43739
樂邦	-9.43802
護念	-9.43809
詮	-9.43903
等者	-9.4395
條	-9.43979
五陰	-9.44042
仗	-9.44061
侍	-9.44064
盈	-9.44136
非是	-9.44157
各有	-9.44176
筆	-9.4419
處處	-9.44216
授記	-9.44251
怖	-9.44476
亦然	-9.44523
愁	-9.44544
弗	-9.44557
四大	-9.44569
必有	-9.44577
蕩	-9.44612
餓鬼	-9.44617
殺生	-9.44731
不可以	-9.44748
後世	-9.44906
必須	-9.4501
吳	-9.45016
訓	-9.4503
即心	-9.45268
唯有	-9.45368
三途	-9.45441
崇	-9.45459
測	-9.45465
淚	-9.45471
即佛	-9.45559
人人	-9.4561
岸	-9.45638
修淨業	-9.45666
十萬	-9.45812
之相	-9.45851
不及	-9.45869
雪	-9.45874
盖	-9.45957
三德	-9.4623
寄	-9.46268
十一	-9.46331
準	-9.46355
缺	-9.46366
四十八願	-9.465
不應	-9.46639
兜率	-9.46654
極樂國土	-9.46675
心念	-9.46721
不起	-9.46746
五逆	-9.46753
脚	-9.46794
乾	-9.46807
倫	-9.46816
宏	-9.46819
塵沙	-9.46852
排	-9.46865
永明	-9.46925
三藏	-9.47203
惡趣	-9.47223
汝等	-9.47251
赤	-9.47271
腹	-9.47335
繼	-9.47556
偈云	-9.47569
無二	-9.47598
狀	-9.47716
眾生心	-9.47736
內外	-9.47891
又曰	-9.47902
初明	-9.47936
饒	-9.481
剎那	-9.48102
升	-9.48121
四種	-9.48136
?」	-9.48157
欺	-9.48179
布施	-9.48193
尺	-9.48197
何不	-9.48243
人間	-9.48356
不然	-9.48414
化身	-9.48435
鉢	-9.48565
三千	-9.48579
設我得佛	-9.48608
暮	-9.4861
怒	-9.48651
十四	-9.48706
何為	-9.48731
聞者	-9.48828
之間	-9.48832
亦非	-9.48852
▁一心頂禮	-9.48876
受生	-9.4888
短	-9.48956
管	-9.49033
有漏	-9.49041
本具	-9.49058
四十	-9.49216
妙法	-9.49402
黃金	-9.49417
閑	-9.49481
術	-9.49499
甚深	-9.49502
素	-9.49509
生西方	-9.49624
佛道	-9.49634
未得	-9.49722
移	-9.49827
下品	-9.49991
毗	-9.49992
正報	-9.5
赴	-9.50056
十萬億	-9.50078
有人	-9.5012
注	-9.50173
熏	-9.50195
左	-9.50449
雷	-9.50491
不住	-9.5054
威	-9.50564
三世	-9.50566
心不	-9.50591
信受	-9.50599
彌陀經	-9.50667
焚	-9.50873
社	-9.50885
折	-9.5092
去來	-9.50969
妻	-9.51074
而有	-9.51119
緣起	-9.51248
五百	-9.51351
檀	-9.51361
外無	-9.51421
六時	-9.51479
不須	-9.51744
虎	-9.51843
包	-9.5185
不受	-9.51882
皇	-9.51923
誑	-9.51948
如是等	-9.5221
庶	-9.52294
墜	-9.52339
避	-9.52365
歟	-9.52402
依報	-9.52512
為人	-9.52557
之苦	-9.52603
平生	-9.52608
童	-9.52753
正覺	-9.52805
蘇	-9.5281
一乘	-9.52918
天地	-9.53111
寂滅	-9.53209
醫	-9.53278
勢至	-9.53577
應身	-9.53671
蛇	-9.53722
拈	-9.53744
私	-9.53791
喚	-9.53815
云云	-9.53878
准	-9.5388
未盡	-9.53911
中之	-9.53918
遷	-9.53919
圓教	-9.5394
一拜	-9.54014
終不	-9.5403
神力	-9.54054
佛前	-9.5406
楞嚴	-9.54187
自他	-9.54195
漏	-9.54225
當來	-9.54346
端坐	-9.54441
寶池	-9.54461
所生	-9.54554
是知	-9.54557
隨順	-9.54633
釋曰	-9.54668
返	-9.54712
之身	-9.54734
無別	-9.54752
仲	-9.54756
快	-9.54792
未知	-9.54819
念佛法門	-9.54845
下至	-9.5492
散亂	-9.54979
所居	-9.55023
酒	-9.55216
限	-9.55425
取捨	-9.55476
彌陀佛	-9.55557
最勝	-9.55575
自力	-9.55581
生極樂	-9.55592
人之	-9.55608
話	-9.55667
停	-9.55699
符	-9.55727
各各	-9.55737
菴	-9.55777
不敢	-9.55799
無上菩提	-9.55963
人身	-9.56031
豈有	-9.56032
生於	-9.561
思之	-9.56289
大事	-9.56356
四諦	-9.56358
可得	-9.56387
業障	-9.5654
願生彼國	-9.56556
是心	-9.56632
榮	-9.56651
伽	-9.56707
醒	-9.56714
善友	-9.56739
南無阿彌陀佛	-9.5676
生佛	-9.56804
修持	-9.5687
用心	-9.56885
時時	-9.57067
皆可	-9.57071
真心	-9.57112
眾苦	-9.57132
觀之	-9.57167
索	-9.57203
佛之	-9.57249
房	-9.57253
十九	-9.57327
昭	-9.57669
歌	-9.57698
課	-9.57738
前後	-9.57827
一卷	-9.58002
教主	-9.58027
滅罪	-9.58067
趨	-9.58156
楊	-9.58214
借	-9.58215
未有	-9.58223
抑	-9.58228
詞	-9.58228
勢	-9.58374
所修	-9.58467
本師	-9.5852
塗	-9.58527
即生	-9.58554
考	-9.58622
最為	-9.58644
阿羅漢	-9.5865
䇿	-9.58713
奪	-9.58716
故言	-9.58872
童子	-9.58902
不忘	-9.58919
和合	-9.59022
古人	-9.59072
見阿彌陀佛	-9.5912
枯	-9.5927
法王	-9.59556
之士	-9.5957
之境	-9.59704
須知	-9.59717
藉	-9.59722
行道	-9.6009
大地	-9.60239
清涼	-9.60241
卒	-9.60247
畏	-9.60352
正是	-9.6041
不定	-9.6044
憫	-9.6051
佛力	-9.60545
弟	-9.60601
初地	-9.60615
則不	-9.60622
十種	-9.60634
度眾生	-9.60655
按	-9.60676
能所	-9.60685
與佛	-9.60686
園	-9.60689
是人	-9.60692
瞋	-9.60757
第六	-9.6076
間斷	-9.60768
殊勝	-9.60789
弱	-9.60799
之類	-9.60827
二句	-9.60882
善業	-9.60886
不是	-9.6094
五欲	-9.60959
猛	-9.6096
乃是	-9.61029
聖賢	-9.61047
辛	-9.6115
金臺	-9.61194
得道	-9.61222
旦	-9.61231
試	-9.61508
華開	-9.61519
十七	-9.61534
遠離	-9.61562
夢中	-9.61595
及諸	-9.61723
嘉	-9.61758
淨土樂	-9.61782
二義	-9.61816
十疑論	-9.61844
身土	-9.61854
開示	-9.619
二字	-9.61948
若有眾生	-9.62184
粗	-9.62286
偽	-9.62305
上品上生	-9.62333
促	-9.62363
若是	-9.62406
往來	-9.62474
其有	-9.62558
然而	-9.62584
厭離	-9.62659
則知	-9.62733
責	-9.62831
須臾	-9.6286
瞻	-9.62892
勸人	-9.62929
所證	-9.63146
惡人	-9.63156
稱佛	-9.63221
逃	-9.63295
聖教	-9.6333
在家	-9.6333
院	-9.63367
本覺	-9.63428
其義	-9.63443
十六觀	-9.63546
十地	-9.63616
苦惱	-9.63624
閣	-9.63693
無我	-9.63767
八萬	-9.6379
洲	-9.63823
片	-9.63906
谷	-9.63927
丈六	-9.63947
乳	-9.63962
不相	-9.63981
六度	-9.64074
人生	-9.64153
每日	-9.6417
之力	-9.64205
四者	-9.64301
四教	-9.64337
如來藏	-9.64344
晚	-9.64354
冷	-9.64408
編	-9.64415
竊	-9.64445
嗔	-9.64462
於中	-9.64474
誡	-9.64484
司	-9.64487
難信	-9.6452
眾等	-9.647
專心	-9.6479
厚	-9.6494
亦爾	-9.6494
終身	-9.64965
胡	-9.64968
七寶池	-9.65002
任運	-9.6505
湯	-9.65054
不捨	-9.65109
殘	-9.65486
疏云	-9.65489
披	-9.65489
又復	-9.65493
瑞	-9.65511
閱	-9.65524
以至	-9.65533
末法	-9.65536
泉	-9.65541
不求	-9.65824
此法	-9.65839
峯	-9.66018
三輩	-9.66034
寫	-9.66048
臂	-9.6608
欲界	-9.66084
由是	-9.66097
不壞	-9.6621
此一	-9.66213
以上	-9.66375
未曾	-9.66389
今人	-9.66461
儞	-9.66549
個	-9.66594
愧	-9.6662
武	-9.66632
韋提希	-9.66653
愚癡	-9.6667
無餘	-9.6667
不絕	-9.66711
二明	-9.66838
囑	-9.67163
撰	-9.67219
渡	-9.67222
之旨	-9.67251
未嘗	-9.67403
得生淨土	-9.67563
四字	-9.67676
又有	-9.67689
泯	-9.67706
樓閣	-9.67734
蟲	-9.67742
緩	-9.67755
念佛之人	-9.67931
假名	-9.68026
菩薩摩訶薩	-9.68084
惟心	-9.68114
優	-9.68245
擊	-9.68248
飾	-9.68274
百億	-9.68288
心淨	-9.68406
無量光	-9.6853
凡聖	-9.6855
今經	-9.6864
忻	-9.68802
豎	-9.68809
聲聲	-9.68811
陵	-9.68839
付	-9.68844
執持	-9.68848
即此	-9.68923
補處	-9.68946
何得	-9.69073
不退轉	-9.69145
而後	-9.69199
所得	-9.69316
佛祖	-9.69317
鬼神	-9.69358
倘	-9.6937
如斯	-9.69377
野	-9.69414
之功	-9.69466
目前	-9.69629
方等	-9.69685
誦經	-9.69747
第五	-9.69765
可不	-9.69824
克	-9.69953
酬	-9.69984
呵	-9.69988
圓覺	-9.70292
多劫	-9.7035
不用	-9.70364
即得	-9.70386
往生者	-9.70395
至心歸命禮西方阿彌陀佛	-9.70429
洗	-9.70502
宅	-9.70533
難成	-9.70586
一門	-9.70594
皆得	-9.70754
則有	-9.70785
天眼	-9.70934
嗟	-9.70961
應當	-9.70993
掌	-9.71033
亦復	-9.71064
出離	-9.71065
凝	-9.71087
而化	-9.7109
割	-9.71113
經言	-9.71117
由旬	-9.71226
人也	-9.71249
十三	-9.71433
議	-9.71537
有四	-9.71637
禽	-9.71647
朗	-9.71669
哭	-9.71689
寬	-9.71699
此理	-9.71705
萬德	-9.7171
性體	-9.7185
從此	-9.71918
二釋	-9.72049
種子	-9.72167
隨其	-9.72202
有大	-9.72206
無異	-9.72209
第一義	-9.7221
竭	-9.72213
四明	-9.72225
歇	-9.72249
混	-9.72252
烏	-9.72253
雲棲	-9.72317
是非	-9.72376
佛所	-9.72397
之處	-9.72458
唯心淨土	-9.72499
融通	-9.72537
孫	-9.72544
今此	-9.72602
▁三	-9.7262
今初	-9.72658
嘆	-9.72674
當念	-9.72675
教化	-9.72709
不失	-9.72758
不異	-9.72761
正法樂	-9.72774
透	-9.72822
祈	-9.72846
斥	-9.72867
禪宗	-9.72964
於佛	-9.73075
衣食	-9.73076
即見	-9.73123
為宗	-9.73181
其身	-9.73198
如人	-9.73211
上下	-9.73215
願生	-9.73239
險	-9.73382
頗	-9.73397
賴	-9.73401
蔽	-9.73413
噫	-9.73422
植	-9.73429
復次	-9.73445
冬	-9.73452
不在	-9.73523
同歸	-9.73545
國王	-9.73651
觀行	-9.73761
之謂也	-9.73785
逼	-9.73839
勇猛	-9.73939
現世	-9.74075
此事	-9.74086
若欲	-9.74269
)。(	-9.74423
有餘	-9.74427
之因	-9.74467
大聖	-9.74484
棲	-9.74509
魂	-9.74555
所言	-9.74563
迦葉	-9.74576
拘	-9.74595
怕	-9.74595
翁	-9.74605
展轉	-9.74651
菩提心	-9.74706
若言	-9.74751
放生	-9.7478
所成	-9.75005
何者	-9.75032
男	-9.75037
中初	-9.75041
故名為	-9.75044
真空	-9.75131
戲	-9.75148
場	-9.7517
毋	-9.75239
敷	-9.75454
太子	-9.75485
觀察	-9.75501
努力	-9.75616
魏	-9.75706
現身	-9.75723
放下	-9.75749
圍	-9.75766
佛者	-9.75821
侶	-9.75833
了知	-9.75983
亦云	-9.76007
更有	-9.76056
成正覺	-9.7616
能令	-9.76175
向西	-9.76203
師曰	-9.76343
浪	-9.76343
康	-9.76352
鸞	-9.76357
安得	-9.76392
蓮社	-9.76394
奚	-9.76403
但能	-9.76429
淵	-9.76437
偶	-9.76445
規	-9.76462
重罪	-9.76705
此三	-9.76775
般	-9.76821
梁	-9.76895
濫	-9.76986
觀法	-9.76998
彈指	-9.77027
妄語	-9.77057
疏鈔	-9.77096
君子	-9.77213
以來	-9.77515
心外	-9.77584
煩	-9.77602
俾	-9.77621
扶	-9.77645
大千	-9.77676
不著	-9.7772
心無	-9.77873
三年	-9.77887
淺深	-9.77917
遠公	-9.78011
欲得	-9.78029
佛語	-9.78071
變化	-9.78117
工	-9.78121
三日	-9.78126
不修	-9.78156
何必	-9.78193
率	-9.78212
病苦	-9.78213
䟦	-9.78215
十聲	-9.78231
一塵	-9.78231
吞	-9.78233
曇	-9.78282
之體	-9.78338
自有	-9.78421
非一	-9.78505
得聞	-9.78542
普勸	-9.78574
王佛	-9.78627
或曰	-9.78762
實有	-9.78785
琉璃	-9.78792
至誠	-9.78799
你	-9.78822
慎	-9.78831
臭	-9.78843
繩	-9.78857
熾然	-9.78933
導師	-9.79081
宮殿	-9.79086
不變	-9.7913
願行	-9.79132
壇	-9.79183
真諦	-9.79333
之行	-9.79342
秦	-9.79396
不以	-9.79402
經說	-9.79404
千里	-9.79407
正信	-9.79477
鼻	-9.79477
禍	-9.79493
壁	-9.79516
總持	-9.79592
多生	-9.79596
了義	-9.79699
人民	-9.79717
災	-9.79803
真性	-9.79818
域	-9.7987
冠	-9.80002
利根	-9.80007
竪	-9.80039
效	-9.80077
觀經云	-9.80085
心心	-9.80098
善人	-9.8014
消滅	-9.80149
學道	-9.80179
知其	-9.80208
無生忍	-9.80295
正行	-9.80307
何須	-9.80424
天宮	-9.80448
天上	-9.80523
之謂	-9.80591
淨心	-9.80692
危	-9.80695
搖	-9.80708
塞	-9.80709
嗚呼	-9.80724
波羅蜜	-9.80761
入道	-9.80839
夕	-9.80862
不論	-9.8102
皆為	-9.81056
一體	-9.81213
莊	-9.81266
困	-9.81323
絲	-9.81333
龍舒	-9.81334
嫌	-9.81343
擬	-9.81351
均	-9.81352
忠	-9.81361
摩尼	-9.81401
出三界	-9.81488
不念	-9.81491
四十八	-9.81591
之名	-9.81691
八十	-9.81721
鈍	-9.81736
見思	-9.81782
華嚴經	-9.81935
防	-9.81974
瑠璃	-9.82037
三十二相	-9.822
方能	-9.82283
親近	-9.82283
所能	-9.82291
二邊	-9.82399
丈	-9.82496
所願	-9.825
川	-9.82573
燭	-9.82609
稟	-9.82623
之有	-9.82623
敗	-9.82649
獻	-9.82653
宛然	-9.82699
法音	-9.82721
十信	-9.82817
之際	-9.82824
天竺	-9.82842
人中	-9.82913
釋迦如來	-9.83019
或問	-9.83088
景	-9.83162
費	-9.83217
鈍根	-9.83228
圓通	-9.83254
委	-9.83268
商	-9.83276
淫	-9.83288
韋提	-9.8337
是真	-9.83407
或云	-9.83496
無作	-9.83536
二菩薩	-9.83572
欲令	-9.83579
一切佛	-9.83589
六十	-9.8364
歷劫	-9.8371
理事	-9.83781
深心	-9.83823
稱佛名	-9.83837
十年	-9.8384
撥	-9.83899
召	-9.83911
覓	-9.83935
履	-9.83936
如水	-9.84024
不礙	-9.84074
彼則	-9.84111
未必	-9.84152
光照	-9.84428
初釋	-9.84493
諱	-9.84533
校	-9.84533
軌	-9.84558
麗	-9.84578
羅漢	-9.84599
威儀	-9.84601
不了	-9.84607
之語	-9.84643
成道	-9.84675
如前	-9.84698
唯識	-9.847
自身	-9.84744
不免	-9.8477
不復	-9.84862
修福	-9.85156
頂禮	-9.85197
奏	-9.85221
起信	-9.85236
選	-9.85239
宰	-9.85245
闇	-9.85259
渠	-9.85272
五十	-9.85287
法界眾生	-9.85304
止觀	-9.85375
如意	-9.85599
莫能	-9.85605
善男子	-9.85613
三毒	-9.85693
綱	-9.85802
於彼	-9.85803
軍	-9.85839
之大	-9.85856
飢	-9.85889
諍	-9.85899
浴	-9.85904
兄	-9.85908
甲	-9.85913
恒河沙	-9.85933
無疑	-9.86058
大慈悲	-9.86069
不亂	-9.86129
在此	-9.86161
畜	-9.86209
墮地獄	-9.86237
今以	-9.86316
無益	-9.86354
作此	-9.86439
第七	-9.86477
泣	-9.86529
佛心	-9.8655
綿	-9.86564
性德	-9.86569
無能	-9.86661
死生	-9.86745
憐	-9.86748
大慈	-9.86759
有所	-9.86882
知見	-9.86924
九十	-9.86928
淨土者	-9.86967
之內	-9.87027
大本云	-9.87028
一處	-9.8706
戶	-9.87099
偈曰	-9.87186
五戒	-9.87199
庵	-9.87244
午	-9.87245
應知	-9.87407
發起	-9.87427
實無	-9.87479
度脫	-9.87495
等覺	-9.8752
十善	-9.87533
之極	-9.87556
為我	-9.87648
善導	-9.87666
無一	-9.87715
釋迦牟尼佛	-9.87723
諸佛菩薩	-9.87755
隨喜	-9.87757
三教	-9.87831
僅	-9.8785
指歸	-9.87859
愆	-9.87893
刑	-9.87916
史	-9.87955
見聞	-9.88084
圓成	-9.88233
有佛	-9.88323
希有	-9.88368
因此	-9.88425
換	-9.88539
稱性	-9.88556
峰	-9.88571
雅	-9.88576
他力	-9.88582
頻	-9.88591
警	-9.88609
不來	-9.88631
紀	-9.88644
為善	-9.8865
第八	-9.88746
之妙	-9.88968
光陰	-9.88974
自利	-9.89001
是我	-9.89079
國中	-9.89168
令其	-9.89169
心者	-9.89175
之曰	-9.89208
闡	-9.89217
老人	-9.8926
屈	-9.8928
弊	-9.89313
五者	-9.89329
闕	-9.89331
不虗	-9.89351
觀世音菩薩	-9.89354
無可	-9.89522
傾	-9.89561
直至	-9.89564
此即	-9.89615
示現	-9.89619
虗妄	-9.89638
佛為	-9.89703
所感	-9.89709
他人	-9.89736
非但	-9.89786
紫	-9.89845
津	-9.89915
賓	-9.89916
鄙	-9.8998
前世	-9.90079
福報	-9.90123
亦如	-9.90218
本有	-9.90295
心境	-9.90296
十惡	-9.90301
眾寶	-9.90324
高下	-9.90352
此中	-9.9052
經典	-9.90572
不可說	-9.90602
層	-9.90611
冰	-9.90648
湖	-9.90659
紙	-9.90659
饑	-9.90689
軀	-9.90705
恣	-9.9072
建立	-9.90802
異香	-9.90883
是心是佛	-9.91014
生安養	-9.91098
專修	-9.91128
耀	-9.91235
萬物	-9.91278
此言	-9.91301
祥	-9.91327
維	-9.91328
竹	-9.91329
無心	-9.9136
怪	-9.91385
所觀	-9.91389
龍樹	-9.91398
暇	-9.91475
他佛	-9.91526
第九	-9.91553
面西	-9.91625
一經	-9.91628
日夜	-9.91632
當生	-9.91702
奈何	-9.91726
相即	-9.91783
不滅	-9.91959
伴	-9.92029
悉檀	-9.92039
荷	-9.92064
作是	-9.92069
庭	-9.92117
罰	-9.9214
願者	-9.92164
彩	-9.92186
五會	-9.92274
決定往生	-9.92278
善法	-9.92349
豈能	-9.9239
之要	-9.92391
不待	-9.92609
不容	-9.92689
障礙	-9.92704
詣	-9.92715
爛	-9.92766
勇	-9.92778
炎	-9.9278
丹	-9.92785
兮	-9.92823
甘露	-9.92829
妙覺	-9.92846
閻浮提	-9.92898
不思	-9.92938
所現	-9.93042
南無至心歸命禮西方阿彌陀佛	-9.93073
地上	-9.93078
妄心	-9.93139
天王	-9.93201
修證	-9.93311
井	-9.93405
九界	-9.93433
盤	-9.9345
誨	-9.93468
慚	-9.93472
戰	-9.93474
賜	-9.93478
枉	-9.93488
資糧	-9.93495
心佛	-9.93507
罔	-9.93518
法中	-9.93521
念佛門	-9.936
隨機	-9.93613
亦得	-9.9382
有二種	-9.93889
有五	-9.93943
修善	-9.93972
誘	-9.94169
新疏	-9.94188
冀	-9.94203
牀	-9.94211
倦	-9.94222
慚愧	-9.94225
輒	-9.94239
o	-9.94321
N	-9.94326
東西	-9.94337
無所不	-9.94355
之徒	-9.94356
衣服	-9.94356
二門	-9.94391
疑惑	-9.94403
有此	-9.94457
洪	-9.9454
諸惡	-9.94619
吾心	-9.94663
千萬	-9.94678
大道	-9.9472
金口	-9.94851
秪	-9.94869
角	-9.94887
托	-9.9491
姑	-9.94911
殃	-9.94917
夙	-9.94919
振	-9.94934
吐	-9.94974
配	-9.94992
食肉	-9.95106
日日	-9.95197
罪業	-9.95219
今世	-9.95233
何如	-9.95283
徃生	-9.95373
不得生	-9.95398
四眾	-9.95452
無畏	-9.9546
奉行	-9.95474
掃	-9.9558
摩訶	-9.95618
籠	-9.95618
陀羅尼	-9.9565
灰	-9.9566
虧	-9.95669
感應道交	-9.95675
箭	-9.95707
辰	-9.95727
不盡	-9.95811
法華經	-9.95871
義也	-9.95907
下明	-9.95916
則是	-9.95938
為此	-9.95939
良以	-9.95941
而去	-9.9596
只是	-9.96231
妨	-9.9625
造罪	-9.96295
此之	-9.9634
此二	-9.96371
何所	-9.9639
旁	-9.96396
掩	-9.96421
訶	-9.96471
墮落	-9.96653
又舍利弗	-9.96775
薉	-9.96829
即空	-9.96875
有無	-9.97038
龜	-9.97047
不達	-9.97069
府	-9.97085
六字	-9.97087
倚	-9.97119
溪	-9.97123
以是	-9.97131
渴	-9.97137
無差別	-9.9715
雞	-9.97174
所以者何	-9.97188
目連	-9.97212
風吹	-9.97219
班	-9.97286
一向	-9.97321
中下	-9.97437
方得	-9.97514
至今	-9.97564
平日	-9.97695
孔	-9.97725
重重	-9.97787
穩	-9.97795
昇	-9.97856
氷	-9.97931
遇善知識	-9.97947
佛告阿難	-9.97976
二人	-9.9808
娑婆世界	-9.98119
雖然	-9.98132
威神	-9.98156
語言	-9.98216
稱念	-9.98475
而說	-9.98567
眉	-9.98572
縣	-9.98594
繇	-9.98612
是心作佛	-9.98632
自見	-9.98637
理一心	-9.98658
若此	-9.98669
兵	-9.98671
難思	-9.98708
眾善	-9.98752
於淨土	-9.98851
見性	-9.99136
一切諸法	-9.99234
未免	-9.99249
水火	-9.99273
算	-9.99318
婦	-9.99325
始覺	-9.99327
十六觀經	-9.99334
令人	-9.9938
震	-9.99384
競	-9.9939
幼	-9.99402
火宅	-9.99425
俄	-9.99444
永劫	-9.99565
能觀	-9.99582
三明	-9.99829
願生淨土	-9.99914
別教	-9.99918
其餘	-10.0004
皆由	-10.0009
一切諸佛所護念經	-10.0011
侵	-10.0013
瓶	-10.0014
祭	-10.0015
捷徑	-10.0015
吟	-10.0018
歡	-10.0018
徐	-10.0019
頑	-10.0021
刊	-10.0021
着	-10.0022
先生	-10.0029
滅度	-10.0038
四生	-10.0042
諦觀	-10.0048
正觀	-10.0052
宗門	-10.0055
中間	-10.0057
六方	-10.0058
散華	-10.006
後學	-10.0068
何等	-10.007
始終	-10.0078
為大	-10.0082
色界	-10.0086
懈怠	-10.0087
同時	-10.0087
豐	-10.0091
荒	-10.0092
正好念佛	-10.0098
阿僧祇劫	-10.0098
天親	-10.0128
散心	-10.0132
放光	-10.0137
身後	-10.014
渾	-10.0165
俟	-10.0167
行住坐臥	-10.0167
訣	-10.0169
埋	-10.0171
捨此	-10.0172
般舟三昧樂	-10.0174
我以	-10.0177
極樂國	-10.0179
不言	-10.0186
空寂	-10.0193
別有	-10.0193
觀者	-10.0208
奈	-10.0209
大智	-10.0213
一身	-10.0223
佛教	-10.0238
爐	-10.0242
而作	-10.0243
念者	-10.0243
鑑	-10.0244
夭	-10.0248
謀	-10.0249
朱	-10.0249
分段	-10.0261
忽然	-10.0273
之教	-10.0285
自知	-10.0294
大勢至	-10.0299
淨宗	-10.0302
何謂	-10.0314
聞名	-10.0325
慈心	-10.0325
暢	-10.0328
敵	-10.0329
念力	-10.033
敬禮	-10.0333
之本	-10.0333
聖凡	-10.0352
得不退轉	-10.0358
決疑	-10.0359
六祖	-10.0365
念佛往生	-10.0367
妄念	-10.0373
不立	-10.0382
一日一夜	-10.0405
政	-10.0405
諸苦	-10.0406
銅	-10.0409
學人	-10.041
其意	-10.041
屠	-10.0413
下文	-10.0414
二十五	-10.0414
一行三昧	-10.0415
有異	-10.0415
床	-10.0416
而自	-10.0425
是一	-10.0436
以其	-10.0446
定慧	-10.0451
白毫	-10.0455
逝	-10.0458
攝心	-10.0458
明佛	-10.046
得見佛	-10.046
白佛言	-10.0467
妾	-10.0481
禱	-10.0483
係	-10.0485
懈	-10.0485
而復	-10.0487
蘭	-10.049
不易	-10.049
煙	-10.0492
最後	-10.0492
解釋	-10.0495
長短	-10.0497
皆從	-10.0498
彼佛國土	-10.05
經行	-10.0502
修觀	-10.0503
妙觀	-10.0511
蓮宗	-10.0515
慈恩	-10.052
貌	-10.0527
萬里	-10.053
諸善	-10.0535
唯願	-10.0539
而成	-10.0554
說誠實言	-10.0561
炷	-10.0562
碧	-10.0565
劉	-10.0567
惠	-10.0569
御	-10.0571
思量	-10.0605
遠近	-10.061
勝劣	-10.061
互相	-10.0615
六塵	-10.0616
十住	-10.0616
一千	-10.0618
凡有	-10.0619
色心	-10.0623
答云	-10.0635
只要	-10.0636
能知	-10.0636
彌陀願力	-10.0638
確	-10.0642
不假	-10.0644
肩	-10.0644
薦	-10.0646
寡	-10.0648
瓔珞	-10.0648
齒	-10.0649
鮮	-10.065
陋	-10.065
參究	-10.065
鞭	-10.065
產	-10.0653
之門	-10.0654
左右	-10.0654
故有	-10.0659
墨	-10.066
微細	-10.0664
正定	-10.0675
由此	-10.0683
小劫	-10.0686
理性	-10.0689
邦	-10.0693
之樂	-10.0706
緣覺	-10.071
變易	-10.0714
往西方	-10.0717
蘊	-10.0719
證明	-10.072
恭	-10.0724
吹	-10.0725
完	-10.0727
明了	-10.0728
勵	-10.0728
抱	-10.0729
如幻	-10.0729
願王	-10.073
奔	-10.073
納	-10.0731
而修	-10.0734
攝取	-10.074
常寂光	-10.0741
流轉	-10.0747
一切世間	-10.0757
果能	-10.0759
圓明	-10.0764
正道	-10.0769
無量劫	-10.0771
讀誦	-10.0776
南方	-10.078
甚多	-10.0782
其事	-10.0783
成佛道	-10.0784
無緣	-10.0784
生極樂國	-10.079
住處	-10.0792
何也	-10.0792
不疑	-10.0799
性空	-10.0804
族	-10.0808
傍	-10.0811
泛	-10.0813
一字	-10.0814
基	-10.0815
未悟	-10.0818
蓮臺	-10.0825
無知	-10.0828
勤修	-10.0828
不取	-10.0832
對治	-10.0839
唯佛	-10.0839
演說	-10.084
方知	-10.0863
又問	-10.0863
日課	-10.0878
次釋	-10.0878
當處	-10.0882
觀心	-10.0885
往生之	-10.0888
為體	-10.0896
羽	-10.0899
無障礙	-10.09
如今	-10.0903
百歲	-10.0906
因地	-10.0911
道俗	-10.0914
所攝	-10.0922
猶未	-10.0923
嚴淨	-10.0923
胎生	-10.0924
造惡	-10.0925
發明	-10.0928
至此	-10.0929
一劫	-10.0931
而非	-10.0931
三聖	-10.0933
世之	-10.0937
正宗	-10.0948
觀世音	-10.0949
是經	-10.0958
是誰	-10.0962
無復	-10.0964
不明	-10.0965
大覺	-10.0966
淨名	-10.0971
若以	-10.0971
坐禪	-10.0974
行業	-10.0979
五濁惡世	-10.0982
不可思議功德	-10.0982
殷勤	-10.0982
紹	-10.0983
鐘	-10.0984
道品	-10.0987
之地	-10.0993
十方佛	-10.1001
本自	-10.1002
見之	-10.1003
頓悟	-10.1017
如大	-10.1018
壽命無量	-10.104
功行	-10.104
家人	-10.104
行之	-10.1043
但有	-10.1044
西向	-10.1048
諸人	-10.1048
總結	-10.105
佛事	-10.1054
陷	-10.1061
穿	-10.1061
茶	-10.1062
壯	-10.1063
芳	-10.1066
而來	-10.1067
番	-10.1068
非真	-10.1077
證無生	-10.1084
本是	-10.11
得無生忍	-10.11
洪名	-10.1102
花開	-10.1111
求生西方	-10.1115
但以	-10.1121
干	-10.1126
而能	-10.1131
障重	-10.114
依此	-10.1141
為說	-10.1142
雄	-10.1145
岐	-10.1148
一生補處	-10.1157
道者	-10.1163
豈得	-10.1178
之文	-10.118
同體	-10.1182
之日	-10.1185
未聞	-10.1187
諸大	-10.12
若非	-10.1209
篤	-10.1216
因中	-10.1229
怠	-10.123
忌	-10.1231
潛	-10.1235
宇	-10.1235
祝	-10.1237
是謂	-10.1238
伊	-10.1238
若不爾者	-10.1238
歸命	-10.1238
空假	-10.124
剖	-10.1242
珍寶	-10.125
愍	-10.1255
尊特	-10.1257
▁【	-10.1272
本空	-10.1276
山居	-10.1277
濁惡	-10.1287
唯此	-10.1295
利他	-10.1295
如是等恒河沙數諸佛	-10.1317
截	-10.1317
靈芝	-10.1321
健	-10.1322
匪	-10.1324
賤	-10.1324
輝	-10.1324
即有	-10.1325
不生不滅	-10.1326
潤	-10.1327
持齋	-10.1331
香華	-10.1336
第一義諦	-10.1344
供佛	-10.1346
尚不	-10.1351
輪轉	-10.1361
良由	-10.1363
勸修	-10.1364
二土	-10.1366
問答	-10.1369
普照	-10.1375
心生	-10.1375
不許	-10.1379
自覺	-10.1391
佛像	-10.1396
皆以	-10.1401
魔事	-10.1406
覽	-10.1406
永離	-10.1408
狹	-10.1408
修淨業者	-10.1409
庸	-10.1411
諸上善人	-10.1414
穀	-10.1418
要知	-10.1436
愚人	-10.1439
自性彌陀	-10.144
不曾	-10.1452
勸信	-10.1464
不昧	-10.1465
出入	-10.1466
之念	-10.1469
汝今	-10.1475
析	-10.1489
銷	-10.1496
沈淪	-10.1498
漫	-10.1501
下品下生	-10.1501
回心	-10.1505
一念彌陀	-10.1506
守護	-10.1511
言訖	-10.1518
不得往生	-10.1525
汝等眾生	-10.153
相違	-10.1533
未甞	-10.1533
寶華	-10.1544
諸聖	-10.1548
難得	-10.1551
所念	-10.1552
善財	-10.1563
將來	-10.1566
其實	-10.1578
音樂	-10.158
五道	-10.1583
巨	-10.1583
謗法	-10.1586
飄	-10.1587
偷	-10.1588
巖	-10.1589
在心	-10.1591
辯才	-10.1591
吉	-10.1591
松	-10.1591
法藏比丘	-10.1595
考證	-10.1597
破戒	-10.1598
放逸	-10.1599
其國	-10.1599
絕待	-10.1604
初中	-10.1612
不空	-10.1614
護持	-10.1617
戒殺	-10.1617
念佛時	-10.1619
而不能	-10.1621
不與	-10.1622
此義	-10.1627
百千萬億	-10.163
隨心	-10.1634
所造	-10.1636
梵行	-10.1636
末世	-10.1637
行樹	-10.1652
作禮	-10.1659
事一心	-10.1661
京	-10.1671
格	-10.1673
齋戒	-10.1674
逍遙	-10.1676
季	-10.1678
郡	-10.1678
牢	-10.1679
喫	-10.168
策	-10.1684
寶藏	-10.1696
此意	-10.17
妻子	-10.1701
有二義	-10.1701
到此	-10.1706
不久	-10.1709
文云	-10.1712
了生死	-10.1723
生處	-10.1735
今之	-10.1745
緣影	-10.1754
醜	-10.1764
享	-10.1764
我身	-10.1765
淨因	-10.1766
飽	-10.1767
長生	-10.1768
束	-10.1772
蓮邦	-10.1773
得大	-10.1773
丁	-10.1776
蟻	-10.1779
深入	-10.1789
福慧	-10.179
寂靜	-10.1792
不從	-10.1793
而行	-10.1806
何人	-10.1807
無定	-10.1807
通別	-10.1814
名利	-10.1816
親見	-10.1816
耳根	-10.1818
假使	-10.1823
其間	-10.1831
慈父	-10.1833
前三	-10.1836
諸根	-10.1844
膝	-10.1857
葛	-10.1858
若我成佛	-10.1859
逾	-10.1859
採	-10.1862
式	-10.1863
趺坐	-10.1864
達磨	-10.1864
訪	-10.1866
業識	-10.1869
焚香	-10.187
最上	-10.1871
造業	-10.1872
不可不	-10.1879
觀佛三昧	-10.1881
全是	-10.1884
壽量	-10.1895
來生	-10.1901
為本	-10.1901
五種	-10.1902
緣生	-10.1908
慈雲	-10.1912
世事	-10.1916
須彌山	-10.192
不隔	-10.1925
聖道	-10.1947
咎	-10.1949
奧	-10.1952
耽	-10.1952
得不退	-10.1952
厥	-10.1953
羊	-10.1955
杜	-10.1955
陶	-10.1956
諸天人民	-10.1959
登不退	-10.1961
有無量	-10.1969
妙宗	-10.1974
大劫	-10.1982
諸行	-10.199
其理	-10.1992
盡是	-10.1998
若依	-10.2004
二別	-10.2008
諸師	-10.2009
常念	-10.2011
猶有	-10.2013
此皆	-10.2016
進修	-10.2018
我佛	-10.2021
王子	-10.2037
研	-10.2039
坑	-10.2042
橋	-10.2046
般舟	-10.2046
精勤	-10.2047
擔	-10.2048
沙彌	-10.2053
正明	-10.2059
意識	-10.2059
況復	-10.2079
滴	-10.2087
昔有	-10.2089
禮懺	-10.21
之業	-10.2101
而求	-10.2101
如是說	-10.2104
生前	-10.2104
中說	-10.2106
繫心	-10.2119
淨土一門	-10.2121
真佛	-10.2127
低	-10.213
卻	-10.2131
見佛聞法	-10.2135
優劣	-10.214
兄弟	-10.214
盧	-10.2141
劍	-10.2144
豪	-10.2144
出生	-10.2144
尋常	-10.2146
修因	-10.215
中國	-10.2157
一心三觀	-10.2171
日用	-10.2173
下二句	-10.2174
萬緣	-10.2174
寶積	-10.2182
阿耨多羅三藐三菩提	-10.2184
功成	-10.2186
現前一念	-10.219
佛果	-10.219
滿足	-10.2195
長老	-10.2195
其言	-10.22
生我國	-10.2201
文中	-10.2222
此法門	-10.223
晝	-10.2231
惡緣	-10.2232
跪	-10.2233
瑩	-10.2237
皆空	-10.2238
摧	-10.2239
見者	-10.2239
北方	-10.2239
疎	-10.2239
圍繞	-10.224
能破	-10.2242
欣厭	-10.2242
充滿	-10.2242
夷	-10.2243
鹿	-10.2244
出廣長舌相	-10.2244
孟子	-10.225
湛然	-10.225
若論	-10.2255
不勞	-10.2262
總是	-10.2264
罪人	-10.2266
門者	-10.2268
身子	-10.2272
彼岸	-10.2277
菩薩聲聞	-10.2277
深重	-10.228
百八	-10.2284
已來	-10.2287
得生彼國	-10.2288
法也	-10.2301
聞佛名	-10.2301
普度	-10.2305
如鏡	-10.2306
修羅	-10.2307
妙音	-10.2311
如夢	-10.2311
雖不	-10.2312
信者	-10.2324
但得	-10.2327
激	-10.2328
三惑	-10.2329
拋	-10.233
始得	-10.2331
胞胎	-10.2332
買	-10.2333
持誦	-10.2334
吉祥	-10.2334
頃刻	-10.2335
信解	-10.2337
席	-10.234
斷滅	-10.234
念念相續	-10.2342
雜念	-10.2347
聞之	-10.2352
何用	-10.2356
隨念	-10.2359
三土	-10.2361
十法界	-10.238
名之為	-10.2385
力用	-10.2386
三世諸佛	-10.2392
然此	-10.2396
惡世	-10.2398
大法	-10.2401
名聞	-10.2403
歸淨土	-10.2407
迴心	-10.2415
高聲	-10.2416
佛智	-10.2418
苦行	-10.2419
貞	-10.2425
舒	-10.2425
黨	-10.2427
耕	-10.2429
闢	-10.243
掛	-10.243
寢	-10.243
騰	-10.243
叩	-10.2431
譏	-10.2433
權實	-10.2434
常在	-10.2434
債	-10.2437
板	-10.244
助道	-10.2445
古云	-10.2453
大菩薩	-10.2455
罪障	-10.2463
華臺	-10.2466
永無	-10.2469
何由	-10.2475
能念	-10.2476
色相	-10.2479
大藏	-10.2482
方可	-10.2486
即便	-10.2488
無性	-10.2503
主人	-10.2506
破無明	-10.251
括	-10.2521
釋迦佛	-10.2522
藕	-10.2522
一毫	-10.2526
囊	-10.2526
三千大千世界	-10.2528
佛說阿彌陀經	-10.2528
尸	-10.2528
隋	-10.2531
今時	-10.2531
碎	-10.2532
杖	-10.2533
性量	-10.2534
卑	-10.2535
心不顛倒	-10.2536
g	-10.2536
i	-10.2536
m	-10.2536
<	-10.2537
瘡	-10.2537
難思議	-10.2539
東林	-10.2545
佛光	-10.2546
既無	-10.2555
義者	-10.2556
佛菩薩	-10.2566
宿命	-10.2566
輪王	-10.2574
不殺	-10.2585
休息	-10.2607
勝妙	-10.2611
無事	-10.2612
易生	-10.2618
智度論	-10.2618
捷	-10.2622
倡	-10.2624
為難	-10.2625
案	-10.2625
發願往生	-10.2626
霜	-10.2627
昌	-10.2628
無生法忍	-10.263
那由他	-10.2632
泥洹	-10.2632
一旦	-10.2634
明矣	-10.2638
業力	-10.2641
為眾生	-10.2645
開悟	-10.265
無染	-10.2652
性相	-10.2658
觀經疏	-10.2662
不具	-10.2663
論曰	-10.2665
俗諦	-10.2665
精神	-10.267
中品	-10.2685
從前	-10.2694
之機	-10.2695
無人	-10.2695
心是佛	-10.2697
得此	-10.2707
生也	-10.2708
以前	-10.2718
十劫	-10.2719
明心	-10.2725
對曰	-10.273
盡未來際	-10.2732
錫	-10.2734
本性彌陀	-10.2766
小本	-10.2782
心地	-10.2782
口業	-10.2783
子孫	-10.2784
四天下	-10.2787
故鄉	-10.2791
分證	-10.2806
為因	-10.2808
萬善	-10.2811
銀	-10.2813
之果	-10.2816
所明	-10.2816
迷悟	-10.2816
乃至十念	-10.2816
麼	-10.2819
𦦨	-10.2823
水鳥樹林	-10.2823
時節	-10.2825
果也	-10.2825
候	-10.2827
純熟	-10.2831
西歸	-10.2832
五體投地	-10.2834
八識	-10.2836
乃能	-10.2843
孤山	-10.2844
甚難	-10.2846
不忍	-10.2861
住世	-10.2864
顯現	-10.2865
稱為	-10.2867
光中	-10.2867
池中	-10.2871
非謂	-10.2873
西方極樂	-10.2874
往往	-10.2877
我願	-10.2886
此為	-10.2891
道人	-10.2891
從今	-10.2897
之報	-10.2904
繞	-10.2917
通達	-10.2918
憎	-10.2922
起行	-10.2923
遽	-10.2924
明日	-10.2925
鍾	-10.2925
併	-10.2926
逸	-10.2926
沉淪	-10.2926
卓	-10.2927
曠劫	-10.2929
佛子	-10.293
千聲	-10.293
謹按	-10.293
。」【△	-10.2931
則為	-10.2932
劇	-10.2933
裹	-10.2938
蓮華化生	-10.294
轉輪王	-10.2944
一切處	-10.2946
涯	-10.2946
無所有	-10.2951
二經	-10.2952
不但	-10.2958
與眾生	-10.2959
不一	-10.2959
如佛	-10.2962
故以	-10.2968
淨國	-10.2983
自行	-10.2986
及與	-10.2986
初標	-10.3
念心	-10.3001
長劫	-10.3003
次明	-10.3012
落日	-10.3017
不遠	-10.3019
度人	-10.3023
陸	-10.3024
溫	-10.3026
相者	-10.3027
喻如	-10.3027
紛	-10.3031
阻	-10.3032
觀也	-10.3032
擾	-10.3032
誦彌陀經	-10.3033
我作佛時	-10.3033
誕	-10.3033
文殊師利	-10.3034
跋	-10.3035
言其	-10.3036
伯	-10.3037
故須	-10.3038
捨離	-10.304
了了	-10.304
一切種智	-10.3042
執著	-10.3042
天堂	-10.3044
得解脫	-10.3046
二十四	-10.3047
之宗	-10.305
舉一	-10.3052
剎海	-10.3053
威德	-10.3057
不違	-10.3061
等事	-10.3069
藏教	-10.3075
後心	-10.3079
縱使	-10.3079
即為	-10.3081
現生	-10.3083
六凡	-10.3092
引證	-10.3098
則能	-10.3104
諸大菩薩	-10.3107
五根	-10.3113
人所	-10.3117
命終時	-10.312
循	-10.312
大勢至菩薩	-10.3126
裂	-10.3128
鸚鵡	-10.3135
涕	-10.3135
直捷	-10.3135
暴	-10.3135
起信論	-10.3137
欽	-10.3138
悠悠	-10.3139
后	-10.3141
廓	-10.3142
觀無量壽佛經	-10.3143
麁	-10.3143
忍辱	-10.3144
分身	-10.3145
生疑	-10.3148
此翻	-10.315
始知	-10.3151
故能	-10.3151
而起	-10.3157
涅槃經	-10.3159
一剎那	-10.3165
梵音	-10.317
不可盡	-10.3173
律師	-10.3175
當人	-10.3186
不入	-10.3188
現成	-10.3207
之罪	-10.321
自是	-10.3213
能於	-10.3221
所詮	-10.3222
輔	-10.3227
生時	-10.323
何疑	-10.3231
喝	-10.3234
當信是稱讚不可思議功德	-10.3236
稀	-10.3237
眠	-10.324
些	-10.324
捐	-10.324
曹	-10.3241
窺	-10.3242
住持	-10.3242
佛界	-10.3243
某甲	-10.3247
大慈大悲	-10.3249
阿彌陀如來	-10.325
貪欲	-10.3252
之物	-10.3256
華藏	-10.326
不去	-10.3261
即今	-10.3271
般若經	-10.3272
入定	-10.3273
不墮	-10.3274
在世	-10.328
一行	-10.3287
聞說	-10.3288
超生死	-10.3289
或為	-10.329
下釋	-10.3299
為惡	-10.3305
上文	-10.3306
使人	-10.3313
當體	-10.3316
男子	-10.3316
悟無生	-10.3321
橫超	-10.3328
分二	-10.333
一切智	-10.3343
祗	-10.3345
寶蓮	-10.3349
鑒	-10.335
但知	-10.3351
辟支	-10.3358
在於	-10.3359
故得	-10.3359
生天	-10.3377
證入	-10.3382
入地獄	-10.3388
必定	-10.3392
不令	-10.3398
念佛功德	-10.34
南無西方極樂世界	-10.3409
一句阿彌陀	-10.3413
巳上	-10.3424
見其	-10.3441
踏	-10.3447
成就如是功德莊嚴	-10.3452
巍巍	-10.3453
十方三世	-10.3454
者乎	-10.3455
滋	-10.3456
操	-10.3458
料簡	-10.3459
煎	-10.3459
竝	-10.3459
狼	-10.3461
也哉	-10.3462
一曰	-10.3464
聰明	-10.3466
歸命禮	-10.3472
既不	-10.3474
說此	-10.3482
濁世	-10.3485
故經云	-10.3487
報恩	-10.3497
專心念佛	-10.35
或見	-10.3502
有三種	-10.3502
何有	-10.3506
事相	-10.3507
三十二	-10.3516
長時	-10.3522
願求	-10.3523
生身	-10.353
燒香	-10.3531
金沙	-10.3537
丈夫	-10.3541
記數	-10.3542
皆得往生	-10.3546
退轉	-10.3547
所云	-10.3548
羣生	-10.3554
苦空	-10.3557
環	-10.3558
亦能	-10.3558
泰	-10.356
與人	-10.3565
拂	-10.3565
封	-10.3566
祿	-10.3567
籍	-10.3568
疲	-10.3568
證菩提	-10.357
寶地	-10.357
塘	-10.357
如如	-10.3571
貴賤	-10.3572
八難	-10.3584
饒益	-10.3584
▁淨土	-10.3585
群生	-10.3586
所聞	-10.3588
利鈍	-10.3594
要解	-10.3597
分齊	-10.36
能生	-10.3611
未成	-10.362
天華	-10.3626
無由	-10.3628
團	-10.3629
此文	-10.3629
善心	-10.3632
何則	-10.364
又言	-10.3649
在其中	-10.3655
生信	-10.3659
縱有	-10.3665
證果	-10.3666
指示	-10.3667
三歸	-10.3668
遶	-10.3669
說者	-10.367
八功德水	-10.3672
哲	-10.3673
泊	-10.3673
厄	-10.3678
澤	-10.3678
聲聞緣覺	-10.3681
給	-10.3683
於世	-10.3683
一真法界	-10.3684
得名	-10.3689
此界	-10.3694
嗟乎	-10.3696
從心	-10.3696
即真	-10.3697
汝當	-10.3699
萬億	-10.3701
皆然	-10.3702
巳得	-10.3705
簡易	-10.3705
自家	-10.3707
得入	-10.3723
句句	-10.3725
讚佛	-10.373
得度	-10.3734
直下	-10.3735
無論	-10.3743
帝釋	-10.3744
緊	-10.3748
既是	-10.3754
輕重	-10.3759
其數	-10.376
能仁	-10.3765
直入	-10.3766
不自	-10.3772
芽	-10.3782
旅	-10.3785
法寶	-10.3786
法者	-10.3787
側	-10.3787
旛	-10.379
斷惑	-10.3791
詎	-10.3792
若約	-10.3794
譬如有人	-10.3795
百萬	-10.3796
楞伽	-10.3797
應當發願	-10.3803
及其	-10.3806
流出	-10.3808
五逆十惡	-10.3808
號曰	-10.381
海中	-10.3811
為業	-10.3812
此語	-10.3819
為佛	-10.3821
二大士	-10.3824
但當	-10.383
一境	-10.383
無差	-10.3834
修淨土者	-10.3837
只為	-10.3854
化眾生	-10.3855
胸	-10.3856
知之	-10.3867
而死	-10.387
者多	-10.3871
是凡夫	-10.3889
覺悟	-10.3889
莖	-10.3895
茫茫	-10.3895
涼	-10.3896
觀成	-10.3897
曠	-10.3897
長安	-10.3898
孝養父母	-10.3899
柱	-10.3899
悞	-10.3901
諭	-10.3902
顛	-10.3904
救苦眾生	-10.3904
並是	-10.3904
日光	-10.3906
徑路	-10.3907
賢護	-10.3907
二曰	-10.391
遊戲	-10.3911
名相	-10.3919
出世間	-10.392
何妨	-10.3924
上根	-10.3924
悲心	-10.3928
無實	-10.3931
彼經	-10.3936
為正	-10.3938
唯一	-10.394
通教	-10.3941
七重	-10.3942
他日	-10.3945
本國	-10.395
菩薩眾	-10.3956
而論	-10.396
欲生	-10.3963
何時	-10.3965
及一切	-10.3966
此說	-10.3969
最初	-10.3971
此道	-10.3974
令我	-10.3974
能救	-10.3976
無過	-10.3984
未明	-10.3989
十萬億剎	-10.3992
且如	-10.3995
淡	-10.4007
楚	-10.4008
斗	-10.4011
韻	-10.4012
斬	-10.4012
躬	-10.4014
怖畏	-10.4015
四方	-10.4016
晦	-10.4017
難信之法	-10.4017
弄	-10.4018
。】「【	-10.4018
罷	-10.4019
雖是	-10.402
輪回	-10.402
阿鼻	-10.4023
焰	-10.4023
三心	-10.4028
安隱	-10.4042
正見	-10.4045
何能	-10.4047
稱理	-10.4048
三義	-10.4048
迴向發願	-10.4049
非不	-10.4053
法爾	-10.4054
千生	-10.4054
等也	-10.4055
尚有	-10.4065
一箇	-10.4068
即以	-10.4069
萬聲	-10.4077
明鏡	-10.4085
寂照	-10.4089
超過	-10.4095
華嚴經云	-10.4099
初約	-10.4103
性體性量	-10.4119
高僧	-10.412
拙	-10.4122
亦應	-10.4123
心想	-10.4124
叢林	-10.4126
村	-10.4126
聊	-10.4127
乍	-10.4127
一句阿彌陀佛	-10.4128
屢	-10.4129
清泰	-10.413
糞	-10.413
派	-10.413
慳貪	-10.4133
慈尊	-10.4135
六即	-10.4143
讀誦大乘	-10.4145
前文	-10.4146
讚嘆	-10.4152
淨域	-10.4156
清淨心	-10.4156
即法身	-10.4157
今言	-10.4161
正受	-10.4168
報應	-10.417
安住	-10.4175
【	-10.4188
不共	-10.4189
而不知	-10.4191
兼修	-10.4191
為僧	-10.4196
修此	-10.4198
心體	-10.42
法忍	-10.4203
臨終十念	-10.4206
作福	-10.4211
所知	-10.4212
令得	-10.4221
是苦	-10.4225
豁	-10.4226
其本	-10.4231
霞	-10.4236
何哉	-10.4236
訛	-10.4238
污	-10.4239
米	-10.424
沾	-10.4241
滌	-10.4243
增上緣	-10.4243
炬	-10.4243
□	-10.4244
烈	-10.4247
所念之佛	-10.4247
帆	-10.4248
諸菩薩眾	-10.4253
唐譯	-10.4256
所欲	-10.4257
縱橫	-10.4265
戲論	-10.4266
二諦	-10.4271
生其國	-10.4272
及以	-10.4275
佛地	-10.4278
教令	-10.4279
勝緣	-10.428
化導	-10.4282
所為	-10.4285
上輩	-10.4289
滅後	-10.4294
皆具	-10.4295
尊重	-10.4295
真常	-10.4307
念到	-10.4312
亦必	-10.4319
普為	-10.432
依經	-10.4327
廣說	-10.4327
六種	-10.4347
說經	-10.4349
觀門	-10.4351
駕	-10.4355
恃	-10.4357
一片	-10.4357
叉	-10.4358
殆	-10.4364
自利利他	-10.4365
之數	-10.4366
卿	-10.4366
出生死	-10.4368
宗旨	-10.4368
醉	-10.4368
戒定慧	-10.4369
聞說阿彌陀佛	-10.4372
欲生我國	-10.4381
三福	-10.4387
同志	-10.4389
僧祇	-10.4391
至極	-10.4394
歸去來	-10.4398
向上	-10.44
不顧	-10.441
如實	-10.441
何曾	-10.4413
久久	-10.4414
八苦	-10.443
十方眾生	-10.443
忍力	-10.4432
自慶	-10.4454
悲智	-10.4455
宛	-10.446
身相	-10.4465
此時	-10.4469
其子	-10.4475
謙	-10.4476
華池	-10.4476
晝夜六時	-10.448
蓮宗寶鑑	-10.448
河沙	-10.4481
撫	-10.4481
金銀	-10.4483
雖復	-10.4483
甚麼	-10.4484
囚	-10.4484
維摩	-10.4485
尾	-10.4486
佛陀	-10.4486
西域	-10.4486
嗣	-10.4488
誹謗	-10.4491
無病	-10.4492
百寶	-10.4499
增進	-10.4506
惡口	-10.451
千年	-10.4512
既云	-10.4518
寶網	-10.4519
同名	-10.452
念頭	-10.4537
空有	-10.4544
根器	-10.4546
大悲心	-10.4548
塵塵	-10.4549
有十	-10.4552
影現	-10.4554
人情	-10.4559
久之	-10.4563
禮念	-10.457
靡	-10.4572
」【	-10.4575
但是	-10.4585
拳	-10.4594
各於其國	-10.4595
概	-10.4596
六通	-10.4596
輯	-10.4599
鄰	-10.4599
上人	-10.46
敏	-10.4601
稽	-10.4601
隆	-10.4601
圓光	-10.4602
春秋	-10.4602
所行	-10.4604
一如	-10.4605
狗	-10.4605
罵	-10.4607
償	-10.4607
蓮池大師	-10.4609
往生安樂國	-10.4611
相與	-10.4611
猛利	-10.4615
既有	-10.4622
憶佛念佛	-10.4622
則非	-10.4623
同前	-10.4629
此書	-10.463
十力	-10.4634
力故	-10.4647
歸於	-10.4648
亦以	-10.465
樂國	-10.4658
三十六	-10.4662
聞經	-10.4669
之前	-10.4677
眾生生者	-10.4678
可也	-10.468
死後	-10.4684
故稱	-10.4686
正示	-10.471
全身	-10.4713
展	-10.4717
燃	-10.4718
公案	-10.4722
臘	-10.4722
慰	-10.4722
創	-10.4722
髻	-10.4724
獸	-10.4725
寐	-10.4728
永嘉	-10.4731
是法	-10.4735
劫濁	-10.4749
生彼土	-10.4762
得生彼	-10.4766
邪正	-10.4766
永斷	-10.4774
六者	-10.4776
▁四	-10.4777
寶蓮華	-10.4784
諸法實相	-10.4786
必得	-10.4811
彌陀淨土	-10.4812
無分	-10.4813
修德	-10.4814
今謂	-10.4825
修西方	-10.4831
不解	-10.4831
孟	-10.4836
揮	-10.4837
化為	-10.4838
不拘	-10.4841
少年	-10.4842
役	-10.4843
兩土	-10.4844
萬年	-10.4845
鄭	-10.4846
巡	-10.4847
庶幾	-10.4848
乙	-10.4849
教觀	-10.4849
只此一念	-10.4849
逮	-10.4849
皈依	-10.485
正定聚	-10.4851
毘	-10.4851
今日道場同	-10.4853
外有	-10.4856
加被	-10.4867
消息	-10.487
真妄	-10.4872
明月	-10.4878
經歷	-10.4882
若干	-10.4883
人心	-10.4884
不巳	-10.489
無著	-10.4894
決無	-10.4895
常見	-10.4899
安能	-10.49
皆當	-10.4901
福田	-10.4901
者哉	-10.4903
紫金	-10.4905
疾病	-10.4913
思議	-10.4917
一云	-10.4926
後人	-10.4926
著相	-10.4928
念一佛	-10.4932
末後	-10.4937
號阿彌陀	-10.4941
報盡	-10.4944
無他	-10.4956
意在	-10.4959
甯	-10.4962
剎中	-10.4962
援	-10.4963
必先	-10.4965
真言	-10.4965
辱	-10.4965
三際	-10.4966
欠	-10.4967
皎	-10.4967
革	-10.4967
欄	-10.4969
覔	-10.497
叮	-10.4971
伸	-10.4973
秉	-10.4974
睡眠	-10.4975
邑	-10.4978
羅網	-10.4979
廟	-10.498
深信因果	-10.4983
道理	-10.4985
八地	-10.4986
能感	-10.4989
於人	-10.499
愛河	-10.4991
妄言	-10.5004
行門	-10.5008
廣度眾生	-10.5009
合成	-10.5011
眼前	-10.5012
即非	-10.5014
純一	-10.5016
勸君	-10.5019
全無	-10.502
來世	-10.5021
何事	-10.5026
惟有	-10.5027
天如	-10.5033
憶佛	-10.5036
十餘	-10.5037
境觀	-10.5047
皆同	-10.505
身口意	-10.505
眾聖	-10.5054
身中	-10.5057
長壽	-10.5061
離念	-10.5079
湛	-10.508
生彼國土	-10.5081
成功	-10.5085
徧覆三千大千世界	-10.5091
匠	-10.5091
土淨	-10.5092
懇	-10.5093
初句	-10.5093
逈	-10.5094
龍舒淨土文	-10.5094
疊	-10.5095
隣	-10.5096
擎	-10.5097
其說	-10.5098
世世	-10.5099
賣	-10.51
玅觀	-10.51
填	-10.51
國中天人	-10.51
一言	-10.5101
牢獄	-10.5101
阿僧祇	-10.5102
膿血	-10.5102
飲酒	-10.5107
脫輪迴	-10.511
四果	-10.5111
當時	-10.5111
無外	-10.5112
△	-10.5117
安樂世界	-10.512
文義	-10.5134
是何	-10.5139
要須	-10.5139
一點	-10.5143
恩愛	-10.5151
可憐	-10.5152
帝王	-10.5157
往生彼國	-10.5158
百千萬	-10.5158
雖未	-10.5161
三法	-10.5163
古德	-10.5165
具有	-10.5168
忉利天	-10.5169
毫相	-10.5172
端正	-10.5177
徧法界	-10.518
皆名	-10.5183
回光	-10.5186
本經	-10.5186
淨土文	-10.5195
無垢	-10.5201
生極樂世界	-10.5202
雖云	-10.5202
既爾	-10.5219
罕	-10.522
屏	-10.522
喧	-10.5224
捨身	-10.5227
製	-10.5228
而入	-10.5228
勿念	-10.5228
未生	-10.523
奇特	-10.523
命欲終時	-10.5232
棺	-10.5234
西方合論	-10.5237
羅剎	-10.5238
三惡道	-10.5243
初住	-10.5245
何名	-10.525
多矣	-10.5251
不問	-10.5264
凡人	-10.5264
習氣	-10.5264
金剛經	-10.5265
之土	-10.5269
中人	-10.5277
虛妄	-10.5277
具三	-10.5283
何異	-10.5285
周徧	-10.5287
誓不	-10.5289
諦信	-10.529
普賢菩薩	-10.5291
不專	-10.5299
如彼	-10.5301
巳來	-10.5305
徧照	-10.5305
四寶	-10.5322
五年	-10.5326
之性	-10.5329
悟道	-10.533
不勝	-10.5332
熾	-10.5335
在目前	-10.5338
娑婆苦	-10.5339
空過	-10.5339
三句	-10.5339
業緣	-10.5345
四月	-10.5348
酸	-10.535
迫	-10.5352
三月	-10.5352
寓	-10.5353
逗	-10.5353
輙	-10.5353
覲	-10.5354
艱	-10.5354
柳	-10.5355
聾	-10.5355
秀	-10.5355
限量	-10.5358
劒	-10.5359
添	-10.5359
栽	-10.5361
虞	-10.5361
是果	-10.5362
玩	-10.5362
善行	-10.5364
誣	-10.5364
獵	-10.5366
痛苦	-10.5376
回頭	-10.5376
超越	-10.5378
體用	-10.5378
方是	-10.5383
法界身	-10.5391
此處	-10.5391
即能	-10.5409
佛乘	-10.5411
雙照	-10.5412
未了	-10.542
廣度	-10.5422
多有	-10.5428
不息	-10.5429
親屬	-10.543
往昔	-10.5431
悲願	-10.5435
樂土	-10.544
體性	-10.5449
散善	-10.5451
無苦	-10.5453
彌陀世尊	-10.5454
經題	-10.5461
抵	-10.5464
惟願	-10.5465
而今	-10.547
受報	-10.5471
身光	-10.5474
此間	-10.5478
聞巳	-10.5481
此世界	-10.5483
豆	-10.5483
老實	-10.5483
梅	-10.5484
扇	-10.5486
攻	-10.5486
啼	-10.5486
腸	-10.5487
即名	-10.5489
幹	-10.5489
步步	-10.5491
出世之	-10.5493
塵緣	-10.5501
今既	-10.5507
▁南無觀世音菩薩	-10.5509
長養	-10.5511
不染	-10.5512
流布	-10.5512
信樂	-10.5513
一切惡	-10.5513
本體	-10.5514
垂手	-10.5516
巳生	-10.5524
或謂	-10.5526
先明	-10.5526
修行人	-10.5532
心源	-10.5533
令眾生	-10.5539
老病	-10.5543
若謂	-10.5543
教中	-10.5544
妙華	-10.5545
白蓮	-10.555
久住	-10.5558
他受用	-10.5566
作惡	-10.5571
百餘	-10.5578
邊地	-10.5584
一真	-10.5586
頂上	-10.5587
彼方	-10.56
訖	-10.56
聖號	-10.5601
三初	-10.5604
瑪瑙	-10.5607
趺	-10.5613
無形	-10.5613
旬	-10.5615
奴	-10.5617
廬	-10.5617
呂	-10.5618
闍	-10.5618
寒暑	-10.5618
苑	-10.5619
世緣	-10.5619
扣	-10.5619
淪	-10.562
庚	-10.562
屍	-10.5621
不死	-10.5623
修多羅	-10.5624
賦	-10.5626
電	-10.5626
曜	-10.5626
勅	-10.5627
恚	-10.5627
六度萬行	-10.5629
蓮胎	-10.5632
流浪	-10.5633
未斷	-10.5637
諸功德	-10.5639
輔正	-10.5643
無情	-10.5644
古德云	-10.5647
悉是	-10.5649
五蘊	-10.5649
難逃	-10.5654
願生西方	-10.5658
不被	-10.5659
而至	-10.5661
成熟	-10.5675
哀哉	-10.5679
惟心淨土	-10.5681
一種	-10.5684
易成	-10.5687
一事	-10.5688
放光明	-10.5693
中輩	-10.5701
數珠	-10.571
觀彼	-10.5712
一年	-10.5714
徧十方	-10.5719
不分	-10.5721
又以	-10.5723
退失	-10.5727
一朝	-10.5729
善事	-10.5734
七者	-10.5736
難識	-10.5737
利生	-10.5741
襍	-10.5749
事事無礙	-10.5751
料	-10.5751
坦	-10.5752
踰	-10.5753
募	-10.5756
慈心不殺	-10.5757
茂	-10.5758
踐	-10.5759
後身	-10.5759
無有是處	-10.5759
楞嚴云	-10.576
驅	-10.5761
鍊	-10.5762
捉	-10.5762
甫	-10.5765
諸方	-10.5766
大心	-10.5766
此三昧	-10.5767
龕	-10.577
▁南無大勢至菩薩	-10.5772
因循	-10.5772
決志	-10.578
病人	-10.5781
何因	-10.5787
墮惡道	-10.579
面目	-10.5792
身口	-10.5792
常得	-10.5793
化度	-10.5795
吾人	-10.5799
助行	-10.5799
蒙佛	-10.5802
徹悟	-10.5803
善女人	-10.5809
牒	-10.5813
為先	-10.5813
攝持	-10.5823
淨行	-10.5825
能詮	-10.5829
三曰	-10.5831
無女人	-10.5831
我輩	-10.5841
皆因	-10.585
之談	-10.5855
信力	-10.5859
上上	-10.5862
曰吾	-10.5865
默念	-10.5869
百千億	-10.5873
難易	-10.588
二十三	-10.588
隅	-10.5887
惰	-10.5888
靠	-10.5888
比邱	-10.5889
茅	-10.589
恰	-10.5891
育	-10.5893
英	-10.5895
眼見	-10.5895
諷	-10.5895
忽見	-10.5897
探	-10.5897
蜜	-10.5898
纂	-10.5899
剋	-10.5899
無有眾苦	-10.59
針	-10.59
貪瞋	-10.5903
不肖	-10.5903
十方如來	-10.5907
受戒	-10.5908
南無阿彌陀佛南無阿彌陀佛	-10.5911
相對	-10.5914
遍滿	-10.5918
非實	-10.5922
應化	-10.5923
化他	-10.5924
不可言	-10.5924
顯示	-10.5924
著力	-10.5933
少時	-10.5935
華座	-10.5935
即念	-10.5936
佛法僧	-10.5944
種種莊嚴	-10.5945
僧俗	-10.5947
極苦	-10.5951
父子	-10.5956
應供	-10.5965
世俗	-10.5968
不獨	-10.5969
持齋戒	-10.5971
勝境	-10.6005
教法	-10.6009
脫苦	-10.6014
依正莊嚴	-10.6021
珊	-10.6022
鶴	-10.6022
鎮	-10.6023
畢命為期	-10.6024
神仙	-10.6026
豈知	-10.6027
逼迫	-10.6028
整	-10.6028
朽	-10.6028
虔	-10.6029
廁	-10.603
之上	-10.603
複	-10.603
臨終時	-10.6031
此約	-10.6031
枕	-10.6034
橫截	-10.6035
剌	-10.6035
轉法輪	-10.6035
爰	-10.6037
肉髻	-10.6038
怯	-10.604
楞嚴經	-10.6043
菩提道	-10.6045
低聲	-10.6046
法輪	-10.6047
不止	-10.6055
二十一	-10.6063
虗空界	-10.6069
所依	-10.6088
能見	-10.6089
塵剎	-10.6089
得失	-10.6099
戒律	-10.6104
相見	-10.611
猛火	-10.6112
方寸	-10.6112
退墮	-10.6114
持呪	-10.6115
法王子	-10.6118
業報	-10.612
定中	-10.6129
六年	-10.6133
直心	-10.6136
神足	-10.6136
化主	-10.614
若見	-10.6141
種性	-10.6141
了達	-10.6142
眾罪	-10.6145
其志	-10.6146
乃知	-10.6148
菩薩行	-10.6149
大經	-10.615
心要	-10.615
染淨	-10.615
能滅	-10.615
之所以	-10.6159
未可	-10.6159
皈	-10.616
攀	-10.6161
灑	-10.6163
螺	-10.6165
肇	-10.6168
慘	-10.6168
東坡	-10.6168
介爾	-10.6168
洛	-10.6169
線	-10.6169
範	-10.6171
占	-10.6172
嚴飾	-10.6173
項	-10.6173
凶	-10.6173
腦	-10.6173
警䇿	-10.6173
滅八十億劫生死重罪	-10.6174
汎	-10.6174
粒	-10.6175
常寂光土	-10.6178
旃	-10.6178
現在說法	-10.6178
轍	-10.6179
丘	-10.618
歷歷	-10.618
作善	-10.6183
▁南無清淨大海眾菩薩	-10.6184
所緣	-10.6187
天魔	-10.6191
教門	-10.6199
不落	-10.6201
五塵	-10.6205
精誠	-10.6207
釋之	-10.6214
或說	-10.6221
明白	-10.6222
圓修	-10.6222
藏經	-10.6232
死苦	-10.6232
能說	-10.6241
修慧	-10.6246
多聞	-10.6247
三十年	-10.625
而不信	-10.6252
畢竟空	-10.626
信根	-10.6262
隨分	-10.6268
結成	-10.6268
妙行	-10.6269
有量	-10.6271
寶王	-10.6271
想念	-10.6277
天真	-10.6278
化去	-10.6279
四義	-10.6282
維摩經	-10.6285
一夕	-10.6286
先後	-10.6286
亡者	-10.6287
之恩	-10.6291
先須	-10.6293
法性身	-10.6295
稱阿彌陀佛	-10.6298
砂	-10.6301
樣	-10.6308
莫著人間樂	-10.6308
)」「	-10.6309
津梁	-10.631
尅	-10.6311
拯	-10.6311
潭	-10.6313
諸仁者	-10.6314
浩	-10.6314
湧	-10.6315
定心	-10.6316
緇素	-10.6316
祀	-10.6317
愚夫愚婦	-10.6317
纏縛	-10.6317
主伴	-10.6318
娛	-10.6318
狐疑	-10.6319
亥	-10.6319
射	-10.6319
能念之心	-10.6321
天下之	-10.6321
柔	-10.6322
智者大師	-10.6324
肆	-10.6325
碑	-10.6325
自度	-10.6325
漏盡	-10.6342
無極	-10.6344
不休	-10.6346
普願	-10.6348
南無西方阿彌陀佛	-10.6349
無比	-10.635
稱揚	-10.6354
大明	-10.6361
所引	-10.6361
死心	-10.6364
能發	-10.6369
口誦	-10.6373
本願力	-10.6373
善巧	-10.6375
南北	-10.6382
念佛一門	-10.6384
諸佛如來	-10.6385
若一日	-10.6389
幾時	-10.6391
三卷	-10.6395
殊不知	-10.6396
不相違	-10.6398
歸元	-10.64
無想	-10.6405
到處	-10.6405
無色界	-10.6409
初學	-10.641
暫時	-10.6424
華嚴云	-10.6424
池水	-10.6425
說偈	-10.6425
結使	-10.6434
而終	-10.6439
同居淨土	-10.6441
令生	-10.6441
無量法門	-10.6442
若聞	-10.6443
法喜	-10.6444
廣長舌	-10.6445
繪	-10.6456
灌	-10.646
詔	-10.646
煖	-10.646
軟	-10.646
耆	-10.646
紫金臺	-10.6461
綠	-10.6463
無央數	-10.6464
儻	-10.6464
嬰兒	-10.6466
馬鳴	-10.6467
信願持名	-10.647
感佛	-10.6477
三賢	-10.648
不悟	-10.6488
一首	-10.649
報化	-10.6495
罪惡	-10.6497
微塵數	-10.6498
一切人	-10.6501
凡愚	-10.6505
結示	-10.6506
太虗	-10.6512
至道	-10.6522
非常	-10.6529
下輩	-10.6538
歸心	-10.654
初牒	-10.6548
容易	-10.655
骨肉	-10.6557
二十八	-10.6563
奉勸	-10.6563
可信	-10.6566
善緣	-10.6568
不散	-10.6569
二千	-10.6572
略舉	-10.6575
如虗空	-10.6594
至誠心	-10.6594
▁「	-10.6599
諸子	-10.6601
大力	-10.6603
萌	-10.6604
翼	-10.6604
吏	-10.6604
品位	-10.6605
錦	-10.6606
祐	-10.6606
佳	-10.6606
下結	-10.6607
至心信樂	-10.661
籌	-10.661
瓊	-10.6611
評	-10.6611
牙	-10.6611
嗜	-10.6613
薪	-10.6614
闡提	-10.6614
貧窮	-10.6615
妙心	-10.6615
毛孔	-10.6617
四門	-10.6618
依教	-10.662
貪戀	-10.6621
七月	-10.6623
往生阿彌陀佛國	-10.6623
理觀	-10.6624
口中	-10.6627
慈氏	-10.6631
天子	-10.6631
漸漸	-10.6634
佛以	-10.6635
依舊	-10.6641
來迎接	-10.6642
別圓	-10.6646
之流	-10.6649
唯心之	-10.6649
上聲	-10.665
大意	-10.6652
造作	-10.6656
甚矣	-10.6656
一聲佛	-10.6657
西來	-10.6659
憐憫	-10.6661
妙宗鈔	-10.6677
宿業	-10.6683
塵劫	-10.6683
禪淨	-10.6692
至理	-10.6694
有六	-10.6697
形像	-10.6699
鈔云	-10.6704
五色	-10.6704
食時	-10.6705
六方諸佛	-10.6718
智力	-10.6724
正當	-10.6725
華果	-10.6729
二約	-10.6731
如雲	-10.6732
下生	-10.6737
一分	-10.674
終時	-10.6744
善哉	-10.6744
循環	-10.675
催	-10.6753
卜	-10.6753
滅除	-10.6753
老子	-10.6754
攬	-10.6754
惶	-10.6754
痴	-10.6755
僊	-10.6756
狐	-10.6756
姚	-10.6756
銘	-10.6758
忻厭	-10.6758
諸大乘經	-10.6759
磬	-10.6759
無始以來	-10.6761
勳	-10.6765
夫婦	-10.6765
話頭	-10.6766
入涅槃	-10.6771
八部	-10.6774
坐臥	-10.6776
真身	-10.6779
世出世間	-10.6779
頓教	-10.6781
眾惡	-10.6787
)。「	-10.6789
相好光明	-10.679
精舍	-10.6791
法法	-10.6795
平時	-10.681
法施	-10.6817
古人云	-10.6822
視之	-10.6825
得成佛	-10.6826
中陰	-10.6832
相貌	-10.6834
藥師	-10.6846
聖果	-10.6852
善道	-10.6855
實非	-10.6868
智照	-10.688
有限	-10.6902
崖	-10.6903
叔	-10.6903
薩	-10.6904
彌勒菩薩	-10.6904
神識	-10.6905
剛	-10.6905
但受諸樂	-10.6905
大臣	-10.6906
涌	-10.6907
酉	-10.6907
婢	-10.6907
寅	-10.6908
應念	-10.6908
下接高讚云	-10.6908
鳳	-10.6909
農	-10.691
俊	-10.6911
泥犁	-10.6911
朔	-10.6912
粟	-10.6913
鼎	-10.6914
譽	-10.6915
舞	-10.6916
接引導師	-10.6916
樓臺	-10.6917
。】○	-10.6919
歸去	-10.6922
得人身	-10.6922
攀緣	-10.6923
三根	-10.6926
草木	-10.6927
修念佛三昧	-10.6933
誠言	-10.6934
弘誓	-10.6936
寂然	-10.6941
難陀	-10.695
出現	-10.6956
罪福	-10.6964
聽法	-10.6965
世自在王佛	-10.6965
儒家	-10.6969
真切	-10.6971
佛所說	-10.6972
宣說	-10.6972
菩薩曰	-10.6973
元年	-10.6975
殺害	-10.6988
釋氏	-10.6989
苦口	-10.699
猶是	-10.7011
楞嚴經云	-10.7019
見如來	-10.7021
寶王論	-10.7021
勸進	-10.7026
靈山	-10.7027
至矣	-10.7029
念佛求生	-10.7033
初列	-10.7045
寶所	-10.7049
說妙法	-10.7051
瓜	-10.7052
檢	-10.7053
貪瞋癡	-10.7053
真俗	-10.7054
利人	-10.7057
迥	-10.7057
兆	-10.7057
暖	-10.7058
臆	-10.7058
畔	-10.7059
然臂香	-10.7059
漂	-10.7059
羞	-10.706
件	-10.7061
替	-10.7061
雁	-10.7061
掉	-10.7061
濕	-10.7065
醍	-10.7065
須達	-10.7065
心淨土淨	-10.7068
十餘年	-10.7069
優曇	-10.7069
奮	-10.7069
刃	-10.7074
譬喻	-10.7075
瞋恚	-10.7081
授手	-10.7084
良久	-10.7089
妙理	-10.709
理具	-10.7092
侍者	-10.7093
昏迷	-10.7094
專意	-10.7095
小果	-10.7104
」(	-10.7105
?』	-10.7106
消除	-10.7112
同居淨	-10.7112
供養諸佛	-10.7115
三智	-10.7117
貪著	-10.712
境緣	-10.712
梵網	-10.7122
可知矣	-10.7127
作是念	-10.7131
徧滿	-10.7132
一心持名	-10.7133
力行	-10.7135
釋云	-10.7136
凡情	-10.7137
念誦	-10.7144
不知其	-10.7145
無記	-10.7155
可悲	-10.7169
皆令	-10.718
相關	-10.7181
大王	-10.7184
不能盡	-10.7192
隨時	-10.7193
國師	-10.7195
尚未	-10.7201
異方便	-10.7203
聰	-10.7205
叢	-10.7211
十月	-10.7212
綫	-10.7212
翠	-10.7213
央	-10.7215
刺	-10.7215
貪嗔癡	-10.7216
赫	-10.7217
哆	-10.7217
肅	-10.7218
闡揚	-10.7219
亭	-10.7219
揭	-10.722
乾坤	-10.7221
震旦	-10.7223
犬	-10.7224
裟	-10.7227
焦	-10.7228
甚易	-10.7231
南無文殊師利菩薩	-10.7232
1	-10.7233
豁然	-10.7233
華中	-10.7236
歷代	-10.7236
四德	-10.724
決不	-10.7243
淨剎	-10.7245
無量劫來	-10.7245
威力	-10.7246
欲求	-10.7254
惡逆	-10.7256
十二部經	-10.7259
推之	-10.7259
惑亂	-10.7263
忘失	-10.7271
各自	-10.7271
住於	-10.7281
八十億劫	-10.7289
卷上	-10.7293
六念	-10.7297
如須彌山	-10.7308
其功	-10.731
諸菩薩摩訶薩	-10.7313
千珠	-10.7314
久遠	-10.7315
字字	-10.7319
王宮	-10.7321
慧遠	-10.7338
至于	-10.7344
一心頂禮	-10.7346
無緣慈	-10.7361
訂	-10.7367
倐	-10.7371
麻	-10.7373
爾等	-10.7373
趁	-10.7373
汗	-10.7374
雀	-10.7376
眉間白毫	-10.7376
沐浴	-10.7376
刀兵	-10.7378
蓮開	-10.7378
牆	-10.7379
蕅益	-10.7379
大千世界	-10.738
如我今者	-10.738
應時即	-10.7381
窟	-10.7381
彭	-10.7381
二乘種不生	-10.7382
衲	-10.7382
安慰	-10.7383
拜下想	-10.7383
濃	-10.7384
慾	-10.7384
不假方便	-10.7385
又復歸依如是	-10.7385
慈航	-10.7387
朕	-10.7393
多善根	-10.7394
大悟	-10.7394
無量諸佛	-10.7397
般若波羅蜜	-10.7399
利養	-10.7399
累劫	-10.7403
動靜	-10.7408
造逆	-10.741
如華嚴	-10.7415
小兒	-10.7415
常照	-10.7422
八德	-10.7423
極果	-10.7428
則自性	-10.7428
四色	-10.743
胸中	-10.7438
到彼	-10.744
哀憐	-10.7448
四年	-10.7456
余曰	-10.7456
稱名號	-10.746
遞相	-10.7462
華開見佛	-10.7472
發菩提	-10.7474
四禪	-10.7475
勸往生	-10.7475
何足	-10.7477
得無生法忍	-10.7478
禮誦	-10.7483
六趣	-10.7485
勸令	-10.7485
永不	-10.7488
安然	-10.7492
宗教	-10.7494
十門	-10.7495
魔王	-10.75
無量壽經云	-10.7505
父王	-10.7509
體空	-10.7516
硨磲	-10.7524
如是我聞	-10.753
二百五十	-10.7531
漚	-10.7534
燕	-10.7535
古崑	-10.7536
黃金為地	-10.7537
形骸	-10.7539
沐	-10.754
上品中生	-10.754
鎖	-10.7541
遐	-10.7542
金剛臺	-10.7543
梓	-10.7543
儼然	-10.7546
剃	-10.7548
歸依世間大慈悲父	-10.755
三祇	-10.755
▁南無普賢菩薩	-10.7557
若不生者	-10.7557
殺業	-10.7558
寶林	-10.7566
即性具	-10.757
雜亂	-10.7571
周遍	-10.7572
無量眾生	-10.7575
初後	-10.7577
同居土	-10.7578
已上	-10.7582
若爾	-10.7584
偏讚	-10.759
首楞嚴	-10.7597
念佛求生淨土	-10.7605
專注	-10.7606
數百	-10.7608
若夫	-10.7609
剎土	-10.761
一期	-10.7612
禮讚	-10.7619
諸如來	-10.7625
救護	-10.7636
佛世尊	-10.7642
不廢	-10.7646
所變	-10.7646
變現	-10.7649
未證	-10.765
出沒	-10.7653
或現	-10.7654
念三寶	-10.7655
若據	-10.7658
無所得	-10.766
除滅	-10.766
、《	-10.7663
應須	-10.7665
身量	-10.7666
六識	-10.7671
。』」	-10.7672
誰知	-10.7684
沼	-10.7694
衣裓	-10.7695
現在其前	-10.7696
筏	-10.7696
昨	-10.7697
壓	-10.7697
裝	-10.7697
得阿羅漢	-10.77
鴈	-10.77
貧賤	-10.77
根缺	-10.77
癸	-10.7701
皷	-10.7701
市	-10.7702
妖	-10.7702
髓	-10.7703
若有善男子善女人	-10.7703
零	-10.7703
幽溪	-10.7703
生老病死	-10.7703
是人終時	-10.7704
安可	-10.7705
勾	-10.7705
樹下	-10.7708
調伏	-10.7709
詠	-10.7709
算數	-10.7711
萬事	-10.7713
不生淨土	-10.7716
晦菴	-10.7722
化作	-10.7724
大德	-10.7729
醫王	-10.7736
心量	-10.7737
隨類	-10.7739
五百歲	-10.7742
兩舌	-10.7744
肉眼	-10.7744
未審	-10.7748
諸弟子	-10.7752
貪愛	-10.7754
往生論	-10.7756
罪滅	-10.7759
有十種	-10.7761
願求生	-10.7762
修學	-10.7763
性海	-10.7771
當機	-10.7777
法華經云	-10.7787
東土	-10.7787
於斯	-10.7798
恒沙諸佛	-10.7805
愛欲	-10.7807
梵網經	-10.7812
清風	-10.7813
夜夢	-10.7815
焉能	-10.7819
香光	-10.7823
求往生	-10.7826
物命	-10.7829
郎	-10.7831
無間斷	-10.7835
異類	-10.7838
玻瓈	-10.7861
柰	-10.7861
閻羅	-10.7863
厲	-10.7864
噉	-10.7864
怎	-10.7865
暑	-10.7865
迨	-10.7865
衍	-10.7867
奄	-10.7867
報佛恩	-10.7867
炳	-10.787
與諸聖眾	-10.787
衢	-10.7871
凉	-10.7871
舜	-10.7872
恍	-10.7874
隨願往生	-10.7874
腰	-10.7875
庫	-10.7876
模	-10.7876
粥	-10.7878
綺語	-10.7879
其人臨命終時	-10.788
早晚	-10.7881
奉佛	-10.7884
發大心	-10.7889
生平	-10.7891
八月	-10.7891
卷下	-10.7892
生我剎	-10.7893
▁南無寶	-10.7897
二十二	-10.7898
命濁	-10.7902
苦趣	-10.7906
一條	-10.7908
無量壽如來	-10.7909
流水	-10.7913
功德莊嚴	-10.7916
金地	-10.7919
滅盡	-10.7923
得菩提	-10.7925
無量功德	-10.7926
彌陀佛國	-10.7928
念佛一聲	-10.793
一代	-10.7932
藏通	-10.7945
得念佛三昧	-10.7948
飯食	-10.7948
亦得往生	-10.7951
云爾	-10.7955
長夜	-10.7958
可惜	-10.7959
歡喜地	-10.7963
眾鳥	-10.7963
風樹	-10.7969
雖知	-10.7989
妙用	-10.7994
下劣	-10.8003
未來世	-10.8007
每一	-10.801
七種	-10.8016
如何是	-10.8023
離苦	-10.8026
彈	-10.8029
故名極樂	-10.8029
綺	-10.8029
二年	-10.8031
精修	-10.8032
呌	-10.8034
纖	-10.8034
翅	-10.8035
曷	-10.8035
挂	-10.8036
呼吸	-10.8037
侍郎	-10.8037
慈雲懺主	-10.8038
魯	-10.804
懇切	-10.8041
療	-10.8042
星宿	-10.8042
効	-10.8042
從來	-10.8043
別求	-10.8043
油	-10.8044
想成	-10.8055
逆順	-10.8057
見濁	-10.8063
調達	-10.8076
什	-10.8081
不謬	-10.8085
可比	-10.8088
白雲	-10.809
宿世	-10.8093
讀書	-10.8096
無始來	-10.8098
摩羅	-10.8098
辛苦	-10.81
西方樂	-10.8111
告曰	-10.8112
坐化	-10.8113
孰能	-10.8121
深淺	-10.8125
根塵	-10.8133
動念	-10.8136
迷惑	-10.8138
得阿耨多羅三藐三菩提	-10.8139
各隨	-10.8142
萬歲	-10.8158
一味	-10.8166
曾無	-10.8173
義理	-10.8186
而退	-10.8189
斷除	-10.8191
斯言	-10.8191
迂	-10.8198
挽	-10.8202
還來	-10.8203
崑	-10.8205
禪教律	-10.8205
出廣長舌	-10.8205
宗鏡錄	-10.8206
倉	-10.8207
侯	-10.8208
所住	-10.8211
貝	-10.8211
戚	-10.8211
槩	-10.8212
鋒	-10.8212
鬪	-10.8212
薰	-10.8213
不唐捐	-10.8215
衡	-10.8215
纖塵	-10.8217
祕	-10.8218
淳	-10.8218
惺惺	-10.8219
昔人	-10.8219
則佛土淨	-10.8219
律儀	-10.8219
真正	-10.822
岳	-10.8221
相與志心	-10.8222
禍福	-10.8222
隨其心淨	-10.8223
命終之時	-10.8223
阿含	-10.8226
徹底	-10.8226
眉間	-10.8226
第三階	-10.8228
心垢	-10.823
修諸功德	-10.8237
莊嚴淨土	-10.8246
一心正念	-10.8252
往生極樂	-10.8253
受記	-10.8254
懺法	-10.8259
易行	-10.8267
釋迦牟尼	-10.8276
了不可得	-10.8285
尤為	-10.8286
何日	-10.8288
四益	-10.8288
如之何	-10.8302
顯然	-10.8304
手執	-10.8305
往彼	-10.831
勤苦	-10.8317
淨其心	-10.8318
以此功德	-10.8337
樹林	-10.8344
信向	-10.8348
隨處	-10.8353
金蓮	-10.8354
天耳	-10.836
色像	-10.8371
竺	-10.8379
翳	-10.8379
欄楯	-10.838
波羅密	-10.8381
飡	-10.8383
陣	-10.8383
烟	-10.8383
杳	-10.8384
釆	-10.8385
霑	-10.8386
由來	-10.8386
於念念中	-10.8388
廉	-10.8388
瞞	-10.8388
誹謗正法	-10.8389
具縛凡夫	-10.8389
重重無盡	-10.839
上品下生	-10.839
吸	-10.8391
蒼	-10.8393
毗盧遮那	-10.8394
織	-10.8394
柔軟	-10.8394
臭穢	-10.8396
願共諸眾生	-10.8396
宣揚	-10.8397
結社	-10.8397
貢高	-10.84
書寫	-10.84
毒藥	-10.8402
而言之	-10.8409
延壽	-10.841
澄清	-10.841
教典	-10.8413
少分	-10.8413
一般	-10.8424
生兜率	-10.8426
無量壽國	-10.843
靡不	-10.844
大集經	-10.8443
尚爾	-10.8465
惡友	-10.8465
中諦	-10.8468
隨力	-10.8469
色聲	-10.8476
功德智慧	-10.8476
慧命	-10.8477
難免	-10.8477
說此經	-10.8478
離垢	-10.8481
眾生聞者	-10.8481
破惡	-10.8488
光色	-10.8496
普攝	-10.8498
歸家	-10.8499
慈光	-10.851
十卷	-10.8515
應現	-10.8519
寶珠	-10.8524
注想	-10.854
迎接	-10.8547
瞥	-10.8558
賞	-10.856
黎	-10.8561
異端	-10.8562
梨	-10.8563
唯除五逆	-10.8563
浙	-10.8563
琴	-10.8565
讓	-10.8567
伽陀	-10.8567
栴檀	-10.8568
臻	-10.8568
茫	-10.8569
陀羅	-10.8569
職	-10.857
貪嗔	-10.857
瓦礫	-10.8573
成等正覺	-10.8574
愛憎	-10.8575
千般	-10.8576
以是因緣	-10.8578
行願品	-10.8581
指南	-10.8582
急急	-10.8582
決定得生	-10.8586
普現	-10.8592
乞食	-10.8593
觀世音大勢至	-10.8599
賢首	-10.8602
此娑婆世界	-10.8604
十方三世一切	-10.8607
有邊	-10.8614
正直	-10.8614
可畏	-10.862
永絕	-10.862
脫生死	-10.8626
白衣	-10.8633
不求生	-10.8634
專志	-10.8636
八種	-10.8648
禪門	-10.8651
邪魔	-10.8656
無際	-10.867
上上品	-10.8671
我慢	-10.868
常寂	-10.8684
意業	-10.8686
梵王	-10.8704
有省	-10.8715
緒	-10.8733
腐	-10.8734
丑	-10.8735
誰能	-10.8739
戮	-10.8741
洋	-10.8741
牧	-10.8741
瞬	-10.8741
培	-10.8743
自得心開	-10.8744
寶座	-10.8744
搜	-10.8744
䖍	-10.8744
糧	-10.8745
幡	-10.8745
膽	-10.8745
劉遺民	-10.8745
杭	-10.8745
恥	-10.8746
邁	-10.8746
誇	-10.8746
拾	-10.8747
監	-10.8747
雕	-10.8747
從心想生	-10.8747
熙	-10.8748
俱會一處	-10.8748
手執香華常供養	-10.8749
沸	-10.8749
粉	-10.8749
嫉	-10.875
卯	-10.875
魏譯	-10.875
覧	-10.8751
袁	-10.8751
魏居士	-10.8753
瑜伽	-10.8754
初二句	-10.8755
額	-10.8756
枝葉	-10.8756
眾生濁	-10.8764
師友	-10.8768
煩惱濁	-10.877
邪婬	-10.8771
要門	-10.8774
果德	-10.878
初機	-10.8784
慈母	-10.8788
和南	-10.8788
機緣	-10.8791
稱佛號	-10.8803
實報土	-10.8808
安樂國	-10.881
諦聽	-10.8811
四十年	-10.882
教化眾生	-10.883
佛知見	-10.8832
無三惡道	-10.8842
更加	-10.8845
一滴	-10.8848
我淨樂	-10.8849
自己	-10.8864
九月	-10.8865
大歡喜	-10.8866
疑城	-10.8871
日輪	-10.8881
寶幢	-10.8883
聲聞眾	-10.8884
尚不能	-10.8888
諸佛護念	-10.8889
不暇	-10.8893
正由	-10.8896
念彌陀佛	-10.8901
無涯	-10.8902
閻	-10.8918
車輪	-10.8922
栖	-10.8924
萬德洪名	-10.8928
專持名號	-10.8928
蔬	-10.8929
揣	-10.8929
淨念相繼	-10.8929
汙	-10.8929
鑿	-10.893
撓	-10.8931
霧	-10.8932
鴻	-10.8932
永明壽禪師	-10.8932
直至成佛	-10.8932
定力	-10.8932
詰	-10.8933
攝取不捨	-10.8933
聞聲	-10.8934
漁	-10.8934
逕	-10.8934
下品中生	-10.8935
彌陀本願	-10.8935
帛	-10.8935
諸祖	-10.8935
緇	-10.8936
淋	-10.8937
昏沉	-10.8938
謁	-10.8938
煉	-10.8938
仗佛力	-10.8939
血肉	-10.8939
修十善業	-10.8939
慎勿	-10.8942
憎愛	-10.8943
徧一切處	-10.8944
拒	-10.8944
無所畏	-10.8945
今現在說法	-10.8948
是菩薩淨土	-10.8952
返照	-10.8953
一切三寶	-10.8953
念阿彌陀	-10.8955
分段生死	-10.8955
虫	-10.8955
堪忍	-10.8957
所牽	-10.8965
之一字	-10.8969
不退菩提	-10.8971
七寶莊嚴	-10.898
娑婆國土	-10.8992
七七日	-10.9004
向西方	-10.9004
千由旬	-10.9006
▁南無善	-10.9008
有三義	-10.9012
歲月	-10.9014
不移	-10.9019
徒眾	-10.902
一句佛	-10.9037
生死海	-10.9051
許多	-10.9054
利物	-10.907
不堪	-10.9075
各具	-10.9077
勤念佛	-10.9086
念南無阿彌陀佛	-10.9092
極樂世界阿彌陀佛	-10.9096
經中說	-10.9105
所致	-10.9108
鎻	-10.911
發無上道心	-10.9113
灼	-10.9113
鉤	-10.9114
秘密	-10.9114
唾	-10.9115
絃	-10.9115
善男子善女人	-10.9116
唇	-10.9117
森	-10.9117
吼	-10.9117
念佛念法念僧	-10.9118
潤澤	-10.9119
撮	-10.912
寂寂	-10.912
現其人前	-10.9121
非有非無	-10.9121
善導和尚	-10.9122
佑	-10.9122
繡	-10.9123
灌頂	-10.9124
韋	-10.9124
界內	-10.9125
允	-10.9125
膚	-10.9125
堯	-10.9125
敝	-10.9126
酥	-10.9126
戌	-10.9126
僕	-10.9128
讐	-10.9129
較量	-10.9132
不應食肉	-10.9133
彌陀經云	-10.9139
仁慈	-10.9142
維摩經云	-10.9155
門戶	-10.9159
舌根	-10.916
本源	-10.916
出輪迴	-10.9164
作佛事	-10.9168
退緣	-10.9178
悔過	-10.9182
一念不生	-10.9206
開敷	-10.9208
了悟	-10.9208
淨薉	-10.9212
一枝	-10.9218
破壞	-10.922
去聲	-10.9222
五百年	-10.9222
五臺	-10.9234
端嚴	-10.9236
上生經	-10.924
頌云	-10.9245
名之曰	-10.9251
勸人念佛	-10.927
台	-10.9291
梵云	-10.9293
汲	-10.9305
十惡五逆	-10.9307
卵	-10.9307
縈	-10.9307
不惜身命	-10.9308
衷	-10.9309
斜	-10.931
怙	-10.931
荊	-10.9311
地水火風	-10.9313
啻	-10.9313
蹈	-10.9314
昂	-10.9314
芬	-10.9314
遍覆三千大千世界	-10.9315
超三界	-10.9315
穴	-10.9316
躍	-10.9316
材	-10.932
恐怖	-10.9321
大事因緣	-10.9322
初又二	-10.9323
文殊普賢	-10.9324
除罪	-10.9337
住不退轉	-10.9339
柰何	-10.9339
家鄉	-10.9342
苦逼	-10.9365
結勸	-10.9368
火燒	-10.9368
忽爾	-10.9372
濁水	-10.9372
著述	-10.9379
語錄	-10.9384
百劫	-10.9388
兩忘	-10.9388
三災	-10.9393
六齋	-10.9394
臨終見佛	-10.9396
龍華	-10.9401
承上	-10.9409
贊曰	-10.9413
發大願	-10.9416
彌陀名號	-10.9419
志誠	-10.9424
旨趣	-10.9425
世諦	-10.9425
三七日	-10.9433
諸賢	-10.9438
護法	-10.9441
功能	-10.9443
安養國	-10.9444
託彼	-10.9445
無量無數	-10.9453
二十年	-10.9462
幻化	-10.9472
劫數	-10.9484
功用	-10.9484
有女人	-10.9485
彌陀佛彌陀佛	-10.9495
捧	-10.9498
楞伽經	-10.95
棒	-10.95
賺	-10.9502
須陀洹	-10.9505
串	-10.9505
堆	-10.9506
勘	-10.9507
隨緣不變	-10.9507
火坑	-10.9507
不變隨緣	-10.9508
寥	-10.9508
恬	-10.9508
四念處	-10.9508
泡	-10.951
紛紛	-10.9511
地獄餓鬼畜生	-10.9511
獅子	-10.9511
區	-10.9512
憚	-10.9512
裡	-10.9514
發無上菩提之心	-10.9514
竅	-10.9515
菜	-10.9516
俯	-10.9517
活計	-10.9518
初分科	-10.9518
阿鞞跋致	-10.9519
悖	-10.952
三種淨業	-10.952
如意足	-10.9521
下品上生	-10.9521
瞿	-10.9521
謨	-10.9522
礫	-10.9524
鹽	-10.9527
朝朝	-10.9528
珠網	-10.953
天台云	-10.9531
百千萬倍	-10.9532
微笑	-10.9534
塵垢	-10.9536
京師	-10.954
十號	-10.954
含靈	-10.9545
三拜	-10.9551
奇妙	-10.9562
傳燈	-10.9562
專念阿彌陀佛	-10.9567
諸經論	-10.9572
僧寶	-10.9577
脫離	-10.9584
耶答	-10.9584
天衣	-10.9588
忉利	-10.9604
濟度	-10.9604
遞	-10.9604
十念成就	-10.9609
第十三	-10.9616
切莫	-10.9636
心不亂	-10.9651
恩德	-10.9657
總攝	-10.9666
壽終	-10.967
詩云	-10.9672
不畏	-10.9674
直須	-10.9678
苦痛	-10.9683
匝	-10.969
函	-10.969
銀臺	-10.9693
孕	-10.9698
解第一義	-10.9699
舍衛	-10.9702
聯	-10.9703
榜	-10.9704
嶽	-10.9704
瀝	-10.9705
戴	-10.9705
熾盛	-10.9705
桃	-10.9705
具足眾戒	-10.9706
趙州	-10.9707
躭	-10.9707
是諸眾鳥	-10.9707
預知時至	-10.9708
放大光明	-10.9708
矜	-10.9708
於汝意云何	-10.9709
鈴	-10.971
寤	-10.971
熱惱	-10.971
鑊湯	-10.9711
如一念頃	-10.9711
惱亂	-10.9711
仇	-10.9712
乏	-10.9712
奢	-10.9713
羅什	-10.9715
驢	-10.9715
措	-10.9719
綱宗	-10.9719
若有信者	-10.972
增減	-10.9722
天台智者	-10.9723
婦女	-10.9726
爾時世尊	-10.9726
酪	-10.973
宋譯	-10.9732
淨佛國土	-10.9732
有四種	-10.9734
百千劫	-10.974
過去未來	-10.9747
偏空	-10.9753
相繼	-10.9761
十二年	-10.9762
財寶	-10.9772
聞妙法	-10.9787
不改	-10.9796
生疑惑	-10.9797
佛告彌勒	-10.9813
億劫	-10.9814
玉毫	-10.9814
約理	-10.982
千古	-10.9825
脩行	-10.9828
遺教	-10.9831
耳目	-10.9843
何益	-10.9844
傾心	-10.9845
聲聞菩薩	-10.9849
變作	-10.9859
施主	-10.986
然燈	-10.9869
講經	-10.9871
弘誓願	-10.9899
帳	-10.9899
彪	-10.99
氏子	-10.99
握	-10.9903
迭	-10.9907
慳	-10.9909
膺	-10.9909
訟	-10.9911
傑	-10.9912
皆得不退轉於阿耨多羅三藐三菩提	-10.9912
皆當往生	-10.9912
摘	-10.9912
三摩地	-10.9914
得生西方	-10.9914
魄	-10.9914
羨	-10.9915
校量	-10.9916
法華云	-10.9916
秖	-10.9916
不輟	-10.9916
徑路修行	-10.9916
迢	-10.9916
驟	-10.9916
皇帝	-10.9917
如入禪定	-10.9917
藝	-10.9919
中有二	-10.9919
照了	-10.992
兔	-10.9921
棘	-10.9923
如此愚人	-10.9923
光緒	-10.9923
改悔	-10.9925
主宰	-10.9926
寂默	-10.9927
禽獸	-10.993
芥子	-10.9931
閉目	-10.9932
回向發願	-10.9943
反覆	-10.9946
六波羅蜜	-10.9946
尊宿	-10.995
珍重	-10.9955
初正明	-10.9958
所載	-10.9961
蓮華臺	-10.9961
百味	-10.9961
具足十念	-10.9963
圓照	-10.9969
愛樂	-10.997
垂終	-10.9975
前程	-10.9994
無法不	-10.9995
下下品	-10.9995
是故當知	-11.0007
諸比丘	-11.0009
深恩	-11.0012
將何	-11.0017
無限	-11.0028
白玉	-11.0069
受輪迴	-11.0096
地藏	-11.0103
筋	-11.0108
奘	-11.0108
梵天	-11.0109
翻成	-11.0114
鬬	-11.0115
憤	-11.0115
荊棘	-11.0115
孩	-11.0117
水鳥	-11.0118
賈	-11.0119
疫	-11.012
衛	-11.012
蠅	-11.012
其土眾生	-11.012
娑	-11.012
枷	-11.0121
肝	-11.0121
奉事師長	-11.0122
僻	-11.0122
一心奉請	-11.0122
帀	-11.0122
偷盜	-11.0122
隙	-11.0122
鑄	-11.0122
異香滿室	-11.0123
宴	-11.0123
洎	-11.0125
脩羅	-11.0125
逞	-11.0125
韓	-11.0125
價	-11.0125
中品上生	-11.0126
携	-11.0126
爽	-11.0127
瞑	-11.0127
也如是念	-11.0127
磁	-11.0128
若二日	-11.0128
求生極樂	-11.0128
蓬	-11.0128
乾隆	-11.013
4	-11.0132
凌	-11.0133
▁南無當來彌勒佛	-11.0133
帶業往生	-11.0134
降伏	-11.0135
稱佛名號	-11.014
摸	-11.0141
內院	-11.0142
勤精進	-11.0143
賢愚	-11.0144
大抵	-11.0156
生天上	-11.0158
疑謗	-11.016
發四十八願	-11.0161
二釋義	-11.0161
顏色	-11.0161
淨土或問	-11.0178
熏修	-11.0208
任意	-11.022
定得往生	-11.0223
彼佛壽命	-11.0227
或有眾生	-11.0231
香氣	-11.0232
事畢	-11.0241
無退轉	-11.0246
盡虗空界一切三寶	-11.0253
演法	-11.0254
清淨莊嚴	-11.0262
同治	-11.0285
阿彌陀佛四字	-11.0288
生即無生	-11.0293
毫端	-11.0297
襟	-11.032
隻	-11.0321
頓超	-11.0324
擲	-11.0324
秘	-11.0324
其土有佛	-11.0325
瓏	-11.0326
亟	-11.0326
清淨本然	-11.0327
讖	-11.0328
爍	-11.0328
詢	-11.0329
嶺	-11.0329
輭	-11.033
炭	-11.033
清淨海眾	-11.0331
抽	-11.0333
嚮	-11.0334
不相妨	-11.0334
慣	-11.0334
壤	-11.0334
潮	-11.0334
壬	-11.0335
闊	-11.0335
軒	-11.0336
葬	-11.0337
除八十億劫生死之罪	-11.0338
諫	-11.0338
伎樂	-11.0339
其佛國土	-11.034
慨	-11.034
天上人間	-11.034
憍慢	-11.0343
龍舒居士	-11.0344
無所從來	-11.0345
眾生來生其國	-11.0347
胎獄	-11.0348
第八識	-11.0354
調和	-11.0356
與佛同	-11.0357
『	-11.037
攝化	-11.037
金容	-11.0377
智度論云	-11.0379
出世間法	-11.0385
田地	-11.0386
開導	-11.0389
大丈夫	-11.039
而後巳	-11.0392
凡聖同居	-11.0396
鬼畜	-11.0397
破見思	-11.0409
無邊際	-11.0411
誦持	-11.0413
思惑	-11.0415
太平	-11.0421
寶閣	-11.0425
相逢	-11.0427
和會	-11.0444
斷見思	-11.0452
以淨土為	-11.047
施戒	-11.0484
次句	-11.0486
縱令	-11.0544
別時意	-11.0545
踪	-11.0545
啄	-11.0546
酌	-11.0546
二釋經二	-11.0547
去則實不去	-11.0547
博地凡夫	-11.0548
絡	-11.0549
恢	-11.0549
離過絕非	-11.055
阿逸多	-11.055
蛤	-11.055
窗	-11.055
驀	-11.055
白鶴	-11.0551
擬議	-11.0552
牟尼	-11.0552
緯	-11.0553
伐	-11.0553
駭	-11.0555
擁	-11.0555
播	-11.0555
渺	-11.0557
百丈	-11.056
谿	-11.056
蹉	-11.0561
有所得	-11.0567
哀愍	-11.0567
阿鼻地獄	-11.057
香爐	-11.0571
求出離	-11.0573
血氣	-11.0575
淨邦	-11.0576
照十方國	-11.0578
極樂依正	-11.0578
專修淨業	-11.058
一日七日	-11.0586
主張	-11.0588
十二因緣	-11.0595
阿彌陀佛名號	-11.0596
神呪	-11.0603
高座	-11.0604
高聲念佛	-11.0609
蓮師	-11.0616
易行道	-11.0622
往生呪	-11.0629
仁王	-11.0631
涅槃經云	-11.0645
持佛名	-11.0671
於此世界	-11.0673
恭敬供養	-11.0679
功夫	-11.0695
苟能	-11.0722
殷	-11.0755
斤	-11.0761
生則決定生	-11.0768
萎	-11.0769
有世界名曰極樂	-11.0769
桓	-11.077
昆	-11.0771
不犯威儀	-11.0771
心想佛時	-11.0771
咨	-11.0771
各於其國出廣長舌相	-11.0771
帙	-11.0772
倖	-11.0772
中品下生	-11.0772
鱗	-11.0773
常樂我淨	-11.0773
輻	-11.0774
鑽	-11.0774
叫	-11.0774
無有出期	-11.0776
孺	-11.0776
怛	-11.0776
煑	-11.0777
救度	-11.0777
陰府	-11.0777
不可知數	-11.0778
蔭	-11.0778
茹	-11.0778
鷲	-11.0779
冊	-11.078
詐	-11.0782
禹	-11.0784
悲華經	-11.0785
摩頂	-11.0786
辟	-11.0786
▁一心敬禮	-11.0786
先德云	-11.0789
傲	-11.0792
少康	-11.0793
頭陀	-11.0801
回首	-11.0803
水陸	-11.0805
冤親	-11.0806
論議	-11.0808
流注	-11.0809
火聚	-11.0818
全彰	-11.082
起信論云	-11.0823
天帝	-11.0826
勢力	-11.0828
冤家	-11.0834
要緊	-11.0836
龍樹菩薩	-11.0836
輕微	-11.0841
故我頂禮	-11.0853
持五戒	-11.0855
婬欲	-11.0867
少善根	-11.0869
是故舍利弗	-11.087
數量	-11.0894
眼目	-11.0894
劫生死之罪	-11.0907
上中下	-11.0942
必得往生	-11.0967
大如車輪	-11.099
其數甚多	-11.0995
夾雜	-11.0996
悴	-11.0997
聳	-11.0997
一稱南無佛	-11.0997
敲	-11.0997
纖毫	-11.0998
殞	-11.0998
涵	-11.0998
抗	-11.0999
即得往生阿彌陀佛極樂國土	-11.1
突	-11.1001
弦	-11.1001
柴	-11.1001
拱	-11.1002
麥	-11.1002
乞士	-11.1003
□□□□	-11.1003
秘藏	-11.1003
一代時教	-11.1004
無問自說	-11.1004
聞我名字	-11.1004
揑	-11.1005
婆沙論	-11.1005
慈照宗主	-11.1005
毗盧	-11.1007
晃	-11.1007
瞽	-11.1012
簿	-11.1012
舒舌	-11.1012
清冷	-11.1015
丁寧	-11.1015
几	-11.1019
國土莊嚴	-11.102
證無生忍	-11.102
牽纏	-11.1021
波羅	-11.1021
普熏	-11.1028
正念現前	-11.103
一朵	-11.104
法華三昧	-11.1055
所觀境	-11.1056
位不退	-11.1072
十萬遍	-11.1074
徃	-11.1085
不休息	-11.1096
結集	-11.1107
九蓮	-11.1114
福壽	-11.1121
道場樂	-11.1146
遷流	-11.1155
什師	-11.1163
修十善	-11.1171
朵	-11.1176
當作佛	-11.1214
迅速	-11.122
我見是利	-11.1228
瑕	-11.1229
大圓鏡智	-11.1229
𢹂	-11.1229
彚	-11.1229
介	-11.123
儀軌	-11.1231
趙	-11.1232
天台智者大師	-11.1233
怡	-11.1233
膏	-11.1233
鼠	-11.1234
偉	-11.1234
仔細	-11.1234
中品中生	-11.1234
高接下讚云	-11.1235
攸	-11.1236
丙	-11.1237
父母妻子	-11.1238
蛆	-11.1238
盧舍那	-11.1238
無上深妙禪	-11.1238
登極樂	-11.1239
勇猛精進	-11.1239
嬉	-11.124
眷	-11.124
貽	-11.1241
慙愧	-11.1241
無二無別	-11.1244
直截	-11.1245
教行理	-11.1246
萬曆	-11.1246
殺盜婬	-11.1247
挍	-11.1249
毀謗	-11.1254
叵得	-11.1257
千差	-11.1268
無生而生	-11.1269
趨向	-11.1271
修菩薩行	-11.1273
篤信	-11.1273
慈愍	-11.1278
國中菩薩	-11.128
天冠	-11.1281
坐脫	-11.129
普被	-11.129
善逝	-11.1291
禮敬	-11.1295
紫金身	-11.1297
變造	-11.1305
寒山	-11.1311
繫緣	-11.1314
壇經	-11.1314
趣向	-11.1325
王氏	-11.1332
對待	-11.1338
七趣	-11.1348
階不退	-11.1378
造五逆	-11.1448
無數劫	-11.1455
貶	-11.1462
誦法華	-11.1462
喚醒	-11.1463
砌	-11.1463
炙	-11.1465
孜	-11.1465
字字分明	-11.1466
叶	-11.1467
崩	-11.1467
骸	-11.1467
樵	-11.1468
種善根	-11.1468
企	-11.1468
迅	-11.1469
柯	-11.147
不可以少善根福德因緣	-11.147
討	-11.147
翰	-11.147
范	-11.1471
榻	-11.1472
絲毫	-11.1472
級	-11.1472
丸	-11.1473
裁	-11.1473
八十隨形好	-11.1473
囉	-11.1474
迦陵頻伽	-11.1474
肎	-11.1475
爪	-11.1475
踊躍	-11.1475
旋繞	-11.1475
柏	-11.1476
忿	-11.1476
淨土晨鐘	-11.1476
藤	-11.1476
蕭	-11.1477
吝	-11.1478
廿	-11.1479
蚊	-11.1481
女人及根缺	-11.1482
諂	-11.1486
徒勞	-11.1487
高低	-11.1487
池中蓮華	-11.1496
達摩	-11.1499
進退	-11.1512
光景	-11.1516
其國眾生	-11.1522
中郎	-11.1526
親承	-11.1535
斷煩惱	-11.1546
可哀	-11.1558
十方盡虗空界一切	-11.1583
般舟三昧經	-11.1583
劣應	-11.1585
若人專念	-11.1627
盡無餘	-11.1636
兒女	-11.1691
趂	-11.1704
葷	-11.1704
法藏願云	-11.1705
耐	-11.1707
豫	-11.1708
鞋	-11.1708
呈	-11.1709
仕	-11.171
兒孫	-11.1712
𦦨肩	-11.1712
去佛不遠	-11.1713
亮	-11.1713
專稱名字	-11.1713
恙	-11.1714
羅睺羅	-11.1715
濂	-11.1715
哩	-11.1716
貨	-11.1716
勸進行者	-11.1716
登彼岸	-11.1717
紛飛	-11.1717
良繇	-11.1718
杭州	-11.1719
伴侶	-11.1719
入一切眾生心想中	-11.172
全性起修	-11.172
儔	-11.1721
詆	-11.1721
凡聖同居土	-11.1721
彥	-11.1722
2	-11.1722
正念分明	-11.1723
宗賾	-11.1723
閻羅王	-11.1723
本師釋迦牟尼佛	-11.1723
捕	-11.1725
帝網	-11.1726
輪迴六道	-11.1726
靈峯	-11.1726
洞徹	-11.1727
緊要	-11.1728
於一切時	-11.1729
互融	-11.1729
去此不遠	-11.1732
百川	-11.1734
鴿	-11.1736
聞佛所說	-11.1736
發揮	-11.1739
堂堂	-11.1744
念佛不輟	-11.1746
根鈍	-11.1749
短命	-11.175
照耀	-11.1752
攷證	-11.1754
不信因果	-11.1758
徧覆	-11.1758
比丘尼	-11.1776
田園	-11.1789
行菩薩道	-11.179
青蓮	-11.1831
金剛般若	-11.1841
可思議	-11.1847
般舟三昧	-11.1862
園林	-11.1902
暎	-11.195
綽	-11.1951
頻伽	-11.1955
七重行樹	-11.1956
夕陽	-11.1957
頂戴	-11.1957
演暢	-11.1959
殻	-11.196
綽禪師	-11.196
大𦦨肩佛	-11.1961
維摩詰	-11.1962
練	-11.1964
盆	-11.1965
□□	-11.1965
柔輭	-11.1965
亘	-11.1966
輸	-11.1966
幢幡	-11.1967
永無退轉	-11.1967
霄	-11.1969
阿鞞䟦致	-11.1969
旌	-11.1969
無常迅速	-11.197
鷄	-11.197
應當發願生彼國土	-11.1971
劑	-11.1971
變化所作	-11.1972
初正釋	-11.1973
必定見佛	-11.1974
大寶積經	-11.1974
儉	-11.1974
不謗大乘	-11.1974
聞我名號	-11.1975
西方安樂土	-11.1975
即得往生極樂世界	-11.1977
當願眾生	-11.1977
長跪	-11.198
影響	-11.1983
何以得知	-11.1986
晚年	-11.1986
遲速	-11.1987
魔軍	-11.1987
優婆夷	-11.1988
頻婆	-11.1992
好醜	-11.1992
十二部	-11.1996
輕慢	-11.1998
往詣	-11.1999
良藥	-11.2001
華藏世界	-11.2008
幾許	-11.2011
深厚	-11.2012
帶業	-11.2014
雙亡	-11.2021
尤甚	-11.2022
無一物	-11.2031
十萬億土	-11.204
染著	-11.2076
試問	-11.2105
憐愍	-11.2106
跳	-11.2113
壅	-11.2207
脈	-11.2211
六字洪名	-11.2213
唯是一心	-11.2213
菩提涅槃	-11.2217
梯	-11.2217
墳	-11.2218
蹉跎	-11.2218
劬勞	-11.2219
皆是阿鞞䟦致	-11.222
婬慾	-11.222
艾	-11.222
生蓮華中	-11.222
矧	-11.222
悶	-11.2221
躡	-11.2223
不可窮盡	-11.2224
蠶	-11.2224
調御	-11.2225
曩	-11.2226
阿僧祗劫	-11.2227
揖	-11.2228
赤珠	-11.2229
楚石	-11.223
阿耨菩提	-11.2231
三輩九品	-11.2231
烹	-11.2232
甘美	-11.2233
宛轉	-11.2233
王舍城	-11.2233
龐	-11.2234
竹林	-11.2234
澡	-11.2236
虗偽	-11.2236
刻刻	-11.2237
到彼岸	-11.2239
第二階	-11.2241
訊	-11.2241
命終之後	-11.2242
程途	-11.2242
神通自在	-11.2246
此即初	-11.2267
救度眾生	-11.2274
定課	-11.2276
九十日	-11.2277
青山	-11.2279
述偈	-11.2307
肉團	-11.2314
小彌陀經	-11.2337
第十六	-11.2342
滅諦	-11.2359
邊際	-11.2456
真能念佛	-11.2469
卦	-11.247
鐵圍山	-11.2473
眾所知識	-11.2475
迄	-11.2478
嗔恨	-11.2479
懶	-11.2479
叡	-11.248
冗	-11.248
匹	-11.2481
耑	-11.2481
杲	-11.2482
方便有餘土	-11.2482
戾	-11.2482
正好念佛若人	-11.2483
朋友	-11.2484
堯舜	-11.2484
伽藍	-11.2485
軸	-11.2485
枚	-11.2486
南嶽	-11.2487
刪	-11.2488
長蘆	-11.2488
願我臨欲命終時	-11.2488
戊	-11.2489
吁	-11.249
生而無生	-11.249
四恩三有	-11.249
飢渴	-11.249
蝦	-11.2493
作禮而去	-11.2494
猛省	-11.2494
瞻仰	-11.2494
勉強	-11.2495
愽	-11.2495
猪	-11.2497
蜀	-11.25
孝養	-11.2502
嗏	-11.2503
安穩	-11.2506
生安樂國	-11.2514
禪悅	-11.2516
拔濟	-11.2519
闍王	-11.252
寄語	-11.2528
讚揚	-11.2528
證小果	-11.2532
般涅槃	-11.2584
跳出	-11.261
』	-11.2641
紅蓮	-11.2664
瑠璃地	-11.2689
苗	-11.2745
婆羅門	-11.2746
充滿其中	-11.2747
篋	-11.2747
頹	-11.275
漓	-11.2751
削	-11.2751
諒	-11.2752
翹勤	-11.2752
魁	-11.2754
如說修行	-11.2754
奕	-11.2755
楊次公	-11.2755
現前當來必定見佛	-11.2755
樂邦文類	-11.2755
兢	-11.2755
是心即是三十二相	-11.2755
箇箇	-11.2756
頴	-11.2756
街	-11.2757
鬘	-11.2757
朋	-11.2758
敕	-11.2758
擯	-11.2758
皈命	-11.2759
燦	-11.2759
丞	-11.2759
端身正	-11.276
輾轉	-11.276
祕密	-11.2761
贈	-11.2761
了了分明	-11.2761
蜂	-11.2762
托質	-11.2762
鳩	-11.2762
塊	-11.2763
靈峰	-11.2765
單提	-11.2766
橫竪	-11.2767
態	-11.2768
區區	-11.2768
怖魔	-11.277
遇知識	-11.2778
白骨	-11.2788
交徹	-11.2789
違順	-11.2792
集諦	-11.2794
西方去此	-11.2794
妄認	-11.2796
害母	-11.2821
紫金色	-11.286
受持讀誦	-11.2995
樞	-11.3021
善能覺了	-11.3024
夾	-11.3025
矢	-11.3025
檻	-11.3026
念佛不得了也	-11.3026
山河大地	-11.3026
端坐而化	-11.3026
萊	-11.3027
汪	-11.3028
瓦	-11.3028
凍	-11.3029
微妙香潔	-11.3029
馬鳴龍樹	-11.3029
貧乏	-11.303
巢	-11.3031
夜叉	-11.3032
築	-11.3032
何況有實	-11.3032
是心作佛是心是佛	-11.3032
溢	-11.3033
不遑念佛	-11.3033
舍衛國	-11.3034
剝	-11.3034
衝	-11.3034
朝夕	-11.3034
脉	-11.3035
桐	-11.3035
盥	-11.3037
受菩薩戒	-11.3037
撥無因果	-11.3037
圭	-11.3038
猶豫	-11.3039
佐	-11.3039
㵎	-11.3041
提撕	-11.3042
胞	-11.3042
發露懺悔	-11.3044
旱	-11.3044
肥	-11.3044
滑	-11.3045
階級	-11.3046
幻質	-11.3048
永不退轉	-11.3048
最上乘	-11.305
幽冥	-11.3051
迷津	-11.3052
心外無法	-11.3052
坐逝	-11.3052
白銀	-11.3055
紅塵	-11.3057
失正念	-11.306
一心歸命	-11.306
寶瓶	-11.3062
亦有亦無	-11.3065
墮三惡道	-11.3068
字函	-11.3071
偈頌	-11.3107
無如念佛	-11.319
萬八千	-11.3242
拽	-11.33
佗	-11.3302
贍	-11.3307
還到本國	-11.3311
儀式	-11.3311
及其人民	-11.3312
倣	-11.3312
莫尚乎	-11.3313
禦	-11.3314
窠	-11.3314
浩浩	-11.3315
灾	-11.3315
轉輪聖王	-11.3316
甜	-11.3317
皮袋	-11.3317
鴛鴦	-11.3318
常精進菩薩	-11.3318
七菩提分	-11.3318
荊溪	-11.3318
甦	-11.3319
熈	-11.332
埽	-11.332
受想行識	-11.3321
如意珠王	-11.3321
諄諄	-11.3321
贖	-11.3322
娘	-11.3322
窓	-11.3323
千萬億	-11.3323
依正色心	-11.3323
員	-11.3323
是為甚難	-11.3324
波旬	-11.3324
獄卒	-11.3325
所不能及	-11.3325
群疑論	-11.3325
諸佛心內眾生	-11.3326
侈	-11.3326
圍遶	-11.3327
不一不異	-11.3327
周徧法界	-11.3327
六道輪迴	-11.3327
閻王	-11.3328
嫉妬	-11.3329
年七十	-11.3335
須臾間	-11.3337
身相光明	-11.3337
食噉	-11.3339
冥冥	-11.3341
遮那	-11.3341
歡喜信受	-11.3347
坐金蓮	-11.3373
天竺國	-11.3528
挈	-11.3593
目犍連	-11.3603
綸	-11.3603
煥	-11.3604
塵埃	-11.3604
過十萬億佛土	-11.3605
餐	-11.3605
崛	-11.3605
藐	-11.3606
峻	-11.3608
萬修萬人去	-11.3608
楊傑	-11.3608
伺	-11.3609
凋	-11.3609
羸	-11.361
甄	-11.361
邇	-11.361
芥	-11.3611
鋪	-11.3611
稱讚不可思議功德一切諸佛所護念經	-11.3611
碌	-11.3611
佛告阿難及韋提希	-11.3612
踵	-11.3612
孔雀	-11.3612
橫出三界	-11.3612
願共眾生咸歸命	-11.3612
辜	-11.3612
故說此言	-11.3613
畵	-11.3613
蜎	-11.3613
滄	-11.3613
慇懃	-11.3613
睛	-11.3613
戈	-11.3614
聞是說者	-11.3614
百法明門	-11.3615
與諸大眾	-11.3616
襲	-11.3616
睹	-11.3616
懃	-11.3616
面見彼佛阿彌陀	-11.3617
及諸佛所說	-11.3617
聞我名	-11.3617
贅	-11.3617
鷹	-11.3617
剌血	-11.3618
結跏趺坐	-11.3618
邀	-11.3618
繭	-11.3618
洒	-11.3619
阿難陀	-11.3621
阿修羅	-11.3621
貲	-11.3621
酒肉	-11.3622
躁	-11.3623
恕	-11.3623
憍	-11.3623
厲聲	-11.3624
焚燒	-11.3624
觀佛相好	-11.3625
欺誑	-11.3625
折伏	-11.3626
憂惱	-11.3628
花開見佛	-11.3631
中初科	-11.3632
喜悅	-11.364
去此十萬億	-11.3671
台宗	-11.3804
我頂禮生彼國	-11.3817
水晶	-11.3898
邵	-11.39
悽	-11.3901
筌	-11.3901
玻	-11.3901
歿	-11.391
鶯	-11.391
摩訶迦葉	-11.391
壑	-11.391
鬧	-11.391
滓	-11.3911
歷歷分明	-11.3911
蹟	-11.3911
不可稱計	-11.3911
縷	-11.3912
顆	-11.3912
從是西方過十萬億佛土	-11.3912
拄	-11.3913
出現於世	-11.3913
痕	-11.3913
壽終之後	-11.3913
榜樣	-11.3913
蒲團	-11.3914
覿	-11.3914
爵	-11.3914
簾	-11.3915
臨終在定之心	-11.3915
奔波	-11.3916
汝等皆當信受我語	-11.3916
譚	-11.3916
需	-11.3916
莽	-11.3917
桑	-11.3917
嬰	-11.3917
撿	-11.3917
常作天樂	-11.3918
即心即佛	-11.3918
汩	-11.3918
是諸人等	-11.3918
阿闍世	-11.3919
抄	-11.3919
茶毗	-11.3919
斂	-11.392
淆	-11.392
周匝	-11.392
淪墜	-11.3921
盡除一切諸障礙	-11.3921
豕	-11.3921
恁麼	-11.3922
屑	-11.3922
信得及	-11.3923
世間之孝	-11.3924
受苦無窮	-11.3924
暉	-11.3926
裳	-11.3927
一聲佛號	-11.3929
挑	-11.3931
闇室	-11.3931
一句佛號	-11.3932
彥弼	-11.3933
染污	-11.3942
佛及菩薩	-11.4057
百由旬	-11.4071
世自在王	-11.4112
宏誓	-11.4179
依正二報	-11.4208
麴	-11.4214
賾	-11.4215
生死根株	-11.4215
曼陀羅	-11.4218
襄	-11.4219
閃	-11.422
閙	-11.422
嬈	-11.422
瑤	-11.422
斧	-11.422
十日十夜	-11.4221
稱讚淨土經	-11.4223
稿	-11.4223
聞是經受持者	-11.4223
檢點	-11.4224
湊	-11.4224
誅	-11.4224
歧	-11.4224
人命無常	-11.4225
如彈指頃	-11.4227
矛	-11.4227
放下身心	-11.4227
乾陀訶提	-11.4227
駐	-11.4228
住其人前	-11.4228
見性悟道	-11.4229
瀾	-11.4229
囂	-11.4229
乩	-11.423
飯食經行	-11.423
渾濁	-11.423
於今十劫	-11.423
諧	-11.423
馮	-11.4231
毒蛇	-11.4231
撒手	-11.4232
能念所念	-11.4232
搆	-11.4232
征	-11.4233
芒	-11.4233
八十種好	-11.4234
瓊樓	-11.4234
即得往生安樂剎	-11.4235
齡	-11.4236
騎	-11.4236
蜎飛蠕動	-11.4236
悟達之士	-11.4238
令心不散	-11.4238
見聞覺知	-11.4238
嗔恚	-11.4239
蠕	-11.424
篤志	-11.4243
百千由旬	-11.4245
不可說不可說	-11.4245
菩薩成佛時	-11.4248
生佛不二	-11.4258
妻兒	-11.44
至行者前	-11.4504
愛別離苦	-11.4538
菽	-11.4539
西方公據	-11.4539
蠢	-11.454
稚	-11.454
青色青光	-11.454
縮	-11.454
尖	-11.4543
踴躍	-11.4544
七重欄楯	-11.4545
盂	-11.4545
軾	-11.4546
悚	-11.4546
金銀琉璃	-11.4547
劵	-11.4547
如母憶時	-11.4547
偕	-11.4547
英雄	-11.4548
須摩提	-11.4548
曹溪	-11.4548
橛	-11.4549
奉勸世人	-11.455
出微妙音	-11.455
羮	-11.455
蛣	-11.4551
匡	-11.4551
惹	-11.4551
咄	-11.4551
汾	-11.4551
袍	-11.4551
咏	-11.4552
𦘕	-11.4552
全修在性	-11.4552
盟	-11.4553
懸繒	-11.4554
咬	-11.4554
歡喜踊躍	-11.4554
蔑	-11.4554
無去無來	-11.4554
猝	-11.4554
舟航	-11.4555
掖	-11.4555
恒河沙數諸佛	-11.4555
三十七品	-11.4555
厨	-11.4555
銅柱	-11.4555
沮	-11.4555
擾擾	-11.4556
紺	-11.4556
董	-11.4556
釜	-11.4557
晨昏	-11.4559
斷除三障	-11.4559
副	-11.4559
兀	-11.456
湛寂	-11.4561
百二十三人	-11.4562
升沉	-11.4562
巷	-11.4562
付囑	-11.4562
自知時至	-11.4563
惻	-11.4564
以佛力故	-11.4568
歸命懺悔	-11.4568
元祐	-11.4571
淨土樂淨土樂西方淨土甚快樂	-11.4844
航	-11.4859
現前一念心性	-11.4866
處當遠	-11.4867
坎	-11.4872
祇樹給孤獨園	-11.4873
五痛五燒	-11.4874
嬌	-11.4876
汩沒	-11.4879
千二百五十人俱	-11.4879
島	-11.4879
啞	-11.4881
憍梵波提	-11.4882
弓	-11.4882
矯	-11.4883
薙	-11.4883
銜	-11.4883
士大夫	-11.4883
令聲不絕	-11.4883
正遍知	-11.4883
十六妙觀	-11.4884
天龍八部	-11.4884
販	-11.4884
穆	-11.4884
長生不死	-11.4884
覷破	-11.4884
掘	-11.4884
歡喜信樂	-11.4885
宵	-11.4885
浸	-11.4885
胥	-11.4885
念而無念	-11.4886
挺	-11.4886
寂而常照	-11.4887
土可生	-11.4887
暫停	-11.4887
皆巳成佛道	-11.4888
蹤	-11.4888
知歸子	-11.4888
猿	-11.4892
勒	-11.4892
膠	-11.4893
棗	-11.4894
描	-11.4895
掐	-11.4896
輟	-11.518
闉	-11.5204
妍	-11.5212
跛	-11.5215
沖	-11.5217
溼	-11.5217
遏	-11.5221
冲	-11.5224
爇	-11.5224
裔	-11.5224
曼	-11.5224
瓠	-11.5225
缾	-11.5225
敦	-11.5226
貯	-11.5226
譌	-11.5226
姊	-11.5226
怜	-11.5229
鵒	-11.523
槃	-11.5231
傅	-11.5231
桂	-11.5232
禾	-11.5232
弼	-11.5233
勑	-11.5233
鉅	-11.5233
郭	-11.5234
嫁	-11.5234
棹	-11.5234
仞	-11.5234
淹	-11.5235
雍	-11.5235
蚤	-11.5235
圈	-11.5238
婚	-11.5241
它	-11.5572
菓	-11.5573
塚	-11.5575
牲	-11.5575
姿	-11.5575
溈	-11.5576
呻	-11.5576
隊	-11.5578
疆	-11.5579
鏤	-11.558
鎔	-11.558
匿	-11.5582
睦	-11.5582
珂	-11.5582
唵	-11.5582
棟	-11.5583
鑊	-11.5583
鬚	-11.5583
湮	-11.5584
潑	-11.5584
恤	-11.5585
韶	-11.5586
遜	-11.5586
儘	-11.5587
啖	-11.5587
疴	-11.5587
䭾	-11.5587
溟	-11.5587
幔	-11.5587
斫	-11.5588
妹	-11.5589
拖	-11.559
鬱	-11.5591
寞	-11.5591
螢	-11.5594
漿	-11.5594
盞	-11.5595
漆	-11.5595
拭	-11.5595
飭	-11.5595
瑟	-11.5596
裴	-11.5596
聆	-11.5598
脹	-11.5598
攷	-11.5888
粹	-11.5941
撇	-11.5942
捺	-11.5942
葱	-11.5942
喆	-11.5944
婁	-11.5948
讎	-11.5952
痊	-11.5952
斛	-11.5953
濵	-11.5954
旭	-11.5954
巴	-11.5954
犂	-11.5954
餓	-11.5955
縫	-11.5956
媚	-11.5956
鴉	-11.5957
郵	-11.5958
楹	-11.5958
冶	-11.5959
蹄	-11.596
奸	-11.5961
𢆯	-11.5961
芝	-11.5961
嚼	-11.5962
矩	-11.5962
侮	-11.5966
臟	-11.597
亨	-11.5972
竿	-11.5973
楞	-11.6323
轟	-11.6325
叵	-11.6325
煞	-11.6326
楷	-11.6329
簪	-11.6329
稜	-11.6331
撲	-11.6333
綴	-11.6334
豺	-11.6338
躋	-11.6338
蠡	-11.6339
釧	-11.6339
懲	-11.634
叟	-11.634
斃	-11.634
赦	-11.634
鈎	-11.6341
冉	-11.6341
膩	-11.6342
株	-11.6342
誚	-11.6343
馥	-11.6344
羈	-11.6345
涎	-11.6345
剩	-11.6345
碩	-11.6347
抉	-11.6348
稷	-11.635
糊	-11.6351
惕	-11.6351
汁	-11.6724
孽	-11.6727
〡	-11.6731
禳	-11.6732
鎧	-11.6733
耨	-11.6735
尉	-11.6735
脇	-11.6735
鳧	-11.6737
梗	-11.6737
皓	-11.6737
錐	-11.6737
禎	-11.6737
騐	-11.6738
袖	-11.6738
蒸	-11.6739
堦	-11.674
翔	-11.674
鍼	-11.674
阬	-11.6741
悠	-11.6741
枳	-11.6743
館	-11.6743
饌	-11.6743
瞎	-11.6743
廷	-11.6744
咽	-11.6744
晴	-11.6745
釐	-11.6745
蟬	-11.6745
稠	-11.6745
朴	-11.6746
技	-11.6747
窒	-11.6748
肘	-11.6748
尹	-11.6749
蛾	-11.675
銖	-11.6753
帖	-11.6756
寔	-11.6757
脅	-11.6757
5	-11.6758
弭	-11.6763
架	-11.6773
决	-11.7129
儼	-11.7138
舅	-11.7141
綜	-11.7146
漱	-11.7148
閨	-11.7148
麝	-11.7149
隲	-11.715
罣	-11.715
疼	-11.7151
犁	-11.7152
墻	-11.7152
箸	-11.7152
諳	-11.7152
攢	-11.7152
魅	-11.7153
摭	-11.7154
蘆	-11.7154
絆	-11.7154
琅	-11.7154
潰	-11.7155
寰	-11.7156
脊	-11.7156
剏	-11.7157
暨	-11.716
挾	-11.7161
澹	-11.7161
浦	-11.7162
祛	-11.7162
攘	-11.7163
坊	-11.7163
銕	-11.7163
蓄	-11.7164
竄	-11.7166
廈	-11.7167
櫓	-11.7168
彫	-11.7168
菩	-11.7168
8	-11.7168
瓣	-11.7169
翩	-11.7169
邱	-11.7169
轎	-11.7174
驕	-11.7182
皺	-11.7183
澍	-11.7576
顗	-11.7577
覷	-11.7578
憧	-11.758
撻	-11.758
伎	-11.7582
謚	-11.7582
沿	-11.7585
玗	-11.7586
徙	-11.7586
遑	-11.7587
闌	-11.7588
粲	-11.7589
鑪	-11.7589
諾	-11.7589
萼	-11.7589
屆	-11.759
鶖	-11.7591
肌	-11.7591
妓	-11.7591
拶	-11.7592
週	-11.7592
塑	-11.7593
齎	-11.7593
滾	-11.7595
憨	-11.7596
押	-11.7596
壹	-11.7597
倩	-11.7597
菊	-11.7597
液	-11.7597
賀	-11.7597
頸	-11.7598
岑	-11.76
鮑	-11.7601
檗	-11.7602
輿	-11.7602
溷	-11.7602
粮	-11.7602
葦	-11.7607
拆	-11.8032
潞	-11.8036
覰	-11.8037
釣	-11.8038
黶	-11.8039
紜	-11.804
晏	-11.804
恠	-11.8041
糓	-11.8042
悋	-11.8042
屎	-11.8043
愿	-11.8043
杯	-11.8044
琢	-11.8044
罩	-11.8044
訥	-11.8044
爺	-11.8045
繒	-11.8045
惺	-11.8046
梢	-11.8046
靖	-11.8047
闐	-11.8049
妃	-11.8049
筭	-11.805
殄	-11.805
姪	-11.805
隘	-11.8052
甕	-11.8055
笙	-11.8056
耄	-11.8056
3	-11.8058
蜣	-11.8058
腥	-11.8059
0	-11.806
杵	-11.806
剗	-11.806
鵬	-11.8061
沛	-11.8062
魘	-11.85
裓	-11.8505
緜	-11.8506
憾	-11.8511
芙	-11.8512
鵠	-11.8512
苞	-11.8512
掣	-11.8514
驥	-11.8515
攪	-11.8515
釵	-11.8517
喬	-11.8517
徤	-11.8518
閫	-11.8518
酷	-11.8519
帚	-11.852
獘	-11.852
燧	-11.852
噬	-11.852
喉	-11.8521
阜	-11.8522
忝	-11.8522
盾	-11.8522
楫	-11.8522
婉	-11.8522
嫡	-11.8522
哺	-11.8523
郁	-11.8524
晤	-11.8524
􂅡	-11.8524
翛	-11.8524
囿	-11.8525
悄	-11.8526
綵	-11.8526
歛	-11.8527
欝	-11.8527
彊	-11.8528
訴	-11.8529
砧	-11.853
懊	-11.853
璣	-11.8533
尠	-11.8533
怱	-11.8533
9	-11.8533
粧	-11.8534
頒	-11.8538
澆	-11.9004
緘	-11.9005
蜊	-11.901
腫	-11.9011
埃	-11.9012
搭	-11.9012
淤	-11.9013
〔	-11.9014
餌	-11.9014
〕	-11.9014
忒	-11.9015
窄	-11.9015
碯	-11.9016
窻	-11.9016
麟	-11.9017
膳	-11.9017
墓	-11.9017
淑	-11.9017
岩	-11.9018
垣	-11.9018
脂	-11.902
盻	-11.9021
蛻	-11.9021
庇	-11.9022
濤	-11.9022
蝡	-11.9023
鱉	-11.9023
冕	-11.9023
荳	-11.9026
旗	-11.9026
妬	-11.9027
殮	-11.9028
忤	-11.9028
筵	-11.9029
徊	-11.903
貳	-11.903
蛙	-11.9033
鐙	-11.9033
祠	-11.9035
琦	-11.9036
遁	-11.9528
叨	-11.953
坡	-11.9532
另	-11.9535
翥	-11.9536
紋	-11.9537
酧	-11.9538
飜	-11.9538
跟	-11.9539
颺	-11.954
遘	-11.954
泄	-11.954
俞	-11.9541
喘	-11.9542
楯	-11.9542
昊	-11.9543
謾	-11.9544
庾	-11.9545
撞	-11.9545
殑	-11.9547
酖	-11.9547
呆	-11.9547
泆	-11.9548
鬆	-11.9548
莎	-11.9548
蔣	-11.955
硬	-11.955
肺	-11.955
韁	-11.9551
騁	-11.9551
翫	-11.9551
閦	-11.9551
翹	-11.9551
沽	-11.9551
胃	-11.9551
潯	-11.9551
揆	-11.9552
鎗	-11.9552
寮	-11.9552
翮	-11.9552
耗	-11.9552
擴	-11.9553
籬	-11.9553
髏	-11.9553
擅	-11.9553
閭	-11.9553
誌	-11.9554
溯	-11.9554
炮	-11.9554
獎	-11.9554
巾	-11.9554
偃	-11.9555
裕	-11.9555
迸	-11.9555
澁	-11.9556
擺	-11.9556
袪	-11.9559
騖	-11.9559
疇	-11.956
裘	-11.9562
藍	-11.9563
6	-11.9567
桌	-11.9582
晁	-12.0073
稼	-12.0076
腮	-12.0087
鋤	-12.0088
秤	-12.0089
譜	-12.009
疣	-12.009
洽	-12.0091
筒	-12.0094
箱	-12.0095
迪	-12.0096
蔡	-12.0096
銳	-12.0096
濶	-12.0097
簷	-12.0099
鵝	-12.01
愉	-12.01
僉	-12.01
个	-12.0101
猷	-12.0101
嘯	-12.0101
虱	-12.0101
罄	-12.0102
鬢	-12.0102
肢	-12.0102
貼	-12.0103
妣	-12.0103
兜	-12.0103
臼	-12.0104
玷	-12.0104
璃	-12.0104
署	-12.0105
顒	-12.0105
肚	-12.0105
們	-12.0105
瀉	-12.0106
霍	-12.0107
剜	-12.0107
沫	-12.0107
纓	-12.0108
馨	-12.0108
吃	-12.0109
瘦	-12.011
弁	-12.011
呰	-12.011
浣	-12.0112
掦	-12.0112
跨	-12.0113
徇	-12.0114
栢	-12.0114
翊	-12.0115
喃	-12.0117
旻	-12.0119
瓢	-12.0119
羯	-12.0119
曦	-12.0119
珉	-12.0121
罹	-12.0675
靄	-12.0675
廊	-12.0679
𧏙	-12.0679
拍	-12.068
涓	-12.0682
懽	-12.0683
彷	-12.0684
隷	-12.0685
眸	-12.0686
貸	-12.0687
覊	-12.0688
蓉	-12.0688
陛	-12.0688
擕	-12.069
粘	-12.069
吠	-12.069
欒	-12.0691
畝	-12.0692
戎	-12.0692
陪	-12.0693
鄞	-12.0693
瀛	-12.0694
熊	-12.0694
剪	-12.0695
纜	-12.0696
劂	-12.0696
藪	-12.0696
忖	-12.0697
曆	-12.0697
窩	-12.0697
佩	-12.0698
查	-12.0699
誥	-12.0699
錍	-12.07
鐸	-12.07
批	-12.0701
巋	-12.0701
廼	-12.0701
協	-12.0702
飼	-12.0703
陞	-12.0706
竇	-12.0707
迺	-12.0708
󳯟	-12.071
歐	-12.0713
肖	-12.1242
弑	-12.13
掇	-12.1301
煌	-12.1301
摶	-12.1302
擒	-12.1304
孃	-12.1304
裨	-12.1304
懿	-12.1305
氛	-12.1306
蒲	-12.1306
顓	-12.1307
轆	-12.1309
轤	-12.1309
臍	-12.1309
樊	-12.131
峨	-12.131
叱	-12.1312
燄	-12.1312
脆	-12.1313
庖	-12.1313
瓔	-12.1313
漠	-12.1313
姻	-12.1314
械	-12.1314
糠	-12.1315
店	-12.1316
蟒	-12.1316
螫	-12.1316
洵	-12.1316
䛡	-12.1316
戟	-12.1316
猜	-12.1317
褒	-12.1317
孚	-12.1317
伶	-12.1318
璧	-12.1318
燼	-12.1318
壺	-12.1318
膜	-12.1319
刮	-12.1319
瘥	-12.1319
艶	-12.1319
頤	-12.1319
賅	-12.1319
閡	-12.1319
挹	-12.132
薛	-12.132
寇	-12.1321
沃	-12.1322
屹	-12.1322
貢	-12.1323
苾	-12.1323
穫	-12.1324
溝	-12.1324
樸	-12.1324
蕉	-12.1325
麵	-12.1325
槁	-12.1326
詭	-12.1328
輞	-12.1329
腑	-12.1329
餅	-12.133
闔	-12.133
扁	-12.1333
鵲	-12.1337
蚋	-12.1338
娶	-12.1338
籃	-12.1339
壘	-12.1342
茆	-12.1963
夥	-12.1964
圩	-12.1966
椎	-12.1968
勻	-12.1969
閔	-12.1969
馴	-12.1969
跢	-12.197
椽	-12.1971
泗	-12.1971
苻	-12.1971
蘧	-12.1973
巫	-12.1974
郤	-12.1975
督	-12.1975
萇	-12.1975
廻	-12.1976
闥	-12.1976
眩	-12.1977
嬴	-12.1977
譔	-12.1977
謟	-12.1978
鉄	-12.1979
瘁	-12.198
鞞	-12.198
嘿	-12.1981
嵐	-12.1981
槐	-12.1981
銓	-12.1981
楔	-12.1981
𥨊	-12.1982
踞	-12.1982
彎	-12.1982
捲	-12.1983
扯	-12.1983
槌	-12.1983
誼	-12.1984
峙	-12.1984
券	-12.1984
蹶	-12.1985
桶	-12.1985
倏	-12.1985
紳	-12.1985
簫	-12.1986
泮	-12.1986
宼	-12.1987
儱	-12.1987
嗅	-12.1987
炯	-12.1987
挨	-12.1987
糾	-12.1988
俸	-12.1988
矍	-12.1988
侗	-12.1989
姦	-12.1989
淮	-12.199
懵	-12.199
刳	-12.199
硯	-12.1991
饍	-12.1991
嬾	-12.1991
碍	-12.1992
牟	-12.1992
喨	-12.1992
凜	-12.1993
舂	-12.1993
箕	-12.1993
慙	-12.1993
狎	-12.1994
慇	-12.1994
詵	-12.1994
錙	-12.1995
梭	-12.1995
猫	-12.1996
傀	-12.1996
旹	-12.1996
7	-12.1997
蔔	-12.1999
脣	-12.2002
哥	-12.2003
址	-12.2004
湘	-12.2004
灋	-12.2009
撒	-12.2657
頰	-12.2667
􂎈	-12.2672
翦	-12.2675
蘖	-12.2679
蘄	-12.2682
蕚	-12.2682
㝹	-12.2682
鎚	-12.2683
嵩	-12.2684
紊	-12.2684
扞	-12.2685
圄	-12.2685
衾	-12.2685
颯	-12.2685
尿	-12.2686
囹	-12.2686
勗	-12.2687
喊	-12.2688
鹹	-12.2688
刷	-12.2688
梏	-12.2689
溥	-12.2689
搏	-12.269
躶	-12.269
曳	-12.2691
翕	-12.2692
彿	-12.2692
惛	-12.2692
杻	-12.2692
泠	-12.2692
恉	-12.2693
塹	-12.2693
蒂	-12.2693
𡩋	-12.2693
犍	-12.2694
硃	-12.2694
餒	-12.2695
宦	-12.2695
滲	-12.2695
冐	-12.2696
隍	-12.2696
潄	-12.2696
琳	-12.2697
㲉	-12.2698
嗤	-12.2698
𢌞	-12.2698
仿	-12.2698
眇	-12.2698
褐	-12.2698
傴	-12.2699
扭	-12.2699
諉	-12.2699
掀	-12.2701
俻	-12.2701
儕	-12.2702
刼	-12.2702
栗	-12.2702
歙	-12.2703
渟	-12.2703
龔	-12.2703
蕅	-12.2703
牖	-12.2703
鋟	-12.2704
臰	-12.2705
胷	-12.2706
慟	-12.2706
篙	-12.2707
芻	-12.2708
稔	-12.2708
濡	-12.2708
渧	-12.2709
潘	-12.2709
儡	-12.271
媼	-12.271
瘖	-12.2711
弛	-12.2711
掠	-12.2711
㳷	-12.2711
采	-12.2712
釘	-12.2713
膿	-12.2713
嫗	-12.2713
〈	-12.2742
〉	-12.2743
唎	-12.2748
蠱	-12.3443
哂	-12.3447
拏	-12.345
股	-12.345
撤	-12.3451
賒	-12.3453
抒	-12.3454
狄	-12.3454
噴	-12.3455
屣	-12.3456
郊	-12.3457
忱	-12.3457
磕	-12.3457
寵	-12.3459
巗	-12.3459
祚	-12.3459
芟	-12.3459
篆	-12.3459
貿	-12.346
鱍	-12.3461
詬	-12.3461
舛	-12.3461
醇	-12.3461
裊	-12.3462
槖	-12.3462
黏	-12.3463
畺	-12.3463
繙	-12.3463
嫂	-12.3463
搬	-12.3464
柄	-12.3464
荼	-12.3464
蟄	-12.3465
洩	-12.3465
帥	-12.3466
症	-12.3467
緬	-12.3467
濯	-12.3467
涸	-12.3467
湎	-12.3468
謫	-12.3468
狽	-12.3468
籤	-12.3468
蝨	-12.3468
蠲	-12.3468
穽	-12.3469
萃	-12.3469
眨	-12.3469
侔	-12.3469
豚	-12.3469
疽	-12.347
矚	-12.347
廕	-12.347
涇	-12.347
褥	-12.3471
蝸	-12.3471
蠻	-12.3471
插	-12.3471
憲	-12.3472
憩	-12.3474
惚	-12.3474
轅	-12.3475
距	-12.3475
𢬵	-12.3476
峩	-12.3478
悼	-12.3478
錠	-12.3478
愕	-12.3479
癰	-12.348
藩	-12.3481
嚕	-12.3482
稗	-12.3482
柁	-12.3484
仆	-12.3486
卉	-12.3487
脛	-12.3489
蠏	-12.349
摹	-12.349
虐	-12.3491
餉	-12.4275
球	-12.428
旺	-12.4281
紂	-12.4285
稅	-12.4286
渚	-12.4287
齧	-12.4288
葵	-12.4289
弔	-12.4289
歆	-12.4291
剔	-12.4291
兇	-12.4291
粃	-12.4292
灣	-12.4292
擘	-12.4292
蔗	-12.4293
冢	-12.4293
凑	-12.4293
梧	-12.4294
𠃔	-12.4294
砥	-12.4295
畟	-12.4295
徼	-12.4296
蛉	-12.4296
撈	-12.4296
韜	-12.4297
縉	-12.4298
霾	-12.4298
恊	-12.4299
荀	-12.4299
衫	-12.4299
瑠	-12.4299
隴	-12.43
𩬊	-12.43
眴	-12.43
蹊	-12.4301
偪	-12.4301
瘤	-12.4302
糟	-12.4302
蕪	-12.4302
鞠	-12.4303
霆	-12.4303
鑰	-12.4303
卍	-12.4304
腋	-12.4304
遼	-12.4304
丐	-12.4304
澈	-12.4304
妒	-12.4305
盼	-12.4305
鑛	-12.4305
燥	-12.4305
躐	-12.4305
黍	-12.4305
瓘	-12.4305
罥	-12.4306
扉	-12.4307
橘	-12.4307
苔	-12.4307
饕	-12.4307
伍	-12.4307
幟	-12.4308
庠	-12.4308
瞠	-12.4308
劄	-12.4309
鍛	-12.431
揩	-12.4311
桴	-12.4311
系	-12.4312
塟	-12.4313
艸	-12.4313
抹	-12.4316
齅	-12.4317
崔	-12.4318
虻	-12.432
酣	-12.4321
閩	-12.4328
􂌞	-12.434
滔	-12.5168
頇	-12.5182
涅	-12.5182
裸	-12.5185
蚌	-12.5187
賽	-12.5188
幅	-12.5188
慝	-12.5189
綻	-12.5193
憊	-12.5194
繹	-12.5195
罏	-12.5195
邈	-12.5196
誐	-12.5196
桎	-12.5198
哿	-12.5199
鱔	-12.5199
佉	-12.52
𡨥	-12.52
匣	-12.52
絹	-12.5201
札	-12.5201
袋	-12.5201
售	-12.5201
毅	-12.5201
譴	-12.5201
咫	-12.5202
鄒	-12.5202
癃	-12.5202
爼	-12.5202
盍	-12.5203
鈞	-12.5204
稻	-12.5204
駒	-12.5204
拚	-12.5204
巔	-12.5205
禧	-12.5206
潦	-12.5206
陌	-12.5207
詁	-12.5207
洄	-12.5207
汨	-12.5207
痒	-12.5207
緝	-12.5207
薑	-12.5208
橐	-12.5208
椀	-12.5208
勛	-12.5209
爝	-12.5209
蘿	-12.5209
賑	-12.521
勺	-12.5211
鼈	-12.5211
儲	-12.5211
壎	-12.5211
鬮	-12.5212
酢	-12.5212
僖	-12.5212
娩	-12.5213
燁	-12.5213
阮	-12.5214
蒿	-12.5214
𥧌	-12.5214
涂	-12.5214
皡	-12.5214
躅	-12.5215
瀆	-12.5216
徽	-12.5217
妝	-12.5218
駁	-12.5219
欵	-12.5219
鋸	-12.522
熬	-12.5221
癩	-12.5221
盃	-12.5222
娠	-12.5223
豔	-12.5224
𩯭	-12.5224
蔓	-12.5226
轂	-12.5226
萍	-12.5226
棋	-12.5226
鬻	-12.5228
版	-12.5229
踈	-12.5229
燋	-12.5229
憒	-12.523
埵	-12.523
隄	-12.5231
褻	-12.5231
鴨	-12.5234
聦	-12.5235
扼	-12.5235
漭	-12.5237
㗚	-12.6154
控	-12.6166
跌	-12.6173
顢	-12.6176
爻	-12.6181
挪	-12.6185
糲	-12.6186
撐	-12.6187
糜	-12.6187
畊	-12.6188
椒	-12.6188
唧	-12.6188
趕	-12.619
缶	-12.619
磵	-12.6191
坤	-12.6191
嘴	-12.6194
蠟	-12.6195
娟	-12.6195
兌	-12.6195
茗	-12.6196
弩	-12.6196
豹	-12.6196
雉	-12.6197
彝	-12.6199
炤	-12.6199
幕	-12.6199
蛟	-12.6199
弃	-12.62
臧	-12.6201
襪	-12.6202
斑	-12.6202
咦	-12.6202
袒	-12.6202
捻	-12.6203
蟹	-12.6204
闈	-12.6204
麈	-12.6204
諮	-12.6204
躊	-12.6204
餚	-12.6204
浹	-12.6204
痾	-12.6205
嚥	-12.6205
蕖	-12.6205
邸	-12.6206
襖	-12.6206
义	-12.6206
瞭	-12.6207
痰	-12.6207
煒	-12.6208
籟	-12.6208
峭	-12.6208
皂	-12.6209
劃	-12.6209
蒜	-12.621
嘲	-12.621
䞋	-12.621
鍋	-12.621
舶	-12.6211
痢	-12.6211
汶	-12.6212
瘳	-12.6212
螟	-12.6213
犀	-12.6213
廚	-12.6214
蹋	-12.6214
禿	-12.6214
癢	-12.6215
媿	-12.6215
衒	-12.6215
緋	-12.6215
唄	-12.6215
奩	-12.6216
睫	-12.6216
馭	-12.6216
釀	-12.6217
陟	-12.6217
媳	-12.6218
鯉	-12.6218
吻	-12.6218
璞	-12.6219
馱	-12.6219
耎	-12.6219
湻	-12.622
捱	-12.6221
藜	-12.6223
驪	-12.6223
紆	-12.6223
狥	-12.6223
雌	-12.6224
鑾	-12.6225
捶	-12.6226
觴	-12.6226
擡	-12.6226
冒	-12.6227
蚕	-12.6228
│	-12.6229
靴	-12.6231
樽	-12.6233
聘	-12.6234
枵	-12.6236
咲	-12.6243
茨	-12.7283
醋	-12.7284
粕	-12.7287
輥	-12.7287
馗	-12.7288
眵	-12.7289
挫	-12.7292
劊	-12.7294
氓	-12.7297
忉	-12.7299
哦	-12.73
搗	-12.73
蟣	-12.7302
鐫	-12.7302
蕊	-12.7305
屨	-12.7306
蹇	-12.7306
誹	-12.7306
廸	-12.7306
舫	-12.731
莾	-12.731
墀	-12.7311
沓	-12.7311
夔	-12.7312
鄧	-12.7312
茯	-12.7312
噪	-12.7312
徉	-12.7312
墟	-12.7313
碗	-12.7314
耻	-12.7314
霹	-12.7314
琪	-12.7315
漉	-12.7316
瘂	-12.7317
襯	-12.7317
炊	-12.7318
渣	-12.7318
咳	-12.7318
贏	-12.7319
淅	-12.7319
軆	-12.7319
萠	-12.7319
狠	-12.7319
勃	-12.732
羲	-12.732
渤	-12.7321
鏘	-12.7321
梟	-12.7321
牌	-12.7321
捍	-12.7321
宙	-12.7322
睟	-12.7322
碁	-12.7322
駛	-12.7322
噎	-12.7323
撑	-12.7323
瑙	-12.7323
掬	-12.7323
鋼	-12.7323
蟯	-12.7323
􂩍	-12.7324
瑯	-12.7324
菲	-12.7325
猴	-12.7325
購	-12.7325
蜈	-12.7325
箎	-12.7325
臯	-12.7325
佈	-12.7326
敻	-12.7326
澌	-12.7326
咜	-12.7327
瀰	-12.7327
粵	-12.7327
艮	-12.7328
虜	-12.7329
耘	-12.733
叛	-12.7331
軫	-12.7331
椅	-12.7332
鰍	-12.7333
燐	-12.7334
臠	-12.7334
㳂	-12.7335
跂	-12.7335
睨	-12.7336
核	-12.7337
褁	-12.7338
猥	-12.7338
鴆	-12.7339
寘	-12.734
煜	-12.7343
恪	-12.7344
奠	-12.7346
响	-12.7348
髀	-12.735
蚓	-12.7358
紡	-12.7358
抖	-12.8527
斟	-12.8536
禴	-12.854
姉	-12.8543
𢍉	-12.8546
灘	-12.8547
飫	-12.8549
屯	-12.8549
杏	-12.8549
丕	-12.8553
嚩	-12.8553
獅	-12.8553
搥	-12.8554
拓	-12.8555
鮒	-12.8556
珥	-12.8556
呀	-12.8556
邨	-12.8557
醎	-12.8557
磚	-12.8558
窈	-12.8558
縳	-12.8559
圜	-12.856
䑛	-12.856
皿	-12.8561
遨	-12.8562
濛	-12.8562
垓	-12.8562
晷	-12.8562
礪	-12.8562
朦	-12.8562
覃	-12.8562
矗	-12.8562
瀚	-12.8562
琉	-12.8563
秩	-12.8563
飱	-12.8563
孥	-12.8564
莘	-12.8564
舵	-12.8564
殫	-12.8564
昝	-12.8564
燎	-12.8564
揵	-12.8565
昺	-12.8565
剉	-12.8565
腔	-12.8565
賖	-12.8565
迃	-12.8565
佚	-12.8565
縻	-12.8566
沂	-12.8566
攔	-12.8566
軻	-12.8566
洹	-12.8566
淩	-12.8567
疵	-12.8567
鑠	-12.8567
遡	-12.8567
陜	-12.8567
姜	-12.8567
𤨏	-12.8568
倨	-12.8568
擢	-12.8568
晡	-12.8568
篪	-12.8569
燸	-12.857
歉	-12.857
罽	-12.857
剡	-12.857
黠	-12.857
蹙	-12.8571
筍	-12.8571
躲	-12.8571
㷀	-12.8571
塢	-12.8572
檐	-12.8572
癈	-12.8572
慊	-12.8572
緻	-12.8572
㝵	-12.8572
閶	-12.8573
慼	-12.8573
慤	-12.8573
瑛	-12.8573
捫	-12.8573
戕	-12.8574
盪	-12.8574
肓	-12.8574
凄	-12.8574
􂨘	-12.8574
燹	-12.8574
饈	-12.8575
哮	-12.8575
佇	-12.8575
匍	-12.8575
珮	-12.8575
笛	-12.8575
渭	-12.8576
憮	-12.8576
捃	-12.8576
愓	-12.8576
甓	-12.8577
摛	-12.8577
焜	-12.8577
瞖	-12.8578
竣	-12.8578
翌	-12.8578
賷	-12.8578
踊	-12.8578
熄	-12.8579
捄	-12.8579
慄	-12.8579
捿	-12.858
笠	-12.858
㭊	-12.8581
簸	-12.8581
訝	-12.8581
羹	-12.8582
鬲	-12.8582
宥	-12.8583
璿	-12.8583
縵	-12.8584
歘	-12.8584
笞	-12.8585
蝕	-12.8585
憬	-12.8586
竦	-12.8586
頷	-12.8586
笈	-12.8586
閤	-12.8587
覻	-12.8587
窹	-12.8588
拊	-12.859
隕	-12.8591
磧	-12.8591
鳶	-12.8592
疥	-12.8592
檣	-12.8592
䫫	-12.8593
陂	-12.8593
譎	-12.86
崙	-12.8603
汞	-12.9953
瞰	-12.9961
絺	-12.9966
趍	-12.9967
闚	-12.9967
劬	-12.9968
茄	-12.997
嚗	-12.997
蔴	-12.9972
渙	-12.9972
縠	-12.9973
齩	-12.9975
淥	-12.9975
瑾	-12.9976
娥	-12.9976
悷	-12.998
忭	-12.9981
涘	-12.9981
款	-12.9981
㴼	-12.9981
娜	-12.9984
飃	-12.9984
胤	-12.9985
羶	-12.9985
傘	-12.9986
豬	-12.9987
曝	-12.9987
壍	-12.9987
蝎	-12.9987
衙	-12.9987
璚	-12.9987
尟	-12.9988
蝶	-12.9989
愷	-12.9989
矦	-12.999
詫	-12.999
巵	-12.9991
懾	-12.9991
痺	-12.9992
牘	-12.9992
訐	-12.9992
蠧	-12.9992
珪	-12.9992
狩	-12.9993
繚	-12.9993
瑜	-12.9994
綢	-12.9994
診	-12.9995
妥	-12.9995
溜	-12.9995
愴	-12.9996
廡	-12.9996
痁	-12.9996
殖	-12.9996
蝟	-12.9996
悕	-12.9996
駟	-12.9996
瞳	-12.9996
卸	-12.9996
黯	-12.9996
欬	-12.9997
鍵	-12.9997
瘧	-12.9997
簇	-12.9998
葺	-12.9998
蔚	-12.9999
佞	-12.9999
殂	-12.9999
殤	-12.9999
腿	-12.9999
鞮	-12.9999
詛	-12.9999
蜾	-13
藻	-13
漾	-13
舡	-13
慌	-13
勁	-13.0001
韮	-13.0001
鹵	-13.0001
禺	-13.0001
㒵	-13.0001
邂	-13.0001
俛	-13.0002
鈸	-13.0002
蓐	-13.0002
褓	-13.0002
㐫	-13.0002
胖	-13.0002
餽	-13.0002
尫	-13.0002
穎	-13.0002
蠃	-13.0003
膖	-13.0003
瑣	-13.0004
嘖	-13.0004
蒐	-13.0005
紐	-13.0005
耿	-13.0005
蘋	-13.0005
吒	-13.0005
璀	-13.0006
饗	-13.0006
讒	-13.0006
鍮	-13.0006
殯	-13.0006
璨	-13.0006
烙	-13.0007
蹕	-13.0007
唼	-13.0007
笻	-13.0007
肴	-13.0007
鄮	-13.0007
霖	-13.0008
槽	-13.0008
謔	-13.0008
閎	-13.0008
汰	-13.0009
堵	-13.0009
収	-13.0009
丟	-13.0009
𧂐	-13.0009
牕	-13.0011
扈	-13.0011
窂	-13.0011
綾	-13.0011
秊	-13.0012
薨	-13.0012
厓	-13.0013
檝	-13.0014
構	-13.0014
奭	-13.0014
蒭	-13.0014
癖	-13.0014
穹	-13.0015
膓	-13.0016
曙	-13.0016
訃	-13.0017
謄	-13.0018
扄	-13.0018
牡	-13.002
筯	-13.002
葫	-13.002
髦	-13.002
姆	-13.002
椿	-13.0021
僭	-13.0022
閾	-13.0025
璫	-13.0028
琰	-13.0031
鷃	-13.0031
賭	-13.0031
糖	-13.0035
嚧	-13.006
鼙	-13.006
撼	-13.1614
穰	-13.1617
滂	-13.162
𠷣	-13.1624
魑	-13.1625
魎	-13.1632
䏶	-13.1633
擄	-13.1633
洊	-13.1635
脗	-13.1637
悱	-13.1638
琛	-13.1639
褪	-13.1641
斵	-13.1642
恆	-13.1642
奎	-13.1643
虺	-13.1644
泐	-13.1644
磐	-13.1645
努	-13.1646
姬	-13.1648
駄	-13.1649
蓍	-13.165
祁	-13.1651
躔	-13.1651
踢	-13.1651
暈	-13.1652
覈	-13.1652
詶	-13.1653
鞫	-13.1653
𨽻	-13.1654
雱	-13.1654
締	-13.1654
攣	-13.1654
塾	-13.1655
嚬	-13.1656
蕋	-13.1656
惧	-13.1656
彀	-13.1656
珣	-13.1657
廛	-13.1657
舘	-13.1657
騫	-13.1657
膾	-13.1657
菁	-13.1657
岡	-13.1658
淒	-13.1658
􂎶	-13.1658
劈	-13.1659
鉗	-13.1659
崎	-13.166
裒	-13.166
爆	-13.166
燔	-13.1661
𦣱	-13.1661
慜	-13.1661
鐃	-13.1662
韈	-13.1662
欹	-13.1663
瞀	-13.1663
灕	-13.1663
𠎝	-13.1664
漕	-13.1664
狸	-13.1665
掄	-13.1665
僣	-13.1665
廩	-13.1665
樁	-13.1665
驛	-13.1665
閏	-13.1665
宸	-13.1666
猗	-13.1666
匱	-13.1667
䟽	-13.1667
絮	-13.1667
貂	-13.1667
諺	-13.1667
巽	-13.1668
觚	-13.1668
酤	-13.1668
鴦	-13.1668
趼	-13.1669
嚇	-13.1669
姟	-13.1669
虹	-13.1669
蜚	-13.1669
煢	-13.1669
駝	-13.1669
巍	-13.1669
桀	-13.1669
癘	-13.1669
侫	-13.167
瑗	-13.167
諗	-13.167
昞	-13.1671
旒	-13.1671
哨	-13.1671
覬	-13.1671
詡	-13.1671
󳯔	-13.1671
眎	-13.1673
絏	-13.1673
鵞	-13.1673
㨗	-13.1673
擷	-13.1673
邃	-13.1673
駿	-13.1674
泪	-13.1674
媧	-13.1675
傚	-13.1675
訾	-13.1675
薇	-13.1675
裩	-13.1675
箋	-13.1676
葩	-13.1676
蚖	-13.1676
咀	-13.1676
闞	-13.1676
儆	-13.1677
㡧	-13.1677
煮	-13.1677
嘔	-13.1677
睽	-13.1678
鸜	-13.1678
獃	-13.1678
繆	-13.1679
泳	-13.1679
圊	-13.168
踟	-13.168
赧	-13.168
堤	-13.168
熠	-13.1681
䬸	-13.1681
嚚	-13.1681
箴	-13.1681
繕	-13.1681
懦	-13.1681
鱓	-13.1681
嶠	-13.1681
麓	-13.1682
牓	-13.1682
澀	-13.1684
倪	-13.1684
詈	-13.1684
怵	-13.1685
愜	-13.1685
凟	-13.1685
噓	-13.1688
霈	-13.1689
犢	-13.169
觜	-13.169
榆	-13.1691
餞	-13.1693
籥	-13.1693
騷	-13.1694
醯	-13.1695
蜨	-13.1696
籪	-13.17
玫	-13.1712
脾	-13.3591
拗	-13.3596
鱷	-13.3599
輾	-13.3601
袞	-13.3602
摑	-13.3611
衽	-13.3623
埀	-13.3626
跣	-13.363
鯹	-13.363
轄	-13.363
捋	-13.3632
魍	-13.3632
鉛	-13.3634
凳	-13.3637
薀	-13.3637
垠	-13.3638
腕	-13.3639
蟾	-13.364
陬	-13.364
悍	-13.3641
簣	-13.3641
賡	-13.3642
犧	-13.3643
沴	-13.3644
羼	-13.3646
悌	-13.3647
肱	-13.3647
聃	-13.3648
鏁	-13.3649
瘟	-13.365
茘	-13.365
埒	-13.365
㶿	-13.365
𣹢	-13.365
亞	-13.3652
蚩	-13.3652
疋	-13.3652
攜	-13.3653
叅	-13.3653
樾	-13.3654
蹬	-13.3654
鈐	-13.3654
叚	-13.3655
毱	-13.3655
濬	-13.3655
牯	-13.3656
􂎫	-13.3656
蟠	-13.3656
纘	-13.3656
嫩	-13.3657
綉	-13.3657
榛	-13.3657
厘	-13.3658
漲	-13.3658
熒	-13.3658
耍	-13.3659
謐	-13.366
擠	-13.366
杪	-13.366
讟	-13.366
嘻	-13.3661
婪	-13.3661
盎	-13.3661
𤏙	-13.3661
挌	-13.3662
戍	-13.3662
菡	-13.3662
獷	-13.3662
黻	-13.3662
禰	-13.3662
駈	-13.3662
彙	-13.3662
晞	-13.3662
󰢍	-13.3662
鰥	-13.3663
琇	-13.3663
藂	-13.3663
楶	-13.3664
觔	-13.3664
丰	-13.3664
訕	-13.3665
韙	-13.3665
塤	-13.3665
搢	-13.3665
砍	-13.3665
匙	-13.3665
迓	-13.3665
𥥆	-13.3666
訢	-13.3666
昱	-13.3666
顇	-13.3666
臚	-13.3667
坵	-13.3667
巒	-13.3667
睿	-13.3667
纊	-13.3667
慍	-13.3667
鐔	-13.3667
頺	-13.3668
䦨	-13.3668
瀑	-13.3668
畦	-13.3668
摯	-13.3668
楮	-13.3668
檜	-13.3669
儗	-13.367
滉	-13.367
套	-13.367
磋	-13.367
霽	-13.367
漣	-13.3671
喙	-13.3671
癲	-13.3671
漪	-13.3671
杷	-13.3671
逭	-13.3672
氈	-13.3672
沌	-13.3672
仝	-13.3673
娼	-13.3673
隸	-13.3673
蹏	-13.3673
棃	-13.3673
殛	-13.3673
薤	-13.3674
駢	-13.3674
錘	-13.3674
筈	-13.3674
虀	-13.3674
粱	-13.3675
嚏	-13.3675
杆	-13.3675
㝡	-13.3675
錮	-13.3675
狡	-13.3676
帽	-13.3676
雛	-13.3676
渝	-13.3676
廂	-13.3676
刧	-13.3677
䆳	-13.3677
洙	-13.3677
褊	-13.3678
吽	-13.3678
墉	-13.3678
蠒	-13.3679
𠻳	-13.3679
䏺	-13.368
耔	-13.368
遄	-13.368
櫛	-13.3681
皐	-13.3681
淖	-13.3681
囤	-13.3681
纍	-13.3681
揜	-13.3681
羔	-13.3681
彧	-13.3681
瞌	-13.3682
癅	-13.3682
穅	-13.3683
肫	-13.3683
嗷	-13.3683
瀁	-13.3683
鷗	-13.3683
殼	-13.3684
雹	-13.3685
罟	-13.3685
黼	-13.3685
翱	-13.3686
毆	-13.3686
芩	-13.3686
輊	-13.3687
岫	-13.3687
佯	-13.3688
芷	-13.3688
蕃	-13.3688
猨	-13.3689
斐	-13.369
匯	-13.3696
贒	-13.3696
擣	-13.3697
曬	-13.3697
鶉	-13.3699
粳	-13.37
缽	-13.3706
饞	-13.371
礦	-13.3716
羝	-13.3737
贓	-13.6082
种	-13.6092
穡	-13.6099
絞	-13.6106
縊	-13.611
跖	-13.6111
靚	-13.6111
氳	-13.6115
績	-13.6117
犒	-13.6117
惋	-13.6117
魋	-13.6118
䢼	-13.612
搽	-13.6124
獰	-13.6124
頊	-13.6126
孾	-13.6127
嘶	-13.6127
茖	-13.6128
喰	-13.6128
𠗂	-13.6134
嶇	-13.6135
餮	-13.6135
匈	-13.6137
輦	-13.6138
爬	-13.6139
腎	-13.6139
詹	-13.6139
孑	-13.6139
搐	-13.6139
湍	-13.614
屙	-13.6141
羗	-13.6141
顫	-13.6141
鶩	-13.6144
俺	-13.6144
蔕	-13.6145
鯨	-13.6145
榴	-13.6145
豸	-13.6145
暘	-13.6146
譁	-13.6146
孼	-13.6146
覘	-13.6146
雇	-13.6146
飴	-13.6146
煬	-13.6147
杌	-13.6148
篦	-13.6148
􂶳	-13.6148
噍	-13.6148
抂	-13.6148
訒	-13.615
睇	-13.615
犴	-13.6151
竈	-13.6151
媵	-13.6152
裾	-13.6152
楓	-13.6152
鸝	-13.6152
鴞	-13.6152
墖	-13.6152
澨	-13.6152
軼	-13.6152
偹	-13.6153
砆	-13.6153
碔	-13.6153
蝗	-13.6153
媱	-13.6153
抃	-13.6153
聶	-13.6153
沁	-13.6154
蓆	-13.6155
弆	-13.6156
攞	-13.6156
鞵	-13.6156
𠍴	-13.6156
撚	-13.6156
坌	-13.6156
甸	-13.6157
貅	-13.6157
燬	-13.6158
幃	-13.6159
牋	-13.6159
扮	-13.6159
刈	-13.6159
孱	-13.6159
諡	-13.6159
𡟎	-13.6159
漩	-13.6159
頫	-13.616
覯	-13.616
踴	-13.616
獐	-13.616
搶	-13.616
昃	-13.616
浚	-13.6161
觝	-13.6161
塋	-13.6161
繢	-13.6162
悒	-13.6162
淄	-13.6162
睠	-13.6162
髭	-13.6162
潸	-13.6162
甑	-13.6162
佔	-13.6163
聒	-13.6163
潺	-13.6163
碓	-13.6163
湔	-13.6163
貺	-13.6163
輳	-13.6163
亢	-13.6164
拕	-13.6164
惘	-13.6164
驤	-13.6164
䂮	-13.6164
唫	-13.6165
窖	-13.6166
諠	-13.6166
潁	-13.6166
湫	-13.6166
濠	-13.6166
襠	-13.6166
廳	-13.6166
凖	-13.6166
瘠	-13.6167
篡	-13.6167
旰	-13.6167
俚	-13.6167
弒	-13.6167
彖	-13.6167
衮	-13.6167
懂	-13.6168
匏	-13.6168
蕤	-13.6169
輅	-13.6169
陡	-13.6169
唳	-13.6169
賚	-13.6169
嚙	-13.6169
繳	-13.617
澶	-13.617
遯	-13.617
孀	-13.617
漬	-13.617
盋	-13.617
砭	-13.617
匆	-13.617
嗚	-13.617
跽	-13.6171
澂	-13.6171
暝	-13.6171
墅	-13.6171
凰	-13.6171
嚶	-13.6171
媒	-13.6171
敂	-13.6172
迤	-13.6172
輓	-13.6173
嵓	-13.6173
蔀	-13.6173
柝	-13.6173
曄	-13.6173
刁	-13.6174
絰	-13.6174
􂷩	-13.6174
籐	-13.6175
胄	-13.6175
蘚	-13.6175
衿	-13.6175
蓽	-13.6176
槍	-13.6176
鐶	-13.6176
眚	-13.6177
瘵	-13.6177
砲	-13.6177
竢	-13.6177
􂷭	-13.6177
戢	-13.6177
蠭	-13.6178
隳	-13.6178
褱	-13.6178
􂷴	-13.6178
晣	-13.6178
幘	-13.6178
蹲	-13.6178
灸	-13.6179
姤	-13.618
瘴	-13.618
匃	-13.6181
舁	-13.6181
桔	-13.6181
藿	-13.6181
亶	-13.6181
皃	-13.6182
肄	-13.6182
諟	-13.6182
郢	-13.6183
縶	-13.6183
晢	-13.6184
㖿	-13.6184
啊	-13.6184
顰	-13.6186
梆	-13.6186
睢	-13.6186
煅	-13.6187
鞘	-13.6187
賬	-13.6188
痿	-13.6189
彳	-13.6189
愔	-13.6189
閧	-13.619
頡	-13.6191
駑	-13.6192
袂	-13.6192
颶	-13.6193
褚	-13.6195
┘	-13.6196
笋	-13.6197
聻	-13.6198
鞍	-13.6199
膊	-13.62
碾	-13.6202
霔	-13.6206
紗	-13.6207
獍	-13.6209
搪	-13.6214
玎	-13.6216
鄂	-13.6243
涶	-13.9359
顥	-13.9426
凭	-13.943
濾	-13.9437
敞	-13.944
亷	-13.9443
撕	-13.9444
笟	-13.9445
𧹞	-13.9445
萑	-13.9449
轇	-13.9449
轕	-13.9451
瀼	-13.9451
剮	-13.9455
𤢆	-13.9455
縟	-13.9456
筮	-13.9456
磲	-13.9457
赶	-13.9457
匵	-13.9459
啾	-13.9459
絜	-13.9459
玕	-13.9461
啜	-13.9461
暵	-13.9463
鑣	-13.9465
熹	-13.9465
㘑	-13.9465
瑪	-13.9467
迯	-13.9467
菔	-13.9469
鴂	-13.947
𠁼	-13.9471
􂏬	-13.9471
氐	-13.9471
苧	-13.9472
鯁	-13.9472
凱	-13.9472
虩	-13.9474
嶂	-13.9474
螘	-13.9474
腴	-13.9474
柩	-13.9474
閽	-13.9475
黿	-13.9476
㗛	-13.9476
儋	-13.9478
闖	-13.9478
勦	-13.9478
諛	-13.9478
鵡	-13.9478
汐	-13.948
倬	-13.948
嗢	-13.948
憕	-13.948
笥	-13.948
襃	-13.948
觖	-13.948
况	-13.948
柢	-13.948
毳	-13.9482
羇	-13.9482
洴	-13.9482
螂	-13.9482
鏹	-13.9482
騃	-13.9482
昴	-13.9484
謳	-13.9484
珞	-13.9484
姒	-13.9484
矇	-13.9484
躃	-13.9484
寖	-13.9484
邏	-13.9486
炒	-13.9486
樑	-13.9486
醃	-13.9486
醻	-13.9486
逵	-13.9487
甃	-13.9488
荄	-13.9488
朞	-13.9488
毓	-13.9488
糅	-13.9488
盌	-13.9488
钁	-13.9488
离	-13.9489
𤙖	-13.949
瘞	-13.949
鴟	-13.949
嚫	-13.949
隈	-13.949
頎	-13.949
謦	-13.9491
諄	-13.9492
棊	-13.9492
嚲	-13.9492
壻	-13.9492
櫺	-13.9492
哄	-13.9492
鑼	-13.9492
𠶹	-13.9492
黐	-13.9492
䠒	-13.9493
矰	-13.9493
涑	-13.9494
嗇	-13.9494
窬	-13.9494
窘	-13.9494
籲	-13.9494
𡧯	-13.9494
弋	-13.9495
蓞	-13.9495
賸	-13.9495
栴	-13.9495
􂖷	-13.9496
溉	-13.9496
謭	-13.9496
餧	-13.9496
窶	-13.9496
戞	-13.9496
姙	-13.9496
豼	-13.9496
茁	-13.9497
撩	-13.9497
鯤	-13.9498
𩟠	-13.9498
从	-13.9498
嵌	-13.9498
抝	-13.9498
罅	-13.9498
𤘽	-13.9498
霛	-13.9498
嵒	-13.9499
囈	-13.9499
荻	-13.9499
㝱	-13.9499
懍	-13.9499
崢	-13.9499
祉	-13.9499
耦	-13.9499
拌	-13.9499
氎	-13.95
猊	-13.95
仵	-13.95
楗	-13.95
濱	-13.95
晒	-13.9501
𨷂	-13.9501
鴛	-13.9501
峽	-13.9501
摠	-13.9501
濺	-13.9501
盰	-13.9501
祟	-13.9501
􂋧	-13.9501
挐	-13.9502
墯	-13.9502
辠	-13.9502
𨓏	-13.9503
邗	-13.9503
髑	-13.9503
霪	-13.9503
鬥	-13.9503
簀	-13.9503
沗	-13.9503
跕	-13.9503
宕	-13.9503
尪	-13.9503
慫	-13.9503
甥	-13.9503
癤	-13.9503
嵬	-13.9503
黜	-13.9504
秧	-13.9505
婺	-13.9505
昉	-13.9505
翾	-13.9505
惲	-13.9505
拷	-13.9505
港	-13.9505
煦	-13.9505
鸎	-13.9505
慂	-13.9505
袵	-13.9506
斁	-13.9506
隰	-13.9507
型	-13.9507
騾	-13.9507
=	-13.9507
刎	-13.9507
叠	-13.9507
芿	-13.9508
壟	-13.9508
戱	-13.9508
琯	-13.9509
睞	-13.9509
綬	-13.9509
粤	-13.951
瞶	-13.951
藁	-13.951
𦳊	-13.9511
媟	-13.9511
淘	-13.9511
狴	-13.9511
嚊	-13.9511
瓚	-13.9511
穌	-13.9511
𤚲	-13.9511
饋	-13.9512
躳	-13.9512
𤏊	-13.9513
煨	-13.9513
弈	-13.9513
僮	-13.9513
畿	-13.9513
曘	-13.9513
睥	-13.9513
澣	-13.9513
俏	-13.9515
煽	-13.9515
倔	-13.9515
嶷	-13.9515
鍱	-13.9515
餬	-13.9515
斆	-13.9515
柬	-13.9515
盅	-13.9516
坏	-13.9517
袌	-13.9517
欻	-13.9517
烽	-13.9517
苛	-13.9519
徂	-13.9519
殀	-13.9519
瀋	-13.9519
燿	-13.9519
疹	-13.9519
羂	-13.9519
酆	-13.9519
蹌	-13.9521
氤	-13.9521
㸑	-13.9521
汀	-13.9521
㲲	-13.9521
邢	-13.9521
踉	-13.9522
薏	-13.9523
髯	-13.9523
鉞	-13.9523
嗽	-13.9525
墩	-13.9526
殽	-13.9526
紏	-13.9526
荏	-13.9526
緡	-13.9528
佃	-13.9528
逋	-13.9528
淼	-13.953
鏃	-13.953
瘀	-13.953
𥢶	-13.953
蜯	-13.9534
櫪	-13.9534
鼇	-13.9537
煗	-13.9538
晌	-13.954
瞢	-13.9542
翟	-13.9542
嫚	-13.9544
蠉	-13.9544
梳	-13.9546
棉	-13.9546
髫	-13.9554
埿	-13.9555
𦞦	-13.9567
噤	-13.9578
擻	-14.4358
咼	-14.4406
㜸	-14.4409
喀	-14.4421
捏	-14.4425
廖	-14.4441
繽	-14.4443
嘩	-14.4447
寱	-14.4447
逍	-14.4449
弣	-14.445
彆	-14.445
懜	-14.445
塠	-14.4453
佘	-14.4456
凊	-14.4456
婿	-14.4456
䘖	-14.4456
㘕	-14.4459
跎	-14.4459
唆	-14.4459
壩	-14.4459
勣	-14.4459
萏	-14.4459
揠	-14.4459
坼	-14.4462
䘏	-14.4463
帷	-14.4463
哇	-14.4463
忩	-14.4463
磣	-14.4469
咍	-14.4469
崐	-14.4472
瓈	-14.4475
剁	-14.4475
厈	-14.4475
墊	-14.4475
刲	-14.4475
娓	-14.4475
幬	-14.4475
怔	-14.4475
悸	-14.4475
霅	-14.4478
嫻	-14.4478
慴	-14.4478
懌	-14.4478
噵	-14.4478
亹	-14.448
乱	-14.4481
庥	-14.4481
壳	-14.4481
嚝	-14.4481
鷺	-14.4485
惇	-14.4485
㒋	-14.4485
慠	-14.4485
㽱	-14.4485
簽	-14.4485
幀	-14.4485
呢	-14.4486
懟	-14.4488
嬪	-14.4488
㨾	-14.4488
䀨	-14.4488
嘈	-14.4488
挖	-14.4488
姣	-14.4489
戄	-14.4491
怫	-14.4491
冦	-14.4491
辣	-14.4491
倅	-14.4491
卛	-14.4491
徭	-14.4491
帡	-14.4491
仔	-14.4492
抳	-14.4494
●	-14.4494
㘅	-14.4494
兕	-14.4494
墪	-14.4494
怳	-14.4494
儂	-14.4494
嘵	-14.4494
噹	-14.4494
庙	-14.4494
忮	-14.4496
慞	-14.4497
弧	-14.4497
㬢	-14.4497
巉	-14.4497
卭	-14.4497
嘐	-14.4497
悤	-14.4497
戇	-14.4497
晶	-14.4499
嫫	-14.45
崕	-14.45
凹	-14.45
扃	-14.45
壙	-14.45
剽	-14.45
圉	-14.45
䗍	-14.4503
僦	-14.4504
抅	-14.4504
估	-14.4504
俣	-14.4504
厝	-14.4504
噑	-14.4504
圬	-14.4504
垾	-14.4504
呾	-14.4507
勖	-14.451
㪷	-14.451
仃	-14.451
囓	-14.451
埜	-14.451
怦	-14.4511
劭	-14.4513
庋	-14.4513
B	-14.4513
丶	-14.4513
屐	-14.4513
圅	-14.4515
傭	-14.4516
恧	-14.4516
䁥	-14.4518
懆	-14.4519
嘷	-14.4522
嶼	-14.4526
儁	-14.4526
揉	-14.4526
怏	-14.4526
庄	-14.4529
崚	-14.4529
鸚	-14.4529
妷	-14.4529
咻	-14.4532
囫	-14.4532
圇	-14.4532
憗	-14.4532
廨	-14.4535
A	-14.4536
喿	-14.4541
卬	-14.4548
庿	-14.4548
吩	-14.4551
咐	-14.4551
呶	-14.4551
圃	-14.4554
咯	-14.4557
媽	-14.4557
妯	-14.456
慥	-14.4582
㗭	-14.4585
恁	-15.4312
懥	-15.4332
懞	-15.4333
恡	-15.4334
忓	-15.4335
幙	-15.4336
嶸	-15.4337
嶮	-15.4338
嶋	-15.4339
嵯	-15.434
孛	-15.4341
媻	-15.4342
娣	-15.4343
姮	-15.4344
夸	-15.4345
塲	-15.4346
埏	-15.4347
垤	-15.4348
囒	-15.4349
囌	-15.435
囅	-15.4351
噠	-15.4352
啒	-15.4353
啐	-15.4354
勔	-15.4355
儷	-15.4356
僑	-15.4357
侄	-15.4358
伉	-15.4359
䕺	-15.436
䅶	-15.4361
𩊭	-15.4362
𤦲	-15.4363
黽	-15.4364
麒	-15.4365
鴽	-15.4366
鰻	-15.4367
髴	-15.4368
髣	-15.4369
驂	-15.437
騶	-15.4371
騏	-15.4372
駙	-15.4373
頲	-15.4374
閘	-15.4375
鍪	-15.4376
鄔	-15.4377
躘	-15.4378
蹹	-15.4379
蹠	-15.438
蹐	-15.4381
蹂	-15.4382
跼	-15.4383
誾	-15.4384
蝴	-15.4385
蝠	-15.4386
蝙	-15.4387
蜃	-15.4388
蚯	-15.4389
虬	-15.439
蘂	-15.4391
薜	-15.4392
萱	-15.4393
荽	-15.4394
舐	-15.4395
繾	-15.4396
綮	-15.4397
綣	-15.4398
篝	-15.4399
租	-15.44
秈	-15.4401
祩	-15.4402
磊	-15.4403
瞪	-15.4404
眶	-15.4405
痼	-15.4406
璵	-15.4407
琸	-15.4408
獼	-15.4409
煆	-15.441
榭	-15.4411
桁	-15.4412
晰	-15.4413
昕	-15.4414
斮	-15.4415
斡	-15.4416
摝	-15.4417
揬	-15.4418
帑	-15.4419
宁	-15.442
囀	-15.4421
嚨	-15.4422
嚟	-15.4423
嘍	-15.4424
俘	-15.4425
亍	-15.4426
䗫	-15.4427
䂎	-15.4428
㷔	-15.4429
𨁝	-15.443
𤱶	-15.4431
𣯶	-15.4432
朧	-15.4433
黌	-15.4433
鐂	-15.4434
鏑	-15.4435
郝	-15.4436
躄	-15.4437
蹰	-15.4438
褰	-15.4439
蘗	-15.444
葆	-15.4441
莞	-15.4442
耡	-15.4443
翡	-15.4444
縹	-15.4445
緲	-15.4446
簋	-15.4447
礵	-15.4448
癯	-15.4449
臾	-15.445
甡	-15.445
熢	-15.4451
瀘	-15.4452
徜	-15.4453
廝	-15.4454
娉	-15.4455
姝	-15.4456
哽	-15.4457
剴	-15.4458
└	-15.4459
┐	-15.446
┌	-15.4461
-	-15.4462
靉	-15.4463
靆	-15.4464
蹴	-15.4465
觳	-15.4466
觫	-15.4467
蝣	-15.4468
蜋	-15.4469
蜉	-15.447
菟	-15.4471
縲	-15.4472
鼷	-15.4473
筴	-15.4473
牝	-15.4474
溽	-15.4475
涔	-15.4476
愀	-15.4477
嵋	-15.4478
喟	-15.4479
倆	-15.448
硨	-15.4481
鵶	-15.4481
顱	-15.4482
邙	-15.4483
逅	-15.4484
踡	-15.4485
襁	-15.4486
蕞	-15.4487
苕	-15.4488
艣	-15.4489
胭	-15.449
糢	-15.4491
窣	-15.4492
琮	-15.4493
猖	-15.4494
爹	-15.4495
朮	-15.4496
暄	-15.4497
掙	-15.4498
扳	-15.4499
忪	-15.45
垛	-15.4501
咷	-15.4502
侖	-15.4503
銑	-15.4504
趲	-15.4505
臊	-15.4506
胮	-15.4507
岌	-15.4508
圞	-15.4509
匐	-15.451
靂	-15.4511
酡	-15.4512
痔	-15.4513
逡	-15.4513
螄	-15.4514
蚣	-15.4515
蚘	-15.4516
苓	-15.4517
砒	-15.4518
矻	-15.4519
栩	-15.452
杼	-15.4521
懡	-15.4522
懘	-15.4523
惒	-15.4524
惉	-15.4525
彬	-15.4526
嬖	-15.4527
嘮	-15.4528
僚	-15.4529
倀	-15.453
㦬	-15.4531
躇	-15.4532
跬	-15.4533
烱	-15.4534
滇	-15.4535
槨	-15.4536
拉	-15.4537
惓	-15.4538
惆	-15.4539
𤥭	-15.454
颼	-15.4541
薝	-15.4542
芭	-15.4543
畋	-15.4544
攖	-15.4545
璖	-15.4546
鏗	-15.4547
螃	-15.4548
琊	-15.4549
悵	-15.455
㘞	-15.4551
顙	-15.4552
憔	-15.4553
𨤲	-15.4554
霎	-15.4555
竮	-15.4556
竛	-15.4557
俐	-15.4558
莂	-15.4559
瀟	-15.456
槵	-15.4561
駸	-15.4562
棱	-15.4563
—	-15.4564
剞	-15.4565
孳	-15.4566
嘹	-15.4567
匇	-15.4568
螻	-15.4569
徘	-15.457
碼	-15.4571
樝	-15.4572
鴝	-15.4573
饉	-15.4574
骷	-15.4575
袾	-15.4576
琥	-15.4577
珀	-15.4578
僥	-15.4579
┤	-15.458
├	-15.4581
胝	-15.4582
玲	-15.4583
睺	-15.4584
袈	-15.4585
嚀	-15.4586
瑚	-15.4587
醐	-15.4588
跏	-15.4589
>	-15.459
─	-15.4591
|	-15.4592
呞	-15.4592
