<unk>	0
<s>	0
</s>	0
,	-1.98532
。	-3.48017
、	-3.48742
:「	-4.57656
!	-4.60507
者	-4.88754
。」	-4.98139
有	-5.05076
不	-5.09807
?	-5.13326
彼	-5.27314
時	-5.28329
為	-5.28562
已	-5.46211
我	-5.46544
如是	-5.4882
;	-5.5193
爾時	-5.53136
:『	-5.53715
於	-5.58958
法	-5.59167
行	-5.61401
生	-5.63257
此	-5.70662
世尊	-5.71913
若	-5.73153
無	-5.74154
是	-5.74596
以	-5.7845
。「	-5.79103
比丘	-5.80989
之	-5.83173
言	-5.84656
故	-5.84675
人	-5.8735
得	-5.88086
身	-5.93054
曰	-5.93475
見	-5.93896
其	-5.94381
?」	-5.95815
。』	-5.98875
心	-5.99385
所	-5.99691
諸比丘	-6.00134
:	-6.04632
受	-6.04843
而	-6.06084
如	-6.08979
中	-6.11404
欲	-6.12089
當	-6.16384
王	-6.16556
諸	-6.19719
說	-6.20478
便	-6.25458
汝	-6.26937
知	-6.28001
從	-6.29147
也	-6.29652
佛	-6.31047
大	-6.33541
自	-6.33764
及	-6.34679
意	-6.36107
即	-6.37006
如來	-6.38301
善	-6.39404
一	-6.39794
謂	-6.40538
復	-6.41748
▁	-6.42147
云何	-6.42691
耶	-6.43747
亦	-6.44009
阿難	-6.45302
在	-6.45691
作	-6.46785
苦	-6.46885
念	-6.47129
道	-6.48064
天	-6.48356
樂	-6.48645
與	-6.49473
至	-6.50111
色	-6.52491
食	-6.53401
非	-6.53499
一時	-6.5558
住	-6.58719
何	-6.59556
盡	-6.61087
想	-6.61484
或	-6.61718
處	-6.62803
出	-6.66831
入	-6.66935
能	-6.67137
是時	-6.67311
相	-6.67314
名	-6.67427
滅	-6.68239
來	-6.68916
起	-6.69441
上	-6.70138
令	-6.70326
觀	-6.73422
婆羅門	-6.74613
眾	-6.75043
四	-6.75917
斷	-6.76979
皆	-6.79153
可	-6.80532
無有	-6.81048
問	-6.81792
等	-6.81796
聞	-6.82271
識	-6.82446
今	-6.83319
三	-6.84639
梵志	-6.84865
乃至	-6.84894
取	-6.85436
聞佛所說	-6.86012
一切	-6.87185
語	-6.87561
事	-6.88111
離	-6.89025
應	-6.94224
求	-6.94903
惡	-6.94928
施	-6.95796
眾生	-6.96595
復次	-6.9763
本	-6.98215
歡喜奉行	-6.99731
常	-6.99771
二	-6.99875
著	-6.99998
世間	-7.00182
地	-7.00604
多	-7.0097
修	-7.01268
捨	-7.0152
因	-7.01533
持	-7.02416
如是我聞	-7.02669
沙門	-7.02779
則	-7.03105
戒	-7.04857
水	-7.0559
白	-7.05665
死	-7.07668
覺	-7.07775
使	-7.07824
經	-7.08096
是謂	-7.11414
後	-7.11807
是故	-7.14444
愛	-7.16098
解脫	-7.16603
清淨	-7.17868
子	-7.17987
止	-7.19049
正	-7.19809
我今	-7.21058
隨	-7.21191
報	-7.2131
極	-7.22064
坐	-7.22308
去	-7.23131
義	-7.23234
定	-7.23534
下	-7.24491
前	-7.24852
向	-7.24994
勝	-7.25985
長者	-7.2659
答曰	-7.26591
於是	-7.27675
七	-7.27677
淨	-7.27677
五	-7.29117
?』	-7.29305
具	-7.29511
俱	-7.29787
白佛言	-7.3036
火	-7.3039
共	-7.30922
六	-7.31057
所以者	-7.33807
成	-7.34043
成就	-7.34227
他	-7.34931
供養	-7.35144
緣	-7.3524
具足	-7.36605
習	-7.3689
業	-7.37982
內	-7.38213
是名	-7.38362
還	-7.38716
明	-7.39205
教	-7.39671
所謂	-7.39859
亦不	-7.40143
世尊告諸比丘	-7.40642
汝等	-7.41059
又	-7.41132
智	-7.41613
口	-7.42431
利	-7.44191
瞿曇	-7.44661
無量	-7.45517
力	-7.45519
尊者	-7.45673
我等	-7.46434
弟子	-7.46852
過	-7.46962
學	-7.47
耳	-7.47145
依	-7.4735
信	-7.47377
空	-7.4751
思惟	-7.47677
若有	-7.47864
病	-7.48409
師	-7.48977
家	-7.48988
少	-7.49111
衣	-7.49835
未	-7.50883
種	-7.51577
喜	-7.51816
善哉	-7.52051
當知	-7.52093
(	-7.53624
好	-7.53772
種種	-7.54287
國	-7.54358
答	-7.54603
除	-7.55535
不得	-7.55867
命	-7.56283
然	-7.56301
慧	-7.5692
樹	-7.57074
論	-7.57327
世	-7.58018
難	-7.58753
聲	-7.58756
不可	-7.58905
諸天	-7.59382
是為	-7.5965
歡喜	-7.59973
眼	-7.60352
悉	-7.60422
更	-7.611
因緣	-7.62081
諸賢	-7.62799
願	-7.62924
女	-7.62962
異	-7.63015
味	-7.63245
不知	-7.63779
各	-7.6422
大王	-7.64401
度	-7.64574
轉	-7.64647
足	-7.64836
重	-7.64972
先	-7.65203
智慧	-7.65261
集	-7.65371
果	-7.659
餘	-7.66075
不能	-7.66467
日	-7.66928
說法	-7.67055
現	-7.67235
八	-7.6857
山	-7.69475
沙門瞿曇	-7.69803
往	-7.69915
頭	-7.70014
觸	-7.7033
但	-7.70569
實	-7.71141
猶如	-7.71926
小	-7.72337
香	-7.72363
第一	-7.72529
金	-7.72868
!」	-7.73181
妙	-7.73222
用	-7.73298
門	-7.73595
風	-7.74828
外	-7.75315
出家	-7.75689
將	-7.75772
尊者阿難	-7.75982
必	-7.75993
莫	-7.76579
解	-7.76721
尊	-7.77518
流	-7.77702
瞋恚	-7.78365
所說	-7.78648
分	-7.78822
佛言	-7.79282
佛說此經已	-7.79328
癡	-7.79807
乃	-7.7986
佛住舍衛國祇樹給孤獨園	-7.80199
界	-7.80561
趣	-7.81421
無常	-7.81493
痛	-7.82052
息	-7.82443
由	-7.82474
摩	-7.82625
譬如	-7.82688
居士	-7.83236
迦葉	-7.83333
福	-7.83758
功德	-7.83829
長	-7.83873
告	-7.84124
。」「	-7.84126
城	-7.84546
羅	-7.84627
壞	-7.84731
亦復如是	-7.85283
)	-7.85582
神	-7.86031
世尊告曰	-7.86603
地獄	-7.86625
護	-7.86728
數	-7.87248
廣	-7.87519
象	-7.87746
父母	-7.8831
根	-7.88392
名為	-7.88643
佛告	-7.8869
作是念	-7.89296
壽	-7.90214
方便	-7.90585
母	-7.90727
立	-7.90833
涅槃	-7.90841
答言	-7.91156
憂	-7.91888
寶	-7.92698
高	-7.92935
老	-7.93716
賢者	-7.93954
乘	-7.93963
生死	-7.94586
精進	-7.94615
既	-7.94787
牛	-7.94946
同	-7.95031
設	-7.95048
次	-7.95071
婆	-7.95441
十	-7.96128
聚	-7.96253
恒	-7.96355
汝今	-7.96475
結	-7.96665
惱	-7.96811
復有	-7.97497
詣	-7.97757
於彼	-7.97924
佛在舍衛國祇樹給孤獨園	-7.98081
等正覺	-7.98115
命終	-7.98526
恚	-7.98664
華	-7.99074
分別	-7.99128
唯	-7.99171
貪	-7.99529
梵行	-7.99761
到	-8.00448
殺	-8.01395
形	-8.01553
飲食	-8.01628
人民	-8.01737
舍	-8.01742
吾	-8.0178
初	-8.01898
彼人	-8.02291
九	-8.02322
所有	-8.02748
》	-8.02788
斯	-8.03312
滿	-8.03409
那	-8.0375
律	-8.0399
患	-8.0411
迦	-8.04181
主	-8.04182
罪	-8.04533
何等為	-8.04591
發	-8.04686
比丘尼	-8.04919
車	-8.05197
猶	-8.05859
獲	-8.05935
聞如是	-8.06376
乎	-8.06468
陀	-8.07014
於此	-8.07159
失	-8.07276
治	-8.07821
害	-8.0789
.	-8.07958
三昧	-8.08966
名曰	-8.09376
舍利弗	-8.10034
光	-8.10273
何等	-8.10315
墮	-8.10557
安	-8.10692
竟	-8.10788
修習	-8.10921
千	-8.11964
阿	-8.11993
安隱	-8.12194
沒	-8.12366
林	-8.12426
邪見	-8.12603
梵	-8.12919
光明	-8.13067
身壞命終	-8.13069
。』」	-8.13461
或有	-8.13586
梵天	-8.14216
善法	-8.14259
觀察	-8.14549
邊	-8.1459
燒	-8.14672
魔	-8.14811
此是	-8.14942
舉	-8.1516
一者	-8.15172
第二	-8.15365
百	-8.15574
所以然者	-8.15704
聽	-8.15854
深	-8.1606
月	-8.1693
化	-8.1707
甚	-8.17718
馬	-8.17795
不善	-8.17968
不樂	-8.17978
恭敬	-8.18008
彼比丘	-8.18032
思	-8.18115
愚癡	-8.1849
正法	-8.18618
方	-8.18852
稱	-8.19566
。』「	-8.1962
亦有	-8.20181
鼻	-8.20278
證	-8.2064
請	-8.20798
對	-8.2096
二者	-8.21038
五百	-8.21146
雖	-8.21573
婬	-8.21755
此人	-8.2188
有一	-8.22567
邪	-8.22673
劫	-8.22793
增	-8.23195
三十三天	-8.23315
己	-8.24014
照	-8.24288
會	-8.24309
復問	-8.24885
守	-8.25107
過去	-8.25665
自然	-8.25848
諦	-8.26124
之所	-8.26137
不見	-8.26587
舌	-8.26735
花	-8.27429
波	-8.27465
年	-8.27651
疑	-8.27867
財	-8.27997
如實知	-8.28037
遠離	-8.28339
修行	-8.285
之法	-8.28514
亦復	-8.28926
計	-8.29163
勿	-8.299
聖	-8.29912
熱	-8.2992
正見	-8.30653
帝釋	-8.3067
稽首佛足	-8.30729
僧	-8.30946
歸	-8.31124
親	-8.3134
般涅槃	-8.31424
悲	-8.31483
於中	-8.31574
夜	-8.31949
問曰	-8.32211
婦	-8.32387
三者	-8.32559
忍	-8.32607
無所	-8.32752
造	-8.3286
速	-8.33374
真	-8.33471
見已	-8.33522
往詣	-8.33832
誰	-8.33914
德	-8.34445
布施	-8.34769
禪	-8.3507
龍	-8.3555
手	-8.35887
聞已	-8.36097
覆	-8.36687
今日	-8.36901
皆悉	-8.37335
相應	-8.37414
以此	-8.3745
爾	-8.38107
離欲	-8.38148
要	-8.38389
宜	-8.38492
致	-8.39165
不復	-8.39272
別	-8.39637
敬	-8.39675
雨	-8.39849
所作	-8.39917
面	-8.40066
我當	-8.40662
而不	-8.40869
園	-8.40913
不應	-8.40961
棄	-8.41224
縛	-8.41258
久	-8.41506
佛說	-8.41694
第三	-8.41755
亦無	-8.41981
遊	-8.42238
黑	-8.42261
自在	-8.42824
須	-8.43065
正念	-8.43258
無所著	-8.43403
女人	-8.43842
天王	-8.4448
後世	-8.4456
夫	-8.44797
直	-8.44834
父	-8.45782
此法	-8.46229
臥	-8.46312
歎	-8.46392
宮	-8.46516
散	-8.46636
優婆塞	-8.46666
太子	-8.46802
無明	-8.47049
提	-8.47379
奉	-8.47547
天子	-8.47608
普	-8.47617
獨	-8.47783
合	-8.48036
如此	-8.48141
尊者舍梨子	-8.48396
開	-8.48875
遠	-8.48888
終	-8.48944
真實	-8.49042
頭面禮足	-8.49315
調	-8.49764
破	-8.51156
不生	-8.51413
現在	-8.51448
佛告比丘	-8.51612
放逸	-8.51717
池	-8.51851
當作是學	-8.52075
貪欲	-8.52077
若比丘	-8.52234
近	-8.52607
視	-8.52656
輩	-8.5276
物	-8.52931
諍	-8.52934
不淨	-8.53036
飲	-8.53463
亂	-8.53906
默然	-8.54345
居	-8.54587
童子	-8.54681
退坐一面	-8.54757
出家學道	-8.54904
疾	-8.55091
草	-8.55427
尋	-8.55448
轉輪聖王	-8.55944
銀	-8.56021
各各	-8.56155
神足	-8.56239
我所	-8.56241
慢	-8.56387
攝	-8.56727
器	-8.56793
賢	-8.57099
兩	-8.57181
類	-8.57272
持戒	-8.57675
又復	-8.57751
尼	-8.57814
:「『	-8.57851
終不	-8.58039
摩納	-8.58717
知如真	-8.58813
石	-8.5888
偈	-8.58924
鉢	-8.59316
恐怖	-8.59458
海	-8.59653
非法	-8.59919
意云何	-8.5995
之中	-8.60155
四者	-8.60179
即便	-8.6099
宮殿	-8.61087
熟	-8.61089
來詣佛所	-8.61321
釋	-8.61358
土	-8.61655
興	-8.61778
施設	-8.6208
苾芻	-8.6222
二十	-8.62338
唯然	-8.62484
厭	-8.62675
從是	-8.62826
七寶	-8.6343
無上	-8.63504
梵行已立	-8.63806
亦如是	-8.6391
剎利	-8.64135
刺	-8.643
而說偈言	-8.64342
最	-8.64628
執	-8.64637
鐵	-8.64736
通	-8.64857
何以故	-8.64877
尊者舍利弗	-8.64968
順	-8.65075
諦聽	-8.65263
脫	-8.65392
藏	-8.65589
河	-8.65614
大臣	-8.65642
我於	-8.65675
漏	-8.66367
天上	-8.66868
犯	-8.67307
歡喜隨喜	-8.67394
受持	-8.6741
字	-8.67472
我亦	-8.67698
何故	-8.67784
便作是念	-8.68074
賢聖	-8.68143
不也	-8.68145
拘	-8.68158
座	-8.68328
有此	-8.68408
阿羅漢	-8.6841
在一面坐	-8.68571
善逝	-8.68612
誦	-8.68695
如法	-8.68771
乞食	-8.68867
心解脫	-8.6891
瞋	-8.69013
退	-8.69054
無欲	-8.69103
憶	-8.69272
不著	-8.69273
之人	-8.69315
動	-8.69346
往至	-8.69409
記	-8.69414
禮	-8.69635
長夜	-8.69644
性	-8.69734
間	-8.69826
欲得	-8.70607
自知	-8.70772
懷	-8.70867
反	-8.70921
出要	-8.70938
何所	-8.70993
財物	-8.7101
肉	-8.71175
中有	-8.71665
是我	-8.71808
其中	-8.71916
床	-8.72178
何謂	-8.72212
眾中	-8.72281
其心	-8.72337
眷屬	-8.72462
捨離	-8.72489
轉輪王	-8.72543
未來	-8.72576
若有比丘	-8.72791
壽命	-8.73146
目連	-8.73347
兒	-8.73407
今當	-8.73575
被	-8.73617
骨	-8.7373
多聞	-8.73767
云何為	-8.73798
最上	-8.74092
天下	-8.742
有漏	-8.74357
樹下	-8.74398
煩惱	-8.74442
進	-8.74552
唯願	-8.74622
遙見	-8.74637
往詣佛所	-8.74831
雜	-8.74885
然後	-8.75003
不如	-8.75098
遍	-8.75103
《	-8.75345
有人	-8.7537
滅盡	-8.75383
喻	-8.75396
名色	-8.75428
人間	-8.75438
并	-8.75444
復作是念	-8.7558
波斯匿王	-8.7576
難陀	-8.75905
聚落	-8.76067
增長	-8.76101
而去	-8.76105
樓	-8.76148
多聞聖弟子	-8.76278
士	-8.76294
雲	-8.76337
如是說	-8.76464
盛	-8.76464
加	-8.76708
繫	-8.76719
師子	-8.76856
走	-8.7695
村	-8.77115
。』」「	-8.77577
畜生	-8.77789
體	-8.77803
親近	-8.78059
穢	-8.78065
慈	-8.78898
拔	-8.78988
No	-8.79462
水精	-8.79468
目	-8.79663
佛說如是	-8.79739
及諸	-8.79774
我說	-8.79779
於我	-8.79841
如真	-8.79877
云	-8.80154
國王	-8.80351
染	-8.80773
剃除鬚髮	-8.80777
蓋	-8.80837
毘	-8.80901
亦當	-8.8091
大眾	-8.80931
却坐一面	-8.81463
妄言	-8.81484
梨	-8.81678
勅	-8.81878
宿	-8.81931
萬	-8.82006
奉事	-8.82074
變	-8.82183
可得	-8.82256
路	-8.82573
和	-8.82588
)。	-8.82615
作是說	-8.8263
究竟	-8.82665
里	-8.82703
釋提桓因	-8.8282
聖弟子	-8.82821
不為	-8.82866
輪	-8.8303
有所	-8.83079
七重	-8.83132
白世尊	-8.83498
身體	-8.8351
半	-8.83783
陰	-8.83915
志	-8.84743
境界	-8.8485
睡眠	-8.84931
更樂	-8.84995
不起	-8.85085
沙	-8.85104
諸根	-8.8525
嚴	-8.85454
勤	-8.85566
若干	-8.85982
比	-8.86069
葉	-8.86072
苦行	-8.86125
一心	-8.86279
于	-8.86372
說偈言	-8.86522
北	-8.86529
皮	-8.86644
饒益	-8.86718
罪人	-8.86855
怨	-8.87147
快樂	-8.87278
縱廣	-8.87333
姓	-8.87535
無餘	-8.87544
心不	-8.87646
伽	-8.87659
減	-8.87692
守護	-8.87744
莊嚴	-8.87758
盜	-8.87844
之處	-8.8803
彼天子	-8.88069
問訊	-8.88223
鳥	-8.88475
不離	-8.8867
𧗪	-8.88694
夫人	-8.88739
天帝釋	-8.89173
正智	-8.8919
有大	-8.89247
到已	-8.89549
毀	-8.89589
堅固	-8.896
達	-8.89647
寧	-8.89749
即從坐起	-8.90323
畢	-8.90426
聲聞	-8.90427
八萬四千	-8.90831
最勝	-8.90867
不受	-8.90911
一切眾生	-8.91019
隨意	-8.91066
菩薩	-8.9158
正受	-8.91648
衣被	-8.91689
隨時	-8.91761
惡不善法	-8.92051
老死	-8.92059
第四	-8.92226
世界	-8.92264
不放逸	-8.92429
精勤	-8.92576
是名為	-8.92609
柔軟	-8.9268
木	-8.9271
佛告諸比丘	-8.92734
阿修羅	-8.92809
虛空	-8.92874
神通	-8.92912
世尊告	-8.92925
其身	-8.9296
無恚	-8.9312
遊行	-8.93153
恐	-8.93433
殺生	-8.93777
永	-8.94008
訖	-8.9401
諸法	-8.94204
天人	-8.94356
制	-8.94429
適	-8.94586
節	-8.94711
汝當	-8.94744
五欲	-8.94948
他人	-8.94966
覺知	-8.95514
十二	-8.95595
鬼	-8.95662
極為	-8.95782
四方	-8.95907
一人	-8.9598
東	-8.96048
句	-8.96169
調伏	-8.96371
罵	-8.96606
端正	-8.96709
置	-8.96819
思想	-8.96895
聞法	-8.96982
毒	-8.97002
虛妄	-8.97102
首	-8.97361
阿須倫	-8.97381
無為	-8.97413
當來	-8.97419
放	-8.9768
次第	-8.97701
作如是	-8.9771
齋	-8.97847
令我	-8.97954
其人	-8.97955
畏	-8.98247
悉皆	-8.98353
却	-8.98678
堂	-8.98842
服	-8.98855
御	-8.98871
著衣持鉢	-8.9908
了	-8.99272
苦痛	-8.99545
亦非	-8.99949
五者	-8.99979
南	-9.00086
為是	-9.00437
法者	-9.0059
伏	-9.00607
彼時	-9.00624
漸	-9.00689
飯	-9.00694
若復	-9.00984
所作已辦	-9.01141
量	-9.01204
於色	-9.01331
慳	-9.01335
悔	-9.01376
示	-9.01402
昔	-9.01494
安樂	-9.0163
敷	-9.01791
存	-9.01797
今此	-9.01798
不信	-9.01915
教授	-9.02199
以為	-9.02377
諸有	-9.02461
染著	-9.02481
舍利	-9.02585
愚	-9.03001
智者	-9.03098
即說偈言	-9.03189
滿足	-9.03238
便得	-9.03681
際	-9.03743
青	-9.03845
聖眾	-9.03846
吹	-9.03988
作是言	-9.04008
所行	-9.04048
微妙	-9.04057
白世尊言	-9.04077
善知識	-9.04314
讚歎	-9.04317
損	-9.0447
唯願世尊	-9.04515
違	-9.047
林中	-9.04736
族	-9.04821
刀	-9.04864
行者	-9.05087
有四	-9.05644
彼等	-9.0629
大海	-9.06465
今者	-9.06584
且	-9.0661
大師	-9.06621
果報	-9.06936
四大	-9.06944
得解脫	-9.07045
新	-9.07061
乳	-9.07102
強	-9.07138
億	-9.07162
「	-9.07214
渴	-9.07301
我不	-9.07354
美	-9.07364
輕	-9.07543
講堂	-9.07611
訶	-9.0775
赤	-9.07807
惠施	-9.08142
一一	-9.08164
髮	-9.08295
平等	-9.08364
跡	-9.08443
應當	-9.0857
聚落主	-9.08691
復以	-9.08694
稅	-9.08776
住處	-9.08802
西	-9.08827
短	-9.08918
降	-9.08925
眾多	-9.0895
二人	-9.08996
慈心	-9.09125
無想	-9.09315
捨家	-9.09361
支	-9.09469
我聞如是	-9.09515
而得	-9.09544
歲	-9.09754
告曰	-9.10375
賊	-9.107
呼	-9.10702
隨順	-9.10952
彼天	-9.11087
善男子	-9.11169
學道	-9.11289
如是見	-9.1151
遂	-9.11661
微	-9.11684
舍梨子	-9.117
人中	-9.11808
白佛	-9.11967
遇	-9.12161
塵	-9.12207
一向	-9.12236
!』	-9.12325
養	-9.12545
打	-9.12606
捉	-9.12663
臣	-9.12774
告諸比丘	-9.13013
始	-9.13074
眠	-9.13121
便有	-9.13136
白言	-9.13147
趣向	-9.13327
易	-9.13494
毛	-9.13656
十六	-9.13689
藥	-9.14084
民	-9.14128
麤	-9.14196
眾人	-9.14255
懈怠	-9.14469
端	-9.1475
寂滅	-9.14765
於法	-9.14845
能令	-9.14846
我是	-9.1488
勸	-9.15046
世人	-9.15174
諸佛	-9.1543
留	-9.15462
修梵行	-9.15477
為我	-9.15542
七日	-9.15601
漏盡	-9.15745
說偈	-9.15835
導	-9.15858
不住	-9.15929
薄	-9.15954
無數	-9.15956
愛樂	-9.16072
文	-9.16192
修妬路	-9.16411
優	-9.16452
而行	-9.16525
珠	-9.16594
望	-9.16595
無我	-9.16609
邪婬	-9.1664
白衣	-9.16793
鬪	-9.16992
生於	-9.17066
至世尊所	-9.17093
苦惱	-9.17144
愛欲	-9.1718
受教	-9.17187
平	-9.17306
堅	-9.17373
此義	-9.17439
餓鬼	-9.17444
妄語	-9.17457
東方	-9.17523
岸	-9.17609
阿那律陀	-9.17615
眾多比丘	-9.17782
截	-9.179
授	-9.18079
諸弟子	-9.18124
恩	-9.18272
經行	-9.1832
為人	-9.18358
入處	-9.18379
野	-9.18449
四天王	-9.18522
有三	-9.18572
憂慼	-9.18602
鬼神	-9.18933
三種	-9.18994
侍	-9.19005
四種	-9.19051
譬	-9.19252
我為	-9.19353
怖	-9.1937
不解	-9.19468
內外	-9.19499
佛告阿難	-9.19629
何處	-9.19785
得道	-9.19894
在前	-9.19981
垢	-9.19997
枝	-9.20052
是則	-9.20149
在家	-9.2044
之時	-9.20441
而生	-9.20453
日月	-9.20453
或以	-9.20492
外道	-9.20538
多有	-9.20604
殿	-9.20674
若彼	-9.21184
真諦	-9.21241
理	-9.21255
此事	-9.21328
辯	-9.21539
若見	-9.21546
我已	-9.21859
昇	-9.21917
怒	-9.2199
如前	-9.22065
三十	-9.2213
城中	-9.22157
如實	-9.22157
尊重	-9.22471
憍慢	-9.22513
決定	-9.22675
不善法	-9.22983
王舍城	-9.23107
無畏	-9.23332
血	-9.23408
疑惑	-9.23451
未曾	-9.23499
虛	-9.23602
即是	-9.2365
一處	-9.23838
作是	-9.23846
纏	-9.23859
活	-9.2396
未得	-9.23994
無復	-9.24126
珍寶	-9.24282
心生	-9.24345
因此	-9.24374
所見	-9.24375
王言	-9.24539
仰	-9.24619
乏	-9.24649
蜜	-9.24671
某	-9.2468
無家	-9.24985
遮	-9.25003
步	-9.25139
其義	-9.25212
氣	-9.25231
軍	-9.25305
止息	-9.25407
說此偈已	-9.25414
不苦不樂	-9.2542
遣	-9.2547
積	-9.25654
屬	-9.2572
音	-9.25729
熾然	-9.25766
語言	-9.25848
或復	-9.25905
棄捨	-9.25952
卿	-9.26071
滅度	-9.26106
提婆達兜	-9.26297
田	-9.26424
尚	-9.26469
戲	-9.26717
洲	-9.26763
細	-9.26898
曾	-9.27028
亦爾	-9.2723
冥	-9.27365
益	-9.2748
瞻	-9.27824
瓔珞	-9.27853
金銀	-9.27865
衰	-9.27897
布	-9.28059
指	-9.28077
於諸	-9.281
至信	-9.2817
收	-9.28223
至真	-9.28369
齊	-9.28386
......」	-9.28435
生天	-9.28524
此三	-9.28671
矣	-9.28672
尊者阿那律陀	-9.28724
男	-9.28807
當為	-9.29012
無色	-9.29067
精舍	-9.29202
士夫	-9.29238
此處	-9.29295
唯有	-9.29398
第五	-9.29461
若人	-9.29479
摩訶男	-9.29553
側	-9.29582
報言	-9.29586
辦	-9.29802
百千	-9.29814
我見	-9.29915
頌	-9.30133
似	-9.30488
妻	-9.305
逆	-9.30531
仙人	-9.30593
供	-9.31039
當修	-9.31068
避	-9.31175
脚	-9.3122
蟲	-9.31226
絕	-9.31242
豈	-9.31252
佛住王舍城迦蘭陀竹園	-9.31274
族姓子	-9.31485
如是比丘	-9.31489
惡趣	-9.31541
消	-9.31646
輸汝	-9.31691
於佛	-9.3175
所知	-9.31863
比丘當知	-9.32023
塔	-9.32289
和合	-9.32328
飛	-9.32413
天女	-9.32425
稽首禮足	-9.3243
增上	-9.3247
群	-9.32719
有二	-9.32759
亦如是說	-9.32892
嫉妬	-9.32915
幻	-9.32918
當以	-9.32922
瘡	-9.32955
不以	-9.33021
一法	-9.3306
慧解脫	-9.33079
黃	-9.33215
廣說	-9.33236
婆羅	-9.33314
飯食	-9.33359
惡業	-9.33371
有何	-9.33372
倍	-9.33389
兩舌	-9.33395
教誡	-9.33457
心穢	-9.33531
承事	-9.33568
見佛	-9.33649
淨戒	-9.33667
寂靜	-9.33809
非我	-9.33839
欲求	-9.33941
若無	-9.33975
其有	-9.33984
王所	-9.3406
羊	-9.34091
室	-9.34147
『	-9.34259
鬪諍	-9.34272
意行	-9.34435
已生	-9.34441
長老	-9.34497
彌	-9.34535
衣服	-9.34542
彼眾生	-9.34592
此比丘	-9.34647
晝夜	-9.34693
稱譽	-9.34748
不久	-9.34816
焰	-9.34816
末	-9.34923
況復	-9.34986
心意	-9.35087
給	-9.35114
清	-9.3513
稽首	-9.35267
!」「	-9.35441
富	-9.35567
若有人	-9.356
苦滅	-9.35755
而住	-9.3576
稱說	-9.35848
杖	-9.35942
倒	-9.35975
貴	-9.36005
彼一切	-9.3601
男女	-9.36073
愛念	-9.36115
寂	-9.36169
四十	-9.36224
閻浮提	-9.36253
兵	-9.36304
此世	-9.36363
善惡	-9.36396
闍	-9.36434
所問	-9.36444
丈夫	-9.36451
地獄中	-9.36545
著袈裟衣	-9.36547
知法	-9.36646
最後	-9.36673
由旬	-9.36704
就	-9.36705
錢財	-9.36733
純	-9.36773
云何比丘	-9.36842
惡行	-9.36874
知見	-9.36877
洗	-9.36977
覩	-9.3702
正定	-9.37092
魔波旬	-9.3725
波羅	-9.3734
身心	-9.37356
像	-9.37363
作禮而去	-9.37435
中間	-9.37451
甚深	-9.37546
如彼	-9.37566
房	-9.37676
離諸	-9.37691
即沒不現	-9.37733
不念	-9.37852
諸人	-9.3786
生地獄中	-9.38125
默	-9.38141
阿那律	-9.38178
俗	-9.38217
辟支佛	-9.38218
奴婢	-9.3828
增益	-9.38298
羅云	-9.3834
法中	-9.38366
佛在	-9.38415
當念	-9.38454
如上說	-9.3863
胎	-9.38718
禁戒	-9.38729
眾僧	-9.38766
備	-9.38837
呵	-9.38888
部	-9.38912
無事	-9.3893
犯戒	-9.3911
精	-9.3965
尸	-9.3971
降伏	-9.39753
皆是	-9.3989
壁	-9.39893
伺	-9.39919
傷	-9.39948
歡悅	-9.40088
辭	-9.40098
勇猛	-9.40111
忉利天	-9.40495
是等正覺	-9.40538
沸	-9.40578
塗	-9.40671
救	-9.40728
幾	-9.40871
何等為四	-9.41133
財寶	-9.41338
卑	-9.41353
第七	-9.41461
之心	-9.41597
不與	-9.41774
波旬	-9.41832
馬瑙	-9.41849
施與	-9.41998
甚奇	-9.42002
鹿	-9.42012
未生	-9.42147
有是	-9.42179
比丘僧	-9.42228
四諦	-9.42451
讚	-9.42497
云何知	-9.42507
熾盛	-9.42532
彼於	-9.42606
威儀	-9.42643
善思念之	-9.42674
猗	-9.42675
妻子	-9.42702
頗	-9.4271
十一	-9.42733
之道	-9.42837
出生	-9.42843
當為汝說	-9.42867
能得	-9.42876
為第一	-9.42954
欲令	-9.43012
云何為四	-9.43021
又問	-9.43022
羅漢	-9.43031
所以	-9.43176
君	-9.43211
冷	-9.43219
所作已作	-9.43273
優婆夷	-9.43296
北方	-9.43304
渡	-9.43351
須彌山	-9.43364
名字	-9.43398
都	-9.43457
奉行	-9.4347
憶念	-9.43592
往來	-9.43631
品	-9.43648
便生	-9.43692
無漏	-9.437
凡	-9.43732
眼識	-9.4377
負	-9.43806
迴	-9.43817
不喜	-9.43857
泥	-9.43859
獄卒	-9.44162
所為	-9.44201
快	-9.44249
帝	-9.44305
磨	-9.4433
何因	-9.44344
哀	-9.44443
亦如	-9.44545
顏色	-9.44558
王子	-9.44606
甘露	-9.44624
恩愛	-9.44681
是苦	-9.4479
舍利弗言	-9.44814
利養	-9.44822
以手	-9.4484
數數	-9.44846
上下	-9.44987
顧	-9.45055
五陰	-9.45079
知識	-9.4517
箭	-9.45207
坐禪	-9.45292
如是知	-9.45302
惡法	-9.4538
非常	-9.45385
得阿羅漢	-9.45661
亦知	-9.45667
央掘魔羅	-9.45708
苦樂	-9.45746
不遠	-9.45761
不可稱計	-9.45839
五蓋	-9.45841
周那	-9.45936
破壞	-9.45966
已知	-9.46079
造作	-9.46137
如是等	-9.46198
住於	-9.46249
有餘	-9.46372
侵	-9.46474
密	-9.46502
卷	-9.46891
即時	-9.46927
正思惟	-9.47018
龍王	-9.47055
極大	-9.47173
何緣	-9.47232
彼處	-9.47239
陀羅	-9.47286
生彼	-9.47302
愁	-9.47583
情	-9.47609
第十	-9.47705
利益	-9.47808
牟尼	-9.47815
摩訶	-9.47821
濟	-9.47861
泥犁中	-9.47934
舍衛國	-9.47979
阿難言	-9.4805
未曾有法	-9.4807
何等為三	-9.48082
生天上	-9.48206
工師	-9.48322
根本	-9.48474
咸	-9.48497
不失	-9.48601
隨所	-9.48884
以是因緣	-9.48901
善處	-9.4894
斷除	-9.49076
人所	-9.49217
我有	-9.49413
盲	-9.49571
七重欄楯	-9.4979
差	-9.49813
笑	-9.49824
垂	-9.49837
若不	-9.49846
幢	-9.49885
作是念已	-9.4994
夜叉	-9.49948
天人師	-9.50016
心念	-9.50075
現法	-9.50278
麁	-9.5028
或有一人	-9.50326
障	-9.50515
知足	-9.50548
愁憂	-9.50579
化作	-9.50622
為首	-9.50627
無上士	-9.50666
形體	-9.50688
為彼	-9.50709
世尊說偈答	-9.5078
可愛	-9.5083
了知	-9.50852
魔王	-9.51067
污	-9.51071
底	-9.51161
綺語	-9.51232
必得	-9.51268
福德	-9.51289
無邊	-9.513
淨除其心	-9.51359
能知	-9.51573
彼岸	-9.5164
世尊即說偈言	-9.51812
值	-9.51876
慚愧	-9.51892
所欲	-9.52032
水中	-9.52033
許	-9.52161
歸依	-9.52269
異學	-9.52355
容	-9.52404
周匝	-9.52442
燈	-9.52472
於世間	-9.52556
浮	-9.52592
祇樹給孤獨園	-9.52664
天神	-9.5278
善見	-9.52875
承	-9.52875
雜色	-9.52879
當學	-9.52945
佛世尊	-9.53026
手足	-9.53145
自念	-9.53175
越	-9.53255
酥	-9.53287
四念處	-9.53323
闇	-9.53327
侍者	-9.53427
多人	-9.5347
所應	-9.53491
亦然	-9.53518
六入	-9.53565
若我	-9.5365
還歸	-9.53694
手執	-9.53821
作如是言	-9.53902
正命	-9.53909
移	-9.53963
四事	-9.54041
吒	-9.54041
瓶	-9.54046
作如是說	-9.54126
調御	-9.54243
顛倒	-9.54247
上座	-9.54248
禮事	-9.54265
正覺	-9.54366
大仙人	-9.54374
非人	-9.5442
我欲	-9.54422
無食	-9.54535
入於	-9.54535
惟	-9.54542
善說	-9.54572
園中	-9.54657
知此	-9.54789
慧者	-9.54827
憂苦	-9.54905
莫令	-9.54963
何法	-9.54988
力士	-9.55005
受苦	-9.55114
軟	-9.5541
身行	-9.5545
急	-9.55472
共相	-9.55683
以其	-9.55686
此間	-9.55709
若能	-9.55778
則不	-9.55806
弊	-9.55809
大人	-9.55828
我生已盡	-9.55851
在彼	-9.55929
見之	-9.55957
非為	-9.56009
烏	-9.56069
天眼	-9.56081
世間解	-9.56089
所生	-9.5612
銅	-9.5615
蛇	-9.56156
嫉	-9.56186
烟	-9.56232
漸漸	-9.56234
勸發渴仰	-9.56267
比丘眾	-9.56339
腹	-9.56346
何者	-9.5641
周	-9.56474
不行	-9.56551
六者	-9.56711
不捨	-9.56829
問言	-9.56846
飢	-9.56853
耆	-9.5686
一劫	-9.56869
奪	-9.56881
......	-9.56932
群臣	-9.56948
不如實知	-9.56959
無間等	-9.57089
非是	-9.57129
無學	-9.57195
作證	-9.57258
彼諸	-9.57504
無所有	-9.57522
即以	-9.57678
吐	-9.57679
悅	-9.57707
餘如上說	-9.57912
百由旬	-9.58075
諸眾生	-9.58097
專	-9.5827
啼哭	-9.5831
輪寶	-9.58373
有五	-9.58384
故曰	-9.58452
不忘	-9.58611
不用	-9.58621
有愛	-9.58688
六入處	-9.58776
今我	-9.58901
長壽	-9.58917
其上	-9.58932
此諸	-9.5898
逼	-9.59132
遊戲	-9.59164
魚	-9.59183
西方	-9.59204
以是	-9.59366
更有	-9.5946
不與取	-9.5968
久住	-9.59704
所造	-9.59724
諸苾芻	-9.59747
晝	-9.5978
若干種	-9.59848
四禪	-9.59879
左右	-9.59896
。《	-9.59915
惡知識	-9.60087
四面	-9.60093
不自	-9.60103
此身	-9.60112
云何為五	-9.60142
教人	-9.60252
愛敬	-9.60256
三事	-9.60331
呪	-9.60509
穀	-9.60516
徹	-9.60567
a	-9.60594
舊	-9.60598
在此	-9.60618
記說	-9.60639
恨	-9.60728
福田	-9.60782
三界	-9.60796
甚難	-9.6087
在於	-9.60936
歡喜踊躍	-9.60937
威德	-9.6136
祇	-9.61372
沐浴	-9.61415
如意足	-9.61469
治化	-9.61532
無不	-9.6188
而作是念	-9.61955
貧窮	-9.62086
宗	-9.62224
第六	-9.62227
頂禮佛足	-9.62232
拘薩羅王波斯匿	-9.62254
不動	-9.6229
見此	-9.62303
善來	-9.62411
即從座起	-9.62554
夢	-9.62602
稱歎	-9.62621
金翅鳥	-9.62632
▁「	-9.6264
戰	-9.62649
除去	-9.62707
作是語	-9.62775
當有	-9.62839
1	-9.62889
獸	-9.62936
暫	-9.62948
不作	-9.6297
號	-9.6302
猶如有人	-9.63049
須陀洹	-9.63089
獄	-9.63157
作惡	-9.63191
六十	-9.63243
乞	-9.63334
央掘魔	-9.63362
餘人	-9.63405
所言	-9.63527
寒	-9.63557
目揵連	-9.63586
車𤦲	-9.63623
良	-9.63664
交	-9.63669
引	-9.63709
鞞	-9.63733
不愛	-9.63861
悔過	-9.63875
已說	-9.63887
有信	-9.63908
彌勒	-9.63921
欲使	-9.63932
即於	-9.63937
難得	-9.64002
則為	-9.64106
斷絕	-9.64155
叉	-9.64211
正使	-9.64241
是也	-9.64258
曉	-9.64355
試	-9.64436
跋	-9.64469
助	-9.64493
作沙門	-9.64507
迎	-9.64517
再三	-9.64696
三法	-9.64708
如我	-9.64723
食之	-9.64856
轉增	-9.64877
離於	-9.64943
此名	-9.6501
云何名為	-9.65161
種子	-9.65214
擲	-9.65242
若有沙門	-9.65246
閉	-9.65299
己身	-9.6553
善根	-9.65546
十八	-9.65549
限	-9.65571
食已	-9.65591
而自	-9.65699
正語	-9.6573
而有	-9.65901
教化	-9.65998
七寶所成	-9.66091
臨	-9.66111
住住	-9.66118
共相問訊	-9.66216
亦復不	-9.66245
妄	-9.66313
信心	-9.66373
因緣故	-9.66515
諸沙門	-9.6654
善行	-9.66615
名稱	-9.6666
隱	-9.6673
濁	-9.66734
落	-9.66801
星	-9.66866
暴	-9.66876
雞	-9.66911
佛遊舍衛國	-9.66984
為食	-9.67001
中阿含經	-9.67015
繫著	-9.67189
十五日	-9.67294
有如是	-9.67324
安住	-9.6733
若欲	-9.67468
不殺	-9.67501
當復	-9.67584
其所	-9.67591
延	-9.67607
劣	-9.67676
若於	-9.67708
敗壞	-9.67719
投	-9.67751
必當	-9.67761
緣生	-9.67779
大海水	-9.6778
刀杖	-9.67791
得法眼淨	-9.67795
說此	-9.6782
苦聖諦	-9.67839
位	-9.6793
是以	-9.68064
受樂	-9.68065
善趣	-9.68124
出現於世	-9.68196
忽	-9.68208
已斷	-9.68419
佛名	-9.68419
割	-9.68452
自知不受後有	-9.68485
莖	-9.68493
不斷	-9.68524
抱	-9.68539
知之	-9.6855
復更	-9.68552
然彼	-9.68576
不能自勝	-9.68629
空中	-9.68663
千由旬	-9.68665
演	-9.68717
浴池	-9.68758
宣	-9.68866
泥犁	-9.68985
慳貪	-9.6902
共論	-9.69024
不能得	-9.69025
決	-9.69284
諸惡	-9.69312
頗有	-9.6939
是事	-9.69399
仁	-9.69419
度世	-9.69456
羅睺羅	-9.69475
休息	-9.69493
生已盡	-9.69508
欺誑	-9.6953
常當	-9.69575
變易	-9.69638
須彌山王	-9.6968
世尊為	-9.69681
或復有	-9.69763
煩	-9.69843
餘比丘	-9.69851
舍衛城	-9.69927
詣佛所	-9.69951
與我	-9.69996
眾苦	-9.70021
熏	-9.70023
斫	-9.70105
竭	-9.70106
正業	-9.70209
今正是時	-9.70251
識住	-9.70262
修習多修習	-9.70339
不欲	-9.70424
頂	-9.70453
種姓	-9.70738
御者	-9.70811
為有	-9.70819
而來	-9.70952
聞佛	-9.7101
背	-9.71024
則無	-9.71048
是佛所說	-9.71056
臭	-9.71058
屈	-9.71076
碎	-9.71091
泥洹	-9.711
苦滅聖諦	-9.71102
天宮	-9.71109
湯藥	-9.71142
合掌	-9.71226
所得	-9.71247
聞此	-9.71291
復告	-9.71656
百歲	-9.71661
博	-9.71771
細滑	-9.71795
油	-9.71802
右	-9.71811
彼亦	-9.71928
不食	-9.71953
安隱快樂	-9.71957
來至	-9.71971
從彼	-9.71982
廣大	-9.72028
往昔	-9.72077
異我	-9.72169
貢高	-9.72177
五根	-9.72198
知彼	-9.72272
明日	-9.72284
彼因	-9.7235
欲界	-9.72366
八十	-9.7245
得度	-9.72511
覺意	-9.72609
喜樂	-9.72697
甚為	-9.72733
勞	-9.72781
現世	-9.72969
惡口	-9.73036
佛法	-9.73163
戰鬪	-9.73207
察	-9.73227
演說	-9.73406
明行成	-9.73421
亡	-9.73453
鼓	-9.73533
船	-9.73572
鳴	-9.7359
遺	-9.73592
筋	-9.73603
貧	-9.73605
圍遶	-9.73623
為說	-9.73676
不更受	-9.73764
空處	-9.73823
容色	-9.73912
意識	-9.74147
比丘者	-9.74175
此二	-9.74365
見者	-9.74403
燃	-9.74439
屋	-9.74465
供給	-9.74555
?』」	-9.74558
災患	-9.74602
象寶	-9.74638
園林	-9.74711
說言	-9.7488
得須陀洹	-9.75124
憙	-9.75183
各自	-9.75216
狗	-9.75219
忘	-9.75249
相見	-9.75287
責	-9.75319
貪著	-9.75329
佉	-9.7533
囉	-9.75354
城郭	-9.7537
何以	-9.75374
礙	-9.75387
炎	-9.75388
皆由	-9.75423
八萬	-9.75449
是法	-9.7545
善思	-9.75469
於正法	-9.75478
如是如是	-9.75483
當知是	-9.75614
彼諸比丘	-9.75647
況	-9.75667
有七	-9.75742
已得	-9.75758
比丘是	-9.75786
是處	-9.75788
為一	-9.75822
一為	-9.75961
比丘白佛	-9.76108
凡夫	-9.76132
亦為	-9.76145
受法	-9.76224
金剛	-9.76279
狂	-9.76292
七者	-9.76338
議	-9.76453
知已	-9.7676
憎	-9.76776
略說	-9.76862
律中	-9.76934
欲貪	-9.77118
風吹	-9.77164
在勝林給孤獨園	-9.77239
眾祐	-9.77249
尊者大目揵連	-9.77284
邊際	-9.77335
四聖諦	-9.77357
嚴駕	-9.77364
復言	-9.7744
佛住	-9.77465
畜	-9.77571
沙門婆羅門	-9.77576
3	-9.7758
鬘	-9.7766
二為	-9.77733
?」「	-9.77769
賢者阿難	-9.77808
及以	-9.77816
及餘	-9.77852
逐	-9.77917
已盡	-9.77949
歌	-9.7802
心得解脫	-9.7806
泉	-9.78061
網	-9.78083
出入	-9.78094
佛說是	-9.78114
南方	-9.78136
惑	-9.78217
為身	-9.78305
自歸	-9.78388
法御	-9.78389
並	-9.7841
差別	-9.78489
佛語	-9.78521
受生	-9.78594
」	-9.78715
邑	-9.78748
夏	-9.78782
靜	-9.78788
索	-9.78837
虫	-9.7888
語已	-9.78883
澤	-9.78917
皆有	-9.78917
却住一面	-9.78923
玉女	-9.78932
瞿	-9.78941
看	-9.78952
術	-9.78963
寤	-9.79012
苦集聖諦	-9.7902
甚特	-9.7903
見我	-9.79055
無所有處	-9.79146
不聞	-9.7949
我今欲	-9.79578
此中	-9.79604
釋種	-9.79802
苑	-9.79835
須臾	-9.79855
與汝	-9.79886
朝	-9.79887
暮	-9.79907
東晉罽賓三藏瞿曇僧伽提婆譯	-9.7992
我聞	-9.79952
持此	-9.80057
最妙	-9.80061
身口意	-9.80083
使人	-9.80148
國土	-9.80176
世尊以偈答	-9.8022
自覺	-9.80232
▁No	-9.80264
道人	-9.80311
設有	-9.80331
能自	-9.80361
餘者	-9.80433
於如來	-9.80492
不壞	-9.80519
而作是說	-9.80529
說之	-9.80549
令得	-9.80581
是故名為	-9.80667
欺	-9.80744
狐疑	-9.80861
罰	-9.80872
諛諂	-9.80891
獵師	-9.80893
何為	-9.80938
絕妙	-9.80976
都無	-9.80991
自稱	-9.81083
神力	-9.81199
光色	-9.81318
能斷	-9.81426
連	-9.81581
書	-9.81632
影	-9.81645
甘	-9.81653
困	-9.81662
無異	-9.81689
彼若	-9.81703
傳	-9.81703
大德	-9.81717
輕慢	-9.81745
婢	-9.81758
生滅	-9.81863
尊者阿那律	-9.81916
犢子	-9.8192
或有人	-9.82017
各有	-9.82032
作如是念	-9.82101
何因緣	-9.8221
正方便	-9.82284
宣說	-9.82319
欄楯	-9.82484
行道	-9.82528
羅網	-9.826
諸門	-9.82655
優陀夷	-9.82661
曲	-9.82664
曠野	-9.8267
酒	-9.82689
遭	-9.82692
我今寧可	-9.82728
宿命	-9.82754
草木	-9.8284
當自	-9.82877
怖畏	-9.82912
意念	-9.82923
當觀	-9.82953
與彼	-9.82958
見法	-9.82973
號佛	-9.82975
有諸	-9.83018
意惡行	-9.83072
不貪	-9.83121
人身	-9.83122
語彼	-9.83142
之事	-9.83215
取滅度	-9.83298
典	-9.83307
而坐	-9.83367
思念	-9.83384
一日	-9.8342
馳走	-9.83538
改	-9.83573
云何名	-9.83578
灰	-9.83605
寺	-9.83619
偽	-9.83646
往至世尊所	-9.83719
潤	-9.83726
沙彌	-9.83751
至彼	-9.8378
此天	-9.83812
乾	-9.83836
聽我	-9.83853
祀	-9.83903
展轉	-9.83951
當生	-9.83967
夢見	-9.83984
今世	-9.84021
佛所	-9.84065
汝可	-9.84108
云何為三	-9.84234
更不	-9.84243
佛教	-9.84312
粳米	-9.84492
巧	-9.84562
般泥洹	-9.84565
維	-9.84579
謗	-9.84623
多所饒益	-9.84625
念言	-9.84643
以此因緣	-9.84695
殃	-9.84695
流布	-9.84702
免	-9.8472
合會	-9.84723
博聞	-9.84753
正志	-9.84792
五種	-9.84803
不退	-9.84827
苦滅道跡聖諦	-9.84843
死者	-9.84851
欲愛	-9.84948
一比丘	-9.85067
禪定	-9.85161
善知	-9.85178
窮	-9.85246
樂受	-9.85407
行此	-9.85409
大地獄	-9.8542
一切世間	-9.85499
淚	-9.85503
豆	-9.85526
顯	-9.85527
送	-9.85539
為欲	-9.85556
歸命	-9.85577
於後夜時	-9.85637
雜阿含經	-9.85655
怨家	-9.85671
五欲功德	-9.85732
有國名	-9.8579
大地	-9.85951
行梵行	-9.85999
悟	-9.86031
苦習	-9.86233
識處	-9.86317
受此	-9.86385
光音天	-9.86432
蓮華	-9.86456
交露	-9.8647
齒	-9.86478
增壹阿含經	-9.8655
說是	-9.86569
海水	-9.86577
偏	-9.86616
阿羅訶	-9.86622
擇	-9.86626
廣布	-9.86649
我住	-9.86669
未久	-9.86703
言語	-9.8672
禮拜	-9.86726
)《	-9.86741
世尊便說此偈	-9.86752
恒河沙剎	-9.86765
惡見	-9.86786
厭離	-9.86821
心中	-9.86996
此四	-9.87038
馬寶	-9.87054
無知	-9.87057
何者為	-9.87098
口中	-9.87112
受行	-9.87235
此等	-9.87239
他世	-9.87262
為說法	-9.87365
待	-9.87424
禪思	-9.87492
兄弟	-9.87497
迷	-9.87521
奢	-9.87573
蒙	-9.87596
王即	-9.87634
聖法	-9.87684
謂之	-9.87695
為汝說	-9.87842
白王言	-9.87842
猛	-9.88001
如人	-9.8803
四法	-9.8806
三為	-9.88154
彼便	-9.88252
愍	-9.88369
喚	-9.88404
不知如真	-9.88424
此非	-9.88433
則知	-9.88461
擔	-9.8848
盧	-9.88516
隨其	-9.8853
諸方	-9.88566
或時	-9.8857
第八	-9.88573
無病	-9.88631
長者子	-9.88635
缺	-9.8865
小兒	-9.88674
釋氏	-9.88693
諍訟	-9.8877
敬重	-9.88778
五法	-9.88856
年少	-9.88879
諸梵行	-9.88995
園觀	-9.89002
是人	-9.89038
以法	-9.89069
住止	-9.89161
我今當	-9.89213
生者	-9.89296
』	-9.89341
我自	-9.89422
啟	-9.89428
諸行	-9.89437
付	-9.89444
厚	-9.89455
揵	-9.89465
驢	-9.89468
惡不善之法	-9.89564
親族	-9.89579
領	-9.8958
晨朝著衣持鉢	-9.89624
入城乞食	-9.89652
究竟苦邊	-9.89671
閑居	-9.8979
得生	-9.89876
不敢	-9.90088
復有聲聞	-9.90196
無過	-9.90212
我身	-9.90251
鈴	-9.90309
見世尊	-9.90316
低	-9.9042
畫	-9.90457
有一人	-9.90478
糞	-9.90554
清涼	-9.90555
辯才	-9.90564
著衣	-9.90599
意不	-9.90723
此實餘虛	-9.90723
毘舍	-9.90738
極妙	-9.90759
叉手	-9.90818
疾病	-9.90844
及比丘僧	-9.90909
十四	-9.90916
一切皆	-9.90938
難提	-9.91024
當得	-9.91026
阿那含	-9.91081
熱惱	-9.91091
彼不	-9.9113
離殺	-9.91154
愧	-9.9124
尊者大目犍連	-9.91283
得涅槃	-9.91294
未盡	-9.91383
隨喜	-9.91383
桄	-9.91401
故有	-9.91512
奇	-9.91533
嚴飾	-9.91536
世尊說	-9.91537
不隨	-9.91558
睡	-9.91578
】	-9.91585
爪	-9.91586
薪	-9.91597
猪	-9.91607
枯	-9.91632
憎嫉	-9.9164
若有眾生	-9.91742
至於	-9.91757
正念正智	-9.91761
妙法	-9.91804
求索	-9.9182
欲斷	-9.91838
於世	-9.92
他化自在天	-9.92076
不同	-9.92159
醜	-9.92284
滅法	-9.92342
至誠	-9.92368
煮	-9.92502
實有	-9.92503
不忍	-9.92564
出世	-9.92602
閻浮洲	-9.92636
卷第十	-9.92636
不修	-9.92641
跋耆	-9.92671
無厭足	-9.92696
我知	-9.92714
所食	-9.92804
來至此	-9.92862
則有	-9.92911
依無欲	-9.92993
殺害	-9.93009
當求方便	-9.93092
之所說	-9.93149
伽羅	-9.93162
飾	-9.9318
初禪	-9.93188
善業	-9.93199
所須	-9.9326
不盜	-9.93301
猶若	-9.93316
別知	-9.93327
聖王	-9.93379
懸	-9.93526
牆	-9.93554
牀	-9.93591
實爾	-9.93602
盡形壽	-9.93622
千歲	-9.9364
檀	-9.9366
佛為	-9.93679
慚	-9.9369
已過	-9.93738
是身	-9.93815
曾見	-9.93831
尊師	-9.93845
變化	-9.93919
六處	-9.94003
十種	-9.94027
是三	-9.94079
以自	-9.94184
無諍	-9.94205
五事	-9.94319
八千	-9.94366
而為	-9.94415
哀愍	-9.94469
知時	-9.94473
答我	-9.94496
蜱肆	-9.94497
而作	-9.94535
白淨	-9.94586
樂住	-9.94596
資	-9.94693
苦盡	-9.94696
圍	-9.94709
謂此	-9.94735
伴	-9.94748
有四種	-9.94756
七法	-9.94855
此說	-9.94868
得勝	-9.94909
汝於	-9.94936
作此	-9.95012
三明	-9.95033
毘舍離	-9.95044
信根	-9.95228
聞之	-9.95257
永除	-9.95259
大天王	-9.95293
為佛作禮	-9.95309
常行	-9.95413
作禮	-9.95428
為佛	-9.95428
不敬	-9.95452
目乾連	-9.95652
牢	-9.95679
髓	-9.9577
麻	-9.95775
憍	-9.95797
柱	-9.95801
產	-9.95839
天使	-9.95842
化生	-9.95853
歌舞	-9.95868
未曾有	-9.9593
於現法中	-9.95949
無量善修	-9.9601
生時	-9.96112
父王	-9.96165
有異比丘	-9.96223
審	-9.96245
當共	-9.96323
有為	-9.96342
可意	-9.96381
惡不善	-9.96476
意業	-9.96519
男子	-9.96527
彼為	-9.96527
二名	-9.96554
賢善	-9.96592
豐	-9.96616
不現	-9.96619
當作	-9.96691
假	-9.96807
牙	-9.96819
建立	-9.96871
娑	-9.96889
而告之	-9.9689
懺悔	-9.96946
營	-9.9696
獨一靜處	-9.97003
國界	-9.97043
希有	-9.97099
作如是見	-9.97102
無智	-9.97137
有一比丘	-9.97151
禮佛	-9.97161
於一切	-9.9727
愚癡人	-9.97302
不犯	-9.97449
商人	-9.9746
是謂比丘	-9.97486
知其	-9.97515
勝妙	-9.97533
無惡	-9.97544
若汝	-9.97557
真人	-9.97571
露	-9.97576
汝央掘魔羅	-9.97599
一面	-9.97601
諸臣	-9.97604
眾寶	-9.97662
此沙門	-9.977
便為	-9.97745
不移動	-9.97782
尼拘陀	-9.97882
驚	-9.97967
灑	-9.98017
澡浴	-9.98022
山中	-9.9803
超	-9.98039
聰明	-9.9804
嫌	-9.98078
態	-9.98142
諸尊	-9.98174
娛樂	-9.98278
聖所	-9.98283
因緣生	-9.98412
若好	-9.98433
衣鉢	-9.9845
在中	-9.98521
非梵行	-9.98529
梵王	-9.98671
如今	-9.98679
逮	-9.98703
長養	-9.98741
浴	-9.98764
我以	-9.988
其福	-9.98827
摩羅	-9.98832
塵垢	-9.98903
為習	-9.98906
汝當住	-9.98913
多羅	-9.9901
繞	-9.99049
競	-9.99072
飢渴	-9.99086
呵責	-9.99112
汁	-9.99113
雷	-9.99153
我心	-9.99155
律儀	-9.99183
無結無怨	-9.99283
不取	-9.99334
修行精勤	-9.99345
攝受	-9.99349
身惡行	-9.99357
日出	-9.99448
受者	-9.99455
威神	-9.99457
汝今當速	-9.99491
慧劍	-9.9954
而汝不	-9.99589
亦無有	-9.99601
華鬘	-9.99622
國中	-9.99736
彼云何名為	-9.998
相隨	-9.9981
愚人	-9.9995
而無	-9.99964
千世界	-10.0003
誠	-10.0005
受具足	-10.0006
無穢	-10.0006
不說	-10.0018
無央數	-10.0022
懈	-10.0026
結跏趺坐	-10.003
所可	-10.0035
共諍	-10.0039
無恚無諍	-10.0043
遙	-10.0047
叉手向佛	-10.0047
出離	-10.0051
便自	-10.0055
彼彼	-10.0057
之德	-10.0066
天中	-10.0071
有色	-10.0074
無上善法	-10.0075
此則	-10.0079
佛遊	-10.0101
其後	-10.0115
行慈	-10.0116
賤	-10.0124
真正	-10.0125
從坐起	-10.0126
欝單曰	-10.0127
洗浴	-10.0127
處處	-10.0128
勒	-10.0128
而言	-10.0132
掃	-10.0133
拘絺羅	-10.0134
珠寶	-10.0134
為何等	-10.014
忍辱	-10.0145
有大威德	-10.0145
舉衣鉢	-10.0151
摩尼	-10.0153
作是思惟	-10.0156
即往	-10.0161
臥具	-10.0161
住彼	-10.0162
奉持	-10.0166
道跡	-10.0167
萬二千	-10.0177
若醜	-10.0178
復生	-10.0179
常念	-10.0189
繩	-10.0194
來下	-10.0201
說經	-10.0206
天及人	-10.0212
不飲酒	-10.0213
身見	-10.0217
不可得	-10.0224
羅陀	-10.0224
日中	-10.0241
得清淨	-10.0243
龍象	-10.0249
然復	-10.025
損減	-10.0256
充滿	-10.0258
濕	-10.0259
心善解脫	-10.026
諸漏已盡	-10.026
賴吒惒羅	-10.0261
識滅	-10.0262
法眼	-10.0264
癰	-10.0264
極廣甚大	-10.0267
即得	-10.0268
寂然	-10.0269
而起	-10.0277
無有是處	-10.0279
家中	-10.0288
已復	-10.0291
梵行者	-10.0291
洗足	-10.0301
火燒	-10.0304
有覺	-10.0307
不然	-10.031
樂於	-10.0313
居士子	-10.032
如實知之	-10.0325
所縛	-10.0329
依於	-10.0331
哉	-10.0336
難可	-10.0343
輸	-10.0343
殊	-10.0344
天地	-10.0362
懊惱	-10.0364
封	-10.0366
塚間	-10.0368
還宮	-10.0368
得自在	-10.0369
懃	-10.0369
掘	-10.0369
彼沙門	-10.037
迦葉如來	-10.037
整衣服	-10.0376
闇冥	-10.0378
應供	-10.0378
優多羅	-10.0379
得大	-10.0383
何況	-10.0388
第三禪	-10.0391
自思惟	-10.0391
踰闍那	-10.04
沫	-10.0404
意欲	-10.0413
所念	-10.0423
周遍	-10.0428
於此法	-10.043
故名	-10.0433
人皆	-10.0434
堪任	-10.0442
緣起	-10.0444
得脫	-10.0448
二種	-10.0456
四千	-10.0458
由此	-10.046
識亦復如是	-10.0472
羸	-10.048
常住	-10.048
色界	-10.0482
往彼	-10.0484
夷	-10.0485
覲	-10.0488
化樂天	-10.0489
以鐵	-10.049
恒河沙	-10.0495
結加趺坐	-10.0498
食訖	-10.0504
聞此語已	-10.0507
穢污	-10.0511
此亦如是	-10.0513
有常	-10.0514
無疑	-10.0515
樂著	-10.0516
有六	-10.0523
仙	-10.0524
知有	-10.0526
於其	-10.0529
卒	-10.0537
四種軍	-10.0538
眼觸	-10.054
要當	-10.0542
飲酒	-10.0544
弊惡	-10.0552
或有一	-10.0563
八者	-10.0573
九十	-10.0577
何等為五	-10.0579
成就遊	-10.0582
諸天眾	-10.0584
時節	-10.0584
差別者	-10.0592
至心	-10.0603
二俱	-10.0604
橫	-10.0607
須菩提	-10.0607
消滅	-10.0607
載	-10.0608
來詣	-10.0609
熱鐵	-10.0619
遍滿一切世間成就遊	-10.0621
母胎	-10.0621
應與	-10.0622
阿闍世王	-10.0626
諸小	-10.0631
求欲	-10.0637
經戒	-10.0638
聚會	-10.0644
不染	-10.0663
當於	-10.0673
壯	-10.0673
踊躍	-10.0674
皆當	-10.0675
堪能	-10.0677
後夜	-10.0683
亦能	-10.0693
於苦	-10.0694
求方便	-10.0695
城門	-10.0701
五受陰	-10.0702
非時	-10.0703
滅道跡	-10.0705
我所說	-10.0713
不令	-10.0713
於欲	-10.0716
射	-10.0716
爛	-10.0717
說戒	-10.0721
殘	-10.0724
欝	-10.0725
有三種	-10.0727
最尊	-10.0728
頂生王	-10.0728
論議	-10.073
便退而去	-10.0732
欲想	-10.0732
四天下	-10.0733
祠	-10.0739
靖	-10.0741
結使	-10.0751
已滅	-10.0762
食者	-10.0764
左	-10.0765
為最	-10.0766
大神	-10.0771
亦說	-10.0794
毘羅	-10.0797
靜處	-10.0799
善住	-10.0799
亦是	-10.0809
諸王	-10.0812
五百人	-10.0815
名聞	-10.0824
有異	-10.0826
其水	-10.0828
一名	-10.0829
哭	-10.0833
若得	-10.0835
尾	-10.0842
裂	-10.0844
燋	-10.0845
迦旃延	-10.0846
馳	-10.0846
障礙	-10.085
不須	-10.0851
村邑	-10.0856
病瘦醫藥	-10.0859
烏陀夷	-10.086
世尊知	-10.0862
正知	-10.0876
一由旬	-10.0876
汝所	-10.0877
受身	-10.088
令其	-10.0881
久遠	-10.0885
賢聖弟子	-10.0887
天下人	-10.0891
當云何	-10.0895
或有眾生	-10.0901
所在	-10.0907
四為	-10.0912
不定	-10.0912
六情	-10.0918
坐已	-10.0923
可知	-10.0926
如是受	-10.0929
則便	-10.093
大樹	-10.0931
然我	-10.0934
樹木	-10.0936
還至	-10.094
充	-10.0946
徐	-10.095
灌	-10.0961
伎	-10.0962
戶	-10.0967
諷誦	-10.097
色相	-10.0971
惜	-10.0973
發露	-10.0977
四部之眾	-10.0978
醫	-10.0979
穿	-10.098
所聞	-10.0983
心無放逸	-10.0987
心與慈俱	-10.0989
成阿羅漢	-10.0989
出息	-10.0991
普照	-10.0994
不能令	-10.0998
若近	-10.1006
還復	-10.1017
大山	-10.1017
住者	-10.1018
不害	-10.1019
吾今	-10.102
我本	-10.1024
生此	-10.1027
2	-10.1029
無有量	-10.1029
恣	-10.1043
雖復	-10.1055
牽	-10.1058
眼根	-10.1059
自作證成就遊	-10.1059
我昔	-10.1065
五十	-10.1076
得解	-10.1088
然後乃	-10.1089
8	-10.1091
牧	-10.1092
斧	-10.1094
親屬	-10.1098
五百比丘	-10.1099
婇女	-10.11
羅剎	-10.1103
如是行	-10.1108
尊者摩訶迦旃延	-10.1109
四寶	-10.111
惡欲	-10.1117
依止	-10.1117
乃能	-10.1125
如來所說	-10.1139
娑羅	-10.1141
相在	-10.1148
地界	-10.116
說頌	-10.1161
大福祐	-10.1169
婆羅門言	-10.1175
我言	-10.1177
受其	-10.1184
佛告婆羅門	-10.1187
及與	-10.1197
我弟子	-10.1199
來者	-10.1202
教令	-10.1203
定意	-10.1208
見有	-10.1214
駕	-10.1217
功	-10.1218
菩提	-10.122
擊	-10.1223
在一面立	-10.1227
祇洹	-10.123
入舍衛城乞食	-10.123
捨此	-10.1234
羅閱城	-10.1234
於受	-10.1236
遺餘	-10.124
漬	-10.1243
若遠	-10.125
萬歲	-10.1252
樂痛	-10.1253
最為	-10.1253
枝葉	-10.1254
如斯	-10.1269
音聲	-10.1271
彼色	-10.1277
不婬	-10.1279
我實	-10.1296
是謂名為	-10.1299
不妄語	-10.13
集會	-10.131
愚者	-10.1315
作福	-10.1319
信樂	-10.132
不息	-10.1324
得見	-10.1328
汝等當知	-10.1329
但當	-10.1338
譯	-10.1338
驅	-10.134
護諸根	-10.1341
孔	-10.1342
丘	-10.1343
妹	-10.1343
廁	-10.1345
境	-10.1345
緩	-10.1346
今已	-10.1346
4	-10.1347
道者	-10.1348
熾燃	-10.1349
圓	-10.135
端嚴	-10.1353
接	-10.1354
壞敗	-10.1358
長短	-10.1361
退住一面	-10.1362
欲者	-10.1365
生厭	-10.137
沙門婆羅門等	-10.1381
我及世間	-10.1382
。「『	-10.1385
不相	-10.1386
學道者	-10.1396
當求	-10.1404
如來所	-10.1414
如是觀	-10.1419
四兵	-10.1426
氣力	-10.1428
若當	-10.1431
不求	-10.1448
迦羅	-10.1449
是名比丘	-10.145
雙	-10.1452
切	-10.1454
此諸賢	-10.1457
陛	-10.1457
所依	-10.146
苦受	-10.1461
當與	-10.1474
弗于逮	-10.1475
瘦	-10.1478
燒炙	-10.1478
詣世尊所	-10.1479
誹謗	-10.148
栴檀	-10.1483
伽彌尼	-10.1486
阿練若	-10.1486
慈愍	-10.1487
嶮	-10.1489
康強	-10.149
酪	-10.149
於佛前	-10.1491
生死已盡	-10.1491
不具足	-10.15
雖有	-10.1504
卿等	-10.1508
錢	-10.1514
天眾	-10.1514
面前	-10.1521
正行	-10.1534
懼	-10.1536
來問	-10.1538
靡不	-10.154
地味	-10.1546
有二種	-10.1577
聽法	-10.1578
叫喚	-10.1584
無量百千	-10.1585
惡道	-10.1592
顏	-10.1594
便當	-10.1597
肘	-10.1602
第四禪	-10.1606
5	-10.1607
髻	-10.161
膝	-10.161
毘沙門天王	-10.1612
臂	-10.1612
口行	-10.1616
觸嬈	-10.1617
婆私吒	-10.1618
何因何緣	-10.162
剎利種	-10.162
遠塵離垢	-10.1621
出現世間	-10.1625
則生	-10.1629
度世間愛	-10.1629
占	-10.163
惡不善業	-10.1632
天王釋	-10.1633
遙見世尊	-10.1634
前世	-10.1644
衣食	-10.1646
自作	-10.1648
摩那	-10.1651
善能	-10.1653
大目揵連	-10.1654
沙門梵志	-10.1659
斷於	-10.166
正盡苦	-10.166
所受	-10.1676
大迦葉	-10.1682
厭患	-10.1687
便知	-10.169
有八萬四千	-10.1692
有時	-10.1697
長者家	-10.1697
釜	-10.1699
彼已	-10.17
是非	-10.1704
無限	-10.1705
無能	-10.1706
聚集	-10.1712
為作	-10.172
能使	-10.172
為人說	-10.1721
黠	-10.1723
人間遊行	-10.1724
法如法	-10.1732
饒	-10.1735
意解	-10.1739
忿	-10.1741
危	-10.1742
鞭	-10.1742
彼作是念	-10.1745
文殊師利	-10.175
欲有所問	-10.1751
不殺生	-10.1753
自護	-10.1753
雪山	-10.1753
觀此	-10.1754
利刀	-10.1755
下賤	-10.1756
永超世	-10.1756
已解	-10.1768
之言	-10.1769
過去世時	-10.1793
若樂	-10.1802
為大	-10.1803
又有	-10.1806
斷滅	-10.1823
出現	-10.1832
薩	-10.1835
諸天子	-10.1836
非不	-10.184
盛滿	-10.184
大歡喜	-10.1844
坐臥	-10.1846
此經	-10.1857
孝	-10.1872
救護	-10.1872
周匝圍遶	-10.1872
奴	-10.1873
得此	-10.1873
咎	-10.188
為優婆塞	-10.188
全	-10.1881
弗	-10.1881
親友	-10.1882
尊者摩訶迦葉	-10.1883
前後圍遶	-10.1883
當受	-10.1884
溫	-10.1887
經歷	-10.1888
便說此偈	-10.1889
伎樂	-10.1894
身口	-10.1894
為上	-10.1896
在遠離獨住	-10.1896
三十二相	-10.1899
謂三	-10.1907
不異	-10.1908
得定	-10.1909
無垢	-10.1912
是無常	-10.1913
七覺意	-10.1914
倍常	-10.1917
齋戒	-10.1918
必有	-10.1926
教勅	-10.1926
苦集	-10.1939
不盡	-10.1942
善念	-10.1943
之上	-10.1943
不成	-10.1947
出水	-10.196
日夜	-10.1963
諸比丘尼	-10.1978
變易法	-10.1979
善生	-10.1991
善解	-10.1991
富貴	-10.2013
表	-10.2013
二千	-10.2013
惡色	-10.2016
若復有人	-10.2019
殊勝	-10.2021
鮮	-10.2021
毀呰	-10.2025
即自	-10.2025
七重垣牆	-10.2025
我於無量阿僧祇劫	-10.2027
若內	-10.2028
逮得般涅槃	-10.203
從此	-10.2031
如是次第	-10.2031
當如是學	-10.2033
愛盡	-10.2035
已訖	-10.2036
是故我	-10.2043
以不	-10.2047
斯陀含	-10.205
磨滅	-10.205
即入	-10.2053
令有	-10.2057
亦如上說	-10.2057
汝等當	-10.206
手長者	-10.2078
劍	-10.2081
互相	-10.2082
禮敬	-10.2083
不墮	-10.2086
欲見	-10.2089
比丘所	-10.2091
但為	-10.2091
所說法	-10.2093
說此偈	-10.2093
繫念	-10.2096
斷此	-10.2097
世間有	-10.2099
尼揵	-10.2122
氏	-10.2127
為善	-10.2136
九者	-10.2138
我寧可	-10.2142
於眾	-10.2144
令人	-10.2144
敗	-10.2145
是為三	-10.2147
妙行	-10.215
我慢	-10.215
推	-10.215
是常	-10.2152
為行道	-10.2152
外道出家	-10.2152
虎	-10.2154
稻	-10.2155
客	-10.2155
翅	-10.2156
終無是處	-10.2159
遍滿	-10.216
悲泣	-10.2161
安慰	-10.2163
雨勢	-10.2167
雜色可觀	-10.2168
諸生活具	-10.2171
增減	-10.2173
不壞淨	-10.2178
一切怖	-10.2187
過失	-10.2191
解脫知見	-10.2191
宜應	-10.2196
同一	-10.2198
樂覺	-10.2205
一切諸	-10.2206
別離	-10.2224
不可意	-10.223
友	-10.2234
少有	-10.2236
我今當說	-10.2238
我此	-10.2239
出種種	-10.2244
五為	-10.2251
即為	-10.2257
善女人	-10.2257
孫	-10.2258
逝	-10.2273
閻	-10.2283
夜半	-10.2285
非一	-10.2285
。」』	-10.2286
頓	-10.2288
s	-10.2293
市	-10.2294
圓滿	-10.2296
逢	-10.2297
賓	-10.2298
昔日	-10.2302
命終之後	-10.2302
曜	-10.2303
積聚	-10.2303
我即	-10.2304
人民熾盛	-10.2306
頻	-10.2306
譏	-10.2306
六法	-10.231
大人之相	-10.2311
久見	-10.2313
奇特	-10.2316
無量空處	-10.232
色味	-10.2321
為諸比丘說	-10.2327
施行	-10.2342
十二因緣	-10.2344
閻浮	-10.2355
)(	-10.2363
那羅	-10.2369
三藏	-10.2372
沙門果	-10.2392
云何為二	-10.2393
有因緣	-10.2395
若苦	-10.2401
大會	-10.2402
問佛	-10.2403
非無習	-10.2407
出城	-10.2411
色想	-10.2415
如來弟子	-10.2421
6	-10.2421
大將	-10.2424
陵	-10.243
嫁	-10.243
七重行樹	-10.2431
返	-10.2433
鬚閑提	-10.2433
宋	-10.2433
縱廣五十由旬	-10.2434
若使	-10.2434
慶	-10.2438
椎	-10.2439
古	-10.2439
以何	-10.244
佛在舍衛國	-10.244
我先	-10.2442
邏	-10.2443
於後時	-10.2444
與大比丘眾五百人俱	-10.2445
阿毘曇	-10.2449
善心	-10.245
成道	-10.245
在世	-10.2451
愚癡無聞凡夫	-10.2452
行滅	-10.2452
不正思惟	-10.2455
七覺分	-10.2456
繫縛	-10.2456
身觸	-10.2457
尊者賴吒惒羅	-10.2458
於地	-10.2463
勤修	-10.2466
行法	-10.2476
因是	-10.2478
作諸	-10.2478
無比	-10.248
無明者	-10.2481
恒水	-10.2482
無愧	-10.2494
於他	-10.2494
得安樂	-10.2496
善護	-10.2498
此眾生	-10.25
門外	-10.2501
寧可	-10.2505
當於爾時	-10.2506
非我所	-10.2513
十方	-10.2515
之後	-10.2516
斷諸	-10.2519
斯等	-10.2524
宮中	-10.2532
婦人	-10.2542
諸外道	-10.2547
在上	-10.2549
潔	-10.2563
耆闍崛山	-10.2568
段	-10.2574
耕	-10.2578
柔	-10.2579
如說	-10.2581
猶豫	-10.2581
有邊	-10.2582
玉耶	-10.2585
鷄	-10.2587
苦陰	-10.2587
捕	-10.2588
錯亂	-10.2588
最為第一	-10.2589
喪	-10.259
生子	-10.259
槃	-10.259
慰勞	-10.2591
陳	-10.2591
速疾	-10.2591
憎惡	-10.2591
私	-10.2592
晨朝	-10.2593
福報	-10.2594
潤澤	-10.2596
導師	-10.2599
如汝	-10.26
四維上下	-10.26
於其夜	-10.26
四神足	-10.2603
兜率天	-10.2604
譬如有人	-10.2608
生老病死	-10.261
共和合	-10.2612
此為	-10.2619
復語	-10.2629
不復生	-10.2633
成就歡喜已	-10.2637
二法	-10.2642
大天	-10.2643
聞其	-10.2643
寧有	-10.2644
墮惡趣	-10.2647
有此四	-10.2649
此見	-10.2653
受報	-10.2654
不習	-10.2656
惡人	-10.2658
十法	-10.2663
增廣	-10.2663
樹者	-10.2666
十善	-10.2671
色滅	-10.2675
初生	-10.2679
無熱	-10.2681
三百	-10.2683
法行	-10.2684
自身	-10.2688
為苦	-10.2689
說者	-10.2694
恭	-10.2701
即告	-10.2703
無覺	-10.2704
三月	-10.2708
長跪	-10.2708
為樂	-10.2713
弓	-10.2715
禁	-10.2716
疲	-10.272
赤真珠	-10.2726
儀	-10.2728
為惡	-10.2729
感	-10.2729
咽	-10.2729
鳩	-10.2731
醯	-10.2732
於大眾中	-10.2735
出家修道	-10.2735
蘇	-10.2736
白王	-10.2737
偷盜	-10.274
譬喻	-10.2741
有大威神	-10.2744
亂想	-10.2746
刀劍	-10.2753
略說乃至	-10.2754
無也	-10.2755
為我說	-10.2756
愛生	-10.2756
出於	-10.2761
知是	-10.2762
息寂	-10.2764
不用處	-10.2764
諸婆羅門	-10.2764
得生天上	-10.2767
貪伺	-10.2769
尊者難陀	-10.2769
有八	-10.2772
竹	-10.2772
告言	-10.2774
諸世間	-10.2778
善現	-10.2779
無事處	-10.278
長大	-10.2784
我復	-10.2786
我不見	-10.2787
有天子	-10.279
汝自	-10.2794
有力	-10.2801
汝莫	-10.2802
逮得	-10.2803
生苦	-10.2809
精勤方便	-10.2815
是義	-10.2822
而彼	-10.2825
法已	-10.2825
受罪	-10.2827
誦習	-10.2842
成神通	-10.2843
修善	-10.2844
諸龍	-10.2851
於其中	-10.2853
拜	-10.2856
大力	-10.2856
9	-10.2857
早	-10.2868
從佛	-10.2873
勝者	-10.2873
縱	-10.2875
牢固	-10.2878
賴	-10.2878
奔	-10.2881
【	-10.2883
得安隱	-10.2885
瞻視	-10.2886
於其中間	-10.2887
折	-10.2887
來至我所	-10.2893
禮世尊足	-10.2894
動搖	-10.2896
身如身	-10.2898
佛說是經	-10.2903
專精思惟	-10.2908
衣裳	-10.2914
而說	-10.2914
之福	-10.2919
處所	-10.292
不煩熱	-10.2921
之力	-10.2921
金輪	-10.2924
略	-10.2926
是比丘	-10.2943
成就歡喜	-10.2944
往至彼	-10.2944
象馬	-10.295
我今已	-10.2951
將來	-10.2952
言說	-10.2952
有生	-10.2952
我於爾時	-10.2953
彼國	-10.2956
不如法	-10.2964
然不	-10.2969
色集	-10.297
往昔已	-10.2978
如來說	-10.2982
長老比丘	-10.2983
汝實	-10.2991
諸梵志	-10.2991
身中	-10.3002
施主	-10.3003
十五	-10.3005
不還	-10.3011
世尊所說	-10.3012
有言	-10.3015
仁者	-10.3021
尊者舍黎子	-10.3026
原	-10.3029
遶	-10.3029
健	-10.303
喜已	-10.303
緣覺	-10.3033
圍繞	-10.3035
傍	-10.3035
姊妹	-10.3036
哆	-10.3037
無礙	-10.3038
若有異道人	-10.304
質多羅長者	-10.3041
十者	-10.3041
墮地獄	-10.3042
無煩	-10.3044
何等為十	-10.3045
心中所念	-10.3047
置於	-10.3047
瞿曇彌	-10.305
而後	-10.3052
從座起而去	-10.3055
質	-10.3057
白狗	-10.3058
於汝	-10.3058
婆羅門種	-10.306
往見	-10.3063
能分別	-10.3067
其意	-10.307
伊	-10.3076
?「	-10.3081
三十二	-10.3087
聞者	-10.3087
八種	-10.3092
世尊與	-10.3102
若沙門	-10.3116
故說	-10.3117
住此	-10.3119
次復	-10.3128
正等正覺	-10.3132
佛即	-10.3133
令彼	-10.3138
於人	-10.3159
得利	-10.316
是沙門	-10.3161
諸天人	-10.3162
隨其所	-10.3163
剎	-10.3169
苦覺	-10.317
無願	-10.3174
飛鳥	-10.3175
皮肉	-10.3177
音響	-10.3177
東西	-10.318
豫	-10.3182
誓	-10.3182
買	-10.3185
澡	-10.3185
任	-10.3187
七覺支	-10.3187
暖	-10.3188
掉	-10.3189
螺	-10.319
人民之類	-10.3192
不可思議	-10.3192
琴	-10.3193
有想無想處	-10.3193
亦不見	-10.3196
一日一夜	-10.3196
巖	-10.3197
卷第二十	-10.32
池水	-10.3203
我今問汝	-10.3203
相續	-10.3205
漏盡阿羅漢	-10.3211
福業	-10.3214
初夜	-10.3215
頭面	-10.3219
須深	-10.322
百年	-10.3221
通達	-10.3231
可往	-10.3244
斷欲	-10.3251
彼於後時	-10.3253
而復	-10.3253
意法	-10.3256
見彼	-10.326
使我	-10.326
而能	-10.3262
金色	-10.3267
常樂	-10.3269
念佛	-10.327
教已	-10.3272
著地	-10.3286
汝等比丘	-10.3286
若細	-10.3287
大祀	-10.3294
能為	-10.3309
從座起	-10.3319
日日	-10.3322
特	-10.3325
威	-10.3326
龜	-10.3331
玉女寶	-10.3333
還入	-10.3335
徒	-10.3336
向於	-10.3337
貫	-10.3338
灌頂	-10.3339
坐具	-10.3342
逼迫	-10.3344
多少	-10.3345
鑽	-10.3346
必有是處	-10.3346
敵	-10.3347
蔽	-10.3347
流離王	-10.3349
黃金	-10.335
心無	-10.3351
欲心	-10.3353
說偈問佛	-10.3354
聰明智慧	-10.3356
我亦如是	-10.3359
大苦	-10.3362
由是	-10.3363
閑	-10.3368
所求	-10.3369
智慧者	-10.3372
之行	-10.3372
不覺	-10.3377
為最勝	-10.3378
思量	-10.338
妙色	-10.338
身業	-10.3387
道中	-10.3388
知者	-10.3399
本末	-10.3402
護國	-10.3402
獲福	-10.3404
苦患	-10.3414
復作	-10.3423
覺悟	-10.3423
一身	-10.3425
甚多	-10.3435
如是廣說	-10.3437
與人	-10.344
不虛	-10.3444
專精	-10.3444
我師	-10.3445
一種	-10.3445
攝持	-10.3459
已後	-10.346
有何因緣	-10.3465
停	-10.3466
無著	-10.3482
形色	-10.3484
不變易	-10.3484
嚩	-10.3488
便滅	-10.349
一切處	-10.3492
非沙門	-10.3492
擾	-10.3493
賜	-10.3494
補特伽羅	-10.3498
召	-10.3499
當如	-10.3499
斬	-10.35
含	-10.3501
若過去	-10.3503
皆以	-10.3503
喜心	-10.3504
諸漏	-10.3504
震動	-10.3504
朽	-10.3506
修學	-10.3508
於佛不壞淨	-10.3508
鬚髮	-10.3511
世尊歎	-10.3512
顯現	-10.3512
腐	-10.3513
醉	-10.3515
所居	-10.3516
易不難得	-10.3519
大目乾連	-10.3521
優鉢羅	-10.3522
便可	-10.3537
居士寶	-10.3537
出已	-10.3542
所願	-10.3548
轉減	-10.355
忽然	-10.355
離貪	-10.3551
若外	-10.3557
喜悅	-10.3564
我至誠	-10.3566
不足	-10.3568
為他	-10.3571
道法	-10.3573
向者	-10.3575
世有	-10.3575
蜱肆王	-10.3575
自見	-10.3579
所止	-10.3579
相違	-10.3585
此五	-10.3594
婦女	-10.3596
成就此	-10.3596
正道	-10.3598
以是故	-10.3603
其地	-10.3604
色無常	-10.3607
是誰	-10.3617
閑靜	-10.3637
當斷	-10.3638
不正	-10.364
弟	-10.364
災	-10.3641
汝是	-10.3642
炙	-10.3644
亦莫	-10.3647
阿耨達	-10.365
子孫相承	-10.3651
毗	-10.3657
嗚呼	-10.366
當往	-10.366
隋言	-10.3662
注	-10.3662
豪	-10.3663
阿脩羅	-10.3666
追	-10.3666
僧伽梨	-10.3666
波羅㮈	-10.3667
村落	-10.3668
一切行無常	-10.3673
安樂住	-10.3674
減損	-10.3674
噉	-10.3675
意觸	-10.3675
默然而住	-10.3677
大梵天王	-10.3678
時有一天	-10.3679
有情	-10.3682
名譽	-10.3682
房舍	-10.3684
慧羸	-10.369
悉知	-10.3691
無餘涅槃	-10.3691
前後	-10.3692
於未來世	-10.3694
諸人民	-10.3696
至竟	-10.3702
念法	-10.3705
成佛	-10.3708
我曹	-10.371
邪命	-10.3711
無窮	-10.3715
不及	-10.3719
侍從	-10.3727
所住	-10.3736
之義	-10.3739
居家	-10.374
而取	-10.3746
增上心	-10.3747
而今	-10.3749
樹間	-10.3753
我常	-10.3753
謂四	-10.3757
之想	-10.3765
不語	-10.3767
明達	-10.3776
是何	-10.3777
是我所	-10.3779
過度	-10.3779
所趣	-10.3781
惡魔	-10.3786
見色	-10.3792
得法	-10.3797
歎說	-10.3799
不實	-10.3801
叉手向	-10.3806
熾	-10.3812
第二禪	-10.3813
當知此	-10.3814
自害	-10.3814
撿	-10.3817
世間人	-10.3818
整	-10.3819
淳	-10.3821
葬	-10.3821
務	-10.3821
匝	-10.3822
屠	-10.3822
出世間	-10.3824
今在	-10.3824
不具	-10.3825
身上	-10.3828
墮於	-10.3828
給孤獨長者	-10.3829
慧力	-10.3829
聞法已	-10.383
男子女人	-10.383
竪	-10.383
偷	-10.383
相娛樂	-10.3832
尊者大目乾連	-10.3833
元	-10.3833
終無	-10.3834
我今當往	-10.3835
崩	-10.3835
諸上座	-10.3835
正盡覺	-10.3836
如汝所言	-10.3836
稽首作禮	-10.3837
入息	-10.3837
重擔	-10.3839
人乎	-10.3841
法依	-10.3842
誡	-10.3849
諸煩惱	-10.3851
經書	-10.386
金輪寶	-10.3862
自恣	-10.3863
不肯	-10.3864
不可計	-10.3872
若現在	-10.3878
向佛	-10.3882
七百	-10.3889
我從	-10.3893
藍	-10.3899
六萬	-10.3901
以偈	-10.3908
何等法	-10.3913
有種種	-10.3915
結縛	-10.3915
命終時	-10.3917
種種說法	-10.3921
婆提	-10.393
往問	-10.3933
莫不	-10.3934
自守	-10.3934
諸苦	-10.3939
見也	-10.3941
多諸	-10.3959
唱	-10.3962
欄	-10.3964
若有一人	-10.3965
善修	-10.3966
其事	-10.3967
非義	-10.3967
得福	-10.3968
頃	-10.3968
捷疾	-10.3968
上坐	-10.397
禮佛足	-10.3975
師子吼	-10.3975
練	-10.3981
誑	-10.3985
鏡	-10.3989
輿	-10.3992
嬈	-10.3993
蔭	-10.3994
甲	-10.3994
自今已後	-10.3996
鴦掘魔	-10.4001
身諸光明遍照	-10.4005
童女	-10.4005
讚嘆	-10.4006
尸婆羅	-10.4007
非有想非無想處	-10.4008
爾所	-10.4009
行施	-10.401
三惡道	-10.4022
從是因緣	-10.4025
受夏坐	-10.4025
釜中	-10.4026
居士婦	-10.4026
欲生	-10.404
世無	-10.4043
已來	-10.4052
從何	-10.406
多羅樹	-10.4065
娑羅樹	-10.4066
名阿	-10.4068
善調	-10.4077
道德	-10.4079
供養父母	-10.4079
所覆	-10.4079
我說彼	-10.408
善宿	-10.4089
得阿那含	-10.409
山林	-10.4094
不依	-10.4095
聽許	-10.4098
命盡	-10.4103
入城	-10.4111
腹中	-10.412
不悅	-10.4123
阿含	-10.4127
或作	-10.4134
心住	-10.4135
梵天上	-10.414
十事	-10.4141
佛告之	-10.4144
或生	-10.4144
譽	-10.4145
漿	-10.4152
般	-10.4154
旋	-10.4155
其餘者為癡	-10.4155
剝	-10.4156
每	-10.4158
曼	-10.4158
或食	-10.4159
命根	-10.4159
公	-10.416
炬	-10.416
不受後有	-10.4161
傾	-10.4164
顯示	-10.4164
所成	-10.4165
膚	-10.4166
江	-10.4166
質直	-10.4167
威力	-10.4169
遲	-10.417
拂	-10.417
繞三匝而去	-10.4171
床褥	-10.4171
過是	-10.4176
得樂	-10.4177
有大如意足	-10.4177
殊妙	-10.4181
昇進	-10.4182
亦得	-10.4182
塗香	-10.4183
堪忍	-10.4189
增伺	-10.419
為王	-10.4195
欲取	-10.4197
以何因緣	-10.4199
栽	-10.42
香氣	-10.4201
阿難比丘	-10.4201
彼梵志	-10.4201
大火	-10.4201
尊者大迦旃延	-10.4204
卷第三十	-10.4205
寶藏	-10.4211
佛告迦葉	-10.4214
治生	-10.4216
三禪	-10.4239
即與	-10.4242
二事	-10.4242
到佛所	-10.4242
少欲	-10.4248
亦不知	-10.4254
奉上	-10.4255
之眾	-10.4259
問我	-10.4264
不淨想	-10.4268
不苦不樂受	-10.4269
摩竭	-10.427
彼女	-10.4274
死後	-10.4276
執持	-10.4282
分布	-10.4288
曇	-10.4292
示現	-10.4294
須陀	-10.4301
國人	-10.4302
入此	-10.4302
可久	-10.4304
此苦	-10.4304
窟	-10.4307
王聞	-10.4311
昔時	-10.4312
年少比丘	-10.4314
堪	-10.4317
姝	-10.432
鈎	-10.4322
眼見色	-10.4327
若生	-10.4329
太	-10.4331
涕	-10.4332
愁慼	-10.4333
支節	-10.4334
受之	-10.4339
右膝著地	-10.4339
胸	-10.4339
履	-10.4341
智者所	-10.4341
有想	-10.4341
其子	-10.4341
云何為六	-10.4343
憂悲	-10.4345
榮	-10.4345
無常想	-10.4345
自行	-10.4346
天復以偈讚	-10.4348
不計	-10.4349
若未來	-10.435
稽首禮	-10.4355
內心	-10.4356
比丘尼是	-10.4362
五力	-10.4376
王波斯匿	-10.4386
尊者阿難白	-10.4386
摩竭國	-10.4392
種族	-10.4392
佛復告	-10.4394
何由	-10.4398
遍淨天	-10.4399
苦諦	-10.4399
欲樂	-10.44
便起	-10.4402
若世尊	-10.4403
群生	-10.4408
諸結	-10.4416
可樂	-10.4424
大王當知	-10.4427
如是比	-10.4428
即生	-10.4429
意止	-10.4433
行非法	-10.4433
之報	-10.4436
好色	-10.4438
此事實	-10.4444
以偈答	-10.4448
用是故	-10.4454
正觀	-10.4457
彼王	-10.4458
亦各	-10.4459
汝應	-10.4463
躬	-10.4482
有子	-10.4483
終不能	-10.4488
尼乾	-10.4489
彼諸眾生	-10.4498
闊	-10.45
勇	-10.4503
獼猴	-10.4504
身命	-10.4505
剎帝利	-10.4506
鹹	-10.4507
啼泣	-10.4507
疲勞	-10.4507
賣	-10.4507
不欺	-10.4509
拭	-10.4509
鉢頭摩	-10.4509
須跋陀羅	-10.4511
受於	-10.4512
弱	-10.4512
奇哉	-10.4514
宜知是時	-10.4515
不從	-10.4517
惡言	-10.4517
必至惡處	-10.4517
水上	-10.4518
誓願	-10.452
物主	-10.4522
色愛	-10.4523
羅睺羅阿修羅王	-10.4523
掉悔	-10.4524
跋陀和利	-10.4525
為知	-10.4526
旃陀羅	-10.4528
優婆離居士	-10.4528
甚可愛樂	-10.4529
師長	-10.4534
而自娛樂	-10.4539
無慙	-10.4539
義者	-10.4544
黠慧	-10.4549
坐起	-10.4549
復於	-10.4554
亦不能	-10.4561
我悉	-10.4562
卷第四十	-10.4562
癡人	-10.4563
香華	-10.4564
曹	-10.4566
法服	-10.4568
為本	-10.4574
病人	-10.4575
從今	-10.458
諸善法	-10.4583
沙門道人	-10.4583
行布施	-10.4583
天帝	-10.4585
憂惱	-10.4587
更無	-10.459
無害	-10.4595
不了	-10.4599
於後	-10.4606
千二百	-10.4612
不厭	-10.4613
請佛	-10.4614
世尊聞已	-10.4618
解說	-10.462
棺	-10.4624
緣眼	-10.4628
福利	-10.4628
復有四	-10.4628
女寶	-10.4629
因欲	-10.4657
諸聲聞	-10.4657
不聽	-10.4658
然此	-10.4664
優婆私	-10.4675
羅婆	-10.4677
斷殺	-10.4677
此地	-10.4678
五下分結	-10.4678
價	-10.4679
彼罪人	-10.4681
說此法	-10.4683
尺	-10.4686
諫	-10.4687
角	-10.4689
斛	-10.469
豐饒	-10.469
冬	-10.4692
麥	-10.4693
檀越	-10.4693
共相娛樂	-10.4697
登	-10.4699
色具足	-10.4702
諸尼乾	-10.4709
尊者婆耆舍	-10.4709
或為行道	-10.4716
不能知	-10.4716
盡已	-10.4721
欲知	-10.4724
不悔	-10.4727
觀法	-10.4728
何義	-10.473
光照	-10.4732
信施	-10.4732
電	-10.4734
未起	-10.4736
諸佛世尊	-10.4738
無所畏	-10.4741
共同	-10.4744
收攝	-10.4746
至彼岸	-10.4748
亦不得	-10.4749
趣涅槃	-10.475
池中	-10.4755
至佛所	-10.4757
邪業	-10.4758
得定心	-10.4758
亦應	-10.476
亦名	-10.476
則於	-10.476
不善根	-10.4771
作善	-10.4773
高下	-10.4776
不堪任	-10.4781
於如來所	-10.4782
不畏	-10.4785
婆羅門長者	-10.4787
惡念	-10.4794
▁爾時	-10.4799
彼有	-10.4799
聞世尊	-10.48
寶車	-10.48
車乘	-10.4811
是汝師	-10.4818
三尊	-10.4833
佛告王	-10.4836
專心	-10.4838
盡諸漏	-10.4838
時到	-10.4847
無量識處	-10.4859
辱	-10.486
事者	-10.4866
之間	-10.4867
厄	-10.4867
復還	-10.4868
鋸	-10.4868
慕	-10.4869
徑	-10.487
焉	-10.4871
蘭	-10.4871
倚	-10.4871
尼健子	-10.4871
法律	-10.4872
錄	-10.4872
休	-10.4873
若以	-10.4873
赫	-10.4873
幼	-10.4873
優婆離	-10.4873
雄	-10.4873
比丘亦復如是	-10.4874
勢	-10.4875
總	-10.4877
宋天竺三藏求那跋陀羅譯	-10.4877
汙	-10.4879
死此生彼	-10.488
滅道跡如實知	-10.4881
從今日始	-10.4883
彼婆羅門	-10.4884
正等覺	-10.4885
得大果報	-10.4885
床臥具	-10.4886
捨覺分	-10.4887
從佛聞	-10.4888
歡樂	-10.4892
彼不應來	-10.4893
彼沙門瞿曇	-10.4897
又告	-10.4901
有熱	-10.4902
自手	-10.4904
及其	-10.4908
來入	-10.4913
得漏盡	-10.4913
問世尊	-10.4914
念處	-10.4915
城邑	-10.4916
佛經	-10.4924
持鉢	-10.4936
無色界	-10.4937
還自	-10.4937
婬欲	-10.4938
肩	-10.4938
便往至	-10.4943
往詣彼	-10.4951
十力	-10.4953
釘	-10.4955
戒德	-10.4961
多聞聖弟子於	-10.4983
飛行	-10.4991
寶物	-10.4996
令不	-10.4998
幾法	-10.4998
阿那含果	-10.4999
地獄眾生	-10.5
所起	-10.5005
華香	-10.501
度一切	-10.5017
謂聖弟子	-10.5019
納	-10.5028
得正見	-10.5029
忘失	-10.5029
人命	-10.503
兩手	-10.5037
湯	-10.5037
但有	-10.5038
則能	-10.5039
香稻	-10.5042
此摩牢	-10.5045
受極重苦	-10.5047
吉	-10.5051
約	-10.5052
茶	-10.5056
得出	-10.5057
防	-10.5057
省	-10.5058
十萬	-10.5058
逸	-10.5058
示教利喜	-10.5059
關	-10.506
脂	-10.506
不善業	-10.506
頗梨	-10.5061
惡心	-10.5061
略說如前	-10.5061
聖戒成就	-10.5062
非身	-10.5063
唾	-10.5063
火然	-10.5067
當捨	-10.5067
自致涅槃	-10.5069
即還	-10.5069
誣謗	-10.507
有疑	-10.507
尼揵親子	-10.5071
右脇	-10.5071
阿那邠邸長者	-10.5072
赫然大明	-10.5073
憂愁	-10.5074
可敬	-10.5074
安般	-10.5074
佛便告	-10.508
迦花	-10.5084
我所見	-10.5088
問汝	-10.5094
懷歡喜	-10.5094
良馬	-10.5097
應詣彼	-10.5114
而作是語	-10.5117
光天	-10.5117
意亦復如是	-10.5121
法故	-10.5124
精進力	-10.5133
八百	-10.5134
唯願世尊受我	-10.5143
劫中	-10.5149
獨處	-10.5161
如上	-10.5163
如來藏	-10.5167
火焰	-10.5167
十三	-10.5168
當受持	-10.5171
前坐	-10.5171
人天	-10.5178
戒律	-10.518
迹	-10.5182
出現世	-10.519
愛滅	-10.5196
有罪	-10.52
佛告梵志	-10.5201
坑	-10.5205
海中	-10.5211
諸有沙門	-10.5212
止觀	-10.5216
之業	-10.5217
不過	-10.5218
得知	-10.5223
赤珠	-10.5224
搏	-10.523
黑繩	-10.5231
瑞	-10.5233
鎧	-10.5233
標	-10.5235
如此之	-10.5235
均頭	-10.5236
一千	-10.5236
]	-10.5238
讀	-10.5239
盈	-10.5241
涌	-10.5242
我正法	-10.5242
目犍連	-10.5245
踊	-10.5245
第九	-10.5247
餅	-10.5248
及諸比丘	-10.5249
須達	-10.5249
所因	-10.525
毘摩質多羅阿修羅王	-10.5251
星宿	-10.5251
栰	-10.5252
蘊	-10.5255
運	-10.5255
不護	-10.5256
正信非家	-10.5257
謗毀	-10.5259
半月	-10.5261
族姓	-10.5264
地大動	-10.5268
求安隱快樂	-10.527
論說	-10.5272
死苦	-10.5272
末利	-10.5273
施者	-10.5273
是聖	-10.5275
開解	-10.5278
諸梵行者	-10.528
迦葉佛	-10.5281
之物	-10.5282
由此因緣	-10.5283
何者是	-10.5285
詣彼	-10.5287
常為	-10.5289
而出	-10.529
二日	-10.5292
陀然	-10.5292
戒取	-10.5294
最第一	-10.5299
會中	-10.5313
能忍	-10.5314
心懷	-10.5318
悉能	-10.5319
㮈	-10.5324
阿難白佛言	-10.5326
如世尊說	-10.5327
無罪	-10.533
如似	-10.5333
正思	-10.5339
大姓	-10.5348
自覺知	-10.535
因此故	-10.5351
以偈問	-10.5362
學戒	-10.5365
彼尊者	-10.5367
受戒	-10.5385
洗足已	-10.5387
無相	-10.5397
病苦	-10.5414
不亂	-10.5422
曇彌	-10.5422
旦	-10.5428
?』「	-10.543
虛空中	-10.543
色是我	-10.5431
累	-10.5432
世中	-10.5434
印	-10.5434
渧	-10.5435
棘	-10.5435
阿難白佛	-10.5437
正見乃至正定	-10.5441
契經	-10.5442
顏貌端正	-10.5444
尊者摩訶拘絺羅	-10.5445
僧不壞淨	-10.5446
㷿	-10.5447
彼一切非我	-10.5448
入地獄	-10.5448
大典尊	-10.5449
天耳	-10.5449
不識	-10.545
群鹿	-10.5451
閻羅王	-10.5452
王阿闍世	-10.5453
復有三法	-10.5453
須拔	-10.5453
有覺有觀	-10.5453
床榻	-10.5454
欲漏	-10.5455
露地	-10.5458
大雨	-10.5465
清白	-10.5466
久久	-10.5472
上天	-10.5474
生此念	-10.5476
三衣	-10.5476
不在	-10.5477
以彼	-10.5479
一月	-10.5486
住舍衛國	-10.5491
靜室	-10.5504
無憂	-10.5507
尊長	-10.5508
風界	-10.5514
便成	-10.5515
欲往	-10.5517
諸餘	-10.5523
中央	-10.5525
千子	-10.5527
心結	-10.5533
為我說法	-10.5534
四意止	-10.5534
分明	-10.5539
極廣	-10.5543
昔者	-10.5544
阿修羅王	-10.5546
不相在	-10.5568
乃至邪見	-10.5581
汝若	-10.5584
彼於爾時	-10.5586
在眾中	-10.5593
不堪	-10.5595
共鬪	-10.5597
誰能	-10.5601
大海中	-10.562
諸阿修羅	-10.562
米	-10.5622
兄	-10.5622
娶	-10.5623
在虛空中	-10.5624
害心	-10.5628
尊者大拘絺羅	-10.5629
疊	-10.563
狀	-10.5631
孔雀	-10.5633
算	-10.5633
恃	-10.5634
張	-10.5634
復念	-10.5635
月天子	-10.5635
映	-10.5635
耆舊	-10.5636
驚怖	-10.5638
鞞摩質多羅阿修羅王	-10.564
怪	-10.5642
衰退	-10.5644
繫念在前	-10.5645
商主	-10.5646
清苦行苦行	-10.5646
如實觀察	-10.5646
入村乞食	-10.5648
聞是語	-10.5649
跋迦梨	-10.565
我問	-10.5651
自相謂言	-10.5653
是則為	-10.5655
此二法	-10.5659
無量眾生	-10.5659
異學箭毛	-10.566
復入	-10.567
久存	-10.5673
顧念	-10.5674
善友	-10.5681
青色	-10.5692
所犯	-10.5693
頭陀	-10.5695
淨信	-10.5696
取此	-10.5699
唯佛	-10.5702
彼女人	-10.5704
薩羅	-10.5709
諦觀	-10.572
當行	-10.5721
亦當知	-10.5724
有十	-10.5728
此世間	-10.5731
經法	-10.5739
我父	-10.5745
大沙門	-10.5756
八法	-10.5756
教法	-10.5758
止宿	-10.576
無諸	-10.5764
還詣	-10.5767
隨從	-10.577
更相	-10.5778
三寶	-10.578
過去世	-10.5786
四千里	-10.5791
緣愛	-10.5791
而聽	-10.5798
之具	-10.5799
伽藍	-10.5799
佛前	-10.5801
向彼	-10.5802
合掌白佛	-10.5807
或有沙門	-10.5808
有所說	-10.5814
貌	-10.5815
故名為	-10.5816
云何見	-10.5816
欣	-10.5822
汝本	-10.5824
惠	-10.5824
邪念	-10.5824
忉利諸天	-10.5826
踰	-10.5827
大智	-10.5831
膏	-10.5831
惒	-10.5831
宅	-10.5834
朋友	-10.5835
以是義故	-10.5835
膿血	-10.5836
拘樓	-10.5838
剋	-10.5839
杵	-10.584
舒	-10.584
清旦	-10.5841
識止處	-10.5842
還生	-10.5843
孝順父母	-10.5844
挍	-10.5844
氣力如常	-10.5845
樂住遠離	-10.5846
辟	-10.5847
以何等故	-10.5847
歸佛	-10.5852
臭穢	-10.5853
多所	-10.5853
使者	-10.5855
梵志梵摩	-10.5856
相謂言	-10.5857
因此故說	-10.5857
從坐起去	-10.5857
多行	-10.5864
還精舍	-10.5866
法及比丘眾	-10.587
一意	-10.5877
亦可	-10.5884
若色	-10.5896
有結	-10.5897
彼長者	-10.5898
諸受	-10.5902
等覺	-10.5908
觀外	-10.591
長壽王	-10.5912
答我言	-10.5915
又沙門瞿曇	-10.5923
更生	-10.5928
空無	-10.5928
是為四	-10.5931
即詣	-10.5951
諸比丘白佛	-10.5955
知漏	-10.5956
二禪	-10.5961
不能自	-10.5963
自知自覺	-10.5969
二曰	-10.5971
信力	-10.5972
不久當	-10.5973
如是觀者	-10.5974
彼以	-10.5997
有觀	-10.5999
大小	-10.6001
殿上	-10.6002
肥	-10.601
兩邊	-10.6011
取著	-10.6013
稱讚	-10.6015
持戒者	-10.6016
鉤	-10.6019
㲲	-10.6021
咄	-10.6028
行澡水	-10.6031
0	-10.6031
麁澁	-10.6034
闕	-10.6036
行在祇樹給孤獨園	-10.6037
受滅	-10.6038
隣	-10.6039
其間	-10.604
從佛受教	-10.6041
四見中	-10.6044
坐一樹下	-10.6044
所以稱	-10.6044
此三法	-10.6045
毘尼	-10.6047
鸚鵡摩納	-10.6049
園苑	-10.605
右手	-10.6052
依滅	-10.6054
逆風	-10.6056
自說	-10.6061
色患	-10.6064
如是耳	-10.6064
花果	-10.6068
與五百	-10.6072
以此方便	-10.6073
長跪叉手	-10.6074
心樂	-10.6078
如月	-10.608
傷害	-10.6085
作不善業	-10.6086
議已	-10.6093
此是實	-10.6093
何等人	-10.6094
如是為	-10.6094
鼻香	-10.6095
三日	-10.6099
若無常	-10.6107
穢惡	-10.6111
聽受	-10.6113
流轉	-10.6115
覺法	-10.6126
皆得	-10.6129
莫作	-10.6132
之身	-10.6134
耳鼻	-10.614
意根	-10.6142
如是再三	-10.6154
心之所念	-10.6156
學者	-10.6157
有眾多比丘	-10.6159
設復	-10.6165
麤言	-10.6169
高廣	-10.6169
百二十	-10.6174
便得滅	-10.6182
不墮惡趣	-10.6183
起增上	-10.6185
第一義	-10.6188
何物	-10.6194
身長	-10.6197
吾當	-10.6203
賴吒和羅	-10.6205
非道	-10.6215
空閑	-10.6218
見他	-10.6219
廬	-10.6221
」《	-10.6223
惶	-10.6224
歷	-10.6231
音樂	-10.6234
餘處	-10.6235
淨修梵行	-10.6238
生喜	-10.6239
數千萬	-10.6239
】【	-10.6239
閻浮利	-10.624
兼	-10.6244
毒蛇	-10.6244
腸	-10.6245
騎	-10.6246
優鉢	-10.6246
川	-10.6247
命異身異	-10.6247
微細	-10.6247
求義及饒益	-10.625
多羅行樹	-10.6251
耗	-10.6251
瑕穢	-10.6252
未離	-10.6252
見如實	-10.6257
止住	-10.6257
所致	-10.6258
得究竟智	-10.626
因此清苦行苦行	-10.626
齊是不過	-10.626
無怨	-10.6262
三十七品	-10.6263
石室	-10.6263
煙	-10.6264
敷座	-10.6267
當勤方便	-10.6269
安快	-10.6269
當如是答	-10.6277
不可愛	-10.6281
或有業能令眾生	-10.6284
中夜	-10.6285
疑蓋	-10.6286
道弟子	-10.6286
唱言	-10.6287
我今亦	-10.6287
床座	-10.6289
千二百五十	-10.629
無令	-10.6292
是故當知	-10.6298
此婆羅門	-10.6298
最小	-10.6303
舉身	-10.6307
慧根	-10.6308
而為說法	-10.6314
水火	-10.6316
毘婆尸佛	-10.632
之明	-10.6323
善法堂	-10.6325
或至	-10.6329
貪愛	-10.6336
或言	-10.6338
作業	-10.6338
色像	-10.6339
或持	-10.6344
想滅	-10.6347
其頭	-10.6356
都不	-10.636
然今	-10.6362
梵摩	-10.6362
現身	-10.6367
所有眾生	-10.6375
苾芻眾	-10.6378
得歡喜	-10.6387
五比丘	-10.6391
釋迦文佛	-10.6392
而立	-10.6392
所纏	-10.64
種種諸	-10.6408
得第一	-10.641
愛喜	-10.6419
法句	-10.6428
毒痛不可忍	-10.6429
講	-10.6434
泥犁旁	-10.6435
竊	-10.644
能解	-10.6442
兵仗	-10.6442
未知	-10.6445
歡	-10.6445
不淨行	-10.6447
稍	-10.6448
丈	-10.6448
考	-10.6451
白色	-10.6451
悶	-10.6452
樵	-10.6452
擣	-10.6455
羞	-10.6456
拘牟陀	-10.6456
閻摩王	-10.6456
迷惑	-10.6458
菴	-10.6459
諂	-10.6459
燕坐	-10.646
期	-10.6461
侶	-10.6462
採	-10.6465
盡諸有漏	-10.6465
世尊是法根	-10.6467
百千萬	-10.6468
不起諸漏	-10.6469
漂	-10.6469
盡其形壽	-10.647
不近	-10.6471
識集	-10.6471
摶食	-10.6472
十善業	-10.6474
盛陰	-10.6474
以何為	-10.6478
如來死後	-10.648
尚不	-10.648
或說	-10.6484
獲得	-10.6485
其數	-10.6486
釋迦	-10.6489
廢	-10.6489
火坑	-10.649
若生人中	-10.6493
曉了	-10.6496
彼行禪者	-10.6509
有一天子	-10.6512
我不說	-10.6513
前進	-10.6515
汝等諦聽	-10.6515
設當	-10.6515
即出	-10.652
乃得	-10.6526
大施	-10.6533
永滅	-10.6546
心定	-10.6546
不放逸住	-10.6549
無結	-10.6555
若干想	-10.6559
互	-10.6562
須陀洹果	-10.6564
當滅	-10.6569
阿育	-10.6574
為他所	-10.6575
或能	-10.658
馬車	-10.6581
遊化	-10.6597
修四念處	-10.6602
或在	-10.661
作佛	-10.6615
威光	-10.6616
解其義	-10.6622
光焰	-10.6629
由何	-10.6637
佛告舍利弗	-10.6642
下至	-10.6647
識無常	-10.6649
罪未畢	-10.6654
狼	-10.6658
是真	-10.6662
巨	-10.6663
嗜	-10.6663
自然粳米	-10.6664
耳聲	-10.6665
一分	-10.6668
翳	-10.667
兜率陀天	-10.6671
詰	-10.6671
分陀利	-10.6672
脇	-10.6672
發心	-10.6672
鉗	-10.6673
]《	-10.6673
臺	-10.6674
地肥	-10.6679
愚惑	-10.6681
保	-10.6682
清信士	-10.6682
果證	-10.6685
洞然	-10.6685
過去久遠	-10.6686
過夜平旦	-10.6686
毒箭	-10.6686
六為	-10.669
聖人	-10.6691
證法	-10.6693
死屍	-10.6693
乃至命盡	-10.6694
此岸	-10.6697
獵師眷屬	-10.6698
淵	-10.6699
無有異	-10.6699
不稱	-10.6707
宿命智	-10.6709
汝師	-10.6709
復有眾生	-10.6715
外道異學	-10.6724
之類	-10.6737
樓觀	-10.6745
共會	-10.6745
皆共	-10.6745
懷恐怖	-10.6746
求出家	-10.6748
一曰	-10.6753
意知法	-10.6764
吾欲	-10.677
遊於	-10.6776
敢	-10.6776
修行梵行	-10.6776
願佛	-10.6777
取命終	-10.6786
還家	-10.6787
若麁	-10.6789
愛著	-10.679
如理	-10.6793
五道	-10.6794
即問	-10.6797
多修習	-10.6802
一人言	-10.6804
得信	-10.6813
輪王	-10.6817
見聞	-10.682
垢穢	-10.6823
賢聖法	-10.6824
無益	-10.6833
彼比丘應	-10.6834
不宜	-10.6834
緣此	-10.6835
大象	-10.6845
身作證	-10.6848
正向	-10.6852
▁2	-10.6854
無貪	-10.6856
殺之	-10.6862
正說	-10.6867
大水	-10.6877
四十里	-10.688
得無上	-10.6881
定生喜	-10.6883
灰河	-10.6883
床上	-10.6883
崇	-10.6884
大善見王	-10.6887
二十億耳	-10.6888
肌	-10.689
掠	-10.6891
給孤獨	-10.6891
剎利頂生王	-10.6893
水界	-10.6893
光明照耀	-10.6894
庶幾	-10.6894
如實知見	-10.6895
他作	-10.6895
醜陋	-10.6897
塞	-10.6897
光澤	-10.6898
戾	-10.6898
長阿含經	-10.6899
幡	-10.6899
還本	-10.6899
何事	-10.69
轉法輪	-10.6901
四正斷	-10.6902
頸	-10.6902
申	-10.6903
使不死	-10.6904
扶	-10.6904
顏貌	-10.6904
能除	-10.6906
如上廣說	-10.6908
大力士	-10.691
彈琴	-10.6911
不如施一	-10.6913
婆蹉種出家	-10.6917
如汝所說	-10.6917
斷五下分結	-10.6919
帝釋天王	-10.6921
尼拘陀梵志	-10.6922
不滅	-10.6928
乞求	-10.6928
白髮	-10.6929
佛住王舍城	-10.6932
是說	-10.6933
稱量	-10.6934
化自在天	-10.6938
耆闍崛山中	-10.6939
頂禮	-10.6939
即勅	-10.6943
佛弟子	-10.6944
婆悉咤	-10.6949
怨憎	-10.6955
舌味	-10.696
知佛	-10.696
諸比丘白	-10.6973
終不得	-10.6981
為轉輪王	-10.6992
不審	-10.7002
諸釋	-10.7002
厭惡	-10.7005
阿須倫王	-10.7006
道士	-10.7007
真珠	-10.7011
之本	-10.7011
舍衛	-10.7024
四月	-10.7024
諸商人	-10.7029
敬禮	-10.7029
無力	-10.7032
而命終	-10.7036
名德	-10.7036
家家	-10.7037
本處	-10.7038
我曾	-10.7052
樹林	-10.7053
最大	-10.7061
受集	-10.7061
并及	-10.7064
王位	-10.7067
我今日	-10.7079
向涅槃	-10.708
五盛陰	-10.7086
此是我	-10.7087
7	-10.7101
淨行	-10.7105
甘露法	-10.7106
羅閱祇	-10.7108
冠	-10.711
在內	-10.7112
誐	-10.7113
五百弟子	-10.7115
束	-10.7116
陸	-10.7117
劇	-10.7117
孤	-10.7118
斂	-10.7119
慎	-10.712
燒其	-10.712
枕	-10.7122
詐	-10.7123
婆耆奢	-10.7124
跪	-10.7124
盜賊	-10.7124
前後圍繞	-10.7124
鬚	-10.7125
源	-10.7125
五樂	-10.7127
四部眾	-10.7127
拘翼	-10.7128
雙樹間	-10.7128
悋	-10.7129
案	-10.7131
貪嫉	-10.7132
馬師	-10.7133
二正士共論	-10.7133
澡洗	-10.7135
尊者鳩摩羅迦葉	-10.7136
三十六	-10.7136
迦旃	-10.7137
富蘭那	-10.7137
梯	-10.7138
諸國	-10.7139
三法衣	-10.7141
像類	-10.7143
到時	-10.7152
皆來	-10.7154
斯陀含果	-10.7155
眾惡	-10.7156
迦梨	-10.7159
拘薩羅國	-10.7159
理家	-10.7164
為誰	-10.7166
。『	-10.7167
不精進	-10.7169
為人所	-10.7171
何以不	-10.7175
釋種子	-10.7176
之樂	-10.7177
是為七	-10.7193
和上	-10.7211
是為二	-10.7218
相師	-10.7221
邪定	-10.7222
二萬	-10.7224
謂六	-10.7229
入室	-10.7246
若有一	-10.7249
樂報	-10.725
常懷	-10.7262
精進沙門	-10.7274
四種兵	-10.7283
拘薩羅	-10.7287
得其便	-10.7291
生善處	-10.7298
所獲	-10.7299
減少	-10.7303
普周	-10.731
其餘	-10.7311
八解脫	-10.7313
無厭	-10.7313
梵天王	-10.7319
明淨	-10.7323
真金	-10.7331
遍淨	-10.7332
能度	-10.7333
十由旬	-10.7334
受王教	-10.7341
若聖弟子	-10.7341
刃	-10.7343
涼	-10.7345
成敗	-10.7349
併	-10.735
氍	-10.735
無事比丘行於無事	-10.7351
無間	-10.7352
周旋	-10.7356
晨	-10.7356
愈	-10.7356
器仗	-10.7358
狐	-10.7359
毀辱	-10.7359
=	-10.736
少欲知足	-10.736
裟	-10.736
此女	-10.736
滯	-10.7361
彼等於中	-10.7361
揚	-10.7361
端政	-10.7362
令滅	-10.7362
起居輕	-10.7363
床臥	-10.7363
尼師壇	-10.7364
瓦	-10.7364
鄙	-10.7364
輒	-10.7367
敷尼師檀	-10.7367
泡	-10.7367
春	-10.7367
慮	-10.7367
為大患	-10.7368
有幾	-10.7369
諸塵垢盡	-10.7369
即於座上	-10.737
解了	-10.7372
闡陀	-10.7374
擲置	-10.7376
嫌怖久	-10.7379
輔相婆羅門	-10.7384
成就此法者	-10.7385
神通力	-10.7389
長遠	-10.739
語我言	-10.7393
五百比丘尼	-10.7393
獨一	-10.7393
令汝	-10.7396
若曹	-10.7396
十惡	-10.7397
新學	-10.7402
信解	-10.7402
我與世	-10.7405
若如是者	-10.7409
正直	-10.7419
解義	-10.7419
亦不為	-10.7422
作如是語	-10.7425
眾生之類	-10.7427
此五受陰	-10.7433
漏盡智	-10.7436
娑羅林	-10.7437
道品	-10.7438
不相應	-10.7439
金翅鳥王	-10.744
餘眾生	-10.7442
剎利王	-10.7446
離車	-10.7452
純一	-10.7463
大河	-10.7467
歸依佛	-10.7474
淨心	-10.7474
應說	-10.7474
遊觀	-10.7475
珍	-10.7481
勿復	-10.7482
火界	-10.7497
戒具足	-10.7507
佛所說	-10.7513
大家	-10.7514
難提波羅陶師	-10.7516
帝王	-10.7524
所覺	-10.754
身光	-10.755
有眾多	-10.7558
南無	-10.7563
一方	-10.7567
行步	-10.757
其國	-10.7571
優婆斯	-10.7577
妓	-10.7578
地動	-10.7582
陣	-10.7587
諾	-10.7587
莊	-10.7587
炭	-10.7592
擎	-10.7594
以是之故	-10.7598
薩遮尼犍子	-10.7598
七重鈴網	-10.76
四大洲	-10.76
至無為處	-10.76
柔和	-10.76
肆	-10.7602
國人民	-10.7604
無始生死	-10.7605
與大比丘眾俱	-10.7606
屋舍	-10.7607
針	-10.7608
即起	-10.761
郁伽長者	-10.761
七種	-10.7612
想知滅	-10.7612
觸緣	-10.7612
遍滿一方成就遊	-10.7615
覆蓋	-10.7615
遮羅	-10.7615
尊者薄拘羅	-10.7616
展轉相	-10.7617
有知有見	-10.7619
如是二三四	-10.7627
教示	-10.7628
且止	-10.7633
子孫	-10.7643
習近	-10.7643
諸比丘聞已	-10.7646
於外	-10.7648
分別其義	-10.7649
生天之	-10.765
河水	-10.7653
隨汝所	-10.7659
凡人	-10.7672
責數	-10.7673
若時如來出	-10.7677
便習	-10.7684
於虛空中	-10.7687
敷床	-10.7694
道從	-10.7694
數千	-10.7697
應真	-10.7706
將欲	-10.7709
以此為	-10.7727
祐	-10.7748
六種	-10.7753
好惡	-10.7755
遍受	-10.7761
行乞食	-10.7761
舍那	-10.7766
是故說	-10.7775
為無常	-10.7776
一切悉	-10.7782
受歲	-10.7787
不增	-10.7792
種類	-10.7799
遠來	-10.7813
奈	-10.7818
壽命延長	-10.7819
生喜樂	-10.7825
嗟	-10.7825
豪貴	-10.7827
甞	-10.7827
大富	-10.7828
慰	-10.7829
戴	-10.7831
郡	-10.7831
闍維	-10.7832
蚊虻	-10.7832
沈	-10.7833
善無毒女	-10.7833
再	-10.7834
周匝校飾	-10.7834
毘摩質多羅	-10.7835
帝釋天主	-10.7835
輦	-10.7836
須摩提女	-10.7837
繒	-10.7837
蚊蚋	-10.7838
六觸入處	-10.7838
羯	-10.7842
舍利弗比丘	-10.7842
滿願子	-10.7843
往返	-10.7843
譯聞如是	-10.7844
鴦	-10.7845
盡苦際	-10.7846
鹽	-10.7846
離生喜	-10.7847
小土城	-10.7848
大愛道	-10.785
章	-10.7853
安置	-10.7853
淨潔	-10.7854
變悔	-10.7856
為他說	-10.7857
得大果	-10.7859
惡露	-10.786
生聞梵志	-10.786
卵生	-10.7865
瞋恨	-10.7872
阿夷	-10.7872
我生此法	-10.7872
有此三	-10.7873
無明漏	-10.7876
欲相應	-10.7877
佛問	-10.7883
阿修羅眾	-10.7884
最極	-10.7884
意妙行	-10.7885
此賢	-10.7886
天主	-10.7889
尊敬	-10.7889
大叫喚	-10.7892
定根	-10.7892
岸上	-10.7893
遍覺	-10.7894
何用	-10.7895
正士	-10.7897
令我得	-10.7899
有道有	-10.7903
不復更	-10.7904
七由旬	-10.7908
於正法中	-10.791
晡時從禪	-10.7914
六年	-10.7916
一切諸行	-10.792
可畏	-10.7923
是三種	-10.7933
不疑	-10.7939
阿羅漢果	-10.794
居止	-10.7946
退轉	-10.795
增多	-10.7955
流出	-10.796
兵眾	-10.7961
一指	-10.7962
道路	-10.7968
三千	-10.7977
默然住	-10.7978
白象	-10.798
貪婬	-10.8004
吾等	-10.8011
識界	-10.802
受請	-10.8021
生活	-10.8023
斯人	-10.8024
誨	-10.804
月宮殿	-10.8047
今現在	-10.8051
復重	-10.8055
我時	-10.806
形相	-10.8062
欲來	-10.8066
身自歸	-10.8067
婚	-10.8073
二萬里	-10.8073
入正法	-10.8074
蕩	-10.8076
兜	-10.808
有七寶	-10.8081
談	-10.8082
伐	-10.8083
▁26(1	-10.8085
震	-10.8085
掌	-10.8086
捶	-10.8086
后	-10.8086
荒	-10.8087
永盡無餘	-10.8087
八萬四千歲	-10.8087
㝹	-10.8088
如所說	-10.8089
委	-10.809
則於晡時	-10.8091
披	-10.8092
就座而坐	-10.8093
偏袒右肩	-10.8093
懷妊	-10.8094
戀	-10.8094
念覺分	-10.8095
瞿迦梨	-10.8097
我於彼	-10.8098
場	-10.8101
篤信	-10.8105
摩訶迦葉	-10.8105
事因此事	-10.8108
遍于祇洹	-10.8109
三世	-10.8109
未來世	-10.8109
說偈答	-10.811
於此處	-10.8111
更不復受	-10.8111
歡喜頂禮	-10.8112
隨逐	-10.8112
長苦行尼揵	-10.8113
大小便	-10.8113
究竟梵行	-10.8114
白㲲	-10.8115
假使	-10.8115
不安	-10.8115
正解脫	-10.8116
花實	-10.8117
至涅槃	-10.8118
往至佛所	-10.8121
敗劫	-10.8123
成佛道	-10.8124
鬪戰	-10.8125
墮惡道	-10.8126
慈悲	-10.8127
三業	-10.8129
至于	-10.8129
日天子	-10.813
不瞋	-10.8131
百種	-10.8131
念此相	-10.8135
於一面坐	-10.8138
若比丘於	-10.814
乃爾	-10.8141
惡鬼	-10.8142
未終	-10.8146
大乘	-10.8149
共議	-10.815
四百	-10.815
高大	-10.8153
於現法	-10.8153
精進根	-10.8155
斯由	-10.8157
說伽陀	-10.8158
緣欲	-10.816
識知	-10.816
得羅漢	-10.8166
如來出世	-10.8172
獨坐	-10.8174
取食之	-10.8176
不兩舌	-10.8178
唯除	-10.8182
恭敬供養	-10.8195
奉施	-10.8196
而還	-10.82
沙門義	-10.8204
已辦	-10.821
復自念	-10.8214
是為五	-10.8217
從坐起而去	-10.823
度彼岸	-10.8234
無極	-10.824
頂上	-10.8241
得斯陀含	-10.8244
致此	-10.827
斷受	-10.8273
廣長	-10.8273
便得安隱	-10.8277
地主	-10.8284
共坐	-10.8294
萬由旬	-10.8299
卵	-10.83
便害	-10.8318
諸眾生輩	-10.8322
獨住	-10.8327
滿度摩	-10.833
宮內	-10.8331
所有諸	-10.8331
不如一	-10.8335
溢	-10.8337
守獄者	-10.8338
官	-10.8338
四衢道	-10.8339
謂因	-10.8341
天及魔	-10.8342
旨	-10.8342
謀	-10.8342
究	-10.8342
鴦崛髻	-10.8343
謙	-10.8344
新歲	-10.8344
紺	-10.8344
滿財長者	-10.8345
撰	-10.8345
債	-10.8345
敬順	-10.8346
此事不然	-10.8348
蹈	-10.835
扇	-10.8351
法樂比丘尼	-10.8352
黎	-10.8352
阿攝惒邏延多那摩納	-10.8352
虛偽	-10.8353
素	-10.8353
溝	-10.8354
平旦	-10.8355
挽	-10.8356
阿颰	-10.8356
提婆達多	-10.8359
超越	-10.8361
田家	-10.8362
東面	-10.8363
堪耐	-10.8364
彼見色光明尋復滅	-10.8364
生善處天上	-10.8365
自身作證	-10.8366
尊者浮彌	-10.8366
氣味	-10.8368
受無量苦	-10.8368
呪願	-10.837
念根	-10.8378
色陰	-10.8388
無漏心解脫	-10.8388
有大功德	-10.8389
城內	-10.8391
乃至自知不受後有	-10.8393
來到	-10.8396
躬自	-10.8397
安立	-10.8405
世尊告阿難	-10.8408
各異	-10.8409
於諸善法	-10.842
然其	-10.8422
在拘薩羅人間	-10.8422
捨去	-10.8424
過去事	-10.8425
精勤不懈	-10.8428
財利	-10.8428
諸小王	-10.8428
作此念	-10.8435
受奉行	-10.8436
以此緣	-10.8438
不善行	-10.844
八聖道	-10.8441
永盡	-10.8444
尊者阿難語	-10.8444
聖道	-10.8445
名色滅	-10.845
成此法	-10.8453
不得解脫	-10.8461
天雨	-10.8462
後復	-10.8463
開示	-10.8471
如來正法	-10.8473
於長夜	-10.849
七十	-10.8491
將詣	-10.8504
說是法	-10.8506
默然受請	-10.8511
其形	-10.8537
如我今日	-10.8547
我聞世尊	-10.855
有差別	-10.856
一向說	-10.8561
梵志種	-10.8566
發起	-10.8575
現前	-10.8576
電光	-10.8577
七子	-10.8579
明了	-10.8584
解脫處	-10.8585
此身中	-10.8586
谷	-10.8588
自歸佛	-10.8592
從更復更	-10.8593
識是我	-10.8596
童	-10.8596
膩	-10.86
騰	-10.8601
惡意	-10.8603
漸次	-10.8603
長老上尊	-10.8603
七處	-10.8603
四門	-10.8604
乘車	-10.8605
受福	-10.8606
紅	-10.8607
濡	-10.8609
飢餓	-10.8609
青蓮華	-10.8609
耀	-10.8609
橋	-10.8609
晃	-10.8612
攀緣	-10.8613
瑪瑙	-10.8613
世之希有	-10.8614
調戲	-10.8614
煩勞	-10.8615
瞿耶尼	-10.8615
菩薩摩訶薩	-10.8615
恥	-10.8615
摸	-10.8615
中有一	-10.8616
療	-10.8616
屍	-10.8616
毀謗	-10.8617
慙愧	-10.8617
以義饒益	-10.8617
輪迴	-10.8617
敷座而坐	-10.8619
迦毘羅衛	-10.862
正身正意	-10.8621
廣長各二千里	-10.8621
迦羅越	-10.8621
姦	-10.8621
縮	-10.8624
從人至	-10.8626
無與等	-10.8628
三摩竭	-10.8628
摩竭陀	-10.8629
得光明而見色	-10.863
談論	-10.8631
謂八正道	-10.8633
墮落	-10.8634
羅雲	-10.8635
除諸亂	-10.8637
月八日	-10.8637
種德	-10.8639
田業	-10.8646
壽終	-10.865
生恐怖	-10.865
夫主	-10.8651
八字	-10.8659
審諦	-10.8659
風雨	-10.8659
與諸大眾	-10.8661
是為一	-10.8671
此大地	-10.8674
於眼	-10.8676
於此正法	-10.8676
又如	-10.8679
共論議	-10.8679
得大福	-10.8681
赤色	-10.8686
不欲令	-10.8689
相好	-10.869
昇上	-10.8696
即是我	-10.8696
神變	-10.8698
是為八	-10.8698
十四日	-10.8701
他方	-10.8702
聞聲	-10.8707
乞食已	-10.8712
是變易法	-10.8712
竹林	-10.8716
佛出世	-10.8717
豈不	-10.8717
生恚	-10.872
來生此	-10.8727
聞世尊所說	-10.8731
六師	-10.875
樹枝	-10.8751
豈非	-10.8751
大梵	-10.8765
十一法	-10.8778
便得解脫	-10.8788
我所說者	-10.879
二月	-10.8804
俱解脫	-10.8805
千一百	-10.881
自證	-10.8811
難陀比丘	-10.8818
謂四念處	-10.882
三字	-10.8821
云何為一	-10.8828
日宮殿	-10.8829
二三	-10.8832
三毒	-10.8834
不復受	-10.884
無患	-10.884
訖已	-10.8849
頞波羅延	-10.8855
迴轉	-10.8856
那伽	-10.886
依法	-10.8866
拏	-10.8866
戱	-10.8867
屎	-10.8868
續	-10.8868
以七寶成	-10.887
澄	-10.8873
衛	-10.8873
惡聲	-10.8873
須跋	-10.8873
劫貝	-10.8875
常在	-10.8875
優波離	-10.8876
犁	-10.8876
無能及者	-10.8877
建	-10.8879
祠祀	-10.888
各各自鳴	-10.888
說此義	-10.888
阿奇	-10.8881
寐	-10.8881
與大比丘眾千二百五十人俱	-10.8881
滋	-10.8882
淫	-10.8882
率	-10.8883
腦	-10.8883
籌	-10.8884
以法治化	-10.8884
略說如上	-10.8885
墜	-10.8886
真淨王	-10.8886
舍宅	-10.8886
於佛法中	-10.8887
因此緣此	-10.8887
憍慠	-10.8888
一切智	-10.8888
才	-10.8888
於現法中自知自覺	-10.8888
吉凶	-10.8889
迦尸	-10.889
無量方便為彼說法	-10.889
深義	-10.8891
毘舍佉優婆夷	-10.8893
鼠	-10.8895
匹	-10.8896
賢者迦旃延	-10.8898
不可稱	-10.8899
著三法衣	-10.89
畢竟	-10.8901
沙門釋子	-10.8904
終後	-10.8908
復有餘	-10.8908
得至涅槃	-10.891
國事	-10.8911
長久	-10.8913
各各相	-10.8914
現在無常	-10.8917
而般涅槃	-10.8918
識味	-10.892
染污	-10.8922
就坐	-10.8922
及比丘眾	-10.8926
剎利女	-10.8926
因陀羅	-10.8929
日光	-10.8929
斷不與取	-10.8937
所標	-10.8942
東向	-10.8943
所牽	-10.8949
六界	-10.8952
害他	-10.8978
云何為十	-10.8978
將護	-10.8978
授與	-10.8979
象師	-10.8979
內覺	-10.8981
修身	-10.8984
勤苦	-10.8998
難提波羅陶師離	-10.9003
邪語	-10.9036
種種界	-10.904
不顛倒	-10.9051
大國	-10.9066
從座起去	-10.9068
受此行	-10.9069
種種飲食	-10.9079
永離	-10.9092
地獄苦	-10.9096
禮足	-10.9105
質多	-10.9108
寧當	-10.9109
工	-10.9111
不退轉	-10.9114
是故汝等	-10.9118
伴黨	-10.9133
相和而鳴	-10.9134
撲	-10.9137
復云何業	-10.9137
無缺	-10.9137
丸	-10.914
裹	-10.914
嚕	-10.914
啄	-10.9141
捐	-10.9141
剃	-10.9141
壓	-10.9143
甚善	-10.9143
域	-10.9145
圖	-10.9153
不得自在	-10.9153
𧂐	-10.9154
空地	-10.9154
饌	-10.9155
ā	-10.9155
苦報	-10.9157
趣至惡處	-10.9158
寒熱	-10.9158
曾聞	-10.9158
復有叢林名	-10.9159
純一滿淨	-10.9161
在大眾中	-10.9161
快哉	-10.9162
雜阿含	-10.9162
燥	-10.9162
弊魔	-10.9162
吉祥	-10.9165
朱利槃特	-10.9165
統	-10.9165
檀越施主	-10.9166
賢者大拘絺羅	-10.9166
諸所有色	-10.9166
比丘修習念身	-10.9168
式	-10.9169
首陀羅	-10.9169
安處	-10.9169
身分	-10.9169
階道	-10.9171
十歲	-10.9171
知上如真	-10.9171
慎莫	-10.9172
欝單越人	-10.9175
無為無求	-10.9175
聞其所說	-10.9176
跋提	-10.9177
沙門鳩摩羅迦葉	-10.9177
調御丈夫	-10.9178
遍覆	-10.9178
護持	-10.9179
如上所說	-10.918
其母	-10.9181
調笑	-10.9184
欝多羅	-10.9189
清明	-10.9193
恣意	-10.9196
親親	-10.9202
共集	-10.9202
造立	-10.9203
如佛所說	-10.9204
其邊	-10.9204
五百歲	-10.9204
不苦不樂痛	-10.9205
異道人	-10.921
我當為汝	-10.9213
觀覺	-10.9214
進止	-10.9214
不絕	-10.923
平正	-10.923
意善行	-10.9235
最初	-10.9235
華果	-10.9236
極精勤	-10.9239
令不生	-10.9244
舍衛城中	-10.9248
同學	-10.9254
是謂第三	-10.9262
智慧解脫	-10.9263
地獄諸眾生輩	-10.9264
釋迦文	-10.9269
得無所畏	-10.927
作頌	-10.9272
頭那	-10.9272
道迹	-10.9273
三惡行	-10.9276
如車輪	-10.9281
觀視	-10.9285
聽汝	-10.9288
不可行	-10.9297
彼如是知	-10.9299
縱廣五百由旬	-10.93
善攝	-10.9301
復有十	-10.9306
僧伽	-10.9307
世尊復說偈	-10.9308
有何義	-10.9311
大聖	-10.9313
增上慢	-10.9319
手中	-10.932
義理	-10.9324
利根	-10.9328
受快樂	-10.9328
何所起	-10.9339
智慧成就	-10.9342
受陰	-10.9346
至得第四禪成就遊	-10.9347
伊羅	-10.9357
得道者	-10.9367
眼觸因緣生	-10.9369
入定	-10.9372
一切諸法	-10.9378
護戒	-10.9393
過患	-10.9395
當遠離	-10.9396
相似	-10.9406
滅無餘	-10.9409
不為惡	-10.9413
二百五十	-10.9416
問訊世尊	-10.9416
玉	-10.9417
身證	-10.9419
四萬里	-10.9419
寸	-10.9425
婆羅邏	-10.9429
匠	-10.9433
旬	-10.9434
財產	-10.9437
他信施	-10.9437
唐	-10.9439
阿耨達龍王	-10.9439
阿那邠祁	-10.9441
愍傷	-10.9441
無數百千	-10.9441
不孝父母	-10.9442
代	-10.9442
暗	-10.9442
摩尼寶	-10.9444
弊魔波旬	-10.9445
荼	-10.9446
凶	-10.9446
彼苦行者	-10.9447
禽獸	-10.9448
怙	-10.9448
不廣分別	-10.9449
盡諸有結	-10.945
牆壁	-10.9451
苗	-10.9451
蠅	-10.9453
痛痒	-10.9454
今世後世	-10.9455
捫摸	-10.9456
復問言	-10.9456
殖	-10.9457
鬪訟	-10.9458
輸屢那	-10.9458
化作五百	-10.9459
來至佛所	-10.9462
國中人民	-10.9464
早起	-10.9464
低頭	-10.9465
比丘觀身如身	-10.9466
如有知	-10.9469
晝度樹	-10.9474
無有猶豫	-10.9475
便生此念	-10.9475
增進	-10.9479
豐樂	-10.9486
作是觀	-10.9498
堂上	-10.9499
具足清淨	-10.9505
如斯之	-10.951
消盡	-10.9516
亦復然	-10.9521
禮佛足已	-10.9524
獄中	-10.953
滿中	-10.9536
千六百	-10.9538
在一處	-10.9543
大龍	-10.9552
可行	-10.9557
。』『	-10.9559
四海	-10.9559
三痛	-10.9563
增其	-10.9564
身行善	-10.957
四天王天	-10.9571
散華	-10.9575
緣斯	-10.9581
閻浮提人	-10.9583
是謂第二	-10.9587
事業	-10.9591
不知不見	-10.9601
座上	-10.961
㮈林	-10.9613
起瞋恚	-10.9621
我本所	-10.9622
滅訖	-10.9627
沙門瞿曇所說	-10.9632
於法得	-10.9633
流水	-10.9644
毘婆尸如來	-10.9653
謂八聖道	-10.9659
叢	-10.9659
馬王	-10.9688
諸年少	-10.9688
一面坐	-10.9694
竟亦	-10.9696
持衣鉢	-10.9699
說斯偈	-10.971
三結	-10.9713
育	-10.9714
賀	-10.9724
參	-10.9727
憹	-10.9728
矛	-10.9728
周匝圍繞	-10.9731
樓閣	-10.9733
搥	-10.9733
怛	-10.9733
乾闥婆	-10.9733
翫	-10.9733
綖	-10.9734
一坐食	-10.9734
牟	-10.9735
金銀珍寶	-10.9735
罵辱	-10.9735
繼	-10.9735
極大富樂	-10.9736
倦	-10.9737
擯	-10.9738
殊特	-10.9739
清徹	-10.9739
墮三惡趣	-10.9739
得甘露味	-10.974
津	-10.974
算數	-10.9741
鞞陀提	-10.9742
鑊	-10.9742
加赦國王梵摩達哆	-10.9743
拍	-10.9743
粟	-10.9743
脊	-10.9744
頻毘娑羅王	-10.9744
指鬘	-10.9745
修無上梵行	-10.9746
祭祀	-10.9746
澆	-10.9746
欣悅	-10.9746
爾許	-10.9746
阿羅呵	-10.9746
梵世	-10.9747
踊躍歡喜	-10.9749
呪術	-10.9751
贖命	-10.9752
道諦	-10.9752
復有叢樹名	-10.9752
拔絕	-10.9753
生不善念	-10.9753
說微妙法	-10.9754
蓮花	-10.9755
別譯	-10.9755
洗鉢	-10.9756
優陀耶	-10.9757
疲極	-10.976
在閑靜之處	-10.976
尊者大迦葉	-10.9762
長夜安樂	-10.9762
依此林住	-10.9762
色受陰	-10.9763
離愛	-10.9763
以他心智	-10.9764
覆藏	-10.9765
口業	-10.9768
大仙	-10.9768
無數方便	-10.977
所從來	-10.9773
五穀	-10.9773
作嬈亂	-10.9777
日一食	-10.978
摩納磨	-10.9781
月十五日	-10.9792
退減	-10.9795
繫心	-10.9796
可貴	-10.9797
還于	-10.9806
眼滅	-10.9809
住王舍城	-10.9811
生盲	-10.9818
有兩	-10.9821
發往	-10.9823
我等今日	-10.9824
應奉事	-10.9825
種種葉	-10.9834
世尊而說	-10.9836
諸尼揵	-10.9838
生人中	-10.984
自思念	-10.984
唯有一	-10.9857
梵摩達王	-10.9861
說此語	-10.9865
求利	-10.9872
無色愛	-10.9876
諸惡業	-10.988
二分	-10.9881
五日	-10.9892
我心中	-10.9895
▁9	-10.9897
已知我心	-10.99
大目連	-10.991
好喜	-10.9915
便作是說	-10.9915
若族姓子	-10.9918
提婆	-10.9925
靡	-10.9927
以刀	-10.9929
有疑惑	-10.9933
聽我說	-10.9936
懷愁憂	-10.9938
執杖	-10.9941
比丘所行	-10.9947
若善男子	-10.9948
縛著	-10.9961
共居	-10.9966
明智	-10.9975
信解脫	-10.9976
如實法	-10.9977
自娛樂	-10.9994
畏怖	-10.9998
有種種樹	-10.9999
商	-11.0012
煑	-11.0014
如是一切善法	-11.0017
以七寶作	-11.002
列	-11.0021
脣	-11.0021
七重壁	-11.0023
叫	-11.0027
彌醯	-11.0027
織	-11.0027
以欲為本	-11.0028
以是緣故	-11.003
分衛	-11.003
飽	-11.0031
補	-11.0031
糞掃衣	-11.0031
錯	-11.0035
騎乘	-11.0035
詳	-11.0036
夜摩天	-11.0037
役	-11.0037
無有厭足	-11.0037
若不爾者	-11.0037
主兵臣寶	-11.0038
按	-11.0038
睒	-11.0039
起偷婆	-11.0039
淳陀	-11.004
絃	-11.0041
弘	-11.0041
婆伽婆	-11.0041
憐愍	-11.0041
統領	-11.0041
策	-11.0042
諸末羅	-11.0043
八正道	-11.0044
以信堅固	-11.0044
溺	-11.0045
命即是身	-11.0046
佛在王舍城迦蘭陀竹林	-11.0046
庶	-11.0047
其身光明遍照	-11.0047
髏	-11.0048
秋	-11.0048
快得善利	-11.0049
威儀禮節	-11.0049
當修行一法	-11.005
恐畏	-11.005
雹	-11.005
長生太子	-11.0051
上中下	-11.0051
詣向	-11.0051
嬉戲	-11.0052
各各和鳴	-11.0052
非有邊非無邊	-11.0053
名曰善	-11.0053
饒財多寶	-11.0054
親近善知識	-11.0054
世間有常	-11.0054
得十種功德	-11.0055
悔恨	-11.0055
入晝正受	-11.0057
尼揵子	-11.0059
顧視	-11.0062
無覺無觀	-11.0062
空閑處	-11.0064
其土	-11.0065
得力得	-11.0066
無後死	-11.0069
從是致	-11.0071
以天眼	-11.0072
有義有	-11.0072
駛流	-11.0078
劍樹	-11.008
出種種香	-11.0085
集講堂	-11.0086
變異	-11.0088
百阿那含	-11.0089
現神足	-11.009
散壞	-11.0092
光明照	-11.0093
口惡行	-11.0093
皆悉無常	-11.0094
熏修	-11.0094
教誨	-11.0104
終身行	-11.0105
百正見人	-11.0106
不苦不樂覺	-11.0106
經典	-11.0109
汝頗	-11.0127
諸離車	-11.0129
王有子	-11.014
具戒	-11.0146
象舍利弗	-11.0153
遣使	-11.0158
所生處	-11.0159
至再三	-11.0161
何等為七	-11.0167
二字	-11.0169
得無為	-11.0178
樹下坐	-11.0182
詣尊者阿難所	-11.0204
有王名	-11.0215
賢劫	-11.0215
諸大眾	-11.0216
諸比丘僧	-11.0222
斷生死	-11.0226
尊貴	-11.0227
惡慧	-11.023
能降伏	-11.0231
無數劫	-11.0232
頭上	-11.0239
學力	-11.0245
天文	-11.0248
車馬	-11.0255
八支聖道	-11.0256
得生天	-11.0263
云何為七	-11.0264
一毛	-11.0275
黑白	-11.0289
不惑	-11.029
山頂	-11.0298
毘舍離城	-11.0307
往到	-11.0315
葉華實	-11.033
國中有	-11.033
晡時	-11.0333
此即是	-11.0335
秦	-11.0336
他心智	-11.0338
佐	-11.0338
麻油	-11.034
彼知此	-11.0345
從受復受	-11.0346
槨	-11.0346
犢	-11.0347
腐敗	-11.0348
米穀	-11.0348
i	-11.0349
手自斟酌	-11.0349
人非人身	-11.0351
是謂第一	-11.0351
如餘沙門	-11.0353
淺	-11.0353
儉	-11.0353
俱致年	-11.0354
五百乘車	-11.0354
我等寧可	-11.0354
遷	-11.0355
朋	-11.0355
差摩比丘	-11.0355
八萬四千由旬	-11.0357
雷電	-11.0357
寡	-11.0357
財貨	-11.0357
羹	-11.0358
我從今日	-11.0358
謝	-11.0359
仰臥	-11.0359
駿	-11.036
高百由旬	-11.0361
迦蘭陀竹園	-11.0361
成大果報	-11.0361
宗親	-11.0361
明行足	-11.0361
汗	-11.0362
擇法覺分	-11.0363
遍照	-11.0363
敷演	-11.0363
稟	-11.0364
長夜輪轉	-11.0364
耨	-11.0364
良福田	-11.0364
摩竭提國	-11.0366
隱覆	-11.0366
支提	-11.0366
沙門瞿曇弟子	-11.0367
六千由旬	-11.0368
內無色想	-11.0368
和順	-11.0368
族姓女	-11.0369
何所見我	-11.0369
我於今者	-11.0371
識受陰	-11.0371
得修梵行	-11.0372
幻化	-11.0372
修諸善法	-11.0372
應如是答	-11.0373
僧伽羅摩	-11.0373
次第而	-11.0375
穌息	-11.0375
捷疾具足	-11.0377
悅澤	-11.0378
拘娑羅國王長壽	-11.0379
萬物	-11.0382
若無常者	-11.0382
邪志	-11.0386
不異我	-11.0387
宜速	-11.0388
樹神	-11.0393
可憙	-11.0394
舉手	-11.0395
而行乞食	-11.0396
神德	-11.0397
彼天神	-11.0403
兩足	-11.041
香花	-11.0421
諸鬼神	-11.0427
相連	-11.0432
成無上	-11.0435
閻浮地	-11.0436
伽陀	-11.0439
諸上座比丘	-11.0442
諸仙	-11.0449
入地獄中	-11.0453
老母	-11.0456
不習近	-11.0456
是謂比丘成就	-11.0463
羅陀比丘	-11.0466
唯願世尊聽	-11.0467
諸力士	-11.047
地神	-11.0476
難解	-11.0477
得無漏	-11.0477
千三百	-11.0489
身善行	-11.0504
大聲聞	-11.0505
在王舍城	-11.0511
以此義	-11.0536
五百由旬	-11.0537
苾芻尼	-11.0539
佛告長者	-11.0543
妙好	-11.0543
入于	-11.0564
種種供養	-11.057
乾陀	-11.0582
勤方便	-11.0584
及後世	-11.0593
輪轉	-11.0596
生死智	-11.0597
訶責	-11.0597
自往	-11.0603
宮門	-11.0618
此五法	-11.0622
入涅槃	-11.0639
藏臣	-11.0639
慙	-11.0643
毘婆尸	-11.065
備具	-11.0651
自安	-11.066
街巷	-11.0661
夫婿	-11.0661
舞	-11.0664
寬	-11.0664
乃至無數眾鳥相和而鳴	-11.0666
拘那含	-11.0668
世尊說此頌	-11.067
巷	-11.0671
波羅奈	-11.0672
揩	-11.0672
抄	-11.0672
摩竭提	-11.0672
促	-11.0672
幸	-11.0673
不傾動	-11.0673
野干	-11.0674
晚	-11.0674
四部兵	-11.0675
和雅	-11.0675
形貌	-11.0675
便捨而去	-11.0675
塔寺	-11.0676
〔	-11.0676
汝當為諸年少比丘說	-11.0676
捫	-11.0676
羞恥	-11.0676
醫藥	-11.0677
犬	-11.0677
靜默	-11.0677
四萬二千由旬	-11.0677
項	-11.0679
防護	-11.0679
誹謗賢聖	-11.0681
毛竪	-11.0682
孤獨	-11.0682
默然不答	-11.0682
瓦石	-11.0683
暉	-11.0684
彈指	-11.0684
固	-11.0684
焰摩迦	-11.0685
復教他人使	-11.0685
所生之處	-11.0685
當廣布一法	-11.0686
不知苦之本際	-11.0686
裸形	-11.0687
拘牢婆王	-11.0688
此識身及外境界一切相	-11.0688
何所有故	-11.0688
露地經行	-11.0689
首陀	-11.0689
良醫	-11.069
香美	-11.0691
有邊無邊	-11.0692
身身觀念住	-11.0693
入王舍城乞食	-11.0694
一向記	-11.0695
恒伽	-11.0696
顯現梵行	-11.0696
莊嚴其身	-11.0696
輕賤	-11.0697
皆大歡喜	-11.0701
貪欲蓋	-11.0701
恕	-11.0704
修多羅	-11.0705
法法相	-11.0705
禍	-11.0705
如之何	-11.0706
堅實	-11.0708
四王天	-11.071
形像	-11.0711
染著心	-11.072
有勝如	-11.0725
不得久住	-11.0728
兇惡	-11.0729
老死滅	-11.0733
象力	-11.0733
卷上	-11.0738
劫數	-11.0738
曇摩	-11.0741
黃色	-11.0744
正理	-11.0744
停住	-11.0751
邪方便	-11.0751
白銀	-11.0755
放捨	-11.0759
哀愍故	-11.0769
行身惡行	-11.0771
倍復	-11.0772
依遠離	-11.0779
何等為八	-11.0779
餘罪	-11.0781
美色	-11.0783
六百由旬	-11.0785
富樂	-11.0787
不語結	-11.0788
更無餘	-11.0795
成劫	-11.0797
持禁戒	-11.0798
一向樂	-11.0801
如是展轉	-11.0807
繩床	-11.0813
世尊默然受請	-11.082
尸婆	-11.0831
專一	-11.0831
婆羅婆	-11.0855
所住處	-11.0867
村中	-11.0869
梵摩達	-11.0881
於中起	-11.0893
受我請	-11.0896
是央掘魔	-11.0897
此閻浮提	-11.0898
城外	-11.094
在人間	-11.0943
婆蹉	-11.0946
四字	-11.0947
恒河	-11.095
聞此語	-11.0954
駕乘	-11.0961
敬待	-11.0963
兜率	-11.0964
三摩地	-11.0965
行禪者	-11.098
若比丘眾	-11.0986
繁茂	-11.0988
輔相	-11.0992
政	-11.0993
自有財物	-11.0994
燋爛	-11.0994
恐懼	-11.0995
能捨惡	-11.0995
山巖	-11.0997
紫	-11.0997
炷	-11.0998
三千大千世界	-11.1
輙	-11.1001
綵	-11.1002
啼	-11.1002
那提迦	-11.1003
婆悉吒	-11.1004
瑟	-11.1005
▁1(	-11.1005
▁10	-11.1006
彌薩羅	-11.1007
〕-【	-11.1009
辨	-11.101
藕根	-11.101
涉	-11.101
浣	-11.1011
如律業	-11.1011
明旦	-11.1011
陶	-11.1011
斗	-11.1012
比丘起發牛角娑羅林	-11.1013
選擇	-11.1013
甘美	-11.1014
剃頭	-11.1014
瓜	-11.1015
優鉢羅花	-11.1015
陂	-11.1015
如其像定	-11.1016
斷疑度惑	-11.1017
諸智梵行者	-11.1018
身體輕便	-11.1018
他家	-11.1019
諸根寂靜	-11.1019
阿梨吒	-11.102
流注	-11.102
無上正真	-11.102
菴羅園	-11.102
消化	-11.102
就座	-11.1021
豪族	-11.1021
利劍	-11.1021
五十由旬	-11.1022
軀	-11.1022
外觀色	-11.1023
古昔	-11.1023
汝所修行	-11.1023
不可恃怙	-11.1023
鞞舍	-11.1023
不見一法	-11.1024
好醜	-11.1025
響	-11.1029
法法觀念住	-11.103
所以族姓子	-11.103
亦知彼天如是	-11.103
未生善法	-11.103
尼乾子	-11.1032
岸邊	-11.1032
且置	-11.1032
黑雲	-11.1032
現法樂居	-11.1033
阿濕貝	-11.1034
周匝無量	-11.1037
給使	-11.1039
難詰	-11.1042
夫婦	-11.1043
不作惡業	-11.1043
佛告摩訶男	-11.1044
卷下	-11.1045
愍念	-11.1048
勤精進	-11.1049
修習滿足	-11.1049
低舍	-11.1049
寂無音	-11.1049
作師子吼	-11.1051
苦哉	-11.1052
漸損	-11.1053
南方去此過	-11.1056
緣觸	-11.1056
窟中	-11.1057
納受	-11.1057
不可量	-11.106
是謂第五	-11.1066
能了知	-11.1069
專念	-11.1072
分散	-11.1074
得大利	-11.1076
彼愚癡人	-11.1077
佛法僧	-11.1078
並皆	-11.1079
淨居	-11.1079
昔所	-11.1086
是謂第四	-11.1087
通利	-11.1092
至究竟	-11.11
身妙行	-11.1101
千光明	-11.1111
舉聲	-11.1111
田作	-11.1113
護世	-11.1115
承受	-11.1119
比丘尼成就	-11.1134
須彌	-11.1139
少壯	-11.1149
昨日	-11.116
下車	-11.1163
舍羅	-11.1163
斯事	-11.1166
餘沙門	-11.1179
五支	-11.1179
諸漏盡	-11.1182
上虛空中	-11.1193
說是語	-11.1205
畏懼	-11.1213
七千	-11.1222
意所念	-11.1232
告苾芻眾	-11.1233
清淨梵行	-11.1273
八日	-11.1294
池側	-11.1295
災變	-11.1302
觸集	-11.1306
老病死	-11.132
哥	-11.1323
欝多囉究留人輩	-11.1329
板	-11.1332
隨所欲	-11.1333
摩訶卑耶和題俱曇彌	-11.1338
刈	-11.1339
研	-11.134
狹	-11.1342
宛轉	-11.1342
八千里	-11.1344
洞	-11.1345
玄	-11.1345
受人信施	-11.1346
樹葉	-11.1346
為弟子說法	-11.1347
糠	-11.1347
縷	-11.1347
獻	-11.1347
頻婆娑羅王	-11.1348
祿	-11.1348
有三事勝	-11.1349
麗	-11.135
基	-11.1351
旃	-11.1351
廟	-11.1353
裏	-11.1354
寢	-11.1354
若為諸年少比丘說教此	-11.1354
坌	-11.1354
三藐三佛陀	-11.1354
俱盧奢	-11.1354
合掌向佛	-11.1355
步兵	-11.1355
羽	-11.1355
突	-11.1355
高樓上	-11.1356
大風起	-11.1356
所依住	-11.1356
匿	-11.1356
憍尸迦	-11.1356
覓	-11.1357
縫	-11.1357
姑	-11.1357
菴婆羅	-11.1357
剃髮	-11.1357
憐念	-11.1357
我本為汝說	-11.1357
鏁	-11.1358
間錯	-11.1358
十號具足	-11.1358
生死長遠	-11.1358
熱鐵丸	-11.1358
卑賤	-11.1358
布薩	-11.1359
毗婆尸	-11.1359
帶	-11.1359
墮地	-11.1361
從燕坐起	-11.1361
閻浮車問舍利弗	-11.1361
憂悲苦惱	-11.1362
禿	-11.1362
隨使死	-11.1362
摩訶迦旃延	-11.1363
聾	-11.1363
隷	-11.1363
如上三經	-11.1363
誤	-11.1363
佛住波羅㮈國仙人住處鹿野苑中	-11.1364
在一面住	-11.1364
萎	-11.1364
有憂慼邪行	-11.1365
愍傷世間	-11.1366
捨覺支	-11.1366
其最後王	-11.1367
亦二岐道	-11.1369
葢	-11.1371
憍陳如	-11.1372
奈何	-11.1373
愚癡凡夫	-11.1373
總持	-11.1373
來詣我所	-11.1374
鍮蘆吒	-11.1375
宮殿住處	-11.1376
後誦	-11.1376
正謂此	-11.1377
相應念想	-11.1379
斯惒提	-11.138
入三摩地	-11.1381
消息	-11.1382
則法不衰	-11.1383
尊者烏陀夷	-11.1384
無濁	-11.1385
憎愛	-11.1389
徒眾	-11.1391
可厭患	-11.1395
三菩提	-11.1399
離越	-11.1403
夏坐	-11.1405
慈悲心	-11.1407
聖慧	-11.141
離生喜樂	-11.1412
為彼說法	-11.1414
叢林	-11.1417
修諸梵行	-11.1421
入定意	-11.1423
於世尊所	-11.1427
忉利天上	-11.1431
入第四禪	-11.1439
三明婆羅門	-11.1442
謂八支聖道	-11.1453
二邊	-11.1455
竹園	-11.1463
此五盛陰	-11.1464
如法說	-11.1468
釋子	-11.1473
移動	-11.1503
其處縱廣	-11.1505
妙音	-11.1514
五通	-11.1516
心自念	-11.1523
能制	-11.1527
諸阿須倫	-11.1528
宜可	-11.1539
邪智	-11.1551
悅樂	-11.1555
當善受持	-11.1556
聞佛說	-11.1584
世世	-11.16
提舍	-11.1604
十二種	-11.1605
有異道人	-11.1606
此非我	-11.1621
過去諸佛	-11.1625
火災	-11.1636
十七字	-11.167
四姓	-11.1674
琉璃及水精	-11.1676
陽	-11.1686
勅左右	-11.1696
賞	-11.1698
銜	-11.1699
猶如王及大臣有	-11.1699
茂	-11.1701
絡	-11.1702
鷲	-11.1703
馭	-11.1704
瞎	-11.1704
默然不對	-11.1704
浮彌	-11.1704
摩伽陀國	-11.1705
塔廟	-11.1705
姿	-11.1705
機	-11.1705
屈伸	-11.1706
栴檀香	-11.1706
所記	-11.1707
向法次法	-11.1708
煩惱隨增	-11.1708
來生人間	-11.1708
梵身天	-11.1709
中夭	-11.1709
作倡伎樂	-11.1709
辛	-11.1709
隨使使	-11.1709
菓	-11.171
八十種好	-11.171
諸婇女	-11.1711
迫	-11.1711
婬怒癡	-11.1711
貞	-11.1712
勇健	-11.1712
訓誨	-11.1713
鐵圍山	-11.1714
無有空缺	-11.1714
四意斷	-11.1714
飄	-11.1715
顏貌端政	-11.1715
劒	-11.1715
諸善普至	-11.1715
食噉含消	-11.1717
集在一處	-11.1717
戲笑	-11.1718
垂珞	-11.1718
瞿陀尼洲	-11.1718
儻	-11.1718
割截	-11.1718
壽命極長	-11.1719
脈	-11.172
𤛓	-11.172
香潔	-11.172
受持學戒	-11.172
先祖	-11.1721
心生歡喜	-11.1721
我慢繫著使	-11.1722
皆是阿羅漢	-11.1723
招	-11.1723
若諸梵行來問	-11.1723
北首	-11.1724
賴吒和羅言	-11.1724
強耆	-11.1725
鐵丸	-11.1725
屠牛	-11.1725
煩熱	-11.1726
復有一種沙門婆羅門	-11.1727
廣長舌	-11.1727
熟視	-11.173
賓頭盧	-11.173
瞿曇彌大愛	-11.173
露坐	-11.173
毒痛	-11.1731
講論	-11.1732
北方去此過	-11.1732
弗那婆修	-11.1736
卵生龍	-11.1738
麤細	-11.1738
貪嗜	-11.1742
仙餘財主	-11.1745
成正覺	-11.175
中阿含	-11.175
衰老	-11.1754
頭髮	-11.1754
死亡	-11.1754
十一字	-11.1755
佛告犢子	-11.1755
作如是論	-11.1762
有大智慧	-11.1769
石山	-11.177
妄想	-11.1771
斷三結	-11.1774
之頃	-11.1779
願未來	-11.1784
毛髮	-11.1785
離垢	-11.1792
十九字	-11.1808
五日出	-11.1818
諍事	-11.1818
識陰	-11.1822
說是偈	-11.1825
句義	-11.1837
於彼命終	-11.1845
破戒	-11.1848
作此說	-11.1853
身行惡	-11.1867
奉侍	-11.1868
惱亂	-11.1906
共戰	-11.1928
有是法	-11.193
修善行	-11.1955
上首	-11.1958
相習近	-11.2017
手捉	-11.2033
蹬	-11.2041
現在世	-11.2042
得免	-11.2045
不廢	-11.2049
過惡未解故不死	-11.2055
諮	-11.2057
能伏	-11.2059
園觀浴池	-11.206
臼	-11.206
漢	-11.2062
末羅	-11.2066
悲號	-11.2068
煎	-11.2069
瞿陀尼	-11.2071
柱栿	-11.2071
汝從何來	-11.2071
恤	-11.2071
駈	-11.2073
見是相已	-11.2074
波頭摩	-11.2074
塹	-11.2076
足蹈	-11.2076
毗舍佉優婆夷	-11.2077
均	-11.2077
本為人	-11.2078
長吏	-11.2078
楞	-11.2078
貨	-11.2079
掩	-11.2079
奔茶梨迦	-11.2079
舌知味	-11.2079
摩訶拘絺羅	-11.2079
轉向苦邊	-11.208
衢	-11.208
穴	-11.2081
善受善持	-11.2081
兜術天	-11.2081
遵	-11.2082
摧	-11.2082
入滅盡定	-11.2082
紹	-11.2082
究羅檀頭	-11.2083
剛	-11.2083
鬘童子	-11.2084
乃至車𤦲馬瑙等寶	-11.2084
却敵	-11.2084
露遮	-11.2084
日天宮殿	-11.2085
三耶三佛	-11.2086
升	-11.2086
城三匝	-11.2086
洪	-11.2086
東西南北	-11.2087
官屬	-11.2088
饍	-11.2088
皆悉知之	-11.2088
綿	-11.2088
捨戒罷道	-11.2089
肉段	-11.2089
起居輕利	-11.209
完具	-11.209
自娛	-11.209
開悟	-11.209
念覺支	-11.2091
願樂欲聞	-11.2092
牧牛人	-11.2092
往詣長者家	-11.2093
長幼	-11.2093
七日七夜	-11.2094
若在家者	-11.2094
賢聖八品道	-11.2094
定覺分	-11.2096
香湯	-11.2097
誠實	-11.2098
度脫	-11.2101
獲沙門果	-11.2101
拘隣	-11.2101
良田	-11.2103
散亂	-11.2104
西面	-11.2106
南面	-11.2108
過中食	-11.2108
晝日	-11.2109
多有人民	-11.2109
屏處	-11.211
百六十	-11.211
臣佐	-11.2112
穢濁	-11.2112
聖體	-11.2113
得善利	-11.2113
無量惡不善之法	-11.2114
去未久	-11.2115
雜華	-11.2115
梵志陀然	-11.2119
梵童子	-11.212
明燈	-11.2121
活命	-11.2126
名之為	-11.213
者之所行	-11.2133
見色是我	-11.2139
人中尊	-11.2139
恒沙	-11.2142
彼比丘應如是	-11.2147
而行布施	-11.2147
其有眾生	-11.2148
女人不得	-11.2157
雙樹	-11.2159
若眼見色	-11.2165
聖諦	-11.217
命終生天	-11.2203
金棺	-11.2205
善法轉增	-11.2225
憂畏	-11.2226
阿育王	-11.2247
更有餘	-11.2253
四大天王	-11.2303
持齋	-11.2319
名號	-11.2331
向須陀洹	-11.2337
北面	-11.2337
堪能離	-11.2356
歸比丘僧	-11.2359
纏縛	-11.237
深妙	-11.2374
安那般那念	-11.2392
現於世間	-11.2401
夭	-11.2424
堪受	-11.2424
淨信心	-11.2427
彼最後王	-11.2437
嬈亂	-11.244
癩	-11.2442
清泉	-11.2444
百踰闍那	-11.245
號咷	-11.2451
儲	-11.2451
刑	-11.2451
階	-11.2452
胞	-11.2452
喚呼	-11.2454
粮	-11.2454
珂	-11.2454
彈	-11.2455
致比丘訶數詰責	-11.2456
撾	-11.2456
糧	-11.2456
讓	-11.2457
販	-11.2457
俱耶尼	-11.2458
百由延	-11.2459
惹	-11.2459
忠	-11.246
附	-11.246
梵迦夷天	-11.2461
寒氷地獄	-11.2461
惋	-11.2461
孝順	-11.2461
怯弱	-11.2462
盜竊	-11.2464
諂曲	-11.2464
額	-11.2465
非有想非無想	-11.2465
惓	-11.2465
陋	-11.2466
伸	-11.2466
囑累	-11.2466
侍衛	-11.2466
罽	-11.2467
有想無想	-11.2467
0)	-11.2467
世間眼滅	-11.2468
千輻	-11.2468
眼知色	-11.2468
涕泣	-11.2469
嘗	-11.2469
繞佛三匝	-11.247
祇洹精舍	-11.247
棄捐	-11.247
騾	-11.2471
迦毘羅越	-11.2471
為作留難	-11.2472
從東方來	-11.2472
芭	-11.2473
乃至眾鳥	-11.2474
整御天下	-11.2474
酥油	-11.2474
佛在羅閱城迦蘭陀竹園所	-11.2475
疾病困篤	-11.2475
我今自歸於	-11.2475
僕從	-11.2475
內懷憂慼	-11.2476
凡夫之人	-11.2477
在一樹下	-11.2477
正念正知	-11.2477
精進覺分	-11.2477
願無願	-11.2478
莫作是觀	-11.2478
耆婆伽	-11.2478
耆年	-11.2479
身猗息	-11.2479
有大神力	-11.2479
重生令增廣	-11.2479
佛遊王舍城	-11.2479
此世彼世	-11.248
鎖	-11.248
所謂論者	-11.248
末劫末見	-11.2482
攝衣持鉢	-11.2483
失定而滅	-11.2484
妓樂	-11.2485
二三四五六七	-11.2486
諸天天道	-11.2487
塵土	-11.2488
次第乞食	-11.2491
金毘羅	-11.2491
白蓮華	-11.2491
赤馬	-11.2492
如是受苦樂	-11.2492
聖賢	-11.2493
惒破	-11.2496
即自念	-11.2496
若此眾生成就身	-11.2497
陀驃摩羅子	-11.2498
向於捨	-11.25
清淨無穢	-11.2501
有一大樹	-11.2503
諸眾生等	-11.2505
相累	-11.2505
尊師阿蘭那為弟子說法	-11.2506
奉敬	-11.2507
▁6	-11.2508
自他作	-11.2511
勝負	-11.2516
唯願大王	-11.2531
」「	-11.2537
對治	-11.2541
臣民	-11.2551
還活	-11.2553
華實	-11.2554
出舍衛城	-11.2557
成阿那含	-11.2563
入胎	-11.257
諸外道出家	-11.2597
自歸命	-11.2608
攝諸根	-11.2656
已樂中	-11.2666
猛熱	-11.2667
世有常	-11.2679
離不與取	-11.2682
入大海	-11.2728
十二由旬	-11.2731
何由而	-11.2753
希	-11.2797
▁7	-11.2806
兇	-11.281
食噉	-11.2815
剌	-11.2835
能堪任	-11.2837
閻羅	-11.284
三十六萬里	-11.2843
善住象王	-11.2844
三摩耶	-11.2847
酸	-11.2849
大女人瞿曇彌	-11.285
賈	-11.2853
鋒	-11.2855
卷第五十	-11.2857
吞	-11.2858
獼猴池側重閣講堂	-11.2858
此五事	-11.2858
廣長各	-11.2859
般遮翼	-11.2859
有禪三昧	-11.2859
弄	-11.286
西天譯經三藏朝奉大夫試	-11.286
酷	-11.286
脅	-11.2861
暢	-11.2861
純大苦聚	-11.2861
▁14	-11.2861
溪	-11.2861
片	-11.2863
孫陀利	-11.2863
兇暴	-11.2864
逮得己利	-11.2865
嘆	-11.2865
如是純大苦聚滅	-11.2865
毘舍佉	-11.2865
竺	-11.2867
苦出要諦	-11.2867
尊者三彌提	-11.2867
燭	-11.2867
阿鼻地獄	-11.2867
夏安居	-11.2868
蹋	-11.2868
慘	-11.2869
阿那毘羅大風	-11.287
越祇	-11.287
茂盛	-11.287
脹	-11.287
周利槃特	-11.2871
洹	-11.2871
編	-11.2871
塜間	-11.2872
右旋	-11.2873
於肩上	-11.2873
晉	-11.2873
閣	-11.2873
賴吒惒羅居士子	-11.2874
等正覺所知所見	-11.2875
化作年少	-11.2875
把	-11.2876
芥子	-11.2876
借	-11.2876
恭敬圍繞	-11.2877
仙尼	-11.2878
惡友	-11.2878
親厚	-11.2878
流淚	-11.2878
擾亂	-11.2878
有大名稱	-11.2879
摧伏	-11.2879
竹林加蘭哆園	-11.2879
僧迦摩	-11.288
而自遊戲	-11.2881
增上慧學	-11.2881
貧乏	-11.2882
刀分	-11.2882
耳聞聲	-11.2883
尊者金毘羅	-11.2884
餘者虛妄	-11.2885
今得此身	-11.2885
續受斯	-11.2886
步軍	-11.2887
兜羅	-11.2888
尊者阿難及諸比丘	-11.2888
法法成就	-11.2889
俱熾	-11.2889
度一切色想	-11.2893
姓字	-11.2893
須達多	-11.2893
集坐講堂	-11.2893
初始	-11.2894
百須陀洹	-11.2894
誹謗聖人	-11.2895
燈明	-11.2895
諮問	-11.2897
與白衣共	-11.29
以天眼觀	-11.2901
𠻬帝比丘	-11.2901
入第二禪	-11.2902
城壁	-11.2905
欣樂	-11.2907
尊者尸婆羅	-11.2914
往詣世尊所	-11.2914
度世解脫	-11.2918
高座	-11.292
便自覺知	-11.2923
喜覺分	-11.2925
光音	-11.2933
恩愛別離	-11.2938
云何為八	-11.2939
自觀身	-11.295
八支	-11.2951
地平正	-11.2952
莫怖	-11.2952
血流	-11.2979
瞋恚蓋	-11.2979
以尼師檀著	-11.3012
鐵城	-11.3041
怨結	-11.306
大目犍連所見	-11.3061
十五字	-11.3065
欲有所說	-11.3084
千踰闍那	-11.3088
未曾聞	-11.3099
千倍	-11.3104
族姓男	-11.311
最為勝	-11.3129
果實天	-11.3145
自貢高	-11.3153
頗更有	-11.316
二龍王	-11.3184
優鉢羅華	-11.3209
欝單越	-11.3231
集一處	-11.3245
樹提迦	-11.325
摩牢	-11.3254
不放逸為其根本	-11.3256
主兵寶	-11.3258
拘尸城	-11.3263
梁	-11.3266
搖	-11.3266
扼	-11.3266
撓	-11.3267
養育	-11.3269
明月珠	-11.3269
塼	-11.3269
伊沙陀羅	-11.327
所有穢污	-11.3271
五髻乾闥婆王子	-11.3273
婁	-11.3274
賈客	-11.3274
貝	-11.3274
豐熟	-11.3274
躁	-11.3274
砌	-11.3274
囊	-11.3275
棄家學道	-11.3275
努	-11.3275
井	-11.3275
苦痛辛酸	-11.3277
從何而生	-11.3277
羸瘦	-11.3278
善法轉減	-11.3278
八見中	-11.3278
搔揵提迦	-11.3278
尸利沙	-11.3279
典尊	-11.3279
埋	-11.328
澁	-11.328
縣官	-11.328
牛角娑羅林	-11.3281
過去未來現在	-11.3281
曠	-11.3282
衰耗	-11.3282
經無量時	-11.3282
我等應共	-11.3283
彷	-11.3283
忽然不現	-11.3284
紐	-11.3284
單	-11.3284
摩呵男	-11.3285
尸棄佛	-11.3285
閡	-11.3286
結所繫	-11.3286
巢	-11.3287
調伏欲貪	-11.3287
見法得法	-11.3287
閉塞	-11.3287
容貌	-11.3288
正見乃至正定為八	-11.3288
復以偈報	-11.3288
懺	-11.3288
精勤舉心	-11.3289
初一日誦	-11.3289
卒暴	-11.3289
沈沒	-11.329
佛告婆蹉	-11.329
此眾生類	-11.329
貧賤	-11.329
須彌留山王	-11.329
屈伸臂頃	-11.3291
說微妙之法	-11.3291
汝等頗見	-11.3291
欝鞞羅	-11.3291
香塗身	-11.3291
容貌端正	-11.3291
無有病痛	-11.3292
於其晨朝	-11.3293
眾多比丘集於食堂	-11.3293
出家為道	-11.3293
勉	-11.3293
百倍	-11.3294
嫌責	-11.3294
非義饒益	-11.3294
適悅	-11.3294
修增上慈	-11.3294
有大威力	-11.3294
超術梵志	-11.3295
年歲	-11.3295
愚夫	-11.3295
受持五戒	-11.3296
即自莊嚴	-11.3296
人壽八萬歲時	-11.3297
諸法法眼生	-11.3298
清淨無瑕穢	-11.3299
行苦行者	-11.3299
年耆	-11.33
脂粉	-11.33
七有天人往	-11.33
思議	-11.33
六識身	-11.33
乾竭	-11.33
我為多行	-11.3301
共相問訊慰勞	-11.3301
合掌恭敬	-11.3301
經第四竟	-11.3301
天冠	-11.3302
更不復受胎	-11.3304
陰蓋	-11.3306
得阿耨多羅三藐三菩提	-11.3306
朽壞	-11.3307
我盡恭敬	-11.3307
然我今日	-11.3308
變易之法	-11.3309
已生善法	-11.331
向斯陀含	-11.331
其異道人	-11.3311
耶若達	-11.3311
修念覺分	-11.3316
了達	-11.3316
降雨	-11.3316
穢污心命終	-11.3317
謂聖所說	-11.3317
正念正智而身覺樂	-11.3317
向阿那含	-11.3319
博聞誦習	-11.332
受法現樂	-11.332
觸而生	-11.3322
譬如士夫	-11.3322
佛在王舍城	-11.3326
工師種	-11.3326
在如來前	-11.3329
教訓	-11.333
尊者優陀夷	-11.3335
供養禮事	-11.3335
齋日	-11.3338
出入息	-11.3342
廣說如上	-11.3389
魔軍	-11.3397
觸因緣生受	-11.3409
2)	-11.3424
有山名	-11.3434
人所敬	-11.344
寂定	-11.3456
不近食	-11.3492
善受持誦	-11.3501
與大比丘	-11.3521
水沫	-11.3549
退失	-11.3571
左手	-11.3589
猶尚	-11.3595
「『	-11.3599
是偈已	-11.3622
。」』」	-11.3644
象跡	-11.3669
麁惡	-11.3686
一伏婬	-11.3689
蓮	-11.3691
埀	-11.3691
哩	-11.3692
彼亦得滅	-11.3693
久受苦	-11.3696
憒	-11.3699
墻	-11.3701
高廣正等	-11.3701
狎	-11.3706
猥	-11.3707
生畜生中	-11.3707
逝心理家	-11.3707
梟	-11.3708
逼切	-11.3708
此是無記	-11.3709
耐	-11.3711
知止足	-11.3711
齊限	-11.3712
祖	-11.3712
隔	-11.3713
生者有者乃至住者	-11.3713
歎譽	-11.3714
莊飾	-11.3714
蟻	-11.3714
褥	-11.3715
寫	-11.3715
藥叉女	-11.3715
齎	-11.3715
鴈	-11.3716
拘夷	-11.3716
爭	-11.3716
憶念不忘	-11.3717
却後七日	-11.3717
非有非無	-11.3718
隨所解答	-11.3719
如實顯現	-11.3719
起想著	-11.3719
即我身是	-11.3719
閙	-11.372
縣	-11.3721
胎生龍	-11.3721
猛焰	-11.3721
都邑	-11.3721
技術	-11.3722
正身端坐	-11.3722
遙見佛來	-11.3722
非想非非想處	-11.3722
飽滿	-11.3722
於我法中	-11.3723
高才	-11.3723
周聞十方	-11.3723
欺詐	-11.3724
波梨子	-11.3724
有滅則生滅	-11.3724
畜牧	-11.3724
燒燃	-11.3725
入安陀林	-11.3725
異學無恚	-11.3725
是故彼等作如是	-11.3725
七寶之所成就	-11.3725
瞋怒	-11.3725
供辦	-11.3726
身毛皆竪	-11.3726
經第二竟	-11.3726
燈光如來	-11.3726
提頭賴吒天王	-11.3727
若魔天	-11.3727
究竟梵行訖	-11.3727
現法自知作證	-11.3728
沒溺	-11.3728
無明漏心解脫	-11.3728
心開意解	-11.3728
金錢	-11.3729
盛壯	-11.373
怨憎會苦	-11.3731
剃鬚髮	-11.3731
令諸眾生作如是	-11.3731
究竟白淨	-11.3731
諸佛常法	-11.3731
陰馬藏	-11.3731
如來不終	-11.3732
懷恐懼	-11.3732
於四聖諦未無間等	-11.3733
波吒羅	-11.3733
丹本	-11.3733
打破	-11.3733
今附秦錄	-11.3733
增上意學	-11.3734
》、《	-11.3734
尊者賓頭盧	-11.3735
已生惡不善法	-11.3735
不色無有量	-11.3735
慳嫉	-11.3735
不以刀杖	-11.3736
而語之	-11.3737
五欲之中	-11.3737
往詣彼城	-11.3737
如是比丘觀內	-11.3737
聰慧	-11.3737
此不應詣彼	-11.3737
火燒頭	-11.3737
立念在	-11.3738
充足	-11.374
種種談譁	-11.374
莫令餘比丘	-11.374
翼從	-11.374
頰鞞王	-11.3744
得眼林	-11.3744
相貌	-11.3745
苦聖諦如實知	-11.3746
真實不異	-11.3747
我聲聞中第一比丘	-11.3747
共論此事	-11.3749
大善利	-11.375
多耆奢	-11.375
瞋纏	-11.3751
渧水	-11.3751
無疑難	-11.3753
作倡	-11.3757
原本	-11.3759
車軍	-11.376
三結盡	-11.3761
於異時	-11.3765
善伴黨	-11.3765
下劣	-11.3769
諸行無常	-11.3777
不待時	-11.3802
過於人	-11.3802
世俗	-11.3803
7)	-11.3815
昨夜	-11.3815
焰摩天	-11.3817
天上天下	-11.3826
婆蹉白佛	-11.3828
閻浮樹	-11.3829
生是念	-11.3839
等無有異	-11.3845
服飾	-11.3898
車兵	-11.3908
毘沙	-11.3915
有一類	-11.3949
水災	-11.3954
身出火	-11.3958
十六字	-11.3966
馬兵	-11.4055
五欲自娛	-11.4092
尚不能	-11.4099
而令或一若男若女	-11.4139
破裂	-11.4154
終亡	-11.4156
柔濡	-11.4156
姉妹	-11.4156
預	-11.4157
魔身天	-11.4159
昧	-11.4159
葦	-11.416
欝多囉究留	-11.4161
芬	-11.4161
鈍	-11.4163
渚	-11.4164
西晉	-11.4165
在閑靜處	-11.4165
知是處	-11.4166
妨	-11.4166
材	-11.4166
絞	-11.4166
甜	-11.4166
迸	-11.4167
n	-11.4167
錦	-11.4168
屣	-11.4168
制外怨敵	-11.4168
稠	-11.4169
填	-11.4169
篋	-11.4169
瀉	-11.4169
形色轉好	-11.4169
峯	-11.417
後秦弘始年佛陀耶舍共竺佛念譯	-11.4171
驅馳	-11.4171
枉	-11.4171
恬	-11.4171
焚燒	-11.4171
穀米	-11.4172
起世經	-11.4172
波婁沙	-11.4172
彼地獄中諸眾生	-11.4172
禮佛而退	-11.4172
獨靜思惟	-11.4172
起世因本經	-11.4173
振	-11.4174
逕	-11.4174
溉灌	-11.4175
朱	-11.4175
孰	-11.4175
邁	-11.4175
䏶	-11.4176
從滅盡定起	-11.4176
先苦而後樂	-11.4176
重閣	-11.4176
守門人	-11.4176
幽	-11.4177
十五日月滿時	-11.4177
寶羽之車	-11.4177
梵行清白	-11.4177
觀此義已	-11.4177
默然而許	-11.4178
江河	-11.4178
無明滅則行滅	-11.4178
佯	-11.4178
祇桓	-11.4178
吼	-11.4178
里巷	-11.4179
長生童子	-11.4179
南西北方	-11.4179
寄	-11.4179
瑪瑙等七寶所成	-11.418
一梵行而遊人間	-11.418
行住坐臥	-11.418
遶佛三匝	-11.418
耕田	-11.418
二足尊	-11.418
皺	-11.4181
小腸	-11.4181
由己自在	-11.4181
如力士屈伸臂頃	-11.4181
緣日光	-11.4181
城廓	-11.4182
六千梵志	-11.4182
無上正真之道	-11.4182
鵄鵂	-11.4182
獲大利	-11.4183
經第六竟	-11.4183
如來終不終	-11.4183
於一面立	-11.4183
巴	-11.4184
技	-11.4184
無事處山林樹下	-11.4184
經第一竟	-11.4185
諸小阿修羅王	-11.4185
隥	-11.4185
群黨	-11.4185
光耀	-11.4186
悉皆大明	-11.4186
謂女人不	-11.4187
不由他	-11.4188
阿修囉	-11.4188
籌量	-11.4188
身身念	-11.419
高廣大床	-11.419
釋氏摩訶男	-11.4191
富隣尼	-11.4191
讀誦	-11.4191
財富	-11.4191
已生者重生令增廣	-11.4192
牛糞	-11.4192
廣解其義	-11.4195
生聞婆羅門	-11.4195
融消	-11.4195
尊者跋陀和利	-11.4196
女人奉持	-11.4196
黑闇	-11.4196
和悅	-11.4196
有一行欲人	-11.4198
三結已盡	-11.4198
非有非無後死	-11.4199
槃頭	-11.4201
根莖	-11.4201
入他家	-11.4203
復有說言	-11.4204
著糞掃衣	-11.4207
印可	-11.4208
尊者難提	-11.4213
復有二法	-11.4218
復從他	-11.4256
從如來聞	-11.4256
盡形壽不殺	-11.4269
共集會	-11.4303
修安那般那念	-11.4321
昨	-11.4351
更不復	-11.4355
南北	-11.4358
得第四禪成就遊	-11.436
受其教	-11.4396
他化自在	-11.4401
!』」	-11.4448
卷第四	-11.4534
常住不變	-11.4556
福祐	-11.4588
獵	-11.4611
當以五事	-11.4621
犲	-11.4627
儀容	-11.4629
蘆	-11.4631
有身集	-11.4633
壍	-11.4634
渠	-11.4635
弓箭	-11.4637
駛	-11.4638
吠	-11.4639
拘樓孫如來	-11.4639
命亦未終	-11.4639
庭	-11.4639
斤	-11.464
均頭沙彌	-11.464
筋骨	-11.464
娑多耆利	-11.4641
仗	-11.4642
調順	-11.4643
髀	-11.4643
k	-11.4644
吏	-11.4644
如王邊城	-11.4645
虎魄	-11.4645
如車軸	-11.4646
涅盤	-11.4646
毗舍	-11.4646
慎勿	-11.4646
阿摩勒	-11.4647
威勢	-11.4647
圓寂	-11.4647
九眾生居	-11.4647
浚輸	-11.4647
隱沒	-11.4647
瞑	-11.4647
前後導從	-11.4647
捐棄	-11.4648
骸骨	-11.4648
究牟陀	-11.4648
詠	-11.4648
閻浮利天下人	-11.4649
燒脣	-11.4649
鹿野苑中	-11.465
盡於苦際	-11.4651
放大光明	-11.4651
紹王位	-11.4651
博戲	-11.4652
富樓那	-11.4652
稚	-11.4652
輪有千輻	-11.4653
來迦毘羅林	-11.4653
鼻嗅香	-11.4653
輕毀	-11.4654
復有七法	-11.4654
拾	-11.4655
薪草	-11.4655
國政	-11.4655
倫	-11.4655
冤	-11.4656
縱廣正等	-11.4656
沙門瞿曇宗本	-11.4656
邦	-11.4657
羂	-11.4657
不成男	-11.4657
閑暇	-11.4658
捶杖	-11.4658
如法法王成就七寶	-11.4659
悒	-11.4659
隨汝意	-11.4659
踈	-11.4659
如桃華色	-11.4659
法次法向	-11.4659
墮負處	-11.466
流轉生死	-11.4661
尼乾陀	-11.4661
凡諸有為甚	-11.4661
生斯念	-11.4662
宗族	-11.4662
波羅提木叉	-11.4662
煩熱苦報	-11.4662
見是事已	-11.4662
不可療治	-11.4662
三事和合觸	-11.4663
無處不遍	-11.4664
欝低迦	-11.4664
諸根寂定	-11.4665
菩提樹下	-11.4665
得不動心	-11.4666
百千兩金	-11.4666
受世尊教	-11.4668
利益安樂	-11.4668
有何差別	-11.4668
阿難邠坻	-11.4668
?』」「	-11.4668
毘沙門王	-11.4668
見其如真	-11.4669
隨此眾生之所作業	-11.4669
過三月已	-11.4669
那羅陀	-11.4669
睡眠蓋	-11.4672
尊者勒叉那	-11.4673
往來善處	-11.4673
正智正繫念	-11.4673
七日之中	-11.4673
靈	-11.4673
有因有緣	-11.4674
普遍充滿	-11.4676
得初禪成就遊	-11.4678
以三昧心	-11.4679
阿濕波誓	-11.468
優頭槃	-11.4683
正向涅槃	-11.4684
未曾有之法	-11.4685
離於喜欲	-11.4686
睹	-11.4698
從坐而	-11.4749
周迴	-11.4757
鹿野園中	-11.4777
有比丘名	-11.4784
愁憂苦惱	-11.491
9)	-11.4937
彼地獄諸眾生	-11.5001
結恨	-11.5054
恭敬禮事	-11.5057
卷第三	-11.5066
菩提樹	-11.5082
干	-11.509
阿耨多羅三藐三菩提	-11.5113
知捨如真	-11.5119
校飾	-11.512
二萬一千由旬	-11.5124
大正殿	-11.5126
勑	-11.5126
阿耨達多龍王	-11.5128
加陵伽波惒邏	-11.5129
拘耶尼	-11.5129
如其像	-11.513
丹	-11.513
青黃赤白	-11.5131
或時行者	-11.5131
善住尼拘類樹王	-11.5131
赴	-11.5131
𤦲	-11.5132
入長者舍	-11.5135
校	-11.5135
攻伐	-11.5135
從空下	-11.5135
松	-11.5136
五百由旬小地獄中	-11.5137
意疾止	-11.5137
須摩提	-11.5138
吟	-11.5138
摶	-11.5139
僕使	-11.5139
殯	-11.5139
宮牆七重	-11.514
轂	-11.514
以是十業得	-11.5141
呻	-11.5141
輔	-11.5141
欝單越洲	-11.5141
洞燃俱熾	-11.5142
相繼之法	-11.5142
工巧	-11.5142
藝	-11.5142
陷	-11.5142
三摩提	-11.5143
融銅	-11.5143
式詰如來	-11.5143
閑靜之處	-11.5143
憒閙	-11.5143
鸚鵡摩牢兜羅子	-11.5143
楚	-11.5145
其諸獄卒	-11.5145
鷹	-11.5145
禁制	-11.5145
鬪亂彼此	-11.5145
牢獄	-11.5145
腰	-11.5145
受持跋地羅帝偈	-11.5145
測	-11.5145
阿浮陀	-11.5146
􂌞	-11.5146
經第九竟	-11.5146
胡麻	-11.5146
更增行善	-11.5146
h	-11.5146
貢	-11.5146
護念清淨	-11.5147
蹲	-11.5147
峻	-11.5147
滿富城中	-11.5148
優曇鉢	-11.5148
監	-11.5148
疫	-11.5148
障閡	-11.5149
愚闇	-11.5149
淫泆	-11.5149
梵主天	-11.5149
如是純大苦聚集	-11.5149
偏露右	-11.515
以翅搏	-11.515
多諸珍寶	-11.515
眴	-11.515
徧	-11.515
頭面著佛足	-11.5151
摩得梨	-11.5151
閻浮里地	-11.5151
庠序	-11.5152
哲	-11.5152
乾沓和	-11.5152
尸利掘	-11.5152
彼必得果	-11.5152
攀	-11.5153
徑路	-11.5153
拳扠	-11.5153
齒落	-11.5154
以偈歎	-11.5155
毛孔	-11.5155
優填王	-11.5155
嘿	-11.5155
叔	-11.5155
周圍	-11.5156
寒冷	-11.5156
釋摩男	-11.5156
淨滅枝	-11.5157
失譯人名	-11.5157
為從何來	-11.5157
彼水聚	-11.5157
如來之藏	-11.5157
現法自知作證具足住	-11.5157
兜婆	-11.5157
鞞留羅大將	-11.5158
能伏他眾	-11.5158
後受樂報	-11.5159
邪盛大會	-11.5159
摩竭陀大臣雨勢	-11.516
跋地羅帝偈及其義	-11.516
我非彼有	-11.516
堂閣	-11.516
修多羅廣說	-11.516
婆羅豆婆遮婆羅門	-11.5161
。」』「	-11.5161
後受苦報	-11.5161
不蘭迦葉	-11.5162
彌羅摩	-11.5162
猗覺分	-11.5162
觀眾生類	-11.5162
荷	-11.5162
如來亦非終亦非不終	-11.5163
與世尊面相問訊慰勞	-11.5164
是生滅法	-11.5164
獨住遠離	-11.5164
獲者獲	-11.5164
為慈愍故	-11.5165
為多行無	-11.5165
法次法說	-11.5165
敗壞無餘	-11.5166
栴	-11.5166
鑿	-11.5167
生善處天中	-11.5168
增上戒學	-11.5168
住一林中	-11.5168
欲有所行但有	-11.5169
著好衣	-11.517
生可意不可意	-11.5171
無所有入處	-11.5173
卷第五	-11.5174
共相慰勞	-11.5175
如大地土	-11.5176
自方便斷燕坐	-11.5178
發欲求方	-11.5179
七不衰法	-11.5179
得第三禪成就遊	-11.5184
王頂生	-11.5187
五欲悉虛	-11.519
生惡處地獄中	-11.5191
山谷	-11.5194
住已而觀	-11.5204
𦼇	-11.5207
種種香熏	-11.5222
𤺙	-11.5223
斷彼法	-11.5245
可斷法	-11.528
十踰闍那	-11.5286
生緣老	-11.5301
怠	-11.5308
阿闍世	-11.5612
長壽博士	-11.5624
鍑	-11.5631
外身身觀	-11.5636
阿那邠邸	-11.5643
泥犁勤苦	-11.5644
在其中甚	-11.5647
攻	-11.5647
為無有本	-11.5649
毾𣰆	-11.5649
鵄	-11.566
駱駝	-11.5661
腸胃	-11.5661
屏	-11.5662
凾	-11.5662
三繞彼城	-11.5663
壘	-11.5663
今此所來	-11.5663
魂神	-11.5663
泣	-11.5664
阿吒吒	-11.5665
迭	-11.5665
是此尊者	-11.5666
醯魔波低	-11.5667
多薩阿竭	-11.5667
奮	-11.5667
悴	-11.5667
蔔	-11.5668
千兩金	-11.5669
庫藏	-11.567
懶惰	-11.567
喘息	-11.567
口言善	-11.567
端正姝好	-11.567
相承用	-11.567
今為所在	-11.5671
歡喜而樂	-11.5671
般咃	-11.5671
婆伽婆在舍衛城祇樹給孤獨園	-11.5671
濕生龍	-11.5672
為直念	-11.5673
草蓐	-11.5674
枝葉華實	-11.5674
盡有漏成無漏	-11.5674
𦟛	-11.5674
粗	-11.5674
蠅蚤	-11.5675
以鑽鑽	-11.5675
拄杖	-11.5676
儞	-11.5676
亦有中夭者	-11.5676
贖	-11.5676
曩	-11.5676
摩頭揵	-11.5676
不癡律	-11.5676
蠕動之類	-11.5676
+	-11.5677
梵梵所化	-11.5677
澡罐	-11.5677
受想行識	-11.5678
僮僕	-11.5679
以偈頌	-11.5679
轡	-11.5679
衣毛皆竪	-11.5679
鴿	-11.5679
堅牢	-11.5679
祕	-11.568
萬毒並至	-11.568
抆	-11.5681
種種眾鳥	-11.5681
至舍衛國祇樹給孤獨園	-11.5682
如實而知	-11.5682
執扇扇佛	-11.5682
從頭至足	-11.5682
刻	-11.5682
墨	-11.5683
崖	-11.5683
胞胎	-11.5683
鈍根	-11.5683
生漏梵志	-11.5683
從何所來	-11.5683
受諸苦惱	-11.5684
諸佛世尊常所說法	-11.5684
俱薩羅國	-11.5684
優劣	-11.5685
經第八竟	-11.5685
隨順燕坐	-11.5685
筆	-11.5685
奧	-11.5686
婬泆	-11.5687
坊	-11.5687
入室燕坐	-11.5688
繞三匝	-11.5688
行如是大施	-11.5689
齊整	-11.5689
知領群特	-11.5691
團	-11.5694
胃	-11.5695
岳	-11.5695
妙與不妙	-11.5698
心不生惡	-11.5698
所得果報	-11.5699
滅有對想	-11.5699
得第二禪成就遊	-11.5702
諸法之本	-11.5762
世尊便說斯	-11.5762
阿羅漢不如施	-11.5784
第	-11.6012
晡	-11.6183
或一若男若女	-11.6198
竝	-11.6204
扇大海	-11.6205
膿血流出	-11.6205
緣生有老死	-11.6206
遮迦越羅王	-11.6208
胝	-11.6209
我作剎利頂生王	-11.6209
金幢二婆羅門	-11.6211
穌	-11.6211
紺青色	-11.6214
躃	-11.6214
拼度	-11.6215
是佛弟子名	-11.6216
街	-11.6217
神止處	-11.6217
融	-11.6219
心靖得喜	-11.6219
增一阿含	-11.622
馥	-11.622
水為之開	-11.622
日初出	-11.6221
觀興衰法	-11.6221
瑕	-11.6222
亦知從是沒	-11.6222
十二部經	-11.6222
亦知是更苦	-11.6222
亦知是所樂	-11.6222
▁11	-11.6223
縈	-11.6223
歡娛	-11.6223
非沙門稱沙門	-11.6224
無行般涅槃	-11.6224
無慚無愧	-11.6224
強健	-11.6224
尼民陀羅	-11.6224
水澆頭種	-11.6224
咽喉	-11.6225
蜂	-11.6225
效	-11.6225
淪	-11.6226
鳩尸那城	-11.6226
▁12	-11.6226
乖	-11.6227
渝	-11.6227
僂	-11.6227
姨	-11.6228
頭面禮世尊足	-11.6228
舉罪比丘	-11.6228
摩多離	-11.6229
須臾之間	-11.6229
蹹	-11.6229
色白如	-11.623
於七日中	-11.623
與如來等	-11.623
無病無上安隱涅槃	-11.623
男女大小	-11.623
隸	-11.623
上尊長老	-11.6231
無愁憂慼	-11.6231
阿須輪	-11.6231
復有業能令眾生	-11.6231
一切世間不可樂想	-11.6231
非有願非無願行	-11.6232
胡	-11.6232
拳	-11.6232
來生此間	-11.6232
語亦善	-11.6233
若行者向念	-11.6233
輸迦長者	-11.6234
四輩弟子	-11.6234
枚	-11.6234
阿羅羅	-11.6234
軛	-11.6234
意思食	-11.6234
讖	-11.6234
如截多羅樹頭	-11.6235
意之所念	-11.6235
內寂其心	-11.6235
月光長者	-11.6236
此為何義	-11.6236
歸依三寶	-11.6237
候	-11.6237
央掘魔羅以偈答	-11.6237
犍	-11.6237
稼	-11.6238
虧	-11.6238
寂默	-11.6238
以慧觀	-11.6238
鞞摩質多囉阿修囉王	-11.6238
分散破壞	-11.6238
第四分別誦	-11.6238
此法有諍	-11.6239
溪㵎	-11.6239
義味具足	-11.6239
慧者聞喻	-11.6239
阿臈鬼	-11.6239
一意得定	-11.6239
餘則虛妄	-11.624
莫知所	-11.624
不為他人之所輕毀	-11.6241
希望	-11.6241
色為常	-11.6241
惰	-11.6241
善男子捷疾具足	-11.6242
專念不忘	-11.6242
中後彷徉	-11.6242
憑	-11.6242
婆耆舍	-11.6243
准	-11.6244
最在其	-11.6245
綜	-11.6245
一正見人	-11.6245
不如有人以	-11.6245
放牛人	-11.6246
善惡業報	-11.6246
從後說絕	-11.6246
五結樂子	-11.6247
舍羅步	-11.6247
阿僧祇劫	-11.6248
佛住摩拘羅山	-11.6248
床敷臥具	-11.6249
熱惱大地獄	-11.6249
悅豫	-11.6249
啼哭號呼	-11.625
用是因緣	-11.625
曇摩留支	-11.6251
必受苦果現法之報	-11.6251
為他人說	-11.6251
念如來事	-11.6251
乘虛而行	-11.6252
阿闍梨	-11.6252
必受苦果地獄之報	-11.6252
得具足戒	-11.6254
遍滿成就遊	-11.6255
具足而受	-11.6256
見此眾生死時	-11.6256
不牢要	-11.6259
硨𤦲瑪瑙等	-11.6264
纏裹	-11.6273
並作是	-11.6478
鐵釘	-11.6516
持八關齋	-11.6518
著肩上	-11.6616
訟	-11.6635
受信施食	-11.6684
正見人不如施	-11.6735
彼壽轉	-11.6752
不還此世	-11.6768
梵志國師	-11.677
便走欲求解脫	-11.679
緣有有生	-11.6791
梵及餘世間	-11.6792
碧	-11.6795
俟	-11.6796
完	-11.6797
殼	-11.6798
瘦弱	-11.6799
幢幡	-11.68
机	-11.68
撮	-11.68
聞佛此語	-11.6801
自然變成	-11.6801
襯	-11.6801
主兵臣	-11.6802
帛	-11.6802
困篤	-11.6802
紺馬寶	-11.6803
夜闇中	-11.6803
聰	-11.6804
有六牙	-11.6805
常隨不離	-11.6805
呼呼婆	-11.6806
二百八十里	-11.6806
徐徐	-11.6807
寒暑	-11.6807
倉庫	-11.6807
若男若女	-11.6808
帳	-11.6809
筏	-11.6809
函	-11.6809
汝亦當復	-11.681
紅蓮華	-11.681
諦觀思惟分別	-11.681
無因無緣	-11.6811
後漢安息國三藏安世高譯	-11.6811
雅	-11.6811
身作證具足住	-11.6811
捺	-11.6811
田宅	-11.6812
懸繒	-11.6813
十速證	-11.6813
各還本處	-11.6813
日大城郭	-11.6813
受惡報	-11.6813
頞浮陀	-11.6814
撾打	-11.6814
押	-11.6814
妬	-11.6814
以五繫縛	-11.6815
r	-11.6815
稍稍	-11.6815
被袈裟	-11.6815
姊	-11.6816
無憂慼正行	-11.6816
題	-11.6816
巨富	-11.6816
逃	-11.6816
麤澁	-11.6817
囑	-11.6817
懸繒幡蓋	-11.6817
柯	-11.6817
此是何人	-11.6817
清潔	-11.6818
謬	-11.6818
求歸依處	-11.6818
於一日中	-11.6818
弗婆提洲	-11.6818
不自譽	-11.6818
善義善	-11.6818
拘睒彌	-11.6819
廣布無常想	-11.6819
鬚閑提異學	-11.6819
糞屎	-11.6819
佛住迦毘羅衛國尼拘律園	-11.682
偃	-11.682
枝條	-11.682
無穢污無上安隱涅槃	-11.682
不無恩	-11.682
迦蘭陀	-11.682
商佉	-11.682
抂	-11.6821
嫌怖久捨	-11.6821
跋地羅帝偈	-11.6821
紫磨金	-11.6821
塵土坌	-11.6822
典兵寶	-11.6822
專念不亂	-11.6822
膊	-11.6822
席	-11.6822
毘富羅山	-11.6822
鵡	-11.6823
普四方面各有	-11.6823
將來之世	-11.6823
十五日說從解脫時	-11.6824
是即名為	-11.6824
匱	-11.6824
善然可	-11.6824
軸	-11.6824
集會聽法	-11.6824
從三昧起	-11.6824
籍	-11.6825
肝	-11.6825
最為上首	-11.6825
世尊默然受	-11.6826
力士屈申臂頃	-11.6826
乃至於斯	-11.6826
序	-11.6826
明日清旦	-11.6826
毘沙門大天王	-11.6826
幹	-11.6827
佛住拘睒彌國瞿師羅園	-11.6827
口言惡	-11.6828
九十一劫	-11.6828
槍	-11.6828
如是比丘隨其身行	-11.6828
驚懼	-11.6828
爐	-11.6829
以天耳聞	-11.6829
拘樓秦佛	-11.6829
曩昔	-11.683
說梵世法	-11.6831
祭祀儀禮	-11.6831
非無因緣	-11.6832
去後不久	-11.6832
踐	-11.6832
覺礫拘荀大	-11.6832
修於梵行	-11.6832
婆羅門因此於本劫本見	-11.6832
為當來有本	-11.6833
波浪	-11.6833
咨嗟稱歎	-11.6833
是無所有處成就遊	-11.6833
內無求欲	-11.6834
六思身	-11.6835
善眼大師	-11.6836
不饒益苦	-11.6836
卷第六	-11.6836
調伏世間貪憂	-11.6837
貿	-11.6838
威光顯	-11.6838
膽	-11.6839
或至樹下空安靜處	-11.6839
問訊聖體	-11.6839
是說苦邊	-11.6839
沙門及婆羅門	-11.6839
是即名為佛最勝法	-11.6841
為其說法	-11.6842
禘婆達兜	-11.6842
應懃修集	-11.6844
大苦災患	-11.6845
於空靜處	-11.6846
無相心三昧	-11.6851
如甲上土	-11.6851
緣覺不如施	-11.686
如至誠知	-11.6865
迦遮延	-11.688
飛在虛空	-11.6894
令不行惡	-11.6905
度一切無量識	-11.693
▁125(	-11.6937
可法滅	-11.709
訓	-11.7364
知苦如真	-11.7392
聲聞中第一	-11.7406
俱相類相聚相應相可	-11.7407
自以為樂	-11.7409
堆壓	-11.7411
覆以錦綺羅	-11.7415
有十種業	-11.7418
輕慢自有財物	-11.7422
有泥犁名	-11.7423
闍尼沙	-11.7423
驗	-11.7426
桓	-11.7426
日大宮殿	-11.7428
著種種具莊	-11.7428
篤	-11.7428
抑	-11.7428
嫁娶	-11.7428
鄰	-11.7428
洋	-11.7429
我念往昔	-11.7429
阿迦尼吒	-11.7429
槽	-11.7429
耻	-11.7429
阿難對言	-11.743
呬	-11.7431
此一補特伽羅	-11.7431
故此補特伽羅	-11.7432
藪	-11.7433
阿毘脂	-11.7434
八萬小洲	-11.7434
彼黑繩大地獄中	-11.7434
鬱	-11.7435
毘耶離	-11.7435
遜	-11.7435
鉾	-11.7435
鬱單曰	-11.7436
眉	-11.7436
膿	-11.7437
畔	-11.7437
焦	-11.7437
佳	-11.7439
曀	-11.7439
膠	-11.7439
壽二萬歲	-11.7439
屈申臂頃	-11.744
甖	-11.744
彼作願行行	-11.744
戀慕	-11.744
予	-11.744
不寒不熱	-11.7441
p	-11.7441
無明緣行	-11.7441
況欲出其上	-11.7441
必不得果	-11.7441
5)]	-11.7441
轉向善趣	-11.7442
怕	-11.7442
說如來常恒不變如來之藏	-11.7442
身知細滑	-11.7443
勝林給孤獨園	-11.7443
不能污王	-11.7443
去佛不遠	-11.7444
崛	-11.7444
捷	-11.7444
那優羅	-11.7444
嚫	-11.7444
獄亦廣五百由旬	-11.7445
彼此定樂欲住	-11.7445
自以為得脫	-11.7446
塊	-11.7446
頗梨赤珠	-11.7446
矜	-11.7446
車𤦲馬瑙等	-11.7447
拘尸那竭	-11.7447
是故此法則	-11.7447
生火長養	-11.7447
少病少惱	-11.7447
閱	-11.7447
人獲安	-11.7448
捨於重擔	-11.7448
瞢瞢	-11.7448
命自活	-11.7448
閃電	-11.7448
王園比丘尼眾中	-11.7449
以淨天耳	-11.7449
一水乳	-11.7449
羇	-11.745
天龍鬼神	-11.745
若使一切眾生無有	-11.745
級	-11.745
飛行皇帝	-11.745
革屣	-11.7451
是我常所	-11.7451
嗣	-11.7451
所謂阿提目多迦	-11.7451
世尊漸與	-11.7452
婆利師迦	-11.7452
為從何生	-11.7452
殊低沙迦利迦	-11.7452
婆羅門於本劫本見	-11.7452
恣汝所問	-11.7453
東園鹿子母講堂	-11.7453
蘇摩那	-11.7453
不了可憎行	-11.7453
俱毘陀羅	-11.7453
得大果大福利	-11.7454
顧戀	-11.7454
瘂	-11.7454
遏	-11.7454
解脫見慧成就	-11.7455
及諸智梵行人	-11.7456
從今已後	-11.7456
隆	-11.7457
夜將向旦	-11.7457
四雙八輩	-11.7458
遊提迦	-11.7458
非想非非想入處	-11.7458
有侍者比丘名曰羅陀	-11.7458
阿㝹羅度	-11.7459
脾	-11.7459
莫以非法	-11.7459
善觀分別	-11.7459
我慢使繫著	-11.746
拘那含牟尼佛	-11.7461
陶屋	-11.7461
餘皆虛妄	-11.7461
瓶沙王	-11.7462
有二岐道	-11.7464
復以何故名為	-11.7465
離本相	-11.7465
得出離清淨	-11.7466
慙愧羞厭	-11.7467
趣非品	-11.7468
欣然微笑	-11.7469
習行不斷	-11.7469
有所答對	-11.747
刷	-11.7471
彼意恚	-11.7472
懷姙	-11.7472
娛	-11.8047
俠	-11.8069
蝕	-11.8072
巾	-11.8087
鍼	-11.8093
雀	-11.8094
凝	-11.8095
掬	-11.8096
枰	-11.8097
脆	-11.8097
矟	-11.8099
罷	-11.81
劈	-11.8101
茲	-11.8101
鏤	-11.8101
鵂	-11.8104
猫	-11.8104
踝	-11.8105
躍	-11.8105
-	-11.8106
慄	-11.8106
漫	-11.8106
肅	-11.8107
籠	-11.8107
沃	-11.8107
條	-11.8108
滓	-11.8109
湧	-11.8109
掣	-11.811
卜	-11.8111
植	-11.8111
愕	-11.8111
迅	-11.8111
淡	-11.8112
絺	-11.8113
景	-11.8113
衍	-11.8113
戮	-11.8114
絲	-11.8116
諳	-11.8116
築	-11.8116
浪	-11.8116
沮	-11.8117
妷	-11.8118
稗	-11.8119
哽	-11.812
萌	-11.812
腎	-11.8121
舐	-11.8122
巡	-11.8122
征	-11.8127
菜	-11.813
展	-11.8156
帚	-11.8785
茹	-11.8791
繖	-11.8804
綺	-11.8804
藕	-11.8806
瓮	-11.8808
雪	-11.881
豔	-11.8811
搆	-11.8812
皰	-11.8812
窓	-11.8812
奏	-11.8815
恪	-11.8815
夕	-11.8816
迮	-11.8816
司	-11.8817
讒	-11.8817
怯	-11.8817
託	-11.8817
沐	-11.8818
齗	-11.8818
簡	-11.8818
餓	-11.8819
滑	-11.882
􂍃	-11.882
蔓	-11.882
􂌶	-11.882
翻	-11.8821
繁	-11.8822
頰	-11.8822
蚖	-11.8822
瑩	-11.8823
鍱	-11.8824
沼	-11.8824
環	-11.8824
忌	-11.8824
權	-11.8825
院	-11.8825
悵	-11.8826
鼈	-11.8827
李	-11.8827
緒	-11.8829
泊	-11.8829
艱	-11.8831
讎	-11.8832
嗅	-11.8834
牸	-11.8835
詩	-11.884
誘	-11.884
潛	-11.8855
蚊	-11.9562
碯	-11.9567
氷	-11.9569
彩	-11.9572
獺	-11.9572
𩣺	-11.9576
選	-11.9579
脩	-11.958
謨	-11.958
循	-11.9583
揈	-11.9583
拄	-11.9585
䩭	-11.9586
眄	-11.9586
裸	-11.9587
喧	-11.9588
忻	-11.9589
辜	-11.9589
宰	-11.959
騫	-11.959
m	-11.959
u	-11.9591
寞	-11.9593
駐	-11.9594
耽	-11.9594
撫	-11.9594
彫	-11.9595
衝	-11.9596
敘	-11.9596
擒	-11.9596
栖	-11.9597
紀	-11.9597
零	-11.9598
妃	-11.9599
喙	-11.96
叵	-11.96
尠	-11.96
肺	-11.9601
膖	-11.9604
粉	-11.9605
峰	-11.9608
剖	-11.961
噭	-12.0367
庠	-12.0389
償	-12.0395
牖	-12.0396
藤	-12.0402
擘	-12.0402
棒	-12.0404
塚	-12.0406
𦝩	-12.0413
跛	-12.0413
辰	-12.0413
恡	-12.0416
諷	-12.0416
芳	-12.0416
鑷	-12.0416
腳	-12.0418
跳	-12.0419
y	-12.0419
點	-12.0419
禾	-12.0419
蒲	-12.042
蜇	-12.042
懊	-12.042
險	-12.042
鍾	-12.042
㵎	-12.0422
磧	-12.0423
檢	-12.0423
擬	-12.0423
鞍	-12.0424
控	-12.0424
l	-12.0424
費	-12.0425
朗	-12.0426
係	-12.0426
倮	-12.0427
誹	-12.0428
刪	-12.0429
擗	-12.0429
霧	-12.043
芻	-12.043
靽	-12.043
餉	-12.043
澓	-12.043
佃	-12.043
妾	-12.0431
裁	-12.0431
兔	-12.0433
倉	-12.0439
顛	-12.044
黨	-12.0441
肪	-12.0445
否	-12.0446
涎	-12.0446
鵠	-12.0447
厥	-12.0449
閾	-12.0454
央	-12.0941
􂌤	-12.1305
嚙	-12.1308
攢	-12.131
瑁	-12.1313
矢	-12.1313
翠	-12.1316
鼉	-12.1317
擿	-12.1318
諱	-12.1318
燼	-12.1319
媚	-12.1319
齧	-12.132
薰	-12.1321
糜	-12.1324
糩	-12.1324
僮	-12.1325
煖	-12.1326
貯	-12.1326
仞	-12.1327
賒	-12.1327
銖	-12.1328
欠	-12.1328
盤	-12.1328
冀	-12.1329
僉	-12.1329
厨	-12.133
蔑	-12.1331
戟	-12.1331
S	-12.1332
桃	-12.1332
汲	-12.1332
誅	-12.1333
祝	-12.1333
挾	-12.1333
屑	-12.1334
輞	-12.1336
唄	-12.1336
凌	-12.1336
珓	-12.1337
熙	-12.1338
䟽	-12.1338
焚	-12.1339
鶴	-12.134
坋	-12.134
郁	-12.1341
欽	-12.1341
壤	-12.1341
荔	-12.1343
騃	-12.1343
凍	-12.1345
蛆	-12.1345
怡	-12.1345
椽	-12.1346
嚮	-12.1348
貸	-12.1348
糟	-12.1349
嫜	-12.135
瓫	-12.1351
腭	-12.1353
啻	-12.1366
岐	-12.138
𤻀	-12.1419
鍊	-12.2303
猴	-12.2307
粃	-12.2311
斑	-12.2312
叩	-12.2313
釿	-12.2314
檻	-12.2316
副	-12.2321
謁	-12.2322
恠	-12.2323
奕	-12.2324
裝	-12.2324
儒	-12.2325
挺	-12.2326
拒	-12.2327
囚	-12.2328
械	-12.2328
輭	-12.2328
詔	-12.2328
杻	-12.2329
駏	-12.233
悚	-12.233
余	-12.233
駄	-12.2331
嗔	-12.2331
ṭ	-12.2332
鎮	-12.2332
娉	-12.2332
寇	-12.2333
瓠	-12.2333
仍	-12.2334
娠	-12.2334
㯓	-12.2335
柄	-12.2335
湊	-12.2336
沾	-12.2336
陌	-12.2337
煒	-12.2337
酌	-12.2342
鋡	-12.2342
侯	-12.2342
沓	-12.2343
趺	-12.2343
撥	-12.2344
茅	-12.2345
爍	-12.2346
釧	-12.2346
偶	-12.2349
削	-12.235
飼	-12.235
觝	-12.2351
痰	-12.2352
瓔	-12.2352
嗚	-12.2352
狸	-12.2353
瀑	-12.2353
嘖	-12.2355
躭	-12.2355
魂	-12.236
􂌡	-12.2363
柴	-12.2368
跓	-12.2379
肯	-12.3166
僕	-12.3402
郎	-12.3409
虱	-12.3415
駒	-12.3418
蓊	-12.3423
途	-12.3424
企	-12.3426
郭	-12.3426
璝	-12.3427
析	-12.3427
鞘	-12.3427
逋	-12.3428
漚	-12.3429
敦	-12.3429
墟	-12.343
蹴	-12.3431
磔	-12.3431
鉞	-12.3434
嬾	-12.3434
唼	-12.3434
舅	-12.3435
警	-12.3435
効	-12.3436
規	-12.3436
𡁠	-12.3437
蹄	-12.3438
蠕	-12.3438
藉	-12.3438
渾	-12.3438
曝	-12.3439
尤	-12.344
姧	-12.3441
弩	-12.3441
蹶	-12.3441
探	-12.3441
革	-12.3442
芥	-12.3442
c	-12.3443
俯	-12.3443
g	-12.3443
鄣	-12.3443
畵	-12.3444
坻	-12.3444
禱	-12.3445
廓	-12.3445
洄	-12.3446
飡	-12.3446
傴	-12.3446
駃	-12.3447
吸	-12.3447
農	-12.3447
轅	-12.3447
鑒	-12.3447
豹	-12.3448
萠	-12.3449
疹	-12.3449
縻	-12.3451
璫	-12.3451
斟	-12.3451
溷	-12.3452
康	-12.3452
漱	-12.3453
沛	-12.3454
𨫼	-12.3454
殷	-12.3455
壇	-12.3455
鄉	-12.3456
螫	-12.3456
塢	-12.3457
嗽	-12.3458
浸	-12.3462
揭	-12.3463
氛	-12.3464
祭	-12.3466
翔	-12.3467
杅	-12.347
酤	-12.4654
𣃆	-12.4662
疎	-12.4664
櫨	-12.4665
鬧	-12.4669
契	-12.4669
儗	-12.467
挓	-12.4671
游	-12.4672
腫	-12.4675
趍	-12.4675
排	-12.4675
洟	-12.4677
齅	-12.4677
棟	-12.4678
垛	-12.4681
槌	-12.4682
牒	-12.4683
鐶	-12.4683
瑇	-12.4683
殞	-12.4683
嬉	-12.4683
屯	-12.4684
璧	-12.4684
憐	-12.4684
租	-12.4686
幘	-12.4686
榻	-12.4686
戈	-12.4688
梳	-12.4688
騷	-12.4688
枳	-12.4688
軒	-12.4689
踞	-12.4689
蹉	-12.469
嵐	-12.4691
鑰	-12.4691
莂	-12.4691
宇	-12.4691
霜	-12.4693
栗	-12.4693
o	-12.4693
膜	-12.4694
館	-12.4694
𪏭	-12.4695
玩	-12.4695
邃	-12.4695
唧	-12.4696
判	-12.4696
捧	-12.4697
肢	-12.4697
舟	-12.4697
冑	-12.4697
舘	-12.4697
脉	-12.4698
旱	-12.4698
軻	-12.4698
蠲	-12.4698
櫪	-12.4699
䐗	-12.4699
謦	-12.4699
𠎝	-12.4699
昏	-12.4699
催	-12.47
薑	-12.4701
例	-12.4701
評	-12.4701
姤	-12.4703
滴	-12.4704
𨽁	-12.4704
屢	-12.4704
喉	-12.4704
憚	-12.4704
稽	-12.4705
𠼝	-12.4705
蠟	-12.4705
颺	-12.4706
綴	-12.4706
挑	-12.4706
跟	-12.4706
秤	-12.4706
羈	-12.4706
錐	-12.4707
􂌦	-12.4713
呰	-12.4716
噎	-12.4718
輻	-12.4718
堆	-12.472
髦	-12.472
坼	-12.4721
咤	-12.4721
浚	-12.4723
荏	-12.4723
粥	-12.4725
較	-12.6076
庫	-12.6077
阜	-12.6099
撈	-12.61
祁	-12.61
泰	-12.6101
珞	-12.6103
酢	-12.6104
胷	-12.6105
倩	-12.6106
舁	-12.6106
虞	-12.6108
怱	-12.6108
芸	-12.6108
𢷏	-12.6109
詶	-12.6109
鵲	-12.6109
鑪	-12.611
闡	-12.611
兀	-12.611
虜	-12.6111
潮	-12.6112
據	-12.6112
姟	-12.6113
攬	-12.6115
滂	-12.6115
歔	-12.6117
武	-12.6118
𣰆	-12.6118
柘	-12.6118
K	-12.6118
瘖	-12.6119
虺	-12.612
炊	-12.612
e	-12.612
跱	-12.6121
饑	-12.6121
ī	-12.6122
募	-12.6122
㑺	-12.6122
泆	-12.6123
鞅	-12.6123
赦	-12.6124
暑	-12.6124
熬	-12.6125
舡	-12.6125
轢	-12.6125
戍	-12.6126
簸	-12.6126
抵	-12.6127
祥	-12.6127
懅	-12.6127
驕	-12.6128
淖	-12.6128
奚	-12.6128
誣	-12.6128
攪	-12.6129
荻	-12.6129
漆	-12.613
墼	-12.613
遐	-12.613
昵	-12.6131
激	-12.6131
迺	-12.6133
俛	-12.6133
符	-12.6133
耄	-12.6133
扣	-12.6133
駭	-12.6135
縵	-12.6136
㨹	-12.6137
捻	-12.6138
瑙	-12.6138
枷	-12.6138
潰	-12.6139
弈	-12.614
懌	-12.6142
虐	-12.6143
氳	-12.6146
攎	-12.6146
啾	-12.6148
硬	-12.6151
妖	-12.6152
甌	-12.6154
鍛	-12.6155
懣	-12.6162
纔	-12.6162
繳	-12.618
慼	-12.7502
倡	-12.7692
翼	-12.7747
克	-12.7749
禽	-12.7754
瀨	-12.7756
玳	-12.7757
尖	-12.7757
篲	-12.776
凹	-12.7763
絣	-12.7763
虵	-12.7764
褺	-12.7765
捲	-12.7765
蚤	-12.7767
英	-12.7767
牕	-12.7768
揮	-12.7769
晴	-12.7771
拯	-12.7773
敏	-12.7773
輝	-12.7773
回	-12.7775
汎	-12.7775
鈇	-12.7775
黜	-12.7776
朴	-12.7777
鴻	-12.7777
州	-12.7778
包	-12.7779
皎	-12.7779
覽	-12.7779
盪	-12.7779
袍	-12.7779
梓	-12.778
僻	-12.778
遑	-12.778
巳	-12.778
楯	-12.7781
局	-12.7781
酬	-12.7782
紛	-12.7783
躡	-12.7783
姉	-12.7783
虔	-12.7784
層	-12.7784
雕	-12.7784
雇	-12.7784
ṇ	-12.7784
述	-12.7785
叡	-12.7785
􂌝	-12.7785
訴	-12.7785
厲	-12.7786
訾	-12.7786
範	-12.7786
簏	-12.7787
嘉	-12.7788
討	-12.7788
駝	-12.7788
b	-12.7788
箱	-12.7789
紙	-12.7789
腋	-12.7789
桁	-12.7789
鵰	-12.779
韋	-12.7791
竿	-12.7791
株	-12.7791
馨	-12.7791
濃	-12.7792
烈	-12.7792
惛	-12.7793
搣	-12.7794
悷	-12.7794
桴	-12.7795
嚥	-12.7795
奄	-12.7796
欬	-12.7796
艶	-12.7797
麵	-12.7798
寔	-12.7798
隻	-12.7799
彰	-12.7799
匐	-12.78
隊	-12.78
澹	-12.78
皓	-12.78
聟	-12.78
豎	-12.78
𣫍	-12.78
廚	-12.78
旁	-12.7802
祛	-12.7803
捔	-12.7803
旗	-12.7803
幟	-12.7803
臍	-12.7803
尿	-12.7804
慠	-12.7806
褻	-12.7807
㵱	-12.7808
抗	-12.7808
尅	-12.7809
錠	-12.781
疏	-12.7812
𠽮	-12.7813
蟆	-12.7816
亭	-12.7817
𠻬	-12.7818
曷	-12.7819
濫	-12.7825
倪	-12.9731
眩	-12.9732
𧓲	-12.975
楣	-12.9752
堓	-12.9755
矚	-12.9756
𣸪	-12.9762
壃	-12.9762
壑	-12.9763
噬	-12.9764
頷	-12.9764
尉	-12.9765
汪	-12.9766
徵	-12.9767
蝎	-12.9768
班	-12.9771
韻	-12.9773
癭	-12.9773
認	-12.9773
晦	-12.9774
帆	-12.9775
淋	-12.9775
凉	-12.9775
佞	-12.9775
傅	-12.9776
勵	-12.9776
莽	-12.9776
軌	-12.9776
㓟	-12.9776
兢	-12.9776
逈	-12.9777
郊	-12.9777
麾	-12.9777
傭	-12.9777
坦	-12.9777
𡱁	-12.9778
莠	-12.9779
韛	-12.9779
拖	-12.978
蛾	-12.978
鐘	-12.978
毅	-12.9781
掖	-12.9781
俞	-12.9782
炤	-12.9782
葛	-12.9783
諄	-12.9783
堊	-12.9783
殆	-12.9784
歿	-12.9784
蔡	-12.9784
閤	-12.9784
餌	-12.9785
菩	-12.9786
崑	-12.9786
兆	-12.9786
勳	-12.9786
躶	-12.9786
誼	-12.9787
嚇	-12.9788
芽	-12.9788
f	-12.9788
熇	-12.9789
丁	-12.9789
P	-12.979
󰪠	-12.979
柰	-12.979
禰	-12.9791
唌	-12.9791
閨	-12.9791
臗	-12.9792
蒸	-12.9792
釀	-12.9792
碍	-12.9792
魄	-12.9793
𨄔	-12.9793
觜	-12.9793
跣	-12.9793
豁	-12.9794
吳	-12.9794
措	-12.9795
𤛆	-12.9795
〉	-12.9795
擥	-12.9796
怏	-12.9796
曚	-12.9796
熅	-12.9796
〈	-12.9796
穽	-12.9796
􂌟	-12.9796
叛	-12.9797
秘	-12.9797
埿	-12.9799
䩕	-12.9799
盂	-12.9799
替	-12.98
訪	-12.9801
榛	-12.9801
伍	-12.9802
壅	-12.9802
煉	-12.9802
鍮	-12.9803
摽	-12.9804
鋤	-12.9804
苟	-12.9804
仇	-12.9805
液	-12.9805
咃	-12.9806
疽	-12.9808
樑	-12.9809
莎	-12.981
職	-12.981
膞	-12.981
羡	-12.9811
魁	-12.9812
矇	-12.9812
估	-12.9812
氈	-12.9815
綠	-12.9817
璅	-12.9817
髂	-12.9821
醇	-12.9823
拙	-12.9823
份	-12.9824
齶	-12.9824
曳	-12.9824
滲	-12.9825
沽	-12.9836
柞	-12.9839
拕	-12.984
懲	-13.2242
刎	-13.2245
磉	-13.2245
府	-13.2248
昂	-13.2249
罐	-13.2251
橛	-13.2253
礼	-13.2257
曒	-13.2258
㭼	-13.2258
遼	-13.2259
泄	-13.2259
操	-13.226
剬	-13.2263
嫡	-13.2263
蟹	-13.2267
混	-13.2267
耎	-13.2267
弼	-13.2269
虬	-13.2271
蒱	-13.2271
儭	-13.2271
𤦛	-13.2271
醎	-13.2272
僥	-13.2273
涸	-13.2273
A	-13.2273
夾	-13.2274
冒	-13.2274
柏	-13.2274
埵	-13.2274
燕	-13.2275
洽	-13.2276
鵒	-13.2276
匕	-13.2276
懇	-13.2276
􂍊	-13.2276
讐	-13.2277
懵	-13.2277
蓐	-13.2278
惣	-13.2278
餮	-13.2278
凞	-13.2278
蠢	-13.228
瞪	-13.228
窗	-13.228
漉	-13.2281
棗	-13.2281
􂌸	-13.2281
笞	-13.2282
涯	-13.2282
篅	-13.2283
邈	-13.2283
𤥭	-13.2283
鳳	-13.2284
杓	-13.2284
藐	-13.2284
釣	-13.2284
銷	-13.2284
餧	-13.2285
裘	-13.2285
麼	-13.2285
膳	-13.2285
T	-13.2286
洛	-13.2287
署	-13.2287
舂	-13.2287
忖	-13.2287
滌	-13.2288
媒	-13.2288
鱗	-13.2288
餾	-13.2288
􂌯	-13.2288
喘	-13.2288
痕	-13.2289
㲉	-13.2289
浩	-13.229
鎗	-13.229
㷔	-13.2291
拷	-13.2291
歛	-13.2291
諧	-13.2292
樟	-13.2294
憘	-13.2294
穫	-13.2294
徙	-13.2294
卉	-13.2294
椑	-13.2294
謔	-13.2294
穬	-13.2295
甕	-13.2295
稈	-13.2295
甯	-13.2295
揣	-13.2296
𤋲	-13.2296
𣯾	-13.2296
抴	-13.2298
𡂡	-13.2298
森	-13.2298
翮	-13.2298
舶	-13.2298
餐	-13.2298
臘	-13.2298
炳	-13.2299
茄	-13.23
京	-13.23
甫	-13.23
鎔	-13.2301
佩	-13.2301
勌	-13.2301
皷	-13.2301
詵	-13.2301
彊	-13.2302
痍	-13.2302
撻	-13.2302
版	-13.2303
埃	-13.2303
疇	-13.2305
堤	-13.2305
膺	-13.2305
胤	-13.2306
鐺	-13.2307
腥	-13.2307
罔	-13.2307
刮	-13.2307
廕	-13.2307
􂌿	-13.2307
只	-13.2307
艾	-13.2308
䂎	-13.2308
暝	-13.2309
亮	-13.2309
拼	-13.2309
誇	-13.231
顫	-13.231
剔	-13.2311
篾	-13.2312
呿	-13.2312
𣟁	-13.2312
盥	-13.2312
𠿘	-13.2314
疥	-13.2315
噫	-13.2316
毱	-13.2316
骸	-13.2317
轟	-13.2317
䍧	-13.2318
絹	-13.2319
椀	-13.2319
魅	-13.2319
剪	-13.232
鋌	-13.2321
格	-13.2324
奸	-13.2325
繪	-13.2327
坏	-13.2327
􂍝	-13.2327
譚	-13.2332
况	-13.2334
絆	-13.2348
豸	-13.2349
添	-13.2353
簁	-13.5517
鏟	-13.5567
筵	-13.5569
僵	-13.5573
隋	-13.5575
几	-13.5577
蹤	-13.5581
喟	-13.5581
㘁	-13.5581
躇	-13.5583
豕	-13.5583
瞬	-13.5584
儜	-13.5585
吮	-13.5589
叱	-13.5592
嫗	-13.5594
遘	-13.5594
盎	-13.5598
憧	-13.5598
硨	-13.56
瞢	-13.56
呞	-13.56
咬	-13.5602
爵	-13.5602
碼	-13.5602
享	-13.5604
咳	-13.5604
采	-13.5604
淹	-13.5604
纊	-13.5606
泯	-13.5608
綾	-13.5608
嘯	-13.5608
拪	-13.5608
杌	-13.5608
燧	-13.5608
隙	-13.561
觚	-13.561
弭	-13.5611
溉	-13.5611
嗤	-13.5612
摘	-13.5612
曆	-13.5612
澇	-13.5612
閭	-13.5612
刊	-13.5613
磐	-13.5614
茵	-13.5614
轍	-13.5614
咨	-13.5614
埻	-13.5614
熹	-13.5615
瞽	-13.5616
抽	-13.5616
舫	-13.5616
敞	-13.5616
怗	-13.5616
崙	-13.5618
譖	-13.5618
蕭	-13.5619
盆	-13.5619
聊	-13.5619
㕮	-13.5619
遽	-13.562
噏	-13.5621
糺	-13.5621
踴	-13.5621
/	-13.5621
X	-13.5621
L	-13.5622
褒	-13.5623
筒	-13.5623
勃	-13.5625
肚	-13.5625
蒭	-13.5625
社	-13.5625
杜	-13.5625
犀	-13.5625
絮	-13.5625
晞	-13.5625
瘳	-13.5626
虻	-13.5627
伯	-13.5627
砂	-13.5627
航	-13.5627
呧	-13.5627
埴	-13.5627
揜	-13.5627
暇	-13.5629
䴏	-13.5629
禳	-13.5629
詢	-13.5629
溜	-13.5629
縹	-13.5629
褐	-13.5629
踣	-13.5629
旅	-13.563
妊	-13.563
脛	-13.5631
婉	-13.5632
冰	-13.5633
蹌	-13.5633
釵	-13.5633
蹙	-13.5633
竦	-13.5633
萄	-13.5633
介	-13.5634
插	-13.5634
獦	-13.5635
雌	-13.5635
冶	-13.5635
仕	-13.5635
昆	-13.5635
眷	-13.5636
万	-13.5637
携	-13.5637
繕	-13.5637
擭	-13.5638
窖	-13.5639
貳	-13.5639
羣	-13.5639
瑪	-13.5641
鈹	-13.5641
糖	-13.5641
燎	-13.5641
銳	-13.5641
尻	-13.5642
悼	-13.5643
斜	-13.5643
尫	-13.5643
裕	-13.5643
塜	-13.5643
B	-13.5645
秏	-13.5645
獎	-13.5645
扠	-13.5646
盖	-13.5646
竈	-13.5646
綏	-13.5648
㲪	-13.5648
祈	-13.5648
脯	-13.5649
瓨	-13.5649
俊	-13.5652
柟	-13.5652
廂	-13.5654
禂	-13.5662
毳	-13.5664
鎻	-13.5669
魯	-13.5672
拱	-13.5675
窈	-13.5691
裳	-13.985
駱	-14.0549
搔	-14.0615
苾	-14.0617
宛	-14.062
閃	-14.0621
婇	-14.0621
M	-14.0621
涅	-14.0624
懶	-14.0631
邸	-14.0636
痒	-14.0642
搜	-14.0643
靴	-15.0428
霍	-15.0429
鏵	-15.043
鍬	-15.0431
鋑	-15.0432
邇	-15.0433
諭	-15.0434
褊	-15.0435
衡	-15.0436
蛭	-15.0437
蕪	-15.0438
腴	-15.0439
肖	-15.044
肋	-15.0441
翹	-15.0442
紜	-15.0443
糴	-15.0444
糅	-15.0445
穆	-15.0446
稀	-15.0447
秔	-15.0448
睦	-15.0449
瘢	-15.045
痆	-15.0451
疅	-15.0452
琶	-15.0453
琵	-15.0454
爬	-15.0455
漁	-15.0456
湎	-15.0457
殑	-15.0458
摾	-15.0459
摴	-15.046
搦	-15.0461
揉	-15.0462
挼	-15.0463
拗	-15.0464
忸	-15.0465
弦	-15.0466
庵	-15.0467
崗	-15.0468
嬪	-15.0469
壻	-15.047
哦	-15.0471
僊	-15.0472
倐	-15.0473
俄	-15.0474
丞	-15.0475
㸌	-15.0476
㨑	-15.0477
ṣ	-15.0478
􂍋	-15.0479
𨍉	-15.048
𦋺	-15.0481
𥯤	-15.0482
𥈐	-15.0483
𣽈	-15.0484
𢤱	-15.0485
鼾	-15.0486
黈	-15.0487
鸛	-15.0488
鷺	-15.0489
鱉	-15.049
韑	-15.0491
隈	-15.0492
鍵	-15.0493
豌	-15.0494
蝮	-15.0495
蝗	-15.0496
藿	-15.0497
股	-15.0498
籮	-15.0499
篌	-15.05
箜	-15.0501
笮	-15.0502
稊	-15.0503
碾	-15.0504
砧	-15.0505
皿	-15.0506
疵	-15.0507
甄	-15.0508
璣	-15.0509
烹	-15.051
沉	-15.0511
歐	-15.0512
榴	-15.0513
楊	-15.0514
搨	-15.0515
挈	-15.0516
抒	-15.0517
惻	-15.0518
帥	-15.0519
嚧	-15.052
匍	-15.0521
匂	-15.0522
亢	-15.0523
䛕	-15.0524
Ā	-15.0525
V	-15.0526
D	-15.0527
騁	-15.0528
餔	-15.0529
隍	-15.053
蘅	-15.0531
萍	-15.0532
芒	-15.0533
舋	-15.0534
臟	-15.0535
粧	-15.0536
穰	-15.0537
琁	-15.0538
燸	-15.0539
熢	-15.054
榵	-15.0541
敲	-15.0542
挃	-15.0543
拮	-15.0544
戢	-15.0545
憺	-15.0546
惔	-15.0547
廉	-15.0548
幖	-15.0549
嶔	-15.055
峨	-15.0551
夙	-15.0552
圊	-15.0553
哪	-15.0554
㶿	-15.0555
㚘	-15.0556
ṅ	-15.0557
ñ	-15.0558
黿	-15.0559
麋	-15.056
鷂	-15.0561
鏃	-15.0562
贈	-15.0563
蜚	-15.0564
蚑	-15.0565
禹	-15.0566
礓	-15.0567
瘀	-15.0568
爴	-15.0569
煌	-15.057
洫	-15.0571
氂	-15.0572
欷	-15.0573
捃	-15.0574
悍	-15.0575
孜	-15.0576
妐	-15.0577
佷	-15.0578
膾	-15.0579
箕	-15.058
疣	-15.0581
憔	-15.0581
創	-15.0581
墓	-15.0582
儔	-15.0583
什	-15.0584
j	-15.0585
疋	-15.0586
戚	-15.0587
廩	-15.0588
壠	-15.0589
墎	-15.059
俸	-15.0591
v	-15.0592
鼎	-15.0593
驉	-15.0594
蟇	-15.0595
蒺	-15.0596
紩	-15.0597
猨	-15.0598
揖	-15.0599
徘	-15.06
徊	-15.0601
寮	-15.0602
剉	-15.0603
姙	-15.0604
䔧	-15.0604
*	-15.0605
蚋	-15.0605
遬	-15.0606
谿	-15.0607
薜	-15.0608
葆	-15.0609
窒	-15.061
濯	-15.0611
湛	-15.0612
料	-15.0613
擻	-15.0614
抖	-15.0615
慾	-15.0616
坎	-15.0617
儼	-15.0618
仿	-15.0619
婿	-15.0619
㥲	-15.062
栿	-15.0621
𩞚	-15.0621
玷	-15.0621
蠻	-15.0622
蓏	-15.0623
耑	-15.0624
繡	-15.0625
粒	-15.0626
簿	-15.0627
磑	-15.0628
疼	-15.0629
徼	-15.0629
禘	-15.0629
廐	-15.063
劖	-15.0631
麑	-15.0632
阨	-15.0633
醒	-15.0634
罝	-15.0635
笈	-15.0636
咷	-15.0637
琦	-15.0637
蜱	-15.0637
〕	-15.0637
淤	-15.0638
暐	-15.0639
抨	-15.064
悕	-15.0641
凋	-15.0642
鵝	-15.0643
罠	-15.0644
襞	-15.0645
蝦	-15.0646
蜎	-15.0647
臚	-15.0648
彗	-15.0649
縠	-15.065
狡	-15.0651
槁	-15.0652
陟	-15.0653
頞	-15.0654
蠰	-15.0654
狌	-15.0655
嶷	-15.0656
匃	-15.0657
釐	-15.0658
謫	-15.0659
荀	-15.066
羖	-15.0661
慟	-15.0662
𨋐	-15.0663
曄	-15.0664
嘩	-15.0665
琥	-15.0666
獷	-15.0667
䭷	-15.0668
螢	-15.0669
蜫	-15.067
濤	-15.0671
港	-15.0672
捍	-15.0673
孩	-15.0674
店	-15.0675
t	-15.0676
湖	-15.0677
姻	-15.0678
d	-15.0679
謹	-15.068
蔗	-15.0681
荊	-15.0682
臈	-15.0683
綩	-15.0684
鹵	-15.0685
蕉	-15.0686
慞	-15.0687
傘	-15.0688
譁	-15.0689
罣	-15.069
瑠	-15.0691
醐	-15.0692
醍	-15.0693
颰	-15.0693
靂	-15.0694
霹	-15.0695
臠	-15.0696
孾	-15.0697
髑	-15.0698
瑜	-15.0699
餚	-15.07
皇	-15.0701
毫	-15.0702
珀	-15.0703
氀	-15.0704
昱	-15.0705
緊	-15.0706
纖	-15.0707
礫	-15.0708
徉	-15.0709
瑚	-15.071
珊	-15.0711
哺	-15.0712
嬰	-15.0713
驃	-15.0714
癢	-15.0715
擁	-15.0716
饉	-15.0717
慇	-15.0718
闥	-15.0719
櫓	-15.072
詈	-15.0721
宴	-15.0722
獼	-15.0723
跏	-15.0724
鸚	-15.0725
袒	-15.0726
垣	-15.0727
巍	-15.0728
壹	-15.0729
諛	-15.073
臾	-15.0731
[	-15.0732
粳	-15.0733
邠	-15.0734
睺	-15.0735
袈	-15.0736
忉	-15.0737
—	-15.0738
N	-15.0739
琉	-15.074
璃	-15.0741
毾	-15.0742
訊	-15.0742
