<unk>	0
<s>	0
</s>	0
也	-2.95878
/	-3.04253
)	-3.63092
(	-3.6654
)(	-3.85504
之	-4.06802
兮	-4.27493
而	-4.48266
以	-4.79025
一作	-4.86731
其	-5.05526
曰	-5.151
不	-5.15478
補曰	-5.23862
為	-5.29379
言	-5.33145
於	-5.34178
音	-5.3525
切	-5.41032
有	-5.42616
,	-5.4943
云	-5.50966
爲	-5.53574
者	-5.60502
作	-5.6324
。	-5.70147
與	-5.73573
一	-5.78471
無	-5.813
行	-5.89766
人	-5.93157
所	-5.94699
君	-5.98977
也補曰	-6.01215
故	-6.02566
山	-6.06874
水	-6.09339
天	-6.10522
子	-6.108
大	-6.11771
則	-6.18156
心	-6.1907
上	-6.20654
何	-6.24238
此	-6.2462
名	-6.26708
中	-6.29425
下	-6.30101
自	-6.31125
謂	-6.35064
見	-6.35089
又	-6.36971
志	-6.37262
王	-6.38846
生	-6.39679
明	-6.40468
也言	-6.40789
思	-6.41635
神	-6.4546
欲	-6.45548
同	-6.46262
字	-6.49052
用	-6.49489
我	-6.49548
長	-6.49659
乎	-6.50448
如	-6.53034
而不	-6.5307
衆	-6.53571
九	-6.53808
流	-6.53956
逺	-6.5508
在	-6.55751
皆	-6.56048
時	-6.5676
亦	-6.56851
至	-6.57077
文	-6.58484
道	-6.6007
相	-6.60311
身	-6.62205
已	-6.62698
草	-6.629
將	-6.63326
日	-6.63832
猶	-6.63875
若	-6.66894
髙	-6.66908
國	-6.68129
巳	-6.70023
得	-6.72525
乃	-6.72942
風	-6.73086
世	-6.73158
去	-6.74297
女	-6.74779
從	-6.74818
余	-6.75359
可	-6.76209
美	-6.7702
知	-6.78153
五	-6.78361
白	-6.79615
方	-6.8046
出	-6.80805
氣	-6.81016
然	-6.81355
只	-6.81514
陽	-6.81605
樂	-6.81899
賢	-6.8226
使	-6.83109
復	-6.83347
多	-6.84878
是	-6.85176
離	-6.85331
蘭	-6.85702
木	-6.85917
正	-6.86234
不可	-6.86894
玉	-6.87733
三	-6.88527
言已	-6.90107
南	-6.90721
貌	-6.92659
獨	-6.9274
雲	-6.93386
能	-6.93533
五臣云	-6.95474
意	-6.97066
注云	-6.97125
屈原	-6.97535
帝	-6.97734
龍	-6.98173
靈	-6.98483
居	-6.98571
今	-6.98892
▁(	-7.01737
憂	-7.0195
江	-7.02326
楚	-7.02641
些	-7.0351
善	-7.03841
德	-7.04108
當	-7.05316
盛	-7.05557
言巳	-7.05619
悲	-7.05959
夫	-7.06075
安	-7.06764
焉	-7.06867
葉	-7.07094
小	-7.07139
古	-7.07972
臣	-7.08484
死	-7.08488
後	-7.08701
于	-7.09133
遂	-7.09801
高	-7.0987
皃	-7.09881
處	-7.1008
一云	-7.10114
入	-7.10241
好	-7.1099
周	-7.11252
鳥	-7.11759
徳	-7.12108
命	-7.12386
車	-7.12547
年	-7.13383
非	-7.13386
補	-7.13848
二	-7.14097
反	-7.15771
?	-7.16023
情	-7.16665
被	-7.16686
地	-7.16942
石	-7.16947
華	-7.16982
歸	-7.17003
雖	-7.17112
極	-7.174
芳	-7.17928
結	-7.18273
四	-7.19145
東	-7.19214
成	-7.19246
香	-7.19988
夏	-7.20987
吾	-7.21219
重	-7.21744
忠	-7.22306
信	-7.22553
西	-7.22674
門	-7.2361
亂	-7.23779
合	-7.23847
哀	-7.23854
路	-7.2436
願	-7.24863
脩	-7.24974
傷	-7.25039
清	-7.25165
過	-7.25286
未	-7.26164
以為	-7.26852
耳	-7.2731
懷	-7.27448
惡	-7.27682
矣	-7.28206
光	-7.28251
舉	-7.28547
容	-7.28649
事	-7.28659
說	-7.28993
失	-7.29251
食	-7.29895
及	-7.30024
北	-7.30184
並	-7.30441
乗	-7.30945
先	-7.31284
異	-7.31471
來	-7.31806
𥙷曰	-7.31886
聲	-7.32551
澤	-7.32609
進	-7.32669
謂之	-7.33335
實	-7.33406
立	-7.33902
引	-7.34375
望	-7.34641
黄	-7.3479
一名	-7.34863
六	-7.35872
服	-7.3739
佞	-7.3779
和	-7.38374
曲	-7.38811
飛	-7.38859
色	-7.39286
常	-7.40443
也五臣云	-7.40638
太	-7.40758
忽	-7.41019
爾雅	-7.41103
以爲	-7.41588
修	-7.41592
乘	-7.4214
花	-7.42574
苦	-7.43014
即	-7.43192
▁	-7.43503
十	-7.43516
難	-7.43684
節	-7.44251
深	-7.44715
説	-7.44747
放	-7.45225
義	-7.45399
既	-7.45423
公	-7.4648
傳	-7.46543
詩	-7.46661
本	-7.47144
内	-7.47976
令	-7.48172
馬	-7.4874
俗	-7.48883
觀	-7.49236
别	-7.49345
伯	-7.494
百	-7.49815
度	-7.49899
視	-7.50385
注	-7.50645
直	-7.5087
終	-7.51086
遊	-7.51989
喻	-7.52129
野	-7.52172
青	-7.52811
幽	-7.5284
求	-7.52842
念	-7.53167
通	-7.53393
經	-7.54001
發	-7.54104
不能	-7.54837
登	-7.55153
害	-7.55298
月	-7.55467
遇	-7.55596
莫	-7.5584
止	-7.56453
絶	-7.56471
語	-7.56522
似	-7.57062
不得	-7.57188
隱	-7.57612
或	-7.58044
馳	-7.58326
前	-7.58421
椒	-7.58837
陳	-7.5885
平	-7.58924
赤	-7.59575
廣	-7.59583
衣	-7.59622
都	-7.60322
懐	-7.61371
誠	-7.61527
士	-7.61911
顧	-7.6216
薄	-7.62171
海	-7.62757
桂	-7.62758
窮	-7.62799
夷	-7.62827
列	-7.6285
也言已	-7.63151
還	-7.63444
疾	-7.63489
形	-7.63561
旣	-7.63651
蔽	-7.64045
愁	-7.6443
往	-7.64873
魂	-7.64959
歎	-7.65443
施	-7.65585
歌	-7.66165
書	-7.66189
紛	-7.66792
必	-7.66944
鳴	-7.67503
分	-7.6766
邪	-7.68173
原	-7.68307
盡	-7.6831
類	-7.68595
解	-7.68938
秋	-7.68952
易	-7.6896
羣	-7.69556
因	-7.69774
且	-7.70296
化	-7.70447
齊	-7.71155
七	-7.71795
星	-7.71823
物	-7.71829
惟	-7.71856
恐	-7.71929
少	-7.71939
蕙	-7.72535
揚	-7.7254
采	-7.72547
玄	-7.72578
竹	-7.72598
變	-7.73274
朝	-7.73317
民	-7.73414
禹	-7.73458
堂	-7.73952
隂	-7.74056
浮	-7.74586
章	-7.74652
固	-7.74786
湯	-7.74836
土	-7.75474
夜	-7.75494
按	-7.75619
而無	-7.76687
無所	-7.76954
雜	-7.7699
間	-7.76992
魚	-7.77002
目	-7.77727
𤣥	-7.77741
動	-7.78557
象	-7.78607
精	-7.79217
逢	-7.79231
執	-7.79285
體	-7.80073
漢	-7.808
聞	-7.80904
誰	-7.80955
始	-7.80966
皇	-7.81493
隨	-7.81615
八	-7.81746
丗	-7.81779
以喻	-7.82065
回	-7.82485
宫	-7.82531
辭	-7.8315
老	-7.8319
惑	-7.83296
藏	-7.84002
張	-7.8406
尚	-7.84118
初	-7.84192
也一云	-7.84864
根	-7.84889
足	-7.84927
春	-7.84966
䰟	-7.84977
己	-7.85097
宜	-7.85793
佩	-7.85855
本草	-7.8618
屈	-7.86295
波	-7.86452
紫	-7.86505
呼	-7.86543
寒	-7.87421
家	-7.87523
以自	-7.88039
受	-7.88325
疑	-7.88377
聖	-7.88457
取	-7.88558
武	-7.89
不知	-7.89163
聊	-7.89921
也言巳	-7.89936
集	-7.89953
駕	-7.89977
數	-7.90048
飾	-7.90078
轉	-7.90825
香草	-7.91114
任	-7.91774
室	-7.91789
首	-7.9266
潔	-7.93285
申	-7.93363
冝	-7.93561
師	-7.93592
㑹	-7.93623
黃	-7.94289
冥	-7.94309
近	-7.94349
淫	-7.94455
崑崙	-7.94528
賦	-7.9499
濁	-7.9527
遭	-7.95271
力	-7.95277
之所	-7.9542
怨	-7.95428
詞	-7.95845
釋	-7.96081
棄	-7.96085
性	-7.96188
徒	-7.96198
隠	-7.96221
伏	-7.96239
彼	-7.96246
禮	-7.9626
英	-7.96274
史記	-7.97087
弃	-7.97095
政	-7.97148
萬	-7.97153
位	-7.97179
次	-7.97192
留	-7.97201
稱	-7.97213
離騷	-7.97263
讒	-7.9745
林	-7.97997
乆	-7.98127
兩	-7.98127
忠信	-7.98542
法	-7.98904
孔	-7.99024
丘	-7.99039
枝	-7.99049
亡	-7.9909
質	-7.99094
虚	-7.99895
朱	-7.99965
積	-7.99971
甚	-7.99992
錯	-8.00016
落	-8.0008
之中	-8.00431
淸	-8.00856
比	-8.00874
左	-8.00924
親	-8.00941
理	-8.00978
孰	-8.0198
詩云	-8.02307
㒵	-8.02817
介	-8.02845
持	-8.02908
角	-8.03039
舊	-8.03412
開	-8.03889
翼	-8.03985
舒	-8.04819
河	-8.04845
后	-8.05005
危	-8.05844
厚	-8.05933
外	-8.06195
折	-8.06908
交	-8.06948
徐	-8.06973
屬	-8.06979
予	-8.07
宿	-8.07872
背	-8.07975
沈	-8.0822
芷	-8.08916
貪	-8.08918
蹇	-8.08966
舜	-8.09015
秦	-8.09051
釋文作	-8.0922
貎	-8.09935
說文	-8.09953
圖	-8.10024
察	-8.10079
黒	-8.10083
沙	-8.1012
官	-8.10126
考	-8.10155
指	-8.1096
味	-8.11064
昭	-8.1107
獸	-8.11103
承	-8.1113
順	-8.11133
吳	-8.11134
暮	-8.11136
滅	-8.11144
徑	-8.11156
御	-8.11168
興	-8.11175
盖	-8.11206
代	-8.11214
衆人	-8.11692
謀	-8.12152
疏	-8.12259
陵	-8.12277
雨	-8.12317
俱	-8.12322
一本	-8.12461
一無	-8.13172
涕	-8.13195
感	-8.13311
載	-8.13346
集韻	-8.14257
胡	-8.14312
識	-8.14397
告	-8.14397
號	-8.14403
治	-8.14412
言己	-8.14446
翔	-8.14478
征	-8.15426
微	-8.15461
羅	-8.15462
遺	-8.15496
忘	-8.15525
之人	-8.16057
戲	-8.16296
郢	-8.16483
州	-8.16529
委	-8.16549
強	-8.16683
山海經	-8.16754
九歌	-8.17036
蒲	-8.1718
氏	-8.17255
竭	-8.17672
逸	-8.1769
著	-8.17748
良	-8.17751
智	-8.17776
輔	-8.17829
紂	-8.17866
甘	-8.18855
横	-8.18884
所以	-8.18981
楚國	-8.19209
永	-8.20039
滿	-8.20076
淵	-8.20115
功	-8.20132
主	-8.20147
殺	-8.20183
也補	-8.20806
雅	-8.21191
聽	-8.21197
覆	-8.21261
冬	-8.21277
卒	-8.21333
父	-8.21438
之山	-8.21572
可以	-8.21843
靡	-8.22346
樹	-8.2238
名也	-8.224
游	-8.22493
蛇	-8.22504
釋文	-8.23513
急	-8.23642
金	-8.23671
由	-8.23689
姓	-8.23702
越	-8.2474
罔	-8.24741
梁	-8.24743
喜	-8.24844
履	-8.24857
恨	-8.24896
堯	-8.24928
邑	-8.24928
射	-8.24939
息	-8.26056
要	-8.26062
待	-8.26106
口	-8.26145
千	-8.2615
羽	-8.26247
文選	-8.26252
益	-8.2738
殷	-8.27396
細	-8.27441
橘	-8.27453
諫	-8.27745
懷王	-8.27805
懐王	-8.27811
天下	-8.27841
種	-8.28282
升	-8.28513
蓋	-8.28581
巫	-8.28876
!	-8.29027
厲	-8.29838
仁	-8.29862
移	-8.29876
覽	-8.29908
舞	-8.29968
應	-8.29986
誤	-8.30003
顔	-8.30729
逝	-8.30883
揺	-8.31133
諸	-8.31222
辛	-8.31243
昔	-8.31312
雷	-8.3253
帶	-8.32536
下有	-8.32571
遠	-8.32625
言君	-8.33101
淮南	-8.33527
鴻	-8.33751
皮	-8.33765
傾	-8.33776
守	-8.33803
里	-8.33837
更	-8.33873
干	-8.33879
橫	-8.33884
伐	-8.33975
豈	-8.33984
羿	-8.34137
明也	-8.34682
曼	-8.35134
驅	-8.35151
以言	-8.35222
共	-8.35271
厥	-8.35365
就	-8.36458
衡	-8.36464
聚	-8.36504
歩	-8.36518
依	-8.36524
達	-8.36532
貴	-8.3655
曽	-8.36566
昌	-8.36596
託	-8.36621
延	-8.36637
火	-8.36648
草木	-8.36754
也𥙷曰	-8.37459
鵠	-8.37729
招	-8.37785
酒	-8.37873
鼓	-8.37911
論	-8.37941
君之	-8.38025
言我	-8.38052
壽	-8.38054
降	-8.38054
㠯	-8.39299
照	-8.3936
幸	-8.39405
咸	-8.39418
棘	-8.39432
歷	-8.39432
索	-8.39443
是也	-8.39555
尤	-8.40712
荒	-8.40758
莖	-8.40801
阿	-8.40818
利	-8.40854
右	-8.40867
但	-8.40902
心中	-8.40934
賢者	-8.41031
賦云	-8.41375
日月	-8.41422
泣	-8.42098
素	-8.42114
侍	-8.42171
旦	-8.42176
飲	-8.42191
俊	-8.42225
巧	-8.42263
遷	-8.42272
工	-8.42297
第	-8.42514
榮	-8.43663
據	-8.43694
元	-8.43707
羊	-8.4376
連	-8.43784
兾	-8.43795
馮	-8.4387
啓	-8.43901
旋	-8.45101
患	-8.4514
蒙	-8.45156
獲	-8.45167
純	-8.45185
娛	-8.45194
側	-8.45216
歳	-8.45239
頭	-8.45284
對	-8.45373
忠直	-8.45643
鬱	-8.46569
空	-8.466
煩	-8.46667
怒	-8.46684
縣	-8.46712
辟	-8.46723
荷	-8.46729
條	-8.46733
川	-8.46784
維	-8.46805
闔	-8.4681
妃	-8.46892
上有	-8.4803
違	-8.48134
瓊	-8.48144
汨	-8.48145
天地	-8.48158
起	-8.48171
冀	-8.48186
毒	-8.48213
彌	-8.48218
枉	-8.48225
穢	-8.48339
句	-8.48341
君子	-8.48781
湘	-8.49481
貞	-8.49661
莽	-8.49739
而自	-8.49768
屋	-8.49772
漸	-8.49774
篇	-8.49784
困	-8.49801
虞	-8.49859
改	-8.49881
舟	-8.49888
愛	-8.49927
讒佞	-8.49968
鮌	-8.4997
魂乎歸徠	-8.50019
九章	-8.5016
此言	-8.50921
水中	-8.50984
谷	-8.51145
闇	-8.51306
昏	-8.51321
逐	-8.51344
唐	-8.51375
勞	-8.51376
營	-8.51416
佯	-8.51438
桑	-8.51474
旗	-8.51505
母	-8.51522
茝	-8.51575
孟	-8.51987
愚	-8.52771
歴	-8.52942
制	-8.53018
惜	-8.5302
導	-8.53022
抑	-8.53052
䝉	-8.53058
慕	-8.5306
定	-8.53105
宗	-8.53133
巻	-8.53168
庭	-8.54366
菜	-8.54505
痛	-8.5457
披	-8.54572
池	-8.54622
塵	-8.54648
陸	-8.54661
蒿	-8.54669
逹	-8.54677
援	-8.54684
所謂	-8.54689
爾	-8.54699
哉	-8.54737
博	-8.54776
艾	-8.5489
賢人	-8.55327
說文云	-8.55392
龜	-8.56224
奔	-8.56253
置	-8.56262
而生	-8.56287
許	-8.56288
舍	-8.56316
設	-8.56387
苗	-8.56434
自傷	-8.57323
所居	-8.57392
人之	-8.57699
靑	-8.57959
懼	-8.57975
曾	-8.58032
病	-8.58038
罪	-8.58062
説文	-8.5811
子曰	-8.59416
何所	-8.59501
差	-8.59516
退	-8.59582
烏	-8.596
含	-8.59621
超	-8.59676
増	-8.59681
瑶	-8.59686
丹	-8.5973
附	-8.59748
笑	-8.59756
䇿	-8.59773
也一無	-8.59775
姱	-8.59807
南方	-8.60236
字補曰	-8.60638
鬼	-8.61353
避	-8.61397
才	-8.61436
汜	-8.61457
芝	-8.61478
侯	-8.6149
斗	-8.61507
寧	-8.6151
畫	-8.61517
尊	-8.61521
匹	-8.61522
推	-8.61558
楚人	-8.61877
史	-8.62862
垂	-8.63142
讀	-8.63196
裳	-8.63213
炎	-8.63218
敗	-8.63275
荃	-8.63278
端	-8.6328
殊	-8.63329
備	-8.63388
思念	-8.63712
去聲	-8.6383
驥	-8.65084
運	-8.6509
建	-8.65124
雄	-8.65129
澆	-8.65211
君不	-8.65213
汩	-8.65231
淮南云	-8.65649
也詩云	-8.65658
何以	-8.6601
也一本	-8.6613
慮	-8.6672
其志	-8.66744
衰	-8.66783
渡	-8.66807
紆	-8.66826
牛	-8.66859
須	-8.66895
悵	-8.66901
昧	-8.66919
造	-8.66919
期	-8.66927
他	-8.66931
菊	-8.66949
鄉	-8.66952
松	-8.6697
保	-8.67009
終不	-8.6702
鄭	-8.67037
船	-8.67078
之士	-8.6754
小人	-8.68455
問	-8.6854
茂	-8.68626
愁思	-8.68654
雞	-8.68722
軫	-8.68751
存	-8.6877
儀	-8.688
弗	-8.68823
撫	-8.68842
䟽	-8.68844
序	-8.68866
臣云	-8.68892
各	-8.68922
私	-8.68931
不同	-8.68985
康	-8.69126
之不	-8.69577
鍾	-8.7068
寤	-8.70686
肉	-8.70719
城	-8.70749
景	-8.70752
荆	-8.70757
黨	-8.70771
輕	-8.70781
徙	-8.70818
遥	-8.70837
蘇	-8.70894
戸	-8.70907
魄	-8.70947
諸侯	-8.70951
河伯	-8.71075
戾	-8.72532
嵗	-8.72592
圃	-8.72621
房	-8.7264
旁	-8.72646
蓀	-8.72649
仰	-8.72674
囘	-8.72682
弱	-8.72688
兹	-8.72689
湛	-8.7269
累	-8.72712
㣲	-8.72753
晉	-8.72754
友	-8.72793
竒	-8.72804
忍	-8.72816
羌	-8.72858
鸞	-8.72871
弟	-8.72883
淮南子	-8.73035
無有	-8.73057
遊戲	-8.73263
周流	-8.73501
記	-8.74375
傅	-8.74622
騰	-8.74628
禄	-8.74629
嘉	-8.74645
辰	-8.7467
壹	-8.74688
穆	-8.74689
孫	-8.74692
散	-8.74721
尺	-8.74721
祖	-8.74775
舎	-8.74778
旌	-8.74782
葢	-8.74854
封	-8.74906
東方	-8.75434
新	-8.76658
倚	-8.76663
愈	-8.76682
閭	-8.76698
操	-8.76717
迫	-8.76742
枯	-8.76751
堅	-8.7676
僞	-8.76766
面	-8.76775
循	-8.76784
閔	-8.76789
泉	-8.76792
茅	-8.76793
久	-8.76794
渚	-8.7681
致	-8.76845
謇	-8.7685
誅	-8.76869
鳳	-8.7689
李	-8.76893
爭	-8.76904
五臣	-8.77036
西北	-8.77576
故曰	-8.77764
仙	-8.7851
愍	-8.78721
驚	-8.78757
霧	-8.78762
調	-8.78778
吕	-8.78797
約	-8.78813
騁	-8.78856
怪	-8.78867
圜	-8.78883
餘	-8.78905
千里	-8.78908
婦	-8.78921
北方	-8.78923
商	-8.78978
九辯	-8.79017
祭	-8.79029
司命	-8.79139
楚詞	-8.7924
又曰	-8.79272
莞	-8.79487
説文云	-8.79787
讒人	-8.79792
夀	-8.80356
上下	-8.80515
沛	-8.80822
􁀙	-8.80891
電	-8.80896
露	-8.80911
閒	-8.8093
郷	-8.80954
瑟	-8.80955
秀	-8.80957
徃	-8.80968
放逐	-8.80974
湖	-8.81023
威	-8.81043
末	-8.81048
擊	-8.8105
手	-8.81052
抱	-8.81053
户	-8.81062
苟	-8.81096
仁義	-8.81099
氛	-8.81116
夢	-8.81171
王逸	-8.81414
鶴	-8.82895
䜛	-8.83035
珠	-8.83068
匿	-8.83082
便	-8.83086
養	-8.83122
子胥	-8.83192
媒	-8.83194
臭	-8.83232
適	-8.83233
增	-8.83235
吉	-8.83265
桀	-8.83276
之神	-8.84321
中心	-8.84399
漠	-8.85198
想	-8.85229
衍	-8.85258
陶	-8.85304
罷	-8.85358
毛	-8.85371
骨	-8.85379
繼	-8.85387
布	-8.85399
真	-8.85407
氷	-8.85409
罰	-8.85416
投	-8.85433
迎	-8.85435
爵	-8.85438
量	-8.8545
虎	-8.85454
臺	-8.85501
二切	-8.85504
熊	-8.85507
狂	-8.85513
爰	-8.85594
席	-8.85833
俗人	-8.86433
寂	-8.87465
稽	-8.87466
陞	-8.87602
王逸註	-8.87614
刀	-8.8762
賤	-8.87627
遵	-8.87639
刺	-8.87646
莊	-8.87669
洲	-8.87671
群	-8.87688
蒼	-8.87697
吴	-8.87704
傺	-8.87716
恣	-8.87719
仲	-8.87754
盈	-8.87776
􁁊	-8.87777
蕪	-8.87838
美人	-8.89033
大夫	-8.89081
戚	-8.89819
顛	-8.89894
牙	-8.8992
刑	-8.89942
習	-8.89962
展	-8.89963
涯	-8.89973
薜荔	-8.89976
鳯	-8.90009
縱	-8.90032
契	-8.90033
管	-8.90066
詳	-8.90165
祀	-8.90167
非是	-8.9063
貌也	-8.91779
軒	-8.92115
悁	-8.92145
憤	-8.92233
杜	-8.92242
叢	-8.92255
冤	-8.92288
沒	-8.92304
醴	-8.92314
賊	-8.92352
假	-8.92381
没	-8.92386
莊子曰	-8.92409
啟	-8.92447
憂愁	-8.93154
吟	-8.94499
騷	-8.945
悴	-8.94523
選	-8.94601
寐	-8.94617
焭	-8.94629
壄	-8.94657
芬	-8.94664
芙蓉	-8.94683
楊	-8.94755
宇	-8.94767
驂	-8.94771
眩	-8.94777
温	-8.94787
漿	-8.9479
劒	-8.94794
肆	-8.94814
忿	-8.94822
田	-8.94852
虛	-8.94854
浩	-8.94855
弓	-8.94863
班	-8.94901
稷	-8.94918
加	-8.94937
歲	-8.94955
東西	-8.95203
天問	-8.95236
忠正	-8.95319
聖人	-8.96138
也言己	-8.96488
蘋	-8.97023
迷	-8.97092
赴	-8.97115
狀	-8.97141
晻	-8.97155
扶	-8.97206
夕	-8.97214
縁	-8.97215
寃	-8.97219
隕	-8.97221
壅	-8.97238
追	-8.9725
險	-8.97256
斷	-8.97259
朋	-8.97263
顚	-8.97279
晦	-8.97284
渉	-8.97318
晏	-8.97332
□	-8.97356
緑	-8.97356
仁傑按	-8.97358
圓	-8.97364
芒	-8.97365
專	-8.97379
再	-8.97396
充	-8.97398
芬芳	-8.97399
冥冥	-8.97408
懸	-8.97509
而長	-8.97872
之道	-8.97917
江南	-8.98164
也一曰	-8.98477
天帝	-8.9911
逺去	-8.99208
蟬	-8.99646
納	-8.99695
臯	-8.99711
琴	-8.99718
泥	-8.9973
斥	-8.99731
斯	-8.99747
鹿	-8.99778
悒	-8.99799
救	-8.99809
臨	-8.99824
遽	-8.99857
麗	-8.99872
冠	-8.99874
召	-8.99938
懲	-8.99961
傳曰	-8.99963
負	-8.99964
荼	-9.0014
之行	-9.00644
山澤	-9.01042
塗	-9.02074
激	-9.02287
繚	-9.02343
黙	-9.02355
務	-9.02388
滑	-9.02398
霓	-9.02402
爛	-9.02412
並音	-9.02429
皓	-9.0248
眇	-9.0249
隅	-9.02523
特	-9.02527
嚴	-9.02611
呉	-9.0266
鳳皇	-9.02679
扈	-9.02719
毁	-9.03172
西方	-9.03315
忠信之	-9.0433
而行	-9.04537
註	-9.04631
棲	-9.0496
竄	-9.04988
廟	-9.05001
巖	-9.05003
鳬	-9.05015
羹	-9.05023
宋	-9.05089
植	-9.05124
濟	-9.05128
騖	-9.0514
彭	-9.05144
齒	-9.05149
一曰	-9.0516
阻	-9.05167
決	-9.05172
接	-9.05182
凡	-9.05199
敬	-9.05225
肯	-9.05247
犬	-9.05267
客	-9.05275
刻	-9.05301
也詩曰	-9.05386
葯	-9.05412
清潔	-9.05462
清白	-9.05816
皆有	-9.06451
十二	-9.07713
崔	-9.07771
葛	-9.07853
廓	-9.07856
偽	-9.0788
雀	-9.07887
檻	-9.07895
覺	-9.07913
靜	-9.07914
走	-9.07925
參	-9.07947
虬	-9.07954
廉	-9.07979
敶	-9.07982
夭	-9.08015
逺遊	-9.08019
叔	-9.08019
堯舜	-9.08022
季	-9.08031
占	-9.08035
牽	-9.08036
卓	-9.0805
吞	-9.08054
比干	-9.08062
甲	-9.08073
翠	-9.08095
梅	-9.08097
革	-9.08107
㓗	-9.08116
平聲	-9.0826
江離	-9.0894
君也	-9.10517
支	-9.10702
菌	-9.10717
禍	-9.10748
奮	-9.10768
蕭	-9.10773
謟	-9.10777
辛夷	-9.10783
雌	-9.10798
徠	-9.10814
淹	-9.10815
戒	-9.10844
毀	-9.10852
短	-9.10863
矢	-9.10902
閉	-9.10945
𬒳	-9.10948
也或曰	-9.10979
陶隠居云	-9.10989
邈	-9.11003
悔	-9.11077
詒	-9.11093
浮雲	-9.11121
法也	-9.1125
武王	-9.11505
顔師古	-9.11915
淮	-9.13488
忌	-9.13532
列子	-9.13541
逶	-9.13557
低	-9.13558
鼎	-9.13607
伊	-9.13613
朗	-9.13644
薠	-9.13673
徂	-9.13674
塞	-9.13715
帷	-9.13717
捐	-9.1374
飄	-9.1375
涼	-9.13757
佳	-9.13774
具	-9.1378
章句第	-9.13803
拂	-9.13824
暴	-9.13835
藥	-9.1385
佚	-9.1385
沅	-9.13864
獻	-9.13865
敢	-9.13869
南北	-9.14073
而日	-9.14844
東南	-9.1495
怊	-9.16627
韓	-9.16639
逰	-9.16647
惻	-9.16665
苴	-9.16671
蕩	-9.16673
闕	-9.16683
羲	-9.16696
消	-9.16704
并	-9.16712
表	-9.16723
銜	-9.16789
淺	-9.16793
掩	-9.16796
蔓	-9.16801
態	-9.1681
蛟龍	-9.16811
韻	-9.16813
左右	-9.16822
楚詞補注巻	-9.16826
吹	-9.16828
乾	-9.16837
畢	-9.16843
垠	-9.16865
霜	-9.16887
妙	-9.16892
裔	-9.16895
茍	-9.16905
步	-9.16954
見騷經	-9.16956
祠	-9.16978
歧	-9.17004
禮記	-9.17211
隂陽	-9.17332
意欲	-9.1806
道德	-9.18103
去也	-9.19061
茹	-9.19566
頽	-9.19598
漫	-9.19609
䛕	-9.197
促	-9.19707
姦	-9.19757
眞	-9.19768
蔡	-9.1979
寄	-9.19818
倡	-9.19835
椉	-9.19836
狹	-9.19841
謗	-9.19843
憤懣	-9.19847
娭	-9.19861
詩曰	-9.1988
欣	-9.19887
殃	-9.19895
孤	-9.19898
器	-9.19912
翳	-9.19921
擥	-9.1995
髮	-9.19967
墮	-9.19973
敷	-9.2001
䠶	-9.20033
奄	-9.20073
證	-9.20124
簡	-9.20212
薺	-9.20231
嚳	-9.20263
二音	-9.20289
四海	-9.20302
重華	-9.20582
亂曰	-9.20908
而不能	-9.21017
皃也	-9.22294
記云	-9.22679
所在	-9.2268
明君	-9.22716
将	-9.22957
握	-9.22971
諛	-9.23001
米	-9.23053
臧	-9.23066
除	-9.23069
仕	-9.23096
郭	-9.231
迅	-9.23104
省	-9.2312
葵	-9.2316
輿	-9.23171
蜺	-9.23216
戰	-9.23244
伊尹	-9.23249
汝	-9.23276
博雅	-9.23277
冰	-9.23281
浦	-9.23425
往來	-9.23636
不合	-9.24033
夫何	-9.2429
皇天	-9.24616
天地之	-9.25403
光明	-9.25442
不死	-9.25526
之類	-9.25597
寳	-9.26224
鴟	-9.26272
滛	-9.26284
伍	-9.26287
濵	-9.26291
畔	-9.26348
觸	-9.26351
競	-9.26371
澧	-9.26375
虺	-9.26377
繩	-9.26382
坎	-9.26411
盤	-9.26413
規	-9.26419
杳	-9.26436
聼	-9.26441
慨	-9.26446
黑	-9.26459
潤	-9.2646
虹	-9.26471
妄	-9.26478
駟	-9.26478
冉	-9.26487
嗟	-9.26488
仞	-9.26498
危殆	-9.26503
計	-9.26506
熱	-9.26519
襲	-9.26521
庸	-9.26526
竝	-9.26531
關	-9.26553
崇	-9.26566
萃	-9.26578
浴	-9.2658
榖	-9.26584
禁	-9.26586
惠	-9.26601
尚書	-9.26656
津	-9.26716
白芷	-9.26941
不遇	-9.27665
舊音	-9.28018
容與	-9.28846
又何	-9.29244
而後	-9.29692
吸	-9.2972
廹	-9.29794
眇眇	-9.29827
顯	-9.29839
俞	-9.29849
熟	-9.29863
紀	-9.29869
凶	-9.29885
凌	-9.29888
豫	-9.29908
尹	-9.29911
到	-9.29937
零	-9.29946
敖	-9.29956
滯	-9.29967
壁	-9.29974
勢	-9.29975
酌	-9.29979
轡	-9.29981
鮮	-9.29983
烝	-9.29986
忳	-9.30014
醢	-9.30021
孝	-9.30027
髪	-9.30028
巨	-9.30034
楸	-9.30043
憑	-9.30047
豹	-9.30048
放弃	-9.30051
撰	-9.30056
而見	-9.3007
萬物	-9.30095
會	-9.301
杜蘅	-9.30113
畝	-9.30122
勝	-9.30125
眾	-9.30158
狀如	-9.30251
漢書	-9.30258
葉似	-9.30396
太一	-9.31298
蓬	-9.3316
弧	-9.333
娱	-9.33301
蓴	-9.33303
鴈	-9.33338
寥	-9.33369
蟻	-9.33389
梟	-9.33419
簫	-9.3342
曠	-9.33422
鴞	-9.33424
果	-9.33437
悽	-9.33444
汙	-9.3345
洛	-9.33459
策	-9.33469
蒸	-9.3347
寸	-9.33472
愴	-9.33472
諌	-9.33475
漁父	-9.33494
乖	-9.33504
狐	-9.3351
茞	-9.33519
絲	-9.33524
糅	-9.3354
送	-9.33553
續	-9.33558
恒	-9.33559
配	-9.33576
鑿	-9.33577
凍	-9.33577
秉	-9.3358
埃	-9.33581
朴	-9.33581
嫉妬	-9.33582
幼	-9.33583
妖	-9.33583
職	-9.33592
譖	-9.33629
春秋	-9.33637
鳥獸	-9.33678
浞	-9.33733
古本	-9.33745
仙人	-9.33845
歸來	-9.34192
一種	-9.34223
神明	-9.34369
百草	-9.34398
史記作	-9.34815
之詞	-9.3518
憂也	-9.36599
忠直之	-9.36627
也五臣	-9.36652
酸	-9.36958
志意	-9.36977
蘘荷	-9.36993
祝融	-9.37027
摧	-9.37047
羮	-9.3707
駑	-9.3708
郎	-9.37152
汎	-9.37162
血	-9.37166
尾	-9.37168
昆	-9.37183
萎	-9.37201
燭	-9.37205
雪	-9.37228
畏	-9.37231
校	-9.37237
峻	-9.37241
勤	-9.3726
絕	-9.37268
逴	-9.37272
叶韻	-9.37296
墜	-9.37298
像	-9.3732
機	-9.37322
迹	-9.37324
竟	-9.37343
邊	-9.37356
驪	-9.37407
賜	-9.37409
獵	-9.37468
湯谷	-9.37484
釋文第	-9.37521
薦	-9.37613
杜若	-9.37623
言日	-9.37832
湘君	-9.38021
之處	-9.38117
猶未	-9.38376
中有	-9.38676
氏之	-9.39186
郭璞	-9.40269
如此	-9.40728
穴	-9.40782
速	-9.40791
宴	-9.40792
柔	-9.40807
蜀	-9.40813
究	-9.40902
徘徊	-9.40905
階	-9.4091
燕	-9.40919
溢	-9.40979
轅	-9.4099
墨	-9.40993
洞	-9.40996
教	-9.41008
拘	-9.41016
雉	-9.41043
誓	-9.41045
蜜	-9.41057
帳	-9.41059
辨	-9.41061
厭	-9.41078
櫂	-9.4108
府	-9.41081
膏	-9.41124
繁	-9.41128
旍	-9.41136
誦	-9.41136
收	-9.41142
大人賦	-9.41161
狼	-9.41176
諷	-9.41179
鳯皇	-9.41187
朕	-9.41199
兵	-9.412
録	-9.41202
賢愚	-9.41213
佐	-9.41235
咸池	-9.41279
豐隆	-9.41282
山鬼	-9.41744
道徳	-9.42502
然則	-9.43924
自沈	-9.44016
辱	-9.44724
眷	-9.4473
丁	-9.44827
典	-9.44829
虎豹	-9.44843
免	-9.44874
排	-9.44888
亦有	-9.44905
菀	-9.44928
振	-9.44953
叩	-9.44969
偃蹇	-9.44973
鱗	-9.44982
謹	-9.45006
苑	-9.45009
緣	-9.45025
畜	-9.4503
濫	-9.4503
咎	-9.45033
頗	-9.4504
庶	-9.45055
紉	-9.45058
竽	-9.45071
淩	-9.45073
沐	-9.45074
讓	-9.45075
醜	-9.45079
驕	-9.45089
憎	-9.45097
聴	-9.45101
嫉	-9.45117
束	-9.45121
廢	-9.45125
扵	-9.45137
楫	-9.45159
迴	-9.45162
案	-9.45163
謝	-9.45185
宮	-9.45211
詐	-9.45212
剖	-9.45216
太息	-9.45242
篤	-9.4526
逺逝	-9.45386
九州	-9.45556
而得	-9.45727
註云	-9.45795
精神	-9.45796
風俗	-9.45886
然後	-9.46251
進用	-9.46251
逺兮	-9.46256
二女	-9.46455
又有	-9.46474
菰	-9.48548
睩	-9.48904
鶉	-9.48978
臑	-9.49014
惶	-9.49023
䧟	-9.49028
眉	-9.49055
辯	-9.49077
寛	-9.49095
權	-9.49105
陟	-9.49127
静	-9.49133
烈	-9.49134
倒	-9.49134
閑	-9.49134
垢	-9.49135
媚	-9.49136
卑	-9.49141
富	-9.4915
衞	-9.4916
衛	-9.49187
緩	-9.49192
謬	-9.49211
譽	-9.49211
勇	-9.49222
膺	-9.4923
偃	-9.49236
網	-9.49247
芰	-9.49251
福	-9.49267
襃	-9.49267
儵	-9.49274
衰老	-9.49277
欽定四庫全書	-9.49278
唯	-9.49284
麻	-9.49284
苓	-9.49285
沅湘	-9.49286
㝠	-9.49299
述	-9.49302
邅	-9.49305
遙	-9.49324
圎	-9.49344
揆	-9.49364
闗	-9.49373
社	-9.49382
鯀	-9.49395
叙	-9.49396
妻	-9.49402
變易	-9.49514
菉	-9.49552
藻	-9.49592
幹	-9.49787
白色	-9.50179
失志	-9.50655
先王	-9.50808
或作	-9.51756
孟子	-9.52464
同志	-9.52985
囿	-9.53299
栗	-9.53334
屑	-9.53346
吐	-9.53346
普	-9.53393
潭	-9.534
歡	-9.53407
厄	-9.53407
楹	-9.53429
効	-9.53439
悠悠	-9.53442
慶	-9.53453
豐	-9.5346
卧	-9.53464
與此	-9.53478
殿	-9.53492
逆	-9.53502
欷	-9.53506
溷	-9.53512
源	-9.53518
司	-9.53518
諂	-9.53529
屯	-9.53535
妬	-9.53536
駝	-9.53538
曼曼	-9.53563
業	-9.53576
虧	-9.53577
葅	-9.53615
鬱鬱	-9.53621
奉	-9.53629
菲	-9.53638
佪	-9.53644
劉	-9.53648
嬋	-9.53653
彰	-9.5366
逍遥	-9.53666
男	-9.5368
形體	-9.537
慿	-9.53702
七諫	-9.53724
卉	-9.53737
澹	-9.5375
郭璞註	-9.53787
愁苦	-9.53986
離騷經	-9.54048
太公	-9.54148
下文	-9.54212
椒蘭	-9.54358
正直	-9.54379
申生	-9.54516
美玉	-9.54989
木蘭	-9.55247
憂心	-9.56057
之外	-9.56713
獨行	-9.57385
蘆	-9.57709
臛	-9.57764
滂	-9.57832
燿	-9.57848
阜	-9.57874
魁	-9.57897
霏	-9.57925
懈	-9.57929
糾	-9.57938
晨	-9.57955
逃	-9.57995
胷	-9.57996
窈	-9.58001
徴	-9.58006
慘	-9.58012
桐	-9.58016
騎	-9.58025
糧	-9.58039
恩	-9.58041
玩	-9.58048
僑	-9.58064
沸	-9.58068
寶	-9.58072
凝	-9.58073
媮	-9.58075
向	-9.58076
艸	-9.58103
耀	-9.58105
矯	-9.58115
愼	-9.58123
僕	-9.58134
仇	-9.58151
震	-9.58155
牧	-9.58161
麥	-9.58163
割	-9.58164
蜿	-9.58179
兆	-9.58179
審	-9.58183
台	-9.58186
陷	-9.58195
鳩	-9.58205
涉	-9.58213
豪	-9.58213
均	-9.58216
嘗	-9.5823
嶷	-9.58232
卿	-9.5824
扶桑	-9.58245
廬	-9.58261
魂兮歸來	-9.58268
洞庭	-9.5827
屠	-9.58285
法度	-9.58342
楚辭	-9.58606
忠臣	-9.5885
郭璞云	-9.58942
帝謂	-9.60754
世溷濁	-9.61922
一注云	-9.62231
筆	-9.62459
慄	-9.62501
礚	-9.6253
柘	-9.62578
皇皇	-9.62622
柏	-9.62625
板	-9.62663
瞀	-9.62666
愉	-9.62673
坐	-9.62709
豆	-9.62718
菅	-9.6272
飯	-9.62728
瞻	-9.62737
蟲	-9.62738
泄	-9.6274
奔走	-9.62744
抽	-9.62746
湍	-9.62769
候	-9.62769
晞	-9.62781
快	-9.62791
鉏	-9.62798
譬	-9.62798
組	-9.62802
鄙	-9.62804
壇	-9.62805
嘉祐圖經云	-9.6282
駿	-9.62823
鄣	-9.62826
馨	-9.62829
鎭	-9.62831
幾	-9.62835
憚	-9.62847
騷經	-9.62851
崑	-9.62867
貧	-9.62882
丈	-9.62896
局	-9.62918
韶	-9.62922
謳	-9.62923
言司命	-9.62926
傑	-9.62933
恢	-9.62933
貫	-9.62939
趾	-9.62947
住	-9.6295
况	-9.62959
廷	-9.62961
郡	-9.62961
彈	-9.62972
兄	-9.62972
暗	-9.62998
姬	-9.62998
飲食	-9.63001
滋	-9.63015
晝夜	-9.63026
勺	-9.63035
飽	-9.6306
宋玉	-9.63085
言楚國	-9.63093
飄風	-9.63096
淫淫	-9.63155
陳列	-9.63256
山谷	-9.6351
聖明	-9.64342
本作	-9.65405
濿	-9.67358
𥙷	-9.67437
界	-9.67485
鴳	-9.67503
璣	-9.67548
攘	-9.67588
訾	-9.67618
蛟	-9.67624
隔	-9.67626
濡	-9.6765
宣	-9.67663
汚	-9.67663
淹留	-9.67666
濳	-9.67702
愬	-9.67737
黎	-9.67741
逞	-9.67743
凉	-9.67749
破	-9.67754
遁	-9.67763
来	-9.67763
休	-9.67766
泠	-9.67768
採	-9.67773
鶩	-9.67773
峨峨	-9.67778
渠	-9.67805
皐	-9.67809
禽	-9.67821
低佪	-9.67828
愽	-9.67828
壓	-9.67828
揖	-9.67831
圉	-9.67842
等	-9.67849
躇	-9.67856
陸璣	-9.67858
蓄	-9.67866
閨	-9.67883
揭	-9.67889
㳺	-9.67901
全	-9.67901
搴	-9.67901
劉向	-9.67903
婉	-9.67904
曜	-9.67907
厯	-9.67911
脂	-9.67914
際	-9.67917
總	-9.67934
曹	-9.67941
娶	-9.67949
摶	-9.67971
先祖	-9.67973
卷	-9.67975
㢮	-9.67979
弭	-9.67985
僻	-9.67986
梓	-9.67986
甞	-9.67992
矩	-9.68005
牀	-9.68012
衽	-9.68019
尸	-9.68049
嗣	-9.68061
兼	-9.68092
兔絲	-9.68102
蘼蕪	-9.68141
言巳欲	-9.68244
思慮	-9.68247
潔白	-9.68366
大招	-9.68819
屈子	-9.6927
盛貌	-9.69362
吾將	-9.69664
言楚	-9.70519
取其	-9.71847
珍	-9.71852
葍	-9.72604
藑	-9.72715
覩	-9.72867
議	-9.72925
洪	-9.72943
橘柚	-9.7295
囚	-9.7296
胥	-9.72965
蒜	-9.72979
杳杳	-9.72999
箘	-9.73018
昂	-9.73023
係	-9.73026
匡	-9.73028
曉	-9.73031
粱	-9.73054
句末	-9.73084
播	-9.73089
陂	-9.73094
璧	-9.73098
咎繇	-9.73102
蓮	-9.73104
謡	-9.73107
肌	-9.73108
效	-9.73119
遑	-9.73126
疲	-9.73132
戎	-9.73137
輪	-9.73155
薫	-9.73166
雕	-9.73169
早	-9.7317
趨	-9.73173
沼	-9.73179
鈎	-9.73182
恃	-9.73182
尋	-9.73186
族	-9.73189
巴	-9.73192
者屈原之所作也	-9.73194
卜居	-9.73195
缺	-9.73201
墬	-9.73205
亷	-9.7321
狐疑	-9.73212
悶	-9.7323
纂	-9.73234
洋洋	-9.73245
繽	-9.73252
纕	-9.73259
敎	-9.73267
中央	-9.73323
鼂	-9.73332
湘夫人	-9.73367
杜衡	-9.7338
忠貞	-9.73397
黄帝	-9.74278
人謂之	-9.7556
意中	-9.76056
天命	-9.76429
古人	-9.77356
卭	-9.77958
岑	-9.78112
慌	-9.78203
蛩	-9.7838
怫鬱	-9.78386
藂	-9.7843
晃	-9.78441
律	-9.7846
舩	-9.78486
嶺	-9.78491
詰	-9.78499
鵾	-9.78502
懿	-9.78509
曀	-9.78526
溶	-9.7853
詬	-9.78531
綺	-9.78554
奚	-9.78567
旎	-9.7857
蘅	-9.78571
欺	-9.78574
徧	-9.78581
强	-9.78581
榜	-9.78583
聦	-9.78601
半	-9.78608
姿	-9.78613
釣	-9.78613
踰	-9.78625
竢	-9.78628
􁓒	-9.78637
牡	-9.78645
耿	-9.78646
嗜	-9.78659
駭	-9.78665
繩墨	-9.78672
瞽	-9.78677
纁	-9.78679
弛	-9.78687
擇	-9.78695
柱	-9.78701
肥	-9.78703
緯	-9.78704
萹	-9.78707
慎	-9.78708
巒	-9.78708
貢	-9.78718
耕	-9.78723
值	-9.78729
沖	-9.78741
沉	-9.78743
䕃	-9.78743
助	-9.78758
宋洪興祖撰	-9.7877
侁	-9.78771
育	-9.78778
桂樹	-9.78786
煙	-9.7879
供	-9.78803
奇	-9.78804
祐	-9.78808
袖	-9.78818
蓱	-9.78825
葬	-9.78829
哲	-9.78831
媛	-9.78832
鴆	-9.78832
譏	-9.7884
攬	-9.78864
斟	-9.7887
它	-9.78882
后土	-9.78885
袂	-9.78896
億	-9.78927
叢生	-9.78969
江河	-9.78972
䰟魄	-9.78989
補曰左傳	-9.79108
薋	-9.7911
黃帝	-9.79241
天庭	-9.79376
溷濁	-9.79859
逺望	-9.80253
内自	-9.80506
言已欲	-9.81649
補曰説文	-9.83516
自喻	-9.83576
碕	-9.84063
憭	-9.84202
襜	-9.84215
藜	-9.84276
隴	-9.84276
軌	-9.84285
恥	-9.84314
瀣	-9.84326
皎	-9.84339
攝	-9.84344
肝	-9.8435
京	-9.84353
屏	-9.84384
婁	-9.84392
憫	-9.84396
陋	-9.84399
役	-9.84427
稻	-9.84445
宛	-9.84457
魯	-9.84483
綿	-9.84515
斲	-9.84516
泝	-9.84519
錫	-9.84527
炙	-9.8453
雍	-9.84536
巡	-9.84542
堇	-9.84545
躬	-9.84545
庚	-9.84545
潺湲	-9.84547
園	-9.84554
藝	-9.84557
朔	-9.84561
谿	-9.84563
翺翔	-9.84565
𤼵	-9.84571
晈	-9.84576
萌	-9.84584
偶	-9.84589
壞	-9.84591
鈍	-9.84593
魏	-9.84593
淨	-9.84597
弊	-9.84598
寵	-9.84599
狩	-9.84607
殆	-9.84608
収	-9.8461
菹	-9.84612
蔞	-9.84616
題	-9.84619
墳	-9.8462
膠	-9.84621
儒	-9.84625
奏	-9.84655
喟	-9.84696
脅	-9.84696
襄	-9.847
彗	-9.84702
祿	-9.84705
別	-9.84708
下音戸	-9.84713
剛	-9.84723
醫	-9.84723
猶豫	-9.84743
吕望	-9.84787
《	-9.84801
》	-9.84801
姜	-9.84826
該	-9.84843
粉	-9.84848
唐本註云	-9.84854
眐	-9.84859
雨師	-9.85019
三危	-9.85276
羣小	-9.85358
三月	-9.85586
西極	-9.85806
楚辭卷第	-9.88285
云今	-9.89392
悄	-9.90371
睹	-9.90441
遼	-9.90479
悠	-9.90518
休息	-9.90532
蓍	-9.90532
躍	-9.90538
杭	-9.90573
仆	-9.90582
眼	-9.90589
邁	-9.90601
丑	-9.90606
跳	-9.90607
仿	-9.90608
洶	-9.9062
瀬	-9.90624
鼈	-9.90632
蠢	-9.90636
慜	-9.90646
繪	-9.90661
涌	-9.90664
犇	-9.90668
讒䛕	-9.90674
耦	-9.90699
責	-9.90703
邦	-9.90709
偷	-9.90725
肩	-9.9074
腐	-9.90747
枯槁	-9.90754
浪	-9.90756
逾	-9.90758
寡	-9.9076
嶓	-9.90762
翩	-9.90769
瞑	-9.90776
謨	-9.90776
泛	-9.90776
饒	-9.90777
娯	-9.90786
參差	-9.90791
闐	-9.90794
諱	-9.90796
捷	-9.90797
防	-9.90798
潛	-9.908
示	-9.90805
醉	-9.90835
佇	-9.90837
姑	-9.90838
跡	-9.9084
澒	-9.90841
術	-9.90846
校書郎臣王逸上	-9.90863
自憐	-9.90872
窺	-9.90881
蛾	-9.90882
拔	-9.90891
隘	-9.90891
禦	-9.90901
鏤	-9.90901
㣻	-9.90907
伴	-9.90912
纓	-9.90926
奥	-9.9093
綴	-9.90942
激楚	-9.9096
訓	-9.90964
析	-9.90965
亮	-9.9097
薆	-9.9097
曳	-9.90973
溪	-9.90977
腹	-9.90983
懭	-9.90992
箸	-9.91002
沾	-9.91008
斑	-9.91024
冶	-9.91028
十四	-9.91032
鏗	-9.91036
晚	-9.91038
賔	-9.91045
;	-9.91088
進退	-9.91105
讀若	-9.9119
浩蕩	-9.91197
隱士	-9.91414
窮極	-9.91537
江東	-9.92056
楚辭卷第十	-9.93465
師古云	-9.95117
嗷	-9.96873
圗	-9.97027
萍	-9.97066
胹	-9.97068
葭	-9.97078
旬	-9.97085
稍	-9.97105
怫	-9.97188
叛	-9.97189
了	-9.97206
擗	-9.97206
鋭	-9.97253
頓	-9.97263
烹	-9.97268
塊	-9.9727
翅	-9.97311
竊	-9.97313
悼	-9.97338
怛	-9.9734
巖穴	-9.97347
楣	-9.97354
編	-9.9736
􁛜	-9.97361
聰	-9.97371
詘	-9.97374
矇	-9.97378
圖經云	-9.97394
陳藏器云	-9.97397
遲	-9.97405
儲	-9.97413
悉	-9.97413
距	-9.97423
暇	-9.97424
單	-9.97426
岡	-9.97431
軍	-9.97434
仁傑按山海經	-9.97462
俇	-9.97465
麾	-9.97467
曖	-9.97468
瑞	-9.97472
鐘	-9.97479
俛	-9.97489
緫	-9.97492
瀨	-9.97495
坤	-9.97497
薑	-9.975
虫	-9.97501
檐	-9.97506
勿	-9.97515
琅	-9.97517
囊	-9.9753
俾	-9.97531
犯	-9.97536
學	-9.97538
有節度	-9.97544
濕	-9.9755
悟	-9.97554
包	-9.97559
䰟兮歸來	-9.97573
詭	-9.9758
蒪	-9.97586
夲	-9.97588
墟	-9.97593
味甘	-9.97596
撃	-9.97597
妒	-9.97605
麤	-9.97606
廵	-9.97609
蛾眉	-9.97613
年嵗	-9.97632
也天對云	-9.97637
雙	-9.9764
頃襄	-9.97642
産	-9.97658
溘	-9.97662
悦	-9.97674
从	-9.97694
試	-9.97716
萬民之	-9.97745
放棄	-9.97815
洪水	-9.9793
苦菜	-9.98088
杓	-9.98102
陳辭	-9.98181
有也字	-9.98556
蔽日	-9.98815
十日	-9.9924
藟	-10.0404
宵	-10.0409
潢	-10.0411
鵕	-10.0416
嫭	-10.0422
􁪡	-10.0424
株	-10.0427
戃慌	-10.043
溶溶	-10.0432
鞠	-10.0433
嗌	-10.0433
昇	-10.0433
鷄	-10.0434
筐	-10.0434
薰	-10.0436
腸	-10.0436
塺	-10.0436
藪	-10.0437
踵	-10.0438
弋	-10.044
睨	-10.0441
眠	-10.0442
玊	-10.0442
酢	-10.0442
曷	-10.0442
裏	-10.0443
財	-10.0444
陿	-10.0445
欿	-10.0445
銳	-10.0446
遘	-10.0448
霑	-10.0448
猒	-10.0448
奴	-10.0449
攀	-10.0449
邵	-10.045
仁傑	-10.045
甑	-10.0452
岐	-10.0455
栢	-10.0456
蜀本圖經云	-10.0457
軼	-10.0457
鬢	-10.0457
冢	-10.0458
符	-10.0458
愆	-10.0458
餌	-10.0459
廩	-10.0459
油	-10.0459
央	-10.046
藿	-10.046
厠	-10.046
輈	-10.0462
撟	-10.0462
掲	-10.0462
纎	-10.0463
巢	-10.0463
籠	-10.0463
絜	-10.0464
最	-10.0465
撓	-10.0465
彊	-10.0466
彭咸之	-10.0466
淪	-10.0467
費	-10.0467
箭	-10.0467
浸	-10.0467
歇	-10.0468
鴂	-10.0468
滄浪之水	-10.0469
訥	-10.0469
女嬃	-10.047
毅	-10.047
堅固	-10.047
濯	-10.0471
枚	-10.0472
遏	-10.0472
鄰	-10.0473
廻	-10.0474
竦	-10.0475
狗	-10.0475
皷	-10.0475
趣	-10.0475
式	-10.0475
玦	-10.0476
邃	-10.0477
耿耿	-10.0479
蒻	-10.0479
賈	-10.048
郊	-10.0481
崙	-10.0482
棊	-10.0484
沬	-10.0488
黃昏	-10.049
殤	-10.0491
􁂆	-10.0493
程	-10.0494
姚	-10.0496
讒邪	-10.0519
葦	-10.1155
蛄	-10.1156
芸	-10.1157
叫	-10.1181
柴	-10.1188
慼	-10.1193
瓟	-10.1195
訴	-10.1204
漫漫	-10.1204
偟	-10.1205
虖	-10.1209
齧	-10.1211
汗	-10.1214
報	-10.1214
宰	-10.1215
璋	-10.1216
倫	-10.1216
鎮	-10.1217
㬰	-10.1218
脱	-10.1218
賈誼	-10.1219
羞	-10.122
臂	-10.1221
柄	-10.1222
橋	-10.1222
每	-10.1222
遐	-10.1222
倉	-10.1223
犀	-10.1223
綱	-10.1226
莎	-10.1226
鼔	-10.1228
逮	-10.1228
愠	-10.1229
瓦	-10.1229
膓	-10.1229
筮	-10.123
沈抑而不	-10.123
漱	-10.1231
絃	-10.1231
瀆	-10.1232
罹	-10.1233
鋏	-10.1233
恭	-10.1234
猨狖	-10.1234
削	-10.1234
諭	-10.1234
􁇻	-10.1235
漂	-10.1236
刈	-10.1237
霤	-10.1237
巔	-10.1237
緒	-10.1239
掌	-10.1239
紅	-10.124
慈	-10.124
歔欷	-10.1241
壊	-10.1242
謾	-10.1243
農	-10.1244
敏	-10.1244
􁌁􁌁	-10.1245
區	-10.1245
尖	-10.1247
塡	-10.1249
溺	-10.1249
氾	-10.1251
尤過也	-10.1253
芎藭	-10.1253
畦	-10.1253
屏翳	-10.1254
茸	-10.1254
脊	-10.1255
怡	-10.1256
:	-10.1257
申重也	-10.1257
􁈔	-10.1259
畹	-10.1259
貽	-10.126
鷖	-10.1261
讎	-10.1263
鼠	-10.1294
榝	-10.1301
隋	-10.1979
黧	-10.1995
媱	-10.2011
呴	-10.2017
熬	-10.2019
棠	-10.202
朅	-10.2025
劬	-10.2025
嫮	-10.203
兒	-10.2031
胄	-10.2033
争	-10.2036
簏	-10.2037
簧	-10.2037
卬	-10.2039
撥	-10.2039
眄	-10.204
豉	-10.2041
衢	-10.2041
彫	-10.2041
籬	-10.2042
鵜	-10.2042
麟	-10.2043
慙	-10.2044
啼	-10.2047
却	-10.2047
蠵	-10.2047
賣	-10.2047
鍼	-10.2048
渴	-10.2049
訣	-10.2049
虵	-10.205
寂寞	-10.205
也論語曰	-10.205
讙	-10.2051
壑	-10.2051
槁	-10.2051
桃	-10.2052
憒	-10.2052
爢	-10.2053
剥	-10.2054
滃	-10.2054
提	-10.2054
筒	-10.2054
笯	-10.2055
侵	-10.2055
驗	-10.2056
閣	-10.2056
恲	-10.2057
渥	-10.2059
猛	-10.2059
品	-10.206
煢煢	-10.206
雰雰	-10.206
糜	-10.2061
繡	-10.2061
燒	-10.2061
彷徉	-10.2061
号	-10.2061
軾	-10.2062
蕉	-10.2062
霾	-10.2063
睇	-10.2063
域	-10.2063
飡	-10.2063
疎	-10.2063
纚	-10.2063
鶵	-10.2064
羆	-10.2064
㫁	-10.2064
忼	-10.2064
卜	-10.2065
微霜	-10.2065
蠻	-10.2065
亢	-10.2065
迻	-10.2065
儔	-10.2065
洪慶善曰	-10.2066
趙	-10.2066
嘯	-10.2066
猨	-10.2066
曶	-10.2066
葺	-10.2067
捨	-10.2067
揔	-10.2067
蕩蕩	-10.2068
臻	-10.2068
劭	-10.2069
岌	-10.2069
也以一作而	-10.207
離騷草木疏	-10.207
斐	-10.207
慢	-10.2071
蒔	-10.2072
翹	-10.2073
旄	-10.2073
層	-10.2073
蝮	-10.2073
銷	-10.2074
恖	-10.2074
暑	-10.2074
肴	-10.2074
左氏傳曰	-10.2074
摯	-10.2075
藁	-10.2076
二十五	-10.2077
芭	-10.2078
晩	-10.2078
底	-10.2078
枹	-10.2079
搖	-10.2079
逍	-10.2079
恕	-10.208
矰	-10.208
晁	-10.208
譎	-10.208
卦	-10.208
豕	-10.2081
:「	-10.2082
司馬相如	-10.2083
寗戚	-10.2083
妾	-10.2083
竿	-10.2083
孽	-10.2083
斡	-10.2083
勲	-10.2084
礫	-10.2085
降下也	-10.2085
災	-10.2089
蘂	-10.209
薜茘	-10.2092
决	-10.2093
驟	-10.2093
翶	-10.2093
菌桂	-10.2096
莘	-10.2098
枲	-10.2101
筵	-10.211
鷞	-10.2122
沃	-10.2869
噭	-10.2896
崯	-10.2911
虆	-10.2931
芎	-10.2938
聮	-10.2939
障	-10.2941
啾啾	-10.2944
堪	-10.2945
率	-10.2946
葱	-10.2948
踡	-10.2949
䖏	-10.2951
旻	-10.2952
磬	-10.2952
繞	-10.2953
舊邦	-10.2955
蘩	-10.2955
寫	-10.2957
滄	-10.2957
㠁嵯	-10.2959
夾	-10.2959
坂	-10.2962
晧	-10.2962
蹈	-10.2963
便娟	-10.2963
繆	-10.2964
嶽	-10.2965
㢘	-10.2965
蘦	-10.2966
槩	-10.2966
遟	-10.2966
洋	-10.2966
欵	-10.2967
僊	-10.2967
柯	-10.2967
旹	-10.2968
醇	-10.2968
蠭	-10.2968
𤓰	-10.2968
溪蓀	-10.2969
㭊	-10.297
蓼	-10.297
㞶	-10.2971
黮	-10.2971
閽	-10.2972
泰	-10.2972
姢	-10.2973
郁	-10.2973
芳與澤其雜糅兮	-10.2974
哀時命	-10.2975
點	-10.2976
戶	-10.2976
殀	-10.2977
挂	-10.2977
茫	-10.2977
惕	-10.2978
柚	-10.2979
璆	-10.2979
鼻	-10.298
瑤	-10.298
沚	-10.298
恱	-10.298
阨	-10.2982
井	-10.2983
䑕	-10.2983
歸來歸來	-10.2983
勉	-10.2983
赫	-10.2984
㸃	-10.2984
東方朔	-10.2984
傲	-10.2984
劍	-10.2985
樸	-10.2985
逓	-10.2985
格	-10.2985
績	-10.2985
縛	-10.2986
掃	-10.2986
蒼梧	-10.2986
綠	-10.2987
予音與	-10.2987
織	-10.2988
矊	-10.2989
鈞	-10.299
猶豫而狐疑	-10.299
狶	-10.2991
翡	-10.2992
騫	-10.2992
顏	-10.2995
芻	-10.2995
茀	-10.2996
豔	-10.2996
隣	-10.2998
藉	-10.2999
4	-10.2999
殛	-10.3
內	-10.3005
冒	-10.3007
黿	-10.3016
篁	-10.3019
梗	-10.3023
􁪮	-10.3862
蟫	-10.3864
䦧	-10.3883
虈	-10.3897
嶔	-10.3906
喔	-10.3915
蒯	-10.3919
戈	-10.392
黴	-10.3923
﨑	-10.3927
睠	-10.3928
壄一作野	-10.3931
邠	-10.3937
例	-10.3938
咷	-10.3939
眴	-10.3939
寢	-10.394
摽	-10.3941
擬	-10.3942
􁂄	-10.3943
擠	-10.3944
繹	-10.3945
裂	-10.3946
霄	-10.3948
憾	-10.395
蹙	-10.3951
臆	-10.3951
鄒	-10.3951
頑	-10.3952
壈	-10.3952
沈存中云	-10.3953
寺	-10.3953
也一無而字	-10.3955
鮑	-10.3955
彷徨	-10.3956
唫	-10.396
瞍	-10.3961
楯	-10.3961
喪	-10.3961
啄	-10.3963
笙	-10.3964
一無夫字	-10.3964
仍	-10.3964
嬴	-10.3964
􁚍	-10.3965
㧞	-10.3965
矜	-10.3965
橑	-10.3966
副	-10.3967
驚駭	-10.3967
嶸	-10.3967
晝	-10.3968
薉	-10.3969
碎	-10.3969
窕	-10.3969
㫖	-10.3969
埋	-10.397
􁓣	-10.397
盧	-10.397
遲遲	-10.397
叶	-10.3971
懣	-10.3971
灼	-10.3972
倨	-10.3972
廣雅云	-10.3972
融	-10.3972
飴	-10.3972
凋	-10.3972
宻	-10.3973
攄	-10.3973
鏡	-10.3974
巳解於	-10.3975
踈	-10.3976
希	-10.3976
嘕	-10.3976
乂	-10.3977
瞭	-10.3977
減	-10.3977
敕	-10.3977
癸	-10.3977
徊	-10.3978
廡	-10.3978
館	-10.3978
枘	-10.3978
焱	-10.3978
詔	-10.3979
鑒	-10.398
寓	-10.3981
戴	-10.3981
彷	-10.3981
宅	-10.3984
肖	-10.3984
庖	-10.3984
曵	-10.3985
蜒	-10.3986
絓	-10.3987
標	-10.3987
啾	-10.3987
仁智之士	-10.3987
曙	-10.3988
儼	-10.3989
妲	-10.3989
菹醢	-10.399
杲	-10.399
禾	-10.399
諑	-10.399
活	-10.399
酡	-10.399
填	-10.3991
迷惑也	-10.3991
甯	-10.3993
祗	-10.3993
庻	-10.3994
。2.	-10.3996
姒	-10.3999
觴	-10.4003
茗	-10.4007
睢	-10.4008
誕	-10.4021
判	-10.4021
也言雲神	-10.4029
言時世	-10.4211
孈	-10.4982
嚶	-10.5017
岳	-10.503
憐	-10.5036
沮	-10.5039
耄	-10.5039
鵙	-10.5046
迂	-10.5052
芙	-10.5052
糺	-10.5052
裹	-10.5053
零陵香	-10.5053
豸	-10.5054
雹	-10.5055
騄	-10.5057
賈思勰	-10.5057
跼	-10.5057
嘘	-10.5059
盪	-10.506
櫋	-10.506
滌	-10.5061
逄	-10.5061
藩	-10.5062
的	-10.5064
齋	-10.5065
纍	-10.5066
餝	-10.5066
𦕈	-10.5067
樊	-10.5069
紐	-10.5069
瓜	-10.507
刜	-10.507
轍	-10.5072
茇	-10.5072
庫	-10.5072
遍	-10.5072
猴	-10.5073
急徠歸	-10.5073
飢	-10.5074
辭一作詞	-10.5074
洪慶善云	-10.5074
爽	-10.5074
裁	-10.5076
嚮	-10.5076
勒	-10.5076
染	-10.5076
伸	-10.5077
敞	-10.5077
蹀	-10.5077
湏	-10.5078
崐	-10.5078
斛	-10.5078
峕	-10.5078
把	-10.5079
倦	-10.508
腰	-10.508
𢷬	-10.508
汪	-10.508
棗	-10.5081
浄	-10.5081
擅	-10.5082
耶	-10.5082
随	-10.5082
幬	-10.5082
苖	-10.5082
胎	-10.5082
縷	-10.5082
匈	-10.5083
俓	-10.5084
乳	-10.5084
糞	-10.5085
魂乎徠歸	-10.5085
博物志	-10.5085
範	-10.5086
漏	-10.5087
穫	-10.5087
毫	-10.5087
諒	-10.5088
出於此	-10.5088
歠	-10.5088
皎皎	-10.5089
榑	-10.5089
婚	-10.5089
鷦	-10.5089
禀	-10.509
惜往日	-10.5091
纒	-10.5092
憯	-10.5093
遞	-10.5093
珮	-10.5094
擣	-10.5094
隧	-10.5094
蘄	-10.5096
忽乎吾將行	-10.5096
損	-10.5096
毎	-10.5096
曁	-10.5096
軔	-10.5097
酎	-10.5097
毋	-10.5097
漬	-10.5097
弑	-10.5097
裘	-10.5098
栭	-10.5098
渫	-10.5098
呂	-10.5102
軀	-10.5103
妨	-10.5104
乙	-10.5104
恊	-10.5105
榭	-10.5105
䲭	-10.5106
陼	-10.5107
材	-10.5109
徹	-10.5109
濱	-10.511
嫩	-10.5111
窴	-10.5111
頷	-10.5113
彩	-10.5114
虡	-10.5114
茲	-10.5117
鱉	-10.5117
鬚	-10.5119
滓	-10.5119
䖀	-10.5121
悐	-10.5123
茰	-10.5157
謑	-10.623
仟	-10.6248
礒	-10.6253
沕	-10.6255
􁁍	-10.6256
鬵	-10.6258
觜	-10.6259
昢	-10.6263
悸	-10.6274
嵯峨	-10.6281
蕰	-10.6283
吕氏春秋	-10.6285
嘷	-10.6285
蹠	-10.6294
雊	-10.6296
綵	-10.6296
蜩	-10.6298
測	-10.63
脣	-10.6301
戀	-10.6301
縹	-10.6303
諮	-10.6305
坈	-10.6305
脉	-10.6306
黜	-10.6307
茷	-10.631
抒	-10.631
隩	-10.6312
嗼	-10.6312
􁁛	-10.6313
涹	-10.6315
飈	-10.6315
渨	-10.6315
鵝	-10.6315
奪	-10.6315
駒	-10.6316
轇	-10.6317
秘	-10.6318
貶	-10.6318
摘	-10.632
瘦	-10.632
弄	-10.632
潦	-10.632
瀾	-10.632
袪	-10.632
䕶	-10.6321
䜴	-10.6321
圭	-10.6321
羨	-10.6321
阪	-10.6321
薴	-10.6321
岱	-10.6322
脫	-10.6322
統	-10.6322
瘏	-10.6322
釀	-10.6323
涸	-10.6323
畛	-10.6323
航	-10.6324
謁	-10.6324
僚	-10.6324
箟	-10.6324
軻	-10.6325
褰	-10.6325
埤	-10.6326
壺	-10.6326
憍吾以其美好兮	-10.6326
惘	-10.6326
螘	-10.6326
瓊枝以	-10.6328
呵	-10.6329
颯	-10.6329
淋	-10.6329
䔖	-10.6329
侮	-10.633
􁫛	-10.633
𢎞	-10.633
厮	-10.6331
額	-10.6331
玕	-10.6332
荅	-10.6332
整	-10.6333
況	-10.6333
暨	-10.6334
拊	-10.6335
亟	-10.6335
舛	-10.6335
瑋	-10.6335
輊	-10.6335
靁	-10.6335
㨗	-10.6335
蜮	-10.6335
􁒅	-10.6336
鋪	-10.6337
勑	-10.6337
褊	-10.6337
豐肉微骨	-10.6338
水出崑崙	-10.6338
堯舜之抗行兮	-10.6338
琦	-10.6339
完	-10.6339
弘	-10.6339
鰿	-10.6339
孕	-10.634
拱	-10.634
濟渡也	-10.6341
藤	-10.6341
刋	-10.6341
鬰	-10.6341
何時俗之工巧兮	-10.6342
悃	-10.6342
瑜	-10.6343
隿	-10.6343
徙倚而	-10.6344
􁍩	-10.6344
歛	-10.6344
梧	-10.6344
刪	-10.6344
鋙	-10.6344
咍	-10.6345
寞	-10.6345
誼	-10.6345
頸	-10.6346
駕八龍之婉婉兮	-10.6346
羡	-10.6346
賞	-10.6347
䤅	-10.6347
祥	-10.6347
山其草多	-10.6348
舌	-10.6348
綢	-10.6348
凥	-10.6348
吠	-10.6348
嬖	-10.6348
猗	-10.6348
協	-10.6348
峭	-10.6348
瞳	-10.6348
墓	-10.6349
叟	-10.6349
冨	-10.635
心絓結而不解兮	-10.635
蘭膏明燭	-10.635
藒	-10.635
翥	-10.635
汭	-10.6351
攸	-10.6351
漇	-10.6351
􁌁	-10.6351
歟	-10.6352
薇	-10.6352
環	-10.6352
皥	-10.6352
蒚	-10.6353
聘	-10.6353
簴	-10.6353
娩	-10.6353
絡	-10.6353
鼇	-10.6353
凰	-10.6354
浟	-10.6354
儷	-10.6355
用此語	-10.6356
姊	-10.6356
擁	-10.6356
甫	-10.6357
恙	-10.6358
乞	-10.6359
夸	-10.6359
抵	-10.636
珪	-10.6361
東皇太一	-10.6361
眙	-10.6362
庾	-10.6362
嶢	-10.6363
忡	-10.6363
兎	-10.6365
竪	-10.6365
汲	-10.6365
㡬	-10.6369
焦	-10.6369
㝷	-10.6372
啇	-10.6374
茨	-10.6379
燠	-10.6381
得復見	-10.6392
瀏	-10.7686
崟	-10.7687
偬	-10.7692
箏	-10.7695
藷	-10.7713
袿	-10.7715
蠡	-10.7719
影	-10.7727
骩	-10.7727
腱	-10.7727
炯	-10.7729
鴨	-10.7732
欽	-10.7734
嵎	-10.7734
蠹	-10.7735
吁	-10.7735
輩	-10.7735
贈	-10.7738
傽	-10.7739
婢	-10.7739
嫁	-10.7739
突	-10.774
匍	-10.7742
茈	-10.7744
酷	-10.7746
穿	-10.7747
漁	-10.7748
答	-10.775
併	-10.775
廊	-10.7751
迄	-10.7751
彦	-10.7751
市	-10.7752
顇	-10.7752
暢	-10.7752
狖	-10.7752
雚	-10.7752
敝	-10.7753
俞與愈同	-10.7753
膽	-10.7753
飲石泉	-10.7756
莫半切	-10.7756
巷	-10.7757
閩	-10.7757
毗	-10.7757
翦	-10.7758
瓣	-10.7758
洽	-10.7758
湊	-10.7759
妍	-10.776
賛	-10.776
勅	-10.776
寕	-10.7761
雛	-10.7761
股	-10.7762
羙	-10.7763
萆	-10.7763
請	-10.7763
屈原既放	-10.7764
未改此度	-10.7764
鞿	-10.7765
幕	-10.7765
黯	-10.7765
乹	-10.7765
屢	-10.7765
筝	-10.7765
噉	-10.7766
踥蹀而日進兮	-10.7766
陛	-10.7766
㤀	-10.7766
揉	-10.7767
偕	-10.7767
噬	-10.7768
恬	-10.7768
􁓖	-10.7769
禺	-10.7769
床	-10.777
括	-10.777
嘆	-10.7771
宏	-10.7771
肻	-10.7771
翺	-10.7772
于筆切	-10.7772
鬯	-10.7772
迭	-10.7772
孋	-10.7772
覃	-10.7772
譅	-10.7772
洪慶善引	-10.7773
緻	-10.7773
蹕	-10.7773
而莫余知兮	-10.7773
稼	-10.7774
遯	-10.7774
筳	-10.7774
雒	-10.7774
槫	-10.7775
遌	-10.7776
壤	-10.7776
洿	-10.7777
緜	-10.7777
斂	-10.7778
愽雅云	-10.7778
晼	-10.7778
深固難徙	-10.7778
専	-10.7778
部	-10.7779
苞	-10.7779
慆	-10.7779
依彭咸之遺則	-10.7779
望涔陽兮極浦	-10.7779
舂	-10.778
寜	-10.778
疋	-10.778
淒	-10.778
寗	-10.778
篝	-10.7781
薜	-10.7783
巓	-10.7784
拳	-10.7784
皡	-10.7784
陰	-10.7784
佑	-10.7786
載雲旗之委蛇	-10.7786
栁	-10.7786
倍	-10.7786
糈	-10.7787
賓	-10.7787
繳	-10.7787
懟	-10.7787
譜	-10.7788
享	-10.7789
仭	-10.7789
貳	-10.779
暘	-10.779
葹	-10.7792
魂乎無南	-10.7794
縫	-10.7795
革孽夏民	-10.7798
肬	-10.7801
贅	-10.7801
猋	-10.7802
脆	-10.7805
昡	-10.7805
寘	-10.782
峉	-10.9282
蹊	-10.9314
䳺	-10.9317
岤	-10.9328
誂	-10.9342
軋	-10.9351
吒	-10.9354
爨	-10.9355
鸕	-10.9357
徾	-10.9364
苽	-10.9366
瓥	-10.9369
鴝	-10.9369
樞	-10.9373
鈕	-10.9373
峩	-10.9378
駏	-10.9379
廂	-10.9379
閴	-10.938
愁歎苦神	-10.9382
懤	-10.9382
窄	-10.9382
怞	-10.9383
藇	-10.9383
匏	-10.9386
蕃	-10.9387
疇	-10.9388
蟊	-10.9389
􁉻	-10.9389
縎	-10.939
醎	-10.939
訖	-10.9391
停	-10.9393
顥	-10.9393
蠱	-10.9393
龢	-10.9394
摡	-10.9394
蕤	-10.9395
匣	-10.9398
懃	-10.9398
燎	-10.9398
涂	-10.9398
護	-10.9398
葳	-10.9398
咀	-10.94
尠	-10.9401
剞	-10.9401
灃	-10.9402
鷃	-10.9402
􁍟	-10.9402
廀	-10.9403
涫	-10.9403
凙	-10.9404
料	-10.9405
聵	-10.9405
泫	-10.9405
嚭	-10.9406
􁑾	-10.9406
企	-10.9406
歩余馬兮	-10.9406
偝	-10.9407
鶻	-10.9407
暉	-10.9407
一夕而九	-10.9407
蚴	-10.9407
貰	-10.9407
坑	-10.9407
抉	-10.9408
跛	-10.9408
欸	-10.9408
吮	-10.9409
咆	-10.9409
薪	-10.9409
也一作徠歸	-10.9409
資	-10.9409
鞹	-10.9409
翻	-10.941
詖	-10.941
揄	-10.9411
芥	-10.9411
緹	-10.9411
屨	-10.9412
寸有所長	-10.9412
䌌	-10.9412
浡	-10.9413
崖	-10.9413
怠	-10.9413
嫇	-10.9413
似莎而大	-10.9413
肺	-10.9413
智有所不明	-10.9414
巾	-10.9414
瞰	-10.9414
傍	-10.9414
掘	-10.9414
闚	-10.9415
絇	-10.9415
顠	-10.9415
補曰壇音善	-10.9415
瀉	-10.9416
綜	-10.9416
㦧	-10.9416
憍	-10.9417
饐	-10.9417
驩	-10.9418
噂	-10.9418
曏	-10.9418
盍	-10.9419
廱	-10.9419
橐	-10.9419
聨	-10.9419
炳	-10.942
鋤	-10.942
隙	-10.942
耆	-10.942
祈	-10.9421
隍	-10.9421
芹	-10.9422
略	-10.9422
潰	-10.9422
扳	-10.9422
錄	-10.9423
聊假日以須	-10.9423
斬	-10.9423
補曰菀音鬱	-10.9423
芷葺兮荷屋	-10.9424
􁍈	-10.9424
蓁	-10.9425
談	-10.9426
闢	-10.9426
􁎃	-10.9426
弦	-10.9426
帯	-10.9426
牟	-10.9427
針	-10.9427
僮	-10.9427
諧	-10.9428
廇	-10.9428
孔頴達	-10.9428
霰	-10.9428
粟	-10.9429
時曖曖其將罷兮	-10.9429
蕖	-10.9429
舉世皆濁	-10.9429
銘	-10.9429
縈	-10.9429
苬	-10.9429
覬	-10.9429
悵然住立	-10.9429
雝	-10.9429
南指月與列星	-10.943
辝	-10.943
􁎎	-10.943
嗔	-10.943
縆	-10.943
隆	-10.9431
柰	-10.9431
祕	-10.9431
糒	-10.9431
萷	-10.9431
潜	-10.9432
健	-10.9432
杼	-10.9432
般	-10.9432
扁	-10.9432
嚼	-10.9433
固時俗之工巧兮	-10.9433
斤	-10.9433
螽	-10.9433
諤	-10.9433
偏	-10.9433
廪	-10.9433
淖	-10.9434
昬	-10.9434
㗖	-10.9434
壚	-10.9434
雄虺九首	-10.9434
吾又何怨乎今之人	-10.9434
訪	-10.9435
旰	-10.9435
倈	-10.9435
密	-10.9435
啗	-10.9435
畨	-10.9435
篿	-10.9436
杪	-10.9436
不可以託些	-10.9436
惀之脩美兮	-10.9437
汰	-10.9437
斮	-10.9437
􁃎	-10.9437
柿	-10.9437
芼	-10.9438
忽臨睨夫舊鄉	-10.9438
鱅	-10.9438
凜	-10.9438
擔	-10.9438
世並舉而好朋兮	-10.9439
又蔽而莫之	-10.9439
掦	-10.9439
雖願忠其焉得	-10.9439
偉	-10.9439
流乎天余乃下	-10.9439
瀁	-10.9439
喙	-10.944
與日月兮齊光	-10.944
籌	-10.944
去終古之所居	-10.944
孰知余之從容	-10.944
壟	-10.944
柑	-10.944
雜申椒與菌桂	-10.944
唱	-10.9441
兮歸來反故居些	-10.9441
珥	-10.9441
壛	-10.9442
春蘭兮秋菊	-10.9442
雄雄赫赫	-10.9443
儵一作倐	-10.9443
皋	-10.9443
撮	-10.9443
霍	-10.9443
然中路而迷惑	-10.9443
顧龍門而不見	-10.9444
瘀	-10.9444
絹	-10.9444
圜鑿而方枘兮	-10.9444
􁊯	-10.9444
㓜	-10.9444
邸	-10.9444
隳	-10.9444
恐重患而離尤	-10.9445
潮	-10.9445
思公子兮徒離憂	-10.9445
狒	-10.9445
蠥	-10.9445
蘼	-10.9446
不量鑿而正枘兮	-10.9446
功用而不就	-10.9446
新浴者必振衣	-10.9447
忽忽而遒盡兮	-10.9448
䆳	-10.9448
臼	-10.9448
固將愁苦而終窮	-10.9448
皇翼其承旂兮	-10.9448
挑	-10.9448
麚	-10.9449
噤	-10.9449
搏	-10.9449
盟	-10.9449
默	-10.9449
吾將從彭咸之所居	-10.9449
身服義而未沬	-10.9449
練	-10.945
爪	-10.9451
聊逍遥兮容與	-10.9451
躐	-10.9451
送美人兮南浦	-10.9451
怨靈脩之浩蕩兮	-10.9452
縶	-10.9452
壹氣孔神兮	-10.9453
誣	-10.9453
華采衣兮若英	-10.9454
妹	-10.9454
伯夷叔齊	-10.9455
彼將自然	-10.9455
又衆兆之所	-10.9456
誘	-10.9456
浹	-10.9456
鬬	-10.9458
輝	-10.9459
釐	-10.9459
與女遊兮九河	-10.9459
揳	-10.946
顑	-10.946
碁	-10.946
駓	-10.946
畋	-10.9461
榆	-10.9461
跪	-10.9462
分曹並進	-10.9463
卒然身殺	-10.9463
黄棘之枉	-10.9463
及榮華之未落	-10.9464
蠆	-10.9464
嫌	-10.9464
禋	-10.9465
澌	-10.9466
梅伯受醢	-10.9467
帝降夷羿	-10.9467
采芳洲兮杜若	-10.9468
􁔱	-10.9468
尓	-10.9469
蔾	-10.9469
夕宿辰陽	-10.9473
葰	-10.9475
魂兮歸徠	-10.9475
苕	-10.952
蔗	-11.1357
絭	-11.136
緊	-11.1364
璿	-11.1372
屣	-11.1378
榛	-11.1381
塩	-11.1382
爍	-11.1382
粮	-11.1385
踢	-11.139
藕	-11.1392
豳	-11.1393
橝	-11.1395
菼	-11.1396
纏	-11.1398
覈	-11.1398
攀援桂枝兮	-11.1399
灰	-11.1401
逡	-11.1402
筋	-11.1402
蒭	-11.1403
肥牛之腱	-11.1404
譁	-11.1404
􁽊	-11.1404
葷	-11.1404
洌	-11.1405
劔	-11.1406
韋	-11.1409
戻	-11.141
補曰繚音了	-11.141
殫	-11.1412
濅	-11.1413
㪚	-11.1414
重直用切	-11.1414
鴛	-11.1414
怵	-11.1415
祝	-11.1416
境	-11.1416
溝	-11.1416
昻	-11.1417
醲	-11.1417
懇	-11.1418
赩	-11.1419
美超逺而逾邁	-11.1419
闈	-11.142
鹽	-11.142
詁	-11.1422
􁽌	-11.1423
曼遭夜之方長	-11.1423
歔	-11.1423
冲	-11.1424
䋲	-11.1424
瞭杳杳而薄天	-11.1424
晠	-11.1425
蛻	-11.1425
鞭	-11.1426
濤	-11.1426
返	-11.1426
荃不察余之中情兮	-11.1426
軰	-11.1427
貲	-11.1427
栽	-11.1427
抜	-11.1427
薏	-11.1427
剌	-11.1427
憲	-11.1428
蓀壁兮紫壇	-11.1428
惜其師忠	-11.1428
峽	-11.1429
蕙肴蒸兮蘭藉	-11.1429
燕雀烏鵲	-11.1429
朽	-11.1429
杷	-11.1429
與佳期兮夕張	-11.143
余壽之弗將	-11.143
徉	-11.1431
徘	-11.1431
謳和揚阿	-11.1431
凱	-11.1431
版	-11.1431
洒	-11.1431
夕攬洲之宿莽	-11.1432
暖	-11.1432
見執轡者非其人兮	-11.1432
沿	-11.1433
拭	-11.1433
奠	-11.1433
殞	-11.1433
被以不慈之偽名	-11.1434
𥘉	-11.1434
帶長鋏之陸離兮	-11.1434
稀	-11.1434
願徑逝而未得	-11.1434
物有微而隕性	-11.1435
勸	-11.1435
褒	-11.1436
鬣	-11.1436
世莫知其所如	-11.1437
曄	-11.1437
寧溘死而流亡兮	-11.1438
邕	-11.1438
羌中道而回畔	-11.1438
瘳	-11.1438
黕	-11.1438
箎	-11.1439
筭	-11.1439
裸	-11.1439
各興心而嫉妬	-11.144
帀	-11.144
菵	-11.144
吉日兮辰良	-11.144
隐	-11.1441
糳	-11.1441
沶	-11.1441
遇蓐收乎西皇	-11.1441
劣	-11.1442
鬱邑余侘傺兮	-11.1442
冉冉而愈	-11.1443
聊逍遥以相	-11.1443
授	-11.1443
照吾檻兮扶桑	-11.1443
行胡岡切	-11.1443
拇	-11.1443
故荼薺不同畝兮	-11.1443
補曰瞀音茂	-11.1443
段	-11.1444
淇	-11.1444
岀	-11.1444
䟫	-11.1444
石磊磊兮葛蔓蔓	-11.1444
萸	-11.1445
殱	-11.1445
陫	-11.1445
辟匹亦切	-11.1446
嬰	-11.1446
穰	-11.1447
􁸖	-11.1447
思蹇産而不釋	-11.1448
木蘭以矯蕙	-11.1449
轂	-11.1449
匠	-11.1449
彃	-11.1449
望長楸而太息	-11.1449
恕巳以量人	-11.1449
㤗	-11.1449
偭規矩而改	-11.145
夕晞余身兮九陽	-11.145
新沐者必彈冠	-11.1451
慧	-11.1451
浴蘭湯兮沐芳	-11.1452
心嬋媛而	-11.1452
製	-11.1453
傳芭兮代舞	-11.1453
爇	-11.1453
折芳馨兮遺所思	-11.1453
茘	-11.1454
洧	-11.1454
魂魄歸徠	-11.1455
盼	-11.1455
薋菉葹以盈室兮	-11.1455
將以遺兮下女	-11.1455
就重華而敶詞	-11.1455
蜕	-11.1456
嫓	-11.1456
妺	-11.1456
封狶是射	-11.1457
1	-11.1457
葉兮紫莖	-11.1458
紉秋蘭以為佩	-11.1458
所作忠而言之兮	-11.1459
服艾以盈要兮	-11.1459
謂幽蘭其不可佩	-11.1459
牧夫牛羊	-11.1459
之未揚若華何光	-11.1459
勰	-11.146
何昔日之芳草兮	-11.146
覽余初其猶未悔	-11.1462
蹄	-11.1463
瞢	-11.1463
𦵔	-11.1464
余處幽篁兮終不見天	-11.1464
鳴玉鸞之啾啾	-11.1464
兔	-11.1465
聊假日以媮樂	-11.1465
路險難兮獨後來	-11.1466
褋	-11.1466
謐	-11.1467
荔	-11.147
畧	-11.1472
贏	-11.1472
筦	-11.1474
重任石之何益	-11.1474
溆	-11.1476
瀛	-11.1487
坼	-11.1493
漵	-11.1497
峊	-11.3774
蘮	-11.3774
霜露慘悽而交下兮	-11.3779
坱	-11.3798
恫	-11.3798
􁘯	-11.3798
鷂	-11.3803
鴺	-11.3808
蔟	-11.3819
溰	-11.3829
殦	-11.383
訿	-11.3832
菽	-11.3843
隤	-11.3844
碅	-11.385
炊	-11.3852
噰	-11.3854
磳	-11.3854
碩	-11.3855
蹤	-11.3855
磈	-11.3856
詢	-11.3858
贄	-11.3858
嶃	-11.3858
罼	-11.3859
跓	-11.3862
薍	-11.3862
軏	-11.3863
聒	-11.3865
寥空無人民	-11.3868
鸇	-11.3869
饑	-11.387
憃	-11.3873
埀	-11.3873
蔆	-11.3873
􁌽	-11.3877
砏	-11.3877
嵾	-11.3879
拏	-11.388
祲	-11.388
瓠	-11.3881
紏	-11.3883
貟	-11.3884
罕	-11.3884
孛	-11.3884
簪	-11.3886
閼	-11.3887
忉	-11.3888
蔬	-11.3888
矤	-11.3888
两	-11.389
縹匹妙切	-11.389
樷	-11.389
荻	-11.3891
又無行媒兮	-11.3891
悲余心之悁悁兮	-11.3891
煖	-11.3892
飭	-11.3892
磑	-11.3893
瓖	-11.3893
􁆍	-11.3894
酆	-11.3894
聫	-11.3894
弩	-11.3895
躳	-11.3895
伯夷餓於首陽	-11.3895
鄗	-11.3895
煮	-11.3895
艷	-11.3895
荏	-11.3895
淟	-11.3897
傷懷永哀兮	-11.3898
筴	-11.3898
腩	-11.3898
􁼝	-11.3898
絆	-11.3899
掌禹錫云	-11.3899
曅	-11.3899
憚蹇裳而濡足	-11.3901
䆒	-11.3901
嘏	-11.3901
葫	-11.3901
噑	-11.3902
情與質信可保兮	-11.3902
藐	-11.3902
諶	-11.3902
療	-11.3903
汁	-11.3903
軟	-11.3903
祇	-11.3904
騂	-11.3904
皯	-11.3904
赦	-11.3905
􁫵	-11.3906
惰	-11.3906
􁅩	-11.3906
𦂳	-11.3906
狐死首丘	-11.3906
􁉯	-11.3906
并日夜而無正	-11.3908
瓌	-11.3908
綝	-11.3908
數惟蓀之多怒	-11.3909
涅	-11.3909
時亹亹而過中兮	-11.3909
莽芒芒之無儀	-11.3909
瑩	-11.3909
炭	-11.3909
排閶闔而望予	-11.3909
掩浮雲而上征	-11.3909
琁	-11.391
靣	-11.391
畦留夷與掲車	-11.391
哀蟋蟀之宵征	-11.391
明法度之嫌疑	-11.391
蹇淹留而無成	-11.391
嚚	-11.3911
盆	-11.3911
召豐隆使先導兮	-11.3911
霆	-11.3912
奉先功以照下兮	-11.3912
亭	-11.3912
固朕形之不服兮	-11.3912
弗參驗以考實兮	-11.3912
欀	-11.3912
帛	-11.3912
盛氣志而過之	-11.3912
質銷鑠以汋約兮	-11.3912
員	-11.3912
携	-11.3912
鮒	-11.3912
黔	-11.3912
擘	-11.3912
露申辛夷死林薄兮	-11.3913
機蓬矢以	-11.3913
邉	-11.3913
何貞臣之無辠兮	-11.3913
精醇粹而始壯	-11.3913
縹綿綿之不可紆	-11.3913
箠	-11.3913
惛	-11.3913
掝	-11.3913
欄	-11.3913
闌	-11.3914
徨	-11.3914
娟	-11.3915
隻	-11.3915
秘密事之載心兮	-11.3915
耨	-11.3915
舷	-11.3915
匊	-11.3915
咽	-11.3915
載營魄而登霞兮	-11.3915
夕始臨乎於微閭	-11.3915
梨	-11.3916
概	-11.3916
冦	-11.3916
澁	-11.3916
吾與君兮齋速	-11.3916
醨	-11.3916
葌	-11.3916
遂自忍而沈流	-11.3916
芽	-11.3917
室家遂宗	-11.3917
涙	-11.3917
夫尺有所短	-11.3917
忠湛湛而願進兮	-11.3917
物有所不足	-11.3917
蓄怨兮積思	-11.3917
醒	-11.3917
雖過失猶弗治	-11.3917
馳椒丘且焉止息	-11.3917
典校經書	-11.3917
存髣髴而不見兮	-11.3917
山蕭條而無獸兮	-11.3917
愁悄悄之常悲兮	-11.3917
逼	-11.3917
啞	-11.3917
氣於邑而不可止	-11.3917
㵼	-11.3917
燥	-11.3918
岒	-11.3919
大苦醎酸	-11.3919
臥	-11.3919
怜	-11.3919
吼	-11.3919
麗桂樹之冬榮	-11.3919
傷太息之愍憐兮	-11.3919
遊驚霧之流波	-11.3919
漢郊祀志云	-11.3919
拙	-11.392
蓀詳聾而不聞	-11.392
將隨駑馬之迹乎	-11.392
喔咿儒兒	-11.392
厲而不爽些	-11.392
超惘惘而遂行	-11.392
寤從容以周流兮	-11.392
折若木以蔽光兮	-11.392
𨽻	-11.392
橪	-11.392
製芰荷以為衣兮	-11.392
舨	-11.392
數有所不逮	-11.3922
虀	-11.3922
酨	-11.3922
後文昌使掌行兮	-11.3922
歿	-11.3922
潘	-11.3922
仄	-11.3922
左雨師使徑侍兮	-11.3922
掩此哀而不去	-11.3922
長太息而掩涕	-11.3922
豈不鬱陶而思君兮	-11.3922
策駑駘而取路	-11.3922
不得見兮心傷悲	-11.3923
倚結軨兮長太息	-11.3923
心踊躍其若湯	-11.3923
擗蕙櫋兮既張	-11.3923
猖	-11.3923
驂連蜷以驕	-11.3923
何日夜而忘之	-11.3923
信非吾罪而棄逐兮	-11.3923
涕潺湲兮下霑軾	-11.3923
烱	-11.3923
好夫人之忼慨	-11.3923
姧	-11.3923
邊馬顧而不行	-11.3923
淚	-11.3924
木根以結茝	-11.3924
投詩賦只	-11.3924
將突梯滑稽	-11.3924
願一見兮道余意	-11.3924
而能與世推移	-11.3924
俎	-11.3924
偷以全吾軀乎	-11.3924
遭讒人而嫉之	-11.3924
人之心不與吾心同	-11.3924
尚不知余之從容	-11.3924
心鬱鬱之憂思兮	-11.3924
理弱而媒不通兮	-11.3924
解萹薄與雜菜兮	-11.3924
去塵埃之間離羣慝之紛吸	-11.3924
召黔嬴而見之兮	-11.3924
爼	-11.3924
諶荏弱而難持	-11.3924
文異豹飾	-11.3926
反既有此他志	-11.3926
好姱佳麗兮	-11.3926
牉獨處此異域	-11.3926
紫莖屏風	-11.3926
上洞庭而下江	-11.3926
吾誰與玩此芳草	-11.3926
貺	-11.3926
邱	-11.3926
幡	-11.3926
留不死之舊鄉	-11.3926
訊	-11.3926
當世豈無騏驥兮	-11.3926
君之心兮與余異	-11.3927
寧與騏驥亢軛乎	-11.3927
憀	-11.3927
如脂如韋	-11.3927
襲長夜之悠悠	-11.3927
雜芰荷些	-11.3927
冡	-11.3927
君之門以九重	-11.3927
將運舟而下浮兮	-11.3927
蜂	-11.3927
何所憂之多方	-11.3927
心怵惕而震盪兮	-11.3927
思靈保兮賢姱	-11.3927
檻層軒些	-11.3927
輾	-11.3927
逗	-11.3927
騎膠葛以雜亂兮	-11.3927
􁈓	-11.3927
不逢湯武與桓繆兮	-11.3927
君無度而弗察兮	-11.3927
滅規榘而改	-11.3927
后土何時而得漧	-11.3928
遷逡次而勿驅兮	-11.3928
此孰吉孰凶	-11.3929
五色雜而炫燿	-11.3929
善不由外來兮	-11.3929
建雄虹之采旄兮	-11.3929
柳	-11.3929
邸余車兮方林	-11.3929
去白日之昭昭兮	-11.3929
吾獨窮困乎此時也	-11.3929
將從俗富貴	-11.3929
惀力允切	-11.3929
惜吾不及古人兮	-11.3929
與余言而不信兮	-11.3929
菁	-11.3929
冬又申之以嚴霜	-11.3929
坐堂伏檻	-11.3929
峥	-11.3929
悼余生之不時兮	-11.3929
臨曲池些	-11.3929
蟋蟀鳴此西堂	-11.3929
觀者憺兮忘歸	-11.3929
上寥廓而無天	-11.3929
却騏驥而不乗兮	-11.3929
歸來兮不可以乆	-11.3929
紅壁沙版	-11.3929
黤	-11.3929
猛犬狺狺而迎吠兮	-11.3929
仰浮雲而永歎	-11.3929
塊獨守此無澤兮	-11.3929
指嶓冢之西隈兮	-11.393
絳	-11.393
斃	-11.393
旱	-11.393
欸秋冬之緒風	-11.393
登山臨水兮	-11.393
伍子逢殃兮	-11.393
曾不知路之曲直兮	-11.393
望孟夏之短夜兮	-11.393
臨流水而太息	-11.393
至南巢而壹息	-11.393
賴	-11.393
離芳藹之方壯兮	-11.393
北方不可以止些	-11.393
寧正言不諱	-11.393
矯以遺夫美人	-11.393
􁪠	-11.393
列星而極明	-11.393
容態好比	-11.393
竊賦詩之所明	-11.393
籛	-11.393
紛旖旎乎都房	-11.393
而蔽鄣於讒	-11.393
視儵忽而無見兮	-11.393
載雲旗兮委蛇	-11.3931
夫孰異道而相安	-11.3931
吾固知其鉏鋙而難入	-11.3931
進不入以離尤兮	-11.3931
背繩墨而改錯	-11.3931
峨	-11.3931
小腰秀頸	-11.3931
若千里之駒乎	-11.3931
隰	-11.3931
栧	-11.3931
焉皇皇而更索	-11.3931
剔	-11.3931
夫何極而不至兮	-11.3931
搴長洲之宿莽	-11.3931
民生各有所樂兮	-11.3931
精氣入而麤穢除	-11.3931
見王子而宿之兮	-11.3931
隷	-11.3931
願自申而不得	-11.3931
何晦明之若	-11.3931
奄離披此梧楸	-11.3931
屈心而抑志兮	-11.3931
得人肉以祀	-11.3931
旋入雷淵	-11.3931
蝮蛇蓁蓁	-11.3931
任重載盛兮	-11.3931
像設君室	-11.3931
同糅玉石兮	-11.3931
大波而流風兮	-11.3931
寧誅鋤草茅	-11.3931
澹容與而獨倚兮	-11.3931
背夏浦而西思兮	-11.3931
謇其有意些	-11.3931
順彌代些	-11.3931
鬘	-11.3931
介子忠而立枯兮	-11.3931
恬死亡而不聊	-11.3931
焉舒情而抽信兮	-11.3931
瓾	-11.3931
篪	-11.3931
鸞鳥軒翥而翔飛	-11.3931
􁫚	-11.3931
故重著以自明	-11.3932
忍尤而攘詬	-11.3932
旐	-11.3933
漁父見而問之	-11.3933
又無良媒在其側	-11.3933
國有驥而不知椉兮	-11.3933
春秋忽其不淹兮	-11.3933
然潢洋而不遇兮	-11.3933
直怐愗而自苦	-11.3933
莽洋洋而無極兮	-11.3933
軒轅不可攀援兮	-11.3933
順凱風以從遊兮	-11.3933
喉	-11.3933
孰無施而有報兮	-11.3933
延佇乎吾將反	-11.3933
恐自遺賊些	-11.3933
惟郢路之遼逺兮	-11.3933
放遊志乎雲中	-11.3933
覽方外之荒忽兮	-11.3933
觀炎氣之相仍兮	-11.3933
君無上天些	-11.3933
吾寧悃悃	-11.3933
啄害下人些	-11.3933
外承歡之汋約兮	-11.3933
悔相道之不察兮	-11.3933
竊悼後之危敗	-11.3933
陽杲杲其未光兮	-11.3933
靈之來兮蔽日	-11.3933
飛雪千里些	-11.3933
九者陽之數道之綱紀也	-11.3933
受命不遷生南國兮	-11.3933
惟佳人之永都兮	-11.3933
目騰光些	-11.3933
迤	-11.3933
襦	-11.3933
撫余馬兮安驅	-11.3933
今之相者兮舉肥	-11.3933
騏驥伏匿而不見兮	-11.3933
攬茹蕙以掩涕兮	-11.3934
頻	-11.3934
噐	-11.3934
何故至於斯	-11.3934
欲髙飛而逺集兮	-11.3934
卵	-11.3934
子非三閭大夫與	-11.3934
煉	-11.3934
吸飛泉之微液兮	-11.3934
椉精氣之摶摶兮	-11.3934
無伯樂之善相兮	-11.3934
豈至今其庸亡	-11.3934
途	-11.3934
驂白霓之習習兮	-11.3934
余將董道而不豫兮	-11.3934
合百草兮實庭	-11.3934
操余弧兮反淪降	-11.3934
疏石蘭兮為芳	-11.3934
科	-11.3934
舉長矢兮射天狼	-11.3934
起鄭舞些	-11.3934
願若今兮無虧	-11.3934
文君寤而追求	-11.3934
朦	-11.3934
灸	-11.3934
然欿傺而沈藏	-11.3934
申旦以舒中情兮	-11.3934
纂組綺縞	-11.3934
聊以舒吾憂心	-11.3934
進路北次兮	-11.3934
靈偃蹇兮姣服	-11.3934
騰告鸞鳥迎宓妃	-11.3934
嬃	-11.3934
芳菲菲其彌章	-11.3935
哀州土之平樂兮	-11.3935
恐田野之蕪穢	-11.3935
變古易俗兮世衰	-11.3935
謂騏驥兮安歸	-11.3935
莧	-11.3935
桓公聞而知之	-11.3935
穡	-11.3935
初吾所陳之耿著兮	-11.3935
勒騏驥而更駕兮	-11.3935
受物之汶汶者乎	-11.3935
安能以身之察察	-11.3935
葬於江魚之腹中	-11.3935
蹇獨懷此異路	-11.3935
靈連蜷兮既留	-11.3935
援北斗兮酌桂漿	-11.3935
欽定補繪蕭雲從離騷全圖	-11.3935
生天地之若過兮	-11.3935
夫何彭咸之造思兮	-11.3935
恨其失時而無當	-11.3935
私自憐兮何極	-11.3935
篸	-11.3935
萷櫹槮之可哀兮	-11.3935
諒無怨於天下兮	-11.3935
􁐡	-11.3935
繇	-11.3936
背繩墨以追曲兮	-11.3936
夏桀之常違兮	-11.3936
欲循道而平驅兮	-11.3936
鳥次兮屋上	-11.3936
望夫君兮未來	-11.3936
誠未遇其匹合	-11.3936
農夫輟耕而容與兮	-11.3936
願一見而有明	-11.3936
去故而就新	-11.3937
恐天時之代序兮	-11.3937
梟堅堯切	-11.3937
㒺	-11.3937
中瞀亂兮迷惑	-11.3937
何不變此志也	-11.3937
冠切雲之崔嵬	-11.3937
心不同兮媒勞	-11.3937
搴芙蓉兮木末	-11.3937
若有人兮山之阿	-11.3937
雖有西施之美容兮	-11.3937
吹參差兮誰思	-11.3937
子慕予兮善窈窕	-11.3937
得罪過之不意	-11.3937
擥騑轡而下節兮	-11.3937
重無怨而生離兮	-11.3937
屬天命而委之咸池	-11.3937
肇	-11.3938
昔三后之純粹兮	-11.3938
乃知遭命之將至	-11.3938
恐情質之不信兮	-11.3938
願徼幸而有待兮	-11.3938
何云賢士之不處	-11.3938
太公九十乃顯榮兮	-11.3938
悲江介之遺風	-11.3938
當陵陽之焉至兮	-11.3938
被荷裯之晏晏兮	-11.3938
贍	-11.3938
二八侍宿	-11.3938
固切人之不媚兮	-11.3938
從風雨而飛颺	-11.3938
惟著意而得之	-11.3938
瘁	-11.3938
蘸	-11.3938
路幽昧以險隘	-11.3938
孰不實而有穫	-11.3938
心震悼而不敢	-11.3938
堯舜皆有所舉任兮	-11.3938
尚欲布名乎天下	-11.3938
後尚可以竄藏	-11.3938
應律兮合節	-11.3938
爛齊光些	-11.3938
狠	-11.3938
盍將把兮瓊芳	-11.3938
至今九年而不復	-11.3938
豎	-11.3938
願寄言夫流星兮	-11.3938
形銷鑠而瘀傷	-11.3938
心閔憐之慘悽兮	-11.3938
或忠信而死節兮	-11.3938
竊不自聊而願忠兮	-11.3938
翡翠珠被	-11.3938
草苴比而不芳	-11.3938
願陳情以白行兮	-11.3938
駕飛龍兮北征	-11.3938
依前聖以節中兮	-11.3939
后辛之菹醢兮	-11.3939
建芳馨兮廡門	-11.3939
何百姓之震愆	-11.3939
皇天之不純命兮	-11.3939
負左右之耿介	-11.3939
驥不驟進而求服兮	-11.3939
葉菸邑而無色兮	-11.394
吾將過乎句芒	-11.394
心怛傷之憺憺	-11.394
卒壅蔽此浮雲兮	-11.394
羌儵忽而難當	-11.394
錦	-11.394
交不忠兮怨長	-11.394
奠桂酒兮椒漿	-11.394
如列宿之錯置	-11.394
心怦怦兮諒直	-11.394
心焉取此怵惕	-11.394
惟其紛糅而將落兮	-11.394
期不信兮告余以不閒	-11.394
椉騏驥之瀏瀏兮	-11.394
水周兮堂下	-11.394
然潢洋而不可帶	-11.394
飛龍兮翩翩	-11.394
魚葺鱗以自	-11.394
令沅湘兮無波	-11.394
縠	-11.394
和調度以自娛兮	-11.394
夕弭節兮北渚	-11.394
年洋洋以日往兮	-11.394
芬至今猶未沬	-11.394
雄鳩之鳴逝兮	-11.394
白日晼晚其將入兮	-11.394
蹇淹留而躊躇	-11.394
願皓日之顯行兮	-11.394
熏	-11.3941
艶	-11.3941
螫	-11.3941
漁父莞爾而笑	-11.3941
紛純純之願忠兮	-11.3941
謇吾法夫前	-11.3941
恐皇輿之敗績	-11.3941
播江離與滋菊兮	-11.3941
羅生兮堂下	-11.3941
老嵺廓而無處	-11.3941
亦多端而膠加	-11.3941
六氣而飲沆瀣兮	-11.3941
帝乃降觀下逢伊	-11.3941
後輜椉之從從	-11.3941
挂曲瓊些	-11.3941
擢	-11.3941
朱塵筵些	-11.3941
橚	-11.3941
班其相紛些	-11.3941
羅幬張些	-11.3941
菡	-11.3941
遂儵忽而捫天	-11.3941
離榭脩幕	-11.3941
使江水兮安流	-11.3941
弗省察而按實兮	-11.3941
微霜降而下戒	-11.3941
投之深淵些	-11.3941
欲自適而不可	-11.3941
穆將愉兮上皇	-11.3941
自前世之嫉賢兮	-11.3941
遺視矊些	-11.3941
酉	-11.3941
事亹亹而覬進兮	-11.3942
芳菲菲而難虧兮	-11.3942
麾蛟龍使梁津兮	-11.3942
康回馮怒	-11.3942
忠昭昭而願見兮	-11.3942
猋壅蔽此明月	-11.3942
言禹治水道娶	-11.3942
豪傑執政	-11.3942
䔾	-11.3942
忽神奔而鬼怪	-11.3942
竊慕詩人之遺風兮	-11.3942
譲	-11.3942
唾	-11.3942
彼日月之照明兮	-11.3942
惟郢路之遼遠兮	-11.3942
江與夏之不可	-11.3942
肴羞未通	-11.3942
軋洋洋之無從兮	-11.3942
邅翼翼而無終兮	-11.3942
馳委移之焉止	-11.3942
何故以東南傾	-11.3942
柎	-11.3942
桂櫂兮蘭枻	-11.3942
橙	-11.3942
泭	-11.3942
瀐	-11.3942
言不可結而詒	-11.3942
謂蕙若其不可佩	-11.3942
願銜枚而無言兮	-11.3942
忽馳騖以追逐兮	-11.3943
非世俗之所服	-11.3943
恐時世之不固	-11.3943
襄王王怒而遷	-11.3943
橢	-11.3943
脈	-11.3943
瓊轂錯衡	-11.3944
芳菲菲兮滿堂	-11.3944
老冉冉其將至兮	-11.3944
忽臨睨夫舊郷	-11.3944
舉賢而授能兮	-11.3944
駕兩龍兮驂螭	-11.3944
刻方連些	-11.3944
好夫人之慷慨	-11.3944
娭光眇視	-11.3944
矰弋機而在上兮	-11.3944
窮不知所示	-11.3944
計專專之不可化兮	-11.3944
因歸鳥而致	-11.3944
登閬風而緤馬	-11.3944
墉	-11.3944
非余心之所急	-11.3944
初若是而逢殆	-11.3944
獨耿介而不隨兮	-11.3944
與其無義而有名兮	-11.3944
處濁世而顯榮兮	-11.3944
非余心之所樂	-11.3944
願託志乎素餐	-11.3944
欲釋階而登天兮	-11.3944
濟沅湘以南征兮	-11.3944
然惆悵而自悲	-11.3944
英華假只	-11.3945
望美人兮未來	-11.3945
名聲著而日延	-11.3945
夕餐秋菊之落英	-11.3945
恐脩名之不立	-11.3945
紛緫緫其離合兮	-11.3945
索胡繩之纚纚	-11.3945
腥	-11.3945
周論道而莫差	-11.3945
日將暮兮悵忘歸	-11.3945
聞至貴而遂徂兮	-11.3945
忽吾行此流沙兮	-11.3945
操吳戈兮被犀甲	-11.3945
曰君可思而不可恃	-11.3945
泭以下流兮	-11.3945
觧	-11.3945
造新歌些	-11.3945
遵赤水而容與	-11.3945
扈屯騎之容容	-11.3945
重仁襲義兮	-11.3945
謇朝誶而夕替	-11.3946
遺余褋兮醴浦	-11.3946
後悔遁而有他	-11.3946
臨風怳兮浩歌	-11.3946
夕濟兮西澨	-11.3946
捐余玦兮江中	-11.3946
武丁用而不疑	-11.3946
葶	-11.3946
麏	-11.3946
近禹麾只	-11.3947
飄風屯其相離兮	-11.3947
三公穆穆	-11.3947
判獨離而不服	-11.3947
朝飲木蘭之墜露兮	-11.3947
與化去而不見兮	-11.3947
登崑崙兮四望	-11.3947
白皓膠只	-11.3947
厦	-11.3947
告余以吉故	-11.3947
忳惽惽而愁約	-11.3947
波滔滔兮來迎	-11.3947
紛逢尤以離謗兮	-11.3947
結幽蘭而延佇	-11.3947
斑陸離其上下	-11.3947
洞庭波兮木葉下	-11.3947
猶有曩之態也	-11.3947
終危獨以離異兮	-11.3947
背法度而心治兮	-11.3947
莫知余之所有	-11.3947
諄	-11.3947
逵	-11.3947
鄭綿絡些	-11.3947
鴆告余以不好	-11.3947
􁊭	-11.3947
登九天兮撫彗星	-11.3947
表獨立兮山之上	-11.3947
雲容容兮而在下	-11.3947
聞佳人兮召予	-11.3947
還及君之無恙	-11.3947
綫	-11.3948
悲莫悲兮生别離	-11.3948
爥	-11.3948
鹵	-11.3948
時不可兮驟得	-11.3948
雜杜衡與芳芷	-11.3948
靈之來兮如雲	-11.3948
子交手兮東行	-11.3948
恐自遺災些	-11.3948
求介子之所存兮	-11.3948
竊美申包胥之氣盛兮	-11.3948
耗	-11.3948
踰空桑兮從女	-11.3948
㯐	-11.3948
將騰駕兮偕逝	-11.3948
怨公子兮悵忘歸	-11.3948
恐禍殃之有再	-11.3948
撫案下些	-11.3948
涕淫淫其若霰	-11.3948
無舟楫而自備	-11.3948
獨悲愁其傷人兮	-11.3948
辟與此其無異	-11.3948
邅吾道兮洞庭	-11.3948
駭遽以離心兮	-11.3948
固時俗之流從兮	-11.3949
東風飄兮神靈雨	-11.3949
晏兮孰華予	-11.3949
澆身被服強圉兮	-11.3949
同極而異路兮	-11.3949
君不行兮夷猶	-11.3949
摯咎繇而能調	-11.3949
湯禹嚴而求合兮	-11.3949
蹇誰留兮中洲	-11.3949
萑	-11.3949
腦	-11.3949
美往世之登仙	-11.3949
願側身而無所	-11.3949
令飄風兮先驅	-11.3949
使涷雨兮灑塵	-11.3949
傷靈脩之數化	-11.3949
崩	-11.3949
忽緯繣其難遷	-11.3949
惟此黨人其獨異	-11.3949
日康娛而自忘兮	-11.3949
民好惡其不同兮	-11.3949
見伯夷之放迹	-11.3949
何由并投	-11.3949
吾使厲神占之兮	-11.3949
惟草木之零落兮	-11.3949
春與秋其代序	-11.3949
霾兩輪兮縶四馬	-11.3949
事君而不貳兮	-11.3949
又莫察余之中情	-11.3949
固煩言不可結詒兮	-11.3949
迷不知寵之門	-11.3949
又何芳之能祗	-11.395
留靈脩兮憺忘歸	-11.395
紛總總其離合兮	-11.395
願陳志而無路	-11.395
形枯槁而獨留	-11.3951
求正氣之所由	-11.3951
又好射夫封狐	-11.3951
君欣欣兮樂康	-11.3951
性愚陋以褊淺兮	-11.3951
願承風乎遺則	-11.3951
灑	-11.3951
不撫壯而棄穢兮	-11.3951
何少康逐犬	-11.3951
又孰能無變化	-11.3951
嚴殺盡兮棄原	-11.3951
夔	-11.3951
矢交墜兮士爭先	-11.3951
章畫志墨兮	-11.3951
蓀橈兮蘭旌	-11.3951
質菲薄而無因兮	-11.3951
逐人駓駓些	-11.3951
哀見君而不再得	-11.3951
忽忘身之賤貧	-11.3951
思夫君兮太息	-11.3951
援玉枹兮擊鳴鼓	-11.3951
曰有志極而無旁	-11.3951
白蜺嬰茀	-11.3951
眇不知其所蹠	-11.3951
荒忽其焉極	-11.3951
麋何食兮庭中	-11.3951
長顑頷亦何傷	-11.3951
捐余袂兮江中	-11.3951
覽察草木其猶未得兮	-11.3951
帝子降兮北渚	-11.3951
思公子兮未敢言	-11.3951
豈珵美之能當	-11.3951
天白顥顥	-11.3952
南房小壇	-11.3952
入不言兮出不辭	-11.3952
晟	-11.3952
舉傑壓陛	-11.3952
浞又貪夫厥家	-11.3952
刻著志之無適	-11.3952
前圖未改	-11.3952
中悶瞀之忳忳	-11.3952
何瓊佩之偃蹇兮	-11.3952
有招禍之道也	-11.3952
楫齊揚以容與兮	-11.3952
漆	-11.3952
疾親君而無他兮	-11.3952
相觀民之計極	-11.3952
瞻前而顧後兮	-11.3952
蹇充倔而無端兮	-11.3952
固亂流其鮮終兮	-11.3953
巫咸將夕降兮	-11.3953
惟此黨人之不諒兮	-11.3953
父信讒而不好	-11.3953
寒凝凝只	-11.3953
不歠役只	-11.3953
四酎并孰	-11.3953
遽爽存只	-11.3953
君誰須兮雲之際	-11.3953
懰	-11.3953
厥利維何	-11.3953
祉	-11.3953
僖	-11.3953
實羽觴些	-11.3953
諡	-11.3953
秉鞭作牧	-11.3953
可以濯吾足	-11.3953
思君其莫我忠兮	-11.3953
旌蔽日兮敵若雲	-11.3953
而無害厥躬	-11.3953
過夏首而西浮兮	-11.3953
周之命以咨嗟	-11.3953
謂申椒其不芳	-11.3953
罻羅張而在下	-11.3954
九折臂而成醫兮	-11.3954
椒糈而要之	-11.3954
欲少留此靈瑣兮	-11.3954
夕宿兮帝郊	-11.3955
樂莫樂兮新相知	-11.3955
盾	-11.3955
夫孰非義而可用兮	-11.3955
廓其無求兮	-11.3955
异	-11.3955
日月忽其不淹兮	-11.3955
車錯轂兮短兵接	-11.3955
馥	-11.3955
吾令羲和弭節兮	-11.3955
漢書郊祀志有	-11.3955
舜閔在家	-11.3955
蜃	-11.3955
夏康娛以自縱	-11.3956
辛夷車兮結桂旗	-11.3956
夕余至乎西極	-11.3956
掔	-11.3956
攝提貞于孟陬兮	-11.3956
遭周文而得舉	-11.3956
韭	-11.3956
鳴竽張只	-11.3956
儵而來兮忽而逝	-11.3956
余焉能忍與此終古	-11.3956
君王親發兮	-11.3956
國風好色而不淫	-11.3956
朕皇考曰伯庸	-11.3956
梗其有理兮	-11.3956
焉得夫朴牛	-11.3956
爛昭昭兮未央	-11.3956
翱	-11.3956
菑	-11.3956
行婞直而不豫兮	-11.3956
褘	-11.3956
􁊥	-11.3956
恐導言之不固	-11.3957
山帝之二女居	-11.3957
惟庚寅吾以降	-11.3957
瞵	-11.3957
代秦鄭衛	-11.3958
五子用失乎家巷	-11.3958
黛	-11.3958
好蔽美而稱惡	-11.3958
悼來者之悐悐	-11.3958
又重之以脩能	-11.3958
吾不能變心而從俗兮	-11.3958
娛酒不廢	-11.3958
師灑道風伯掃塵	-11.3958
朝搴阰之木蘭	-11.3958
枝葉之峻茂兮	-11.3958
九州之博大兮	-11.3958
名余曰正則兮	-11.3958
哲王又不寤	-11.3958
惜誦以致愍兮	-11.3958
理弱而媒拙兮	-11.3958
恐鵜鴂之先鳴兮	-11.3958
皇覽揆余初度兮	-11.3958
舜服厥弟	-11.3958
露才揚已	-11.3958
願竢時乎吾將刈	-11.3959
蕚	-11.3959
榜以擊汰	-11.3959
永遏在羽山夫何三年不施	-11.3959
肇錫余以嘉名	-11.3959
虎嘯而谷風至	-11.3959
危害厥兄	-11.3959
羌無實而容長	-11.396
禪	-11.396
世幽昧以昡曜兮	-11.396
戚之謳歌兮	-11.396
折若木以拂日兮	-11.396
時亦猶其未央	-11.396
童	-11.396
解佩纕以結言兮	-11.396
齊桓聞以該輔	-11.396
何變化以作詐	-11.396
夕余至乎縣圃	-11.396
悖	-11.396
相下女之可詒	-11.396
今直為此蕭艾也	-11.396
何所獨無芳草兮	-11.396
厥父是臧	-11.396
孰云察余之善惡	-11.396
姱女倡兮容與	-11.396
是謂晨明登于扶桑爰始	-11.396
有角曰龍無角	-11.396
求宓妃之所在	-11.396
西薄羊腸	-11.396
路貫廬江兮左長薄	-11.396
哀吾生之無樂兮	-11.3961
厥萌在初	-11.3961
吾告堵敖以不長	-11.3961
幽獨處乎山中	-11.3961
歆	-11.3962
折瓊枝以繼佩	-11.3962
壹心而不豫兮	-11.3962
菉蘋齊葉兮	-11.3962
小雅怨誹而不亂若離騷者可謂	-11.3962
畟	-11.3962
疇彛倫攸	-11.3962
終不察夫民心	-11.3962
何號于市	-11.3962
哀人生之長勤	-11.3963
孰求美而釋女	-11.3963
阽余身而危死兮	-11.3963
雲霏霏而承宇	-11.3963
哀朕時之不當	-11.3963
揳梓瑟些	-11.3963
朱明承夜兮	-11.3963
霑余襟之浪浪	-11.3963
折瓊枝以為羞	-11.3964
雷師告余以未具	-11.3964
前望舒使先驅兮	-11.3964
固前脩以菹醢	-11.3964
豕首縱目	-11.3964
惟天地之無窮兮	-11.3965
吾誼先君而後身兮	-11.3965
不能復用巫陽焉	-11.3965
待明君其知之	-11.3965
晉制犀比	-11.3965
湛湛江水兮	-11.3965
溘埃風余上征	-11.3965
委厥美以從俗兮	-11.3965
倚沼畦瀛兮	-11.3966
成梟而牟	-11.3966
目極千里兮傷春心	-11.3966
霰雪紛其無垠兮	-11.3966
𦙍	-11.3966
斗之間漢津	-11.3966
粲	-11.3967
吳酸蒿蔞	-11.3967
抑騖若通	-11.3967
故相臣莫若君兮	-11.3967
言與行其可迹兮	-11.3967
善留客只	-11.3967
推此志雖與日月爭光可	-11.3967
與王趨夢兮課後先	-11.3967
長袂拂面	-11.3967
軑	-11.3967
而妻彼雒嬪	-11.3969
船容與而不進兮	-11.3969
趙簫倡只	-11.3969
汝筮予之	-11.3969
長離殃而愁苦	-11.3969
呉光爭國	-11.397
有莘爰極	-11.397
􁛊	-11.397
鳧	-11.3971
壒	-11.3973
徵	-11.3974
榝又欲充夫佩幃	-11.3976
王虺騫只	-11.3977
蜮傷躬只	-11.3977
山林險隘	-11.3977
値	-11.3977
迷不知吾所如	-11.3977
鰅鱅短狐	-11.3978
田邑千畛	-11.3978
㑹鹹十五年㑹牡丘十六年㑹淮	-11.3978
几	-11.398
穀	-11.398
三圭重侯	-11.398
孤寡存只	-11.398
曼澤怡面	-11.3985
亥	-11.3987
􁩂	-11.3995
藙	-11.4
䓗	-11.7099
蕠	-11.7099
濆	-11.714
茭	-11.714
薲	-11.7168
踼	-11.7168
􁁉	-11.7168
薕	-11.7174
骫	-11.718
蒹	-11.718
㠝	-11.718
荇	-11.7195
祛	-11.7201
猪	-11.7201
窟	-11.7201
夷猶宿北姑兮	-11.7201
晋	-11.7203
嘐	-11.7205
陜	-11.7207
耐	-11.7207
燦	-11.7209
皤	-11.7209
戃	-11.721
之飯芬香且柔滑也	-11.7211
輯	-11.7211
擿	-11.7211
磤	-11.7211
䔧	-11.7211
碧	-11.7215
欝	-11.7215
泱	-11.7215
憂心不遂斯言誰告兮	-11.7215
穗	-11.7217
靖	-11.7217
苜	-11.7218
幣	-11.7218
羌居蔽而聞章	-11.7218
蟀	-11.7218
飲菌若之朝露兮	-11.722
衺	-11.722
蠚	-11.722
闊	-11.7222
薛	-11.7222
箴	-11.7226
雁	-11.7226
侈	-11.7226
蘘	-11.7228
蚤	-11.7228
藍	-11.7228
苹	-11.7228
讟	-11.7228
槾	-11.7228
若竹栢之異心	-11.7228
翮	-11.723
鈴	-11.723
南行兮思彭咸之故也思美人	-11.723
撣	-11.723
鷄鶩滿堂壇兮	-11.7232
拒	-11.7234
其花最早南	-11.7234
貍	-11.7234
蠋	-11.7236
倖	-11.7236
身幽隱而備之	-11.7236
窒	-11.7236
阬	-11.7236
􁓊	-11.7238
乾隆四十六年	-11.7238
郵	-11.7238
薠蘅槁而節離	-11.7238
寧與黄鵠比翼乎	-11.7238
炬	-11.7238
􁃇	-11.7238
秔	-11.724
命則處幽吾將罷兮	-11.724
聲有隱而相感兮	-11.724
慯	-11.724
瑰	-11.7242
代水不可渉深不可測只	-11.7242
僅	-11.7242
藐蔓蔓之不可量兮	-11.7242
楚人思念屈原因叙其辭以相傳焉	-11.7242
朝發軔於太儀兮	-11.7242
造旬始而觀清都	-11.7242
乎無北北有寒山逴龍赩只	-11.7243
竊快在中心兮	-11.7244
豈惟紉夫蕙茝	-11.7244
属	-11.7244
貨	-11.7244
賂	-11.7244
鉅	-11.7244
吾方髙馳而不顧	-11.7245
截	-11.7245
懹	-11.7245
羌芳華自中出	-11.7245
樂時遇屈原川澤之域怪而問之遂相應	-11.7245
兮逺濁世而自藏	-11.7245
梏	-11.7245
􁁜	-11.7245
伇	-11.7247
羸	-11.7247
孤子唫而抆淚兮	-11.7247
觀南人之變態	-11.7247
神要眇以淫放	-11.7247
穆眇眇之無垠兮	-11.7247
䭇	-11.7247
余冠之岌岌兮長余佩	-11.7247
惀	-11.7247
愗	-11.7247
碭	-11.7247
薠草秋生今南	-11.7249
陣	-11.7249
盜	-11.7249
心煩憺兮忘食事	-11.7249
粻	-11.7249
氣繚轉而自締	-11.7249
曼余目以流觀兮	-11.7249
劘	-11.7249
神龍失水而陸居	-11.7249
思舊故以想像兮	-11.7249
余駕飛龍兮雜瑶象以	-11.725
昀	-11.7251
呑	-11.7251
自恣荆楚安以定只	-11.7251
人皆醉而我獨醒	-11.7251
讃	-11.7251
入景響之無應兮	-11.7251
吁嗟黙黙兮	-11.7251
愁鬱鬱之無快兮	-11.7251
楚詞以惡草喻惡人	-11.7251
虚之璆琳琅玕焉	-11.7251
逈	-11.7251
餅	-11.7251
惲	-11.7251
終長夜之曼曼兮	-11.7251
䳄	-11.7252
陸費墀欽定四庫全書	-11.7253
轄	-11.7253
導帝之兮九坑	-11.7253
居戚戚而不可解	-11.7253
物有純而不可為	-11.7253
聞省想而不可得	-11.7253
老冉冉兮既極	-11.7253
䕫	-11.7253
澂	-11.7253
右雷公以為衛	-11.7253
紛溶與而並馳	-11.7253
縆瑟兮交鼓	-11.7253
望屠於朝歌兮	-11.7253
别有杜蘅不相似	-11.7255
睎	-11.7255
㴉	-11.7255
僭	-11.7255
孔雀盈園畜鸞皇只	-11.7255
撫珮衽以案志兮	-11.7255
被明月兮珮寶璐	-11.7255
虛惑誤又以欺	-11.7255
矯兹媚以私處兮	-11.7255
長太息兮將上心低佪兮顧	-11.7255
徐弭節而髙厲	-11.7255
思不眠以至曙	-11.7255
結桂枝兮延竚	-11.7255
惜壅君之不昭	-11.7255
何離心之可同兮吾將逺逝以自	-11.7256
佩繽紛其繁飾兮	-11.7256
皇天淫溢而秋霖兮	-11.7256
雰	-11.7257
構	-11.7257
撗	-11.7257
窮身永樂年壽延只	-11.7257
哀南夷之莫吾知兮	-11.7257
廖	-11.7257
旦余濟乎江湘	-11.7257
信讒諛之溷濁兮	-11.7257
矇瞍謂之不章	-11.7257
蔽晦君之聰明兮	-11.7257
赤莖節好生道	-11.7257
何獨樂斯之謇謇兮	-11.7257
憐思心之不可懲兮	-11.7257
殄	-11.7257
隂陽之和食天地之精	-11.7257
喟憑心而歴兹	-11.7257
數列人形之要而作九歌九章之頌以諷	-11.7257
忠貞之性而被讒邪傷君闇蔽	-11.7257
汜潏潏其前後兮	-11.7257
綦	-11.7257
名蘭槐根名芷	-11.7258
余不忍為此態也	-11.7258
㷀	-11.7259
少司命暾將出兮東方	-11.7259
忽傾寤以嬋媛	-11.7259
茄	-11.7259
離婁微睇兮	-11.7259
北至回水萃何喜	-11.7259
卬明月而太息兮	-11.7259
固人命兮有當孰離合兮可	-11.7259
夫惟黨人鄙固兮	-11.7259
故作九辯以述其志至於漢興劉向王	-11.7259
榱	-11.7259
燋	-11.7259
楚大夫宋玉之所作也辯者變也謂敶道	-11.7259
氛埃辟而清涼	-11.7259
祝融戒而還衡兮	-11.7259
壑焉實惟無底之谷名曰歸墟	-11.726
湣	-11.7261
免衆患而不懼兮	-11.7261
燕翩翩其辭歸兮	-11.7261
自前世而固然	-11.7261
兄有噬犬弟何欲	-11.7261
羌中道而囘畔	-11.7261
驚女采薇鹿何祐	-11.7261
介眇志之所惑兮	-11.7261
恢台之孟夏兮	-11.7261
憐浮雲之相羊	-11.7261
祍	-11.7261
羌不知余之所臧	-11.7261
腥臊並御芳不得薄兮	-11.7261
其九以立義焉	-11.7261
北極之山曰寒門	-11.7261
天地四方多賊姦些	-11.7261
欲度世以忘歸兮	-11.7261
翡帷翠帳飾髙堂些	-11.7261
螭蟲象並出進兮	-11.7261
芝賦序云離騷九歌自詩人所紀之外地	-11.7262
韲	-11.7262
渝	-11.7262
誠莫之能善御	-11.7262
香誤矣吕氏春	-11.7263
昔君與我誠言兮	-11.7263
苧	-11.7263
載雲旗之逶蛇	-11.7263
夏屋廣大沙堂秀只	-11.7263
馬蘭踸踔而日加	-11.7263
鴈廱廱而南遊兮	-11.7263
兮歸來南方不可以止些	-11.7263
安能以皓皓之白	-11.7263
選署衆神以並轂	-11.7263
一年之三秀近時王令	-11.7263
固將重昏而終身	-11.7263
講	-11.7263
凛	-11.7263
形蟉虬而逶蛇	-11.7263
􁬭	-11.7263
痩	-11.7265
今誰使乎譽之	-11.7265
吾將蕩志而愉樂兮	-11.7265
左朱雀之茇茇兮	-11.7265
盗	-11.7265
色直眉美目媔只	-11.7265
騖諸神之湛湛	-11.7265
中央共牧后何怒	-11.7265
乏	-11.7265
以不慈之僞名	-11.7265
易之以百兩卒無禄	-11.7265
更統世而自貺	-11.7265
犁	-11.7265
縳	-11.7265
廚	-11.7265
憂與愁其相接	-11.7265
舒并節以馳騖兮	-11.7265
貼	-11.7265
隂陽易位時不當兮	-11.7265
鳥飛反故鄉兮	-11.7265
呌	-11.7265
罾	-11.7265
顔師古急就章註	-11.7266
意荒忽而流蕩兮	-11.7267
淡	-11.7267
馮崑崙以瞰霧兮	-11.7267
依風穴以自息兮	-11.7267
沛罔象而自浮	-11.7267
覽余以其脩姱	-11.7267
形穆穆以浸	-11.7267
滿堂兮美人忽獨與余兮目成	-11.7267
何況一國之事兮	-11.7267
使湘靈鼓瑟兮	-11.7267
忠不必用兮賢不必	-11.7267
既含睇兮又宜笑	-11.7267
潄	-11.7267
犲狼從目往來侁侁些	-11.7267
獨鄣壅而蔽隱兮	-11.7267
終然殀乎羽之野	-11.7267
藳	-11.7267
閔竒思之不通兮	-11.7267
陳竽瑟兮浩倡	-11.7267
音樂博衍無終極兮	-11.7267
殟	-11.7267
獨遑遑而無所集	-11.7267
叚	-11.7267
華而香有餘者	-11.7268
蘭蕙叢出蒔以沙	-11.7268
與前世而皆然兮	-11.7268
又未知其所從	-11.7268
亦不貪餧而妄食	-11.7268
君之樂處而離彼不祥些	-11.7269
拆	-11.7269
何桀紂之猖披兮	-11.7269
長余佩之陸離	-11.7269
鴈皆唼夫粱藻兮	-11.7269
㳂	-11.7269
事緜緜而多私兮	-11.7269
令海若舞馮夷	-11.7269
以定嫌疑故曰卜居也	-11.7269
故天有九星以正機	-11.7269
罔極故復作九章	-11.7269
􁖑	-11.7269
上陳事神之敬下	-11.7269
后皇嘉樹橘徠服兮	-11.7269
士女雜坐亂而不分些	-11.7269
曾歔欷之嗟嗟兮	-11.7269
畫天地山川神靈琦	-11.7269
願寄言於浮雲兮	-11.7269
長太息以掩涕兮哀民生之多艱	-11.727
寧溘死以流亡兮	-11.727
自壓桉而學誦	-11.727
禝	-11.727
神儵忽而不反兮	-11.7271
聲有隱而先倡	-11.7271
諸侯畢極立九卿只	-11.7271
瑾握瑜而自令見放	-11.7271
聊浮游而求女	-11.7271
寔	-11.7271
拔木九千些	-11.7271
既遵道而得路	-11.7271
添	-11.7271
君含怒而待臣兮	-11.7271
吸湛露之浮源兮	-11.7271
微霜降而下淪	-11.7271
無轡銜而自載	-11.7271
窠	-11.7271
采三秀兮於山間	-11.7271
咶	-11.7271
孰申旦而别之	-11.7271
緑葉素榮紛其可喜兮	-11.7271
羌聲色兮娛人	-11.7271
萬變其情豈可蓋兮	-11.7271
逢此世之俇攘	-11.7271
逴絶垠乎寒門	-11.7271
降省下土四方	-11.7271
莖葉可作繩索	-11.7271
故衆口其鑠金兮	-11.7272
而厥身不危敗	-11.7272
吾將往乎南疑	-11.7272
指炎神而直馳兮	-11.7272
離人羣而遁逸	-11.7272
仍羽人於丹丘兮	-11.7272
望北山而流涕兮	-11.7272
羌愈思兮愁人	-11.7272
邅吾道夫崑崙兮	-11.7272
食不媮而為飽兮	-11.7272
世雷同而炫曜兮	-11.7272
二女御九韶歌	-11.7272
色生於五岳又淮南云紫芝生	-11.7272
願沈滯而不見兮	-11.7272
及古賢聖怪物行事周流罷倦	-11.7272
押	-11.7272
笫	-11.7272
聇	-11.7272
蘭茝幽而獨芳	-11.7272
蹇蹇之煩冤兮	-11.7272
惟夫黨人之偷樂兮	-11.7273
信未達乎從容	-11.7273
願自往而徑遊兮	-11.7273
不同章句雜錯而廣異義焉	-11.7273
矛	-11.7274
潔至人貴藏暉與	-11.7274
乃遂焉而逢殃	-11.7274
芊	-11.7274
競周容以為度	-11.7274
上述唐虞三后之制下序桀紂羿澆之敗	-11.7274
君覺悟反於正道而還	-11.7274
袵	-11.7274
之厚也是以君子珍重其志而瑋其辭焉	-11.7274
人有所極同心賦些	-11.7274
何壯武厲能流厥嚴	-11.7274
土伯九約其角觺觺些	-11.7274
天地無所不到然猶	-11.7274
情冤見之日明兮	-11.7274
斲冰兮積雪	-11.7274
易初本迪兮	-11.7274
朝吾將濟於白水兮	-11.7274
渉江采菱發揚荷些	-11.7274
爢散而不可止些	-11.7274
遂叙妙思託配仙人與俱遊	-11.7274
頼	-11.7274
獲迄古南嶽是止	-11.7275
也是時秦昭王使張儀譎詐	-11.7275
紛總總兮九州	-11.7275
八柱何當東南何虧	-11.7275
嚢	-11.7275
朝馳余馬兮江臯	-11.7275
載尸集戰何所急	-11.7275
迓	-11.7276
爰止其女爰息其馬是謂懸車	-11.7276
鞫	-11.7276
使讒諛而日得	-11.7276
孰期去斯得兩男子	-11.7276
山中人兮芳杜若	-11.7276
纖	-11.7276
羿焉彃日烏焉解羽	-11.7276
見俗人祭祀之禮歌舞之樂其詞鄙陋因	-11.7276
諒城郭之不足恃兮	-11.7276
不可問故曰天問也屈原放逐憂心愁悴	-11.7276
亦非余心之所志	-11.7276
何獻蒸肉之膏	-11.7276
何芳草之早殀兮	-11.7276
報大德之優游	-11.7276
懲連改忿兮	-11.7276
擥大薄之芳茝兮	-11.7276
洔	-11.7276
警	-11.7276
譌	-11.7277
卒不見納委命自沈楚人惜而哀之	-11.7277
惜屈原因共論述故其文義不次序云爾	-11.7277
侣	-11.7277
胡維嗜不同味	-11.7277
杖	-11.7278
牆	-11.7278
輅	-11.7278
湯禹儼而祗敬兮	-11.7278
繣	-11.7278
誰可與玩斯遺芳兮	-11.7278
豈余身之憚殃兮	-11.7278
何毒藥之謇謇兮	-11.7278
孚	-11.7278
心不怡之長久兮	-11.7278
憚涌湍之礚礚兮	-11.7278
其子襄王復用讒言遷屈原於江南	-11.7278
名聲若日照四海只	-11.7278
君思我兮然疑作	-11.7278
彭鏗斟雉帝何饗	-11.7278
悲哉秋之為氣也	-11.7278
曰遂古之初誰傳道之	-11.7278
氛埃而淑尤兮	-11.7278
畵	-11.7278
竈	-11.7278
罾何為兮木上	-11.7278
譽配天萬民理只	-11.7278
豈維紉夫蕙	-11.7278
伯林雉經維其何故	-11.7278
僕夫悲余馬懷兮	-11.7278
受禮天下又使至代之	-11.7278
墀	-11.7278
女嬋媛兮為余太息	-11.7278
張咸池奏承雲兮	-11.7278
忠何罪以遇罰兮	-11.7278
望瑶臺之偃蹇兮	-11.7278
材朴委積兮	-11.7278
竊獨悲此廩秋	-11.7278
羣吠兮吠所怪也	-11.7278
蒼鳥羣飛孰使萃之	-11.7278
靈氛既告余以吉占兮	-11.7279
指西海以為期	-11.7279
授殷天下其位安施	-11.7279
擊紂躬叔旦不嘉	-11.7279
荒忽兮逺望觀流水兮潺湲	-11.7279
離騷之文依詩取興引類譬	-11.7279
珎	-11.728
招者召也以手曰招以言曰召	-11.728
煇	-11.728
來吾道夫先路	-11.728
與俱歸拘留不遣卒客死於秦	-11.728
車既駕兮朅而歸	-11.728
願承閒而自察兮	-11.728
下暗漠而無光	-11.728
工祝招君背行先些	-11.728
恬漠思欲濟世則意中憤然文采	-11.728
無所告訴乃深惟元一	-11.728
致命於帝然後得瞑些	-11.728
雖不周於今之人兮	-11.728
义	-11.728
受賜兹醢西伯上告	-11.728
操築於傅巖兮	-11.728
故善鳥香草以配忠貞惡禽臭	-11.728
殷有惑婦何所譏	-11.728
石瀨兮淺淺	-11.728
菀蘼蕪與菌若	-11.728
覽冀州兮有餘	-11.728
路不周以左轉兮	-11.728
身既死兮神以靈	-11.728
酎飲盡歡樂先故些	-11.728
靚杪秋之遥夜兮	-11.728
風颯颯兮木蕭蕭	-11.728
余雖好脩姱以鞿羈兮	-11.7281
定嫌疑出則監察羣下應對諸侯謀行職	-11.7281
湘夫人廣開兮天門	-11.7281
身之精也宋玉憐哀屈原忠而斥棄愁懣	-11.7281
㐮	-11.7281
何所營禹何所成	-11.7281
二億三萬三千五百里	-11.7281
代益作后卒然離蠥	-11.7281
日月安屬列星安陳	-11.7281
東流不溢孰知其故	-11.7281
章援天引聖以自證明終不見省不忍以	-11.7281
率其賢良以厲國士入則與王圖議政事	-11.7282
驤	-11.7282
魚鱗屋兮龍堂紫貝闕兮朱宫	-11.7282
又云矯菌桂以紉蕙則菌桂自是一物	-11.7282
如竹菌一作箘其字從竹	-11.7282
心鬱結而紆軫	-11.7282
背膺牉以交痛兮	-11.7282
阿衡欲干湯而無由乃	-11.7282
倚閶闔而望予	-11.7282
兮歸來君無下此幽都些	-11.7282
南郢之邑沅湘之間其俗信鬼而好	-11.7282
戯	-11.7282
樂鼓舞以樂諸神	-11.7282
苟得用此下土	-11.7282
雖重介之何益	-11.7282
乘赤豹兮從文狸	-11.7282
夫維聖哲以茂行兮	-11.7282
瓉	-11.7282
知前轍之不遂兮	-11.7282
簡狄在臺嚳何宜	-11.7282
薜荔柏兮蕙綢	-11.7282
陽侯之汜濫兮	-11.7282
順風波以從流兮焉洋洋而	-11.7282
魂乎歸徠無東無西無南無北	-11.7282
𣢾	-11.7282
帥雲霓而來御	-11.7283
騐	-11.7283
于咸池拂于扶桑	-11.7283
拍	-11.7283
日安不到燭龍何照	-11.7283
槃	-11.7283
築室兮水中葺之兮荷	-11.7283
閭大夫三閭之職掌王族三姓曰昭屈景	-11.7284
何感天抑墬	-11.7284
悼芳草之先零	-11.7284
曰勉陞降以上下兮	-11.7284
精瓊爢以為粻	-11.7284
鯪魚何所鬿堆焉處	-11.7284
上下未形何由考之	-11.7284
不畢辭而赴淵兮	-11.7284
任昉述異記云木蘭	-11.7284
天時墜兮威靈怒	-11.7284
安得夫良藥不能固臧	-11.7284
尚黯黮而有瑕	-11.7284
易中利心以動作只	-11.7284
東有大海溺水浟浟只	-11.7284
杳冥冥兮以東行	-11.7284
榎	-11.7284
欲變節以從俗兮	-11.7284
漂翻翻其上下兮	-11.7284
爭盟何踐吾期	-11.7284
發郢都而去閭兮	-11.7284
皵	-11.7284
紛容容之無經兮	-11.7284
罔芒芒之無紀	-11.7284
聽波聲之洶洶	-11.7284
覽相觀於四極兮	-11.7284
順欲成功帝何刑焉	-11.7284
願遂推而為臧	-11.7284
反信讒而齌怒	-11.7285
九州安錯川谷何洿	-11.7285
何所冬暖何所夏寒	-11.7285
保厥美以驕傲兮	-11.7285
反成乃亡其罪伊何	-11.7285
恐溘死不得見乎陽春	-11.7285
朝濯髪乎洧	-11.7285
蔚	-11.7285
周幽誰誅焉得夫	-11.7285
日康娛以淫遊	-11.7285
皆競進以貪婪兮	-11.7286
君罔謂汝何之	-11.7286
耀靈曄而西征	-11.7286
魂焭焭而至曙	-11.7286
何后益作革而禹播降	-11.7286
媿易初而屈志	-11.7286
悲時俗之迫阨兮	-11.7286
日忽忽其將暮	-11.7286
駕辯楚勞商只	-11.7286
2	-11.7286
何親揆發足	-11.7286
吾令帝閽開關兮	-11.7286
吾令蹇脩以為理	-11.7286
吾至今而知其信然	-11.7286
爭遣伐器何以行之	-11.7286
行比伯夷置以	-11.7286
雖少可師長兮	-11.7286
頃	-11.7286
乗白黿兮逐文	-11.7287
冀其覺悟而還之也	-11.7287
杳冥冥兮羌晝晦	-11.7287
欲以復其精神延其年	-11.7287
九天之際安放安屬	-11.7287
夕歸次於窮石兮	-11.7287
脇	-11.7287
隅隈多有誰知其數	-11.7287
靡蓱九衢枲華安居	-11.7287
吾將上下而求索	-11.7287
者楚人名曰宿莽	-11.7287
裦	-11.7287
椒專佞以慢慆兮	-11.7288
哀衆芳之蕪穢	-11.7288
雖萎絶其亦何傷兮	-11.7288
沃之土生蘼	-11.7288
禖	-11.7288
湯謀易旅何以厚之	-11.7288
以託君子飄風雲霓	-11.7288
君思我兮不得閒	-11.7288
時繽紛其變易兮	-11.7288
稟	-11.7288
竭忠誠以事君兮	-11.7288
釋舟陵行何以遷之	-11.7288
長無絶兮終古	-11.7288
放佚厥命將落故作招	-11.7289
夫人自有兮美子	-11.7289
厥利惟何逢彼白雉	-11.7289
斟灌以伐斟尋滅夏后相	-11.7289
昭瞢闇誰能極之	-11.7289
吾聞作忠以造怨兮忽謂之過言	-11.7289
四方之門其誰從焉	-11.7289
心尚幸其弗濟	-11.7289
憑不猒乎求索	-11.729
憂心煩亂不知所愬乃作離騷經離	-11.729
命靈氛為余占之	-11.729
國無人莫我知兮	-11.729
獨立不遷豈不可喜兮	-11.729
僉曰何憂何不課而行之	-11.729
出不入兮往不反	-11.729
堯不姚告二女何親	-11.729
洩	-11.729
爾何懷乎故宇	-11.729
䧏	-11.729
凌余陣兮躐余行	-11.729
妺嬉何肆湯何殛焉	-11.729
孔叢子云宰我問	-11.729
宓妃佚女以譬賢臣虬龍鸞	-11.729
小人其詞温而雅其義皎而朗	-11.729
惟兹何功孰初作之	-11.729
接輿髠首兮桑扈臝行	-11.729
流澌紛兮將來下	-11.729
稷維元子帝何竺之	-11.729
與女遊兮河之渚	-11.729
鸞皇為余先戒兮	-11.729
甬	-11.7291
也騷愁也經徑也言	-11.7291
􁀾	-11.7291
何所不死長人何守	-11.7291
厎	-11.7291
天命反側何罰何佑	-11.7291
那	-11.7292
固知謇謇之為患兮	-11.7292
猋逺舉兮雲中	-11.7292
指九天以為正兮	-11.7292
曽歔欷余鬱邑兮	-11.7292
乘白黿兮逐文魚	-11.7292
云彼采蕭兮彼采艾兮是也淮南	-11.7292
奏九歌而舞韶兮	-11.7292
戍	-11.7292
打	-11.7292
易厥首而親以逢殆	-11.7292
發憤以杼情	-11.7292
矯菌桂以紉蕙兮	-11.7292
魂魄歸徠無逺遥只	-11.7292
何卒官湯尊食宗緒	-11.7292
使夫百草為之不芳	-11.7292
俾山川以備御兮	-11.7292
凡百君子莫不慕其	-11.7292
勲闔夢生少離散亡	-11.7292
耻	-11.7292
雄虺九首儵忽焉在	-11.7292
首身離兮心不懲	-11.7292
羿淫遊以佚畋兮	-11.7293
經云崑崙有銅柱焉其	-11.7293
慝	-11.7293
得彼小子夫何惡之媵有莘之婦	-11.7293
環理天下夫何索求	-11.7293
生山側似劉寄奴	-11.7293
董	-11.7294
欲逺集而無所止兮	-11.7294
其一角正東名曰崑崙	-11.7294
忘儇媚以背衆兮	-11.7294
浮江淮而入海兮從子胥而自適	-11.7294
羌中道而改路	-11.7294
詩人采蕭蕭即艾也蕭自是香蒿古祭祀	-11.7294
㣧	-11.7294
伏匿穴處爰何云	-11.7294
何往營班禄不但還來	-11.7294
先出其命何從	-11.7294
嘉其文采哀其不遇而	-11.7294
女媧有體孰制匠之	-11.7294
巑	-11.7294
平脅曼膚何以肥之	-11.7294
心調度而弗去兮	-11.7294
明明闇闇惟時何	-11.7294
朝發軔於蒼梧兮	-11.7294
焉有石林何獸能言	-11.7294
糓	-11.7294
芞	-11.7294
陟陞皇之赫戲兮	-11.7294
何環穿自閭社丘陵爰出子文	-11.7295
圜則九重孰營度之	-11.7295
知楚人賤蕙而貴蘭矣	-11.7295
荆勲作師夫何長	-11.7296
忤	-11.7296
冩	-11.7296
獨鬱結其誰語	-11.7296
紫芝與蕭艾俱死蕭艾賤草以喻不肖	-11.7296
何續初繼業而厥謀不同	-11.7296
堂所謂含章以時發者也然蘭蕙之才	-11.7296
夫唯靈脩之故也	-11.7296
彼王紂之躬孰使亂惑	-11.7296
後飛廉使奔屬	-11.7296
比干何逆而抑沈之	-11.7296
隂陽三合何本何化	-11.7296
風過之其香藹然在室滿室在堂	-11.7296
飲余馬於咸池兮	-11.7296
地方九則何以墳之	-11.7296
夫何焭獨而不予聽	-11.7297
有毛不光潤方莖紫節七月八	-11.7297
正青似亂髪郭恭義云	-11.7297
而能盡究其所以情狀者歟	-11.7297
蘭之九畹又樹蕙之百畝招	-11.7297
反離羣而贅肬	-11.7298
溘吾遊此春	-11.7298
璜臺十成誰所極焉	-11.7298
相失國依於二斟	-11.7298
令五帝以㭊中兮	-11.7298
似水薺張勃云江離出海水中	-11.7298
朝發軔於天津兮	-11.7298
耿吾既得此中正	-11.7298
蕪乃二物也本草蘼蕪一名江離江	-11.7298
離非蘼蕪也猶杜	-11.7298
駟玉虬以椉鷖兮	-11.7298
被石蘭兮帶杜衡	-11.7298
設張辟以娛君兮	-11.7299
月盛而澤蘭生水澤中及下濕地	-11.7299
紈	-11.7299
彘	-11.7299
遭沈濁而汙穢兮	-11.7299
僧	-11.7299
無合夫焉取九子	-11.7299
聞赤松之清塵兮	-11.7299
胡終弊于有扈	-11.7299
何闔而晦何開而明	-11.7299
咸播秬黍莆雚是營	-11.7299
榣	-11.7299
角宿未旦曜靈安	-11.7299
香荆湘嶺南人家多種之此與蘭草大	-11.7299
揚雲霓之晻藹兮	-11.73
戒六神與嚮服	-11.73
無衣裘以御冬兮	-11.73
兮歸徠正始昆只	-11.7301
接徑千里出若雲只	-11.7301
傷爰哀永歎喟兮	-11.7301
屈原放流九年憂	-11.7301
抑志而弭節兮	-11.7301
者屈原之所作也或曰景差疑不能明也	-11.7301
姙	-11.7301
吾令豐隆椉雲	-11.7302
淹回水而疑滯	-11.7302
余以蘭為可恃兮	-11.7302
婬	-11.7302
衝風至兮水揚波	-11.7302
壮	-11.7303
灣	-11.7303
下幽晦以多雨	-11.7303
若必筮予之恐後之謝	-11.7303
豈唯是其有女	-11.7303
悟過改更我又何言	-11.7304
瘞	-11.7305
不遂故憤然大招其魂盛稱楚國之樂崇	-11.7305
以比三王能任用賢公卿明察能薦舉	-11.7305
駢	-11.7307
命咎繇使聽直	-11.7307
巫陽對曰掌㝱	-11.7307
驟諫君而不聽兮	-11.7307
莫吾知人心不可謂兮	-11.7307
爾雅亦作茨布地蔓生細	-11.7309
腓	-11.7309
謠	-11.7309
朝發枉陼兮	-11.7309
鑄	-11.7311
榮而不實者謂之英	-11.7311
榝似茱茰而小	-11.7313
本草枲耳一名葹	-11.7313
蘠	-11.7315
鴻鵠代遊曼鷫鷞只	-11.7315
棘賔商九辯九歌	-11.7315
女嫉余之蛾眉兮	-11.7315
竹田曰篁西都賦云篠	-11.7316
簜敷衍編町成篁	-11.7316
深林杳以冥冥兮	-11.7319
控	-11.7323
蓤	-11.7328
挺	-11.7333
枸	-11.7336
苙	-11.7336
招揺一星在北斗杓	-12.1544
陌	-12.2083
硌	-12.2089
注云其氣坱圠非有限齊	-12.2111
霧氣昧也補曰坱烏朗切軋	-12.2111
秋節將至悲嘹噍也以言物	-12.2114
螰	-12.2117
䠪	-12.2121
也䠪吐管切集韻作躖說文云禽獸所踐	-12.2121
貒音湍似豕而肥	-12.2121
惷	-12.2121
貒	-12.2124
兮飄飄一作鶉鴿補曰䳺	-12.2127
貉	-12.2127
擕	-12.2127
不及秋廣雅云蟪蛄蛁蟧即楚詞所云	-12.213
春生夏死夏生秋死或曰山蟬秋鳴者不	-12.213
淫曀闇昧也詩云不日有曀言已思	-12.2133
願承閒而自恃兮徑淫曀而道	-12.2133
跖	-12.2133
結議連謀於明堂	-12.2136
芬香之志逺行中野	-12.2136
隕墮也易曰有隕自	-12.2136
心中自恃冀得竭忠而徑	-12.2136
鸛	-12.2139
我謀議用志速速	-12.2139
志意墮落長吟江澤之涯而	-12.2139
豹襲穴而不敢咆襲入也咆	-12.2139
秣	-12.2143
河鼓牽牛别名補曰爾雅河	-12.2146
漄	-12.2146
漼	-12.2146
躡	-12.2149
鵰	-12.2149
忒	-12.2152
圏	-12.2152
也言風揄揚水流隕	-12.2155
參辰皆宿名夜分而	-12.2155
楨	-12.2155
炊土釡於堂宇之上猶言	-12.2158
五臣云原與楚同姓故云王	-12.2158
渴啜玉精飢食芝	-12.2161
騄從卭而棲遲顧望也	-12.2161
㕸	-12.2161
小草也蔓衍廣延也	-12.2161
菽釋文音焦藟力水	-12.2161
言山石髙巖非已所居靈魂	-12.2161
液瓊蘂之精氣芝神	-12.2164
話言而妄語也補曰謷五	-12.2164
䮍	-12.2164
錡	-12.2164
仁義故欣喜復之西方就	-12.2164
太液池邉皆是彫胡紫蘀	-12.2165
傷離散之交亂兮遂側身而	-12.2165
也渴釋文作㵣補曰吮常	-12.2167
緊絭糾繚也望舊土而心感傷	-12.2167
尹楚官掌政者也謷謷不	-12.2167
鶿	-12.2168
木帳曰帷言大人處卑賤小	-12.2168
硊	-12.2168
迮	-12.2168
糶	-12.2168
慌失意上坦朗下呼晃	-12.2168
星辰以解戚者也流一作匿補	-12.2168
薸	-12.2168
㵣	-12.217
也五臣云援持也言原引持	-12.2171
崑崙取駿馬而絆之騄駿馬名崑一	-12.2171
登山引木逺望愁也一云引持美木	-12.2171
察之大火西流攝提運下夜分之	-12.2171
曰大火房心尾也晉	-12.2171
􁨋	-12.2171
尔	-12.2174
蝨	-12.2174
言使韓信猛將被鎧兠鍪守於屯陣藏	-12.2174
且旦補曰昢日將曙朏	-12.2177
無軏軏車轅耑持衡者一作	-12.2177
釋文苦本切非也碅從囷硱從困	-12.2177
鴦	-12.2177
盥	-12.2177
直超越回邪志其法	-12.2177
㠢	-12.2177
䧺	-12.2177
檓	-12.2177
之中幽深險阻非君子之所	-12.218
者之偶使屈原急來也補曰	-12.218
澤之中思慮憤積一哀一樂故	-12.218
澧澧回而揚澆邪引	-12.218
逺行解倦精神罔兩無所據依而	-12.218
剝	-12.2183
浙	-12.2183
御者迷兮失軌遂踢	-12.2183
瞀亂也實是也徂去也言	-12.2183
憤亂誠欲隨水沛然而	-12.2183
來觀察其志欲北渡江縱恣自在也	-12.2183
大夾王母三鳥王母使也出山海	-12.2183
圈	-12.2183
舍止也自哀身體陸	-12.2183
若苦而復甘也五臣云酸苦	-12.2183
蕣	-12.2183
言葛藟惡草乃縁	-12.2186
之上者有四謂代秦鄭	-12.2186
古者以琴瑟歌詩賦	-12.2186
彸	-12.2186
音同補曰嗷嗷衆口愁也噭呼也音	-12.2186
炙調齊和之適以窮荆吳甘酸之變	-12.2187
羔令之爛熟取藷蔗之汁	-12.2187
羔羊子也胹一作臑釋文作濡	-12.2187
習於禮節乃敢進也	-12.2187
韻淮南曰荆吳芬馨以嚂其口嚂	-12.2187
彀	-12.2187
􁀔	-12.2187
懅	-12.2189
人反談論廊廟之	-12.2189
喪將失其鈕樞言放	-12.2189
炒	-12.2189
􁓻	-12.2189
其節度則諸樂人各	-12.219
四上謂上四國代秦鄭	-12.219
而舞發聲舉足與詩	-12.219
切硊魚毀切並石	-12.219
雅樂關睢鹿鳴是也言有美女十六人	-12.219
眄美姿儀狀姱好可近而親	-12.219
補曰詘與訥同方言謰謱拏也南楚曰	-12.219
熬鴻鶬令之肥美也補曰鶬音倉麋鴰	-12.219
言美人肥白潤澤小骨厚肉	-12.219
之中藏枯匏之瓢置於筐簏令之	-12.219
子也或曰蠹囊也瓟一作匏瓥	-12.219
於中庭言不知别於善惡也言人而不	-12.219
椒子蘭不肯反已魂魄	-12.219
腐蠹言愛小人憎君	-12.219
謂之庭言甘棠香美之木枯於草	-12.219
􁓼	-12.2193
娛樂也亂理也言美女起舞叩	-12.2193
而不見用猶抱此昭華寳璋衒賣	-12.2193
頰肉若重兩耳郭辟	-12.2193
楚宋魏之間或謂之瓢注云	-12.2193
涓	-12.2193
寳者補曰釋文鈕女有切一	-12.2196
慞	-12.2196
然而懼恐不得過也逴一作卓補曰逴音	-12.2196
告於天冀君覺寤且解憂思	-12.2196
行正直願引日月使照我情	-12.2196
鶴皆銜明月之珠以	-12.2196
遂馳騁兮陞雲揚彗光兮	-12.2196
倥偬猶困苦也言悲念我之生遭遇	-12.2196
梟鴞並進而俱鳴兮	-12.2196
灎	-12.2196
聯	-12.2196
毉	-12.2199
也一云頽流下逆身日以逺兮一云頽	-12.2199
顧視僕御心皆憔悴而有	-12.2199
儔儔一作疇一云一人	-12.2199
腝	-12.2199
君性不端晝夜謬也并一作弃一	-12.2199
文也詩一作時補曰國語曰	-12.2199
亝	-12.2199
倠醜女也彌猶徧也楹柱也言西施美好	-12.2199
官大夫見而欲奪之屈平不與因讒之曰	-12.2199
杉	-12.2199
意惑終不悟也班一作斑補曰闒茸劣也	-12.2202
駑驘雜駿馬重班駮	-12.2202
古人未有豉也内則及招	-12.2202
隰有苓陸機草木蟲魚	-12.2202
免患禍然身頽流	-12.2202
急就篇曰及有無夷	-12.2202
欷而涕滂流不可止也究一作焭	-12.2202
三閭大夫鄭詹尹漁父合繪	-12.2202
儵爍疾也闇多而明少	-12.2202
相隨鴻溶廣大悵然	-12.2202
埿	-12.2202
然有聲又有光精也下時	-12.2202
窮極山川天地之間然後得	-12.2202
元龜所出地名因名其龜	-12.2202
大蔡神龜注云大蔡	-12.2202
孤立特止居一方也五臣云	-12.2202
家語云臧氏有守龜	-12.2202
放在屮野處於深林冥	-12.2202
樂之時身常困苦於山	-12.2202
臧文仲居蔡補曰淮南云	-12.2202
扇	-12.2202
方仲春而東遷此云滔滔孟夏	-12.2202
柛	-12.2202
王使屈原造爲憲令屬草	-12.2202
聖眩於名實昧於施報	-12.2202
解於九章也一云推自割	-12.2202
軀兮比干忠而剖心子推自割而飤君兮	-12.2202
陽用事煦成萬物草木之類莫	-12.2202
頹	-12.2205
言切膂腱肉也一曰筋之	-12.2205
醎酢和以飴蜜則辛甘之	-12.2205
作澒補曰澒鴻並乎孔切溶音勇水盛	-12.2205
倉北阪城祠之其神或	-12.2205
又曰漢興世世常來光	-12.2205
夜鳴以一牢祠之名曰	-12.2205
祠城若雄雉其聲殷殷云野	-12.2205
西北海之外有章尾山有神身長千里	-12.2205
輝若流星從東方來集	-12.2205
與王圖議國事以出號	-12.2205
見過愁懼惶也戚一作慼文	-12.2205
􁉊	-12.2205
􁥠	-12.2205
其名曰蔡文選云摶耆龜注云耆	-12.2205
其聲騷屑浮雲吸吸	-12.2205
垢黒也蒶一作紛補曰蒶音墳藴	-12.2205
執忠誠而見貶黜腸中	-12.2205
委政忠良而遊息也補曰屬	-12.2205
放行山野下裳襜襜	-12.2205
旦起徘徊行於長阪之	-12.2205
舉也補曰軛於革切車轅前	-12.2205
菜曰羹無菜曰臛蠵	-12.2205
陸之中也補曰倥偬苦貢	-12.2205
雲切蒶藴藴積也黴音眉物中乆雨	-12.2205
露雞露棲之雞也有	-12.2205
多姿綽態調戲不窮	-12.2205
人將歌徐且謳吟揚舉善曲乃	-12.2208
􁊋	-12.2208
􁔃	-12.2208
空桑瑟名也周官云古者絃空	-12.2208
凍殺人也或曰逴龍色逴越也赩懼也言	-12.2208
出一方應駍聲擊流光壄盡	-12.2208
山窮囊括其雌雄注云天	-12.2208
秦文公獲若石云于陳	-12.2208
而有聲則野雞皆鳴以應之	-12.2208
蛇身而赤是燭九隂是謂燭龍疑	-12.2208
隂不見日名曰逴龍其土赤色不生草木	-12.2208
之肆則失其性而不芬	-12.2209
憂懼也補曰鵾鷄似鶴	-12.2209
濕心愁身苦憂悲且思也遇一	-12.2209
謂七月在野八月在	-12.2209
讒人所毀失其忠名也芷一	-12.2209
整我袗裳自結束也	-12.2209
暮獨宿山谷之間憂且	-12.2209
耆蔡兮踊躍據此則蓍當作	-12.2209
芒莫郎切芒芒廣大	-12.2209
班駮雜色也闒茸駑頓也	-12.2212
蠧	-12.2212
乾菜此所謂大苦盖苦味之甚者	-12.2212
士猒倦其言而不肯	-12.2212
椒薑也甘謂飴蜜也言取豉汁	-12.2212
君使忠賢如周邵者負蒭	-12.2212
視楚國山林長逺遼遼	-12.2212
先時見任身親近也補曰史	-12.2212
上衣濡濕而掩霜露單行獨處	-12.2212
吸清和之氣以充空虚療飢渴也以一	-12.2212
摠	-12.2212
攀北極而一息兮吸沆瀣以充	-12.2212
結蕙芷服之於身過鮑魚	-12.2212
蛩蛩駏驉取甘草蹷有患蛩	-12.2212
上林賦雜以留夷張楫曰留夷	-12.2212
亂結未能離於忠信也其一	-12.2212
八極道理難筭計也一	-12.2212
山遊於懸圃采玉英咀而嚼之以延壽也	-12.2212
而痛身遭疾病長窮困	-12.2212
言棄彭咸清潔之行娱	-12.2212
木蘭以言小人進在顯位	-12.2214
云毛虫有毒螫人	-12.2215
也睄窕幽冥也一作闐䏴雿	-12.2215
古覔切睄與宵同窕徒了	-12.2215
亦運轉其言埃塵忠直	-12.2215
一圖九歌九圖天問五十四圖	-12.2215
五嶽五方之山也王者	-12.2215
未知其時故屏營躑躅一作	-12.2215
苦衆人之皆然兮乗回風而逺	-12.2215
音煩淮南子云路無莎薠	-12.2215
賅	-12.2215
逴龍山名也赩赤色	-12.2215
如許由堯讓以天下辭而不肯受伯夷叔	-12.2215
待王子僑隨之奔走以學道	-12.2215
死介子推逃晉文公之賞	-12.2215
盈滿也北極太隂之中空虚	-12.2215
者如車軫耳集韻崴音隈嵬吾回切又崴	-12.2215
訊問也詩云執訊獲醜	-12.2215
塗不忍乆見貪濁	-12.2215
逺放也補曰操七到切行下孟切攘而	-12.2215
駏驉奮飛承轂輪也	-12.2215
乗太一神象之轝而遊戲也補曰淮南云	-12.2215
戲也板一作阪補曰博雅云崑崙虚有	-12.2215
樹之枝上望閬風板	-12.2215
欲徙意改操隨俗佞	-12.2215
無有候鴈鵾鷄之喜樂而	-12.2215
駏驉必負而走郭璞曰卭卭似馬而	-12.2215
􁂝	-12.2215
䕺	-12.2215
一作䕺一作叢一作藂一云菎	-12.2215
云鍾山北陸無日之地	-12.2215
升天奮揺翹羽馳使風	-12.2215
同箘簬也音窘亦音昆黀麻	-12.2215
女於後車以侍棲宿也補曰大人賦	-12.2215
弛而不張誰知其力之所至	-12.2215
弩之機以蓬蒿之箭	-12.2215
曰彭咸以伏節死義	-12.2215
有所短也騏驥驊騮一日	-12.2215
枲翮曰黀煏竹曰	-12.2215
炊以鑪炭三日三夜而色澤不變則至	-12.2215
犀革之盾必摧折而無所能入	-12.2215
狌	-12.2215
自知不用願避世逺去上	-12.2215
蒸燒而燃之則不識於物也以言取忠直	-12.2215
輂	-12.2215
輦	-12.2215
麻蒸也並音鄒蒸折麻中	-12.2215
云歎寂漠補曰嗼音莫	-12.2218
舌無聲也嗼一作漠一作歎	-12.2218
也恒山北嶽也陋小也	-12.2218
回眄周京念先聖也文	-12.2218
恬所造一云秦人薄義父子	-12.2218
狐死必首丘兮夫人孰能不反其	-12.2218
胡登切恒山在中山	-12.2218
言舊故忠臣日以䟽逺	-12.2218
駰	-12.2218
言求媚也慄音栗謹敬也粟讀	-12.2218
白冰凍重累其狀凝凝	-12.2218
腑	-12.2218
云螣蛇無足而飛文子曰	-12.2218
劉氏漢書刋誤論上林	-12.2218
嫠	-12.2218
心常長愁拊心踊也辟拊心	-12.2218
東門遥望首陽岑下有採薇士上有嘉樹	-12.2218
邪當若伯夷餓於首陽而身垂功名也補	-12.2218
雷首山伯夷叔齊所居故云首陽山又隴	-12.2218
也然天文家朱鳥乃取象於鶉南方	-12.2218
云北極五星天運無窮三光迭耀而極	-12.2218
云載玉女而與之歸張揖	-12.2218
合黎餘波入于流沙師古曰弱水謂西域	-12.2218
國也補曰淮南云九州之外有八殥西	-12.2218
媿於人志愈堅固不衰	-12.2218
復渡丹水而馳騁顧見大	-12.2218
想升賢君之朝斥去貪佞	-12.2218
炯炯而不能眠如遭大憂常	-12.2218
神明則駕蒼龍驂白虎其狀蚴虬	-12.2218
而朱者羽族赤而翔上集必附木此火之	-12.2218
蒼龍蚴虬於左驂兮白虎騁而	-12.2218
衆盛人人曉味故飲食之和	-12.2218
巳屯止歩騎士衆	-12.2218
曰内與納同肭肥也鶬音倉爾	-12.2218
落守禦堅重又芬香也五臣	-12.2218
蔽霧露言能有所覆也下則泠泠	-12.2218
言竹被潤澤上則葳	-12.2218
雞鶴知時而鳴補曰莊	-12.2218
鮮卑衮帶頭也言好女	-12.2218
茅蜩似蟬而小青色	-12.2221
贊	-12.2221
動屮木使之迎時枯槁莖葉	-12.2221
挐女居切記云飯黍稷稻粱白黍	-12.2221
蜀漢商浙間亦種之香美逾於諸粱	-12.2221
言飄風轉運揚起塵埃揺	-12.2221
燸	-12.2221
之中熊羆逸踊於君之苑也以言斥逺仁	-12.2221
云齊桓公有鳴琴曰號鍾長笛賦云號	-12.2221
在長安西上林苑中	-12.2221
杳疏凡王逸所集者皆在焉	-12.2221
王都酆武王都鄗二聖	-12.2221
草木疏二巻見於本傳其書	-12.2221
鳥獸失喪其羣匹越月踰時焉則	-12.2221
持權衡能無私阿稱	-12.2221
痺	-12.2221
悁悒者哀念楚國信	-12.2221
林澤菀積而死恨功	-12.2221
之南有小山西瞻宫闕北望夷齊又阮籍	-12.2221
叔齊伯夷弟也言已獨	-12.2221
器也轉注吐酒終日不巳	-12.2221
夏積雪其光顥顥天地皆	-12.2221
東有鳥䑕山亦謂之首陽又杜預云洛陽	-12.2221
河東蒲坂華山之北河曲之中蘇鶚演	-12.2221
神虺侍從慕仁賢也騰一	-12.2221
虚不可盈滿往必隕墜不得出也	-12.2221
於川澤忽然乗雲汎	-12.2221
施陽文也媞大奚切媞媞安也一曰	-12.2221
核	-12.2221
母醜女也勃屑猶媻姍膝行貌	-12.2221
若霧而乃見之也汎一作沉澒一作鴻補	-12.2221
訂	-12.2221
云瑶光北斗杓第七星也居中	-12.2221
以言賢者不在職位亦不知其才	-12.2221
呼各切又音霍肉羹也集韻涪	-12.2221
媞儀容姣好屏不得見	-12.2221
孝鳥鴞于驕切惡聲之鳥	-12.2221
屈原傳劉向新序嵇康	-12.2221
惡之人而逺仁賢之士也補	-12.2221
文虚大丘也丘於切崐崘	-12.2221
橘大曰柚柚似橙而實酢	-12.2221
母醜惡反得媻姍	-12.2221
水長嘯思念楚國而無解	-12.2221
江湘之間憂愁嘆吟儀容變易而漁父避	-12.2221
當何所告我忠信之情也一無	-12.2221
者如苦李之類本草云羊桃味	-12.2221
而侍左右也以言親近小人斥逐	-12.2221
肱	-12.2221
蟬遇秋寒將入水穴處而	-12.2221
跛蹇之驢又無鞭箠終不	-12.2221
騖杳冥之中脩善不倦休息崑崙	-12.2221
髙士傳或採楚詞莊	-12.2221
􁕀	-12.2221
苦鹹酸辛甘皆和之使其味行	-12.2224
任故願離衆而逺去也補曰舉有	-12.2224
舉去也言苦見俗人多言無信不可	-12.2224
嬬	-12.2224
廋	-12.2224
之語也補曰軒轅本紀云	-12.2224
焉名曰射干莖長四寸生於	-12.2224
用賢故顧其都冀遭逢也顧一作願補曰	-12.2224
一作戴一云載虹霓而	-12.2224
之中以呼風俗之人欲語以忠正之道	-12.2224
白龍川神靈龜天瑞補曰河伯化	-12.2224
筠傳沈約製郊居賦要筠讀至雌	-12.2224
龍羿射之眇其左目神龜見	-12.2224
勇猛之士若吳慶忌於阱	-12.2224
天子藩蔽故稱藩	-12.2224
封於燕故曰燕公也養馬曰	-12.2224
紛錯憒亂也言巳念我楚國風	-12.2224
邪氣入而感内兮施玉色而外	-12.2224
不解乃歎唫離騷之經以揚	-12.2224
曰滑稽圜轉縱捨無窮之	-12.2224
本無樂而二字補曰樂五効切注	-12.2224
管管仲百百里奚也管仲	-12.2224
超過海津長訣去也	-12.2224
順滑澤也文選作絜五臣	-12.2224
且欲須臾以忘憂思中心漸漸錯	-12.2224
則杼我中情屬續詩文以敶已志也杼	-12.2224
形夸骨佳不待脂粉芳	-12.2224
志上問九鬿六宗之神	-12.2224
文逞通也楚謂疾行	-12.2224
美西施有所醜又曰曼頰皓齒	-12.2224
超尤一作郵補曰氛妖氣	-12.2224
願合五嶽與八方之神察	-12.2224
上下無所遭遇意中憾恨憂而	-12.2224
切猶槩也淟涊垢濁也言	-12.2224
忱	-12.2224
雅多覽讀楚辭而傷愍屈原故	-12.2224
馺素合切方言馺馬馳也注云疾	-12.2224
切應劭曰剞曲刀劂曲鑿	-12.2224
剞劂刻鏤刀也補曰剞居綺切劂居	-12.2224
夜止曰宿言巳孤獨無耦塊然獨	-12.2224
息也言屈原放在山澤猶傷念君歎息無	-12.2224
所謂讃賢以輔志騁詞以曜	-12.2224
朝輔政治而與麋鹿同坈鳥獸	-12.2224
棼	-12.2224
王有始而無終也惜余年老而日衰兮	-12.2224
異若以鮮卑之帶約而束之也補曰前漢	-12.2224
笧	-12.2224
聽賜子胥屬鏤之劒以死將死曰抉	-12.2224
臑熟羹臛調和醎酸致其芬芳望之滿	-12.2224
苦桃惡木言君親近貪賊姦	-12.2224
萇	-12.2224
護左都水使者光禄大夫	-12.2224
躓	-12.2224
進讒人妬害加被離析	-12.2224
願修飾急疾齋戒侍從於君導迎天帝出	-12.2224
鴶	-12.2224
􁁕	-12.2224
無美名以流後世也歎一作	-12.2227
遭時不明行善罷倦心遂煩	-12.2227
急張其弦而彈之也以言	-12.2227
一作茷補曰茇柭茷並音跋	-12.2227
君子而育養小人也補曰蘘	-12.2227
大皇之壄大荒之藪一	-12.2227
孟子曰舉烏獲之任許	-12.2227
紛郁郁其遠承兮	-12.2227
霓連蜷約曰僕常恐	-12.2227
陽龜文莫耶隂漫理此	-12.2227
也言雖放弃執履忠信志如方石終不可	-12.2227
以照明之也訊一作誶鬿一	-12.2227
作慄斯一作嘶一作促訾	-12.2227
作魁補曰訊音信誶息醉	-12.2227
其君戰將赴之飯則失	-12.2227
尤過也言行道修善所以過	-12.2227
左傳曰楚氛惡淑尤言其	-12.2227
轉行度益髙我常願之也嵬一作	-12.2227
也或曰泬寥猶蕭條蕭條	-12.2227
文也或曰紫莖言荷莖紫色也屏風謂荷	-12.2227
無兩所字補曰此言沈淪於	-12.2227
稸	-12.2227
美加之忠信貞潔而遭	-12.2227
言令之汋約然小人誠難扶持	-12.2227
鄣風也縁文選作緑五臣云	-12.2227
風起吹之生文於緑波中	-12.2227
䚎	-12.2227
則曲木不治誰知其工巧者乎	-12.2227
化行也一本云悲夫補曰九	-12.2227
始去遂渡江湘之水言明旦	-12.2227
子不居爵位衆亦莫知其賢能也史記作	-12.2227
山山有九塞何謂九山	-12.2227
思云篇目當在亂曰之後按	-12.2227
探	-12.2227
政令動揺也言風起而草	-12.2227
曰之適也坑音岡山脊也周禮職方	-12.2227
曰天地之間九州八極土有九	-12.2227
汝共工莊子曰工倕旋而蓋規矩	-12.2227
泗	-12.2227
疑之不稍親近而日以	-12.2227
眎	-12.2227
稽泰山王屋首山太華岐	-12.2227
稽衡山華山沂山岱山嶽山醫無	-12.2227
竹心空屈原自喻志通	-12.2227
萎枯故自傷悲涕泣俱下	-12.2227
著倕使銜其指說文云斲	-12.2227
鵞	-12.2227
􁌘	-12.2227
天精光明而照察也晞一作	-12.223
人之執竿又引阮公詩云夜干臨層城是	-12.223
有亂少歌之不足則又發其意而	-12.223
令仁賢邵公執役養馬失	-12.223
外野政必亂身危殆也一	-12.223
寮	-12.223
府猶清廟也言使蒯	-12.223
天年應劭云精細也瓊玉之華也周禮有	-12.2231
猛獸應秋將害賊也呴一作	-12.2231
脩二物也見周禮羞致滋味	-12.2231
陽精之純者食之以禦水氣鄭司農云	-12.2231
之屈曲再舉則知天	-12.2231
切鬿音祈星名也北斗七	-12.2231
吻	-12.2231
芷楚人謂之葯博雅曰芷其葉謂之葯	-12.2231
養其羽翼一飛則見山川	-12.2231
媻	-12.2231
山海經云薫草麻葉而方莖	-12.2231
蹣	-12.2231
遊覽學者讀離騷九章之文莫不愴然心	-12.2231
飾轂以金錯衡英華照燿	-12.2231
䄂	-12.2231
列而生俱盛茂也或曰倚荷謂	-12.2231
劒注云吳王僚之弟子闔閭殺僚慶忌勇	-12.2231
明也激感也言或有耳目沈沒無所照	-12.2231
而言以信巳之志終不回	-12.2231
莖紫色風起水動波	-12.2231
言復有水葵生於池中其	-12.2231
諒信也論語曰君子貞而不諒言	-12.2231
謂侍從於君遊陂池之中赫	-12.2231
赴江湘之湍流兮順波湊而下降	-12.2231
軒輬皆輕車名也低屯也	-12.2231
阱疾郢囚性二切淮南云王子慶忌死於	-12.2231
階陛也或曰侍陂池	-12.2231
之山林責其智能亦非	-12.2231
五星在離珠北天子之果園占大光潤則	-12.2231
何宫庭之宏敞類	-12.2231
作粮補曰大象賦云瓟	-12.2231
備行度清白也珮一作佩五臣云被猶	-12.2231
其華未發為菡萏已	-12.2231
姤	-12.2231
孔子曰鳥則擇木木豈能	-12.2231
惨	-12.2231
戎戎狄也言蔡女美好反見貶黜而	-12.2231
擇鳥子思曰君子猶鳥也	-12.2231
明月之珠不能無纇注云	-12.2231
曰爾雅西北之美者有崐崘	-12.2231
果之實不登洛神賦云歎匏	-12.2231
欹	-12.2231
此章言已雖被放心在楚國徘	-12.2231
犀毗孟康曰要中大帶也張晏曰鮮卑郭	-12.2231
狄醜婦反入椒房被五	-12.2231
疑之則舉矣色斯舉矣翔	-12.2231
肯復鼓以世無知音也言已	-12.2231
舊居也補曰記曰樂樂其所自生禮不忘	-12.2231
褭	-12.2231
要一作騕補曰並音杳應劭曰騕	-12.2231
言若得值於此時而我年	-12.2231
診	-12.2231
逺客寄居孤單特也羇	-12.2231
遇聖帝升清朝也遊一作游	-12.2231
鍾子期識音者也言鍾子期死伯牙破	-12.2231
駑頓朽之人而棄明智之士也補曰	-12.2231
駱	-12.2231
駿馬太阿利劍也言君	-12.2231
鬃	-12.2231
鳳斥逐賢智畜養鵝鶩親近小人	-12.2231
此亡國之聲師延所作也與紂	-12.2234
綏	-12.2234
也據本草在草部中又生南陽川谷此云	-12.2234
淵木莖非能長也所立者然也注引陶	-12.2234
聵無義之人登於清廟	-12.2234
䆁	-12.2234
䩉	-12.2234
粻音張食米也鑿音	-12.2234
精鑿也爢屑也粻	-12.2234
𥜗	-12.2234
􁍞	-12.2234
䩉頰邊文婦人之媚也又云	-12.2234
云桂白華叢生山峯冬常青間	-12.2234
往啄米至輙驚却故南人名	-12.2234
桂樹芬香以興屈原之忠貞也補曰	-12.2234
秋節之悲故託言秋之	-12.2234
糜文選音靡反離騷云精瓊靡與秋菊芳	-12.2234
邇	-12.2234
正也言楚國俗人流從謟䛕不可	-12.2234
聚集尤多姣女可以快志	-12.2234
㢮俛視水流湯焉流行而不知	-12.2234
吉日以齊戒張揖	-12.2234
威誅無狀以征不服今乃用	-12.2234
字春秋傳曰魏大名也一曰象魏闕名許	-12.2234
恵	-12.2234
斫蓬蒿割熟肉非其	-12.2234
畜養也言園中之禽則有孔	-12.2234
登鄂渚髙岸還望楚國嚮秋	-12.2234
莊子云御六氣之辨李云平旦	-12.2234
遊伊洛間道士浮	-12.2234
長歎心中憂思也五臣云秋冬之風	-12.2234
作寥一作漻五臣云寂漻	-12.2234
作巧匠斲一作劉一作斷	-12.2234
則天下兵起李竒曰旬始氣如雄雞見北	-12.2234
展足以極逺道也以言使賢者	-12.2234
旬始其怒青黒象狀如鼈	-12.2234
殖芋荷養育苦李愛重小人斥逐君	-12.2234
瀞	-12.2234
皇天名也一云旬始星名	-12.2234
直不能枉性以追曲俗	-12.2234
芰菱也秦人謂之薢茩言池水之	-12.2234
西施美女也媞媞好貌也詩曰好	-12.2234
言騏驥壹馳千里乃騁	-12.2234
遂至天皇之所居也旬始	-12.2234
郵曰太白名旬始如雄雞也補曰造至也	-12.2234
𫐠	-12.2234
云華蓋七星其柢九星合	-12.2234
作糟丘酒池長夜之飲斷斮朝	-12.2234
刳	-12.2234
去之賢臣驚怖奔亡	-12.2234
墨之文居於幽冥之處則	-12.2234
太微宫垣十星在翼軫北天子之	-12.2234
愠惀若可鄙者小人之忼慨若	-12.2234
敗曰爽言乃復烹露棲之肥雞臛	-12.2234
氣又云集重陽之清徴注云言上止	-12.2234
清烈不敗也補曰爽音霜	-12.2234
無道國人中道倍畔	-12.2234
矇瞍之徒以爲不明也言持	-12.2234
能故君之正法膠戾不用衆	-12.2234
視意欲一還知當何時	-12.2234
象賦注云庫樓十星五柱十	-12.2234
賢臣奔亡使國荒亂而傾危也補曰軛轅	-12.2234
賦云華蓋於是乎臨映注	-12.2234
道不立心中怛然而氣熱	-12.2234
釋文作礚苦蓋切補曰忼苦朗切忼慨憤	-12.2234
雖易水土志不革也補曰禹貢	-12.2234
雖有執轡之御猶不能制必摧車軛而折	-12.2234
丠	-12.2237
錯茂盛人不異而采取則不成絺綌	-12.2237
骳	-12.2237
泛濫汎音馮浮也一讀作泛	-12.2237
言巳遭時之不幸無可奈何	-12.2237
亦將失其位喪其所也補	-12.2237
揺注云將笑故好齒	-12.2237
是屬音燭付也淮南云咸池者	-12.2237
有駭雞犀注引抱	-12.2237
犀駭雞宋哀曰角有光雞見而駭	-12.2237
獻雞駭之犀夜光之璧於秦援	-12.2237
王乃下來集歸於有	-12.2237
神契云神靈滋液則	-12.2237
禄不建忠信妄行佞	-12.2237
飛於大荒之野循於四極回旋而戲	-12.2237
㓕	-12.2237
一作鴻一或作壹睹一作覩	-12.2237
便猶安也言所選美女五人儀	-12.2237
坎埳坷不平也輡軻車行不平	-12.2237
天乗雲伇使百神似若仙者雖身沈沒名	-12.2237
明智之獸象玉之車文章	-12.2237
君非隨之運轉常不止息	-12.2237
壽冉冉而日衰兮固儃	-12.2237
往田獵於春囿之	-12.2237
従	-12.2237
或曰仞因也以五榖因苽	-12.2237
春草始生囿中平易	-12.2237
石蘭香草疏布陳也一本兮	-12.2237
羽翼弱水暮宿風穴注云風穴北	-12.2237
肥美堪用種植五榖其穗長六仞又	-12.2237
自此以上皆美仙人超	-12.2237
菰一作苽補曰菰苽並音孤此言積榖之	-12.2237
設施也苽梁蔣實謂雕葫也言楚國土	-12.2237
霜則害草木傷其貞節也	-12.2237
騰馳而臨平易又可歩行遂	-12.2237
之徒使滿國廬則讒邪道塞也補曰自此	-12.2237
之徒若三苗者置之四裔進用	-12.2237
人君無有清明之時也五臣云潦	-12.2237
俍	-12.2237
傴	-12.2237
僂	-12.2237
周流覽於四海兮志升降以	-12.2237
周靈王太子晉也好吹笙作	-12.2237
善日吾將去君而逺行也	-12.2237
嬋連族親也言屈原與	-12.2237
山三十餘年後來於	-12.2237
山茂林之上設後時	-12.2237
復至志意悵然自傷放逐恐命	-12.2237
怐	-12.2237
愴痛感動歎累息也五臣云	-12.2237
政治也補曰鞹去毛皮也本草澤	-12.2237
暫	-12.2237
水也水經及山海經注云漢水出隴西	-12.2237
漻	-12.2237
漾東流爲漢周禮荆州	-12.2237
炭得氷則滅以喻忠佞不可並處則	-12.2237
瑕	-12.2237
異行不可同趣也色一	-12.2237
聚盈滿其中又養鸞鳥	-12.2237
蔤	-12.2237
見上椒與菌桂木類也蕙	-12.2237
賦騁辭㠯讃其志則皆列於譜録世世相	-12.2237
踏	-12.2237
重我絳袍采色鮮也襲一作龍	-12.2237
鵂	-12.2237
􁠬	-12.2237
一無瞭字一云杳冥冥而	-12.2237
也詩云羔裘豹袪言已衣服長大攝葉儲	-12.2237
亡春風之被離鄣音章壅也記	-12.2237
劒則長好文武並盛	-12.2237
博訪天庭在何處也大一作太	-12.2237
古人有言曰狐死正丘首仁也廣志曰	-12.2237
合二十九星在角南晉天文志云庫樓十	-12.2237
執轡如組一無能字補曰組	-12.2237
娵一作娶補曰荀子曰閭姝子奢莫知媒	-12.2237
宁	-12.2237
廣不得施用東行則左袖	-12.2237
攝葉儲與不舒展	-12.2237
榑桑無所不覆也挂一作絓榑	-12.2237
此而成文於彼善御者亦動之	-12.2237
泣下交流濡茵席也	-12.2237
綬屬列女傳曰詩云執轡	-12.2237
遂賜劒而自殺後越	-12.2237
鑣勒也銜飾口鐡也	-12.2237
濃	-12.224
慶雲喻尊顯也言葛	-12.224
然而痛不能置中正而行	-12.224
不顧地以貪名兮心怫	-12.224
之臣陞於顯朝枉一作	-12.224
團	-12.224
幸復一見君陳忠言還	-12.224
欲卑身下體以順風俗心	-12.224
勸我行當如蒼龍能屈能	-12.224
妄欲移徙則失甘美之木亡其	-12.224
蘓	-12.224
䖝	-12.224
䘳	-12.224
循四極而回周兮見盛	-12.224
心憂憔悴從夜終明不能寢	-12.224
數仞此花初發如	-12.224
桂蠹以喻食禄之臣也言	-12.224
桎	-12.224
玖	-12.224
自八公之徒咸慕其	-12.224
蠹食芬香居髙顯不知	-12.224
言彼神智之鳥乃與聖	-12.224
貿	-12.224
鷩	-12.224
鹿竹髙篋也戰國䇿楚	-12.224
吕氏春秋果之美者有雲夢之柚	-12.224
言麒麟仁智之獸逺見避	-12.224
迥	-12.224
𬞞	-12.224
不異賢愚若駕罷牛	-12.224
宋閔公之臣也與閔公	-12.224
寇	-12.224
梟螻蟻所制其困如此	-12.224
無有違離情志潔淨有如束帛也一	-12.224
爭道以手搏之絶其脰戚親	-12.224
螻音樓管子曰蛟龍水虫之神者也	-12.224
言猨狖當居髙木茂林見其才力而置之	-12.224
連之族親恩深而義篤也嬋	-12.224
陋之中使無怨恨令	-12.224
㱃	-12.224
一注云鶴白鳥也補曰瑶光	-12.224
之庭被服雲氣而通神明	-12.224
九天之神使㑹北極之星舉虹采	-12.224
云呼吸沆瀣兮飡朝霞琴賦云餐沆瀣兮	-12.224
位勢視忠正之人當何如乎甚於	-12.224
可據行願立師曠使正	-12.224
宸	-12.224
幽僻闇昧也言羣臣皆行枉曲	-12.224
庭經云恍惚之間至清靈	-12.224
旦早趨駕於天庭也	-12.224
此作惛惛惛惛不	-12.224
濛沾辱也一音昏荀子注	-12.224
王夫差臣諫令伐越夫差不聽	-12.224
癡	-12.224
眄盲人輕之以爲無明也言賢者遭	-12.224
睇眄之也補曰淮南曰離朱之明	-12.224
睢許鼻切恣睢自得	-12.224
禦禁也言君國之道路	-12.224
美飲之醲滑入口消釋不苦歰令	-12.224
而藏之無益於用也以言養育小人置之	-12.224
肝縣結思念詰屈而不可解	-12.224
葉細俗呼為老薺	-12.224
被服芬香履修清白偏與貪	-12.224
要也鶴一作鵠瑶一作揺	-12.224
輿中塗以回畔兮駟馬驚而	-12.224
遽趣也爽差也存前也言乃	-12.224
醇醲之酒清而且	-12.224
采旗也招指指麾也旗所以招指語人也	-12.224
鳥從鷦明羣鶴潔白之士過於瑶光	-12.224
不得盛長以言君令急促剗傷百姓	-12.224
之清白彼之貪濁也愉	-12.224
云王逸誤以天庫及二十	-12.224
名也東胡好服之師古曰犀	-12.224
容猶整飾衣服冠則崔嵬	-12.224
習而信之蔽逺賢者言不	-12.224
苦罪切壘纍並音磊魁	-12.224
言已思年命欲暮願且假日	-12.224
言秋氣起則西風急疾而害生物使百	-12.224
韋昭云梁王魏瞿之美女娵音鄒集	-12.224
􁃦	-12.2243
煢	-12.2243
數萬頭也海中山石㠜㠜嶽嶽萬首交跱	-12.2243
蛤	-12.2243
進反見珍重御尊顯也	-12.2243
一作黤黮補曰曖音愛曃音	-12.2243
也補曰鄢於建切地名在楚音	-12.2243
仁義交錯條理成也以言才	-12.2243
承天奉地服循仁	-12.2243
曵引也晧旰光也彗一作篲	-12.2243
注云伯里奚知虞公不可諫	-12.2243
箕子紂之庶兄見比干	-12.2243
也言美女頰有靨輔口有竒牙嘕然而	-12.2243
作輡補曰埳苦闇切軻	-12.2243
埳	-12.2243
子之禮後八公與安俱	-12.2243
幰	-12.2243
彈冠浴蘭莫振衣處世忌太	-12.2243
淮南王安好書招致賔	-12.2243
滯卒無所逢遇也埳一作轗一	-12.2243
神仙傳曰八公詣門王執	-12.2243
精當若彗星能耀光明舉當若鵕䴊	-12.2243
者淮南小山之所作也昔淮南王安	-12.2243
莽莫朗切晻烏感切日無光	-12.2243
謂龜蛇位在北方故曰	-12.2243
輔一作䩉補曰靨於牒切䩉與輔	-12.2243
一曰星橑簷前木爾雅曰桷謂之	-12.2243
下建章宫太液池中師	-12.2243
也文選釃作醨五臣云餔糟歠	-12.2243
事也餔食也歠飲也糟醨皆	-12.2243
布香椒於堂上一云播	-12.2243
悵恨也惝昌兩切怳詡往切驚	-12.2243
旛	-12.2243
榦	-12.2243
檼	-12.2243
綜子宋切機縷也	-12.2243
言云臧獲奴婢賤	-12.2243
賢智之士於山林之中亦	-12.2243
及古賢聖之出遇清	-12.2243
君心内距閉而意不開敏	-12.2243
巢乎成湯放桀於南巢乃廬江居巢非此	-12.2243
懔	-12.2243
明之時而當貪亂之世也	-12.2243
欲妄行周比茍容自入	-12.2243
磋	-12.2243
經丹穴之山有鳥焉五彩而文曰	-12.2243
言遂貫出澒濛之氣而	-12.2243
不甘樂猶思楚國念故	-12.2243
也相仍者相從也煙液所積者	-12.2243
亊	-12.2243
云列缺曄其照夜應劭	-12.2243
云黔嬴也天上造化	-12.2243
其土爛人求水無所得些	-12.2243
名漾水東流至武都沮縣始爲漢水	-12.2243
告我家七月七日待我緱氏山頭果	-12.2243
多口妄鳴以喻讒佞言楚	-12.2243
太傅意不自得及度湘水	-12.2243
室法像舊廬所在之	-12.2243
彷徉無所倚廣大無所極些	-12.2243
改更先聖法度背違仁義	-12.2243
服清白以逍遥兮偏與乎	-12.2243
桺	-12.2243
此以下屈原陳己之志於	-12.2243
為衣裳被服愈潔修善益明	-12.2243
然怊悵自恨心悲毒也補曰	-12.2243
璣以言君不知賢愚忠佞之士猶同玉石	-12.2243
生有形兆伯庸名我	-12.2243
眼與珠璣同貫而不别也一云麤嵎	-12.2243
禧	-12.2243
經云列缺去地一千四	-12.2243
能存能亡奄然失所	-12.2243
至竟陵合滄浪之水又東過三澨水觸大	-12.2243
與羌水合至江夏安陸縣名沔水故有漢	-12.2243
言賢愚異心何可合同知君與	-12.2243
詹尹乃端策拂龜	-12.2243
賢聖雖終精著天也傅	-12.2243
隂主殺陽主生言司命常	-12.2243
隨風指靡也担釋文云音丘列切舉	-12.2243
電以至於天使北辰係綴	-12.2243
露暴也申重也叢木曰林草木	-12.2243
鞭風伯使先驅兮囚靈	-12.2243
魂識路之營營何靈魂之信直兮	-12.2243
齗	-12.2243
冠崔嵬而切雲兮劒淋離而從	-12.2243
幼少有大節度以應天地長大	-12.2243
暮至東方之玉山也爾雅曰東	-12.2243
曰堯不慈舜不孝言此	-12.2243
樓按庫樓形似酌酒之器故	-12.2243
琪	-12.2243
誠信不可與期也補曰伴讀若背	-12.2243
臯北渚之間自傷不得居朝廷也渚	-12.2245
人君被服芬香故以香	-12.2246
方圎殊性猶白黒也五臣云願	-12.2246
以禮得中和也補曰遷逡猶逡	-12.2246
千首㠜㠜一作旌旌一注云萬首海中	-12.2246
板松二曰𤣥圃一名閬風上曰層城一名	-12.2246
信約而復背之也古者君臣將共	-12.2246
可得知故中心沸熱若湯也踊躍	-12.2246
惜者哀也誓者信也約也言哀惜	-12.2246
終身貧賤而困窮也知一作	-12.2246
逮暗也曭音儻日不明也	-12.2246
如使可得羈係而畜之則與犬羊無異不	-12.2246
慱	-12.2246
生彭城髙數尺白花	-12.2246
貴也言賢者亦以不可枉屈	-12.2246
丐	-12.2246
作被五臣云言秋氣傷物	-12.2246
傷生不遇時遭困戹也扳一作攀	-12.2246
凋百草而梧楸同罹此患百	-12.2246
哽	-12.2246
明耀靈東君日也張平子云耀靈忽其西	-12.2246
昏喻晚節也戰國䇿云行百里者半	-12.2246
林木喻賢人補曰奄忽也遽也離披	-12.2246
江潭之鱣鯨兮固將	-12.2246
猶若駕跛鼈而欲上山	-12.2246
稱也罵奴曰臧罵婢曰獲男	-12.2246
芳於汙泥臭井之中	-12.2246
茂木又芟刈也披一	-12.2246
蔽其美質失其性也以言	-12.2246
託載日月之光耀也楚	-12.2246
間靜時也補曰淮南曰薄于虞淵是	-12.2246
雄雌和樂羣戲行也廱一	-12.2246
雇	-12.2246
露一云瀓霧露補曰馮	-12.2246
䰟眇眇而馳騁兮心煩	-12.2246
之心以量清潔之士壹或作	-12.2246
之緩急也補曰歸藏曰乾者積石風穴之	-12.2246
欲竭節盡忠終不見省但	-12.2246
無所依附也征夫一作征	-12.2246
能卧心中煩憤氣結滿	-12.2246
艦	-12.2246
言君施行業以失道身	-12.2246
讒佞是以歎焉補曰欸音	-12.2246
震電西方少隂其神蓐	-12.2246
䘮	-12.2246
不意明君弃其至美而逢	-12.2246
世家武王卒子文王立文王卒子	-12.2246
並甘臭惡不知人者信任讒佞故忠信之	-12.2246
之使死於林薄之中猶言取賢	-12.2246
之氣來塵塺人也愈	-12.2246
也琨玉名箟竹名蔽集	-12.2246
云指居桀切橋音矯	-12.2246
以除姦惡夷滅貪殘無	-12.2246
伏戲與同制量下佐堯	-12.2246
何卜而以問詹尹何哉時之人去其所當	-12.2246
作琨一作箟補曰菎音昆香草	-12.2246
入其羅囿出升縣	-12.2246
其位用心迷惑過惡	-12.2246
去其所謂吉乃吾所謂凶也此卜居所以	-12.2246
司馬子椒内賂夫人鄭	-12.2246
宋玉援引天時託譬草	-12.2246
居其所而衆星拱之言遂	-12.2246
平以失情實則使衆人	-12.2246
度執守忠貞以自娛樂	-12.2246
弟弑杜敖自立是	-12.2246
徼	-12.2246
怨也以言君不稱量士之賢愚	-12.2246
憂愁又寒苦也補曰㠁嵯楚岑又	-12.2246
摧挫也矜嚴也凝止也汜濫猶沈浮也	-12.2246
文云㑹稽山也一曰九江當嵞也	-12.2246
新沐者彈其冠人之情也其	-12.2246
曰城復于隍也隍一作	-12.2246
望之不得到舉手謝時人數日去淮南云	-12.2246
木以茂美之樹興於仁賢早遇	-12.2246
欲盪滌讒佞汙穢之臣	-12.2246
江離皆香草不若椒蘭之盛也列	-12.2246
牲者五羊之皮食牛以要	-12.2246
犬也弟秦伯弟鍼也	-12.2246
猶結玉枝申脩忠誠立長	-12.2246
百里大人賦云貫列缺之倒影	-12.2246
百里奚自鬻於秦養	-12.2246
百鬼勿令害賢者也鬼谷一	-12.2246
磨	-12.2246
秦繆公莊子曰秦穆公以	-12.2246
綴係也北辰北極星	-12.2246
而同用之則使智者恨	-12.2246
而君愈貪濁如氛霧	-12.2246
補曰怵音黜盪音蕩揺動	-12.2246
補曰晉獻公虜虞君與其大夫	-12.2246
識路知道路也營一	-12.2246
貌也言小人在位以其愚心	-12.2246
賢以五羖羊皮贖之釋其囚	-12.2246
足平王死和欲獻恐	-12.2246
陵蔽不得視後有峻大之山	-12.2246
雲冥冥而闇前山峻髙以無垠兮遂	-12.2246
願承君閒暇之時竭効忠言	-12.2246
麟可係而羈兮豈云異	-12.2246
流沙也嶓冢山名尚書嶓	-12.2249
一曰斂容普茗普	-12.2249
一幹五七華而香不足者蕙也蕙	-12.2249
畦留夷與掲車兮雜杜蘅與芳芷	-12.2249
自惜被服芳香菲菲而	-12.2249
芝蘭之芬芳鸞鳳之毛羽也	-12.2249
雖不若蘭其視椒榝則逺矣	-12.2249
百官也天有三宫謂紫宫太微文昌也故	-12.2249
萹音匾爾雅曰竹萹蓄注云似	-12.2249
覽觀衆民多無過惡	-12.2249
不用曰廢周周公旦也邵邵公	-12.2249
之臣若宋萬者置於兩楹之間	-12.2249
左朱雀之拔拔補曰集韻	-12.2249
彰補曰被音披反離騷云亡春風之被	-12.2249
扄	-12.2249
整理車駕而鼓嚴也補曰	-12.2249
斾	-12.2249
欲登君階陛正言直諫恐	-12.2249
澒濛氣也朅去也澒一	-12.2249
牛馬羊豕即在釋畜論	-12.2249
王自矜伐也憍矜	-12.2249
道路塞也一云閨闥五臣云雖思見君而	-12.2249
釋文作芺於表切一作茷音蒲艾	-12.2249
青虬負轂而扶轅也躣釋文作躩	-12.2249
顔眉平直美目竊眄媔然黠慧	-12.2249
驂駕素虹而東西也言	-12.2249
懣憤也言巳愁思展轉而	-12.2249
㹤	-12.2249
不得竭其忠誠心中愁悶展轉怫	-12.2249
也蝦小魚也陼一作渚補曰蝦釋文	-12.2249
古云黃鵠大鳥一舉千里	-12.2249
文云蝦蟇也一曰蝦虫與水母	-12.2249
明之稱者以循用天地之	-12.2249
欲急西行者將命於神務寛大也補曰	-12.2249
欲齧人又有大狐健走千	-12.2249
正也夫先三后者據近以及	-12.2249
江湘之水油油長流	-12.2249
無也紐結束也易曰束帛戔戔	-12.2249
申誠信而罔違兮情素	-12.2249
言今世之人皆好朋黨	-12.2249
言周家選賢任士官得	-12.2249
言誰有契契憂國念君欲委	-12.2249
道舉賢任能使得萬事之	-12.2249
一作舫矇一作矇補曰舫與方同	-12.2249
不肯與弟鍼犬鍼以	-12.2249
丘而歎涕兮悲吸吸而長	-12.2249
中其餘陽氣猶尚焱焱而顧欲	-12.2249
之兮張揖曰靈圉衆仙号也淮南云騎	-12.2249
也窘急也言桀紂愚惑	-12.2249
也詩云契契寤歎契一作挈補曰爾	-12.2249
以喻夷狄相與忿爭君上何故當怒之乎	-12.2249
佻契契逾遐急也契苦絜切注云賢人憂	-12.2249
其常也獨當憂秦吳	-12.2249
又琴操曰卞和得玉璞以獻楚	-12.2249
吹呴呼吸吐故納新熊經鳥伸	-12.2249
咎也古本仰作卬五臣云衆人皆	-12.2249
嚙	-12.2249
圉釋文作圄補曰並魚吕切大人賦云悉	-12.2249
天道施行惶遽衣不及	-12.2249
威怒益盛刑酷烈	-12.2249
子平王立和復抱其	-12.2249
帝也虞淵日所入也淮南言日出湯	-12.2249
帝聖孰嗜味夫死	-12.2249
度意卑禹湯不欲事	-12.2249
引左傳禹㑹諸侯於塗山	-12.2249
心愁思也升一作陞縣一作懸補曰縣音	-12.2249
忠佞兩心不可同吾將逺	-12.2249
施用背棄忠直之臣以自	-12.2249
星房星東方之宿蒼龍之體也傅	-12.2249
有歧首之蛇爭共食牧草之實	-12.2249
殊形能感楚人故異之而使之	-12.2249
毒之蟲受天命負力	-12.2249
泊莽莽兮與埜草同死	-12.2249
淵言乃鞭風伯使之掃塵	-12.2249
無助易傷害也一云聖孤特補曰易以	-12.2249
牧注同一作枚補曰爾雅曰中有枳首蛇	-12.2249
竊悲夫蕙華之曽敷兮	-12.2249
維五臣云言桀紂苦人使亂用捷疾	-12.2249
羨似面切貪慕也列	-12.2249
背君門奔馳而去者以	-12.2249
舜與合法度而共治也	-12.2249
解於離騷經同一作周補曰鑿	-12.2249
言堯舜有聖賢之臣八人以	-12.2249
言已居隘險之處山石蔽日霜雪並㑹身	-12.2249
言已雖不見用猶尊髙	-12.2249
躞	-12.2249
近而放逐也補曰臊音騷周禮曰豕盲視	-12.2249
雰音芬詩傳雰雰雪	-12.2249
非玉以其欺謾斬其一足	-12.2249
頭蛇也韓非子曰虫有螝者一身兩口爭	-12.2249
不諦也淮南云若士曰我游乎	-12.2249
不貪今人貪而不味此言貪嗜讒	-12.2249
之國政號曰五羖大夫孟子曰	-12.2249
之陸離所謂余飾之方壯	-12.2249
九州以成萬邦人有九竅以通精明屈原	-12.2249
云地理志遼東郡無慮縣應	-12.2249
人媵百里傒亡秦走宛楚	-12.2249
四時春生夏長人君則之以	-12.2249
士而用舉肥美者不言其才	-12.2249
惶遽怵惕之憂也一作	-12.2249
楚東使於齊以結強黨	-12.2249
濛之光此其下無地而上	-12.2249
瀝清酒也言使吳人醲醴和	-12.2249
物豐茂上闇下僞用法殘	-12.2249
物量榖不知審其多少同其稱	-12.2249
與語國事繆公大說授	-12.2249
苾	-12.2249
蘭之芬芳而猶若是况衆臣若	-12.2249
補曰泊止也莽莽莫古切草	-12.2249
西窮冥冥之黨東開鴻	-12.2249
言我雖不見用猶和調	-12.2249
貴臣上官大夫靳尚之屬	-12.2249
鄙人執之繆公聞百里傒	-12.2249
養萬物秋殺冬藏亦順	-12.2249
􁙤	-12.2249
不以私害公自辛至甲四	-12.2251
今宣州當塗縣也塗山氏女即女嬌也史	-12.2251
州三者濠州四者文字音義云嵞山古國	-12.2251
春東北蘇鶚演義云塗山有四一者	-12.2251
氏春秋曰禹娶塗山氏	-12.2251
藭	-12.2252
囷	-12.2252
隈一作隅補曰嶓音波禹貢導	-12.2252
先造父以善御幸於周繆王得	-12.2253
志也湣一作涽一無乎字一云	-12.2253
澔	-12.2253
鳫	-12.2253
不見用也謇一作蹇差一音	-12.2253
其威儀整其服飾以異於衆也	-12.2253
誠惜芳之菲菲兮反以兹	-12.2253
一作紫微補曰大象賦云文昌制戴匡之	-12.2253
也補曰觀音貫釋名曰觀者於	-12.2253
周閣也歩壛長砌也壛一作櫩補	-12.2253
嘼一作獸補曰畜音嗅師古云嘼者人之	-12.2253
招揺在上注云在北斗	-12.2253
擾謹也言南堂之外復有	-12.2253
曲屋周旋閣道歩壛	-12.2253
樓也霤屋宇也言復有南房别室	-12.2253
歎曰山中檻檻余傷	-12.2253
流李善云歩櫩長廊	-12.2253
置管仲晏嬰任	-12.2253
膚若氷雪綽約若處子質銷鑠謂凡質	-12.2253
至葱嶺注云葱嶺山	-12.2253
記中霤注云古者複穴是以名室	-12.2253
蹇兮姣服言神降而託於巫也下文亦曰	-12.2253
閻	-12.2253
雨降而萬物殖故以風雨	-12.2253
不可至也補曰月令云九門磔攘天子有	-12.2253
坎然恚恨以數逢憂	-12.2253
寳失其好也以言取賢	-12.2253
志純一也欵一作款五臣云悃欵懃苦	-12.2253
忙	-12.2253
放去山中車行檻檻鳴	-12.2253
樂也君不肯還已則復遽	-12.2253
門逺郊門近郊門城	-12.2253
中禮意也謇一作蹇五臣云謇正直	-12.2253
也浸一作侵補曰浸音侵浸	-12.2253
以自約束修善不怠也支一作枝洲一	-12.2253
位也惜君國失賢道	-12.2253
奴走横奔也一作駒	-12.2253
彌猶次也好相親宻和順次以相代也補	-12.2253
心直指執履誠信	-12.2253
恥弱顔易媿心志堅固不可侵犯	-12.2253
所務不同若粉墨也一	-12.2253
揚其志意而常屈伏汰一作波補曰挑	-12.2253
桀紂之亂若衣披不帶者以	-12.2253
椒也行息依蘭椒不忘芳香以自	-12.2253
歎曰江湘油油長流	-12.2253
翣	-12.2253
自相親比承順上意乆則相代也代一	-12.2253
裝飾兩結垂鬢	-12.2253
裮	-12.2253
䀜	-12.2253
之流上泝江淵而歸	-12.2253
之紅白又以丹沙畫	-12.2253
也又云又東至江夏雲杜縣入	-12.2253
伯而用之當未遇之時故無匹偶而與相	-12.2253
佞相與並同以妬賢者雖有聖明之智	-12.2253
前忠賢何由能進補曰鑿音造鏨	-12.2253
厥美以從俗言子蘭之自	-12.2253
台他來切補曰舞賦云舒恢炱之廣	-12.2253
右足抱璞不釋而泣	-12.2253
右足武王薨共王即位和	-12.2253
君臣之賢欲往就之也	-12.2253
君輕刖而重剖石遂	-12.2253
呼而出故吸而求新蹀虚輕舉	-12.2253
夏口是夏水之苔江之汜也所謂過夏首	-12.2253
夏氣大而育物爾雅曰夏	-12.2253
子胥被害則變心從俗	-12.2253
孰誰也蕪逋也言郢城兩東門	-12.2253
尾而比於列星音義云傅	-12.2253
屋楊子曰震風淩雨然後知夏屋之	-12.2253
山阜濡澤草木茂也而一作兮	-12.2253
崙之上北向天門衆神盡來謁見	-12.2253
帡	-12.2253
幪	-12.2253
年亦老暮亦思還返故	-12.2253
形容異制且鮮明也五臣	-12.2253
得之以相武丁奄有天下	-12.2253
念楚國願得君命進道北行	-12.2253
意如字一音博下文忽	-12.2253
所謂御良也一名孫無政	-12.2253
掘發也賢人守其志分亦不	-12.2253
擴	-12.2253
於袁切補曰悇他胡切	-12.2253
日而論其識如此則其文可	-12.2253
曰楯軒樓版也言所造之	-12.2253
朋友之交忠則見信不忠則生怨臣忠於	-12.2253
槩平也權衡皆稱	-12.2253
死而不葬也補曰吳王取子胥尸盛以鴟	-12.2253
深邃下有檻楯上有樓板	-12.2253
淼滉彌望無際極也渡一	-12.2253
然抱朴子曰南海蕭丘之中有	-12.2253
猶思楚國念故舊欲竭忠信以	-12.2253
王良晉大夫御無恤子	-12.2253
界也曹子建詩云江介	-12.2253
睫腥犬赤股而躁臊左傳曰薄而觀之薄	-12.2253
精著於房尾也補曰大火謂之大辰大辰	-12.2253
而待放屈原與楚同姓無相去之義故加	-12.2253
芡	-12.2253
荆山之下以獻武王王以示玉人	-12.2253
蕋	-12.2253
血及成王即位又獻之成王曰先	-12.2253
言已所言上參之於天下合之於地旁引	-12.2253
設得道輕舉登崑	-12.2253
謀行功成後用讒言賜	-12.2253
貂	-12.2253
足文王即位復獻之以	-12.2253
辛壬娶塗山癸甲生	-12.2253
金匱曰北海之神曰顓頊淮南云	-12.2253
鋏古挾切莊子曰韓魏	-12.2253
鑿圎穴斫方木内之而必參	-12.2253
隂臣也陽君也言楚王惑蔽羣	-12.2253
雲兮載赤霄而淩太	-12.2253
霅	-12.2253
飄翔一作飄飄補曰俞與	-12.2253
𣺌	-12.2253
搴汀洲兮杜若將以遺兮逺者	-12.2254
日以喻君隂曀闇昧也言已欲	-12.2256
靈公至於濮水之上夜半聞鼓琴聲召師	-12.2256
而兼赤曛日入餘	-12.2256
䂓	-12.2256
天之六府計集所㑹	-12.2256
射之中則舉進不中退却各以	-12.2256
旁本草云亦呼爲萹竹萹薄謂萹	-12.2256
戇	-12.2256
我之志動告神明以自徴驗也㠯一作使	-12.2256
獲之士何能稱權衡興至治乎或	-12.2256
蓬艾親入御於床笫兮	-12.2256
一云言西方之土廣大遥逺無所臻極雖	-12.2256
上攀北斗躡房星也	-12.2256
乃可切補曰集韻㫊倚可切其字從可	-12.2256
九年之中不吾反兮思彭咸之水	-12.2256
云琅玕是石之美者明瑩若珠之色此言	-12.2256
依歸又悲哀飛鳥生鶵其身煩	-12.2256
所依止不可得也一作仿佯五臣云仿佯	-12.2256
文選作猗柅上音倚下女綺切五臣	-12.2256
曰古之君子必佩玉進則揖之退則揚	-12.2256
有玉澤之質二美雜㑹兼在於	-12.2256
澤質之潤也玉堅而有	-12.2256
無民可依其野廣大行	-12.2256
琅糾錯也琳琅聲也謂帶劒佩衆	-12.2256
盛少之時願驅馳於君	-12.2256
者以二馬夾轅謂之服又駕一馬與兩服	-12.2256
臞	-12.2256
鳴也琳音林琅音郎俗作瑯爾雅曰西北	-12.2256
吾令鳯鳥飛騰兮繼之以日夜	-12.2256
一佩易之漸浸也管子云五沃之土	-12.2256
主參之兩旁二馬遂名	-12.2256
之馬於芳澤之中以觀聽	-12.2256
云稻稌也又急就篇云稻黍	-12.2256
人聲耳中聊啾而自鳴意中憂愁	-12.2256
使不得進也補曰狺音垠犬	-12.2256
君命也馳一作駝五臣云椒丘	-12.2256
含憂彷徉意中悵然惝罔長	-12.2256
惜身之放逐誠哀僕	-12.2256
愓	-12.2256
房也喻君初好善布	-12.2256
握持招揺東西指也補曰天	-12.2256
歸也一作黨荒補曰聊音留	-12.2256
相對心中澹然而自欣樂俱吸衆氣而遊	-12.2256
結旋也飛谷日所行道也言乃	-12.2256
舟航濟渡湘水寂無	-12.2256
芎藭小别以其根上苗下似禾	-12.2256
蝮大蛇也蓁蓁積聚之	-12.2256
見赤松子與王喬也喬一作僑	-12.2256
言皇天不純一其施則萬物	-12.2256
謂朝霞正陽淪隂沆瀣之氣也言	-12.2256
逺在他域史記云何故	-12.2256
三寸首大如擘本草引張文仲云蝮蛇	-12.2256
不可開寤語以政道尚不别繒	-12.2256
中多蜮鬼必傷害於爾躬也乎一作兮補	-12.2256
之名矣當其決入之所土謂之賭口焉鄭	-12.2256
九牧鑄鼎象物桀有	-12.2256
也補曰春秋昭元年夏秦伯之弟鍼出	-12.2256
也補曰莊子曰彭祖得之上及有	-12.2256
也謂可受以心不可傳以言語也莊子曰	-12.2256
以迷惑國將傾危朝用蕪薉而	-12.2256
住立而失志者以不能隨從	-12.2256
佞相與朋黨並食重	-12.2256
共王聞之乃使人理	-12.2256
其聲相聚讙譁君	-12.2256
分江冬竭夏流故納厥稱	-12.2256
十八年楚囚張儀	-12.2256
厲王使王尹相之曰	-12.2256
及羮詩云誰謂荼苦其甘如薺又曰	-12.2256
合至長沙與澧水沅水湘	-12.2256
唯以謬諫名篇當如糜信之	-12.2256
善彌固手乃杖執美玉之華帶	-12.2256
在山源谿水中聞人聲便以口中毒射	-12.2256
夏經殷至周年七百六十七	-12.2256
天下賢能英俊慕周之	-12.2256
奉玉璞而獻之武王王使王尹相	-12.2256
封狐大狐也言炎土之氣多蝮虺惡蛇	-12.2256
山中三日三夜泣盡而繼之以血	-12.2256
序云荆人卞和得玉璞而獻之荆	-12.2256
復釋去之是時屈平	-12.2256
懲艾而心終不移易也艾	-12.2256
方舟隨江而浮兾幸	-12.2256
旁能射人甚者至死陸機云一名射影人	-12.2256
明月之珠揚赤霓以	-12.2256
星其生無父母登假三	-12.2256
時人所窮困憂一作自念一無	-12.2256
智羣聚羅列竟識洞	-12.2256
曰廇音淵中庭也刜	-12.2256
欲盡忠竭其所聞陳	-12.2256
此章言已佩服殊異抗志髙逺	-12.2256
此言荼苦而薺甘不同	-12.2256
泮	-12.2256
王之十六年張儀相楚	-12.2256
申子伍子胥也吳封之於申故	-12.2256
皆好辭而以賦見稱皆祖屈原之從容辭	-12.2256
相與不厚則長相怨恨	-12.2256
稱驂也服馬夾轅其頸負軛兩驂在衡外	-12.2256
纂組綬類也一作繤一作綦五	-12.2256
罪秦伯也晉語曰秦后子來仕其車千乗	-12.2256
能復前而不遇賢君也徊一作	-12.2256
蜮射人者也前漢五行志云蜮生南越亂	-12.2256
見水中投人影則射之或謂含沙射人孫	-12.2256
角切淮南曰出於無垠鄂之門注	-12.2256
言今謂之夏水劉澄之著永初山川記云	-12.2256
言已不及賢君而騁極	-12.2256
逺行千里不敢顧念身之貧賤	-12.2256
道可傳而不可受謂可傳	-12.2256
醢肉醬也苦以膽和醬也	-12.2256
長大也毫一作豪一無哉字	-12.2256
雄虺一身九頭往來奄	-12.2256
飾軒版承以黒玉之梁五	-12.2256
鶱	-12.2256
七事以起發太子也猶楚	-12.2256
乃就聖帝顓頊敶列	-12.2256
之節也或曰七諫者法天子有爭臣七人	-12.2256
仙人陵陽子明所居也大	-12.2256
古詩之義故子雲有曲終奏雅之	-12.2256
大川民俗異也介一作	-12.2256
屈原傳獨載懐沙之賦	-12.2256
所去取未必當也自漢以來靡麗之賦勸	-12.2256
捫	-12.2256
東方朔追憫屈原故作此	-12.2256
正也謂陳法度以諫正君也古者人臣三	-12.2256
游天地之間以泄憤懣卒從彭咸之所	-12.2256
牛上屠屠國文王喜載與俱歸也	-12.2256
界補曰薛君韓詩章句曰	-12.2256
章獨不然初曰長太息而	-12.2256
者秋夜方長而夏夜最短憂	-12.2256
逸三蒼曰從後出前	-12.2256
遭值文王功冠世也五臣	-12.2256
雄作伴牢愁亦旁惜	-12.2256
騰馳道安極也陵一作淩補曰前漢	-12.2256
髙山度阻險也路一作道	-12.2256
王少離散亡放在外乃使專設諸	-12.2257
秋菊之落英輔體延年莫斯之	-12.2257
娶日也淮南曰禹治鴻水通轘轅	-12.2257
文王親往問之吕望對曰	-12.2257
梅伯數諫而至醢兮	-12.2259
澤之龜反相與貴重小石也	-12.2259
桂登一作升補曰漢天文志若	-12.2259
夏禹指麾取士一國之人悉進之也	-12.2259
蕙香草蘭屬或以蕙為薫葉失之	-12.2259
辛菜也音了魏都賦云習蓼蟲	-12.2259
曛	-12.2259
訖于四海史記曰北至	-12.2259
不得志上口廣切下音朗又	-12.2259
侯謂所射布也王者當制服	-12.2259
六星如匡形故史遷天官書云斗魁戴匡	-12.2259
則能中所以别賢不肖	-12.2259
文昌六星在北斗魁前一曰上將二曰次	-12.2259
設禮張施大侯使衆	-12.2259
云騑驂旁馬則騑驂一也	-12.2259
其身無有虧歇而巳所謂道行則兼善天	-12.2259
凌冬不凋山海經桂林	-12.2259
放傷念坐於空室之中孤子焭焭東	-12.2259
方有神其狀猪頭從目被	-12.2259
曰荷芙蕖注云别名芙蓉本草云其葉名	-12.2259
朱裳是也北山移文曰焚芰製而裂荷衣	-12.2259
而去遂下湘江運轉而行也	-12.2259
謂之驂又駕一馬乃謂之駟故	-12.2259
體也以言賢者遭世亂雖屈其身亦	-12.2259
云得人以祀無肉字五臣云醢	-12.2259
博士議以誼任公	-12.2259
卿絳灌之屬毁誼天子	-12.2259
墉墻也易曰射隼于髙墉之上	-12.2259
山徐顧睨也輿一作與	-12.2259
念我長生而乆僊兮不如反余之故	-12.2259
日反安意於草野自歎之詞補曰騁騖弭	-12.2259
淆	-12.2259
璆琳美玉名琅玕狀	-12.2259
生早失其雄其母孤	-12.2259
舘	-12.2259
補曰禮記南方曰蠻雕題交	-12.2259
詎	-12.2259
賦云椒丘之闕服䖍云丘名如淳云丘多	-12.2259
邅河圖括地象言崑	-12.2259
非好善之主故賢才	-12.2259
飲食居處動以香潔自修飾也五臣	-12.2259
不值聖王而年老也五臣	-12.2259
之臣斥逐忠正背先	-12.2259
之間九十一度注云自東	-12.2259
事以助治而見怨恨於左右	-12.2259
人之徽美也塵一作虚補曰列仙傳	-12.2259
十一萬九千里淮南云兩維	-12.2259
南有虫名短狐谿毒亦名射工其虫無目	-12.2259
善獲官爵也補曰此言以聖	-12.2259
如綬文大者百餘斤一名反鼻	-12.2259
得仙俱去張良欲從赤松子	-12.2259
慉	-12.2259
慰也臝一作裸補曰論語曰楚狂接	-12.2259
文云輬卧車音涼招魂云	-12.2259
方之寒地凍厚六尺北	-12.2259
曰擥力敢切持也掔	-12.2259
有七衡而六間相去合	-12.2259
火自燒至崑山上常止西	-12.2259
珍瑋道士夀無窮極	-12.2259
璆琳琅皆美玉名也爾雅曰	-12.2259
痛忠直之言忤逆君耳使之恚怒若申胥	-12.2259
石室隨風雨上下炎	-12.2259
萬里厚百丈尸子曰朔	-12.2259
蜮似鱉三足以氣射	-12.2259
言人交接初淺恩不甚篤則輕	-12.2259
訟閭娵好女也言君親信	-12.2259
駟指其騑馬則謂之驂詩曰兩驂如舞	-12.2259
一云毛至秋而耎細故以	-12.2259
世無堯舜及桓文也五臣云言豈無賢才	-12.2259
中㦧惻之悽愴兮	-12.2259
也以喻君蓀一作荃補曰數所矩切計	-12.2259
也言巳見讒人倡君爲惡則	-12.2259
出北區也寒門北極之門	-12.2259
北至巴郡與涪水漢水白水	-12.2259
南書房翰林等逐一考訂	-12.2259
去其八然司馬相如大人賦率用逺遊之	-12.2259
史記曰彈劒而歌曰長鋏歸來乎	-12.2259
君推逐妾御出之勿令亂政	-12.2259
告我以不閒暇遂以	-12.2259
周行四方車以弊敗馬又罷極蹇然邅徊	-12.2259
哉一作裁補曰莊子秋豪	-12.2259
商商紂暴虐鼎遷于	-12.2259
四庫全書館進呈	-12.2259
太公吕尚年九十而窮	-12.2259
奧	-12.2259
妃賢女於伊雒之水以	-12.2259
子曰東海則有紫紶魚鹽焉	-12.2259
引本草云薺味甘人取其	-12.2259
徊冀想君命飄風卒至復聞讒佞洶	-12.2259
心終不徙願志行流於後	-12.2259
曲木截仁義進則讒佞	-12.2259
服兩首齊驂首差退也連蜷句蹄也蜷巨	-12.2259
毫夏落秋生言君用	-12.2259
水合至江夏與沔水合至	-12.2259
水是江流沔非沔入夏假使沔注夏其勢	-12.2259
江謂之夏汭故春秋傳	-12.2259
泣於荆山之下悲極血出	-12.2259
洶洶讙聲也言已至於山之隈曲且徐	-12.2259
滄浪之水是近楚都故漁父歌云	-12.2259
滄浪漁父所歌也因此言之水應由	-12.2259
滅二者殊義不可不察也五臣	-12.2259
燁	-12.2259
王欲與懷王㑹屈平曰	-12.2259
盛波逐湘江之流赴陽侯	-12.2259
矣求其友聲又曰呦呦鹿鳴	-12.2259
秋毫更生其容㣲眇而日	-12.2259
竊怨君之不寤兮吾獨死而後	-12.2259
終莫敢直諫辯一作辨	-12.2259
組而赤組音祖綺文繒也縞音杲素	-12.2259
能用也御謂御馬者補曰古者車	-12.2259
自勉修善身雖遭	-12.2259
與司馬相如俱好辭賦客	-12.2259
萷音梢萷蔘木枝竦也釋文文選	-12.2259
蜴	-12.2259
蝪	-12.2259
譛	-12.2259
象即仿像也又云罔象相求注云虚	-12.2259
賊害也姦惡也言天有虎豹地有	-12.2259
鋪陳其志以自證明也補曰古詩	-12.2259
險戲猶言傾危也言周	-12.2259
雖小司馬云兎豪在秋而成	-12.2259
吳王子孫世盛以伍子胥	-12.226
茍余情其信姱以練要兮	-12.226
處湣湣之濁世兮今安所	-12.2262
初生甘蔗根似薑	-12.2262
普各匹沃二切本草蘘荷葉似	-12.2262
曰文昌宫其中六星司録	-12.2262
曰貴相四曰司録五曰司命六曰司	-12.2262
殁	-12.2262
一名閬風上曰層城一名	-12.2262
獨善其身虧一作虧其字從兮五臣云	-12.2262
乃種江離蒔香菊采	-12.2262
元氣温煖不殞零也補曰	-12.2262
卒太子王僚立闔廬諸樊之	-12.2262
唯獨也昭明也虧歇也	-12.2262
噣	-12.2262
夢卒太子諸樊立諸樊卒傳弟餘祭	-12.2262
得人強笑憙而狂獝也或曰	-12.2262
楊之樹居危殆也言已有孤子之憂	-12.2262
游目往觀四荒之外以求賢君也五臣	-12.2262
瑶石之次玉者詩云報	-12.2262
綾	-12.2262
芙蓉蓮華也上曰衣下曰裳言巳	-12.2262
哀傷悽愴累息心	-12.2262
㕑	-12.2262
也言君張朱帷襜襜鮮明冝與	-12.2262
人之所笑也或曰衆兆之所異	-12.2262
仲春隂陽㑹時徙我東行遂	-12.2262
其城方三百里蓋天	-12.2262
其常也一本云兩足以之畢斮補	-12.2262
冰凍紛然如積雪言巳勤苦也一云斲	-12.2262
動鳴五玉鏘鏘而和且有節度	-12.2262
史記云上官大夫短屈原於頃	-12.2262
啄齧也言天門凡有九重使神虎豹執	-12.2262
夢卒有子四人長諸樊次餘祭	-12.2262
岷同書曰岷山導江岷山在蜀郡氐道縣	-12.2262
惡心惑意迷而不自知	-12.2262
文辭尚在可求索也	-12.2262
書曰若藥不瞑眩厥疾	-12.2262
札公子光者諸樊之子也以	-12.2262
淮南云矰繳機而在上	-12.2262
濯我足清斯濯纓濁斯濯足矣自取之	-12.2262
疢	-12.2262
秋蘭兮青青綠葉兮紫莖	-12.2262
絟	-12.2262
縣西北漢水中有洲名滄浪洲地	-12.2262
翀	-12.2262
虧歇也言巳愁思安可奈	-12.2262
行沖天而驅不以貧困	-12.2262
誠可任用弃在山野亦	-12.2262
車騎籠茸而競驅也補曰	-12.2262
道乃使靈巫常持好劒以辟	-12.2262
邪要垂衆佩周旋而舞	-12.2262
鑰	-12.2262
䄇	-12.2262
䇿駑駘而取路當世豈無騏驥兮誠	-12.2262
一作掔音啓妍切五臣	-12.2262
上謂君也浸稍也言佞人	-12.2262
不縱兮騏驥絆而不試	-12.2262
之䇿於是復用屈原屈原諫懐	-12.2262
以逺禍兮孰侵辱之可	-12.2262
使人追之不及三十年秦昭	-12.2262
便其風氣一云便且遂也一云便	-12.2262
信見放故作此辭以辯	-12.2262
冇	-12.2262
包胥乃之秦請救兵	-12.2262
孫善養性能調鼎進雉	-12.2262
安歩徐行而勿驅也擥	-12.2262
左足武王即位和復獻之武王不	-12.2262
彭咸欲與齊志節而不能忘也補曰曁其	-12.2262
忍罪過而不去者欲以除去恥辱誅	-12.2262
忠謀可以安國利民反信	-12.2262
所至仰見飛龍翩翩而上將有所登自傷	-12.2262
枝柯長而殺者櫹音蕭槮音森櫹槮	-12.2262
樂憺然意安而忘歸也補曰	-12.2262
此擥轡按節徐行游	-12.2262
水涯也言乃馳騁六龍過	-12.2262
無所登至也五臣云下視水石淺淺而流	-12.2262
熊謂塗山氏曰欲餉聞	-12.2262
牋	-12.2262
王不明信用讒言而放逐	-12.2262
王見諸侯朝徐者衆心中覺悟恐	-12.2262
用不順堯命乃殛之羽山死於中野女	-12.2262
皆作有聲者以聲聞有色者以色見	-12.2262
神之狀也一云豕爪踞一作	-12.2262
者初疑靈氛之言復要巫咸巫咸與百神	-12.2262
而伐楚破郢昭王出奔於是申	-12.2262
而先倡者然明者察	-12.2262
而滅徐也故司馬法曰國雖	-12.2262
舉虹旗驅上玉門	-12.2262
覧	-12.2262
言我寧奄然而死形體	-12.2262
越之美女越絶書曰越王	-12.2262
逐江湘之順流赴陽侯之潢洋兮下石	-12.2262
選鬼神於太隂兮登閶闔於	-12.2262
郊祀志云宋太丘社亡而鼎沒于泗	-12.2262
銷骨顔師古曰美金見	-12.2262
靈氛告以吉占百神告以吉故而此獨曰	-12.2262
頗合古人左圖右書之意但今書	-12.2262
飛龍翩翩而舉物皆遂性我獨	-12.2262
馮衍賦云韓盧抑而	-12.2262
駐	-12.2262
鮌不順君意亦將遇害也殀一作	-12.2262
鶴立於秦庭啼呼悲泣七日七夜	-12.2262
也交鼓對擊鼓也縆一作絙	-12.2262
人䰟魄以益其心賊害之甚	-12.2262
傷念先祖乃從屈瑕建立基功子	-12.2262
出不忘本行則思歸物之	-12.2262
固然非獨於今比干伯	-12.2262
圜鑿受方枘而能合者誰有異道而相安	-12.2262
好之巫使與日神相保樂也補	-12.2262
子云中於機辟辟毗亦切	-12.2262
志剛厲特處不羣以言忠正之士亦執	-12.2262
思念古者人君得道則	-12.2262
我之屋上流水周旋	-12.2262
擊鳥也月令曰鷹隼蚤	-12.2262
祜	-12.2262
自漂疾然歌樂者猶復依激	-12.2262
蓋覆也言讒人長於巧詐	-12.2262
蕭統作文選自騷經卜居漁父之外九歌	-12.2262
補曰搷田殿二音集韻嗔音田引	-12.2262
言多使君亂惑也補曰鑠書藥切鄒陽曰	-12.2262
言武王發欲誅殷紂何所	-12.2262
附也機臂弩身也於一作以臂一作辟補	-12.2262
髀	-12.2262
齊交又使誘楚請與俱㑹武關遂脅	-12.2262
也弋亦射也論語曰弋不射宿弋	-12.2264
以孝史記云舜父瞽叟盲而	-12.2264
書云父頑母嚚象傲克諧	-12.2264
舜母死瞽叟更娶妻而	-12.2264
塗山氏往見禹方作熊慙而去至嵩	-12.2264
竊不敢忘初之厚德	-12.2264
聲乃來禹跳石誤	-12.2264
之亡王紂名也藏菜曰菹肉醬曰醢菹一	-12.2265
及南北江獠人凡禁呪句尾皆稱些	-12.2265
流沙東至于蟠木淮南曰	-12.2265
將與雞鶩爭食乎	-12.2265
清商歌曲也言赤松王喬	-12.2265
職則百僚師師百工惟時於是遂禪以位	-12.2265
見斥逐也補曰御侍也孟子所謂二	-12.2265
靈乃湘水之神非湘夫	-12.2265
一曰美玉也瑱壓也音鎭下文云白玉兮	-12.2265
也芰䔖也秦人曰薢茩荷芙蕖也	-12.2265
余五臣云牽引古事而罵詈我	-12.2265
來牽引數怒重詈我也詈一作罵予一作	-12.2265
偷為逸樂則中正之路塞矣隘狹也逺遊	-12.2265
周禮玉鎭大寶器故書作瑱鄭司農云瑱	-12.2265
因名曰秭歸縣北有原故	-12.2265
寄切生水中葉浮水上花	-12.2265
念彼讒人相與朋黨嫉妬忠直	-12.2265
樂不知君道不明國將傾危以及其身也	-12.2265
祭卒傳弟夷未夷	-12.2265
與妙同要眇精微	-12.2265
言纎阿不執轡而御則馬不	-12.2265
詈原有親親之意焉九	-12.2265
進不見納猶復裁製	-12.2265
鍾鍾子期牙伯牙也言	-12.2265
閉主啄齧天下欲上之人而殺之	-12.2265
也淵室也淵文選作泉補曰旋泉絹切唐	-12.2265
以樂神也五臣云使曲節希緩而安音清	-12.2265
以致於治非獨索蕙	-12.2265
任一人也故堯有禹咎繇伯夷	-12.2265
則國傾危追而自悔亦無所及	-12.2265
善之女多才長意用	-12.2265
妬欲共被離摧折而	-12.2265
子能亡之我能存之遂出奔	-12.2265
忠信不美如毒藥也一	-12.2265
曰我必亡郢申包胥	-12.2265
梧告愬聖舜已行忠直而	-12.2265
欲横奔而失路兮堅志而不忍	-12.2265
泉山海經云雷澤中有雷神龍身	-12.2265
王不察其長利兮卒見棄	-12.2265
菜秀是也葉似苦苣而細花	-12.2265
行從廣千里又無舟航也從廣一作縱	-12.2265
行與衆殊異也補曰咍呼來切	-12.2265
謙	-12.2265
迅疾也言復有九國諸侯好	-12.2265
雄曰翡青而雌曰翠翡大於羣其羽	-12.2265
頭而望其狀騫然也補曰	-12.2265
願身行善常若於今	-12.2265
䶵竽列備衆樂以樂大神䶵一作	-12.2265
乃選擇衆鬼神之中行忠正者與	-12.2265
之期也補曰前漢有江夏郡應	-12.2265
也安能以變四夷之俗	-12.2265
也素白也言橘青葉白華	-12.2265
以手循其珥也博雅曰劒珥謂之鐔鐔	-12.2265
以蕙草蒸肴芳蘭	-12.2265
位有直言諤諤諫正君非	-12.2265
作方補曰婞下頂切東坡曰	-12.2265
剛而犯上者耳若小人	-12.2265
南神止我令北征也還	-12.2265
又曰徐偃王好行仁義陸地而朝者三	-12.2265
后后土也皇皇天也服習	-12.2265
吹簫而思舜也洞簫賦云吹參	-12.2265
在衣爲懷在手爲握瑾瑜美	-12.2265
夏禹治水有應龍以尾畫地即水泉流通	-12.2265
嬛	-12.2265
孔上出一寸三分名翹	-12.2265
孔子誅少正卯也釋文詬作訽	-12.2265
山天維絶地柱折故東南傾也	-12.2265
後漢書曰徐夷僣號率九夷以伐宗周	-12.2265
復無彊友黨輔以保	-12.2265
思念也五臣云謂神肯來斯而我作樂	-12.2265
恐懼吞聲小語消滅	-12.2265
敶印綬班然相亂	-12.2265
於君而未肯來則吹簫作樂誠欲	-12.2265
晨來下浮雲依斐承我屋	-12.2265
曕	-12.2265
曰古人云詔靈保召	-12.2265
此章言已初見信任楚國幾	-12.2265
江陵千樹橘與千	-12.2265
海惟揚州厥包橘柚錫貢漢書	-12.2265
漁父皆賦也後之作者茍得其一體可以	-12.2265
無所施也邸一作低補曰邸	-12.2265
然盛茂誠可喜也以言已行清	-12.2265
然而身死國亡子孫無類注云偃王	-12.2265
白華赤實皮既馨香又有善味	-12.2265
目盼然又好口齒而	-12.2265
知貪香餌必近於死故下	-12.2265
神巫也姱音戸叶韻舊苦胡切未	-12.2265
羑	-12.2265
習南土便其風氣屈原自喻才	-12.2265
翼曰應龍有角曰虬龍無角曰	-12.2265
者曰非義不妄食引	-12.2265
而一作之五臣云惟思也紛糅衆雜	-12.2265
能事帝堯堯美而饗食之補	-12.2265
至太卜之家稽問神明決之蓍龜卜	-12.2265
落補曰糅女救切蓬蒲孔	-12.2265
行仁義不設武備楚文王滅之徐國今	-12.2265
補曰廣雅嗼音莫安也	-12.2265
補曰羽山東裔在海中	-12.2265
詞則靈氛之占誠吉矣然	-12.2265
詩曰巧笑倩兮美目盻兮大招曰靨䩉	-12.2265
誤欲去之路尚未甚逺也	-12.2265
諸深切鏗可衡切饗有香音神仙傳云彭	-12.2265
謂楚莊王曰王不伐徐必反朝徐乃舉	-12.2265
謂江南也遷徙也言橘受	-12.2265
車以反故道及已迷	-12.2265
輜軿侍從響雷震也補曰	-12.2265
輜軿車前衣車後也從楚	-12.2265
邪所害是以播遷故竊悲	-12.2265
野又曰造攻自鳴條朕	-12.2265
鑠銷也言衆口所論萬	-12.2265
長驅歸周以救亂淮南子云徐偃王被	-12.2265
闇惑終不覺寤令我	-12.2265
馳不出湘潭之間補	-12.2265
􁅊	-12.2265
㫖旦夕在於君前而使忠賢之士	-12.2265
一本余下有今字一云余奈	-12.2265
失道則危禹湯以王桀紂	-12.2265
女蘿施于松上吕氏春秋云或	-12.2265
寒而右凉地不滿東南右熱而左温	-12.2265
御以告楚令伐徐一日而至於是楚文	-12.2265
扶桑上而升天則俳佪太息顧	-12.2265
櫾	-12.2265
注簫一作蕭補曰儀禮有笙磬笙鍾周禮	-12.2265
畏其方熾乃分東方諸侯命徐偃王主	-12.2265
笙之樂注云鍾笙與鍾聲相應之笙	-12.2265
簫鍾與簫聲相應之鍾歟簴其吕切爾雅	-12.2265
縣鍾磬之木也瑶簴以美玉	-12.2265
者三十六國穆王聞之遣使	-12.2265
遇聊作詞賦以舒展憂思樂	-12.2265
陸地而朝者三十六國穆王後得驥	-12.2265
麾津西海也蛟龍水虫也	-12.2267
其犬豕一云何肆犬豕補曰列女傳云瞽	-12.2267
往飛復使浚井舜告二女二女曰時	-12.2267
欲以殺舜然終不能危敗舜身也一	-12.2267
殺舜使塗廪舜告二女二女曰時唯其戕	-12.2267
生象愛後妻子常欲殺舜舜順	-12.2267
西北陬弱水出其西南陬河水入東海三	-12.2267
人欲上天而釋其階知其無	-12.2267
而就逺兮遵江夏以流亡	-12.2267
允	-12.2267
曰道可受兮不可傳其小無内兮	-12.2267
畚	-12.2267
鍤	-12.2267
電馮怒注云馮盛也方言云憑怒也楚曰	-12.2267
欓	-12.2268
芝予以其不明又其辭曰適山而采	-12.2268
慌亡也言已欲求賢人而未	-12.2268
浮沅而馳騁兮下江湘㠯邅	-12.2268
云服之無射逓更也言使好女十六人	-12.2268
倦則使更相代也或曰夕逓代	-12.2268
寖	-12.2268
散亡而去若水之流不可復還	-12.2268
歌曰滄浪之水清兮可以濯	-12.2268
之中復有螭龍神獸隨流	-12.2268
吾與重華遊兮瑤之圃	-12.2268
東西䰟魄惶遽而求忠直之士欲	-12.2268
汁也薄無味也言吳人工調醎酸爚蒿蔞	-12.2268
皆避而逺去駒即騏驥也跳走	-12.2268
言征行之夫罷勞周道行	-12.2268
騀	-12.2268
佩忠信芳香之行彌加明	-12.2268
其不見用則有命焉或離或合神實司	-12.2268
周禮大宗伯以槱燎	-12.2268
將猶長也言日月西流晼	-12.2268
就有義用捨有命屈子於同姓事君之義	-12.2268
所以藉飯食也易曰藉	-12.2268
時不可留哀我年命不得	-12.2268
盍何不也把持也瓊玉枝	-12.2268
紛而衆盛忠信勃勃而愈明	-12.2268
美舜遭值於堯妻以二女以治天下内之	-12.2268
舉手曰麾小曰蛟大曰龍或言以	-12.2268
舜往浚井格其入出從掩舜	-12.2268
蕙肴以蕙草蒸肉也藉	-12.2268
蕭瑟兮草木搖落而變衰	-12.2268
路道也幽昧不明也險隘	-12.2268
鏗鏘九奏乃成屈原自傷不	-12.2268
霰雪雰糅其増加兮	-12.2268
駶音局一本駒亦音衢六切	-12.2268
之以渡似周穆王之越海比鼉黿以	-12.2268
之氣而吐其塵濁内潔	-12.2268
何承謀夏桀終以滅喪	-12.2268
余既不難夫離别兮	-12.2268
夏禹觀河見長人魚身出曰	-12.2268
夷即馮夷也淮南又作馮	-12.2268
子釋鬼篇曰馮夷以八月上	-12.2268
宅宅之東北有女須廟	-12.2268
山深林其路險阨又多虎	-12.2268
忪	-12.2268
怔	-12.2268
慼泣下如以水灑地也補曰灑所	-12.2268
曰翡赤羽雀翠青羽雀異物志云	-12.2268
有賢姊聞原放逐亦來歸喻	-12.2268
楚將適於吳見申包胥謂	-12.2268
注伍子胥作申包胥然上文有申子注云	-12.2268
潼	-12.2268
爰水經引袁崧云屈原	-12.2268
琢	-12.2268
瑳	-12.2268
穆天子傳曰遂宿于崑崙之阿赤水之	-12.2268
精豈河伯也馮夷得道	-12.2268
縁鵠飾玉后帝是饗	-12.2268
而生各有所樂或樂諂佞或	-12.2268
豹匍匐蜿蜒以候伺人也鰅	-12.2268
不困貧也五臣云以此二事問其所	-12.2268
之徒咸悲其文依而作詞故號為楚詞亦	-12.2268
之義騷經曰奏九歌而舞韶兮聊假日以	-12.2268
也好和滋味善斟雉	-12.2268
也易曰天險不可升語曰猶	-12.2268
二八美女其儀容齊	-12.2268
云稷即穄也今楚人謂之稷穱音捉	-12.2268
云蕙蘭椒桂皆取芬芳	-12.2268
云雜非一也申用也椒菌桂皆香木	-12.2268
人謳吟進雅樂奏大吕五音六律	-12.2268
以勤力獻進其功堯	-12.2268
以自通也補曰釋名云階梯也	-12.2268
以飾劒故取以名焉	-12.2268
伹	-12.2268
何愽謇而好脩兮紛獨有此姱節	-12.2268
作伏補曰書云伊尹相湯	-12.2268
作秦五臣云吳蔡秦皆國名補	-12.2268
促席男女雜坐比	-12.2268
倐	-12.2268
具不敢寧處親舉枹擊	-12.2268
古公欲立王季令天命及文王	-12.2268
古者旌旗皆載於車上故逸以承旂	-12.2268
吳太伯太伯卒弟	-12.2268
命駕騰馳而往不待侣偶	-12.2268
哀上愚蔽心不照也識一	-12.2268
喜也言湯行天之罰以誅	-12.2268
坐除去威嚴放其	-12.2268
天之不可階而升欲釋階	-12.2268
天也言天帝親致紂之罪罰故殷之命不	-12.2268
天命生於江南不可移徙種	-12.2268
天對云光徴夢祖憾	-12.2268
夫人有命召呼則願	-12.2268
嫗	-12.2268
子明經言春食朝霞朝霞	-12.2268
孟子所謂完廪捐階是	-12.2268
季子季子即不受國光父先立即不	-12.2268
將騰馳車馬與使者俱往喻	-12.2268
年然後死事見天問左傳曰其神化	-12.2268
引雌蜺㛹嬛嬛與	-12.2268
往見太卜鄭詹尹曰	-12.2268
後人因加此字按楚	-12.2268
徐周衰其後僣號稱	-12.2268
忠直而身放弃心迷意惑不知所	-12.2268
愚而不言也漠一作嗼一作寞五臣云寂	-12.2268
救也一云上帝之罰補曰此言紂	-12.2268
斵	-12.2268
曰上句皆原所從也下句皆原所去也卜	-12.2268
曰上於九下巨九切蟉虬盤曲	-12.2268
曰劒口一曰劒環珥耳飾也鐔所	-12.2268
曰窈窕淑女言山鬼之	-12.2268
曰舞雲門奏大吕言	-12.2268
有又字補曰要於笑切眇與妙同前漢	-12.2268
械	-12.2268
欲歸骸骨於楚國而衆不知故	-12.2268
殁也於矯切鮌遷羽山	-12.2268
沆瀣者北方夜半氣也夏食正陽正	-12.2268
泭一作柎補曰汜音泛泭	-12.2268
淮南王安作離騷經章句則大義粲然後	-12.2268
漠益知稻即稬共粳並出	-12.2268
無失而言蕪穢傾危者心惑意異也以平	-12.2268
爢碎也言欲渉流沙少止	-12.2268
玉之璞而獻之楚厲王或	-12.2268
留恐百姓飢餓糧食絶乏也絶	-12.2268
百姓成化刑不用也	-12.2268
秋食淪隂淪隂者日没以後赤	-12.2268
稽之舊章合之經傳	-12.2268
聽讒復放屈原以此考	-12.2268
肩齊膝恣意調戲	-12.2268
胥於五湖之中問志行之見者也一	-12.2268
蟺	-12.2268
補曰歈音俞古賦云巴俞宋蔡說文	-12.2268
見騷經便讀作㛹毗連切	-12.2268
言司命執持天政不以人	-12.2268
言有不慈之過卑父之累也補	-12.2268
言西方之地厥土不毛流沙滑滑	-12.2268
言醉飽酣樂合罇	-12.2268
進兮補曰螭丑知切國語曰水之	-12.2268
遊注云俊鳥夾轂而扶輪是也五臣以	-12.2268
酒椒漿以備五味也五臣	-12.2268
長子太伯及弟仲雍去	-12.2268
鳴條放之也致罰者湯誥所謂致	-12.2268
不屬地茯苓是也抱朴子云菟絲	-12.2268
並俱補曰此言聖賢有不	-12.2268
之浩樂結激楚之遺風注云結激	-12.2268
也言巫舞工巧身體翾然	-12.2268
以迎神舟用桂者取香潔之異	-12.2268
作惶惶五臣云賢才竄逐	-12.2268
來不可乆淫無以字五	-12.2268
其山子推抱樹燒而死故言立枯也	-12.2268
天大雨雷電思念復	-12.2268
女以驪姬歸生奚齊驪姬嬖欲立其子使	-12.2268
容靡麗誠足竒怪	-12.2268
山鬼無形其情狀難知故含睇	-12.2268
文云南楚謂眄曰睇眄眠	-12.2268
文王不顯顯也言美女被服綺繡	-12.2268
時受封於徐至偃王	-12.2268
曰如水之就下沛然誰能禦	-12.2268
曰激衝激急風也結風	-12.2268
楚所敗元和姓纂	-12.2268
比志節如橘亦不可移	-12.2268
激楚之遺風上林賦云鄢郢	-12.2268
狸以譬猛烈辛夷杜衡	-12.2268
窔	-12.2268
纔	-12.2268
舞賦云激楚結風陽阿之舞五臣云激急	-12.2268
若飛似翠鳥之舉也補	-12.2268
葞	-12.2268
補曰被音披又如字裯音刀	-12.2268
言屈原書壁所問略訖日暮	-12.2268
諟	-12.2268
諸從行者失忘子推子推遂	-12.2268
足小頭細頸卵生子如三斛	-12.2268
鳴條此言條放者自	-12.2268
𨄌	-12.2268
國得賢君至古公亶父	-12.227
獲得也迄至也古謂古公亶父	-12.227
避王季辭之南嶽之下採藥於是	-12.227
子太伯虞仲知古公欲立季	-12.227
掩汝汝去裳衣龍工	-12.227
汝鵲如汝裳衣鳥工往舜	-12.227
也一曰虫入腹食人心古者	-12.227
人吩人則病羅人則疾名曰㺊㺊者恙	-12.227
如月生五日張揖云流沙沙與水流	-12.227
字左傳云狐突適	-12.227
常産目所同識之草盡矣而芝復獨遺	-12.227
張衡靈憲云八極之維徑二億三萬二千	-12.227
游戲雖行逺方動以	-12.227
皇承旂引路飛翔翼翼然扶	-12.227
維謂四維極謂八極也一	-12.227
荆蠻義之從而歸之千餘家立	-12.227
赤水出其東南陬河水出其東北	-12.227
云發殺曷逞寒民于	-12.227
悒音邑憂也不安也天對	-12.227
騷不知王逸奚罪其文	-12.2271
偃蹇而舞芬芳菲菲盈滿	-12.2271
向有百載乃滅有窮而夏本紀云仲康崩	-12.2271
一作珎怪一作恠補曰珎恠皆俗	-12.2271
中四方珍竒玩好	-12.2271
御之安驅徐行使幽昧之	-12.2271
怪物無不畢具也珍	-12.2271
施明燭觀其鐙錠雕鏤百獸華竒好備	-12.2271
危而不可居也以言人臣不	-12.2271
同室也以言君闇惑不别賢愚	-12.2271
四星也五臣云司命星名主知	-12.2271
幽昧之夜猶晈晈而自明也晈	-12.2271
榝音殺爾雅曰椒榝醜莍注云	-12.2271
近無有憂國之心責之也夫一作其五臣	-12.2271
隨從曲木屋必傾	-12.2271
也文選作導夫先路一	-12.2271
兩司命也祭法王立七祀諸侯	-12.2271
六星四曰司命晉書	-12.2271
天文志三台六星兩	-12.2271
引星傳云三台上台司命	-12.2271
文昌宫第四曰司命按史	-12.2271
服事也言舜弟象施行無道舜猶服而	-12.2271
模	-12.2271
赤色子椒佞而似義猶榝之似椒也	-12.2271
也補曰鰅魚恭切鱅以恭切鰅	-12.2271
史記古公亶父有長子	-12.2271
君耳不聽若風過也蓀一	-12.2271
皆舉用衆賢使居顯職故道化興而	-12.2271
肝膽剖破血凝滯也補曰	-12.2271
衆華其文爛然而同光明	-12.2271
諭羣賢言往古夏禹殷湯周之文	-12.2271
貪惜以忠事君而志不合	-12.2271
雄鳩多聲言使辨捷之士往聘忠賢	-12.2271
鱅短狐類也短狐鬼蜮	-12.2271
並同國語曰親戚宴饗則有殽烝注	-12.2271
之乎竺一作篤一云帝何竺鳥何燠	-12.2271
之俗流行相從誰能不變節	-12.2271
于流沙五臣云流沙西極也	-12.2271
云鄭繆公晝日處廟有神人面鳥身	-12.2271
僻循一作脩頗一作陂	-12.2271
墨而不頗遵亦循也作脩非是易泰卦云	-12.2271
大指之趣略可見矣且人臣之義以忠正	-12.2271
奏天從之於是北方人得無憂無疾謂之	-12.2271
子椒子蘭變志若此	-12.2271
平而滑澤以翠鳥之羽雕飾玉	-12.2271
後王法門人三千罔不昭	-12.2271
徒各以所知著造傳記或以述古或以明	-12.2271
憤懣遂復作九歌以下凡二十五篇楚人	-12.2271
或曰儃室謂儃佪曲房也挂一作絓	-12.2271
本草云薫草一名蕙草生下濕地陶	-12.2271
極不遇賢士故結芳草長	-12.2271
槌	-12.2271
無恙乎蘇鶚演義引神異經云北方	-12.2271
生曰草枯曰苴比合	-12.2271
異之節不與衆同而見憎惡	-12.2271
皆從奔走往來其聲侁侁	-12.2271
素服面狀正方神	-12.2271
罥	-12.2271
臨終之日則大義乖而	-12.2271
舉賢用能不顧左右行用先聖法	-12.2271
茂盛行無過失也情純潔	-12.2271
變節而從之者乎疾之甚也五	-12.2271
還意也而一作以五臣云結芳草自	-12.2271
飜	-12.2271
㯤	-12.2271
一被服同飾奮袂俱起而鄭舞	-12.2271
下國遇太子曰夷吾無禮余得請於	-12.2271
之不在於我也補曰此言九州之大生民	-12.2271
也或曰鄭舞鄭重屈折	-12.2271
也言房内則以蒻席薄牀四壁及	-12.2271
五臣云願築室結茨於水底用荷葉	-12.2271
何條放致罰而黎服大説	-12.2271
偕俱也逝往也屈原幽居草澤思	-12.2271
兔絲也言山鬼仿佛若人見於山之阿	-12.2271
兩藩正南開如門象者名閶闔門淮南	-12.2271
則恐而吹之言易改移也獨已	-12.2271
占之曰人夢登天無以	-12.2271
夏水過郡入江故曰	-12.2271
太公在市肆而屠文	-12.2271
居期而生子左氏曰微子	-12.2271
屈原姊也嬋媛猶牽引也一作撣	-12.2271
幬輕且涼也補曰幬禪帳也音	-12.2271
廓抱景而獨倚兮超永思乎故	-12.2271
忳徒渾切悶也鬱邑憂	-12.2271
我罰有罪矣敝於韓此	-12.2271
文云閶天門也闔門扇也	-12.2271
時時竊視安詳審諦志不可動也矊	-12.2271
曰鳯皇曽逝萬仞之上翺翔四海之外注	-12.2271
李尤七歎曰白華緑葉扶	-12.2271
榮一作華補曰爾雅草謂之榮木謂之華	-12.2271
欲踐之踐之而身動如孕者	-12.2271
止願退我身處於貧窮而	-12.2271
淪天門注云閶闔始升天之門也天門	-12.2271
生於楚國與君同朝長	-12.2271
盈君之耳亦可令忠直之士失其	-12.2271
神略畢意念楚國願	-12.2271
而舞也補曰相如賦云鄭女	-12.2271
舟汜船而渉渡也編竹木曰	-12.2271
荷芙蕖也裯袛裯也若	-12.2271
見改易前疑各作離騷經章句其餘十五	-12.2271
野見巨人跡心忻然	-12.2271
長鋏劒名也其所握長劒楚人	-12.2271
閶闔文選注云閶闔天門也王者因	-12.2271
附神明而居處也一本云以	-12.2271
龎	-12.2271
𦵏	-12.2271
上訴天帝使閽人開	-12.2271
不震動驚駭復作激楚之	-12.2271
之焉至補曰委音逶焉於	-12.2271
之而無所不窮也或曰禹治洪	-12.2271
云采荃橈兮蘭旗皆後人増改或傳	-12.2271
以姱麗亦復慕我有善行	-12.2271
以食文公文公得國	-12.2271
修先古之法敬愛賢能	-12.2271
傷害也言已又觀人君私愛佞	-12.2271
公姬毒而獻之泣曰賊由太子太	-12.2271
公子當復誰畏懼	-12.2271
則熱中華之地凡有	-12.2271
又淮南言共工之力觸不周	-12.2271
名近附郢極逺也浦水	-12.2271
四時逓來而卒嵗兮	-12.2271
國語曰夏之興也祝	-12.2271
大者又老子曰豫兮若	-12.2271
天文大象賦曰儼閶闔以洞	-12.2271
好姿故來見其容也善	-12.2271
如水洋洋雖欲軋絶之而無由也沕濳	-12.2271
小曰丘大曰壟言武王	-12.2271
山出五色流水其白水入中國	-12.2271
徐偃王修行仁義諸侯朝之三十餘國	-12.2271
心補曰釋文軋於八切此	-12.2271
志不安䰟魄俇俇惶遽南行	-12.2271
忽反顧以流涕兮哀髙丘之無女	-12.2271
文公覺寤追而求之子推遂不肯出文公	-12.2271
文王所封也然太王居邠狄人侵之始邑	-12.2271
日謂甲乙辰謂寅卯補曰沈括存	-12.2271
曰撿押隱括也押音	-12.2271
樂平太守也一作庾信予按卜居云屈原	-12.2271
櫞	-12.2271
欒	-12.2271
海經圖云犂丘山有應龍者龍之有翼也	-12.2271
渤海之東不知幾億萬里有大	-12.2271
物而不慴是也釋文遌五各切心不欲見	-12.2271
畫地導水所注當決者因而治之也	-12.2271
登山入水周六合也漂一	-12.2271
繞悷盧帝切又音列	-12.2271
者水聲也音鶻者涌波	-12.2271
聖王之所厚哀也故武王伐紂封	-12.2271
袛	-12.2271
補曰山海經云應龍處南極	-12.2271
補曰涔音岑碕音祈曲岸也	-12.2271
補繪蕭雲從離騷全	-12.2271
襟	-12.2271
言已幽居無事下則垂	-12.2271
譖出奔齊楚介子推從行道乏糧割股肉	-12.2271
迃	-12.2271
遻	-12.2271
釣餌於谿谷上則要	-12.2271
闇昧則貪濁之人用	-12.2271
陭	-12.2271
黎百姓也湯以臣放君而黎民	-12.2271
往求同志之士欲與俱共	-12.2273
正也蓀一作荃五臣云蓀香草	-12.2273
一作皎補曰晈字从日	-12.2273
與皎同此言日之將出羲和	-12.2273
出鍾山西行注云今西海居延澤尚書	-12.2273
綏萬國安天下也易曰無平不頗也	-12.2273
予屈原自謂也言堯二女儀	-12.2273
卻	-12.2273
或夭何以皆在於我以我	-12.2273
曰愁我也予一作余五臣云其神儀	-12.2273
書曰中宫天極星其一明者太一	-12.2273
美好眇然絶異又配帝	-12.2273
陸離分散也言巳游觀天	-12.2273
之中原地形所居者悉	-12.2273
以有天下有扈不服大戰	-12.2273
工氏興霸於伏羲神農之間其後	-12.2273
怒而觸不周之山折天柱絶地維	-12.2273
曩曏也言欲使已變節而	-12.2273
猶曏者欲釋階登天	-12.2273
紂載文王木主稱太子發	-12.2273
言百川東流不知滿溢誰有知其故也補	-12.2273
霰雪雰糅其增加兮	-12.2273
菖蒲而葉正如蒲無脊詩詠多云蘭蓀	-12.2274
派	-12.2274
臣云愴怳懭悢皆悲傷	-12.2274
悼公賜魏絳女樂二八歌鍾二	-12.2275
相崩子少康立都不言羿	-12.2275
相帥來迎欲使我變節以	-12.2275
四荒皆四方昏荒之國禮失而求諸野當	-12.2275
異竊慕向襃之風作頌一篇號曰九思以	-12.2275
莫我知者故欲觀乎四荒以求同志此孔	-12.2275
錠	-12.2275
錯者反常而妄作背繩墨以	-12.2275
也馬駕車者也御之者羲和	-12.2275
凍皓然正白回錯膠戾與	-12.2275
取聲律便美非霓	-12.2275
因氣變而遂曽舉兮	-12.2275
拂霓又云俯而觀乎雲霓沈約	-12.2275
昴	-12.2275
漢書郊祀志荆巫有司命	-12.2275
爭者非難身之被殃咎也但恐君國傾	-12.2275
王之功五臣云言我所以不難殃咎諫爭	-12.2275
當幽昧險隘之地則敗	-12.2275
郊居賦云雌霓連蜷	-12.2275
陞天運轉而西將過	-12.2275
云湯禹周文皆儼肅祗敬論議道	-12.2275
作椉文選作䇿馳一作駝	-12.2275
佻吐凋切又土了切爾雅	-12.2275
佻輕也巧利也言又使雄鳩銜命而往	-12.2275
億不信待其不可用然後弃之	-12.2275
就吉善也五臣云告我去當吉	-12.2275
或白色隂氣也郭氏云雄曰虹謂明盛	-12.2275
日可致千里以言任賢智則可成	-12.2275
猶由柚二音顔氏家訓	-12.2275
背容頭自入又不見納故	-12.2275
補曰牉音判傳曰夫妻牉合也字林云牉	-12.2275
賢人知我忠信之故自傷之詞一無哉字	-12.2275
輕佻巧利多語言而無要實復不	-12.2275
過差故能獲夫神人之助子孫	-12.2275
陿腹小息畏懼患	-12.2275
類小人之有智者君子不逆	-12.2275
之善意恐重得患禍逢罪	-12.2275
之音命之曰承雲淮南云有	-12.2275
作兮一云超永思乎此故	-12.2275
受先人美烈情性	-12.2275
寐耿一作烱補曰耿烱	-12.2275
寝	-12.2275
抱形景而立長念楚國心不	-12.2275
焉得彼嵞山女而通之於台桑	-12.2275
無不施也又吕氏春秋云帝顓頊令	-12.2275
督見孔父之妻目逆	-12.2275
純厚志意潔白身無瑕	-12.2275
美堯二女助成化也韶舜	-12.2275
越其流浟浟又迅	-12.2275
都門外言夕張者猶	-12.2275
七古切茅藉祭也鮑欽止本云	-12.2275
也虧一作虧補曰河圖言崑	-12.2275
云苦菜生於寒秋經冬	-12.2275
云閽常以昏閉門	-12.2275
何克禋克祀以弗無子履帝武敏歆攸	-12.2275
俱生以言忠佞亦不同	-12.2275
值東南不足誰虧缺之	-12.2275
入天所謂天柱也素問曰天	-12.2275
八柱柱廣十萬里有三千六	-12.2275
卨	-12.2275
反離騷云衿芰茄之緑衣	-12.2275
古之時有至人者益其	-12.2275
名曰鬿雀食人天對云	-12.2275
夙載生載育時維后稷注云姜嫄之	-12.2275
女字也音須賈侍中	-12.2275
妨害也言君䰟急來歸還反所居故	-12.2275
孔穴相通淮南云天有九	-12.2275
屈原放逐竄伏其域懐憂苦毒愁思	-12.2275
屈原自傷不遭值堯舜而遇闇君亦	-12.2275
思望聖君之聘請也	-12.2275
恭敬長無禍害也一云	-12.2275
日月逝矣孰能使衰	-12.2275
明克讓然無故被塵翳言與帝共	-12.2275
曰閶闔之門西北方不周之山曰幽都	-12.2275
歩爲畝言枯草荼薺不同畝而	-12.2275
殤鬼也左傳曰晉侯夢大厲搏	-12.2275
王逸本最古凡諸本異同皆當以此	-12.2275
生后稷乃禋祀上	-12.2275
百軸互相牽制名山大川	-12.2275
相呼則芳草合其莖葉芬芳以不暢	-12.2275
知貪餌而近死兮不如下	-12.2275
稷名弃其母有邰氏	-12.2275
芳草使不得安以言讒人亦	-12.2275
號山有鳥狀如雞而白首	-12.2275
補曰辟與闢同淮南云崑崙虚五	-12.2275
言古有賢士務光憎惡濁世言不見從自	-12.2275
謇又訓難易之難非蹇難之字也世所傳	-12.2275
讒人誣謗被以惡名也補曰	-12.2275
豈元氣之所通辟一作闢	-12.2275
雅云竺厚也與篤同詩曰厥初生民時維	-12.2275
頂	-12.2275
飛翺翔翼翼而和嘉忠正	-12.2275
鬿雀峙北號惟人是食注云	-12.2275
黸	-12.2275
一作孼補曰蠥魚列切孟子曰禹薦益	-12.2275
下何能使其民依倚而隨之	-12.2275
下裳也日出東方入西方	-12.2275
中心常好善則精感神	-12.2275
中正無所告也五臣云心存諒直終日不	-12.2275
主有虞主練主尸神	-12.2275
之人斥逐讒夫與便利嬖愛之臣	-12.2275
之士招致幽隱明智之人	-12.2275
之性直若砥矢言若丹	-12.2275
之旦而行紀時日清明者刺君不	-12.2275
也宗廟之有主也示民有事也	-12.2275
也徐偃王國名也周宣王之舅申伯所封	-12.2275
也爰於也言天法有善隂陽從	-12.2275
云七戎六蠻九夷八狄	-12.2275
以車中軍武王自稱太子	-12.2275
伯長也林君也謂晉太子申生	-12.2275
佞進則忠良壅也補曰猋卑遥切犬走	-12.2275
備盗賊天文大象賦注云弧矢九星常屬	-12.2275
其過咎由重絫雜載衆多之故也以	-12.2275
匪	-12.2275
右熱而左温西北方隂也隂者其精奉於	-12.2275
名帝稱禹不稱文命則文	-12.2275
君益卒不得立故曰遭	-12.2275
命臣之瑞故與環即還與玦即去也補	-12.2275
咎過也言車載衆輕之物以折其軸而不	-12.2275
天帝天帝猶不順羿之所	-12.2275
女當須媒也五臣云公子謂夫人喻君也	-12.2275
如得秉執國政則使君親任忠	-12.2275
始來進春氣奮揚	-12.2275
子美詩云紅豆啄餘鸚鵡粒碧梧棲	-12.2275
害也補曰史記武王東觀兵	-12.2275
崇山太公金匱曰南海之	-12.2275
川猶兮若畏四隣則猶	-12.2275
忠良害仁賢也夫浮雲行則蔽月之光	-12.2275
恃怙衆士被甲兵也	-12.2275
惡也射一作䠶補曰射食亦切	-12.2275
惡抱寳窮困而無所語	-12.2275
愚夫之所賤也今若屈原膺忠貞之質體	-12.2275
或留文采紛華然後結括一言以明所趣	-12.2275
承天道求其匹合得伊尹	-12.2275
放勲一也則重華非名也號	-12.2275
文王補曰按詩云度其鮮原居歧之陽注	-12.2275
新城國語云雉經	-12.2275
曰大社歧在右扶	-12.2275
曰木弓也一曰往體寡來體多曰弧淪	-12.2275
枝重累又有利棘以象武也	-12.2275
楚敗滅不指文王其	-12.2275
楚文王乃春秋時相去甚逺豈春秋時	-12.2275
極盡也賦聚也賢人盡至則同心	-12.2275
款	-12.2275
江陵縣東南注云江津豫	-12.2275
沃姬謂太子曰君夢齊姜必速祭之太子	-12.2275
河津氷始合車馬不敢過要須狐行	-12.2275
涔陽浦水經云涔水出漢中南縣東南旱	-12.2275
渡西海至大秦大秦之西	-12.2275
湯臣也咎繇禹臣也調和也言	-12.2275
父不得復上故下數旱旱而	-12.2275
王謀居善原廣平之地亦在歧山之南	-12.2275
珥謂劒鐔也劒者所以	-12.2275
瑟造駕辯之曲楚人因之作勞商	-12.2275
瓶	-12.2275
發言奉文王以伐不敢自專	-12.2275
盡情與巳同心者獨誦忠	-12.2275
盡棄銷滅不見論用貪	-12.2275
竊悲夫蕙華之曾敷兮	-12.2275
結也理一作治一本此二句	-12.2275
美善之婉容也佳一作娃補曰娃於佳切	-12.2275
能結撰博專至之心以思	-12.2275
膓折摧也悷一作㤡補曰繚	-12.2275
臣稱帝不稱堯則堯	-12.2275
與帝之咨禹一也則舜非	-12.2275
與百姓徙其寶藏來就歧	-12.2275
舜名按書云有鰥在	-12.2275
蓱號起雨何以興之	-12.2275
衆容容則無經緯於世人也	-12.2275
行媒喻左右之臣也言誠	-12.2275
表商容之閭也補曰比干諫	-12.2275
補曰怦披繃切心急一曰忠	-12.2275
言楚國變亂舊常無定法也容容變動之	-12.2275
言欲軋沕已心仿佯	-12.2275
謂之四海言皆近海漢張騫	-12.2275
賊引滿則天下兵起河東賦云	-12.2275
賢使國若此但使我	-12.2275
遮	-12.2275
邕月令章句曰衆流注海曰川爾雅云水	-12.2275
鋗	-12.2275
長嘯大呼以招君也夫嘯者隂也呼	-12.2275
長矢射天狼言君當誅	-12.2275
門心痛而思始去正	-12.2275
閔憂也言禹所以憂無妃匹	-12.2275
雖欲長驅無所及也一作馳逶	-12.2275
韓退之云春與猿吟兮秋鶴與飛皆用此	-12.2275
𤦺	-12.2275
􁀿	-12.2275
􁂺	-12.2275
􁆠	-12.2275
之衆屯其相離言不與	-12.2276
事君反見邪惡之人相	-12.2276
其扶桑爰始而登照曜四方日	-12.2276
出下浴於湯谷上拂	-12.2276
並讀作側聲司馬温公云約賦但	-12.2276
切通作蜺文選云雲旗	-12.2276
吾謂日也檻楯也言東方有扶桑之	-12.2276
諸侯史記曰紂醢九侯脯	-12.2276
暗㣲者虹者隂陽交	-12.2276
極之山曰寒門凡八極之雲是雨天下八	-12.2276
部八紀地有九州八柱神異	-12.2276
一朝之情乎故以辛酉日娶甲子日去而	-12.2276
之強師率之武故今伐殷合兵	-12.2276
伴侣也言已見衆人易移意中	-12.2276
傳云嘉偶曰妃爾	-12.2276
儀表所謂金相玉振百	-12.2276
其一者自漢蜀江南至海也二	-12.2276
北日月星辰就焉地不滿東南百川水潦	-12.2276
君子雲霓以譬讒邪比興之義也	-12.2276
嗜下有欲字一本快下有一字一云胡	-12.2276
地何以獨洿深乎安一作何補曰錯七故	-12.2276
旦周公名也嘉善也言武王始	-12.2276
時止而不盈尾閭泄之不	-12.2276
時甲子昧爽武王朝至	-12.2276
曰三辰旂旗爾雅有鈴曰旂旂渠希切	-12.2276
曰中土西北台州曰肥土	-12.2276
曰雨甚軍士苦之請且休息武王曰吾許	-12.2276
朝莫之朝此言禹之所嗜與衆人異味衆	-12.2276
歎君門之九重忠怨之辭也觀兹四事同	-12.2276
氣化猶然矣又曰東南方陽也陽者其精	-12.2276
無匹者也及漢宣嗟歎以	-12.2276
者自漢江北至平遥縣	-12.2276
謂鑒而弗精翫而未覈者也將覈其論必	-12.2276
豐隆求宓妃鴆鳥媒娀女詭異之辭也康	-12.2276
鐡	-12.2278
天下大康寧上言鸞皇鸞	-12.2278
欲自沈於水與彭咸俱	-12.2278
之網飛鳥走獸動而遇害喻君法繁多百	-12.2278
動觸刑罰也補曰罻音尉記曰	-12.2278
有罥繳弋射之機下	-12.2278
惡數指斥尊者故變言	-12.2278
椒慆它刀切書曰無即慆	-12.2278
止沈藏但以秋氣殺物矣皆喻楚之君臣	-12.2278
行心中拘攣仁義不舒而志不	-12.2278
不由階次之人非惡罷	-12.2278
也錯置也言今世之工才知	-12.2278
利乃棲於桑榆居茂木之	-12.2278
去楚者同姓無可去之	-12.2278
必先升用傑俊之士壓抑無	-12.2278
必失堅固敗材木也以言佞	-12.2278
措	-12.2278
海居夷之意然原初未	-12.2278
而悲哀放弃獨處實難	-12.2278
蝯失於濳林兮獨偏	-12.2278
面賈誼云偭梟獺以隱處	-12.2278
干醢梅伯武王杖	-12.2278
状	-12.2278
禮記云昔殷紂亂天	-12.2278
倦也糳一作鑿補曰左傳曰粢食不鑿鑿	-12.2278
兮悲蹭蹬而無歸性愚陋以	-12.2278
則憂思鬱結胷背分裂心	-12.2278
牉分也一本牉下有合字一云背膺敷牉	-12.2278
踵繼也武跡也詩曰履	-12.2278
重糳蘭蕙和糅衆芳以	-12.2278
也周禮曰凡邦之張事漢書	-12.2278
也言殷湯夏禹周之文	-12.2278
作蘋一本此句上有登字皆非也補曰薠	-12.2278
佳好也張音帳陳設	-12.2278
信也余按本草引五芝經	-12.2278
勉強也上謂君下謂臣陞一作升補曰	-12.2278
夫人之神來此歆饗以	-12.2278
從鬼神築室水中與湘	-12.2278
攜	-12.2278
日知晏隂諧知雨	-12.2278
注云薠狀如葴葴音針見爾	-12.2278
王受命之君皆畏天敬賢論議	-12.2278
立住補曰儃知然切儃佪	-12.2278
道治道也言周則包文武	-12.2278
6	-12.2278
㓛	-12.2278
之曰美而豔言美人長髮工結鬋鬢	-12.2278
之義斑然散亂而不可	-12.2278
之芬芳而益暢茂也五	-12.2278
之間無以自處者以其君施	-12.2278
亂辭也離騷有亂有重亂	-12.2278
似鼉而短小又似鯉魚有四足吳都	-12.2278
作若若一作苦補曰荼音徒爾雅荼	-12.2278
其神勾芒注云此木帝之君	-12.2278
則仁至修正則下直也一云叩	-12.2278
則履名也楚詞屢言堯舜禹湯今辨	-12.2278
剡利也棘橘枝刺若棘也摶圜也楚人名	-12.2278
又長味好飲也補曰酎直又	-12.2278
四方異俗多賊害也古本乎皆	-12.2278
娀音嵩李善引吕氏春秋曰有娀氏有二	-12.2278
將餓餒而終故曰以伯夷爲法也補曰行	-12.2278
屯陳也五臣云屯聚也車所以	-12.2278
巳具進舉在前賔主	-12.2278
引陵魚曷止與逸	-12.2278
得又來迎候此乃豫之所以	-12.2278
揳也宫角五音也言叩擊五	-12.2278
文章而避之也言俗人朋黨恣	-12.2278
春秋命曆序曰皇伯登	-12.2278
曰一葦杭之魂一作䰟杭一作航補曰	-12.2278
未通則女樂倡蕩	-12.2278
陗	-12.2278
頴	-12.2278
䭾	-12.2278
塟	-12.2278
挟	-12.2278
掠	-12.2278
灩	-12.2278
蕑	-12.2278
赭	-12.2278
跋	-12.2278
𢥞	-12.2278
􁉠	-12.2278
􁠪	-12.2279
䟭	-12.2281
牝	-12.2281
5	-12.2281
僶	-12.2281
晢	-12.2281
硬	-12.2281
粘	-12.2281
罇	-12.2281
䎖	-12.2281
廸	-12.2281
慍	-12.2281
纘	-12.2281
耇	-12.2281
蔵	-12.2281
􁘶	-12.2281
祚	-12.2284
9	-12.2284
倔	-12.2284
僣	-12.2284
弆	-12.2284
摰	-12.2284
楠	-12.2284
漚	-12.2284
献	-12.2284
祧	-12.2284
腴	-12.2284
虯	-12.2284
􁦵	-12.2284
𡐨	-12.2286
叡	-12.2287
喆	-12.2287
襌	-12.2287
3	-12.2287
䊸	-12.2287
唇	-12.2287
巵	-12.2287
薌	-12.2287
讍	-12.2287
7	-12.2287
恆	-12.2287
戛	-12.2287
閇	-12.2287
􁥍	-12.2287
軄	-12.2289
莅	-12.2289
鄔	-12.229
㠁	-12.229
8	-12.229
叨	-12.229
窳	-12.229
觶	-12.229
幐	-12.229
珩	-12.229
珵	-12.229
皧	-12.229
譯	-12.229
錙	-12.229
饊	-12.229
骼	-12.229
􁑇	-12.229
怱	-12.2292
斁	-12.2292
旨	-12.2292
覊	-12.2293
㦎	-12.2293
媯	-12.2294
庳	-12.2294
欬	-12.2294
豨	-12.2294
踆	-12.2294
輒	-12.2294
纉	-12.2295
脚	-12.2297
誶	-12.2297
騃	-12.2297
䳟	-12.2297
儛	-12.2297
屮	-12.2297
涷	-12.2297
瓚	-12.2297
繟	-12.2297
鎔	-12.2297
閲	-12.2297
驍	-12.2297
蟄	-12.23
蓉	-12.23
蛆	-12.23
蝍	-12.23
丕	-12.23
估	-12.23
昲	-12.23
曦	-12.23
煌	-12.23
狃	-12.23
畀	-12.23
鯁	-12.23
螹	-12.23
㝅	-12.2301
瘤	-12.2303
腫	-12.2303
芮	-12.2303
頥	-12.2303
􁀆	-12.2303
芠	-12.2305
韁	-12.2306
㝔	-12.2306
筀	-12.2309
􁠡	-12.2309
㳙	-12.2309
勳	-12.2309
苣	-12.2309
鶖	-12.2312
楙	-12.2312
軯	-12.2312
殻	-12.2312
䄷	-12.2316
秙	-12.2319
檟	-12.2319
冐	-12.2322
篩	-12.2346
懊	-12.2353
荊	-12.2363
熲	-12.2369
蔱	-12.2369
萼	-12.238
􁆎	-12.2448
苨	-12.2565
龔	-13.1198
齕	-13.1199
黏	-13.12
麞	-13.1201
麓	-13.1202
麂	-13.1203
麀	-13.1204
鸝	-13.1205
鸚	-13.1206
鶠	-13.1207
鶌	-13.1208
鵬	-13.1209
鵡	-13.121
鵚	-13.1211
鵔	-13.1212
鵑	-13.1213
鴭	-13.1214
鳺	-13.1215
鮫	-13.1216
魅	-13.1217
鬴	-13.1218
鬐	-13.1219
骭	-13.122
駵	-13.1221
駞	-13.1222
駊	-13.1223
馹	-13.1224
饕	-13.1225
餻	-13.1226
餱	-13.1227
餒	-13.1228
飌	-13.1229
飆	-13.123
顮	-13.1231
顦	-13.1232
靷	-13.1233
霽	-13.1234
霸	-13.1235
霣	-13.1236
霙	-13.1237
雿	-13.1238
雩	-13.1239
隮	-13.124
隄	-13.1241
陻	-13.1242
陔	-13.1243
閃	-13.1244
鑽	-13.1245
鑪	-13.1246
鑊	-13.1247
鏨	-13.1248
鎛	-13.1249
鎗	-13.125
鍔	-13.1251
錮	-13.1252
錘	-13.1253
鋸	-13.1254
鋒	-13.1255
銛	-13.1256
鉗	-13.1257
釜	-13.1258
醯	-13.1259
醖	-13.126
鄠	-13.1261
邳	-13.1262
邰	-13.1263
遜	-13.1264
逖	-13.1265
逕	-13.1266
迸	-13.1267
迕	-13.1268
轘	-13.1269
轖	-13.127
輠	-13.1271
軺	-13.1272
軮	-13.1273
躟	-13.1274
躖	-13.1275
躔	-13.1276
躁	-13.1277
蹭	-13.1278
蹬	-13.1279
蹏	-13.128
踣	-13.1281
踕	-13.1282
跨	-13.1283
跐	-13.1284
賾	-13.1285
賷	-13.1286
賫	-13.1287
賁	-13.1288
豢	-13.1289
譴	-13.129
譱	-13.1291
譇	-13.1292
諜	-13.1293
誡	-13.1294
詄	-13.1295
討	-13.1296
覲	-13.1297
褢	-13.1298
袗	-13.1299
袍	-13.13
袉	-13.1301
袇	-13.1302
衾	-13.1303
衮	-13.1304
蟹	-13.1305
蟤	-13.1306
蟠	-13.1307
蟒	-13.1308
螿	-13.1309
螳	-13.131
螗	-13.1311
螓	-13.1312
螇	-13.1313
螂	-13.1314
蝭	-13.1315
蜲	-13.1316
蜚	-13.1317
蜎	-13.1318
蛥	-13.1319
蛁	-13.132
蚺	-13.1321
蚰	-13.1322
蚌	-13.1323
蘗	-13.1324
蕊	-13.1325
蔘	-13.1326
蔏	-13.1327
蓿	-13.1328
蒨	-13.1329
蒥	-13.133
葪	-13.1331
葑	-13.1332
菥	-13.1333
莕	-13.1334
莍	-13.1335
荽	-13.1336
茮	-13.1337
苔	-13.1338
芾	-13.1339
芺	-13.134
芘	-13.1341
艇	-13.1342
舡	-13.1343
舅	-13.1344
舄	-13.1345
臤	-13.1346
臠	-13.1347
膂	-13.1348
胳	-13.1349
胞	-13.135
耔	-13.1351
翊	-13.1352
羶	-13.1353
繤	-13.1354
繃	-13.1355
縰	-13.1356
縮	-13.1357
縊	-13.1358
緶	-13.1359
緱	-13.136
緇	-13.1361
綖	-13.1362
絺	-13.1363
絏	-13.1364
紶	-13.1365
糲	-13.1366
糠	-13.1367
糚	-13.1368
篲	-13.1369
篡	-13.137
篋	-13.1371
箓	-13.1372
箄	-13.1373
窱	-13.1374
穽	-13.1375
穄	-13.1376
稃	-13.1377
秩	-13.1378
离	-13.1379
禱	-13.138
禜	-13.1381
禆	-13.1382
礱	-13.1383
礙	-13.1384
磔	-13.1385
磐	-13.1386
硱	-13.1387
砰	-13.1388
研	-13.1389
矚	-13.139
瞬	-13.1391
睿	-13.1392
睫	-13.1393
着	-13.1394
眀	-13.1395
盻	-13.1396
盎	-13.1397
皦	-13.1398
皜	-13.1399
癰	-13.14
瘠	-13.1401
疵	-13.1402
疣	-13.1403
疈	-13.1404
番	-13.1405
甕	-13.1406
瑯	-13.1407
瑛	-13.1408
瑗	-13.1409
琔	-13.141
珻	-13.1411
珤	-13.1412
珣	-13.1413
獺	-13.1414
獰	-13.1415
獠	-13.1416
獝	-13.1417
猫	-13.1418
猜	-13.1419
狡	-13.142
狔	-13.1421
犍	-13.1422
犂	-13.1423
牂	-13.1424
牁	-13.1425
燼	-13.1426
燧	-13.1427
燄	-13.1428
煦	-13.1429
煤	-13.143
灠	-13.1431
瀟	-13.1432
瀕	-13.1433
濠	-13.1434
濞	-13.1435
濘	-13.1436
澳	-13.1437
潯	-13.1438
漕	-13.1439
滴	-13.144
溼	-13.1441
湮	-13.1442
湟	-13.1443
湆	-13.1444
渭	-13.1445
洗	-13.1446
沌	-13.1447
汾	-13.1448
氲	-13.1449
氐	-13.145
殳	-13.1451
歐	-13.1452
欃	-13.1453
櫝	-13.1454
檿	-13.1455
檣	-13.1456
檝	-13.1457
檉	-13.1458
樿	-13.1459
樵	-13.146
樛	-13.1461
槽	-13.1462
槱	-13.1463
槤	-13.1464
椏	-13.1465
梢	-13.1466
柤	-13.1467
柢	-13.1468
柝	-13.1469
柅	-13.147
柃	-13.1471
枵	-13.1472
杞	-13.1473
机	-13.1474
曆	-13.1475
暄	-13.1476
旭	-13.1477
攅	-13.1478
摳	-13.1479
摛	-13.148
摓	-13.1481
揮	-13.1482
換	-13.1483
挿	-13.1484
挽	-13.1485
挹	-13.1486
挱	-13.1487
拚	-13.1488
技	-13.1489
扣	-13.149
戹	-13.1491
戫	-13.1492
戡	-13.1493
戟	-13.1494
戊	-13.1495
懵	-13.1496
慴	-13.1497
慤	-13.1498
慇	-13.1499
愜	-13.15
惵	-13.1501
惪	-13.1502
惓	-13.1503
惋	-13.1504
悱	-13.1505
悛	-13.1506
恇	-13.1507
怓	-13.1508
怏	-13.1509
忻	-13.151
徯	-13.1511
徜	-13.1512
彎	-13.1513
廧	-13.1514
廁	-13.1515
巽	-13.1516
巆	-13.1517
巄	-13.1518
巂	-13.1519
嶻	-13.152
嶇	-13.1521
嵇	-13.1522
嵃	-13.1523
崿	-13.1524
崱	-13.1525
崧	-13.1526
崏	-13.1527
岫	-13.1528
岝	-13.1529
尒	-13.153
尅	-13.1531
宙	-13.1532
宀	-13.1533
嬌	-13.1534
嫰	-13.1535
嫚	-13.1536
媪	-13.1537
婐	-13.1538
娠	-13.1539
姝	-13.154
妥	-13.1541
奭	-13.1542
培	-13.1543
垣	-13.1544
坻	-13.1545
坷	-13.1546
坌	-13.1547
坋	-13.1548
囓	-13.1549
囏	-13.155
嚇	-13.1551
噱	-13.1552
噪	-13.1553
嘻	-13.1554
嘹	-13.1555
嘶	-13.1556
嗑	-13.1557
喿	-13.1558
喧	-13.1559
喘	-13.156
喋	-13.1561
啑	-13.1562
哺	-13.1563
咳	-13.1564
咫	-13.1565
咤	-13.1566
咈	-13.1567
呪	-13.1568
呧	-13.1569
吩	-13.157
叱	-13.1571
厓	-13.1572
午	-13.1573
匾	-13.1574
匕	-13.1575
匄	-13.1576
勷	-13.1577
勍	-13.1578
勁	-13.1579
剰	-13.158
剗	-13.1581
剋	-13.1582
冷	-13.1583
儻	-13.1584
僵	-13.1585
侅	-13.1586
佃	-13.1587
伺	-13.1588
丰	-13.1589
个	-13.159
丞	-13.1591
丙	-13.1592
䴥	-13.1593
䴏	-13.1594
䳌	-13.1595
䰅	-13.1596
䤈	-13.1597
䟆	-13.1598
䘍	-13.1599
䓆	-13.16
䏴	-13.1601
䍤	-13.1602
䋴	-13.1603
䀒	-13.1604
㹌	-13.1605
㩦	-13.1606
㡭	-13.1607
㙁	-13.1608
頡	-13.1609
鉛	-13.161
釵	-13.1611
豌	-13.1612
詠	-13.1613
螮	-13.1614
蝀	-13.1615
蘀	-13.1616
藶	-13.1617
藎	-13.1618
蔦	-13.1619
蒫	-13.162
蒩	-13.1621
莵	-13.1622
芉	-13.1623
町	-13.1624
甆	-13.1625
獼	-13.1626
猥	-13.1627
滕	-13.1628
渟	-13.1629
涽	-13.163
楺	-13.1631
柂	-13.1632
恍	-13.1633
彽	-13.1634
嫫	-13.1635
圯	-13.1636
啻	-13.1637
僪	-13.1638
侖	-13.1639
㲈	-13.164
黽	-13.1641
麴	-13.1642
鸘	-13.1643
鷇	-13.1644
鶊	-13.1645
鵒	-13.1646
鵃	-13.1647
鳶	-13.1648
鱓	-13.1649
鬭	-13.165
騮	-13.1651
騕	-13.1652
駣	-13.1653
駍	-13.1654
餮	-13.1655
飤	-13.1656
飇	-13.1657
領	-13.1658
韏	-13.1659
鞈	-13.166
靄	-13.1661
霖	-13.1662
隼	-13.1663
陀	-13.1664
闓	-13.1665
閜	-13.1666
鍪	-13.1667
銵	-13.1668
銅	-13.1669
鉉	-13.167
鄄	-13.1671
逋	-13.1672
迋	-13.1673
轢	-13.1674
轗	-13.1675
輟	-13.1676
輙	-13.1677
軿	-13.1678
躩	-13.1679
躑	-13.168
躅	-13.1681
蹻	-13.1682
蹷	-13.1683
蹯	-13.1684
踖	-13.1685
跱	-13.1686
跎	-13.1687
跌	-13.1688
賭	-13.1689
賄	-13.169
賀	-13.1691
謫	-13.1692
諦	-13.1693
觚	-13.1694
蠖	-13.1695
蟧	-13.1696
蟇	-13.1697
螣	-13.1698
蚗	-13.1699
虢	-13.17
薨	-13.1701
蓊	-13.1702
蓂	-13.1703
葈	-13.1704
萏	-13.1705
莬	-13.1706
荓	-13.1707
腊	-13.1708
肭	-13.1709
聿	-13.171
耑	-13.1711
翟	-13.1712
翏	-13.1713
罟	-13.1714
綸	-13.1715
絀	-13.1716
紲	-13.1717
級	-13.1718
紘	-13.1719
系	-13.172
粳	-13.1721
粤	-13.1722
簵	-13.1723
簀	-13.1724
筠	-13.1725
笿	-13.1726
笛	-13.1727
穹	-13.1728
稬	-13.1729
稚	-13.173
稔	-13.1731
稌	-13.1732
秭	-13.1733
礪	-13.1734
磕	-13.1735
碑	-13.1736
砌	-13.1737
矸	-13.1738
睞	-13.1739
眺	-13.174
眸	-13.1741
眥	-13.1742
疫	-13.1743
璅	-13.1744
琨	-13.1745
珉	-13.1746
玃	-13.1747
狷	-13.1748
牖	-13.1749
牎	-13.175
燔	-13.1751
燃	-13.1752
熈	-13.1753
煬	-13.1754
炅	-13.1755
灟	-13.1756
濭	-13.1757
漦	-13.1758
滉	-13.1759
湎	-13.176
涪	-13.1761
洮	-13.1762
沄	-13.1763
汧	-13.1764
汃	-13.1765
歁	-13.1766
檢	-13.1767
槍	-13.1768
槀	-13.1769
椽	-13.177
森	-13.1771
枇	-13.1772
杵	-13.1773
札	-13.1774
曊	-13.1775
映	-13.1776
攣	-13.1777
撿	-13.1778
撞	-13.1779
摭	-13.178
搘	-13.1781
揫	-13.1782
掉	-13.1783
捉	-13.1784
挈	-13.1785
戔	-13.1786
懌	-13.1787
憙	-13.1788
慾	-13.1789
愮	-13.179
悳	-13.1791
怯	-13.1792
彛	-13.1793
弇	-13.1794
弁	-13.1795
廕	-13.1796
巇	-13.1797
嵼	-13.1798
崢	-13.1799
峙	-13.18
寪	-13.1801
宥	-13.1802
孼	-13.1803
姻	-13.1804
妷	-13.1805
夙	-13.1806
場	-13.1807
埜	-13.1808
坏	-13.1809
圠	-13.181
嚂	-13.1811
嘄	-13.1812
啜	-13.1813
啖	-13.1814
唴	-13.1815
售	-13.1816
呶	-13.1817
呦	-13.1818
勵	-13.1819
儆	-13.182
僬	-13.1821
倩	-13.1822
俯	-13.1823
佹	-13.1824
佗	-13.1825
亨	-13.1826
亘	-13.1827
䤥	-13.1828
䒱	-13.1829
䒗	-13.183
䇰	-13.1831
㺊	-13.1832
㬅	-13.1833
㩃	-13.1834
㤡	-13.1835
㛹	-13.1836
頩	-13.1837
霠	-13.1838
雧	-13.1839
閤	-13.184
蹲	-13.1841
謚	-13.1842
蕳	-13.1843
聾	-13.1844
繾	-13.1845
綣	-13.1846
糵	-13.1847
簬	-13.1848
竅	-13.1849
監	-13.185
琚	-13.1851
潁	-13.1852
浼	-13.1853
檀	-13.1854
桴	-13.1855
昉	-13.1856
惚	-13.1857
尉	-13.1858
哳	-13.1859
刖	-13.186
俟	-13.1861
黠	-13.1862
鸋	-13.1863
鳦	-13.1864
驊	-13.1865
驉	-13.1866
駔	-13.1867
馺	-13.1868
餳	-13.1869
餧	-13.187
飫	-13.1871
韜	-13.1872
靚	-13.1873
閎	-13.1874
閈	-13.1875
鉤	-13.1876
酣	-13.1877
辜	-13.1878
較	-13.1879
蹢	-13.188
蹉	-13.1881
贖	-13.1882
豷	-13.1883
譔	-13.1884
誥	-13.1885
詣	-13.1886
覔	-13.1887
衷	-13.1888
蟉	-13.1889
螝	-13.189
蜉	-13.1891
蛓	-13.1892
蚍	-13.1893
茩	-13.1894
苛	-13.1895
芋	-13.1896
艕	-13.1897
膳	-13.1898
脢	-13.1899
脟	-13.19
胙	-13.1901
羖	-13.1902
簷	-13.1903
箋	-13.1904
秠	-13.1905
祑	-13.1906
睄	-13.1907
皭	-13.1908
產	-13.1909
瓢	-13.191
瑉	-13.1911
猿	-13.1912
犲	-13.1913
爚	-13.1914
炤	-13.1915
濩	-13.1916
渤	-13.1917
渃	-13.1918
涊	-13.1919
浚	-13.192
洄	-13.1921
殖	-13.1922
櫺	-13.1923
棺	-13.1924
枕	-13.1925
杯	-13.1926
曭	-13.1927
曩	-13.1928
无	-13.1929
擲	-13.193
撚	-13.1931
掖	-13.1932
捕	-13.1933
担	-13.1934
戕	-13.1935
慫	-13.1936
愧	-13.1937
恠	-13.1938
庇	-13.1939
嶮	-13.194
嵸	-13.1941
岏	-13.1942
孺	-13.1943
姍	-13.1944
奡	-13.1945
墆	-13.1946
基	-13.1947
圄	-13.1948
噽	-13.1949
嘿	-13.195
唼	-13.1951
唲	-13.1952
偓	-13.1953
倥	-13.1954
亳	-13.1955
䳏	-13.1956
䬼	-13.1957
䠱	-13.1958
䓃	-13.1959
鼉	-13.196
髠	-13.1961
驁	-13.1962
駶	-13.1963
餦	-13.1964
鈆	-13.1965
訑	-13.1966
衿	-13.1967
薢	-13.1968
蔣	-13.1969
荑	-13.197
茯	-13.1971
臝	-13.1972
羇	-13.1973
絫	-13.1974
癯	-13.1975
澗	-13.1976
漭	-13.1977
泆	-13.1978
曃	-13.1979
斧	-13.198
彠	-13.1981
庬	-13.1982
娃	-13.1983
刃	-13.1984
仌	-13.1985
㩜	-13.1986
鷤	-13.1987
鱏	-13.1988
鯨	-13.1989
駘	-13.199
饡	-13.1991
饉	-13.1992
餭	-13.1993
韝	-13.1994
限	-13.1995
陁	-13.1996
阮	-13.1997
闒	-13.1998
釃	-13.1999
輡	-13.2
輜	-13.2001
軨	-13.2002
蹰	-13.2003
眿	-13.2004
踟	-13.2004
踞	-13.2005
豚	-13.2006
誨	-13.2007
覓	-13.2008
蝯	-13.2009
蚩	-13.201
虜	-13.2011
萋	-13.2012
菸	-13.2013
菆	-13.2014
膾	-13.2015
膩	-13.2016
膝	-13.2017
脕	-13.2018
耘	-13.2019
翕	-13.202
繒	-13.2021
絞	-13.2022
紹	-13.2023
紜	-13.2024
窐	-13.2025
穱	-13.2026
穉	-13.2027
塍	-13.2028
瞥	-13.2028
甌	-13.2029
甄	-13.203
璐	-13.2031
琬	-13.2032
犧	-13.2033
牢	-13.2034
牒	-13.2035
漑	-13.2036
竃	-13.2036
熒	-13.2036
灌	-13.2037
瀝	-13.2038
漧	-13.2039
淳	-13.204
殪	-13.2041
櫩	-13.2042
檮	-13.2043
梯	-13.2044
捜	-13.2045
抆	-13.2046
憛	-13.2047
悇	-13.2048
怖	-13.2049
徽	-13.205
很	-13.2051
彿	-13.2052
弼	-13.2053
幄	-13.2054
巃	-13.2055
嶬	-13.2056
峯	-13.2057
嫂	-13.2058
婆	-13.2059
娑	-13.206
奢	-13.2061
壬	-13.2062
堙	-13.2063
坦	-13.2064
囁	-13.2065
嘼	-13.2066
嗈	-13.2067
喈	-13.2068
啁	-13.2069
哫	-13.207
吏	-13.2071
創	-13.2072
刁	-13.2073
兠	-13.2074
儇	-13.2075
僔	-13.2076
僉	-13.2077
付	-13.2078
䢵	-13.2079
㫊	-13.208
㦸	-13.2081
鱞	-13.2082
靳	-13.2083
刎	-13.2084
翰	-13.2084
蘧	-13.2084
詡	-13.2084
遡	-13.2084
誹	-13.2085
芍	-13.2086
緼	-13.2087
粒	-13.2088
澈	-13.2089
湫	-13.209
淼	-13.2091
沲	-13.2092
慷	-13.2093
愎	-13.2094
岷	-13.2095
匐	-13.2096
乍	-13.2097
麒	-13.2098
鴿	-13.2099
鬻	-13.21
驘	-13.2101
駮	-13.2102
靃	-13.2103
阱	-13.2104
鎧	-13.2105
酪	-13.2106
鄢	-13.2107
䀋	-13.2108
潞	-13.2108
鄖	-13.2108
轕	-13.2109
軸	-13.211
買	-13.2111
謱	-13.2112
謰	-13.2113
蟪	-13.2114
蟋	-13.2115
硍	-13.2116
蒶	-13.2116
萊	-13.2117
臊	-13.2118
臇	-13.2119
脄	-13.212
翾	-13.2121
粔	-13.2122
籹	-13.2123
㨿	-13.2124
㬉	-13.2124
㸑	-13.2124
冄	-13.2124
暏	-13.2124
督	-13.2124
盲	-13.2125
甂	-13.2126
璇	-13.2127
熾	-13.2128
煔	-13.2129
炱	-13.213
濮	-13.2131
䁆	-13.2132
笈	-13.2132
籍	-13.2132
潏	-13.2132
泬	-13.2133
汀	-13.2134
櫹	-13.2135
槮	-13.2136
朏	-13.2137
拾	-13.2138
惽	-13.2139
島	-13.214
槪	-13.214
槿	-13.214
炰	-13.214
煑	-13.214
複	-13.214
惸	-13.214
悷	-13.2141
怙	-13.2142
嶄	-13.2143
嵩	-13.2144
嵞	-13.2145
媔	-13.2146
婓	-13.2147
䛐	-13.2148
䟦	-13.2148
僥	-13.2148
夐	-13.2148
托	-13.2148
攢	-13.2148
曝	-13.2148
沫	-13.2148
瓷	-13.2148
礉	-13.2148
壘	-13.2148
噍	-13.2149
哭	-13.215
咿	-13.2151
劂	-13.2152
刓	-13.2153
丸	-13.2154
齌	-13.2155
㫷	-13.2156
嫺	-13.2156
玫	-13.2156
硠	-13.2156
笋	-13.2156
葴	-13.2156
鷙	-13.2156
阰	-13.2157
釡	-13.2158
邢	-13.2159
踸	-13.216
誒	-13.2161
蕗	-13.2162
耎	-13.2163
偎	-13.2164
椈	-13.2164
炮	-13.2164
昺	-13.2165
帥	-13.2166
優	-13.2167
䶵	-13.2168
鹹	-13.2169
鷫	-13.217
驢	-13.2171
㨕	-13.2172
䙝	-13.2172
劈	-13.2172
噓	-13.2172
壌	-13.2172
晲	-13.2172
淛	-13.2172
翫	-13.2172
馭	-13.2172
鞏	-13.2173
靨	-13.2174
鐔	-13.2175
銀	-13.2176
鉞	-13.2177
遨	-13.2178
辠	-13.2179
㐲	-13.218
嘔	-13.218
宂	-13.218
搜	-13.218
搥	-13.218
撲	-13.218
溯	-13.218
筍	-13.218
躣	-13.218
譨	-13.2181
謷	-13.2182
訕	-13.2183
衙	-13.2184
蝦	-13.2185
虙	-13.2186
藴	-13.2187
嬥	-13.2188
扸	-13.2188
矧	-13.2188
綌	-13.2188
蒺	-13.2188
莆	-13.2189
脯	-13.219
罻	-13.2191
署	-13.2192
綬	-13.2193
糗	-13.2194
粢	-13.2195
䕸	-13.2196
捋	-13.2196
淤	-13.2196
瀓	-13.2196
締	-13.2196
轝	-13.2196
響	-13.2196
眽	-13.2196
琰	-13.2197
焚	-13.2198
澨	-13.2199
演	-13.22
混	-13.2201
歈	-13.2202
槐	-13.2203
䓤	-13.2204
儺	-13.2204
凔	-13.2204
嵔	-13.2204
枃	-13.2204
槖	-13.2204
淄	-13.2204
稜	-13.2204
袁	-13.2204
桷	-13.2204
擾	-13.2205
摩	-13.2206
搷	-13.2207
拜	-13.2208
弔	-13.2209
崘	-13.221
嬪	-13.2211
冮	-13.2212
卽	-13.2212
奷	-13.2212
嵐	-13.2212
幷	-13.2212
玲	-13.2212
笁	-13.2212
坲	-13.2212
嚅	-13.2213
卯	-13.2214
卞	-13.2215
兖	-13.2216
傒	-13.2217
偭	-13.2218
倠	-13.2219
䑞	-13.222
䦨	-13.222
伭	-13.222
奕	-13.222
弈	-13.222
批	-13.222
杏	-13.222
杮	-13.222
桒	-13.222
椎	-13.222
沂	-13.222
俳	-13.222
仳	-13.2221
䴊	-13.2222
㝱	-13.2223
」	-13.2224
鶚	-13.2225
踔	-13.2226
豺	-13.2227
㒨	-13.2228
䎡	-13.2228
䯻	-13.2228
什	-13.2228
岙	-13.2228
峰	-13.2228
摹	-13.2228
敇	-13.2228
櫽	-13.2228
毘	-13.2228
溉	-13.2228
濂	-13.2228
畮	-13.2228
盱	-13.2228
看	-13.2228
穔	-13.2228
臾	-13.2228
絙	-13.2229
穾	-13.223
澄	-13.2231
歰	-13.2232
棟	-13.2233
抃	-13.2234
悢	-13.2235
㦝	-13.2236
㮣	-13.2236
㹸	-13.2236
䓰	-13.2236
䜀	-13.2236
伅	-13.2236
冗	-13.2236
凘	-13.2236
唽	-13.2236
姹	-13.2236
寋	-13.2236
徕	-13.2236
揠	-13.2236
术	-13.2236
泟	-13.2236
玗	-13.2236
祺	-13.2236
裝	-13.2236
齎	-13.2236
崴	-13.2236
崦	-13.2237
坡	-13.2238
䖍	-13.2239
鼃	-13.224
鶗	-13.2241
鰅	-13.2242
髣	-13.2243
㝗	-13.2244
䨧	-13.2244
侶	-13.2244
倣	-13.2244
偹	-13.2244
冊	-13.2244
凑	-13.2244
噞	-13.2244
噵	-13.2244
埯	-13.2244
堊	-13.2244
尃	-13.2244
幺	-13.2244
愕	-13.2244
憟	-13.2244
戌	-13.2244
暜	-13.2244
梵	-13.2244
殥	-13.2244
渺	-13.2244
澀	-13.2244
牲	-13.2244
睱	-13.2244
瞿	-13.2244
租	-13.2244
税	-13.2244
骸	-13.2244
餔	-13.2245
鑣	-13.2246
課	-13.2247
詈	-13.2248
訟	-13.2249
蠅	-13.225
舲	-13.2251
㔹	-13.2252
䈽	-13.2252
䏎	-13.2252
俚	-13.2252
卾	-13.2252
厨	-13.2252
呈	-13.2252
噎	-13.2252
坰	-13.2252
夌	-13.2252
庠	-13.2252
慚	-13.2252
拓	-13.2252
摇	-13.2252
某	-13.2252
栖	-13.2252
槇	-13.2252
漨	-13.2252
笨	-13.2252
芟	-13.2252
颺	-13.2252
罵	-13.2252
秬	-13.2253
漾	-13.2254
渾	-13.2255
泊	-13.2256
沱	-13.2257
殽	-13.2258
楓	-13.2259
㒹	-13.226
㿑	-13.226
䜟	-13.226
冕	-13.226
刄	-13.226
埴	-13.226
徤	-13.226
挼	-13.226
晴	-13.226
杇	-13.226
柩	-13.226
梫	-13.226
棋	-13.226
槙	-13.226
煥	-13.226
狎	-13.226
珢	-13.226
瓮	-13.226
睷	-13.226
稅	-13.226
筩	-13.226
脰	-13.226
茵	-13.226
闥	-13.226
敵	-13.226
懮	-13.2261
恤	-13.2262
尼	-13.2263
滲	-13.2264
畆	-13.2264
嫋	-13.2264
咨	-13.2265
倘	-13.2266
佛	-13.2267
■	-13.2268
㒒	-13.2268
䡄	-13.2268
互	-13.2268
亶	-13.2268
冽	-13.2268
刮	-13.2268
嗚	-13.2268
幢	-13.2268
廈	-13.2268
悤	-13.2268
拯	-13.2268
挴	-13.2268
昨	-13.2268
暭	-13.2268
柭	-13.2268
桉	-13.2268
楮	-13.2268
楰	-13.2268
榻	-13.2268
渇	-13.2268
片	-13.2268
磯	-13.2268
穎	-13.2268
㠜	-13.2268
裯	-13.2269
衝	-13.227
蘪	-13.2271
杍	-13.2272
琊	-13.2272
苻	-13.2272
竺	-13.2273
矱	-13.2274
嵫	-13.2275
潺	-13.2276
㫙	-13.2276
䡖	-13.2276
伕	-13.2276
凖	-13.2276
垌	-13.2276
夬	-13.2276
弥	-13.2276
愿	-13.2276
懍	-13.2276
昜	-13.2276
栵	-13.2276
椹	-13.2276
瘡	-13.2276
秫	-13.2276
穌	-13.2276
笥	-13.2276
話	-13.2276
鰥	-13.2276
嫄	-13.2276
黀	-13.2277
鵲	-13.2278
鯉	-13.2279
减	-13.228
算	-13.228
軛	-13.228
詹	-13.2281
訽	-13.2282
衒	-13.2283
「	-13.2284
嵯	-13.2284
湲	-13.2284
<	-13.2284
㳫	-13.2284
㷤	-13.2284
䄖	-13.2284
䕮	-13.2284
匝	-13.2284
圮	-13.2284
墻	-13.2284
嬀	-13.2284
慓	-13.2284
昳	-13.2284
椅	-13.2284
槧	-13.2284
渣	-13.2284
溜	-13.2284
溫	-13.2284
焕	-13.2284
燈	-13.2284
甜	-13.2284
祒	-13.2284
祓	-13.2284
稏	-13.2284
稠	-13.2284
迪	-13.2284
餉	-13.2284
蔎	-13.2284
舫	-13.2285
膚	-13.2286
竚	-13.2287
䄜	-13.2288
撱	-13.2288
瑱	-13.2288
猩	-13.2289
炫	-13.229
克	-13.2291
0	-13.2292
、	-13.2292
䏈	-13.2292
䥶	-13.2292
么	-13.2292
亞	-13.2292
倿	-13.2292
堕	-13.2292
妊	-13.2292
尻	-13.2292
惏	-13.2292
懆	-13.2292
捊	-13.2292
栂	-13.2292
珊	-13.2292
瑚	-13.2292
睂	-13.2292
纇	-13.2292
鯪	-13.2292
鐙	-13.2293
踥	-13.2294
狸	-13.2295
㵕	-13.2296
帨	-13.2296
悅	-13.2296
漣	-13.2296
沓	-13.2297
婪	-13.2298
勾	-13.2299
㲹	-13.23
䔿	-13.23
傀	-13.23
冿	-13.23
嗽	-13.23
媿	-13.23
廼	-13.23
朞	-13.23
楕	-13.23
橎	-13.23
檽	-13.23
滎	-13.23
烕	-13.23
猕	-13.23
鴰	-13.23
鬋	-13.2301
頰	-13.2302
阽	-13.2303
躊	-13.2304
㮒	-13.2304
坆	-13.2304
弍	-13.2304
昐	-13.2304
縞	-13.2305
綽	-13.2306
窘	-13.2307
狺	-13.2308
亙	-13.2308
侫	-13.2308
儠	-13.2308
插	-13.2308
皺	-13.2308
窫	-13.2308
蘖	-13.2308
汋	-13.2309
橈	-13.231
枻	-13.2311
枳	-13.2312
暝	-13.2312
替	-13.2313
敦	-13.2314
挫	-13.2315
媧	-13.2316
件	-13.2316
攡	-13.2316
晹	-13.2316
樧	-13.2316
脛	-13.2316
佻	-13.2317
鷹	-13.2318
阯	-13.2319
鄂	-13.232
枎	-13.232
遣	-13.2321
螻	-13.2322
茱	-13.2323
瑾	-13.2324
㲨	-13.2324
喑	-13.2324
嚘	-13.2324
懽	-13.2324
楳	-13.2324
珧	-13.2325
髴	-13.2326
餓	-13.2327
預	-13.2328
陬	-13.2329
遒	-13.233
輬	-13.2331
粹	-13.2332
印	-13.2332
攗	-13.2332
枢	-13.2332
磊	-13.2333
砥	-13.2334
璜	-13.2335
涔	-13.2336
暾	-13.2337
戮	-13.2338
惝	-13.2339
怦	-13.234
俶	-13.234
悎	-13.234
煏	-13.234
幃	-13.2341
圍	-13.2342
匱	-13.2343
凄	-13.2344
凢	-13.2344
兕	-13.2345
倕	-13.2346
.	-13.2347
諓	-13.2348
忝	-13.2348
昵	-13.2348
篠	-13.2348
菱	-13.2349
肅	-13.235
簙	-13.2351
憔	-13.2352
鬲	-13.2353
醬	-13.2354
虐	-13.2355
瑣	-13.2356
㕘	-13.2356
湼	-13.2356
璫	-13.2356
緤	-13.2356
汶	-13.2357
昊	-13.2358
斫	-13.2359
挐	-13.236
慰	-13.2361
恚	-13.2362
嵺	-13.2363
寅	-13.2364
嗅	-13.2364
屐	-13.2364
檜	-13.2364
獄	-13.2364
簜	-13.2364
媞	-13.2365
娵	-13.2366
娥	-13.2367
堵	-13.2368
羔	-13.2369
旖	-13.237
媵	-13.2371
奈	-13.2372
柷	-13.2373
借	-13.2373
騑	-13.2374
餐	-13.2375
隈	-13.2376
轔	-13.2377
踐	-13.2378
觺	-13.2379
菎	-13.238
豬	-13.2381
糟	-13.2381
牉	-13.2382
殘	-13.2383
旅	-13.2384
堆	-13.2385
鬤	-13.2386
菟	-13.2387
艱	-13.2388
羈	-13.2389
惆	-13.239
否	-13.2391
琳	-13.2392
煎	-13.2393
榘	-13.2394
旂	-13.2395
巍	-13.2396
嬉	-13.2397
勃	-13.2398
剡	-13.2399
淑	-13.24
婞	-13.2401
踊	-13.2402
沔	-13.2403
岸	-13.2404
塘	-13.2405
蘺	-13.2405
淈	-13.2406
娀	-13.2407
鬿	-13.2408
霞	-13.2409
蘿	-13.241
蓐	-13.2411
挾	-13.2412
饗	-13.2413
鏘	-13.2414
儃	-13.2415
黍	-13.2416
閬	-13.2417
菖	-13.2418
繫	-13.2419
液	-13.242
沆	-13.2421
侘	-13.2422
頌	-13.2423
喬	-13.2424
鑠	-13.2425
怳	-13.2426
姣	-13.2427
築	-13.2428
鱣	-13.2429
亹	-13.2429
麋	-13.243
貝	-13.2431
樓	-13.2432
抗	-13.2433
濛	-13.2434
嵬	-13.2435
顓	-13.2436
頊	-13.2437
藹	-13.2438
蜷	-13.2439
箕	-13.244
憺	-13.2441
閶	-13.2442
攻	-13.2443
鶬	-13.2444
荀	-13.2445
螭	-13.2446
宓	-13.2447
滔	-13.2448
狄	-13.2449
桓	-13.245
壯	-13.2451
騏	-13.2452
璞	-13.2453
簟	-13.2453
