<unk>	0
<s>	0
</s>	0
之	-4.0889
以	-4.62677
/	-4.76073
(	-4.80232
為	-4.93802
)	-5.08581
其	-5.09308
而	-5.20009
有	-5.20721
者	-5.24345
於	-5.28916
一	-5.31331
不	-5.35384
官	-5.38859
人	-5.42833
上	-5.46776
王	-5.70942
曰	-5.71323
自	-5.78643
則	-5.7868
及	-5.79527
大	-5.79527
事	-5.79635
至	-5.80198
中	-5.84332
行	-5.84406
也	-5.90673
司	-5.91425
用	-5.94672
三	-5.94933
與	-6.01235
所	-6.02069
文	-6.02988
無	-6.03534
各	-6.03602
)(	-6.05542
等	-6.07585
二	-6.0855
令	-6.09794
正	-6.1342
皆	-6.15287
臣	-6.1864
/)	-6.18896
同	-6.20302
奏	-6.2116
在	-6.22489
時	-6.23234
置	-6.23467
書	-6.24123
四	-6.28416
掌	-6.28446
于	-6.28625
州	-6.29229
如	-6.2952
凡	-6.30373
子	-6.31331
又	-6.31471
言	-6.33696
名	-6.33834
亦	-6.34789
府	-6.35318
定	-6.36133
内	-6.37544
出	-6.40085
使	-6.41018
日	-6.41423
禮	-6.41648
下	-6.42612
今	-6.43118
明	-6.43137
後	-6.44137
命	-6.45423
五	-6.46749
前	-6.47063
道	-6.48278
本	-6.49126
入	-6.49218
故	-6.49487
天	-6.50764
進	-6.51094
國	-6.51802
▁	-6.52354
此	-6.54219
復	-6.5442
一人	-6.54519
分	-6.56891
六	-6.57719
設	-6.58308
公	-6.58522
知	-6.58732
惟	-6.59828
安	-6.60364
年	-6.60633
學	-6.60791
任	-6.61419
當	-6.61731
請	-6.62131
成	-6.62478
若	-6.63981
見	-6.64156
監	-6.64904
得	-6.66667
乃	-6.66752
相	-6.66795
初	-6.67263
門	-6.67279
改	-6.67323
從	-6.67679
立	-6.67753
除	-6.68036
元	-6.68851
諸	-6.69343
兼	-6.70101
俱	-6.70174
詔	-6.71119
議	-6.71199
制	-6.71774
祭	-6.73441
已	-6.73457
是	-6.73927
重	-6.74106
賜	-6.76404
民	-6.76552
長	-6.76556
主	-6.76873
奉	-6.77413
張	-6.78271
即	-6.78466
生	-6.78593
然	-6.78794
多	-6.79359
實	-6.79645
外	-6.80024
將	-6.80475
陳	-6.81167
未	-6.8143
朝	-6.81463
或	-6.81672
金	-6.83718
通	-6.84886
加	-6.85074
非	-6.86248
方	-6.86553
職	-6.867
先	-6.87114
矣	-6.87457
二人	-6.87736
軍	-6.8849
仍	-6.88614
可	-6.89207
並	-6.8956
字	-6.89784
封	-6.89978
東	-6.90732
稱	-6.90892
西	-6.90993
法	-6.91213
罷	-6.91256
考	-6.92591
兩	-6.92704
治	-6.93363
左	-6.93877
始	-6.9446
宜	-6.94556
徳	-6.95778
經	-6.95833
部	-6.95949
南	-6.9631
親	-6.96826
聖	-6.97163
既	-6.97611
作	-6.97889
平	-6.98085
服	-6.98089
典	-6.98257
漢	-6.98439
神	-6.99301
位	-6.99807
廟	-6.99957
次	-7.0006
馬	-7.00268
儀	-7.00913
舉	-7.01032
給	-7.0111
選	-7.01663
省	-7.01851
八	-7.0262
九	-7.02632
授	-7.03008
守	-7.03249
兵	-7.0365
應	-7.03812
直	-7.0391
士	-7.04881
李	-7.05781
充	-7.05793
領	-7.06479
氏	-7.07015
政	-7.0772
右	-7.08274
建	-7.08521
例	-7.08663
合	-7.08978
云	-7.0935
焉	-7.09593
殿	-7.09955
十	-7.10091
師	-7.10334
禮部	-7.1097
樂	-7.10986
武	-7.11246
史	-7.11448
周	-7.11517
居	-7.13129
因	-7.13318
三年	-7.13804
取	-7.14178
謂	-7.14321
宗	-7.14364
必	-7.15032
心	-7.15206
遂	-7.15837
山	-7.16248
卿	-7.16756
止	-7.17106
告	-7.17811
數	-7.18712
節	-7.19061
宫	-7.19194
宣	-7.19455
欲	-7.19696
宋	-7.19979
左右	-7.20002
世	-7.20601
章	-7.21215
具	-7.21387
陞	-7.2202
二年	-7.22245
受	-7.22287
御	-7.22492
七	-7.2277
興	-7.23039
黄	-7.23173
雖	-7.23704
和	-7.23759
萬	-7.24068
小	-7.24083
并	-7.24095
都	-7.24472
何	-7.24503
尚	-7.24892
常	-7.24966
表	-7.25241
屬	-7.25264
開	-7.25421
衛	-7.25455
拜	-7.25558
論	-7.25616
堂	-7.26301
詣	-7.2693
由	-7.2708
引	-7.27437
志	-7.27662
天下	-7.2821
郎	-7.28448
清	-7.28566
朕	-7.28942
傳	-7.29122
唐	-7.29153
理	-7.29186
祀	-7.29451
處	-7.29743
爾	-7.29797
縣	-7.30036
修	-7.3095
來	-7.32015
院	-7.32045
去	-7.32372
家	-7.3241
舊	-7.32639
吏	-7.33576
聞	-7.33908
尚書	-7.33986
北	-7.3472
班	-7.34944
皇	-7.34972
送	-7.35767
承	-7.36027
案	-7.37345
歸	-7.37365
髙	-7.37647
品	-7.37827
陵	-7.38796
副	-7.39074
帝	-7.39886
永	-7.40356
孝	-7.4077
白	-7.40841
率	-7.41054
義	-7.41126
每	-7.41376
備	-7.41724
務	-7.42323
近	-7.42662
地	-7.43021
觀	-7.4333
新	-7.43464
恩	-7.44033
更	-7.44091
過	-7.44473
劉	-7.45404
思	-7.46215
列	-7.46277
特	-7.46314
教	-7.46448
降	-7.46517
保	-7.46826
發	-7.46995
遷	-7.47099
㑹	-7.47337
載	-7.47408
元年	-7.47441
學士	-7.47527
賢	-7.47539
署	-7.47578
物	-7.47674
皇帝	-7.47863
城	-7.47944
功	-7.48193
兮	-7.48204
問	-7.48398
古	-7.48843
月	-7.4896
食	-7.48986
遣	-7.49059
禁	-7.49231
爵	-7.49685
科	-7.49872
餘	-7.50303
夫	-7.5051
逺	-7.5062
意	-7.51215
畢	-7.51271
坐	-7.51496
光	-7.51507
以為	-7.51752
卷	-7.51921
統	-7.5216
進士	-7.52373
丞	-7.52459
獻	-7.53211
乞	-7.53284
廣	-7.53347
壇	-7.53738
易	-7.53895
某	-7.53947
謹案	-7.53997
曹	-7.54205
布	-7.54503
工	-7.5504
闕	-7.55491
百	-7.55521
善	-7.5574
四人	-7.55809
賛	-7.56437
忠	-7.56443
石	-7.56525
○	-7.56977
罪	-7.57005
且	-7.57042
嵗	-7.5716
代	-7.57503
酒	-7.57696
能	-7.57899
龍	-7.57982
還	-7.58279
恭	-7.58366
寧	-7.58453
視	-7.58881
試	-7.58886
水	-7.5915
别	-7.59387
間	-7.59621
益	-7.59625
補	-7.59808
差	-7.60617
京	-7.60635
玉	-7.60732
共	-7.61244
一員	-7.61285
昭	-7.61291
造	-7.61445
依	-7.61858
退	-7.61906
照	-7.61944
庫	-7.62146
盡	-7.62511
祖	-7.62537
甚	-7.62765
爲	-7.62791
君	-7.6339
四年	-7.63464
著	-7.63824
歴	-7.63911
乎	-7.64012
原	-7.64163
許	-7.64249
錢	-7.64369
深	-7.64378
色	-7.64379
號	-7.64878
少	-7.65239
起	-7.65351
衣	-7.65374
員	-7.65705
就	-7.66026
太	-7.66138
齊	-7.66747
異	-7.67002
貢	-7.67124
嘉靖	-7.67253
誠	-7.67442
不可	-7.67657
隨	-7.67946
首	-7.67989
五年	-7.68023
辭	-7.68123
陽	-7.68215
孫	-7.68875
力	-7.69405
再	-7.69993
候	-7.70455
題	-7.70664
比	-7.70673
但	-7.70745
路	-7.70899
録	-7.7139
之事	-7.72004
我	-7.72208
印	-7.72313
圖	-7.72366
求	-7.7237
鎮	-7.72524
敬	-7.72772
崇	-7.72897
妃	-7.73014
梁	-7.73106
贊	-7.73365
納	-7.73406
籍	-7.73639
謹	-7.73773
尊	-7.7378
衆	-7.73966
召	-7.74088
申	-7.74385
訖	-7.74858
仁	-7.74887
繇	-7.75138
報	-7.7522
庶	-7.75416
詳	-7.75944
車	-7.75963
侯	-7.76131
臺	-7.76203
海	-7.76463
伯	-7.76698
楊	-7.76788
不得	-7.76835
銀	-7.77756
臨	-7.77828
風	-7.77943
講	-7.78028
諭	-7.78459
江	-7.78761
固	-7.78811
致	-7.78945
體	-7.78951
晉	-7.79079
私	-7.79402
對	-7.79605
華	-7.79677
昌	-7.7971
嘉	-7.79825
升	-7.79887
春	-7.79921
寳	-7.80077
盖	-7.80442
資	-7.80448
福	-7.80713
卒	-7.80827
魏	-7.80892
失	-7.81172
青	-7.81181
大臣	-7.81283
冠	-7.81352
管	-7.81862
免	-7.81961
要	-7.82094
遇	-7.82185
式	-7.82531
權	-7.82573
留	-7.82777
計	-7.82859
嚴	-7.82963
營	-7.82998
該	-7.83104
寺	-7.83226
總	-7.8337
身	-7.83456
秩	-7.83644
不許	-7.83731
父	-7.84383
期	-7.84573
難	-7.84694
跪	-7.85002
集	-7.85274
河	-7.85311
夏	-7.8535
侍	-7.85492
附	-7.85694
端	-7.85695
嘗	-7.85772
執	-7.86086
良	-7.86193
記	-7.86416
冊	-7.86703
郡	-7.86908
望	-7.87146
六年	-7.87629
大學士	-7.87683
林	-7.87692
御史	-7.87943
土	-7.8836
察	-7.88606
雲	-7.88682
准	-7.89096
收	-7.89274
詩	-7.89356
倉	-7.89364
習	-7.8945
隆	-7.89593
十二	-7.89624
簡	-7.89966
第	-7.89967
語	-7.90341
流	-7.9039
將軍	-7.90564
化	-7.90816
聲	-7.90935
悉	-7.91295
等官	-7.91714
按	-7.91729
葢	-7.91826
序	-7.91983
查	-7.92043
局	-7.92524
運	-7.92786
額	-7.92826
業	-7.92853
久	-7.92908
德	-7.92944
百官	-7.93028
紀	-7.93303
革	-7.93923
輔	-7.94356
郎中	-7.94637
吏部	-7.94991
度	-7.95004
係	-7.95161
厚	-7.95581
甲	-7.95609
聽	-7.95737
支	-7.95769
終	-7.95919
帶	-7.96122
靈	-7.9623
木	-7.96317
里	-7.96451
登	-7.96916
二員	-7.96951
七年	-7.97211
皇后	-7.97232
全	-7.97355
慶	-7.97835
田	-7.97944
朝廷	-7.9806
趙	-7.98392
毎	-7.98395
交	-7.98609
養	-7.98655
𨽻	-7.98668
情	-7.98805
各一人	-7.98856
大夫	-7.98959
器	-7.99087
存	-7.99236
闗	-7.99449
三月	-7.99533
以下	-7.99701
佐	-8.00445
國子監	-8.00659
面	-8.00751
供	-8.00785
太子	-8.00956
編	-8.01046
獨	-8.01195
朱	-8.01708
旗	-8.01737
判	-8.01776
翰林	-8.02574
上曰	-8.02728
捧	-8.02918
侍郎	-8.02971
猶	-8.02976
才	-8.0325
訓	-8.03325
濟	-8.03378
享	-8.03391
極	-8.03393
増	-8.03536
專	-8.0358
親王	-8.03602
條	-8.03815
隋	-8.04065
便	-8.0489
户	-8.05468
四月	-8.05489
中書	-8.05531
豈	-8.05734
克	-8.05784
景	-8.05966
秦	-8.06172
鄉	-8.06287
房	-8.06302
羅	-8.06682
行禮	-8.06799
皇太子	-8.06899
役	-8.06942
襲	-8.07358
女	-8.07392
三人	-8.07435
予	-8.07475
館	-8.07677
三十	-8.07978
優	-8.08007
詞	-8.08387
二十	-8.0846
香	-8.0867
之制	-8.08685
回	-8.08941
死	-8.09108
斯	-8.0917
廢	-8.09215
利	-8.09621
賞	-8.09643
老	-8.10536
洪武	-8.10547
疏	-8.10691
駕	-8.10746
翰林院	-8.10815
之職	-8.10917
委	-8.11083
參	-8.11094
順	-8.11172
配	-8.11194
榮	-8.11546
注	-8.11705
閣	-8.11807
精	-8.11868
徐	-8.12026
吉	-8.12138
到	-8.12161
預	-8.12352
河南	-8.12465
不能	-8.12489
責	-8.12635
縣人	-8.12647
南京	-8.12911
繼	-8.1292
以上	-8.13056
階	-8.13277
莫	-8.137
藏	-8.1372
九月	-8.13755
謀	-8.1385
八月	-8.13882
轉	-8.1399
讀	-8.14062
維	-8.14235
移	-8.14248
五月	-8.14599
果	-8.14883
七月	-8.15055
邊	-8.15074
戒	-8.15141
肅	-8.1515
待	-8.15293
推	-8.15381
咸	-8.15473
花	-8.15842
盛	-8.15848
所以	-8.16237
宴	-8.16298
唱	-8.16399
㫖	-8.16442
勞	-8.16503
陛下	-8.16598
室	-8.16722
曽	-8.1693
薦	-8.17083
校	-8.17121
八年	-8.17145
二月	-8.174
欽此	-8.17545
十年	-8.17749
遵	-8.1775
有司	-8.17845
真	-8.17933
幸	-8.18113
成化	-8.18352
十月	-8.18536
六月	-8.18569
氣	-8.19045
疾	-8.19119
素	-8.19128
牧	-8.19439
遺	-8.19851
違	-8.19866
調	-8.19992
勲	-8.19993
口	-8.20033
千	-8.20114
允	-8.20186
本部	-8.2024
限	-8.20337
據	-8.20426
刑	-8.20483
解	-8.20687
鼓	-8.20721
變	-8.20905
擬	-8.20981
虞	-8.211
於是	-8.21206
赴	-8.21215
英	-8.21233
兹	-8.21302
員外郎	-8.21421
覆	-8.2144
容	-8.21447
十二月	-8.21523
直𨽻	-8.21545
廷	-8.21685
専	-8.21901
示	-8.22056
勅	-8.2232
雜	-8.22371
尤	-8.22405
他	-8.22478
吳	-8.2255
泰	-8.22582
汝	-8.22628
敢	-8.2275
夷	-8.22869
信	-8.23186
樂作	-8.2334
律	-8.23366
正月	-8.23408
獄	-8.23736
延	-8.24051
願	-8.24335
耳	-8.2434
儒	-8.2449
顯	-8.24506
仰	-8.24791
主事	-8.24845
𢎞治	-8.2513
康	-8.25612
尹	-8.25748
切	-8.25756
郡王	-8.25796
鄭	-8.26021
紅	-8.26166
呈	-8.26396
疑	-8.26627
均	-8.26688
祠	-8.26695
督	-8.26873
天子	-8.26932
市	-8.27052
往	-8.27055
太祖	-8.27412
被	-8.27468
追	-8.2762
賦	-8.27738
山東	-8.27778
導	-8.27834
樂止	-8.28074
米	-8.28127
副使	-8.28162
丁	-8.28277
鹽	-8.28279
九年	-8.28444
永樂	-8.28627
邦	-8.29003
輿	-8.29035
欽	-8.29212
羣	-8.2944
滿	-8.29581
量	-8.29735
秋	-8.29837
東西	-8.2989
蓋	-8.29952
越	-8.29968
十一月	-8.30133
格	-8.30134
識	-8.30271
母	-8.3039
手	-8.30449
哉	-8.3047
程	-8.30507
協	-8.30553
浙江	-8.30556
顧	-8.30878
類	-8.3118
男	-8.31419
頒	-8.31881
彼	-8.32049
謝	-8.3241
萬厯	-8.32487
叅	-8.32721
稽	-8.32783
内閣	-8.3282
阿	-8.33039
穆	-8.33114
錫	-8.33128
而不	-8.33208
舞	-8.33238
音	-8.33361
達	-8.33439
博士	-8.33589
威	-8.33619
宰相	-8.3366
孔	-8.3379
恐	-8.33875
輕	-8.3395
胡	-8.34114
目	-8.34241
迎	-8.346
給事中	-8.34825
嗣	-8.35191
遣官	-8.35588
以後	-8.35637
祖宗	-8.3577
貴	-8.35774
犯	-8.35879
啓	-8.35952
須	-8.35979
貫	-8.36074
付	-8.3737
啟	-8.37397
衙門	-8.37477
草	-8.37553
帛	-8.38045
徒	-8.38256
缺	-8.38308
以來	-8.38366
象	-8.38514
結	-8.39056
尋	-8.39071
向	-8.39173
動	-8.39567
皇上	-8.39632
稍	-8.39776
澤	-8.40336
其後	-8.40527
江西	-8.40858
俾	-8.40885
美	-8.41191
謂之	-8.41217
巡	-8.41381
課	-8.41389
門外	-8.41927
防	-8.42283
将	-8.42473
從之	-8.42524
厯	-8.42804
頭	-8.43384
仲	-8.4343
倫	-8.4371
併	-8.43808
四十	-8.43822
博	-8.43845
懐	-8.43931
休	-8.44052
正統	-8.44141
后	-8.44151
足	-8.44248
鈔	-8.44337
畫	-8.44386
尉	-8.44416
亭	-8.44609
垂	-8.44831
高	-8.44841
躬	-8.45082
六人	-8.45316
𫝊	-8.45423
内外	-8.45588
孟	-8.45662
憲	-8.45962
醫	-8.46244
勤	-8.46279
奏請	-8.46358
末	-8.46359
祝	-8.46606
俸	-8.46682
座	-8.46735
至元	-8.4676
編修	-8.46977
聴	-8.47586
具官	-8.48132
吕	-8.4821
符	-8.48354
持	-8.48519
擢	-8.48599
册	-8.48618
江南	-8.48853
苑	-8.48884
衡	-8.49118
𤣥	-8.49243
庭	-8.49287
咨	-8.49311
乾隆	-8.49338
洪	-8.49419
至是	-8.49533
改為	-8.49588
監生	-8.49602
川	-8.49617
勿	-8.49699
檢	-8.49707
燕	-8.49733
司馬	-8.49755
減	-8.49884
禄	-8.50186
羊	-8.50404
八人	-8.50517
安石	-8.50704
官員	-8.50843
為之	-8.50859
賀	-8.50972
假	-8.51198
都督	-8.51236
裁	-8.51281
太學	-8.51413
贈	-8.51543
工部	-8.51647
狀	-8.5166
牲	-8.51795
厥	-8.5185
審	-8.51933
藩	-8.51984
諡	-8.52163
韓	-8.52178
兵部	-8.52211
循	-8.52397
撰	-8.52534
祭酒	-8.52886
五十	-8.53127
勘	-8.53495
弼	-8.53813
規	-8.53838
同知	-8.54325
滿洲	-8.54332
刻	-8.54334
湯	-8.54472
陜西	-8.54565
紙	-8.54623
太宗	-8.54649
致仕	-8.54706
十三年	-8.54775
提舉	-8.54857
豐	-8.54984
折	-8.554
幾	-8.55477
故事	-8.55479
十六年	-8.55553
儲	-8.55559
宿	-8.55737
國公	-8.55754
之意	-8.55832
鼎	-8.55833
扵	-8.55841
太廟	-8.55895
季	-8.56148
射	-8.56175
太常	-8.56256
執政	-8.56324
星	-8.56379
連	-8.5645
材	-8.56585
費	-8.56633
擇	-8.56711
念	-8.56783
碑	-8.56789
衞	-8.5696
宗室	-8.57073
說	-8.57194
膳	-8.5722
春秋	-8.57415
篇	-8.57424
積	-8.57438
機	-8.57525
十四年	-8.57992
絶	-8.58191
一日	-8.58216
説	-8.58221
五人	-8.58594
奠	-8.59067
坊	-8.59247
好	-8.59371
㕔	-8.59439
歲	-8.59543
列傳	-8.59745
生員	-8.59838
王府	-8.59878
商	-8.59936
又有	-8.59967
樞	-8.60019
京師	-8.60288
殊	-8.6035
魯	-8.6037
旦	-8.60564
尺	-8.60645
雅	-8.6073
十五	-8.60903
弊	-8.61045
諸生	-8.61317
席	-8.61405
質	-8.61412
畧	-8.616
病	-8.61699
邑	-8.61776
孔子	-8.61779
揚	-8.61842
押	-8.61843
惡	-8.61925
湖廣	-8.62033
農	-8.62136
䕶	-8.62196
辦	-8.62278
歌	-8.62429
辰	-8.62458
增	-8.62488
喜	-8.62534
祥	-8.62548
雨	-8.62559
斷	-8.62602
綱	-8.6286
慎	-8.62961
制曰	-8.63151
散	-8.63152
寵	-8.63173
禮部尚書	-8.63248
齋	-8.63258
半	-8.63307
舉人	-8.63378
帥	-8.63693
伏	-8.63796
弟	-8.63802
勒	-8.63824
勝	-8.63905
曲	-8.64319
奉聖㫖	-8.64322
之後	-8.64375
簿	-8.64652
不敢	-8.64754
夀	-8.6498
指	-8.65087
祭祀	-8.65323
如此	-8.65363
十一年	-8.65473
喪	-8.65587
賔	-8.65613
的	-8.65724
而已	-8.65744
子弟	-8.65745
會	-8.65797
十人	-8.65858
似	-8.65942
山西	-8.66003
國家	-8.6601
隂	-8.66106
乗	-8.66252
冬	-8.66317
刑部	-8.66393
靖	-8.66511
早	-8.66539
是年	-8.66579
采	-8.66861
禮畢	-8.66884
牛	-8.66893
葬	-8.66999
陳設	-8.67111
校尉	-8.67223
雍	-8.6731
寶	-8.67391
户部	-8.67767
庸	-8.68035
虚	-8.68249
藥	-8.68347
火	-8.68369
子孫	-8.68412
其事	-8.68416
十二年	-8.68469
亂	-8.68525
各一	-8.69075
昔	-8.69134
㕘	-8.6927
寛	-8.69353
之禮	-8.69629
主簿	-8.69795
伊	-8.6981
騎	-8.69811
族	-8.69865
曾	-8.69866
東宫	-8.69888
惠	-8.69951
縁	-8.69951
所謂	-8.69993
丞相	-8.70072
䝉	-8.70604
吾	-8.70658
眷	-8.70881
性	-8.70893
鍾	-8.70975
猷	-8.71078
秉	-8.71079
累	-8.71182
北齊	-8.71736
銅	-8.71765
乆	-8.71774
茂	-8.72019
續	-8.72072
屢	-8.72264
殺	-8.72317
福建	-8.72353
復位	-8.72451
蘇	-8.72468
辨	-8.72531
戎	-8.72554
䇿	-8.72713
毋	-8.72792
銜	-8.73018
之神	-8.73062
太常寺	-8.73064
執事	-8.73234
源	-8.73346
勢	-8.73384
絹	-8.73576
文武	-8.73608
釋	-8.73633
放	-8.73668
黨	-8.73843
宻	-8.73976
淮	-8.73983
征	-8.74033
顔	-8.74285
之法	-8.74387
先是	-8.7447
四川	-8.74687
沈	-8.74691
畨	-8.74708
宏	-8.74999
肆	-8.75019
□	-8.75308
當時	-8.7537
庻	-8.75669
害	-8.75671
十八年	-8.76005
不同	-8.76101
康熙	-8.76127
修撰	-8.7627
陪	-8.76579
第一	-8.76861
糧	-8.7709
出入	-8.77096
翼	-8.77136
慈	-8.77144
傅	-8.77146
純	-8.77261
社	-8.77288
眀	-8.77418
謁	-8.77419
茶	-8.77438
蔡	-8.77484
筆	-8.77564
職掌	-8.77757
撫	-8.77934
四方	-8.77939
在外	-8.78189
俊	-8.78365
今後	-8.78399
教習	-8.78719
二百	-8.78754
郊	-8.78843
少卿	-8.78863
適	-8.78998
施行	-8.79222
叙	-8.79296
三品	-8.79341
杜	-8.79519
濫	-8.79565
鳯	-8.79664
来	-8.79781
土官	-8.80217
密	-8.80261
乾	-8.80322
干	-8.80431
振	-8.80472
避	-8.80499
饌	-8.80531
㸃	-8.80821
訪	-8.80854
臣等	-8.80866
撥	-8.80897
述	-8.80903
事例	-8.80923
感	-8.80957
周禮	-8.80973
勸	-8.80984
之所	-8.80986
諸司	-8.81143
天地	-8.81167
池	-8.81284
十六	-8.81319
宣徳	-8.81362
寫	-8.81614
助	-8.81695
助教	-8.82029
希	-8.822
况	-8.82222
履	-8.82249
瞻	-8.82397
壽	-8.825
其餘	-8.82608
諫	-8.82705
飛	-8.82808
究	-8.82865
未有	-8.83095
翰林學士	-8.83132
十五年	-8.83176
裏	-8.83274
誤	-8.83298
盤	-8.83303
宰	-8.83405
遼	-8.83447
貳	-8.83736
蕃	-8.83909
然後	-8.83924
宇	-8.84024
施	-8.84185
其職	-8.84228
可以	-8.84281
關	-8.84323
凖	-8.84589
社稷	-8.84639
飾	-8.84684
/)(	-8.84751
勉	-8.84975
三百	-8.85008
殿中	-8.85094
驗	-8.85096
敷	-8.85256
舍	-8.85275
酌	-8.85281
最	-8.85282
夜	-8.85294
照例	-8.85392
匠	-8.85402
囘	-8.85511
在京	-8.85632
牌	-8.8565
不必	-8.85818
紹興	-8.85916
不知	-8.85978
叔	-8.86156
魚	-8.86194
俟	-8.86201
陸	-8.86213
庶吉士	-8.86217
州縣	-8.86498
十七年	-8.86709
術	-8.8673
否	-8.86794
鴻臚寺	-8.86847
敏	-8.8702
息	-8.87121
因之	-8.87122
之名	-8.87291
慮	-8.87326
略	-8.87384
十一	-8.87429
公主	-8.87575
三公	-8.87611
十三	-8.87614
甫	-8.87626
董	-8.87834
於此	-8.87897
人等	-8.87924
竒	-8.88029
場	-8.88032
姦	-8.88137
本寺	-8.88208
逐	-8.88239
己	-8.88315
瑞	-8.88383
正徳	-8.88702
姑	-8.88707
從祀	-8.88727
長史	-8.89134
皇朝	-8.89154
釋奠	-8.89166
監察御史	-8.8919
邉	-8.89231
一百	-8.89261
烏	-8.89266
指揮	-8.89285
繫	-8.89539
淵	-8.89733
舊制	-8.89923
珠	-8.89959
露	-8.90004
徽	-8.901
内侍	-8.90237
之類	-8.90257
檢討	-8.90446
番	-8.90496
即位	-8.90643
角	-8.90758
仕	-8.90791
五品	-8.90836
皇太后	-8.90867
之人	-8.91113
布政司	-8.91156
考試	-8.91308
財	-8.91357
台	-8.91608
職事	-8.91795
爰	-8.91871
懿	-8.91992
者皆	-8.91998
綬	-8.92373
雲南	-8.92397
諸王	-8.92457
釐	-8.92482
一年	-8.92552
州人	-8.92628
仗	-8.92772
漢書	-8.92881
遣使	-8.93005
落	-8.9317
幣	-8.9337
韻	-8.93461
惇	-8.93673
鳴	-8.93773
葉	-8.93873
繁	-8.93882
呼	-8.93915
至於	-8.93966
錄	-8.94288
箇	-8.94351
奪	-8.94557
後漢	-8.94562
錦	-8.94564
赤	-8.94619
約	-8.94697
十八	-8.94862
以次	-8.94884
俗	-8.95003
竊	-8.95141
憂	-8.95221
具奏	-8.95224
愛	-8.95288
妻	-8.95328
執事者	-8.95508
少府	-8.95612
接	-8.95821
筆帖式	-8.95865
天下之	-8.95872
紹	-8.95917
貞	-8.9594
神主	-8.96038
侍講	-8.96095
彭	-8.96113
獲	-8.96218
三日	-8.96315
太師	-8.96698
前代	-8.96755
麻	-8.96756
温	-8.96997
六十	-8.97013
莊	-8.9702
四拜	-8.97204
樹	-8.97378
軍民	-8.97474
衍	-8.9757
羣臣	-8.9773
郭	-8.97839
基	-8.98105
嫡	-8.98183
疋	-8.98188
䝉古	-8.9832
不過	-8.98333
熙	-8.98357
頗	-8.9845
反	-8.98479
戸	-8.9862
敦	-8.98719
屯	-8.98751
决	-8.98765
其所	-8.99004
黜	-8.99031
父母	-8.99059
御製	-8.99098
以聞	-8.99165
覽	-8.99326
是日	-8.99512
仁宗	-8.99679
詹事	-8.99818
輦	-8.99888
馮	-8.9991
微	-8.99954
邪	-9.00236
四品	-9.00268
飲	-9.00452
朔	-9.00651
廣東	-9.00654
武帝	-9.00738
奏事	-9.00897
表裏	-9.01057
刺史	-9.01159
未嘗	-9.01317
烈	-9.01439
令史	-9.01573
中大夫	-9.01587
替	-9.01665
勑	-9.01795
藝	-9.0183
之地	-9.01942
索	-9.02082
亡	-9.02082
園	-9.02216
令丞	-9.02287
諸侯	-9.02288
姓	-9.02387
八十	-9.02423
執事官	-9.02506
段	-9.0252
冠服	-9.02625
賈	-9.02631
弗	-9.02655
陶	-9.02667
鑒	-9.02691
岳	-9.02951
罰	-9.02962
廵	-9.02969
後周	-9.03017
客	-9.03335
之任	-9.03458
膺	-9.03541
冠帶	-9.03542
賊	-9.03588
漢軍	-9.03714
裕	-9.03821
沙	-9.03868
内官	-9.03888
擅	-9.03897
駐	-9.04141
畏	-9.04154
謨	-9.04172
妄	-9.04227
夫人	-9.0443
通典	-9.04486
彌	-9.04527
後世	-9.04623
通事	-9.04727
富	-9.04792
秘書監	-9.04805
漸	-9.04847
皆有	-9.04933
輅	-9.04972
南北	-9.05154
政事	-9.05238
之日	-9.0528
開元	-9.05293
知制誥	-9.05355
禮儀	-9.05407
鄉試	-9.05437
斗	-9.05667
效	-9.05762
寢	-9.0581
之心	-9.05941
上下	-9.06136
帳	-9.06187
中外	-9.06324
各處	-9.06391
翊	-9.06423
徑	-9.06503
彦	-9.06608
愈	-9.06717
揖	-9.06734
驛	-9.06738
僅	-9.0675
註	-9.06751
了	-9.06764
婦	-9.06793
世子	-9.06813
從五品	-9.06921
中書省	-9.06981
祔	-9.06997
熟	-9.0701
哈	-9.07021
六品	-9.07098
漢人	-9.07239
經筵	-9.07344
貨	-9.07444
元祐	-9.07532
今日	-9.07554
襄	-9.07662
哲	-9.07736
七十	-9.07937
誥	-9.08021
吏部尚書	-9.0806
停	-9.08294
樓	-9.08379
教授	-9.08428
斤	-9.08445
勵	-9.08601
徃	-9.08641
者亦	-9.08859
等項	-9.08942
答	-9.08954
展	-9.08986
傷	-9.09056
堂上官	-9.09139
各官	-9.09214
使臣	-9.09261
巴	-9.09293
批	-9.09392
枝	-9.09441
柄	-9.09606
褒	-9.0964
朝貢	-9.0979
旋	-9.09864
熈	-9.09879
只	-9.09985
紫	-9.10237
松	-9.10257
肇	-9.10289
境	-9.10333
祗	-9.10367
三司	-9.10618
細	-9.10741
地方	-9.10923
歳	-9.10981
做	-9.11018
冩	-9.11019
虎	-9.11038
陞任	-9.11101
隻	-9.11208
普	-9.11247
糾	-9.11293
拜位	-9.11302
卜	-9.11324
後魏	-9.11354
價	-9.11376
參知政事	-9.11474
劾	-9.11607
抑	-9.11616
祈	-9.11618
學校	-9.1163
逮	-9.11634
各有	-9.11639
有所	-9.1181
懷	-9.11928
直隸	-9.11952
製	-9.11975
亮	-9.12011
纂	-9.1203
丹	-9.1211
者也	-9.12206
已上	-9.12305
績	-9.12588
煩	-9.12672
井	-9.12674
属	-9.1278
萬世	-9.1289
第二	-9.12945
徴	-9.1299
景泰	-9.13004
文武官	-9.13017
致祭	-9.13197
六部	-9.13257
罔	-9.13313
敵	-9.13327
一時	-9.13354
楚	-9.13368
婚	-9.13435
冊寳	-9.13477
冬至	-9.13497
一體	-9.1352
僧	-9.13562
侍衛	-9.1377
五日	-9.13894
育	-9.13949
就位	-9.13954
都察院	-9.14052
文字	-9.14071
䘮	-9.14345
再拜	-9.1438
津	-9.14405
聚	-9.14759
范	-9.14966
樂舞生	-9.15077
大小	-9.15117
所司	-9.15232
住	-9.15331
頌	-9.15339
堅	-9.15386
縱	-9.15388
提督	-9.15398
太平	-9.1543
官吏	-9.15487
寸	-9.15561
添	-9.15629
揆	-9.15665
十四	-9.15835
患	-9.16031
戍	-9.16051
辦事	-9.16054
飭	-9.16071
唐六典	-9.16161
織	-9.16178
光禄寺	-9.1634
宗廟	-9.16356
震	-9.16371
奏准	-9.16494
國子	-9.16535
紗	-9.16615
脩	-9.16773
急	-9.16799
野	-9.1683
将軍	-9.17021
丕	-9.1708
途	-9.1716
讀書	-9.17314
翟	-9.17335
遽	-9.17495
者為	-9.17496
南向	-9.17511
如常儀	-9.17516
賓	-9.17532
乘	-9.17572
國初	-9.17647
之數	-9.17746
翰	-9.1778
同日	-9.17789
泉	-9.17829
警	-9.17873
之屬	-9.17953
八旗	-9.17991
榜	-9.18186
級	-9.18222
鑄	-9.1826
侍讀	-9.18265
侍中	-9.18268
皆以	-9.18387
不足	-9.18478
宸	-9.18559
禮樂	-9.18592
戰	-9.18617
従	-9.18658
齎	-9.18659
把	-9.18777
個	-9.18813
亦有	-9.18841
樞宻使	-9.18892
誕	-9.18917
形	-9.18964
智	-9.19259
環	-9.19386
足以	-9.19503
太僕	-9.19512
二十二年	-9.19601
承㫖	-9.19803
正七品	-9.19993
討	-9.19997
元豐	-9.20179
先賢	-9.20305
丈	-9.20316
祇	-9.20345
漕	-9.20435
採	-9.20459
節度使	-9.20569
擾	-9.20586
沿	-9.2062
丹墀	-9.20722
雙	-9.20838
文學	-9.20859
刀	-9.20937
溥	-9.2105
禍	-9.21106
板	-9.21122
諸臣	-9.21162
如有	-9.21167
司空	-9.21285
順天府	-9.21314
踰	-9.21417
堯	-9.21428
負	-9.2149
徵	-9.2149
山川	-9.21636
句	-9.2188
實録	-9.21905
之道	-9.22082
右僕射	-9.22162
强	-9.22254
旁	-9.2227
侍從	-9.22272
司業	-9.22342
廂	-9.22374
廣西	-9.2239
九品	-9.22414
三代	-9.22504
典儀	-9.22513
閏	-9.22538
大徳	-9.2255
銓	-9.22596
秘書	-9.22767
雍正	-9.22898
正八品	-9.22901
税	-9.23024
紵絲	-9.2311
祭告	-9.23313
用之	-9.23346
隆慶	-9.23453
先帝	-9.23482
各二人	-9.23671
天順	-9.23731
徹	-9.23775
一曰	-9.2382
辟	-9.24067
甘	-9.24078
横	-9.24238
叅知政事	-9.24271
定制	-9.24452
三省	-9.24455
而後	-9.24542
御史中丞	-9.24561
肄業	-9.24578
御前	-9.24594
帝王	-9.24734
鐘	-9.24986
寄	-9.25025
愚	-9.25054
總管	-9.25075
鴻	-9.25181
練	-9.25247
正五品	-9.25307
亦如之	-9.25483
官制	-9.25514
彰	-9.25564
頃	-9.25628
宥	-9.25646
擊	-9.25655
暫	-9.25661
橋	-9.25671
籩豆	-9.25693
較	-9.25703
等處	-9.25825
皮	-9.25826
中書舍人	-9.26034
底	-9.26056
損	-9.26073
無所	-9.26247
絳	-9.2632
懋	-9.26336
援	-9.26362
寅	-9.26386
創	-9.2642
恒	-9.26448
敕	-9.26493
十七	-9.26521
提	-9.26523
二日	-9.2659
繡	-9.26637
知縣	-9.26704
承襲	-9.26757
茍	-9.26759
倚	-9.26783
司徒	-9.26793
榖	-9.26849
豆	-9.26877
檜	-9.27115
講讀	-9.27169
招	-9.27245
僚	-9.27272
都尉	-9.27275
各王府	-9.27292
友	-9.27531
薄	-9.27534
如今	-9.2754
知府	-9.27595
逆	-9.27599
之初	-9.27667
閲	-9.2768
忘	-9.27736
七人	-9.279
怒	-9.27934
錦衣衛	-9.27995
墨	-9.28022
牒	-9.28273
貴州	-9.28305
蕭	-9.28336
黎	-9.28359
蜀	-9.28367
胥	-9.28392
牙	-9.28446
訟	-9.28681
二十年	-9.2872
盧	-9.28742
投	-9.28809
耕	-9.28837
所屬	-9.29212
長安	-9.29225
右侍郎	-9.29307
覺	-9.29453
上香	-9.29463
淳	-9.29491
靡	-9.29535
長子	-9.29556
毁	-9.29568
赴京	-9.29635
復置	-9.29862
丞一人	-9.29867
正三品	-9.29982
燭	-9.3004
十九年	-9.30176
䕶軍	-9.30278
誦	-9.30338
懼	-9.3034
慰	-9.30342
完	-9.30432
不復	-9.30456
二十三年	-9.30476
巾	-9.30604
戊	-9.3065
哭	-9.30675
自是	-9.30712
謙	-9.30737
戴	-9.30764
貶	-9.30772
宅	-9.30788
宮	-9.31091
兄	-9.3114
離	-9.31162
舍人	-9.31205
輪	-9.31209
七品	-9.31276
之官	-9.31504
忌	-9.31589
攸	-9.3162
雷	-9.31628
先期	-9.31651
是也	-9.31734
空	-9.31815
祝文	-9.31914
藉	-9.32061
奏樂	-9.32119
請封	-9.32163
前後	-9.32222
姓名	-9.32311
文華殿	-9.32355
珍	-9.3245
提調	-9.3247
準	-9.32571
佩	-9.32599
却	-9.32832
本監	-9.32847
賴	-9.32849
宗正	-9.32896
塲	-9.32951
帖	-9.32974
絲	-9.33002
步	-9.3314
逸	-9.33167
麟	-9.33221
㑹試	-9.33255
僕	-9.33257
常服	-9.33263
塞	-9.33269
卓	-9.33289
僉	-9.33303
侍讀學士	-9.33378
讀祝	-9.33417
儀仗	-9.33467
汪	-9.33499
何以	-9.33566
鳳	-9.33589
荆	-9.33642
攻	-9.33653
内府	-9.3383
自今	-9.33888
等因	-9.33914
箴	-9.34026
府州縣	-9.34163
四員	-9.34207
殷	-9.34542
尚書省	-9.34784
疇	-9.34871
巡撫	-9.34874
唯	-9.3494
棄	-9.34956
占	-9.35014
文書	-9.35061
一切	-9.35173
二千石	-9.35176
太和	-9.35178
之士	-9.3525
妾	-9.3533
排	-9.35365
奏聞	-9.35378
順治	-9.35407
冕	-9.35424
中丞	-9.35566
各一員	-9.35601
之功	-9.35643
豫	-9.35715
檢校	-9.358
寒	-9.35827
嬪	-9.35828
之上	-9.35957
頂	-9.35969
西向	-9.3602
使者	-9.36071
怨	-9.36144
不及	-9.36224
儒臣	-9.36243
亦不	-9.36438
先師	-9.36497
𢎞	-9.3652
刋	-9.36653
旬	-9.3668
太傅	-9.36718
囚	-9.36751
國朝	-9.36755
本院	-9.36767
拜相	-9.36808
㑹同	-9.36916
所載	-9.37047
廕	-9.37084
君子	-9.37223
煬帝	-9.37236
各衙門	-9.37337
舊例	-9.3748
垣	-9.37514
屋	-9.37519
捕	-9.37533
有差	-9.37598
巡檢	-9.37875
亟	-9.3789
芳	-9.37911
㣲	-9.37921
之曲	-9.37967
二品	-9.37969
史館	-9.38019
其制	-9.38055
陛	-9.38146
剛	-9.38283
知州	-9.38285
範	-9.38289
敗	-9.38339
奸	-9.3838
曉	-9.38382
國之	-9.38431
初置	-9.38627
嶽	-9.38698
介	-9.38752
十九	-9.38768
整	-9.38823
童	-9.38858
譯	-9.38888
杖	-9.38907
立于	-9.38981
恤	-9.39231
催	-9.39258
瓶	-9.39353
潔	-9.3966
毛	-9.40126
匹	-9.40128
旅	-9.40129
都御史	-9.4016
荒	-9.40161
桂	-9.40165
廊	-9.40173
門下	-9.40284
神位前	-9.40406
旌	-9.40548
區	-9.40552
呉	-9.40562
三等	-9.40624
文武百官	-9.40687
羽	-9.40689
正四品	-9.40936
藻	-9.40981
雄	-9.40995
厲	-9.41017
判官	-9.41052
苦	-9.41067
買	-9.41084
位於	-9.41119
太常卿	-9.41216
詹事府	-9.41228
總兵官	-9.41417
攝	-9.41448
左僕射	-9.4148
楹	-9.41489
午	-9.41569
為一	-9.41666
算	-9.41701
勾	-9.41741
設官	-9.41759
卑	-9.4181
第三	-9.41823
一次	-9.41895
胄	-9.41902
歟	-9.41909
二十人	-9.41911
禮官	-9.41933
韋	-9.41953
閱	-9.41967
世襲	-9.4198
輸	-9.41989
古今	-9.42223
亨	-9.42319
澄	-9.42325
輒	-9.42327
争	-9.42377
胙	-9.42502
轄	-9.42535
庶人	-9.42624
料	-9.42721
日月	-9.42872
恪	-9.42873
晋	-9.42916
以備	-9.42931
該本部	-9.43032
浚	-9.43176
確	-9.43217
輩	-9.43243
鄧	-9.43251
船	-9.43375
正德	-9.4338
病故	-9.43455
之義	-9.43523
曰朕	-9.43547
資政殿學士	-9.43689
耆	-9.4371
侍御史	-9.43715
策	-9.43798
漏	-9.43808
中書侍郎	-9.43914
劄	-9.44053
皇子	-9.44058
篤	-9.4417
趨	-9.44186
懲	-9.44229
舟	-9.44244
卿等	-9.44317
十二人	-9.44411
以前	-9.44428
超	-9.44604
薛	-9.44651
游	-9.44716
仙	-9.44716
題請	-9.44905
綸	-9.44945
從六品	-9.44955
命婦	-9.4501
出身	-9.45024
圭	-9.45063
旨	-9.45137
蒼	-9.45185
幹	-9.45187
扶	-9.45194
赦	-9.4521
束	-9.45252
大理寺	-9.45308
周官	-9.45348
學生	-9.45461
二曰	-9.45475
麗	-9.45581
太史	-9.45581
一千	-9.45606
版	-9.45635
庶子	-9.45704
湏	-9.45743
収	-9.4575
總督	-9.45755
司農	-9.45853
一等	-9.45978
看	-9.46002
戚	-9.46004
哀	-9.46009
下士	-9.46032
孰	-9.46041
斥	-9.4608
壁	-9.46138
根	-9.46139
互	-9.46153
簾	-9.46161
鹿	-9.46173
少監	-9.46224
閑	-9.46233
兵馬	-9.46429
跪進	-9.46472
速	-9.4652
億	-9.46563
儀注	-9.46565
大將軍	-9.4658
覈	-9.46582
救	-9.46599
一品	-9.46686
貯	-9.46697
國學	-9.46712
厨役	-9.4676
之間	-9.46858
州刺史	-9.46961
璧	-9.46973
正六品	-9.46981
種	-9.47092
廩	-9.47138
墳	-9.47169
肉	-9.47209
屬官	-9.47226
二十四年	-9.47255
若干	-9.47294
兩京	-9.4738
逹	-9.47483
睿	-9.47509
俯伏興平身	-9.47534
司馬光	-9.47546
尼	-9.47587
蠻	-9.47886
辟雍	-9.47925
洗	-9.47974
浮	-9.47981
塗	-9.47983
焚	-9.48076
始置	-9.48111
夾	-9.48132
之時	-9.48247
者則	-9.4838
各省	-9.48411
蘭	-9.48417
之南	-9.48429
遊	-9.48485
國王	-9.4859
今改正	-9.48817
植	-9.4896
本府	-9.48981
侵	-9.48984
所在	-9.49099
列聖	-9.49193
▁(	-9.49328
衰	-9.49373
叩頭	-9.49394
欺	-9.49424
耶	-9.49426
侍班	-9.49432
秦檜	-9.49434
忽	-9.49442
留守	-9.4948
件	-9.49509
決	-9.49531
黒	-9.49572
謁者	-9.49609
乙	-9.49773
於上	-9.49912
桑	-9.4997
核	-9.49976
兩廡	-9.49989
通行	-9.50009
側	-9.50022
其人	-9.50039
殿内	-9.50153
緑	-9.50175
寜	-9.50183
不與	-9.50379
佑	-9.50431
懸	-9.50458
内使	-9.50538
鸞	-9.50571
神宗	-9.50747
等物	-9.50839
懇	-9.50887
隠	-9.50941
契	-9.50961
掾	-9.50983
惠卿	-9.51102
車駕	-9.5114
北向	-9.51152
窮	-9.51154
對曰	-9.51235
員外	-9.51267
題准	-9.51302
子女	-9.51398
昇	-9.51405
偏	-9.51438
盈	-9.5145
歆	-9.51457
借	-9.51492
官捧	-9.51509
欽定四庫全書	-9.51515
祐	-9.51519
其屬	-9.51596
都水	-9.51756
襲封	-9.51809
逢	-9.51865
潘	-9.51888
譽	-9.51907
瀆	-9.52011
尾	-9.521
明年	-9.52159
拘	-9.5216
禮部侍郎	-9.52197
侍講學士	-9.52221
樞宻副使	-9.52226
進貢	-9.52314
三曰	-9.52364
屏	-9.52399
所掌	-9.524
起送	-9.52403
大祀	-9.52431
行之	-9.52457
孤	-9.52461
綏	-9.52467
禮部志稿卷	-9.52473
馭	-9.5252
其名	-9.52764
中士	-9.52784
輔臣	-9.52791
樂章	-9.52848
潛	-9.52892
誅	-9.52927
次日	-9.52963
冒	-9.53018
奏稱	-9.53025
翠	-9.53094
皇朝因之	-9.5313
郡縣	-9.53137
諸州	-9.53241
辛	-9.53267
君臣	-9.53273
筵	-9.53339
單	-9.53341
余	-9.53379
險	-9.53425
峻	-9.53426
如今之	-9.53428
穀	-9.53434
怠	-9.53437
淺	-9.53514
綿	-9.53524
而無	-9.53535
三員	-9.53596
内贊	-9.53623
監丞	-9.53715
九十	-9.53728
孚	-9.53894
兄弟	-9.53917
門下侍郎	-9.53927
禹	-9.53928
司禮監	-9.53977
龜	-9.54016
之言	-9.54037
出納	-9.54056
圍	-9.54071
竹	-9.54094
事宜	-9.54137
署令	-9.54159
祖訓	-9.54169
序班	-9.54361
崔	-9.54455
誰	-9.54496
遞	-9.545
諱	-9.54529
洛	-9.54758
僧道	-9.54773
官同	-9.54895
踐	-9.54902
誣	-9.55002
奉先殿	-9.55079
輙	-9.55081
樞宻院	-9.55113
獸	-9.55124
大使	-9.55161
丘	-9.55184
順天	-9.5519
弓	-9.55221
獻爵	-9.5528
宿衛	-9.553
聖人	-9.55327
院事	-9.55363
之重	-9.55534
事務	-9.55536
壯	-9.55569
之子	-9.55578
慶賀	-9.5562
謝恩	-9.55695
毫	-9.55714
入監	-9.55719
無不	-9.55751
本司	-9.55949
秀	-9.55961
二十四	-9.55986
隂陽	-9.56013
暇	-9.56043
鹵簿	-9.56106
項	-9.56205
又置	-9.56326
一應	-9.56394
稷	-9.56412
各置	-9.56433
舜	-9.56479
饗	-9.56635
於戲	-9.56678
貞觀	-9.56706
北京	-9.56927
燾	-9.56956
鈞	-9.5698
潤	-9.57035
朝㑹	-9.57044
黙	-9.57047
起居注	-9.57068
雪	-9.57083
廸	-9.57131
貢生	-9.57567
匪	-9.5758
人員	-9.57581
走	-9.57635
墓	-9.57658
陪祀	-9.5776
管理	-9.57765
匣	-9.57797
已下	-9.57943
拱	-9.58014
姚	-9.5807
之盛	-9.58084
之外	-9.58102
䟽	-9.58123
姪	-9.58132
領之	-9.58208
遲	-9.58208
城隍	-9.5821
蔵	-9.58217
度支	-9.58414
罷相	-9.58567
見於	-9.58669
抄	-9.58772
孝宗	-9.58789
不行	-9.58799
雖有	-9.58854
二十一年	-9.58862
謹按	-9.58917
太保	-9.59057
僉事	-9.59182
殆	-9.59187
讓	-9.59196
慕	-9.592
通判	-9.5925
廄	-9.59396
大理	-9.59402
鐵	-9.59409
如故	-9.59568
朝服	-9.5959
録事	-9.59624
蒙	-9.59642
冦	-9.59688
裔	-9.59716
爭	-9.59746
疆	-9.59967
主客	-9.59995
琦	-9.60207
圗	-9.6024
舎	-9.60325
减	-9.60348
租	-9.60374
一尺	-9.60408
背	-9.60426
必有	-9.60433
王妃	-9.6058
年任	-9.60591
貽	-9.60763
依前	-9.60784
薨	-9.60791
操	-9.60807
健	-9.60809
託	-9.60815
兒	-9.60845
繳	-9.60905
裳	-9.60974
城人	-9.61049
明日	-9.61094
災	-9.61195
北面	-9.61222
郎中員外郎	-9.61303
行人	-9.61303
廬	-9.61345
𦵏	-9.61359
奚	-9.61382
是以	-9.61403
填	-9.61477
璽	-9.61483
偹	-9.61485
鴻臚寺官	-9.61485
也今	-9.61574
典簿	-9.61655
先儒	-9.61749
上命	-9.61759
有功	-9.61783
功臣	-9.61898
毅	-9.61912
竟	-9.61914
邇	-9.61934
進呈	-9.61943
詢	-9.61955
盞	-9.61958
五百	-9.61991
至正	-9.62045
二人掌	-9.62117
書籍	-9.62244
般	-9.62252
纂修	-9.62285
本年	-9.62392
閒	-9.62453
獻官	-9.62491
圜丘	-9.62544
上以	-9.62555
典儀唱	-9.6257
圓	-9.62593
給與	-9.62621
不當	-9.62765
典籍	-9.62821
從三品	-9.6288
危	-9.62886
二十九年	-9.62964
二十六年	-9.62965
喇	-9.63011
從八品	-9.63046
欽天監	-9.63083
鑾	-9.63085
燎	-9.63104
舎人	-9.63108
講官	-9.63124
人心	-9.63373
大事	-9.63443
齡	-9.63532
百官志	-9.63539
偽	-9.63626
曠	-9.63637
齒	-9.63684
太皇太后	-9.63716
不為	-9.63843
遜	-9.63947
分為	-9.63999
夢	-9.64052
柱	-9.64153
勇	-9.64168
祀典	-9.64187
太后	-9.64236
唐宋	-9.6424
徙	-9.64262
未幾	-9.64404
者不	-9.64538
女官	-9.64556
初獻	-9.64583
衣服	-9.64682
輯	-9.64729
傑	-9.6475
伯克	-9.64761
另	-9.64803
産	-9.64828
其實	-9.64921
散官	-9.65085
俞	-9.65218
之北	-9.65295
明白	-9.65347
界	-9.65348
紛	-9.65361
那	-9.65391
官屬	-9.65395
二十五	-9.65493
凡遇	-9.65495
復為	-9.65524
兆	-9.65555
以示	-9.65584
儒士	-9.65699
者許	-9.65721
千户	-9.65726
兵部尚書	-9.6578
幄	-9.65786
艱	-9.65827
街	-9.65869
浩	-9.65872
陽人	-9.65907
銘	-9.65945
往往	-9.66069
厨	-9.66077
我朝	-9.6608
以致	-9.66116
畿	-9.66276
世祖	-9.6632
一名	-9.66337
制度	-9.66347
太監	-9.66351
淑	-9.6644
年繇	-9.66443
正副使	-9.66458
之東	-9.66474
昉	-9.66481
章惇	-9.66525
皇考	-9.66639
京城	-9.66704
髙祖	-9.66742
禮部奏	-9.66838
光禄	-9.6684
官一員	-9.66879
和之曲	-9.6694
諧	-9.67035
夷簡	-9.67112
民之	-9.67161
秘	-9.67165
古人	-9.67167
蔡京	-9.67216
醢	-9.67237
八品	-9.6734
司官	-9.67375
等事	-9.67443
不用	-9.67446
舉行	-9.67454
罕	-9.67646
伸	-9.67656
融	-9.67674
序立	-9.67833
門出	-9.67891
欽若	-9.68074
奎	-9.68086
㡬	-9.68112
洽	-9.6814
灾	-9.68184
鐸	-9.68255
之訓	-9.68256
奴	-9.68259
中允	-9.68263
隊	-9.68299
堪	-9.68343
同平章事	-9.68352
諡文	-9.68464
儀制司	-9.6848
故男	-9.68519
四夷	-9.68533
三十年	-9.68538
起居	-9.68625
儼	-9.68728
九卿	-9.6875
則有	-9.68772
申明	-9.68803
祧	-9.68804
靜	-9.68819
之際	-9.68828
提學官	-9.68842
岐	-9.6886
觧	-9.68864
詐	-9.68879
俎	-9.68902
太尉	-9.68919
燈	-9.68921
聖祖	-9.68948
太僕寺	-9.69037
待詔	-9.69193
來朝	-9.69254
貪	-9.69333
大明	-9.69411
學官	-9.69458
詔書	-9.69519
上親	-9.69551
飯	-9.69565
之政令	-9.69744
軍節度使	-9.69746
桌	-9.69772
金銀	-9.69877
進講	-9.69878
祫	-9.69963
談	-9.69985
儀同	-9.69987
俯伏興	-9.69994
破	-9.70026
還宫	-9.70062
公卿	-9.70118
奉天門	-9.7038
言之	-9.70419
中郎將	-9.70589
歴代	-9.70596
静	-9.70598
袍	-9.70631
倍	-9.70668
四海	-9.7067
進退	-9.70691
英宗	-9.70746
者以	-9.70813
奉安	-9.70815
陞座	-9.70826
文章	-9.71016
䕫	-9.7111
供奉	-9.71127
瓦	-9.71172
輝	-9.71184
長官	-9.71193
丞二人	-9.71238
者必	-9.71244
禦	-9.71249
娶	-9.71259
繕	-9.71259
是時	-9.71271
團	-9.71283
為民	-9.7135
士竒	-9.71445
宫中	-9.71491
四曰	-9.71574
左侍郎	-9.7163
都司	-9.71637
宋齊	-9.71683
與今	-9.7169
彛	-9.71821
佛	-9.71828
調任	-9.71831
韶	-9.71846
二十五年	-9.71906
什	-9.71923
百姓	-9.71924
包	-9.71925
工尺	-9.71996
朔望	-9.72016
者俱	-9.72039
門内	-9.72211
僕射	-9.72314
復命	-9.72338
駙馬	-9.72339
也又	-9.72364
奔	-9.72428
惜	-9.72437
䖍	-9.72445
分獻官	-9.72896
邵	-9.72986
衷	-9.73029
滋	-9.73061
典禮	-9.73083
緝	-9.73096
錯	-9.73103
品級	-9.73112
内務府	-9.73126
學者	-9.73138
奉聖㫖是欽此	-9.7315
醴	-9.73155
十五日	-9.73345
鴻臚	-9.7339
本朝	-9.73394
樞密院	-9.73502
都䕶	-9.73564
効	-9.73667
迪	-9.73671
九人	-9.73703
少詹事	-9.73709
搢笏	-9.73715
騐	-9.73745
挾	-9.73747
牢	-9.73749
上士	-9.73752
戸部	-9.73831
二名	-9.74135
鮮	-9.74183
一十	-9.74202
皇祖	-9.74222
㧞	-9.74231
州知州	-9.74266
暨	-9.74277
巖	-9.74286
前期	-9.74293
欵	-9.74313
荷	-9.74338
梓宫	-9.74366
學士院	-9.74445
内贊奏	-9.74456
之儀	-9.74458
科舉	-9.74472
四百	-9.74495
先後	-9.74528
猪	-9.74607
從四品	-9.74619
大成	-9.74664
柔	-9.74905
河東	-9.74975
者即	-9.74977
軒	-9.74985
着	-9.75028
宦	-9.75034
歩	-9.75069
祠祭司	-9.75225
其子	-9.75264
民間	-9.75372
蔣	-9.75395
禁中	-9.75426
祿	-9.75463
直學士	-9.75473
跪奏	-9.75477
素服	-9.75495
少師	-9.75511
措	-9.75531
呂	-9.75549
愆	-9.75575
迹	-9.75578
莫不	-9.7564
太守	-9.75701
違者	-9.75893
聖㫖	-9.75894
集賢	-9.759
御名	-9.75943
尚書左丞	-9.75965
法度	-9.7598
夕	-9.76002
嵗貢	-9.76036
元史	-9.76039
鄒	-9.76109
侍儀	-9.76116
按察司	-9.76125
傾	-9.76134
布政使	-9.76139
壬	-9.76147
昨	-9.76197
以待	-9.76247
篚	-9.76288
命禮部	-9.76307
箋	-9.76347
之政	-9.76477
扇	-9.76516
管勾	-9.76603
者有	-9.76688
亷	-9.76764
吴	-9.76788
頼	-9.76798
貧	-9.76864
憑	-9.76875
析	-9.76888
所言	-9.77021
御座	-9.77045
尚方	-9.77056
州府	-9.77113
上諭	-9.77115
錠	-9.77344
渠	-9.77424
托	-9.77425
主婚者	-9.77472
削	-9.77483
阻	-9.77496
廪	-9.7751
伍	-9.77511
遠	-9.77512
妣	-9.77516
依舊	-9.77633
三國	-9.77753
古者	-9.77966
相應	-9.77974
銷	-9.78013
恕	-9.78072
夙夜	-9.78101
鄂	-9.78122
乏	-9.78146
十六人	-9.78152
倣	-9.78159
賣	-9.78254
同知樞密院事	-9.78272
幼	-9.78301
之典	-9.78493
王安石	-9.78527
少保	-9.78547
員額	-9.78664
蒲	-9.787
其有	-9.78727
翔	-9.78796
議准	-9.78809
守備	-9.78813
文獻通考	-9.78824
虛	-9.7886
訴	-9.78889
蠶	-9.78955
十日	-9.78964
又曰	-9.78966
而下	-9.78971
案前	-9.79044
溪	-9.7931
卯	-9.79399
一件	-9.79412
派	-9.79447
挺	-9.79485
轉運	-9.79493
巧	-9.7951
少傅	-9.79569
儒學	-9.79725
行在	-9.79771
五寸	-9.79781
制曰朕	-9.79819
每日	-9.79884
一人掌	-9.79922
經義	-9.79948
到部	-9.79975
嵩	-9.79983
成祖	-9.80004
咎	-9.80045
玉堂	-9.80058
夙	-9.80077
言者	-9.80172
佐領	-9.80173
凢	-9.80199
自後	-9.80208
換	-9.80225
十五人	-9.80244
至今	-9.80278
綾	-9.80304
經史	-9.80365
追封	-9.8039
方許	-9.80439
公事	-9.80568
都統	-9.80612
之臣	-9.80618
下大夫	-9.80672
端明殿學士	-9.80692
賚	-9.80717
歡	-9.80733
延祐	-9.8082
品秩	-9.80881
引禮引	-9.80892
武徳	-9.80927
訓導	-9.80938
印信	-9.81195
殿前	-9.81198
引見	-9.81246
庠	-9.81395
冲	-9.81399
儉	-9.81436
先生	-9.81442
衍聖公	-9.81447
冝	-9.81448
悔	-9.8145
屈	-9.81454
奉㫖	-9.81469
嫌	-9.81477
藍	-9.81481
伐	-9.81485
聼	-9.81529
亞獻	-9.81554
栗	-9.81599
兼領	-9.81682
之家	-9.81811
教官	-9.81821
從事	-9.8189
三千	-9.81938
東西向	-9.81942
東南	-9.81977
寡	-9.81979
百人	-9.82003
二等	-9.82009
世宗	-9.82079
小人	-9.82113
都督府	-9.82179
出笏	-9.82224
也至	-9.82271
辨其	-9.82277
蕃王	-9.82283
正旦	-9.82297
導引	-9.82302
玉帛	-9.8234
官二員	-9.82434
節度	-9.8244
丹陛	-9.82584
掌印	-9.8261
需	-9.82734
冀	-9.82788
以此	-9.8282
岑	-9.82919
出於	-9.82993
鎮守	-9.83142
東向	-9.83143
郊祀	-9.83182
封爵	-9.83222
祭酒司業	-9.83258
乞要	-9.83299
諭徳	-9.83375
中尉	-9.83387
寮	-9.83394
觀文殿大學士	-9.83466
東西相向	-9.83497
鉞	-9.83518
谷	-9.8354
暴	-9.83547
標	-9.83586
爐	-9.83591
持節	-9.83624
祭一壇	-9.83638
禮記	-9.83689
槩	-9.83701
提㸃	-9.83702
鼓吹	-9.83718
迎神	-9.83784
衮	-9.83821
自古	-9.83832
弩	-9.83932
立於	-9.83981
又以	-9.83994
云云	-9.84037
正中	-9.84065
矧	-9.84132
陟	-9.8414
惑	-9.84163
馳	-9.84163
除授	-9.84175
先朝	-9.84183
人數	-9.84185
賛引	-9.84192
瓊	-9.84199
𤼵	-9.84223
陰	-9.84231
菜	-9.84357
洛陽	-9.84433
太倉	-9.84657
六堂	-9.84674
文淵閣	-9.84743
緒	-9.84816
寓	-9.84892
帷	-9.84895
黼	-9.84948
混	-9.84952
後漢書	-9.84961
上言	-9.84964
終獻	-9.85148
監官	-9.85218
其間	-9.8524
人才	-9.85287
主之	-9.85347
不拘	-9.85365
各府	-9.85421
二十一	-9.85517
驅	-9.85617
尚書右丞	-9.85618
壺	-9.85643
随	-9.85646
品第	-9.85679
粟	-9.8569
廷尉	-9.85695
或有	-9.85719
逓	-9.8572
西南	-9.85733
史記	-9.85763
改正	-9.85774
中書令	-9.85844
縣令	-9.86097
熊	-9.86158
貢監生	-9.86184
既而	-9.86188
而行	-9.86191
宣宗	-9.86193
激	-9.86278
俯	-9.86295
鶴	-9.863
内史	-9.86331
鄰	-9.86332
丁未	-9.86366
冶	-9.86404
軍器	-9.86453
朝夕	-9.86466
三十一年	-9.86618
湖	-9.86662
傳贊	-9.86706
洪武三年	-9.86827
紳	-9.86882
之例	-9.86928
稅	-9.87015
痛	-9.87023
幽	-9.87036
暮	-9.87048
冐	-9.87059
闈	-9.87092
骨	-9.87127
様	-9.87167
架	-9.87168
著作	-9.87186
省牲	-9.87288
二千	-9.87317
唐制	-9.87371
贊善	-9.87501
二十七年	-9.87504
恢	-9.87603
上御	-9.87615
刺	-9.8763
合用	-9.8764
饒	-9.8765
中宫	-9.87662
位于	-9.87665
以来	-9.87701
𠡠	-9.87736
腹	-9.87739
引禮	-9.87747
風俗	-9.87772
漆	-9.87898
轉運使	-9.87985
秦漢	-9.88002
濶	-9.88033
正九品	-9.88096
仍舊	-9.881
特進	-9.88137
行事	-9.88153
百六十	-9.88288
是用	-9.88333
碩	-9.88397
洞	-9.884
樂器	-9.88433
贊唱	-9.88488
御書	-9.8849
中書門下	-9.88502
競	-9.88506
貼	-9.88517
朝賀	-9.88519
古之	-9.88527
治之	-9.88549
綵	-9.88566
陞殿	-9.88628
不合	-9.8867
給事	-9.8877
官學生	-9.88877
公侯	-9.88949
文帝	-9.89111
奮	-9.89156
五代	-9.89163
蒙古	-9.89226
齋戒	-9.89229
嚴加	-9.89298
館閣	-9.89324
京官	-9.89408
總兵	-9.89433
純仁	-9.89552
之徒	-9.8956
今之	-9.89573
真宗	-9.89596
查得	-9.89621
指揮使	-9.89694
域	-9.89799
臻	-9.89838
都官	-9.89846
叩	-9.89863
禀	-9.89872
奬	-9.89879
恊	-9.89926
康熈	-9.89948
甲辰	-9.89954
状	-9.89968
每嵗	-9.89991
本州	-9.89995
城門	-9.89999
二府	-9.9002
舘	-9.9006
)○	-9.90064
先聖	-9.90078
凡有	-9.90118
粉	-9.90141
滿洲漢人各一人	-9.90226
中興	-9.90334
某年月日	-9.90481
之弊	-9.90529
表箋	-9.9054
由是	-9.90569
三十六	-9.9058
疎	-9.90598
楊士竒	-9.90611
播	-9.90619
邸	-9.90621
蔽	-9.90643
應襲	-9.90652
隸	-9.90656
敎	-9.90657
祕	-9.90695
弁	-9.90732
羽林	-9.90746
考選	-9.90798
祕閣	-9.90814
一斤	-9.91139
鑑	-9.91241
愧	-9.91268
叛	-9.91306
邁	-9.91307
竭	-9.91329
昆	-9.91356
勘合	-9.91391
西域	-9.91407
證	-9.91421
都指揮使	-9.91422
逃	-9.91424
曺	-9.91429
防禦	-9.91489
屯田	-9.91495
六科	-9.91496
曰此	-9.91546
待制	-9.91556
進封	-9.91585
務要	-9.91605
奉祀	-9.91694
門下省	-9.91703
統領	-9.91876
千石	-9.91907
之風	-9.91915
然則	-9.91936
禎	-9.92039
現	-9.92081
誼	-9.92095
以時	-9.92124
䑓	-9.92151
鑰	-9.92162
辛未	-9.92163
測	-9.92175
悼	-9.92177
值	-9.92209
庶幾	-9.92258
並同	-9.92301
撫按	-9.92314
御史大夫	-9.92352
欽定	-9.92452
梁陳	-9.92483
諸路	-9.92513
者多	-9.9266
名及第出身題名碑	-9.92789
困	-9.92865
強	-9.92887
合行	-9.92925
奉天殿	-9.92937
府事	-9.9294
安南	-9.92942
二十八	-9.92969
鼔	-9.93012
香案前	-9.93031
之舊	-9.93166
洪武元年	-9.93248
臣僚	-9.93269
以供	-9.93281
百餘	-9.9339
故也	-9.93534
四合	-9.93563
寨	-9.93568
裴	-9.93574
牆	-9.93581
羞	-9.9359
抗	-9.93622
遐	-9.93625
滯	-9.93633
其言	-9.93634
題名	-9.93642
乖	-9.93651
鳥	-9.93664
概	-9.937
安人	-9.9371
教坊司	-9.93741
流官	-9.93759
觔	-9.93762
百户	-9.93802
太府	-9.93813
其中	-9.93851
差人	-9.93864
上帝	-9.93905
所奏	-9.93924
王公	-9.93936
功曹	-9.93958
遵守	-9.94141
萬户	-9.94178
亞	-9.94293
癸未	-9.94307
囬	-9.94343
眞	-9.94353
總裁	-9.94404
鉶	-9.9441
壊	-9.9443
各二	-9.94503
洗馬	-9.9454
該部	-9.94579
北魏	-9.94581
天文	-9.94588
進士萬厯	-9.94594
袖	-9.9464
襲職	-9.9465
宗伯	-9.94788
南郊	-9.9484
文廟	-9.94901
受命	-9.94909
誥命	-9.94991
鑲	-9.95047
欣	-9.95099
偶	-9.95107
衣冠	-9.95136
凌	-9.95165
厭	-9.95169
徧	-9.95172
騰	-9.95178
祝版	-9.95254
及諸	-9.95259
年任陞	-9.95286
以授	-9.95474
太常寺卿	-9.95503
銷金	-9.95537
之下	-9.95615
不置	-9.95724
兼侍讀	-9.95734
偉	-9.95843
繙譯	-9.95882
夘	-9.95885
悦	-9.95887
掖	-9.95889
甘肅	-9.95889
覩	-9.95928
蕩	-9.95936
晩	-9.9595
議者	-9.9596
掩	-9.95969
貟	-9.95977
邦國	-9.95979
殘	-9.95998
洪武初	-9.96029
百石	-9.96055
考官	-9.96149
衫	-9.96194
若有	-9.96236
詹	-9.96268
午門	-9.96356
老成	-9.96361
是月	-9.9645
宰臣	-9.96489
祠部	-9.96544
樂舞	-9.96583
冕服	-9.96594
葛	-9.96627
甞	-9.96628
拉	-9.96704
萬年	-9.96777
畜	-9.96812
科道	-9.96931
之節	-9.96934
七日	-9.97261
禮成	-9.97271
公著	-9.97291
官至	-9.97293
彬	-9.97338
煥	-9.97377
徹饌	-9.97379
笑	-9.97425
赫	-9.97456
跡	-9.97471
厰	-9.97479
㓜	-9.97481
短	-9.97516
斬	-9.97545
分獻	-9.9755
褥	-9.97573
不勝	-9.97618
十八人	-9.97652
嘉靖四十	-9.97725
油	-9.97778
送神	-9.97859
左右衛	-9.97891
已而	-9.97916
其地	-9.97955
上表	-9.97991
參軍事	-9.98181
簽書樞密院事	-9.98219
蹈	-9.98239
渥	-9.9824
籩	-9.98247
盜	-9.98248
太子太保	-9.98253
沆	-9.98264
鞠躬	-9.98265
綜	-9.98267
驚	-9.98285
辱	-9.98296
晨	-9.98315
這	-9.98316
冗	-9.98348
掃	-9.98386
割	-9.98402
穿	-9.98417
六尺	-9.98419
頭目	-9.9842
西京	-9.98437
漕運	-9.98465
近年	-9.98483
洪武中	-9.98526
分司	-9.98631
遂以	-9.98769
知其	-9.98772
武官	-9.98861
滿漢	-9.98981
南面	-9.98983
己未	-9.99037
兼管	-9.99062
五官	-9.99067
工部尚書	-9.99083
羮	-9.99096
滅	-9.99102
戈	-9.99104
配享	-9.99115
剌	-9.99152
之内	-9.99168
告襲	-9.99187
有㫖	-9.99212
打	-9.99212
炷	-9.99337
矢	-9.99412
吹	-9.99449
朝覲	-9.99491
考之	-9.99494
之始	-9.99522
長官司	-9.99523
合四一四	-9.99597
别置	-9.99677
之物	-9.99712
國子監祭酒	-9.99722
賜宴	-9.99776
舒	-9.99794
凝	-9.99882
謬	-9.999
恣	-9.99906
隴	-9.99909
前一日	-9.99926
之文	-9.99963
酬	-9.99988
片	-10.0004
具本	-10.0006
生母	-10.0023
中國	-10.0029
國史	-10.0029
議論	-10.003
之比	-10.0044
即今	-10.0058
閤門	-10.0058
未經	-10.0059
已有	-10.0062
機務	-10.0064
謫	-10.0066
樞密使	-10.0068
三十人	-10.0069
緩	-10.0071
幕	-10.0071
倡	-10.0072
𤓰	-10.0079
等奏	-10.0081
則以	-10.0085
事者	-10.0085
乗輿	-10.0088
奏搢圭	-10.0092
舄	-10.0094
河北	-10.0099
屬官有	-10.0102
為宰相	-10.0129
輕重	-10.0136
明史	-10.0137
我皇上	-10.0139
五季	-10.014
憲宗	-10.0143
㢘	-10.0146
袁	-10.0147
左春坊	-10.0147
鉅	-10.0149
泥	-10.0149
㸔	-10.0154
塔	-10.0154
篆	-10.0155
右丞相	-10.0156
鎮國將軍	-10.0157
王爵	-10.0159
勾當	-10.0161
直長	-10.0167
摩	-10.0169
居中	-10.017
人主	-10.0171
正字	-10.0172
殿上	-10.0184
傳制	-10.0184
所生	-10.0184
酒尊	-10.0204
教職	-10.0208
父子	-10.021
難以	-10.0221
邱	-10.0223
簽	-10.0225
御史臺	-10.0225
文移	-10.0228
拔	-10.0232
楷	-10.0233
寃	-10.0236
傍	-10.024
遭	-10.024
綴	-10.0243
直省	-10.0245
餅	-10.025
内賛奏	-10.0253
聖賢	-10.0253
祭器	-10.0256
正位	-10.0257
張浚	-10.0258
牲醴	-10.0259
得以	-10.0263
國子學	-10.027
不在	-10.0275
魏晉	-10.0275
珪	-10.0284
奉天	-10.0285
殿下	-10.0286
職名	-10.0293
四書	-10.0296
侍立	-10.0302
丁丑	-10.0311
沮	-10.0313
典事	-10.0314
雞	-10.0315
瘞	-10.0317
一道	-10.0318
知事	-10.0319
嶺	-10.0319
緣	-10.0321
禮部右侍郎	-10.0322
几筵	-10.0326
靴	-10.0329
甸	-10.0331
光武	-10.0339
㑹議	-10.0342
武庫	-10.0345
視事	-10.0349
嗣後	-10.0351
大都	-10.0359
建康	-10.0365
詩賦	-10.0365
不宜	-10.0367
樂止典儀唱	-10.0368
人情	-10.037
順治元年	-10.0371
宣德	-10.0372
大禮	-10.0373
厯代	-10.0374
考滿	-10.0377
禧	-10.0383
本官	-10.0384
初制	-10.0386
輟	-10.0391
縉	-10.0394
茲	-10.0395
酋	-10.0398
遍	-10.0401
巳	-10.0401
磨	-10.0401
籌	-10.0403
虎賁	-10.0403
提學	-10.0405
太中大夫	-10.0406
沿革	-10.0414
禮部議	-10.0415
職官	-10.0423
龍朔	-10.0424
各該	-10.0426
爾等	-10.043
太醫	-10.0433
大樂	-10.0433
一疋	-10.0434
崇文	-10.0446
至日	-10.045
白金	-10.0465
隆慶元年	-10.0471
領軍	-10.0472
刑名	-10.0472
錄事	-10.0472
具服	-10.0475
列於	-10.0476
聨	-10.0483
始終	-10.0485
狥	-10.0485
劇	-10.0486
桓	-10.0488
闡	-10.0488
洵	-10.0489
禪	-10.0489
盗	-10.0489
十有二	-10.049
諭禮部	-10.0491
之號	-10.0495
朕心	-10.0495
一前期	-10.0496
午門外	-10.05
視朝	-10.0503
並無	-10.0504
多寡	-10.0507
楊榮	-10.0508
案于	-10.0509
承奉	-10.0511
廷臣	-10.0518
不可不	-10.0519
㑹典	-10.0522
中式	-10.0525
二字	-10.0526
史官	-10.053
也然	-10.0532
有事	-10.0535
四時	-10.0538
禮部言	-10.0542
一隻	-10.0542
永樂元年	-10.0548
代之	-10.0562
明堂	-10.0566
諒	-10.057
波	-10.0571
彈	-10.0571
豪	-10.0571
築	-10.0572
十斤	-10.058
為相	-10.0582
不見	-10.0588
行移	-10.059
二十七日	-10.0596
經厯	-10.0596
贊引	-10.0606
上謂	-10.0622
參軍	-10.0624
參政	-10.0626
三獻	-10.063
聰	-10.0636
兼學士	-10.0639
扈	-10.0646
或以	-10.0647
知㑹	-10.0649
酉	-10.0652
藴	-10.0653
得㫖	-10.0653
謗	-10.0653
從九品	-10.0656
軌	-10.0658
槐	-10.0658
甄	-10.066
如是	-10.0661
几	-10.0662
弱	-10.0663
宛	-10.0665
像	-10.0668
長孫	-10.067
犢	-10.0671
壻	-10.0672
旌表	-10.0692
伏乞	-10.0693
二斤	-10.07
賛禮	-10.0706
金吾	-10.0706
六員	-10.071
應天府	-10.071
衮冕	-10.0715
皇城	-10.072
濓	-10.0722
承天	-10.0723
貢舉	-10.0725
稽古	-10.0726
二十二	-10.0726
更定	-10.0728
不相	-10.073
臣下	-10.0732
祚	-10.0737
曷	-10.0737
先年	-10.074
麥	-10.0743
狩	-10.0745
居住	-10.0749
觴	-10.0751
簠簋	-10.0751
第四	-10.0754
每年	-10.0764
帝后	-10.0776
公亮	-10.0782
陽王	-10.0791
執中	-10.0792
先農	-10.0795
知樞密院事	-10.0804
遣人	-10.0806
教之	-10.0807
差官	-10.0813
原作	-10.082
濬	-10.0822
簽書樞宻院事	-10.0824
粹	-10.0827
纔	-10.083
迨	-10.0831
訥	-10.0831
鵬	-10.0831
含	-10.0833
慢	-10.0834
嘉靖九年	-10.0835
軸	-10.0838
移文	-10.0839
椒	-10.0843
春官	-10.0847
一百五十	-10.0847
咸亨	-10.0848
不世襲	-10.085
鎮撫	-10.085
錢糧	-10.0858
他日	-10.0863
西北	-10.087
冊封	-10.0885
周公	-10.0891
户部尚書	-10.0908
萊	-10.0908
旱	-10.0912
躋	-10.0914
鳴鞭	-10.0917
法司	-10.0917
生民	-10.0926
鋪	-10.0931
二十六	-10.0946
輔導	-10.0967
太原	-10.0974
二十八年	-10.0974
丙	-10.0981
以下皆	-10.0986
西階	-10.0986
賞賜	-10.099
始以	-10.0991
名數	-10.1001
觀文殿學士	-10.1001
在樞府	-10.1002
六百	-10.1003
陜	-10.1003
寕	-10.101
二尺	-10.1011
抱	-10.1014
千里	-10.1018
冊府元龜	-10.1021
儀賓	-10.1022
生徒	-10.1023
司郎中	-10.1029
諸軍	-10.103
三品以上	-10.1033
陵寢	-10.1036
扈從	-10.1036
上書	-10.1038
宗社	-10.104
前導	-10.1047
宜令	-10.105
郊廟	-10.1051
尚書令	-10.1053
乾道	-10.1064
織金	-10.1066
等員	-10.1073
未及	-10.1077
將作	-10.1091
諫議大夫	-10.1093
霍	-10.1094
之命	-10.1096
耀	-10.1098
一分	-10.1098
衢	-10.1098
帑	-10.11
隱	-10.1102
凶	-10.1104
殿中侍御史	-10.1105
竄	-10.1105
旣	-10.1106
遂為	-10.1107
宰執	-10.1109
聘	-10.1111
巡按御史	-10.1114
禁約	-10.1119
奏乞	-10.1122
紹聖	-10.1127
六尺工尺	-10.1129
欽此故	-10.113
洪武二十	-10.113
樞宻	-10.1141
書令史	-10.1144
等衙門	-10.1156
内殿	-10.1158
沂	-10.1178
千五百	-10.1183
同列	-10.1183
三分	-10.1183
毋得	-10.1186
噐	-10.1188
詰	-10.1199
本寺官	-10.1205
如例	-10.1209
配位	-10.1214
之崇	-10.1214
分别	-10.1224
可知	-10.123
之寄	-10.1236
使人	-10.1241
覲	-10.1242
一寸	-10.1244
督撫	-10.1247
從七品	-10.1269
禱	-10.1277
睦	-10.1281
矜	-10.1281
徼	-10.1284
玩	-10.1285
竝	-10.1292
栁	-10.1294
集賢院	-10.1299
宣撫	-10.1301
増設	-10.1301
皂	-10.1302
導引官導上	-10.1304
官軍	-10.1307
正官	-10.1313
安撫	-10.1314
湖南	-10.1316
簫	-10.132
東北	-10.1324
該府	-10.133
謹案宋	-10.1335
步軍	-10.1335
以上者	-10.135
宫門	-10.1352
近侍	-10.1355
際	-10.1356
卞	-10.1362
禄米	-10.1365
行四拜禮	-10.1367
巨	-10.137
東都	-10.1372
者其	-10.1372
遥	-10.1372
況	-10.1375
都監	-10.1375
㤗	-10.1376
泗	-10.1376
隅	-10.1377
賂	-10.1379
牓	-10.1379
閭	-10.1381
絹一疋	-10.1382
羌	-10.1384
就拜位	-10.1387
年間	-10.1388
公侯伯	-10.14
從九品下	-10.1408
每歲	-10.1411
孟子	-10.1416
京兆	-10.1426
正二品	-10.1427
已經	-10.1432
天官	-10.1434
定奪	-10.1442
聖駕	-10.1444
士充	-10.1457
套	-10.1458
乂	-10.1467
魁	-10.1467
嫁	-10.1468
恵	-10.1474
治罪	-10.1474
賄	-10.1474
通政司	-10.1477
户部侍郎	-10.148
憚	-10.1481
四十人	-10.1482
皆為	-10.1485
一箇	-10.1485
期滿	-10.1486
豹	-10.1489
司務	-10.149
不准	-10.149
吏部侍郎	-10.149
奉聖㫖是	-10.1498
四日	-10.1504
人君	-10.1506
方物	-10.1513
照舊	-10.1523
建炎	-10.1529
所用	-10.153
十三人	-10.1531
諸子	-10.1542
所當	-10.1548
演	-10.155
合無	-10.1551
更名	-10.1553
天子之	-10.1554
弟子	-10.1554
平章事	-10.156
消	-10.156
噶	-10.1562
百司	-10.1565
東京	-10.1565
繋	-10.1566
控	-10.1568
鄙	-10.1569
贍	-10.1571
黑	-10.1574
逰	-10.1575
犀	-10.1578
事故	-10.1579
有餘	-10.1582
内閣學士	-10.1586
則又	-10.1593
永樂中	-10.1594
祀事	-10.1596
郡國	-10.1601
五曰	-10.1611
考功	-10.1616
尚享	-10.1629
入相	-10.1629
亦無	-10.1644
于是	-10.1645
丙戌	-10.1645
恱	-10.1647
京都	-10.1649
正議大夫	-10.1652
两	-10.1655
函	-10.1659
恃	-10.1664
折衝	-10.1664
荘	-10.1665
諳	-10.1666
劄付	-10.1667
纓	-10.1676
宋齊梁陳	-10.1676
趙鼎	-10.1681
復舊	-10.1709
京畿	-10.1713
婦人	-10.1718
㦸	-10.172
應天	-10.1723
丹陛上	-10.1729
殿門	-10.1733
武臣	-10.1737
炳	-10.1744
遇有	-10.1748
於戱	-10.1751
矩	-10.1752
緯	-10.1752
侑	-10.1754
大業	-10.1755
驥	-10.1756
先師孔子	-10.1758
渭	-10.1759
旂	-10.176
聖明	-10.1761
寺丞	-10.1764
具朝服	-10.1768
染	-10.1792
𠫭軍	-10.1792
人萬厯	-10.1793
也原作	-10.1795
二兩	-10.1801
八日	-10.1803
神位	-10.1812
經書	-10.1814
司樂	-10.1817
伏惟	-10.1819
政和	-10.182
五品以上	-10.1826
増置	-10.1834
二十七	-10.1836
乙未	-10.1838
哩	-10.1845
不係	-10.1846
沒	-10.1848
棟	-10.1849
陋	-10.1849
諮	-10.185
等言	-10.1852
郷	-10.1853
鹽鐡	-10.1854
其在	-10.1856
閉	-10.1856
照磨	-10.186
兖	-10.1861
次第	-10.1864
陣	-10.1866
分掌	-10.1872
簽書	-10.1873
磬	-10.1874
諫官	-10.1877
仍令	-10.1886
太宰	-10.1887
出圭	-10.1887
大典	-10.1889
上疏	-10.1894
三尺	-10.1894
宫人	-10.1896
管事	-10.1898
謹案唐	-10.1911
四兩	-10.1914
條例	-10.1927
唐虞	-10.1929
班首	-10.1929
主客司	-10.1942
其官	-10.1943
涇	-10.1946
二十九	-10.1948
佾	-10.195
宋史職官志	-10.1952
僖	-10.1954
輔國將軍	-10.1955
雕	-10.1957
駕部	-10.196
披	-10.1962
人材	-10.1962
文王	-10.1965
千秋	-10.1968
從二品	-10.1981
稽首	-10.1982
之望	-10.1989
人皆	-10.1995
到京	-10.1998
其時	-10.2007
常侍	-10.2013
之故	-10.2016
而有	-10.2028
右諫議大夫	-10.204
禆	-10.204
詠	-10.2043
浸	-10.2044
是為	-10.2045
誨	-10.2045
繩	-10.2046
寘	-10.205
薪	-10.205
趣	-10.2051
窺	-10.2052
柴	-10.2055
授封	-10.2056
朝見	-10.206
贓	-10.2061
脚	-10.2062
之西	-10.2067
校勘	-10.2073
等皆	-10.2077
寸五分	-10.2078
不分	-10.208
飲食	-10.2084
歐陽	-10.2087
落職	-10.2089
八旗官學	-10.2095
浙	-10.2114
六日	-10.2122
規制	-10.2124
内侍官	-10.2124
封號	-10.2128
大防	-10.2128
麾	-10.2135
韓琦	-10.2139
琳	-10.2139
梅	-10.2141
位前	-10.2141
相承	-10.2144
謚	-10.2145
契丹	-10.2146
字韻	-10.2147
邢	-10.2147
瑪	-10.2149
昧	-10.215
刪	-10.2153
箱	-10.2154
初設	-10.2155
妙	-10.2159
帯	-10.2159
熈寧	-10.2162
豈可	-10.2164
讀祝官	-10.2167
可謂	-10.2169
選婚	-10.2172
都省	-10.2173
祝帛	-10.2175
建言	-10.2178
一副	-10.2185
成均	-10.2185
山陵	-10.2191
知樞宻院事	-10.2195
年月日	-10.2196
視學	-10.2197
楪	-10.2205
之東西	-10.2209
修省	-10.2209
亦可	-10.2212
廡	-10.2214
行令	-10.2217
安國	-10.2219
仲淹	-10.2222
册立	-10.2223
導上至	-10.2223
五府	-10.2227
逵	-10.2232
左門入	-10.2244
監督	-10.2245
太平興國	-10.2247
每月	-10.2247
爽	-10.2247
蹕	-10.2247
溢	-10.225
年老	-10.2254
宋濓	-10.2255
轎	-10.2257
貸	-10.2258
笙	-10.2259
止許	-10.2261
賓客	-10.2269
定為	-10.2278
四寸	-10.2282
者或	-10.2284
圖書	-10.229
考課	-10.2294
㕘政	-10.2297
如儀	-10.2303
仲春	-10.2324
奏準	-10.2324
不堪	-10.2337
加封	-10.234
平章	-10.2342
從容	-10.2342
三間	-10.2345
股肱	-10.2345
宵	-10.2347
森	-10.2347
瑶	-10.2349
歎	-10.2353
荀	-10.2354
諾	-10.2354
肩	-10.2357
聖諭	-10.2357
賫	-10.2358
碧	-10.2363
繪	-10.2363
桃	-10.237
韈	-10.2374
之誠	-10.2378
師生	-10.2381
大抵	-10.2382
兩拜	-10.2396
議得	-10.2397
以禮	-10.2397
二分	-10.2398
建置	-10.24
永樂二年	-10.2409
校理	-10.2411
革帶	-10.2414
校書郎	-10.2418
有無	-10.2426
諸曹	-10.243
抵	-10.2435
撰文	-10.2437
皇妃	-10.2437
涵	-10.2441
朋	-10.2446
迄	-10.2446
孜	-10.2451
歛	-10.2452
渾	-10.2452
蓬	-10.2454
五城	-10.2455
著為令	-10.2459
探	-10.2461
簮	-10.2468
拾	-10.2468
光祿寺	-10.2469
奠帛	-10.2472
仍兼	-10.2474
五千	-10.2475
江淮	-10.2476
道路	-10.2477
至于	-10.248
樂工	-10.2483
顧問	-10.2488
不可以	-10.2493
不便	-10.2496
擇日	-10.2501
洪武二年	-10.2501
累朝	-10.2504
在内	-10.251
稱賀	-10.2511
定例	-10.2513
戊戌	-10.2517
考取	-10.2525
送部	-10.2526
以進	-10.2527
三師	-10.2538
監門	-10.2545
也故	-10.2551
蔚	-10.2551
聿	-10.2552
倪	-10.2553
奉御	-10.2554
沃	-10.2554
想	-10.2557
罄	-10.2559
匿	-10.2561
墻	-10.2562
睿宗	-10.2562
壞	-10.2563
隙	-10.2564
䘏	-10.2566
不載	-10.2572
賞罰	-10.2576
玉牒	-10.2581
羣牧	-10.2582
刑獄	-10.2587
遼東	-10.2587
太醫院	-10.2592
常平	-10.2594
兵曹	-10.2595
五經	-10.2595
備考	-10.2599
正殿	-10.2605
尚食	-10.2606
月初二日	-10.2615
神明	-10.2617
衛所	-10.2622
學正	-10.2628
年月	-10.2628
事情	-10.263
無窮	-10.2633
其家	-10.2635
州郡	-10.2642
瑾	-10.2651
驕	-10.2653
謹案漢	-10.2654
掌院學士	-10.2659
蔡確	-10.2659
醉	-10.2664
隔	-10.2664
拂	-10.2665
括	-10.2667
禋	-10.2668
尚書侍郎	-10.267
詭	-10.267
百七十	-10.2673
入朝	-10.2675
牽	-10.2676
彩	-10.2676
枉	-10.2677
工部侍郎	-10.2678
輟朝	-10.2683
兵部侍郎	-10.2684
降為	-10.2691
李賢	-10.2694
廐	-10.2695
乙丑	-10.2705
從八品下	-10.2709
非常	-10.2722
教化	-10.2724
之長	-10.2725
將來	-10.2739
捐	-10.276
開府儀同三司	-10.2766
奇	-10.2768
不允	-10.2773
妨	-10.2773
駁	-10.2773
札	-10.2775
綽	-10.2776
膏	-10.278
軍事	-10.2784
柱國	-10.2785
王國	-10.2788
氷	-10.2788
損益	-10.2791
祠祭署	-10.2791
率府	-10.2791
大紅	-10.2797
前項	-10.2815
所由	-10.2828
又定	-10.2832
帝本紀	-10.2834
元和	-10.2839
原籍	-10.2843
月日	-10.2845
責授	-10.2847
也原	-10.2853
著於	-10.2856
祭服	-10.2856
内臣	-10.2863
取士	-10.287
之位	-10.2871
通議大夫	-10.2872
坤	-10.2874
嘆	-10.2874
潜	-10.2875
崇禎	-10.2879
逾	-10.288
明俞汝楫編	-10.2883
三十五年	-10.2884
㡌	-10.2884
沉	-10.2886
監事	-10.2886
太祖髙皇帝	-10.2887
奏四拜	-10.289
得失	-10.2893
守本官	-10.2895
當如今	-10.2896
相近	-10.2901
一百二十	-10.2902
巡按	-10.2903
頒行	-10.2904
位次	-10.2904
正九品下	-10.2911
大學	-10.2921
十四人	-10.2923
䝉古語	-10.2925
事理	-10.2927
儀賔	-10.2929
帝紀	-10.293
乞勅	-10.2934
中道	-10.2944
之前	-10.2951
日講	-10.2955
皆得	-10.296
盛典	-10.2968
彦博	-10.2969
炎	-10.2969
總理	-10.2969
入貢	-10.2969
其罪	-10.2979
悟	-10.2979
把總	-10.2981
時享	-10.2982
閤	-10.2982
闢	-10.2986
餉	-10.2989
卧	-10.299
無定員	-10.2991
知之	-10.2993
用金	-10.2995
宣撫使	-10.2997
鑿	-10.3004
致齋	-10.3005
兼權	-10.3018
致詞	-10.3022
節制	-10.3026
前鋒	-10.3027
吏目	-10.3034
又言	-10.3038
不肯	-10.3042
奏禮畢	-10.3044
之説	-10.3059
玉海	-10.3061
豈不	-10.3079
丑	-10.3088
頓首	-10.3092
晏	-10.3092
上章	-10.3093
庾	-10.3094
太子少保	-10.3097
凟	-10.3097
豕	-10.3098
阜	-10.3098
大中祥符	-10.3099
泛	-10.3101
昭文館	-10.3102
萬石	-10.3103
募	-10.3106
磁	-10.3109
霞	-10.3109
墜	-10.3111
受冊	-10.3111
官皆跪	-10.3112
從六品上	-10.3114
前期一日	-10.3117
史二人	-10.3118
米一石	-10.3122
滿洲語	-10.3124
旒	-10.3125
孟春	-10.313
職方	-10.313
忍	-10.3134
六百石	-10.3138
異數	-10.3138
刑部尚書	-10.3138
回回	-10.314
劄子	-10.3147
事件	-10.3157
漢制	-10.3162
永平	-10.3163
革去	-10.3176
請㫖	-10.3179
士子	-10.3185
河道	-10.319
分理	-10.3194
丙辰	-10.3195
捧帛	-10.3196
本院官	-10.3197
姜	-10.3203
晦	-10.3204
膠	-10.3207
醇	-10.3207
侈	-10.3208
闔	-10.3209
貌	-10.3209
龍圖閣	-10.321
五經博士	-10.321
駮	-10.321
脫	-10.3211
塟	-10.3212
滌	-10.3213
琴	-10.3214
零	-10.3214
綵段	-10.3215
頓	-10.3215
靣	-10.3215
事體	-10.3216
應試	-10.3217
中間	-10.3217
五員	-10.3218
淳化	-10.3218
撤	-10.3218
斟酌	-10.3219
鈎	-10.322
蠻夷	-10.322
臨雍	-10.322
牀	-10.322
宫使	-10.3223
協律郎	-10.3223
某氏	-10.3224
盾	-10.3225
賔客	-10.3226
喪禮	-10.3229
典簿㕔	-10.3231
毎月	-10.3232
官職	-10.3237
數十	-10.3249
千總	-10.3249
習禮	-10.3255
喪主	-10.3258
見在	-10.3259
親郡王	-10.328
庚	-10.3293
查照	-10.3296
縣丞	-10.3296
舊封	-10.3301
送吏部	-10.3303
隋置	-10.3303
本處	-10.3304
富弼	-10.3309
精膳司	-10.3315
是非	-10.3315
彚	-10.3316
蚤	-10.3316
帷幄	-10.3316
就彼冠帶	-10.3317
苗	-10.3317
武英殿	-10.3318
亭長	-10.3319
撓	-10.3319
壓	-10.332
復設	-10.3322
戾	-10.3323
毎人	-10.3323
呵	-10.3325
縫	-10.3327
十餘年	-10.333
参	-10.3331
鞫	-10.3332
謄録	-10.3335
魏書	-10.3336
禁令	-10.3349
秘書省	-10.3352
飲酒	-10.3352
武宗	-10.3355
神龍	-10.3358
寺觀	-10.3358
禮物	-10.3359
六十人	-10.3362
二箇	-10.3365
太祝	-10.3365
食糧	-10.3367
神祇	-10.3368
又令	-10.3369
從九品上	-10.3369
著他	-10.3369
大政	-10.3372
肯	-10.3375
文理	-10.3379
五斗	-10.3381
府知府	-10.3389
歸附	-10.3397
候上	-10.3408
侍臣	-10.3412
請名	-10.3421
粮	-10.3426
綺	-10.3426
相繼	-10.3427
春坊	-10.3427
圜	-10.3428
柩	-10.3428
照依	-10.3429
昊	-10.3429
三館	-10.3431
萬嵗	-10.3434
翰苑	-10.3436
掲	-10.3436
處分	-10.3437
承祭官	-10.3439
主簿一人	-10.3439
四人掌	-10.344
訛	-10.344
𣲖	-10.3444
五等	-10.3445
五色	-10.3448
皆在	-10.3452
三十二年	-10.3453
纁	-10.3457
他官	-10.3459
御筆	-10.3461
起復	-10.3462
贊禮	-10.3471
以俟	-10.3479
十疋	-10.3486
紅羅	-10.3487
中和	-10.3488
一月	-10.3497
未能	-10.3501
召對	-10.351
實錄	-10.3514
相同	-10.3533
逺近	-10.3541
俘	-10.3547
偃	-10.3549
没	-10.3549
鎬	-10.3551
霄	-10.3553
馴	-10.3562
江左	-10.3562
諸道	-10.3563
最為	-10.3563
五尺	-10.3566
忌辰	-10.3569
三十三年	-10.3574
賛四拜	-10.3576
講學	-10.3576
乞罷	-10.3577
請勅	-10.3578
無可	-10.3579
爵三	-10.3582
戊辰	-10.3587
家人	-10.3588
獻帛	-10.3596
因循	-10.3598
箭	-10.3599
帛一	-10.36
元帥	-10.3605
上意	-10.3609
金石	-10.361
開封府	-10.3614
癸丑	-10.3621
降香	-10.3629
翰林官	-10.3629
違例	-10.3632
明代	-10.3639
補闕	-10.364
第三品	-10.3643
司主事	-10.3643
推官	-10.3643
開國	-10.3649
太常寺官	-10.3649
漢人一人	-10.3653
軰	-10.3654
筵宴	-10.3658
第五	-10.3662
誓	-10.3664
徃徃	-10.3666
隣	-10.3666
鞍	-10.3667
聖節	-10.3667
送至	-10.3667
宣徽	-10.3667
宣慰司	-10.3668
嚮	-10.3669
體貌	-10.367
軍務	-10.3673
盟	-10.3675
河西	-10.3676
秀才	-10.3678
耗	-10.3678
陪臣	-10.3678
劍	-10.368
驍騎	-10.368
士大夫	-10.3681
長史司	-10.3682
伏望	-10.3688
西廡	-10.3692
有缺	-10.3697
同知樞宻院事	-10.3701
袋	-10.3706
奉行	-10.371
毎年	-10.3715
衛尉	-10.3729
等第	-10.373
如何	-10.3732
左丞	-10.3739
聖王	-10.3752
東階	-10.3762
供事	-10.3762
三司使	-10.3765
陞授	-10.3766
叅政	-10.3773
戌	-10.3773
奏祭祀	-10.3775
瀚	-10.3776
壬戌	-10.3777
熹	-10.3778
焦	-10.378
寢殿	-10.378
飬	-10.3784
㳺	-10.3784
返	-10.3784
暑	-10.3786
誘	-10.3787
進表	-10.379
士遜	-10.3796
副都統	-10.3801
著作郎	-10.3803
可否	-10.3815
武王	-10.3822
而退	-10.3829
九日	-10.384
三斤	-10.384
此例	-10.3847
未可	-10.385
其他	-10.3853
學士充	-10.3854
差遣	-10.3857
設香案	-10.3857
章奏	-10.3869
無異	-10.3871
鬼神	-10.3875
五分	-10.3879
未置	-10.3885
璁	-10.3888
詆	-10.3892
漠	-10.3894
出使	-10.3898
暢	-10.3898
耿	-10.39
忤	-10.39
譏	-10.3901
長男	-10.3902
樂止典儀	-10.3906
村	-10.3907
行取	-10.3908
患病	-10.3909
芹	-10.391
人掌固四人	-10.3911
相與	-10.3913
幅	-10.3913
炭	-10.3914
受爵	-10.3916
營繕	-10.3917
囿	-10.3921
如舊	-10.3923
所宜	-10.3926
利用	-10.393
速香	-10.3933
從七品下	-10.3937
一代	-10.3943
數月	-10.3948
永樂間	-10.3948
公論	-10.3957
勝非	-10.3965
之任也	-10.3967
崇寧	-10.3981
祖考	-10.3989
公服	-10.3998
轍	-10.401
惕	-10.4013
洎	-10.4013
按察使	-10.4014
臯	-10.4014
知印	-10.4017
擁	-10.4018
模	-10.4019
諤	-10.4021
潭	-10.4021
堯舜	-10.4022
叨	-10.4023
涉	-10.4024
拆	-10.4025
使相	-10.4026
穹	-10.4028
溝	-10.4028
虧	-10.4029
跪受	-10.4031
艱難	-10.4033
通事舍人	-10.4036
依前充	-10.4038
仁祖	-10.4039
選擇	-10.4041
道士	-10.4054
軍國	-10.4059
四尺	-10.4069
禮制	-10.41
于此	-10.4101
儀制	-10.4102
選用	-10.4116
論語	-10.4124
瑗	-10.4125
家令	-10.4126
右春坊	-10.4132
勅諭	-10.4132
祭畢	-10.4134
忱	-10.4135
必大	-10.4136
狄	-10.4137
准襲	-10.4137
浦	-10.4141
賡	-10.4142
賤	-10.4142
馨	-10.4144
渉	-10.4146
蠲	-10.4148
盥洗	-10.4151
妾媵	-10.4151
塵	-10.4152
四分	-10.4154
臘	-10.4155
㫁	-10.4156
壝	-10.4157
手本	-10.4158
靖康	-10.4162
鑄錢	-10.4163
巫	-10.4164
朶	-10.4165
太樂	-10.4165
成功	-10.4167
樞密	-10.4169
舉哀	-10.4171
記注	-10.4172
武職	-10.4177
慶成	-10.4178
徽宗	-10.4185
嵗終	-10.4198
府學	-10.4201
學政	-10.4202
秦王	-10.4205
我皇	-10.4205
湖北	-10.4235
五十人	-10.424
撥置	-10.4246
臣民	-10.4253
司經局	-10.4254
總領	-10.4258
岷	-10.4259
瑛	-10.4261
亶	-10.4261
作樂	-10.4261
禮部覆	-10.4264
鉉	-10.4265
提舉洞霄宫	-10.4266
爼	-10.4266
管理府事	-10.4269
奏復位	-10.427
蹇	-10.4271
猛	-10.4273
洲	-10.4274
中書舎人	-10.4274
逼	-10.4274
文職	-10.4276
斂	-10.4276
燒	-10.4281
廏	-10.4282
訊	-10.4282
漢書百官公卿表	-10.4283
紀綱	-10.4289
便殿	-10.4305
班第	-10.4306
成婚	-10.4309
䕶衛	-10.4309
題準	-10.4314
知政事	-10.4316
録事一人	-10.4319
崇儒	-10.4325
朝參	-10.4328
庫部	-10.4329
石鼓	-10.4331
朱子	-10.4335
多士	-10.4345
聖母	-10.4345
大駕	-10.4348
八兩	-10.4348
三寸	-10.4359
廷試	-10.4362
試卷	-10.4368
考校	-10.4378
喬	-10.438
梓	-10.4383
汲	-10.4383
嗟	-10.4385
范純仁	-10.4387
粤	-10.4388
劉摯	-10.4388
曹參軍事一人	-10.4388
佳	-10.4389
故有是命	-10.439
拯	-10.439
兩宫	-10.4391
三十四年	-10.4392
尚寳司	-10.4394
汾	-10.4396
朕意	-10.4397
瀛	-10.4397
侮	-10.4398
僭	-10.44
誌	-10.44
正旦冬至	-10.44
俊秀	-10.4405
如前儀	-10.4412
綵幣	-10.4415
停止	-10.4417
階下	-10.442
龍亭	-10.4427
月二十八日	-10.443
贊四拜	-10.444
欽此故男	-10.4465
未必	-10.4468
成周	-10.4475
年任歴	-10.4477
議處	-10.4478
學問	-10.4482
評	-10.4491
地祇	-10.4499
抃	-10.45
滿洲䝉古	-10.4503
伺	-10.4503
尺合四	-10.4503
定議	-10.4506
翁	-10.4506
上從之	-10.4507
給賜	-10.4509
揺	-10.451
衆官	-10.4513
倒	-10.4514
柯	-10.4514
湛	-10.4514
烝	-10.452
數日	-10.452
沐	-10.4522
偕	-10.4524
陷	-10.4527
淨	-10.4534
河渠	-10.4537
醖	-10.4538
嘉靖八年	-10.4541
大成殿	-10.4554
臨時	-10.4561
服色	-10.4568
部落	-10.457
單于	-10.4579
撫按官	-10.4583
存留	-10.4585
萬邦	-10.459
宣諭	-10.459
直院	-10.459
得罪	-10.4598
革爵	-10.46
辛丑進士	-10.461
詞臣	-10.4614
尊崇	-10.4618
特賜	-10.462
永樂初	-10.4625
具題	-10.4631
某人	-10.4636
牘	-10.4638
狂	-10.464
饋	-10.4643
俄	-10.4644
兼翰林院學士	-10.4648
匡	-10.4653
剏	-10.4658
瑟	-10.4661
雀	-10.4662
壬辰	-10.4663
本色	-10.4668
組	-10.4673
勤勞	-10.4673
安危	-10.4677
北向立	-10.4679
驛丞	-10.468
不容	-10.4681
入學	-10.4682
委官	-10.4685
本寺卿	-10.4691
三楹	-10.4694
六經	-10.4701
獄訟	-10.4702
添設	-10.4705
清明	-10.4707
類奏	-10.4712
教養	-10.4715
曰吾	-10.472
薦舉	-10.4736
丞各一人	-10.4737
從九	-10.4744
吉服	-10.475
之職也	-10.4754
准他襲	-10.4757
廟堂	-10.4759
光祿	-10.4765
桐	-10.4767
勛	-10.4768
悖	-10.4769
長陵	-10.4769
徇	-10.4772
衙	-10.4773
紏	-10.4776
曰某	-10.4783
是日早	-10.4785
置于案	-10.4786
籥	-10.4789
到任	-10.4789
本紀	-10.4792
邦彦	-10.4794
星辰	-10.4795
宫觀	-10.4802
香燭	-10.4805
備身	-10.4807
軍士	-10.4807
風雨	-10.4807
殿學士	-10.4808
免朝	-10.4815
從一品	-10.4815
出閣	-10.4827
看得	-10.4829
一座	-10.4833
長丞	-10.4836
往來	-10.484
提舉司	-10.4844
盛京	-10.4846
諸陵	-10.485
禮部覆奏	-10.4857
大鴻臚	-10.486
嫡長	-10.486
天啟	-10.486
諸將	-10.4868
監肄業	-10.487
汗	-10.4872
伴	-10.4885
等三百	-10.4886
雍正元年	-10.4891
贊跪	-10.4893
資政殿大學士	-10.4898
鵝	-10.4905
樸	-10.4906
儆	-10.4906
私自	-10.4906
凱	-10.4906
萃	-10.4907
忻	-10.4908
犧	-10.4911
散騎常侍	-10.4914
畝	-10.4915
敘	-10.4915
兇	-10.4915
禽	-10.4916
昏	-10.4916
鐘鼓	-10.4917
拾遺	-10.4918
辯	-10.4918
殿庭	-10.4919
臺諫	-10.4923
獵	-10.4924
䕃	-10.4924
棗	-10.4924
牙牌	-10.4928
腰	-10.4928
元年正月	-10.4929
看詳	-10.4932
衰服	-10.4935
卒贈	-10.4936
袱	-10.4936
皁	-10.4938
開封	-10.4954
兼理	-10.4954
該衙門	-10.4956
外國	-10.4958
别駕	-10.4966
名實	-10.4969
揚州	-10.4973
班次	-10.4981
列于	-10.4983
諸儒	-10.4987
求去	-10.5008
東閣	-10.5012
照得	-10.5019
香案	-10.502
告成	-10.5024
䖏	-10.5028
特恩	-10.5033
五斤	-10.5037
竦	-10.5038
譜	-10.5038
薩	-10.5038
敞	-10.5039
顓	-10.504
蓮	-10.5041
揭	-10.5042
鞭	-10.5042
釋菜	-10.5044
特命	-10.5046
杜佑通典	-10.5047
昻	-10.5048
攷	-10.5049
羲	-10.5049
仿	-10.5051
約束	-10.5052
訐	-10.5054
庚戌	-10.5057
折鈔	-10.5058
四品以上	-10.5059
鎗	-10.506
五代史	-10.5064
五品已上	-10.5067
首領	-10.5067
補授	-10.5068
徳祖	-10.5073
州牧	-10.5091
轉行	-10.5094
三十八年	-10.5095
差役	-10.5097
斤八兩	-10.5102
不忘	-10.5102
治平	-10.5104
二年正月	-10.5109
朔日	-10.5121
毎嵗	-10.5126
大司農	-10.5143
院使	-10.5154
例該	-10.5154
髙下	-10.5155
葺	-10.5171
鄭康成	-10.5173
參議	-10.5175
肄	-10.5176
踵	-10.5177
旗纛	-10.5178
秘閣	-10.5179
明史職官志	-10.5179
影	-10.5181
起居郎	-10.5184
太子太傅	-10.5186
常朝	-10.5186
洋	-10.5187
芝	-10.5189
副榜	-10.519
鄭康成注	-10.5193
訖奏出圭	-10.5194
奉聖㫖准他	-10.5196
商英	-10.5196
望燎	-10.5197
東廡	-10.5199
河南尹	-10.5204
枝一兩燭	-10.5209
十隻	-10.521
文彦博	-10.521
災異	-10.5212
冊立	-10.5213
嘉靖十年	-10.5215
鈿	-10.5218
制誥	-10.5219
無所不	-10.5227
成帝	-10.5228
降輿	-10.5229
終身	-10.523
百里	-10.5233
聖徳	-10.5241
十哲	-10.5243
金玉	-10.5265
洪武十五年	-10.5269
十有二人	-10.5276
漢唐	-10.5277
究治	-10.5279
數目	-10.5281
搢圭	-10.5284
承天門	-10.5292
奏報	-10.5293
釐正	-10.5295
奕	-10.5306
莅	-10.5307
祁	-10.531
二疋	-10.5311
百世	-10.5311
增置	-10.5312
覃	-10.5312
懽	-10.5312
礙	-10.5314
冉	-10.5314
長史教授	-10.5314
皷	-10.5315
自此始	-10.5316
御馬	-10.5316
饑	-10.5316
弄	-10.5316
詩書	-10.5318
濯	-10.5318
晝	-10.5319
奄	-10.5319
賁	-10.5319
永樂三年	-10.5319
傳賛	-10.5321
屠	-10.5323
行叩頭禮	-10.5324
風雲雷雨	-10.5324
庶㡬	-10.5327
斛	-10.5327
利害	-10.5329
初授	-10.533
風憲	-10.5337
高祖	-10.5341
后土	-10.5345
尺二寸	-10.5347
神庫	-10.5353
新法	-10.536
王珪	-10.5362
封贈	-10.5371
十有六人	-10.5376
宣和	-10.5383
孔氏	-10.5389
古制	-10.5393
黄門	-10.5402
無疆	-10.5403
時維	-10.5409
陪祭	-10.5409
兔	-10.5451
迭	-10.5452
搆	-10.5454
盥	-10.5456
㨗	-10.5456
訃	-10.5458
突	-10.5458
狼	-10.5463
舅	-10.5466
斡	-10.5585
映	-10.5586
彞	-10.5586
沔	-10.5587
奥	-10.5588
竇	-10.5592
凉	-10.5593
壅	-10.5593
踈	-10.5594
崩	-10.5594
汛	-10.5595
旭	-10.5595
霜	-10.5596
栢	-10.5597
荅	-10.5598
殫	-10.5598
迺	-10.5598
筭	-10.5601
裝	-10.5606
僣	-10.5615
媒	-10.5728
叶	-10.5731
閻	-10.5732
灌	-10.5733
倖	-10.5737
潮	-10.5743
蘓	-10.5743
灼	-10.5744
罍	-10.5745
層	-10.5745
潞	-10.5746
蒸	-10.5747
漫	-10.5748
欠	-10.5749
鬼	-10.578
瓘	-10.5873
縂	-10.5877
寰	-10.5877
矯	-10.5879
恥	-10.5881
喧	-10.5882
系	-10.5884
簇	-10.5885
鷹	-10.5886
頴	-10.5886
鈐	-10.5888
淫	-10.5889
搜	-10.589
臧	-10.589
餼	-10.5897
弭	-10.6021
閫	-10.6024
曩	-10.6028
朗	-10.6028
汰	-10.6028
巍	-10.6029
駿	-10.6029
騷	-10.603
壤	-10.6031
隄	-10.6033
趾	-10.6034
紋	-10.6034
顆	-10.6061
惰	-10.6167
洙	-10.6168
柏	-10.6172
稔	-10.6177
釁	-10.6181
奢	-10.6183
蠧	-10.6184
衝	-10.6185
貝	-10.6187
脱	-10.6189
籠	-10.619
弔	-10.6191
稻	-10.6199
笛	-10.6206
莭	-10.6312
苐	-10.6313
佞	-10.6323
枚	-10.6324
群	-10.6324
頻	-10.6324
瑄	-10.6327
汴	-10.6331
擒	-10.6331
籖	-10.6338
憫	-10.6339
黃	-10.634
鐫	-10.6345
絃	-10.6347
摯	-10.6459
笏	-10.6473
沛	-10.6475
閔	-10.648
諷	-10.6482
瓚	-10.6483
掄	-10.6487
蹟	-10.6488
紊	-10.6493
蔬	-10.6493
粗	-10.6495
技	-10.6497
庖	-10.6499
抹	-10.6508
閎	-10.6628
藹	-10.663
尸	-10.6631
亢	-10.6632
躍	-10.6633
鏞	-10.6633
閩	-10.6635
賑	-10.6637
駭	-10.6638
邀	-10.6639
訂	-10.6641
夲	-10.6644
快	-10.6646
葵	-10.6648
淡	-10.665
麪	-10.6653
貂	-10.6657
慿	-10.6657
黍	-10.6661
傘	-10.6662
塊	-10.6682
崑	-10.6778
暉	-10.6788
撒	-10.679
廼	-10.6791
髦	-10.6793
郵	-10.6796
凛	-10.6796
恨	-10.6799
迤	-10.68
渙	-10.68
淹	-10.6803
劣	-10.6803
貲	-10.6804
岸	-10.6804
味	-10.6811
頑	-10.6811
硃	-10.6815
帽	-10.683
岡	-10.6944
洮	-10.6947
縝	-10.6947
禘	-10.6949
霖	-10.6953
忿	-10.6962
惶	-10.6963
𣙜	-10.6963
稼	-10.6965
笞	-10.6965
償	-10.6966
涼	-10.6971
朧	-10.6977
黻	-10.698
榛	-10.6985
𠫭	-10.7056
綂	-10.7112
棨	-10.7118
兢	-10.7118
恂	-10.7118
肖	-10.7119
礪	-10.712
髪	-10.7121
萌	-10.7122
繹	-10.7124
碍	-10.7124
稿	-10.7125
㓂	-10.7125
攬	-10.7127
拒	-10.7128
彥	-10.7131
蠟	-10.7137
𦂳	-10.7137
緫	-10.7138
菁	-10.7139
駝	-10.7141
刷	-10.7146
渡	-10.7244
仇	-10.728
泣	-10.7284
忝	-10.7284
吐	-10.7286
票	-10.7289
晟	-10.7289
恬	-10.729
怪	-10.7291
寖	-10.7293
廉	-10.7293
漳	-10.7294
彊	-10.7294
毒	-10.7295
覧	-10.7296
戮	-10.7299
辜	-10.7299
塘	-10.73
硯	-10.73
舛	-10.73
𥘉	-10.7305
鬱	-10.7307
狹	-10.7313
龔	-10.7449
豋	-10.7451
顒	-10.7452
潼	-10.7452
喻	-10.7453
荐	-10.7453
繄	-10.7454
坦	-10.7454
筦	-10.7455
緡	-10.7456
匱	-10.7459
讞	-10.746
睠	-10.7462
潢	-10.7462
遑	-10.7463
諌	-10.7465
疊	-10.7466
肥	-10.7468
磚	-10.7477
麫	-10.7491
靄	-10.7628
廓	-10.7628
話	-10.7629
驟	-10.763
穎	-10.763
冢	-10.7632
迥	-10.7633
吟	-10.7633
僻	-10.7636
饈	-10.7638
鎖	-10.7642
鞋	-10.7643
挨	-10.7643
婿	-10.7648
繖	-10.766
簪	-10.7804
烟	-10.7806
㝷	-10.7807
軼	-10.7807
麽	-10.7809
涖	-10.7812
鬻	-10.7813
𠂻	-10.7815
壘	-10.7816
斧	-10.7819
佚	-10.782
禾	-10.7821
乳	-10.7832
暦	-10.7838
琪	-10.7976
祉	-10.7983
霑	-10.7983
響	-10.7984
綰	-10.7984
坡	-10.7984
囊	-10.7986
掛	-10.7987
歇	-10.7987
陕	-10.7989
促	-10.7992
隘	-10.7993
摘	-10.7993
韜	-10.7994
弛	-10.7995
蟲	-10.8002
鉤	-10.8023
婁	-10.8137
匭	-10.8157
慨	-10.8164
繆	-10.8164
泊	-10.8171
眼	-10.8171
夤	-10.8171
簋	-10.8174
麓	-10.8176
認	-10.8177
藁	-10.8181
掣	-10.8182
沁	-10.8184
枷	-10.8185
線	-10.8185
裙	-10.8187
騮	-10.819
紬	-10.8194
謄	-10.834
詎	-10.8343
鄆	-10.8346
鏡	-10.8347
溯	-10.835
扎	-10.8351
沾	-10.8352
朴	-10.8352
培	-10.8353
氊	-10.8353
截	-10.8353
滕	-10.8354
佃	-10.8355
悅	-10.8355
䙝	-10.8355
鎧	-10.8356
鋭	-10.8356
臚	-10.8357
彪	-10.8357
畀	-10.8358
蓄	-10.8359
榻	-10.8361
褐	-10.8361
簷	-10.8362
襪	-10.8362
贖	-10.8364
龕	-10.8365
弋	-10.8365
枕	-10.8367
網	-10.8368
鵠	-10.837
紐	-10.8375
鏤	-10.8375
菹	-10.8382
嚕	-10.8531
瀾	-10.8533
漁	-10.8533
岱	-10.8536
纛	-10.8537
遏	-10.8537
慤	-10.8537
滄	-10.8538
丐	-10.8539
莽	-10.8545
餌	-10.8545
㝠	-10.8546
㪚	-10.8547
芒	-10.8548
盆	-10.8556
剪	-10.8556
証	-10.8559
袴	-10.8565
笋	-10.8566
襖	-10.8578
戲	-10.8693
聳	-10.8728
逞	-10.8728
鞏	-10.8731
寔	-10.8731
叢	-10.8732
谿	-10.8736
酷	-10.8737
攘	-10.8737
樊	-10.8738
旄	-10.8741
脯	-10.8742
虐	-10.8744
珮	-10.8746
裘	-10.8746
獅	-10.8753
幘	-10.8757
燦	-10.8913
諄	-10.8917
泮	-10.8923
噫	-10.8929
雒	-10.8929
闋	-10.8929
昂	-10.893
亳	-10.893
勳	-10.8931
毗	-10.8932
繞	-10.8934
阼	-10.8935
渝	-10.8935
郁	-10.8935
軫	-10.8939
棺	-10.8939
裂	-10.894
醬	-10.894
絡	-10.8941
灣	-10.8944
你	-10.8945
縹	-10.8946
綠	-10.8946
幫	-10.8947
櫃	-10.8947
糴	-10.8947
弦	-10.8958
點	-10.8958
叟	-10.9113
雩	-10.9118
瑜	-10.9118
㤙	-10.9124
廖	-10.9125
倘	-10.9128
棘	-10.9129
蘆	-10.9132
爛	-10.9134
陲	-10.9135
挈	-10.9139
抽	-10.9142
勁	-10.9143
筮	-10.9144
銳	-10.9147
鎻	-10.9151
壩	-10.9315
斌	-10.9321
雋	-10.9323
煌	-10.9327
璋	-10.9328
研	-10.9329
茅	-10.9329
濠	-10.9333
滁	-10.9335
摭	-10.9337
霸	-10.9337
朂	-10.9337
翌	-10.9338
妖	-10.934
刼	-10.9341
憐	-10.9341
敇	-10.9343
竈	-10.9343
揑	-10.9347
複	-10.935
芻	-10.9353
療	-10.9357
贄	-10.9529
握	-10.9533
鼐	-10.9538
罹	-10.954
壙	-10.9541
摹	-10.9544
坎	-10.9544
幢	-10.9544
螭	-10.9548
濮	-10.955
讐	-10.9552
髮	-10.9553
徭	-10.9554
粱	-10.9556
血	-10.956
估	-10.956
鍼	-10.9639
晁	-10.9744
砥	-10.9748
𦙍	-10.9748
鯉	-10.975
媿	-10.9752
楫	-10.9752
彤	-10.9752
吿	-10.9755
迫	-10.9756
遁	-10.9761
煙	-10.9764
距	-10.9765
瞽	-10.9765
護	-10.9766
鷄	-10.9766
餙	-10.9769
羃	-10.977
銖	-10.977
晚	-10.9772
鈴	-10.9775
埋	-10.9779
窄	-10.9781
鐃	-10.982
癸	-10.9955
婆	-10.9962
殮	-10.9967
楮	-10.9969
芬	-10.9972
墀	-10.9973
滑	-10.9975
憤	-10.9975
庇	-10.9977
濁	-10.9979
鬯	-10.998
薫	-10.9981
拓	-10.9981
覿	-10.9982
簠	-10.9983
穰	-10.9984
擎	-10.9986
巷	-10.9986
站	-10.9988
掠	-10.999
葦	-10.9991
脉	-10.9992
芡	-10.9992
葱	-10.9993
纒	-11.0004
鈒	-11.0007
昕	-11.0178
湘	-11.0182
龎	-11.0185
聯	-11.0186
纘	-11.0188
蔑	-11.0189
迴	-11.0192
茹	-11.0192
揮	-11.0193
㮚	-11.0194
郢	-11.0196
遮	-11.0196
蹌	-11.0197
譴	-11.0198
孺	-11.0198
貿	-11.0198
悲	-11.0199
璟	-11.0199
隳	-11.0202
穴	-11.0202
別	-11.0202
絰	-11.0203
悞	-11.0204
滛	-11.0208
鏘	-11.0208
蟠	-11.0212
鐡	-11.0221
軾	-11.0415
倦	-11.0417
竣	-11.0418
緬	-11.0423
澹	-11.0424
庵	-11.0424
椿	-11.0424
攄	-11.0425
寝	-11.0426
障	-11.0426
菲	-11.0427
販	-11.0427
寇	-11.043
戢	-11.043
覬	-11.043
閽	-11.0431
兎	-11.0431
暗	-11.0431
紇	-11.0433
懌	-11.0434
扣	-11.0434
醮	-11.0434
挐	-11.0435
藤	-11.0436
雉	-11.0436
琮	-11.0439
拿	-11.0441
幔	-11.0445
縧	-11.0451
侃	-11.0639
愉	-11.0647
玷	-11.0648
眉	-11.0649
鱗	-11.065
慝	-11.065
誇	-11.065
艾	-11.0651
悠	-11.0652
蒞	-11.0653
濂	-11.0653
薊	-11.0653
黔	-11.0654
溺	-11.0655
驍	-11.0655
幷	-11.0656
帨	-11.0657
迓	-11.066
冰	-11.0663
孳	-11.0667
臂	-11.0675
裹	-11.0675
店	-11.068
蟬	-11.0693
琰	-11.0871
賽	-11.0875
躔	-11.0884
廳	-11.0885
琬	-11.0886
姻	-11.0887
閘	-11.0888
貺	-11.0888
聊	-11.0889
械	-11.089
潁	-11.0891
敝	-11.0891
苛	-11.0891
奨	-11.0892
攀	-11.0892
悛	-11.0892
囉	-11.0893
汚	-11.0894
膝	-11.0896
蕪	-11.0897
䧏	-11.0897
卨	-11.0898
甬	-11.0898
拏	-11.0899
熱	-11.09
鎭	-11.0902
跟	-11.0902
圉	-11.0904
装	-11.0905
䆒	-11.0905
鑪	-11.0907
崖	-11.0908
圎	-11.0919
糖	-11.0938
襈	-11.0946
歙	-11.1118
棖	-11.1121
适	-11.113
顥	-11.1132
璜	-11.1132
帙	-11.1134
佇	-11.1135
阮	-11.1135
蘄	-11.1138
頥	-11.1138
霽	-11.114
瘁	-11.1141
肴	-11.1141
邈	-11.1146
騏	-11.1146
蜜	-11.1148
捉	-11.1148
竢	-11.1148
浹	-11.1375
䜛	-11.1377
婺	-11.1377
瑋	-11.1379
閠	-11.138
忭	-11.1381
揀	-11.1383
愷	-11.1385
惻	-11.1385
檄	-11.1385
渤	-11.1385
琅	-11.1386
颺	-11.1387
淪	-11.1387
闐	-11.1387
盍	-11.1388
糺	-11.1389
泄	-11.139
鮑	-11.1391
㳂	-11.1391
煖	-11.1391
盂	-11.1394
愍	-11.1394
紵	-11.1395
梧	-11.1396
狐	-11.1398
朽	-11.14
活	-11.14
跋	-11.1401
勺	-11.1404
褘	-11.1406
緋	-11.1407
塤	-11.1409
鍋	-11.1433
璉	-11.1623
靳	-11.1629
堡	-11.1631
醜	-11.1634
捷	-11.1635
旰	-11.1636
燮	-11.1636
貎	-11.1638
廨	-11.1638
顛	-11.164
舶	-11.1643
鋒	-11.1646
疲	-11.1647
邕	-11.1652
圃	-11.1653
嬰	-11.1654
舌	-11.1656
脂	-11.1659
絛	-11.166
埽	-11.1671
牡	-11.168
圈	-11.1681
鉦	-11.1688
邃	-11.1898
樣	-11.1898
頤	-11.1898
㒒	-11.1898
筠	-11.1899
鋐	-11.1902
購	-11.1906
閹	-11.1907
駟	-11.1907
遹	-11.1907
撃	-11.1909
蛇	-11.1909
軄	-11.1911
株	-11.1912
奭	-11.1912
舁	-11.1914
猾	-11.1914
篋	-11.1915
穡	-11.1915
塑	-11.1916
筐	-11.1916
讎	-11.192
摺	-11.1921
嶠	-11.1922
糓	-11.1922
轅	-11.1924
韭	-11.1925
瑁	-11.194
郕	-11.2154
棠	-11.2165
瀋	-11.2168
苖	-11.2169
翀	-11.2169
雹	-11.2171
届	-11.2171
涕	-11.2172
悃	-11.2175
拊	-11.2175
魂	-11.2176
逋	-11.2176
聶	-11.2177
匙	-11.2177
苟	-11.2178
剥	-11.2178
叚	-11.2179
闥	-11.218
毓	-11.218
躐	-11.218
漿	-11.2183
溫	-11.2185
疫	-11.2186
䧟	-11.2188
穢	-11.219
靠	-11.219
裡	-11.2191
暁	-11.2196
槍	-11.2226
椀	-11.2241
蒋	-11.2437
珙	-11.2441
殁	-11.2445
鏊	-11.2445
勃	-11.2449
鴈	-11.2449
濙	-11.245
哥	-11.2451
纎	-11.2451
蹤	-11.2451
犬	-11.2451
拳	-11.2453
姆	-11.2455
慙	-11.2456
隐	-11.2456
㳟	-11.2457
懈	-11.2459
驢	-11.246
鈕	-11.246
刁	-11.246
儻	-11.2462
鏗	-11.2465
槖	-11.2466
卦	-11.2478
毆	-11.248
牝	-11.2493
駞	-11.25
杭	-11.2682
睢	-11.2708
犂	-11.2722
諏	-11.2723
瓜	-11.2723
䑕	-11.2729
璘	-11.2731
禕	-11.2731
憾	-11.2731
捲	-11.2733
擴	-11.2737
虗	-11.2738
液	-11.2738
勦	-11.2739
牖	-11.2739
濡	-11.274
譚	-11.2742
㐮	-11.2743
灑	-11.2743
僊	-11.2744
紘	-11.2744
𦕈	-11.2744
翎	-11.2744
浪	-11.2747
蒐	-11.2748
捨	-11.2748
雁	-11.2748
矛	-11.2749
疵	-11.2749
繚	-11.2752
籀	-11.2757
襯	-11.2758
胸	-11.2763
駒	-11.277
礮	-11.2777
祺	-11.3012
藺	-11.3016
卡	-11.3017
詮	-11.3023
球	-11.3025
濕	-11.3028
瑣	-11.3028
藎	-11.3028
聫	-11.3029
涯	-11.3032
隰	-11.3033
寂	-11.3033
讌	-11.3033
遄	-11.3033
鏜	-11.3034
猥	-11.3034
諛	-11.3035
樽	-11.3035
慚	-11.3035
斁	-11.3038
晷	-11.3038
狡	-11.3039
剖	-11.3039
牋	-11.3042
釀	-11.3042
旛	-11.3043
床	-11.3044
儤	-11.3046
牐	-11.3048
攙	-11.3051
喚	-11.3052
翻	-11.3053
両	-11.3068
鍚	-11.3308
峒	-11.3309
罵	-11.3323
猗	-11.3327
嫉	-11.3328
泳	-11.3331
戡	-11.3333
諂	-11.3334
綍	-11.3335
犁	-11.3335
衿	-11.3336
蝗	-11.3336
闊	-11.3336
㒺	-11.3337
郝	-11.3338
亥	-11.3338
翕	-11.3338
莖	-11.3338
偷	-11.334
虢	-11.334
伎	-11.334
珩	-11.3341
浴	-11.3342
騶	-11.3343
旻	-11.3343
数	-11.3343
巻	-11.3343
丸	-11.3344
飄	-11.3346
劑	-11.3347
杯	-11.335
邏	-11.3351
尅	-11.3351
擡	-11.3351
碣	-11.3352
浄	-11.3353
兊	-11.3356
縠	-11.3357
淆	-11.3358
趺	-11.3371
俳	-11.3371
鬢	-11.3372
斟	-11.3634
址	-11.3634
琛	-11.3636
僞	-11.3637
贇	-11.3637
濤	-11.3641
偁	-11.3643
僎	-11.3644
嗜	-11.3644
粲	-11.3645
彝	-11.3645
豳	-11.3646
暘	-11.3647
榆	-11.3647
倂	-11.3648
鶻	-11.3649
駢	-11.3651
蘊	-11.3652
挑	-11.3653
歿	-11.3655
膚	-11.3657
拭	-11.3658
潰	-11.3658
舖	-11.3658
晴	-11.3659
碎	-11.366
洩	-11.3661
堰	-11.3664
飼	-11.3665
堤	-11.3666
殯	-11.3671
陂	-11.3671
髤	-11.3672
烹	-11.3672
蘿	-11.3679
叠	-11.3953
隲	-11.3957
衘	-11.3959
姿	-11.3961
璲	-11.3963
搢	-11.3964
啇	-11.3965
牟	-11.3965
蓍	-11.3966
泌	-11.3967
倭	-11.3967
珥	-11.3967
羨	-11.3967
撮	-11.3967
哷	-11.3968
梯	-11.3969
燿	-11.3969
迂	-11.3969
纉	-11.397
苞	-11.3972
傲	-11.3972
埒	-11.3973
企	-11.3973
䋲	-11.3974
伋	-11.3974
坫	-11.3974
曜	-11.3975
低	-11.3975
恁	-11.3975
闌	-11.3976
薰	-11.3976
驤	-11.3977
鄴	-11.3977
聮	-11.3981
鷺	-11.3981
琢	-11.3984
哇	-11.3985
囑	-11.3986
債	-11.3988
絨	-11.399
股	-11.3994
罇	-11.3995
峯	-11.3997
虡	-11.4003
盝	-11.4008
衾	-11.429
倬	-11.4294
挽	-11.4294
峩	-11.4294
扁	-11.4298
鳩	-11.4299
它	-11.4301
璿	-11.4301
埸	-11.4301
臆	-11.4303
阯	-11.4304
甎	-11.4304
沽	-11.4306
袒	-11.4306
悚	-11.4306
姬	-11.4307
灋	-11.4307
醋	-11.4308
錮	-11.4309
蟒	-11.4309
皓	-11.431
雇	-11.4314
緦	-11.4316
瘠	-11.4317
粳	-11.432
屛	-11.432
摧	-11.4322
瘡	-11.4323
桶	-11.4327
霤	-11.4327
豚	-11.4332
蒔	-11.4339
竿	-11.4341
遴	-11.4632
芸	-11.4634
俺	-11.4635
殤	-11.4637
冡	-11.4637
杞	-11.4639
訾	-11.464
燧	-11.4641
汙	-11.4643
構	-11.4644
葅	-11.4644
襟	-11.4645
譬	-11.4646
航	-11.4648
砌	-11.4651
庥	-11.4651
觸	-11.4651
儐	-11.4652
懦	-11.4653
澈	-11.4654
煒	-11.4654
甌	-11.4655
溉	-11.4659
孽	-11.466
仝	-11.466
耤	-11.4661
晰	-11.4662
䂓	-11.4663
艘	-11.4663
煎	-11.4663
劵	-11.4665
電	-11.4665
杓	-11.4665
峪	-11.4666
洒	-11.4668
敔	-11.4668
扛	-11.4668
隷	-11.4668
烽	-11.4672
燔	-11.4673
糊	-11.4676
嚢	-11.4989
熺	-11.499
丗	-11.4991
氐	-11.4993
圻	-11.4993
羗	-11.4994
閨	-11.4995
璇	-11.5002
碉	-11.5003
沼	-11.5003
憶	-11.5003
稜	-11.5004
旺	-11.5005
悌	-11.5005
攜	-11.5006
讜	-11.5006
遙	-11.5006
怙	-11.5008
涓	-11.5008
吝	-11.5008
慘	-11.5009
曙	-11.5009
誡	-11.501
黷	-11.501
啻	-11.5014
剡	-11.5014
妥	-11.5016
訕	-11.5016
迷	-11.5017
愽	-11.5019
拖	-11.5019
悍	-11.5021
劒	-11.5022
庀	-11.5022
鍳	-11.5023
幞	-11.5023
翹	-11.5025
臬	-11.5026
瑑	-11.5028
狗	-11.5028
撻	-11.5029
棲	-11.503
璫	-11.5032
騙	-11.5034
盒	-11.5068
笳	-11.5089
㢤	-11.5343
寗	-11.5359
秒	-11.5365
瀘	-11.5367
嗇	-11.5369
亹	-11.5369
楨	-11.537
洶	-11.5371
灰	-11.5371
兀	-11.5371
濱	-11.5371
扆	-11.5374
飽	-11.5374
暹	-11.5374
湜	-11.5375
巢	-11.5375
凍	-11.5375
翥	-11.5378
詒	-11.5378
帕	-11.5379
炬	-11.5381
耻	-11.5382
譲	-11.5383
搏	-11.5384
糯	-11.5384
瑩	-11.5386
捜	-11.5388
鳬	-11.5388
峙	-11.539
舂	-11.539
禙	-11.5392
搭	-11.5396
腦	-11.5396
瓷	-11.5398
筋	-11.5398
檀	-11.5404
觶	-11.5409
樁	-11.5416
簨	-11.5431
匝	-11.5739
灝	-11.574
侔	-11.5747
煦	-11.5747
虹	-11.5749
复	-11.5749
裒	-11.5751
芮	-11.5752
誾	-11.5753
翺	-11.5754
瑀	-11.5755
凰	-11.576
籲	-11.576
逝	-11.5761
熾	-11.5761
怡	-11.5761
巽	-11.5761
憸	-11.5761
淄	-11.5762
欝	-11.5762
愿	-11.5763
譁	-11.5764
糶	-11.5765
愁	-11.5765
幃	-11.5766
暖	-11.5767
氲	-11.5768
柰	-11.5771
𣣔	-11.5771
墮	-11.5771
髻	-11.5772
逈	-11.5772
枯	-11.5773
壹	-11.5774
豁	-11.5777
蔓	-11.5782
翬	-11.5784
塋	-11.5784
粘	-11.5792
煜	-11.6144
綦	-11.6146
餽	-11.6148
戩	-11.6151
欄	-11.6152
腴	-11.6153
蟄	-11.6155
央	-11.6156
趍	-11.6157
頊	-11.6157
擠	-11.6158
穗	-11.6158
禳	-11.6159
歐	-11.6159
卭	-11.6159
雱	-11.616
縷	-11.6161
筯	-11.6161
妓	-11.6162
郴	-11.6162
脅	-11.6163
祼	-11.6163
絞	-11.6164
晳	-11.6164
厮	-11.6164
縀	-11.6165
豊	-11.6165
儷	-11.6165
耒	-11.6165
冷	-11.6166
沖	-11.6166
粒	-11.6167
净	-11.6167
扉	-11.6167
鎔	-11.6167
殖	-11.6168
鵲	-11.6168
廻	-11.6168
賻	-11.6168
鉛	-11.6172
菱	-11.6172
瘴	-11.6173
㨂	-11.6175
轡	-11.6178
肝	-11.6179
卺	-11.618
栱	-11.6181
擯	-11.6183
檔	-11.6184
垍	-11.6184
蓆	-11.6185
麤	-11.6187
緞	-11.619
麒	-11.6558
棫	-11.656
沅	-11.6564
杏	-11.6566
芾	-11.6566
珂	-11.6566
箸	-11.6567
㫤	-11.6567
澶	-11.6568
茗	-11.657
閶	-11.6571
塩	-11.6572
爕	-11.6572
鶚	-11.6573
栻	-11.6574
瑕	-11.6575
稟	-11.6575
型	-11.6575
繒	-11.6577
渴	-11.6578
㓕	-11.6579
饔	-11.6579
緘	-11.6581
卹	-11.6582
縻	-11.6582
寤	-11.6584
犒	-11.6585
飢	-11.6585
梗	-11.6586
宄	-11.6586
眇	-11.6586
苾	-11.6586
怯	-11.6586
蹙	-11.6587
亘	-11.6587
梨	-11.6587
柘	-11.6587
摶	-11.6588
憩	-11.6588
爪	-11.659
們	-11.6591
拙	-11.6591
綘	-11.6592
翣	-11.6592
栽	-11.6593
畆	-11.6594
裱	-11.6595
褶	-11.6596
弑	-11.6597
浤	-11.6598
藪	-11.66
鵞	-11.6601
糜	-11.6602
肘	-11.6602
柷	-11.6603
鐲	-11.6628
僑	-11.6994
雝	-11.6998
縑	-11.6999
綯	-11.7001
玘	-11.7001
宙	-11.7002
􁱈	-11.7003
轂	-11.7005
鰲	-11.7005
䏻	-11.7006
邠	-11.7008
洊	-11.7009
諍	-11.7009
晶	-11.7009
閬	-11.701
緇	-11.7012
儘	-11.7013
捍	-11.7013
燬	-11.7013
隕	-11.7013
袞	-11.7014
佗	-11.7014
謐	-11.7015
慧	-11.7016
陀	-11.7016
湮	-11.7017
苴	-11.7017
俠	-11.7018
圏	-11.7018
驂	-11.7019
喉	-11.7019
椅	-11.7021
麵	-11.7021
耄	-11.7022
頡	-11.7025
徂	-11.7025
粧	-11.7027
鈍	-11.7027
櫛	-11.703
餚	-11.7034
黝	-11.7037
单	-11.7042
窰	-11.7045
轝	-11.7079
屡	-11.7453
箕	-11.7454
汀	-11.7455
桀	-11.7455
挹	-11.7457
蘧	-11.7457
眩	-11.7458
憎	-11.7459
幙	-11.746
㐫	-11.7461
霧	-11.7462
甃	-11.7463
滂	-11.7465
禡	-11.7465
跨	-11.7466
涿	-11.7466
濃	-11.7466
締	-11.7467
宷	-11.7467
慷	-11.7468
骸	-11.7469
涂	-11.7469
稹	-11.7469
昀	-11.7469
鼇	-11.747
鬭	-11.7472
謡	-11.7472
畬	-11.7473
餐	-11.7473
僱	-11.7473
壼	-11.7473
殄	-11.7474
贅	-11.7474
盔	-11.7474
贑	-11.7475
茫	-11.7475
鬚	-11.7475
扃	-11.7476
稚	-11.7477
媚	-11.7477
剔	-11.7477
頽	-11.7477
􁲵	-11.748
婢	-11.7481
坑	-11.7481
緊	-11.7483
嫓	-11.7483
卽	-11.7484
桷	-11.7484
箎	-11.7484
嵐	-11.7489
軺	-11.7489
鉄	-11.749
滎	-11.7492
竅	-11.7493
瀝	-11.7496
滴	-11.7521
戯	-11.791
廱	-11.7921
祜	-11.7926
酤	-11.7927
㓗	-11.7928
珦	-11.793
歉	-11.7934
咫	-11.7934
菼	-11.7935
黯	-11.7935
种	-11.7936
稀	-11.7936
焜	-11.7938
喫	-11.7939
譎	-11.7939
珤	-11.7939
箠	-11.794
紱	-11.7941
鄯	-11.7942
湧	-11.7944
炫	-11.7944
恠	-11.7944
冨	-11.7944
揣	-11.7944
殃	-11.7945
璪	-11.7945
粥	-11.7945
鵷	-11.7946
鞠	-11.7946
濵	-11.7948
繅	-11.7948
盪	-11.7949
𤨏	-11.7949
䟦	-11.7949
酈	-11.7949
肺	-11.795
挿	-11.7951
匾	-11.7952
𨗳	-11.7952
寥	-11.7952
瓌	-11.7953
膽	-11.7953
皋	-11.7953
努	-11.7955
尙	-11.7956
幰	-11.7956
墾	-11.7957
鴛	-11.7958
塌	-11.7961
漂	-11.7961
弹	-11.7963
掇	-11.7965
􁆚	-11.7966
碗	-11.7968
驪	-11.7973
棒	-11.7975
砂	-11.7977
釘	-11.7978
鎛	-11.7981
串	-11.7983
褙	-11.7993
掞	-11.842
熒	-11.8426
睹	-11.8431
覊	-11.8433
岩	-11.8433
愕	-11.8434
繭	-11.8435
墩	-11.8436
躁	-11.8437
拍	-11.8437
萼	-11.8438
从	-11.8438
頋	-11.8438
裨	-11.8438
鎡	-11.8439
橐	-11.8439
荃	-11.844
詁	-11.8441
瓉	-11.8442
薈	-11.8443
櫝	-11.8444
亊	-11.8444
傚	-11.8444
𢡟	-11.8444
騫	-11.8444
島	-11.8445
儕	-11.8446
湟	-11.8446
夥	-11.8448
慟	-11.8448
笵	-11.8448
蠱	-11.8449
峽	-11.8449
黌	-11.8451
𥙷	-11.8451
讃	-11.8451
柳	-11.8451
黠	-11.8451
馘	-11.8452
診	-11.8452
胞	-11.8453
璞	-11.8453
寐	-11.8454
汎	-11.8455
哨	-11.8455
猝	-11.8455
冥	-11.8455
鬷	-11.8455
款	-11.8456
讒	-11.8456
禫	-11.8456
徠	-11.8457
狎	-11.8458
餓	-11.8458
踏	-11.8459
糗	-11.8459
纍	-11.8461
壑	-11.8461
煉	-11.8461
斵	-11.8462
檻	-11.8463
崧	-11.8463
豎	-11.8465
獬	-11.8465
堵	-11.8466
騾	-11.8485
樵	-11.8488
豬	-11.8497
鯨	-11.8945
昪	-11.895
斆	-11.8953
侄	-11.8956
縮	-11.8956
莞	-11.8957
稠	-11.8959
遡	-11.8959
窩	-11.896
猜	-11.896
嘏	-11.8961
磐	-11.8963
窟	-11.8963
羸	-11.8964
聆	-11.8964
驀	-11.8964
撿	-11.8964
鹵	-11.8965
霈	-11.8965
蘋	-11.8966
崈	-11.8966
狠	-11.8967
摛	-11.8969
吞	-11.897
敖	-11.897
熏	-11.897
縵	-11.897
絀	-11.8971
濳	-11.8972
幟	-11.8973
訏	-11.8973
檐	-11.8974
梟	-11.8974
鞶	-11.8975
廹	-11.8975
閟	-11.8975
蕎	-11.8975
屹	-11.8975
塾	-11.8975
吁	-11.8976
搶	-11.8977
羆	-11.8977
軟	-11.8978
賙	-11.8979
觥	-11.8979
羔	-11.8979
厠	-11.8981
殽	-11.8981
蝕	-11.8981
腐	-11.8982
剰	-11.8983
痊	-11.8984
挫	-11.8987
煮	-11.8988
唾	-11.8988
莱	-11.8991
頫	-11.8993
竪	-11.8995
殉	-11.8996
卉	-11.8996
傔	-11.8997
駑	-11.8997
擺	-11.8997
豸	-11.8998
麯	-11.9
釧	-11.9002
瘍	-11.9002
墊	-11.9003
碾	-11.9004
鐙	-11.9006
脊	-11.9011
纊	-11.9013
玳	-11.9015
妝	-11.9022
煬	-11.9441
嵇	-11.9491
杲	-11.9508
譛	-11.951
楞	-11.9513
巵	-11.9514
䧺	-11.9515
䘵	-11.9516
㲄	-11.9516
鄜	-11.9516
旃	-11.9517
膴	-11.9517
觚	-11.9518
􁑶	-11.9518
昶	-11.9518
兾	-11.9519
覘	-11.952
璣	-11.952
畋	-11.952
珝	-11.952
棍	-11.952
擕	-11.952
歷	-11.9523
氓	-11.9523
紂	-11.9523
獠	-11.9525
㽞	-11.9525
摠	-11.9526
杆	-11.9526
惴	-11.9527
墉	-11.9528
覇	-11.9529
斿	-11.9529
莾	-11.953
狃	-11.953
跳	-11.9531
斜	-11.9531
攽	-11.9532
虜	-11.9532
餞	-11.9532
翩	-11.9532
罸	-11.9533
忒	-11.9534
椽	-11.9534
謳	-11.9535
潦	-11.9535
郅	-11.9535
撾	-11.9535
屑	-11.9535
碟	-11.9535
斃	-11.9537
珏	-11.9537
桞	-11.9538
闇	-11.9539
鯁	-11.9541
邴	-11.9541
濛	-11.9541
耦	-11.9541
葆	-11.9542
帟	-11.9543
紆	-11.9543
祾	-11.9543
醯	-11.9544
倐	-11.9545
麴	-11.9547
呪	-11.9555
澥	-11.9555
匀	-11.9557
􁰽	-11.9569
眡	-11.9575
褾	-11.9576
簴	-11.9582
焕	-12.0082
芥	-12.009
禜	-12.009
杰	-12.0091
侁	-12.0092
譙	-12.0097
奈	-12.0099
昺	-12.0099
毖	-12.01
邲	-12.0102
禺	-12.0103
咱	-12.0103
瞿	-12.0103
嫻	-12.0104
券	-12.0104
燄	-12.0106
璨	-12.0106
窘	-12.0108
芽	-12.0108
騤	-12.0108
乍	-12.011
岀	-12.0111
曼	-12.0112
廛	-12.0112
叱	-12.0113
崙	-12.0113
𤾉	-12.0114
遘	-12.0114
奐	-12.0114
蛟	-12.0115
𢋫	-12.0115
嬉	-12.0115
珉	-12.0116
鰥	-12.0116
簒	-12.0116
冇	-12.0116
坻	-12.0116
琥	-12.0117
厪	-12.0117
抒	-12.0118
鉗	-12.0118
麝	-12.0118
澆	-12.0119
禩	-12.0119
壮	-12.0119
嫂	-12.012
冺	-12.0121
郯	-12.0122
凜	-12.0123
斑	-12.0124
酢	-12.0125
菊	-12.0125
筍	-12.0126
梲	-12.0129
祲	-12.013
籙	-12.013
鴨	-12.0131
豔	-12.0131
刃	-12.0131
鏁	-12.0131
淇	-12.0132
娼	-12.0132
匏	-12.0133
裾	-12.0134
綉	-12.0134
咏	-12.0134
夔	-12.0136
佽	-12.0139
咒	-12.014
針	-12.0141
棕	-12.0143
窖	-12.0145
罩	-12.0151
脾	-12.0153
絺	-12.0157
璵	-12.0721
踴	-12.0725
徤	-12.0729
蜡	-12.0729
剽	-12.0731
焯	-12.0732
麈	-12.0733
厄	-12.0735
氛	-12.0735
鑊	-12.0735
謇	-12.0737
楯	-12.0737
汶	-12.0737
剃	-12.0737
凋	-12.0738
讚	-12.0738
壎	-12.0738
寀	-12.0738
昩	-12.0738
涪	-12.074
胷	-12.0741
戕	-12.0741
蠡	-12.0741
竑	-12.0741
怕	-12.0742
噬	-12.0742
棣	-12.0743
酹	-12.0743
掘	-12.0743
謟	-12.0744
孩	-12.0745
霾	-12.0745
售	-12.0745
扺	-12.0746
澂	-12.0747
絁	-12.0747
襍	-12.0748
晾	-12.0748
伶	-12.0749
訶	-12.0749
盎	-12.0749
罽	-12.075
膂	-12.075
毉	-12.075
絪	-12.075
沸	-12.075
汧	-12.0751
筒	-12.0751
畤	-12.0751
厦	-12.0754
軨	-12.0754
樗	-12.0754
爍	-12.0756
輓	-12.0756
蔴	-12.0759
僮	-12.076
薑	-12.076
唆	-12.0762
賕	-12.0763
埴	-12.0765
羡	-12.0766
酥	-12.0776
耘	-12.0778
幡	-12.0784
毳	-12.0784
腿	-12.0786
糕	-12.0805
妹	-12.1381
棐	-12.1388
澗	-12.1391
莪	-12.1392
咈	-12.1395
珵	-12.1396
釡	-12.1397
鑠	-12.1397
曦	-12.1398
泯	-12.1398
逄	-12.1399
携	-12.14
輻	-12.14
溷	-12.1401
軋	-12.1402
髠	-12.1402
覦	-12.1403
洺	-12.1404
郤	-12.1404
櫺	-12.1404
詬	-12.1404
舡	-12.1405
些	-12.1406
斚	-12.1406
酧	-12.1406
杳	-12.1407
鞾	-12.1407
畯	-12.1407
曝	-12.1408
遶	-12.1408
諉	-12.141
噲	-12.141
夣	-12.141
吊	-12.1411
酺	-12.1411
据	-12.1412
昱	-12.1412
緹	-12.1413
庋	-12.1413
熲	-12.1414
愼	-12.1414
秤	-12.1414
晡	-12.1414
駰	-12.1415
潯	-12.1415
掯	-12.1415
愜	-12.1415
攅	-12.1415
輛	-12.1415
濩	-12.1416
溶	-12.1416
䨇	-12.1417
笥	-12.1417
冄	-12.1417
鋌	-12.1418
愠	-12.1419
紕	-12.142
酣	-12.142
撲	-12.1421
栐	-12.1421
敭	-12.1421
兠	-12.1422
透	-12.1422
褚	-12.1424
錞	-12.1424
婉	-12.1426
亾	-12.1427
窻	-12.1427
孕	-12.1427
扄	-12.1428
靼	-12.143
簧	-12.143
杼	-12.1431
餕	-12.1432
劔	-12.1433
秬	-12.1434
茭	-12.1434
絮	-12.1436
尖	-12.1456
鏃	-12.1467
鬰	-12.1486
漣	-12.2081
珣	-12.2087
楠	-12.2089
仭	-12.2091
釣	-12.2096
畱	-12.2098
緜	-12.2103
侗	-12.2105
逕	-12.2107
莎	-12.2107
筑	-12.2107
􁁱	-12.2107
彷	-12.2109
梭	-12.2111
櫻	-12.2112
罙	-12.2112
儁	-12.2112
劭	-12.2112
堆	-12.2114
憇	-12.2114
覔	-12.2115
皥	-12.2115
炙	-12.2115
穜	-12.2116
喝	-12.2117
怵	-12.2117
贏	-12.2118
虺	-12.2118
埃	-12.2119
挂	-12.212
恙	-12.212
慄	-12.212
繙	-12.212
臾	-12.212
扼	-12.2121
愬	-12.2121
㽅	-12.2121
釗	-12.2122
菴	-12.2122
飫	-12.2122
慾	-12.2123
廚	-12.2123
柝	-12.2123
夐	-12.2123
囂	-12.2124
窒	-12.2124
伽	-12.2125
誹	-12.2126
甯	-12.2126
鍠	-12.2126
藜	-12.2127
煇	-12.2127
嶷	-12.2127
縈	-12.2128
璩	-12.2128
紓	-12.2129
娛	-12.213
阡	-12.2131
挟	-12.2131
戀	-12.2131
瀕	-12.2132
醑	-12.2132
邯	-12.2133
鴉	-12.2133
蟻	-12.2134
糝	-12.2134
穉	-12.2134
驩	-12.2137
饎	-12.2138
騂	-12.2138
缸	-12.2139
衎	-12.2141
捶	-12.2143
鬬	-12.2143
兕	-12.2143
陌	-12.2143
欹	-12.2144
荔	-12.2144
蚩	-12.2145
韮	-12.2145
煑	-12.2146
礬	-12.2146
襦	-12.2146
聦	-12.2147
訣	-12.2149
臼	-12.2149
翳	-12.215
鞓	-12.2156
槀	-12.216
礶	-12.2161
噦	-12.2854
猊	-12.2865
柟	-12.2865
恍	-12.2866
甥	-12.2866
鉢	-12.2867
莘	-12.2868
蕆	-12.287
絢	-12.2872
諗	-12.2873
㳙	-12.2875
纚	-12.2878
澧	-12.2878
瑯	-12.2878
脇	-12.2879
鞅	-12.2879
脈	-12.288
淦	-12.2881
㦂	-12.2881
腯	-12.2882
緗	-12.2883
栖	-12.2883
謔	-12.2883
譔	-12.2884
橘	-12.2884
詡	-12.2886
鼉	-12.2886
詘	-12.2886
鼠	-12.2888
魄	-12.2889
軻	-12.2889
韎	-12.2891
沴	-12.2891
誑	-12.2891
垢	-12.2891
珀	-12.2891
彗	-12.2892
粃	-12.2892
侣	-12.2893
疚	-12.2893
昃	-12.2893
萱	-12.2893
玠	-12.2893
戛	-12.2894
錡	-12.2894
仞	-12.2894
萇	-12.2894
罏	-12.2895
謾	-12.2895
貊	-12.2896
褫	-12.2896
靺	-12.2897
褲	-12.2897
僦	-12.2897
臭	-12.2897
夭	-12.2899
搬	-12.29
瑤	-12.29
擔	-12.2901
虔	-12.2901
羈	-12.2902
瓛	-12.2902
賖	-12.2902
騁	-12.2903
鍜	-12.2904
盱	-12.2904
懃	-12.2904
冏	-12.2906
駱	-12.2906
菽	-12.2907
闘	-12.2907
茵	-12.2907
堦	-12.2907
淚	-12.2908
澣	-12.2908
逖	-12.2908
餈	-12.2908
賭	-12.2909
槨	-12.291
陬	-12.2911
禇	-12.2911
葷	-12.2911
芟	-12.2911
櫍	-12.2912
瘦	-12.2914
搨	-12.2915
醓	-12.2917
豺	-12.2919
裀	-12.292
竺	-12.292
㛰	-12.2922
杻	-12.2922
殻	-12.2924
髀	-12.2926
賸	-12.2927
􁠙	-12.2931
荳	-12.2932
釵	-12.2935
鷩	-12.2945
径	-12.2953
馥	-12.3683
彜	-12.3689
銑	-12.3697
戬	-12.3703
㕓	-12.3703
寬	-12.3704
葭	-12.3705
閥	-12.3708
烜	-12.371
慊	-12.3711
牕	-12.3712
煽	-12.3714
榦	-12.3717
䭾	-12.3718
璡	-12.3718
柵	-12.3718
躭	-12.3718
艮	-12.3719
枋	-12.372
朞	-12.372
燫	-12.372
沓	-12.372
厘	-12.372
湔	-12.3721
紿	-12.3721
軀	-12.3722
勣	-12.3722
埏	-12.3723
彘	-12.3723
屍	-12.3723
娑	-12.3723
攢	-12.3724
拗	-12.3725
姒	-12.3726
恰	-12.3727
滔	-12.3727
袤	-12.3729
乣	-12.373
怛	-12.373
俛	-12.373
袝	-12.373
叡	-12.3731
縞	-12.3731
諠	-12.3732
仆	-12.3732
敉	-12.3732
翫	-12.3732
頺	-12.3732
顏	-12.3733
剙	-12.3735
篪	-12.3735
趕	-12.3736
儔	-12.3736
㨿	-12.3737
灤	-12.3738
㽔	-12.3738
眠	-12.3739
肫	-12.374
劫	-12.374
扞	-12.3741
祓	-12.3741
朐	-12.3742
絜	-12.3742
􁐉	-12.3742
酸	-12.3743
縳	-12.3743
蠎	-12.3744
紈	-12.3744
蜂	-12.3745
躡	-12.3745
倅	-12.3746
籞	-12.3747
苔	-12.3748
鑌	-12.375
胎	-12.375
杵	-12.3757
駼	-12.376
蕉	-12.3762
矟	-12.3764
猒	-12.3767
綑	-12.3769
滚	-12.377
筴	-12.377
甡	-12.4598
郃	-12.4599
跣	-12.4608
嘿	-12.4608
縗	-12.4609
諜	-12.4611
俌	-12.4613
酇	-12.4613
邳	-12.4616
夬	-12.4618
譖	-12.4618
䜟	-12.4619
粢	-12.4621
嬖	-12.4621
籬	-12.4621
渇	-12.4622
滇	-12.4622
朌	-12.4622
蕙	-12.4622
朢	-12.4623
沭	-12.4623
韞	-12.4624
倓	-12.4624
斾	-12.4624
羹	-12.4625
渺	-12.4626
幇	-12.4626
窓	-12.4626
魅	-12.4627
熬	-12.4627
燱	-12.4627
迯	-12.4627
麋	-12.4627
佻	-12.4628
圯	-12.4629
鼻	-12.463
澠	-12.463
斫	-12.463
琤	-12.463
糠	-12.4631
楶	-12.4632
贛	-12.4632
垓	-12.4632
呶	-12.4633
晞	-12.4633
逭	-12.4633
薇	-12.4634
禰	-12.4634
搖	-12.4634
㓙	-12.4634
逡	-12.4635
榭	-12.4635
瑰	-12.4635
琶	-12.4635
竚	-12.4635
歧	-12.4636
汁	-12.4636
菌	-12.4636
拷	-12.4636
讋	-12.4637
垠	-12.4637
仄	-12.4637
浣	-12.4637
鍧	-12.4637
惲	-12.4638
爨	-12.4638
妬	-12.4639
㕑	-12.4639
殳	-12.464
閧	-12.464
蹄	-12.4641
賠	-12.4641
㙺	-12.4641
惹	-12.4642
垜	-12.4643
関	-12.4643
詛	-12.4643
㝢	-12.4644
蘂	-12.4644
蚪	-12.4644
餳	-12.4644
蓉	-12.4645
衕	-12.4645
週	-12.4645
泓	-12.4646
毬	-12.4646
塼	-12.4648
麩	-12.4648
聪	-12.4648
鶉	-12.4649
弧	-12.4649
韍	-12.465
毀	-12.4651
簟	-12.4652
瓣	-12.4652
棚	-12.4653
醃	-12.4654
㠯	-12.4655
稌	-12.4656
迦	-12.4657
彫	-12.4658
矇	-12.466
獮	-12.4661
饜	-12.4663
羙	-12.4664
瑱	-12.4664
紃	-12.4666
忩	-12.4668
涘	-12.4674
槌	-12.4674
祅	-12.4675
掦	-12.5596
坪	-12.5601
熞	-12.5601
祹	-12.5608
碁	-12.5608
刮	-12.561
嘖	-12.5612
椘	-12.5613
鏹	-12.5614
㤀	-12.5614
蕚	-12.5615
詈	-12.5615
价	-12.5616
槽	-12.5616
嬸	-12.5616
皿	-12.5616
艶	-12.5616
廆	-12.5617
珽	-12.5618
棻	-12.5618
𤯝	-12.5618
删	-12.5619
暄	-12.562
党	-12.562
蹶	-12.562
璀	-12.562
璠	-12.5621
鋟	-12.5623
瓏	-12.5625
昬	-12.5625
產	-12.5625
軆	-12.5625
悮	-12.5625
荼	-12.5627
屆	-12.5627
畔	-12.5627
洱	-12.5627
傭	-12.5627
劬	-12.5628
趂	-12.5629
賾	-12.5629
豢	-12.5629
態	-12.5629
叵	-12.5629
褊	-12.5629
泐	-12.563
蓼	-12.563
㪷	-12.5631
猖	-12.5631
緌	-12.5632
蒿	-12.5632
狁	-12.5633
愒	-12.5633
閙	-12.5633
愎	-12.5634
𣺌	-12.5634
迅	-12.5634
艧	-12.5635
飪	-12.5635
耐	-12.5635
醒	-12.5635
瞞	-12.5635
霓	-12.5636
碌	-12.5636
皎	-12.5636
袂	-12.5637
㝎	-12.5637
墟	-12.5637
巂	-12.5637
漪	-12.5637
晅	-12.5637
詿	-12.5638
衂	-12.5638
惮	-12.5638
釴	-12.5638
訝	-12.5639
慣	-12.5639
掊	-12.5639
媵	-12.5639
鄖	-12.564
葫	-12.564
殛	-12.564
僃	-12.564
鋤	-12.564
炤	-12.5641
蟾	-12.5641
泝	-12.5641
捄	-12.5641
燼	-12.5641
縟	-12.5641
鈺	-12.5642
愔	-12.5642
䢩	-12.5642
溟	-12.5643
攤	-12.5644
峘	-12.5645
肱	-12.5645
畎	-12.5646
矍	-12.5646
礦	-12.5646
橫	-12.5646
涎	-12.5646
媛	-12.5648
踪	-12.5648
頷	-12.5648
礱	-12.5649
箔	-12.5649
酪	-12.565
螺	-12.565
嵌	-12.565
袪	-12.565
塡	-12.565
爻	-12.5651
菑	-12.5651
髴	-12.5651
欒	-12.5652
燻	-12.5652
毯	-12.5653
楓	-12.5654
驁	-12.5654
氂	-12.5655
燁	-12.5655
髣	-12.5655
澳	-12.5656
擲	-12.5656
窠	-12.5656
翦	-12.5657
抺	-12.5659
吻	-12.566
宓	-12.5661
曵	-12.5661
鼗	-12.5664
杉	-12.567
秣	-12.567
誆	-12.5671
恡	-12.5674
襴	-12.5677
􁈭	-12.5691
栲	-12.5693
娣	-12.5702
凑	-12.6708
夑	-12.671
雯	-12.6711
穏	-12.6713
戞	-12.6714
隮	-12.6716
澇	-12.672
郇	-12.6722
抉	-12.6725
蠅	-12.6725
鎰	-12.6726
縦	-12.6727
諺	-12.6728
笈	-12.6729
浡	-12.6729
𫀆	-12.673
煤	-12.6731
羾	-12.6731
拈	-12.6731
滙	-12.6732
鄞	-12.6733
曳	-12.6733
朘	-12.6733
槊	-12.6733
淶	-12.6733
袵	-12.6734
峰	-12.6734
醪	-12.6735
藕	-12.6735
詫	-12.6737
咄	-12.6737
蔭	-12.6737
紼	-12.6738
鍵	-12.6738
擗	-12.6738
譌	-12.6741
螣	-12.6741
宼	-12.6741
魘	-12.6741
釜	-12.6742
牂	-12.6742
蕘	-12.6743
椎	-12.6743
飴	-12.6743
燥	-12.6745
丏	-12.6745
黥	-12.6745
霏	-12.6746
㐲	-12.6746
葩	-12.6746
峕	-12.6747
嘱	-12.6747
厝	-12.6747
悒	-12.6747
鱣	-12.6747
曄	-12.6748
烙	-12.6748
卲	-12.6748
佶	-12.6748
虬	-12.6748
憺	-12.6749
鵰	-12.675
殞	-12.675
娘	-12.675
搃	-12.6751
訢	-12.6751
淋	-12.6751
榷	-12.6752
煃	-12.6752
甕	-12.6752
甦	-12.6753
褻	-12.6754
嘯	-12.6754
賃	-12.6754
縛	-12.6754
殱	-12.6755
𨼆	-12.6755
穫	-12.6755
卻	-12.6756
吸	-12.6756
胖	-12.6756
缶	-12.6756
宁	-12.6756
倩	-12.6756
揄	-12.6756
狸	-12.6757
霆	-12.6757
茄	-12.6757
茸	-12.6757
熖	-12.6757
䛕	-12.6757
鄢	-12.6758
滓	-12.6759
偵	-12.6759
啼	-12.6759
藿	-12.676
漬	-12.6761
𦍑	-12.6762
啖	-12.6763
熄	-12.6763
櫈	-12.6764
衒	-12.6764
漲	-12.6767
馹	-12.6767
蔥	-12.6768
饉	-12.6768
􁨹	-12.6771
朏	-12.6773
枲	-12.6779
俵	-12.6779
凾	-12.6779
莢	-12.6787
磑	-12.6788
禑	-12.6792
腫	-12.6828
膊	-12.6831
儈	-12.7957
悵	-12.796
瞎	-12.796
沗	-12.7962
顗	-12.7965
悽	-12.7966
砦	-12.7968
俁	-12.7969
耽	-12.797
悳	-12.7971
㸑	-12.7971
伉	-12.7972
觖	-12.7973
墁	-12.7974
腑	-12.7975
暎	-12.7975
燉	-12.7975
禠	-12.7976
橙	-12.7978
偰	-12.7978
峴	-12.7979
犆	-12.7979
莆	-12.7979
鞨	-12.7979
擣	-12.798
抜	-12.798
柬	-12.798
畦	-12.798
鉟	-12.7981
澍	-12.7982
焰	-12.7982
縡	-12.7983
峨	-12.7983
夸	-12.7983
溱	-12.7983
鄠	-12.7985
灘	-12.7985
淂	-12.7986
邜	-12.7986
韙	-12.7988
銃	-12.7988
䍐	-12.7988
嶙	-12.7988
餒	-12.7989
嗾	-12.7989
壌	-12.7989
瞭	-12.7991
頸	-12.7991
緻	-12.7992
燃	-12.7992
蜚	-12.7992
鍪	-12.7992
㬰	-12.7993
獗	-12.7993
凴	-12.7993
䜿	-12.7993
𬋩	-12.7994
錙	-12.7994
份	-12.7994
嘻	-12.7995
唇	-12.7995
嗽	-12.7996
毘	-12.7996
喏	-12.7997
嬴	-12.7997
鄲	-12.7998
㒜	-12.7998
卣	-12.7999
鑽	-12.7999
渰	-12.8
鄕	-12.8001
庄	-12.8001
牣	-12.8002
敡	-12.8003
杌	-12.8004
皚	-12.8004
埀	-12.8005
汭	-12.8005
倥	-12.8005
攔	-12.8005
鍊	-12.8005
刄	-12.8005
咳	-12.8005
眚	-12.8005
么	-12.8005
儋	-12.8006
鹻	-12.8006
莠	-12.8006
蕊	-12.8006
飰	-12.8006
港	-12.8007
蠢	-12.8007
孥	-12.8007
妍	-12.8007
遅	-12.8007
氈	-12.8008
岣	-12.8008
褡	-12.8009
彍	-12.801
宂	-12.801
戺	-12.801
緼	-12.801
蘚	-12.801
撼	-12.801
睨	-12.801
茨	-12.801
痼	-12.801
癘	-12.801
璃	-12.8011
跌	-12.8011
敺	-12.8012
楬	-12.8012
驄	-12.8012
䙏	-12.8013
紞	-12.8014
􁱵	-12.8014
萍	-12.8015
縢	-12.8016
腊	-12.8016
躱	-12.8016
柿	-12.8016
儺	-12.8016
鑚	-12.8017
湑	-12.8018
痩	-12.8019
紺	-12.802
瀼	-12.802
軏	-12.802
麂	-12.802
硬	-12.8021
磔	-12.8021
俚	-12.8022
酗	-12.8024
鶒	-12.8025
梳	-12.8025
釂	-12.8028
痕	-12.8028
鈇	-12.8028
擘	-12.8032
輈	-12.8034
竽	-12.8041
䩞	-12.8044
义	-12.8046
蓽	-12.8046
楦	-12.8046
銼	-12.805
絇	-12.8067
璐	-12.9364
弇	-12.9375
姊	-12.9377
剿	-12.9381
甍	-12.9385
􁦣	-12.939
嫩	-12.9391
戱	-12.9391
駔	-12.9392
哺	-12.9393
􁵽	-12.9394
踊	-12.94
墧	-12.9401
嶧	-12.9403
疽	-12.9404
氅	-12.9405
琨	-12.9405
桴	-12.9405
遒	-12.9406
蕞	-12.9407
瘳	-12.9407
蔕	-12.9407
璆	-12.9408
禬	-12.9408
鏌	-12.9408
蕡	-12.9408
佔	-12.9408
翛	-12.9409
剝	-12.9409
糙	-12.9409
綢	-12.941
瑚	-12.9411
与	-12.9411
杠	-12.9411
滏	-12.9411
鼂	-12.9411
鐍	-12.9412
涸	-12.9412
錬	-12.9412
窵	-12.9412
跬	-12.9412
倨	-12.9412
酳	-12.9412
疥	-12.9413
蒧	-12.9413
翮	-12.9413
讙	-12.9413
楣	-12.9414
楙	-12.9414
鑣	-12.9416
悪	-12.9417
呷	-12.9417
𬒳	-12.9417
夹	-12.9417
轢	-12.9417
聾	-12.9417
漷	-12.9417
拽	-12.9418
盩	-12.9418
勰	-12.9418
俶	-12.9418
栅	-12.9418
嘲	-12.9419
焞	-12.9419
賅	-12.942
窪	-12.942
眂	-12.942
槁	-12.942
珎	-12.9421
㺯	-12.9421
柢	-12.9422
吃	-12.9422
茁	-12.9423
糟	-12.9423
麞	-12.9423
斨	-12.9423
槃	-12.9424
秃	-12.9426
螳	-12.9426
趪	-12.9426
忮	-12.9426
嗤	-12.9426
羿	-12.9426
髹	-12.9426
箬	-12.9427
幪	-12.9428
剗	-12.9428
蘖	-12.9428
覯	-12.9428
峋	-12.9429
昴	-12.9429
戶	-12.9429
掉	-12.9429
搗	-12.9429
脞	-12.9429
懶	-12.9429
卵	-12.943
廿	-12.9431
郿	-12.9431
冤	-12.9432
磧	-12.9432
櫜	-12.9432
隗	-12.9432
薺	-12.9432
溜	-12.9432
詵	-12.9432
刹	-12.9432
伾	-12.9435
菓	-12.9435
埭	-12.9435
盌	-12.9435
骳	-12.9436
耨	-12.9438
黛	-12.9438
悊	-12.9438
慱	-12.9438
􁬀	-12.9439
鐄	-12.944
狭	-12.9441
炊	-12.9441
淩	-12.9441
孛	-12.9441
㦯	-12.9441
炯	-12.9441
芙	-12.9441
柚	-12.9441
鑼	-12.9441
澁	-12.9442
棊	-12.9442
显	-12.9443
哄	-12.9444
澮	-12.9444
赭	-12.9445
鋋	-12.9445
綳	-12.9446
蹂	-12.9446
烱	-12.9446
塚	-12.9446
湍	-12.9448
鐶	-12.9448
胃	-12.9448
揔	-12.9449
殪	-12.9449
藐	-12.945
檤	-12.945
旐	-12.9451
箧	-12.9451
醤	-12.9451
刲	-12.9453
橦	-12.9455
茇	-12.9456
嶼	-12.9456
旈	-12.9457
藳	-12.9458
蚕	-12.9458
􁃻	-12.9459
罐	-12.9461
默	-12.9465
𥙿	-12.9465
􁂣	-12.9471
􁰖	-12.9474
珧	-12.9477
臀	-12.9478
龐	-12.9481
拌	-12.9512
剩	-12.9513
頰	-13.0939
楀	-13.1012
瀟	-13.1028
琊	-13.1031
驌	-13.1047
甜	-13.1056
宕	-13.1056
佟	-13.1058
曈	-13.1059
岌	-13.1059
巒	-13.106
鯈	-13.1061
貤	-13.1062
頖	-13.1062
晃	-13.1064
䍧	-13.1064
獐	-13.1064
駙	-13.1065
翅	-13.1065
瓞	-13.1065
慥	-13.1066
勱	-13.1066
喘	-13.1067
搴	-13.1069
誚	-13.107
滆	-13.1071
揜	-13.1071
磴	-13.1072
齍	-13.1072
郛	-13.1073
箝	-13.1073
䟎	-13.1074
玖	-13.1075
苻	-13.1075
瓮	-13.1077
泠	-13.1077
祏	-13.1077
湼	-13.1077
葳	-13.1078
凳	-13.1078
湎	-13.1078
虣	-13.1078
澔	-13.1078
蕐	-13.1078
斐	-13.1079
邍	-13.1079
爚	-13.108
艦	-13.108
肌	-13.108
沱	-13.1081
㩀	-13.1082
賨	-13.1082
媕	-13.1082
坍	-13.1082
撝	-13.1082
擦	-13.1082
崐	-13.1082
蓂	-13.1082
槱	-13.1083
恚	-13.1083
槧	-13.1084
諼	-13.1084
􁂻	-13.1084
丼	-13.1085
呻	-13.1086
矗	-13.1087
蓁	-13.1087
匆	-13.1087
捫	-13.1087
謭	-13.1088
沌	-13.1088
蓀	-13.1088
鷙	-13.1088
柑	-13.109
綟	-13.109
琇	-13.109
孀	-13.1091
璹	-13.1091
闍	-13.1091
潑	-13.1091
摰	-13.1091
臡	-13.1092
蔞	-13.1092
煨	-13.1092
賒	-13.1092
鈁	-13.1092
篁	-13.1093
娯	-13.1093
杪	-13.1093
奩	-13.1093
煓	-13.1093
躅	-13.1094
硝	-13.1094
衺	-13.1094
怫	-13.1094
献	-13.1094
娱	-13.1094
銕	-13.1094
剸	-13.1094
耜	-13.1095
綖	-13.1095
坏	-13.1095
悝	-13.1095
鶯	-13.1095
攖	-13.1096
亰	-13.1096
𬗟	-13.1096
眎	-13.1097
袐	-13.1097
䌓	-13.1098
幵	-13.1099
艷	-13.1099
壟	-13.11
堧	-13.11
昵	-13.11
耋	-13.11
糈	-13.11
踣	-13.1102
儗	-13.1102
塜	-13.1102
懾	-13.1102
頁	-13.1103
瞰	-13.1103
􁈍	-13.1103
梵	-13.1103
惋	-13.1103
畸	-13.1103
轟	-13.1104
褁	-13.1104
凂	-13.1104
壷	-13.1104
鞬	-13.1105
擿	-13.1105
蒜	-13.1105
喙	-13.1106
漓	-13.1106
摸	-13.1106
矼	-13.1106
欖	-13.1106
邋	-13.1107
敲	-13.1107
蓐	-13.1108
禴	-13.1108
筩	-13.1108
酆	-13.1109
箙	-13.111
腆	-13.111
攺	-13.111
縊	-13.1111
擄	-13.1111
􁰋	-13.1111
鞮	-13.1112
繽	-13.1112
饟	-13.1112
軷	-13.1113
飱	-13.1113
悶	-13.1114
炮	-13.1115
秸	-13.1115
棧	-13.1116
跛	-13.1116
缷	-13.1116
靑	-13.1117
淖	-13.1117
棹	-13.1117
楸	-13.1118
値	-13.1119
糞	-13.1119
麄	-13.1119
鍉	-13.112
懵	-13.112
麀	-13.112
楎	-13.1122
囷	-13.1123
諝	-13.1123
阪	-13.1125
筝	-13.1126
揩	-13.1128
裼	-13.1129
术	-13.1131
畵	-13.1131
您	-13.1135
蹲	-13.1139
襠	-13.1141
攫	-13.1148
褠	-13.1156
䙆	-13.116
笠	-13.1165
埔	-13.3014
凹	-13.3021
唘	-13.3031
扳	-13.3044
燇	-13.3048
禔	-13.3048
䃰	-13.3049
彂	-13.305
磋	-13.3051
鋏	-13.3052
圅	-13.3052
濊	-13.3052
姨	-13.3052
戅	-13.3055
摐	-13.3056
芑	-13.3056
綈	-13.3058
袛	-13.3059
芘	-13.3061
溍	-13.3061
岫	-13.3063
仔	-13.3063
猺	-13.3063
弃	-13.3063
盭	-13.3063
暠	-13.3064
癉	-13.3065
琿	-13.3065
䘙	-13.3065
趋	-13.3065
侫	-13.3066
棼	-13.3067
瞳	-13.3067
鬆	-13.3068
諦	-13.3069
洄	-13.3069
㝡	-13.307
霪	-13.307
剜	-13.307
磷	-13.307
嚼	-13.3071
衊	-13.3071
諶	-13.3072
嶸	-13.3072
汔	-13.3072
离	-13.3072
䂎	-13.3072
鄺	-13.3072
瑢	-13.3072
榱	-13.3073
汩	-13.3074
㩁	-13.3075
騑	-13.3076
礫	-13.3076
􁃽	-13.3076
瘝	-13.3077
㗖	-13.3078
餻	-13.3078
曁	-13.3078
旴	-13.3078
莒	-13.3078
睽	-13.3078
窈	-13.3079
悰	-13.3079
舩	-13.3079
匄	-13.308
耑	-13.3081
呌	-13.3081
咲	-13.3082
坰	-13.3082
髯	-13.3082
籛	-13.3082
濰	-13.3082
盼	-13.3082
譟	-13.3082
獞	-13.3082
瀣	-13.3083
曖	-13.3083
䥴	-13.3083
筞	-13.3084
扑	-13.3084
瓠	-13.3084
􁜜	-13.3084
媧	-13.3084
娠	-13.3084
瞑	-13.3084
廙	-13.3085
鄊	-13.3085
􁧂	-13.3085
懣	-13.3086
嘶	-13.3086
諴	-13.3086
甓	-13.3086
鷖	-13.3086
嫋	-13.3086
漾	-13.3086
翿	-13.3086
眊	-13.3087
賍	-13.3087
峭	-13.3087
坂	-13.3088
捱	-13.3088
体	-13.3088
憊	-13.3088
螗	-13.3088
䄂	-13.3089
𠞰	-13.3089
濼	-13.309
堊	-13.309
聃	-13.309
酎	-13.309
酏	-13.3091
樉	-13.3091
緍	-13.3091
蜃	-13.3091
鱻	-13.3092
踞	-13.3092
剉	-13.3092
飡	-13.3092
篦	-13.3093
玄	-13.3093
畛	-13.3094
羯	-13.3094
万	-13.3094
欬	-13.3094
琉	-13.3094
鑛	-13.3094
艫	-13.3094
淅	-13.3094
耉	-13.3095
韡	-13.3096
矚	-13.3096
錚	-13.3096
笄	-13.3096
㡳	-13.3096
鶡	-13.3097
撞	-13.3098
婪	-13.3098
穣	-13.3098
儇	-13.3098
肜	-13.3098
鳶	-13.3099
荏	-13.3099
鄔	-13.3099
暵	-13.31
荻	-13.31
尢	-13.3101
鐔	-13.3102
甿	-13.3102
篩	-13.3103
暏	-13.3103
徯	-13.3103
祛	-13.3103
鹹	-13.3103
􁌁	-13.3103
妺	-13.3104
彙	-13.3105
𢷬	-13.3105
臥	-13.3105
歹	-13.3105
轘	-13.3105
跂	-13.3105
髓	-13.3105
覷	-13.3105
騝	-13.3105
揉	-13.3106
暐	-13.3106
槎	-13.3106
涌	-13.3106
虖	-13.3106
迕	-13.3107
􁋭	-13.3107
瑲	-13.3107
糒	-13.3108
抛	-13.3108
哆	-13.3108
昫	-13.3109
綻	-13.3109
捃	-13.3109
玽	-13.3109
佺	-13.311
嚞	-13.311
飶	-13.311
阨	-13.311
灞	-13.3111
彀	-13.3111
鍛	-13.3111
袠	-13.3112
桍	-13.3112
碭	-13.3112
􁐔	-13.3112
噴	-13.3113
郾	-13.3114
裊	-13.3114
閼	-13.3115
埜	-13.3115
螽	-13.3115
撑	-13.3116
醽	-13.3116
􁀐	-13.3116
挏	-13.3117
顚	-13.3117
皪	-13.3117
籹	-13.3118
纈	-13.3118
珞	-13.3119
浥	-13.3119
弨	-13.3119
埶	-13.312
􁦝	-13.312
爇	-13.312
豉	-13.3121
䩺	-13.3121
鍔	-13.3122
掎	-13.3123
湞	-13.3123
鍇	-13.3124
暱	-13.3124
秔	-13.3125
洢	-13.3126
淀	-13.3126
𢃄	-13.3128
潄	-13.3128
隧	-13.3128
鏄	-13.3129
蔔	-13.313
逌	-13.313
閃	-13.3131
屩	-13.3131
旜	-13.3132
龢	-13.3136
湫	-13.3136
插	-13.3137
咮	-13.3138
噪	-13.3142
鮫	-13.3152
虯	-13.3159
𤇺	-13.3161
䀋	-13.3174
瀉	-13.3175
鄣	-13.3178
鏑	-13.3219
琯	-13.5489
滬	-13.5525
寯	-13.5526
勷	-13.5527
簉	-13.5529
鎩	-13.5531
𥜗	-13.5535
欎	-13.5536
漙	-13.5538
璂	-13.5539
䆮	-13.5542
謖	-13.5542
畇	-13.5542
喆	-13.5546
鬲	-13.5546
玹	-13.5546
炅	-13.5549
瀦	-13.5549
旼	-13.5549
楩	-13.5549
噉	-13.555
囙	-13.5552
餗	-13.5553
湊	-13.5554
磂	-13.5556
攣	-13.5556
璚	-13.5556
􁱥	-13.5557
芷	-13.5557
墺	-13.5558
碞	-13.5558
靉	-13.5559
髽	-13.556
棌	-13.556
椓	-13.556
莩	-13.5561
崗	-13.5561
瑺	-13.5563
貰	-13.5563
騄	-13.5564
曏	-13.5564
咩	-13.5564
馡	-13.5565
刓	-13.5565
􁫼	-13.5567
榴	-13.5567
咽	-13.5567
剋	-13.5568
巇	-13.5568
瀍	-13.5568
幬	-13.557
孱	-13.557
僂	-13.5571
怎	-13.5571
擷	-13.5571
唫	-13.5572
甑	-13.5572
罟	-13.5573
哮	-13.5574
稗	-13.5574
箐	-13.5574
靶	-13.5574
喃	-13.5575
樟	-13.5575
塏	-13.5575
饍	-13.5577
玲	-13.5577
啜	-13.5577
机	-13.5577
綷	-13.5577
巘	-13.5577
曇	-13.5577
瞍	-13.5577
緄	-13.5578
騖	-13.5578
肸	-13.5578
凃	-13.5578
愾	-13.5579
柎	-13.5579
冑	-13.558
萭	-13.5581
檉	-13.5581
菅	-13.5581
媮	-13.5581
偘	-13.5581
旉	-13.5581
苹	-13.5581
慵	-13.5581
鮒	-13.5582
桱	-13.5582
杗	-13.5583
蒯	-13.5583
賮	-13.5583
撡	-13.5583
䊸	-13.5583
鄫	-13.5584
􁀎	-13.5584
暌	-13.5584
􁁷	-13.5584
佘	-13.5585
墄	-13.5585
癡	-13.5586
玭	-13.5586
鋸	-13.5586
娟	-13.5586
桄	-13.5586
暝	-13.5586
惔	-13.5586
慫	-13.5586
曍	-13.5586
贐	-13.5586
墅	-13.5587
檟	-13.5589
惨	-13.5589
卸	-13.5589
柅	-13.5589
簭	-13.559
雛	-13.559
埱	-13.559
跽	-13.559
僇	-13.559
迸	-13.559
醅	-13.559
􁁂	-13.5591
箆	-13.5592
嫚	-13.5592
廋	-13.5592
儹	-13.5592
凊	-13.5592
狙	-13.5592
无	-13.5593
恫	-13.5593
㶚	-13.5593
换	-13.5593
䵼	-13.5593
閆	-13.5593
蜮	-13.5594
炌	-13.5594
渚	-13.5595
蜿	-13.5595
洸	-13.5595
髫	-13.5595
刖	-13.5595
𡨕	-13.5596
僵	-13.5596
鶱	-13.5596
勩	-13.5596
嵓	-13.5596
逥	-13.5596
极	-13.5596
嶲	-13.5597
纖	-13.5597
蚡	-13.5597
灸	-13.5597
犖	-13.5597
頹	-13.5598
檝	-13.5598
轔	-13.5599
吒	-13.5599
邙	-13.5599
猳	-13.5599
癭	-13.56
峡	-13.56
栝	-13.56
兑	-13.5601
訇	-13.5601
褎	-13.5601
佯	-13.5601
螟	-13.5601
忙	-13.5602
鏸	-13.5602
蘷	-13.5602
辝	-13.5602
韗	-13.5603
畊	-13.5603
㵼	-13.5603
窆	-13.5604
􁝠	-13.5604
猫	-13.5604
劓	-13.5604
烺	-13.5604
塹	-13.5604
颷	-13.5605
讟	-13.5606
晤	-13.5606
梢	-13.5606
攴	-13.5606
皃	-13.5606
榼	-13.5606
漶	-13.5607
濞	-13.5607
隤	-13.5607
楗	-13.5607
禅	-13.5607
桎	-13.5607
彎	-13.5607
獺	-13.5607
櫟	-13.5608
郄	-13.5608
嬾	-13.5608
襁	-13.5608
䞇	-13.5608
鄡	-13.5609
蹴	-13.561
轆	-13.561
魴	-13.561
庳	-13.561
勔	-13.561
遯	-13.561
坌	-13.5611
胝	-13.5611
窳	-13.5611
攪	-13.5613
堠	-13.5613
麌	-13.5613
匯	-13.5613
鎕	-13.5614
􁇠	-13.5614
貍	-13.5614
旹	-13.5614
瓴	-13.5614
厓	-13.5615
凄	-13.5615
腋	-13.5617
皴	-13.5617
䴡	-13.5617
姫	-13.5617
猴	-13.5617
殹	-13.5617
􁲼	-13.5618
哽	-13.5618
汜	-13.5618
盲	-13.5618
繢	-13.5619
坯	-13.5621
叭	-13.5621
淤	-13.5621
脣	-13.5621
澫	-13.5622
梡	-13.5622
虀	-13.5622
褭	-13.5622
磅	-13.5624
霙	-13.5624
憬	-13.5625
貉	-13.5625
瘢	-13.5625
舫	-13.5625
厩	-13.5625
輜	-13.5628
烖	-13.5629
辠	-13.5629
瓔	-13.5629
鼈	-13.5629
冓	-13.5629
鷂	-13.5631
隼	-13.5632
礎	-13.5632
矮	-13.5635
襻	-13.5635
娥	-13.5636
睡	-13.5639
菉	-13.5639
眺	-13.564
鑱	-13.5641
􁞿	-13.5643
紒	-13.5644
旟	-13.5644
鞗	-13.5645
瀑	-13.5646
㸁	-13.5646
穽	-13.5649
晒	-13.5651
弘	-13.5651
誄	-13.5653
羖	-13.5657
鍭	-13.5658
柭	-13.5661
攛	-13.5667
痺	-13.5716
孶	-13.8793
榘	-13.8826
泫	-13.8833
謩	-13.8839
􁧨	-13.8845
曔	-13.8849
㘴	-13.8851
硌	-13.8862
暈	-13.8862
􁎾	-13.8862
爉	-13.8862
僔	-13.8864
鄷	-13.8864
脛	-13.887
隍	-13.8871
窯	-13.8872
飈	-13.8874
玒	-13.8876
㑭	-13.8876
芋	-13.8877
飜	-13.8878
褆	-13.8878
顕	-13.8878
昐	-13.888
㥄	-13.8881
䆅	-13.8882
湄	-13.8882
趲	-13.8882
覓	-13.8883
郟	-13.8883
曛	-13.8883
釪	-13.8883
扱	-13.8884
毼	-13.8884
蕳	-13.8884
筌	-13.8885
詼	-13.8885
霦	-13.8885
詧	-13.8885
嫗	-13.8885
薧	-13.8885
聒	-13.8887
胾	-13.8889
脆	-13.8889
葸	-13.8889
尓	-13.8891
勻	-13.8891
狷	-13.8891
儳	-13.8891
遨	-13.8891
驃	-13.8891
蒨	-13.8893
􁁄	-13.8893
咤	-13.8893
彯	-13.8893
笲	-13.8893
鵔	-13.8893
劼	-13.8894
犴	-13.8895
裭	-13.8895
剮	-13.8895
嘴	-13.8895
鋠	-13.8897
櫿	-13.8897
肻	-13.8897
芊	-13.8897
营	-13.8897
茟	-13.8899
蟊	-13.8899
糲	-13.8899
􁫭	-13.8899
㢮	-13.8901
䆠	-13.8901
獒	-13.8901
醵	-13.8901
熨	-13.8901
鶬	-13.8901
闓	-13.8901
揷	-13.8903
罅	-13.8903
塈	-13.8903
淞	-13.8903
礽	-13.8903
膩	-13.8903
鷗	-13.8903
􁌫	-13.8903
匳	-13.8903
骰	-13.8903
嘛	-13.8904
桁	-13.8904
酴	-13.8904
餤	-13.8905
楛	-13.8905
灶	-13.8905
尃	-13.8905
橡	-13.8906
腸	-13.8907
叫	-13.8907
㳫	-13.8907
嗷	-13.8907
媟	-13.8907
疷	-13.8907
脤	-13.8907
裸	-13.8907
郜	-13.8908
澨	-13.8909
銚	-13.8909
芃	-13.8909
棓	-13.8909
贜	-13.8909
皦	-13.8909
矅	-13.8909
􁋌	-13.8909
毡	-13.891
兌	-13.891
樾	-13.891
閴	-13.891
皜	-13.8911
闖	-13.8911
祸	-13.8911
橈	-13.8911
腥	-13.8911
晬	-13.8911
澐	-13.8911
鋩	-13.8912
輀	-13.8912
广	-13.8912
澡	-13.8912
篷	-13.8912
􁐍	-13.8912
珓	-13.8912
冋	-13.8914
佖	-13.8914
橔	-13.8914
箾	-13.8914
穂	-13.8914
鶄	-13.8914
沠	-13.8914
嶢	-13.8914
瑠	-13.8914
輗	-13.8914
樑	-13.8916
捎	-13.8916
骩	-13.8916
灊	-13.8916
鄹	-13.8916
懟	-13.8916
踧	-13.8916
蒂	-13.8916
迢	-13.8916
梏	-13.8918
遝	-13.8918
総	-13.8918
㻞	-13.8918
䏈	-13.8918
帆	-13.8918
婣	-13.8918
渑	-13.8918
筤	-13.8918
荇	-13.8918
厖	-13.8919
埈	-13.892
鬛	-13.892
䓁	-13.892
徨	-13.892
萹	-13.892
娎	-13.892
灃	-13.892
偝	-13.8921
珊	-13.8922
籓	-13.8922
綆	-13.8922
㳄	-13.8922
䆳	-13.8922
睇	-13.8922
䁥	-13.8922
櫬	-13.8922
萐	-13.8922
卬	-13.8922
櫂	-13.8922
栟	-13.8922
駛	-13.8922
稡	-13.8923
疣	-13.8924
栒	-13.8924
碓	-13.8924
􁋆	-13.8924
怍	-13.8924
搉	-13.8924
鼙	-13.8924
曮	-13.8924
鋄	-13.8924
􁄧	-13.8924
䜴	-13.8925
帔	-13.8926
侏	-13.8926
慴	-13.8926
剷	-13.8926
憒	-13.8926
駪	-13.8926
奫	-13.8926
棡	-13.8928
螢	-13.8928
苧	-13.8928
啗	-13.8928
燠	-13.8928
矞	-13.8928
腳	-13.8928
薙	-13.8929
􁂎	-13.893
㝅	-13.893
䥥	-13.893
甖	-13.893
幻	-13.893
漎	-13.893
趯	-13.893
酲	-13.893
焄	-13.893
獎	-13.893
庒	-13.893
甈	-13.893
嗚	-13.893
崛	-13.8932
塢	-13.8932
徔	-13.8932
噤	-13.8932
肚	-13.8932
崤	-13.8932
殂	-13.8932
町	-13.8932
薤	-13.8932
袓	-13.8932
玕	-13.8933
淬	-13.8934
穩	-13.8934
眦	-13.8934
媺	-13.8934
稳	-13.8935
鱉	-13.8935
褂	-13.8935
哻	-13.8936
璈	-13.8936
嫠	-13.8936
爝	-13.8936
蝦	-13.8936
㴻	-13.8936
囏	-13.8936
􁄵	-13.8936
屨	-13.8937
㓛	-13.8937
胏	-13.8937
异	-13.8938
踖	-13.8938
鈆	-13.8938
妒	-13.8938
灧	-13.8938
瞬	-13.8938
旊	-13.8939
瞠	-13.8939
齧	-13.8939
秪	-13.8939
譊	-13.8939
睛	-13.8939
缿	-13.8939
綝	-13.8941
紉	-13.8941
刳	-13.8941
塒	-13.8941
嵫	-13.8941
蹔	-13.8941
肈	-13.8941
陥	-13.8941
悴	-13.8941
疹	-13.8941
熳	-13.8941
餵	-13.8941
芄	-13.8943
薌	-13.8943
彧	-13.8943
瀹	-13.8943
檦	-13.8943
劃	-13.8943
珫	-13.8943
榔	-13.8945
盃	-13.8945
憝	-13.8945
砧	-13.8945
闞	-13.8945
獷	-13.8945
醸	-13.8945
鏵	-13.8945
騣	-13.8945
咀	-13.8945
砍	-13.8945
孑	-13.8945
􁎦	-13.8945
䎖	-13.8947
朓	-13.8947
睂	-13.8947
鶩	-13.8947
羇	-13.8949
鷁	-13.8949
襗	-13.8949
䢱	-13.8949
甆	-13.8949
晹	-13.8949
􁰢	-13.8949
帗	-13.8949
莋	-13.8949
鄼	-13.8949
苒	-13.8951
焌	-13.8951
玅	-13.8953
臠	-13.8953
䆫	-13.8953
僾	-13.8953
惣	-13.8953
靸	-13.8953
稂	-13.8953
豨	-13.8953
襃	-13.8955
巔	-13.8955
鎸	-13.8955
傋	-13.8955
霝	-13.8955
侐	-13.8955
殍	-13.8955
閌	-13.8955
缾	-13.8956
晢	-13.8956
鎚	-13.8957
鋚	-13.8957
雑	-13.8957
猿	-13.8957
龠	-13.8957
齕	-13.8959
滉	-13.8959
屇	-13.8961
縶	-13.8961
婀	-13.8961
綃	-13.8961
嶔	-13.8961
戻	-13.8962
鑕	-13.8963
軿	-13.8963
症	-13.8963
噠	-13.8964
刅	-13.8964
貙	-13.8965
􁅩	-13.8966
㾗	-13.8968
薶	-13.897
鐐	-13.8972
羶	-13.8972
砰	-13.8972
䓻	-13.8974
龡	-13.8974
蚌	-13.8976
廥	-13.8976
咻	-13.8976
趩	-13.8976
􁨺	-13.8976
児	-13.8978
􁒐	-13.8978
慉	-13.8978
茀	-13.8979
穠	-13.898
氍	-13.898
埤	-13.898
􁉭	-13.8982
稲	-13.8984
鋜	-13.8984
猩	-13.8986
腎	-13.8987
偫	-13.8993
雊	-13.8997
瀺	-13.8999
䂍	-13.9001
矰	-13.9004
骲	-13.9004
堈	-13.9007
窑	-13.9007
䆃	-13.9011
􁕑	-13.9015
瀧	-13.9043
醞	-13.9044
踢	-13.9049
鬂	-13.9051
軛	-13.9069
笴	-13.9072
鼊	-13.9088
癰	-13.9115
廌	-14.3755
錐	-14.3804
暕	-14.3818
茆	-14.3827
鉠	-14.3827
擐	-14.3832
藟	-14.3833
迾	-14.3836
燙	-14.3836
玢	-14.3845
蛙	-14.3846
攟	-14.3846
邅	-14.3846
爌	-14.3849
嚬	-14.3849
蹡	-14.3849
渫	-14.3852
埛	-14.3852
潾	-14.3855
峝	-14.3855
粻	-14.3855
觝	-14.3855
幎	-14.3862
穄	-14.3867
醿	-14.3868
皐	-14.3868
开	-14.3868
枹	-14.3869
泪	-14.3871
玦	-14.3871
睟	-14.3871
丱	-14.3871
怱	-14.3871
罻	-14.3871
痍	-14.3874
汸	-14.3874
硜	-14.3874
㱕	-14.3877
穸	-14.3877
逯	-14.3877
溼	-14.3877
媪	-14.3879
窀	-14.388
蹐	-14.3882
秖	-14.3883
濺	-14.3884
蛤	-14.3884
礲	-14.3884
舃	-14.3884
嚙	-14.3884
蔌	-14.3884
烘	-14.3887
弥	-14.3887
喔	-14.3887
堕	-14.3887
斀	-14.3887
濘	-14.3887
礥	-14.3887
痒	-14.389
蚊	-14.389
媢	-14.389
孃	-14.389
敚	-14.389
柁	-14.389
欿	-14.3893
俻	-14.3893
怖	-14.3893
昝	-14.3893
寭	-14.3893
瑝	-14.3893
鋹	-14.3896
羝	-14.3896
衜	-14.3896
怳	-14.3896
媽	-14.3896
櫓	-14.3896
泟	-14.3896
臟	-14.3896
籈	-14.3896
蘸	-14.3896
鉏	-14.3896
卝	-14.3899
屺	-14.3899
炸	-14.3899
咍	-14.3899
瘵	-14.3899
鈛	-14.3899
䘚	-14.3902
搒	-14.3902
糉	-14.3902
䔧	-14.3902
㴠	-14.3902
吼	-14.3902
疉	-14.3906
荂	-14.3906
抝	-14.3906
戟	-14.3906
簍	-14.3906
嘅	-14.3906
塀	-14.3906
嗛	-14.3906
恧	-14.3906
諐	-14.3906
㯱	-14.3906
塍	-14.3906
熠	-14.3906
襮	-14.3906
踆	-14.3906
狉	-14.3909
踉	-14.3909
竁	-14.3909
漉	-14.3909
蘅	-14.3909
朒	-14.3912
懴	-14.3912
綀	-14.3912
㪍	-14.3912
堙	-14.3912
巗	-14.3912
淯	-14.3912
疃	-14.3912
腕	-14.3912
䮯	-14.3912
噂	-14.3912
弈	-14.3912
痾	-14.3912
硠	-14.3912
邨	-14.3912
椶	-14.3914
㷀	-14.3915
扒	-14.3915
萎	-14.3915
苪	-14.3915
伱	-14.3915
兜	-14.3915
岔	-14.3915
浞	-14.3915
瞶	-14.3915
聁	-14.3915
膾	-14.3915
衟	-14.3916
䒪	-14.3917
璔	-14.3918
壂	-14.3918
冞	-14.3918
吮	-14.3918
舗	-14.3918
䮺	-14.3918
嘒	-14.3918
寍	-14.3918
斕	-14.3918
磊	-14.3918
罌	-14.3918
菆	-14.3918
訌	-14.3918
詾	-14.3918
贗	-14.3918
蹻	-14.3918
郗	-14.3918
佪	-14.392
蝶	-14.392
嘘	-14.3921
眤	-14.3921
哦	-14.3921
尔	-14.3921
伙	-14.3921
凈	-14.3921
勗	-14.3921
擱	-14.3921
斸	-14.3921
棋	-14.3921
薅	-14.3921
姍	-14.3921
弸	-14.3921
䓿	-14.3923
圴	-14.3923
蘗	-14.3924
嚥	-14.3924
媠	-14.3924
嘔	-14.3924
籯	-14.3925
苓	-14.3925
苕	-14.3925
蘉	-14.3925
?	-14.3925
䛇	-14.3925
嵉	-14.3925
撇	-14.3925
旤	-14.3925
晧	-14.3925
确	-14.3925
艇	-14.3925
槅	-14.3927
躊	-14.3928
羢	-14.3928
喑	-14.3928
柙	-14.3928
鈸	-14.3928
䏠	-14.3928
渟	-14.3928
畺	-14.3928
紖	-14.3929
挻	-14.3931
虫	-14.3931
㩦	-14.3931
嗔	-14.3931
屣	-14.3931
戣	-14.3931
溲	-14.3931
炱	-14.3931
玀	-14.3931
簀	-14.3931
羉	-14.3931
谽	-14.3931
浃	-14.3934
籟	-14.3934
熛	-14.3934
䙫	-14.3934
惱	-14.3934
簞	-14.3934
劀	-14.3934
劻	-14.3934
睫	-14.3934
硎	-14.3934
訹	-14.3934
萋	-14.3934
媯	-14.3937
肋	-14.3937
赧	-14.3937
熇	-14.3937
瓢	-14.3937
楧	-14.3937
㬌	-14.3937
傜	-14.3937
慗	-14.3937
琱	-14.3937
筏	-14.3937
纕	-14.3937
傒	-14.3937
匵	-14.3937
叓	-14.3937
潺	-14.3937
瑈	-14.3937
釅	-14.3937
窕	-14.3938
偪	-14.394
沍	-14.394
奶	-14.394
嶇	-14.394
桮	-14.394
㟁	-14.394
㮿	-14.394
樲	-14.394
磯	-14.394
茯	-14.394
蛾	-14.394
誶	-14.394
赬	-14.394
蹉	-14.394
刈	-14.3943
廑	-14.3943
栺	-14.3943
癿	-14.3943
胔	-14.3943
旲	-14.3943
旵	-14.3943
柈	-14.3943
汹	-14.3943
蹋	-14.3943
辤	-14.3943
縰	-14.3946
祟	-14.3946
嬀	-14.3946
枌	-14.3946
䢴	-14.3947
胊	-14.3947
臮	-14.3949
洧	-14.395
稭	-14.395
溘	-14.395
舸	-14.395
愞	-14.395
椰	-14.395
玫	-14.395
皱	-14.395
懔	-14.395
旿	-14.395
粼	-14.395
㯋	-14.3953
栭	-14.3953
很	-14.3953
檎	-14.3953
罨	-14.3953
刎	-14.3953
埓	-14.3953
惬	-14.3953
撘	-14.3953
枵	-14.3953
篡	-14.3953
菟	-14.3953
蓺	-14.3953
銙	-14.3953
䦌	-14.3954
篝	-14.3956
蝎	-14.3956
樺	-14.3956
鈏	-14.3956
蹊	-14.3956
秫	-14.3956
跕	-14.3956
踽	-14.3956
歘	-14.3959
涴	-14.3959
聵	-14.3959
偓	-14.3959
臑	-14.3959
廽	-14.3959
檣	-14.3959
墯	-14.3959
胗	-14.3959
曕	-14.396
綄	-14.3962
萑	-14.3962
琲	-14.3962
諲	-14.3962
忡	-14.3962
淊	-14.3962
赳	-14.3962
纜	-14.3964
泒	-14.3965
洹	-14.3965
捋	-14.3965
揲	-14.3965
捏	-14.3965
痟	-14.3965
蝸	-14.3965
丰	-14.3969
圩	-14.3969
噍	-14.3969
幛	-14.3969
掬	-14.3969
汕	-14.3969
䟏	-14.3969
㮣	-14.3972
綅	-14.3972
淙	-14.3972
蝟	-14.3972
遫	-14.3973
蜩	-14.3975
䴊	-14.3975
皛	-14.3975
䲭	-14.3975
醺	-14.3975
禊	-14.3978
釦	-14.3978
瘧	-14.3978
熝	-14.3978
漭	-14.3981
躓	-14.3981
欶	-14.3981
㞼	-14.3981
呫	-14.3981
磤	-14.3981
輷	-14.3981
嶈	-14.3984
踝	-14.3987
䠞	-14.3988
蚍	-14.3988
姤	-14.3988
蠹	-14.3991
幨	-14.3991
痢	-14.3991
扮	-14.3994
偈	-14.3994
寏	-14.3997
橛	-14.3997
氶	-14.4
豲	-14.4
諰	-14.4
澉	-14.4003
呴	-14.4013
棢	-14.4016
裲	-14.4016
蹏	-14.4022
蚺	-14.4025
莧	-14.4025
胳	-14.4027
虵	-14.4028
弣	-14.4031
襺	-14.4038
㡛	-14.4101
鍑	-15.3294
錓	-15.3295
鈵	-15.3296
醎	-15.3297
酅	-15.3298
酃	-15.3299
鄄	-15.33
遛	-15.3301
迮	-15.3302
轤	-15.3303
轕	-15.3304
轇	-15.3305
輾	-15.3306
輶	-15.3307
輭	-15.3308
輂	-15.3309
蹎	-15.331
赩	-15.3311
贔	-15.3312
覼	-15.3313
襕	-15.3314
褓	-15.3315
裯	-15.3316
袢	-15.3317
衽	-15.3318
蠺	-15.3319
蠙	-15.332
蠆	-15.3321
蟣	-15.3322
蟋	-15.3323
蟀	-15.3324
蝨	-15.3325
蝀	-15.3326
蜒	-15.3327
蜈	-15.3328
蛒	-15.3329
蚣	-15.333
蚋	-15.3331
藨	-15.3332
薹	-15.3333
蔆	-15.3334
蒺	-15.3335
葇	-15.3336
葄	-15.3337
荈	-15.3338
茌	-15.3339
膫	-15.334
腠	-15.3341
脿	-15.3342
肹	-15.3343
聡	-15.3344
耔	-15.3345
翃	-15.3346
罼	-15.3347
絣	-15.3348
糭	-15.3349
糨	-15.335
糅	-15.3351
籰	-15.3352
篳	-15.3353
稾	-15.3354
禖	-15.3355
碯	-15.3356
硼	-15.3357
睚	-15.3358
癢	-15.3359
瘐	-15.336
畣	-15.3361
畒	-15.3362
琠	-15.3363
琔	-15.3364
珖	-15.3365
玟	-15.3366
獼	-15.3367
獪	-15.3368
猻	-15.3369
猞	-15.337
猇	-15.3371
猁	-15.3372
狴	-15.3373
牸	-15.3374
牯	-15.3375
爆	-15.3376
燹	-15.3377
熿	-15.3378
熯	-15.3379
煝	-15.338
烇	-15.3381
灔	-15.3382
瀷	-15.3383
濎	-15.3384
澢	-15.3385
澘	-15.3386
澌	-15.3387
潡	-15.3388
潠	-15.3389
溽	-15.339
渶	-15.3391
淟	-15.3392
淝	-15.3393
涑	-15.3394
涊	-15.3395
浿	-15.3396
浰	-15.3397
泑	-15.3398
沲	-15.3399
沇	-15.34
欓	-15.3401
櫏	-15.3402
檮	-15.3403
橒	-15.3404
樛	-15.3405
榨	-15.3406
楑	-15.3407
椗	-15.3408
椋	-15.3409
椆	-15.341
棃	-15.3411
梀	-15.3412
栩	-15.3413
枇	-15.3414
杷	-15.3415
杬	-15.3416
杋	-15.3417
昷	-15.3418
旞	-15.3419
撟	-15.342
搯	-15.3421
搠	-15.3422
捂	-15.3423
挰	-15.3424
抳	-15.3425
扯	-15.3426
戄	-15.3427
憔	-15.3428
慜	-15.3429
慂	-15.343
惺	-15.3431
惸	-15.3432
忬	-15.3433
徜	-15.3434
徉	-15.3435
幧	-15.3436
巏	-15.3437
嶓	-15.3438
嵎	-15.3439
嵊	-15.344
崦	-15.3441
崘	-15.3442
岨	-15.3443
屭	-15.3444
寠	-15.3445
婭	-15.3446
婕	-15.3447
娙	-15.3448
壳	-15.3449
壠	-15.345
壕	-15.3451
塠	-15.3452
塝	-15.3453
塛	-15.3454
堸	-15.3455
埵	-15.3456
垙	-15.3457
垈	-15.3458
圮	-15.3459
囐	-15.346
嚈	-15.3461
嘈	-15.3462
哂	-15.3463
咬	-15.3464
凙	-15.3465
儛	-15.3466
偲	-15.3467
倕	-15.3468
倏	-15.3469
倆	-15.347
佉	-15.3471
丫	-15.3472
个	-15.3473
䥍	-15.3474
䣕	-15.3475
䢿	-15.3476
䑴	-15.3477
䑃	-15.3478
䌨	-15.3479
䊦	-15.348
㸅	-15.3481
㶑	-15.3482
㲈	-15.3483
㭓	-15.3484
㭄	-15.3485
㦕	-15.3486
㠓	-15.3487
㙕	-15.3488
􁇥	-15.3489
𨕖	-15.349
𦍕	-15.3491
鷴	-15.3492
鷥	-15.3493
鵪	-15.3494
骼	-15.3495
骫	-15.3496
驎	-15.3497
騼	-15.3498
騋	-15.3499
馧	-15.35
颶	-15.3501
鑉	-15.3502
鏴	-15.3503
鍮	-15.3504
錍	-15.3505
鉸	-15.3506
鉙	-15.3507
鉆	-15.3508
醍	-15.3509
邐	-15.351
逶	-15.3511
轜	-15.3512
躪	-15.3513
贋	-15.3514
諟	-15.3515
詄	-15.3516
螻	-15.3517
蘽	-15.3518
蓿	-15.3519
蓰	-15.352
蓯	-15.3521
蓏	-15.3522
葠	-15.3523
菻	-15.3524
苜	-15.3525
臉	-15.3526
罳	-15.3527
緱	-15.3528
絏	-15.3529
絍	-15.353
紝	-15.3531
粕	-15.3532
粆	-15.3533
筲	-15.3534
窿	-15.3535
窬	-15.3536
秕	-15.3537
祊	-15.3538
砫	-15.3539
瞅	-15.354
睥	-15.3541
盬	-15.3542
癃	-15.3543
瘥	-15.3544
瘟	-15.3545
疢	-15.3546
瓈	-15.3547
瑵	-15.3548
珅	-15.3549
濚	-15.355
澀	-15.3551
潚	-15.3552
潓	-15.3553
漋	-15.3554
滹	-15.3555
湂	-15.3556
淜	-15.3557
洅	-15.3558
沕	-15.3559
櫽	-15.356
橇	-15.3561
槲	-15.3562
槣	-15.3563
榿	-15.3564
椇	-15.3565
桗	-15.3566
朅	-15.3567
昖	-15.3568
旖	-15.3569
旎	-15.357
摳	-15.3571
捭	-15.3572
愀	-15.3573
彖	-15.3574
嶍	-15.3575
嵕	-15.3576
崞	-15.3577
峼	-15.3578
寞	-15.3579
墭	-15.358
塎	-15.3581
垽	-15.3582
垉	-15.3583
坳	-15.3584
噌	-15.3585
咆	-15.3586
吰	-15.3587
匍	-15.3588
刊	-15.3589
侲	-15.359
仵	-15.3591
䯻	-15.3592
䮷	-15.3593
㙷	-15.3594
􁊚	-15.3595
𣅿	-15.3596
齷	-15.3597
鹺	-15.3598
鱖	-15.3599
鱏	-15.36
鰣	-15.3601
鰉	-15.3602
鯽	-15.3603
魌	-15.3604
頠	-15.3605
韐	-15.3606
鞲	-15.3607
鞈	-15.3608
鞄	-15.3609
鑁	-15.361
鐰	-15.3611
鍷	-15.3612
鋼	-15.3613
譸	-15.3614
觺	-15.3615
褖	-15.3616
蛋	-15.3617
蘩	-15.3618
蒭	-15.3619
菠	-15.362
舳	-15.3621
肢	-15.3622
翯	-15.3623
緲	-15.3624
綫	-15.3625
粽	-15.3626
粛	-15.3627
禨	-15.3628
礴	-15.3629
礓	-15.363
矻	-15.3631
矱	-15.3632
皤	-15.3633
狽	-15.3634
犍	-15.3635
牱	-15.3636
爀	-15.3637
熡	-15.3638
烚	-15.3639
炩	-15.364
滽	-15.3641
渢	-15.3642
渌	-15.3643
涙	-15.3644
涍	-15.3645
氳	-15.3646
櫕	-15.3647
檴	-15.3648
梐	-15.3649
枑	-15.365
曨	-15.3651
敱	-15.3652
攃	-15.3653
撕	-15.3654
憮	-15.3655
惪	-15.3656
悻	-15.3657
怦	-15.3658
巋	-15.3659
巉	-15.366
嶤	-15.3661
嵯	-15.3662
宬	-15.3663
娓	-15.3664
墱	-15.3665
嚷	-15.3666
嚳	-15.3667
喟	-15.3668
喋	-15.3669
啐	-15.367
劈	-15.3671
䥯	-15.3672
䥩	-15.3673
䤧	-15.3674
䙉	-15.3675
㷿	-15.3676
㶷	-15.3677
㘭	-15.3678
黈	-15.3679
鯿	-15.368
魫	-15.3681
魑	-15.3682
騠	-15.3683
駃	-15.3684
頏	-15.3685
鋡	-15.3686
釳	-15.3687
譓	-15.3688
褕	-15.3689
蝻	-15.369
蜷	-15.3691
臍	-15.3692
臁	-15.3693
糢	-15.3694
筸	-15.3695
磾	-15.3696
癱	-15.3697
牾	-15.3698
牴	-15.3699
牁	-15.37
爹	-15.3701
烶	-15.3702
滻	-15.3703
滸	-15.3704
橏	-15.3705
椸	-15.3706
柞	-15.3707
柃	-15.3708
撈	-15.3709
扢	-15.371
弆	-15.3711
帡	-15.3712
岧	-15.3713
嫄	-15.3714
堇	-15.3715
唃	-15.3716
厫	-15.3717
匐	-15.3718
僨	-15.3719
㫻	-15.372
㙉	-15.3721
駉	-15.3722
闟	-15.3723
鋉	-15.3724
鉷	-15.3725
鉍	-15.3726
逗	-15.3727
輊	-15.3728
蹬	-15.3729
跗	-15.373
衖	-15.3731
蠁	-15.3732
罘	-15.3733
絘	-15.3734
紲	-15.3735
瑫	-15.3736
玻	-15.3737
煡	-15.3738
焲	-15.3739
灂	-15.374
渣	-15.3741
泱	-15.3742
泙	-15.3743
樚	-15.3744
棉	-15.3745
栘	-15.3746
搔	-15.3747
拶	-15.3748
嶪	-15.3749
崆	-15.375
媫	-15.3751
嚀	-15.3752
嘽	-15.3753
叮	-15.3754
匃	-15.3755
䥏	-15.3756
㶁	-15.3757
𠻳	-15.3758
齪	-15.3759
齨	-15.376
鼖	-15.3761
鸂	-15.3762
餮	-15.3763
韺	-15.3764
雘	-15.3765
陝	-15.3766
陘	-15.3767
阽	-15.3768
鈃	-15.3769
逍	-15.377
蹁	-15.3771
貔	-15.3772
蝌	-15.3773
薔	-15.3774
蕋	-15.3775
蔲	-15.3776
蔗	-15.3777
羚	-15.3778
糍	-15.3779
禝	-15.378
爁	-15.3781
澯	-15.3782
滲	-15.3783
淸	-15.3784
櫸	-15.3785
橚	-15.3786
嶁	-15.3787
岢	-15.3788
厔	-15.3789
匕	-15.379
㮁	-15.3791
齬	-15.3792
齟	-15.3793
颯	-15.3794
霨	-15.3795
邾	-15.3796
詖	-15.3797
襞	-15.3798
袈	-15.3799
芍	-15.38
稑	-15.3801
璝	-15.3802
玎	-15.3803
犠	-15.3804
犛	-15.3805
潣	-15.3806
漖	-15.3807
槏	-15.3808
曬	-15.3809
撙	-15.381
墠	-15.3811
堉	-15.3812
嘩	-15.3813
㭿	-15.3814
鸚	-15.3815
鵡	-15.3816
驘	-15.3817
顙	-15.3818
鞵	-15.3819
靨	-15.382
鍨	-15.3821
輳	-15.3822
茜	-15.3823
臙	-15.3824
縲	-15.3825
畹	-15.3826
珈	-15.3827
玁	-15.3828
炞	-15.3829
檯	-15.383
樻	-15.3831
摽	-15.3832
慇	-15.3833
愊	-15.3834
徘	-15.3835
埢	-15.3836
垿	-15.3837
嚇	-15.3838
倌	-15.3839
黽	-15.384
觜	-15.3841
衚	-15.3842
苣	-15.3843
眙	-15.3844
琵	-15.3845
琚	-15.3846
潩	-15.3847
榕	-15.3848
喁	-15.3849
騊	-15.385
饕	-15.3851
雎	-15.3852
鎏	-15.3853
躚	-15.3854
裟	-15.3855
葡	-15.3856
焬	-15.3857
烊	-15.3858
彔	-15.3859
墡	-15.386
鴦	-15.3861
闒	-15.3862
砲	-15.3863
瑭	-15.3864
曆	-15.3865
妤	-15.3866
圄	-15.3867
囹	-15.3868
喤	-15.3869
剴	-15.387
邽	-15.3871
脗	-15.3872
氁	-15.3873
掆	-15.3874
戧	-15.3875
韃	-15.3876
緅	-15.3877
硫	-15.3878
烷	-15.3879
洫	-15.388
愴	-15.3881
怏	-15.3882
胉	-15.3883
徊	-15.3884
儧	-15.3885
鼕	-15.3886
瘼	-15.3887
彿	-15.3888
喂	-15.3889
輴	-15.389
觱	-15.3891
萄	-15.3892
翡	-15.3893
煠	-15.3894
挲	-15.3895
瑙	-15.3896
氌	-15.3897
氆	-15.3898
僰	-15.3899
鄱	-15.39
腵	-15.3901
篥	-15.3902
堿	-15.3903
雌	-15.3904
蠕	-15.3905
綼	-15.3906
儂	-15.3907
䚢	-15.3908
牷	-15.3909
鰝	-15.391
埨	-15.3911
茴	-15.3912
紜	-15.3913
氤	-15.3914
梔	-15.3915
鮓	-15.3916
溧	-15.3917
侂	-15.3918
鍍	-15.3919
描	-15.392
惓	-15.3921
驊	-15.3922
朦	-15.3923
饅	-15.3924
匈	-15.3925
僥	-15.3926
喀	-15.3926
