<unk>	0
<s>	0
</s>	0
之	-3.81039
/	-3.88037
也	-3.9862
而	-4.23398
以	-4.38169
(	-4.52549
)	-4.57525
)(	-4.61444
者	-4.84452
為	-4.89709
其	-4.9021
不	-5.00949
曰	-5.0668
則	-5.10978
有	-5.11793
於	-5.25961
故	-5.27955
子	-5.42677
公	-5.44302
于	-5.49242
矣	-5.53702
無	-5.62356
人	-5.66542
與	-5.68173
是	-5.71273
此	-5.73843
晉	-5.74473
書	-5.767
使	-5.78207
大	-5.78718
言	-5.81211
楚	-5.83011
自	-5.83125
齊	-5.8788
在	-5.89892
非	-5.90258
諸侯	-5.93703
國	-5.94038
皆	-5.9535
鄭	-5.97102
君	-5.97371
乎	-5.98515
魯	-5.99047
一	-6.05379
王	-6.05475
亦	-6.09271
見	-6.11022
及	-6.11238
反	-6.14504
又	-6.16934
至	-6.19313
事	-6.19414
謂	-6.19849
宋	-6.21117
卒	-6.21323
所	-6.22955
焉	-6.24238
傳	-6.25117
大夫	-6.27733
氏	-6.29885
▁	-6.32046
乃	-6.33226
同	-6.33985
今	-6.34446
㑹	-6.36103
成	-6.36767
師	-6.36801
將	-6.37404
春秋	-6.37703
如	-6.38759
歸	-6.41124
何	-6.418
三	-6.42087
得	-6.42137
,	-6.42563
入	-6.42816
二	-6.43034
文	-6.43728
必	-6.44231
禮	-6.44416
注	-6.4472
立	-6.45069
云	-6.46351
殺	-6.465
已	-6.47738
盟	-6.48575
從	-6.49654
名	-6.50374
遂	-6.53029
欲	-6.53614
若	-6.54077
復	-6.57177
然	-6.57311
城	-6.5749
正	-6.57567
出	-6.57647
陳	-6.57887
夏	-6.58755
日	-6.58915
經	-6.59037
雖	-6.59412
伐	-6.60927
取	-6.61439
上	-6.62118
下	-6.62342
命	-6.62631
衛	-6.6282
行	-6.63332
始	-6.637
伯	-6.63704
既	-6.63966
我	-6.65409
爲	-6.66578
時	-6.66651
臣	-6.66662
○	-6.67071
以為	-6.68086
義	-6.68439
當	-6.6861
後	-6.70252
未	-6.71215
用	-6.72114
知	-6.72191
小	-6.72272
稱	-6.74185
作	-6.75284
五	-6.76717
地	-6.77716
可	-6.78478
猶	-6.79476
相	-6.80588
請	-6.80666
惡	-6.80667
周	-6.80931
來	-6.81385
民	-6.81441
先	-6.81705
不可	-6.84763
明	-6.85146
死	-6.86039
滅	-6.86604
朝	-6.87369
四	-6.88232
諸	-6.88917
。	-6.89179
即	-6.90361
夫	-6.90633
執	-6.90752
服	-6.90903
葬	-6.9131
能	-6.91397
不能	-6.9219
公子	-6.92536
不書	-6.92554
所以	-6.93542
冬	-6.93844
生	-6.94146
且	-6.94375
亂	-6.94794
邑	-6.94973
音	-6.95061
或	-6.95608
秋	-6.95845
内	-6.96209
而不	-6.97679
主	-6.97764
秦	-6.98603
實	-6.98962
年	-6.9917
中	-6.99304
本	-6.99924
外	-7.00346
父	-7.00779
桓	-7.0182
罪	-7.02307
世	-7.02545
耳	-7.0296
天	-7.03363
因	-7.03493
蔡	-7.04266
戰	-7.04805
謀	-7.05107
重	-7.06638
吾	-7.07176
哉	-7.07674
敗	-7.07831
杜	-7.09192
平	-7.09735
天子	-7.10344
定	-7.10907
月	-7.11732
兵	-7.13482
凡	-7.14021
失	-7.14802
弑	-7.15553
辭	-7.15592
吳	-7.17409
縣	-7.17763
陽	-7.18578
叔	-7.19126
告	-7.19868
固	-7.20209
去	-7.20759
齊侯	-7.2101
侯	-7.21143
許	-7.21158
夫人	-7.21184
善	-7.21777
志	-7.21859
曹	-7.2208
衞	-7.22217
六	-7.23012
過	-7.23046
居	-7.26239
異	-7.2676
晉侯	-7.26844
多	-7.26852
鄭伯	-7.2723
道	-7.2729
致	-7.27352
州	-7.27426
安	-7.28008
難	-7.28506
春	-7.28693
亡	-7.28842
討	-7.29366
門	-7.29832
會	-7.30326
紀	-7.30532
衆	-7.30846
昭	-7.30883
親	-7.30963
卿	-7.31039
奔	-7.31384
方	-7.31529
終	-7.32062
祭	-7.32235
例	-7.32579
字	-7.33353
南	-7.33574
十	-7.34534
不得	-7.34622
求	-7.34733
蓋	-7.34998
喪	-7.35008
襄	-7.35076
心	-7.35314
長	-7.35404
切	-7.35477
士	-7.36547
東	-7.36796
納	-7.37172
水	-7.37457
女	-7.37756
疏	-7.37835
邾	-7.38255
圍	-7.38575
田	-7.38876
逆	-7.39009
政	-7.3982
易	-7.39854
左氏	-7.40021
桓公	-7.40138
受	-7.41201
爾	-7.41202
戎	-7.41225
舉	-7.41588
意	-7.41807
通	-7.42329
而後	-7.43108
信	-7.43711
音義	-7.4428
合	-7.44694
分	-7.45172
救	-7.45732
止	-7.46634
食	-7.46747
制	-7.47699
左傳	-7.47791
法	-7.47919
九	-7.48085
山	-7.48117
不言	-7.48125
次	-7.48555
莒	-7.48995
封	-7.51312
數	-7.51505
守	-7.52015
莊	-7.52031
者也	-7.52491
楚子	-7.52985
尊	-7.53405
是也	-7.53432
前	-7.53469
武	-7.53873
初	-7.54436
徳	-7.54446
樂	-7.54611
聖人	-7.54839
力	-7.54917
豈	-7.55132
中國	-7.55233
屬	-7.55386
僖	-7.55477
史	-7.55583
/)	-7.55739
狄	-7.5606
問	-7.56425
常	-7.56508
軍	-7.57116
盡	-7.57157
車	-7.57328
宣	-7.57457
七	-7.57845
聘	-7.57864
伐鄭	-7.5878
家	-7.59028
惟	-7.59338
三年	-7.60257
甚	-7.60271
説	-7.60501
侵	-7.60517
叛	-7.60767
齊人	-7.60994
呉	-7.61001
近	-7.61205
八	-7.61265
治	-7.61296
盖	-7.62165
懼	-7.62363
官	-7.62498
獨	-7.62538
聞	-7.63477
西	-7.63626
彼	-7.64093
存	-7.64301
比	-7.64347
夷	-7.64593
朔	-7.64825
謂之	-7.6517
遷	-7.65414
文公	-7.65662
令	-7.65806
利	-7.66199
哀	-7.66266
何以	-7.67952
疑	-7.68271
觀	-7.68289
公羊	-7.6842
仲	-7.68562
專	-7.68635
衛侯	-7.68738
獲	-7.69216
災	-7.69361
郊	-7.69365
天下	-7.69586
位	-7.70299
莊公	-7.70365
林	-7.7086
逺	-7.70864
宜	-7.71294
加	-7.71639
古	-7.72049
元年	-7.7275
好	-7.72925
楚人	-7.72957
昭公	-7.73062
往	-7.73482
兩	-7.73535
孫	-7.73884
備	-7.73956
再	-7.74539
克	-7.74656
正義曰	-7.74671
宗	-7.74758
廢	-7.7478
之後	-7.74861
之事	-7.74911
)○	-7.75145
據	-7.75513
元	-7.75805
强	-7.75831
賢	-7.76366
共	-7.767
譏	-7.76786
絶	-7.76902
葢	-7.77084
變	-7.772
說	-7.77227
召	-7.77256
盟于	-7.7755
適	-7.77638
越	-7.78035
改	-7.78253
是以	-7.7845
疾	-7.78472
諱	-7.78512
按	-7.78696
物	-7.78745
别	-7.78917
帥師	-7.79101
怨	-7.79227
申	-7.79244
三月	-7.79256
直	-7.79626
所謂	-7.79642
貶	-7.80319
責	-7.80429
北	-7.80729
丘	-7.81274
少	-7.81441
晉人	-7.81912
起	-7.82469
唯	-7.82784
但	-7.83413
由	-7.83444
季	-7.84061
可以	-7.84082
不以	-7.84171
不知	-7.84438
▁(	-7.84453
案	-7.84491
處	-7.84698
弱	-7.85014
公孫	-7.86288
僖公	-7.86434
馬	-7.86578
勝	-7.87128
舊	-7.87187
母	-7.87489
其君	-7.87499
十年	-7.8765
還	-7.87844
嘗	-7.87918
德	-7.87986
深	-7.88144
祀	-7.88513
首	-7.88666
身	-7.889
出奔	-7.88961
之罪	-7.89248
興	-7.89257
弗	-7.89296
私	-7.8991
火	-7.9005
不與	-7.90164
即位	-7.90329
之盟	-7.90345
廟	-7.90358
弟	-7.91074
誅	-7.91494
敵	-7.9181
宋公	-7.92077
奉	-7.9212
報	-7.92122
序	-7.92381
不敢	-7.93001
左	-7.93056
而已	-7.93227
宫	-7.93387
爵	-7.93415
棄	-7.93618
解	-7.94442
交	-7.94521
著	-7.94751
怒	-7.95073
卜	-7.95209
都	-7.95982
漢	-7.96138
五年	-7.96171
将	-7.96436
正月	-7.97628
益	-7.97644
貴	-7.97875
八年	-7.98031
杞	-7.98036
獻	-7.98391
二年	-7.98445
諸侯之	-7.98716
何也	-7.98855
修	-7.98992
理	-7.99068
繼	-7.99141
遇	-7.99974
髙	-8.00149
陵	-8.00223
功	-8.00617
詩	-8.00631
害	-8.00872
襄公	-8.01039
釋	-8.01348
族	-8.01435
世子	-8.01446
𦵏	-8.01504
濟	-8.01696
四年	-8.01849
微	-8.01884
餘	-8.02073
降	-8.0228
也故	-8.02473
尚	-8.02529
語	-8.02846
華	-8.02887
虞	-8.02892
考	-8.03141
新	-8.03166
向	-8.03265
𫝊	-8.03458
河	-8.03619
免	-8.03665
九月	-8.03855
之義	-8.03872
畏	-8.03997
衰	-8.04176
殺之	-8.05032
甲	-8.05118
季氏	-8.0528
之禮	-8.0534
於是	-8.05382
刑	-8.05414
七年	-8.05566
祖	-8.05853
徒	-8.06111
間	-8.06126
應	-8.06171
發	-8.0629
舍	-8.0629
君子	-8.06584
己	-8.06771
姓	-8.06835
扵	-8.06891
帥	-8.06999
各	-8.07715
賜	-8.08065
禍	-8.08214
隠	-8.08292
特	-8.08349
然則	-8.08886
威	-8.09014
敢	-8.0914
闕	-8.09303
孔子	-8.09701
記	-8.10032
列	-8.10278
原	-8.10397
、	-8.10556
待	-8.1068
詳	-8.10696
梁	-8.11129
之所	-8.11531
六月	-8.11734
乗	-8.12045
爭	-8.12085
隱	-8.12226
論	-8.12241
石	-8.12347
百	-8.12478
宣公	-8.12538
徐	-8.127
聲	-8.12745
賊	-8.1284
者何	-8.12907
九年	-8.13321
望	-8.13333
晋	-8.13359
霸	-8.13883
稱人	-8.14328
莫	-8.14438
府	-8.14497
故也	-8.14559
如此	-8.1479
賂	-8.14803
賦	-8.14955
弑君	-8.15433
人之	-8.1591
齊桓	-8.16022
姑	-8.16147
對曰	-8.16214
来	-8.16563
盛	-8.16566
司馬	-8.16706
他	-8.16722
六年	-8.16779
如晉	-8.16976
更	-8.1733
臨	-8.17664
然後	-8.17897
神	-8.17993
其罪	-8.18032
其事	-8.18081
之㑹	-8.18492
氣	-8.18532
度	-8.18563
並	-8.18576
結	-8.18673
假	-8.18964
逐	-8.19163
卑	-8.19639
之意	-8.19852
故書	-8.20057
誤	-8.20449
進	-8.20485
卷	-8.20636
雨	-8.20718
輕	-8.20822
載	-8.21018
冬十月	-8.21128
權	-8.2218
愛	-8.22585
御	-8.22589
動	-8.22819
背	-8.22897
五月	-8.23214
二月	-8.23458
乘	-8.23695
恐	-8.23709
周公	-8.23824
書曰	-8.23865
孟	-8.23934
至於	-8.24139
俱	-8.24241
土	-8.24258
八月	-8.24279
成公	-8.24528
國之	-8.24754
榖	-8.25025
故曰	-8.25117
節	-8.25218
秋七月	-8.25286
禮也	-8.25403
來聘	-8.2547
十五年	-8.25528
君之	-8.25848
其國	-8.25932
小國	-8.25981
之子	-8.26503
危	-8.26538
路	-8.26614
張	-8.26905
榖梁	-8.27553
病	-8.27769
憂	-8.2777
劉	-8.2789
國人	-8.27963
杜注	-8.28108
和	-8.28117
惠	-8.28228
患	-8.28554
息	-8.28581
帝	-8.28582
鄫	-8.2863
室	-8.28833
黨	-8.2891
任	-8.29078
也注	-8.29087
以其	-8.29223
鄭人	-8.29243
孔	-8.29269
隂	-8.29496
趙	-8.29584
承	-8.29597
視	-8.29646
黄	-8.30044
之心	-8.30169
商	-8.30181
章	-8.30243
退	-8.30254
要	-8.30348
貳	-8.30439
辨	-8.30573
薨	-8.30613
射	-8.30762
唐	-8.30929
䘮	-8.31124
風	-8.31326
傷	-8.31414
敬	-8.31452
宋人	-8.31481
大國	-8.3173
施	-8.31871
季孫	-8.3209
衞侯	-8.32168
十一年	-8.32261
役	-8.32362
享	-8.32438
謹	-8.32455
美	-8.32537
十二	-8.32581
江	-8.32583
彊	-8.32889
某	-8.32899
辱	-8.32983
而書	-8.33244
未有	-8.3343
無所	-8.33829
示	-8.33834
之役	-8.33869
未嘗	-8.34158
置	-8.34309
不足	-8.34504
期	-8.34542
從之	-8.34569
靈	-8.34665
禘	-8.34685
胡氏	-8.34801
为	-8.35207
太	-8.35648
順	-8.35758
代	-8.35816
太子	-8.36114
隨	-8.36204
老	-8.36283
十四年	-8.36717
足	-8.36735
之言	-8.36905
戒	-8.37289
防	-8.37512
喜	-8.37692
十二月	-8.37732
星	-8.37872
吴	-8.38007
萬	-8.38335
牛	-8.38462
引	-8.38478
建	-8.38506
其所	-8.38994
類	-8.39101
也今	-8.39329
旣	-8.39367
穀	-8.39514
里	-8.39605
穀梁	-8.39886
右	-8.40037
夏四月	-8.40098
以見	-8.40188
辟	-8.40297
攻	-8.40624
〇	-8.40691
王命	-8.41025
氏曰	-8.41122
曹伯	-8.41153
野	-8.41213
等	-8.4129
非也	-8.41542
高	-8.41997
速	-8.42063
甚矣	-8.4245
不復	-8.42515
違	-8.42526
天王	-8.42542
王室	-8.42553
夫子	-8.4266
有罪	-8.43406
號	-8.43408
嘉	-8.43482
助	-8.43506
伐宋	-8.43621
寵	-8.43744
赴	-8.43926
思	-8.4401
燕	-8.44223
把	-8.44358
嗣	-8.44512
逃	-8.44523
忠	-8.44854
與之	-8.44935
魏	-8.45197
極	-8.4539
賤	-8.45643
滕	-8.45649
言之	-8.45815
屈	-8.45867
苟	-8.45881
嵗	-8.45884
器	-8.45946
同盟	-8.46047
計	-8.46143
勞	-8.4641
况	-8.46436
如齊	-8.468
傳曰	-8.46905
之間	-8.47385
簡	-8.47445
吉	-8.47527
經書	-8.47592
教	-8.47635
十三年	-8.47865
玉	-8.47928
之辭	-8.48092
非禮也	-8.48233
忽	-8.48636
費	-8.48692
虢	-8.48749
急	-8.48807
僭	-8.48823
至于	-8.48933
厚	-8.49124
先君	-8.49207
曲	-8.49323
弑其君	-8.49453
附	-8.49617
㑹于	-8.49885
伐之	-8.50153
職	-8.50191
楚師	-8.50393
宰	-8.50609
:「	-8.50624
光	-8.50832
境	-8.50946
姬	-8.50999
十二年	-8.51042
奪	-8.51248
暴	-8.51307
陳侯	-8.51316
魯之	-8.51576
略	-8.51591
取之	-8.51811
澤	-8.51837
閏	-8.52198
具	-8.52206
寧	-8.52365
於此	-8.52484
目	-8.52505
保	-8.52524
弔	-8.52914
司	-8.53156
知其	-8.53166
蔡侯	-8.53173
之説	-8.53245
來朝	-8.53937
恃	-8.54026
推	-8.54082
仲尼	-8.54242
斯	-8.54295
戍	-8.54375
靈公	-8.54438
辰	-8.54701
之道	-8.54957
不當	-8.55375
介	-8.55711
皇	-8.55783
兄	-8.56086
臣子	-8.56103
穆	-8.56396
十八年	-8.5654
伐齊	-8.56614
十一月	-8.56914
郡	-8.57081
戚	-8.57085
周禮	-8.57251
遺	-8.573
似	-8.57348
季子	-8.57359
木	-8.57411
竟	-8.57433
惠公	-8.5753
典	-8.57651
不然	-8.57922
春秋書	-8.57938
也若	-8.58123
圖	-8.58225
體	-8.58228
君臣	-8.58617
象	-8.58644
不同	-8.58766
春王正月	-8.58963
邢	-8.58969
耶	-8.5904
十六年	-8.59075
二十	-8.59458
之師	-8.59521
韓	-8.59583
尤	-8.59626
之故	-8.59741
婦	-8.59796
左氏曰	-8.59824
不及	-8.59964
蒲	-8.60269
率	-8.60295
久	-8.60303
左氏傳	-8.60425
邪	-8.60545
叔孫	-8.60554
杜氏曰	-8.60669
悼公	-8.60811
後世	-8.60922
二子	-8.60935
胡	-8.60974
必有	-8.61015
淫	-8.61068
讓	-8.61167
當時	-8.61283
魚	-8.61757
不可以	-8.61777
疆	-8.62089
徃	-8.6211
于齊	-8.62271
犯	-8.62352
齊師	-8.62435
娶	-8.62762
築	-8.62933
仁	-8.62984
除	-8.63217
庸	-8.63228
之時	-8.63648
也其	-8.63707
放	-8.63773
伯姬	-8.64046
離	-8.64418
於齊	-8.64459
者皆	-8.64524
厯	-8.64634
援	-8.64678
厲	-8.64755
諡	-8.64872
王者	-8.64969
余	-8.64996
巳	-8.65149
設	-8.65171
専	-8.65268
十一	-8.65557
須	-8.65721
就	-8.65788
許之	-8.65801
廣	-8.65829
流	-8.66081
千	-8.66127
公羊傳	-8.66139
至是	-8.66292
忘	-8.66306
尹	-8.66346
薄	-8.66467
繫	-8.66476
忌	-8.66604
書之	-8.66619
佐	-8.66622
宗廟	-8.66798
公㑹	-8.66821
兄弟	-8.67098
嫡	-8.67205
容	-8.67236
勢	-8.6725
恥	-8.67252
杜氏	-8.67329
其言	-8.67369
妾	-8.6748
也夫	-8.67532
七月	-8.67688
強	-8.67858
授	-8.68027
衛人	-8.68083
聽	-8.68129
不稱	-8.68361
崩	-8.68412
幾	-8.68565
訓	-8.68698
明年	-8.68798
也然	-8.68803
良	-8.68822
天子之	-8.68932
定公	-8.68957
十七年	-8.6949
宿	-8.69634
夜	-8.69966
緩	-8.70173
追	-8.70312
拜	-8.70315
十月	-8.70502
狩	-8.70523
肆	-8.70528
歴	-8.70595
竊	-8.70634
邾人	-8.70683
指	-8.70811
學	-8.71056
之名	-8.71075
京師	-8.71382
妄	-8.71513
句	-8.71728
晉師	-8.71734
被	-8.71863
抑	-8.72033
歟	-8.72211
后	-8.72296
突	-8.72402
閔	-8.72478
慶父	-8.72699
為之	-8.72782
君命	-8.72809
社稷	-8.72906
其後	-8.72954
庶	-8.73082
子曰	-8.73214
恤	-8.73498
全	-8.73548
孰	-8.73636
賈	-8.73871
雍	-8.73887
楚之	-8.74078
可也	-8.74146
朱	-8.74293
姜	-8.74318
殺其大夫	-8.74354
毁	-8.74426
録	-8.7478
瑕	-8.74796
雩	-8.74903
寡君	-8.74964
鼓	-8.75206
來奔	-8.75595
連	-8.75737
兼	-8.75763
伐楚	-8.75928
貪	-8.76121
鄉	-8.76385
情	-8.76501
以爲	-8.76595
嫌	-8.76742
妻	-8.77157
其子	-8.77239
誰	-8.77245
果	-8.77288
叔姬	-8.77316
勤	-8.77416
而立	-8.77439
羣	-8.77471
尸	-8.77608
刺	-8.77715
昏	-8.77757
讎	-8.7785
次于	-8.77859
于晉	-8.7791
大子	-8.77915
魯人	-8.78034
郭	-8.7813
之類	-8.78154
否	-8.78306
不在	-8.78421
舎	-8.78539
有所	-8.78547
四月	-8.79155
鄆	-8.79188
登	-8.79228
盜	-8.79478
脩	-8.79496
范	-8.79701
不如	-8.7974
自是	-8.79762
則是	-8.80003
不名	-8.80226
殷	-8.80267
秦伯	-8.80278
社	-8.80313
者以	-8.80405
儀	-8.80426
婦人	-8.80451
趙盾	-8.80613
子産	-8.80741
而無	-8.80788
則書	-8.80865
聖	-8.81115
征	-8.81475
詞	-8.81689
非禮	-8.81783
禦	-8.81927
又曰	-8.81945
也春秋	-8.82096
獻公	-8.82482
對	-8.82528
牲	-8.82533
曷為	-8.82728
掌	-8.82976
戴	-8.82982
於晉	-8.83017
邾子	-8.83219
合諸侯	-8.83272
争	-8.83366
手	-8.83459
攝	-8.8349
上下	-8.83588
春秋之	-8.83694
昔	-8.84258
矣故	-8.84356
顧	-8.84434
而還	-8.84679
足以	-8.84733
荆	-8.84805
以歸	-8.84831
末	-8.8487
接	-8.85211
之文	-8.85288
是時	-8.85314
崇	-8.85449
辛	-8.85554
為君	-8.85938
慶	-8.85987
於魯	-8.86251
天下之	-8.86571
之法	-8.86681
穆公	-8.86831
金	-8.86921
白	-8.87064
革	-8.87092
故以	-8.87155
夏五月	-8.87164
虎	-8.8725
不見	-8.87307
也此	-8.87392
以示	-8.87397
班	-8.87457
入于	-8.87638
三十	-8.8766
無罪	-8.87735
晉之	-8.87762
書名	-8.87879
周之	-8.88126
務	-8.88433
曰吾	-8.88547
荘	-8.88606
端	-8.8871
公曰	-8.88858
臺	-8.88899
哀公	-8.88948
伐晉	-8.89149
畧	-8.89167
畢	-8.89182
此年	-8.8923
垂	-8.89597
十五	-8.89617
蕭	-8.89627
三國	-8.89671
救鄭	-8.89745
国	-8.89886
盈	-8.90144
孝	-8.90177
文王	-8.90226
誠	-8.90253
稱子	-8.90302
厲公	-8.90368
烝	-8.9047
襲	-8.90598
并	-8.90785
公羊曰	-8.90807
景公	-8.90863
龍	-8.9088
討賊	-8.91136
不至	-8.91289
冠	-8.91336
其地	-8.91514
巢	-8.9158
可謂	-8.92029
張氏曰	-8.92124
於楚	-8.92332
A	-8.92682
无	-8.92954
㣲	-8.93048
偃	-8.93061
聚	-8.93078
口	-8.93237
滑	-8.93412
斷	-8.93834
景	-8.93898
列國	-8.9392
夷狄	-8.94046
質	-8.94098
嬖	-8.94109
衣	-8.94114
寢	-8.94154
證	-8.94236
盾	-8.94289
累	-8.94323
其實	-8.94463
幸	-8.94575
母弟	-8.94596
誘	-8.94726
亭	-8.94829
哭	-8.94967
康	-8.95065
懐	-8.95205
養	-8.95291
顯	-8.95393
温	-8.95413
依	-8.95537
積	-8.95581
公之	-8.95648
藏	-8.95749
亦不	-8.95854
孟子	-8.95871
客	-8.96039
予	-8.96069
約	-8.96092
咎	-8.96315
或曰	-8.96414
同姓	-8.96628
鮑	-8.96685
其義	-8.96698
賔	-8.96759
海	-8.96769
吕	-8.9695
。」	-8.97186
媵	-8.97227
仇	-8.97265
公室	-8.97363
仍	-8.97755
戰于	-8.97885
召陵	-8.98021
棘	-8.98064
傅	-8.98273
也然則	-8.98332
于楚	-8.98354
讀	-8.98355
萊	-8.98412
啓	-8.98501
議	-8.98539
故不	-8.98569
薛	-8.98766
簒	-8.98921
恩	-8.98938
避	-8.99082
虚	-8.99102
之功	-8.99222
之說	-8.99295
鄧	-8.99457
郕	-8.99774
送	-8.99865
三家	-8.99944
單伯	-9.00125
二國	-9.00188
一人	-9.0027
戮	-9.00337
拒	-9.00436
㑹盟	-9.00504
而不能	-9.00601
震	-9.00648
礼	-9.00774
明矣	-9.00857
表	-9.00994
篇	-9.01151
無道	-9.01202
舞	-9.01271
塟	-9.0139
王子	-9.01511
傳言	-9.01513
用之	-9.01586
工	-9.01595
B	-9.01739
陳蔡	-9.01768
昌	-9.01784
榖梁曰	-9.02071
㫖	-9.02112
習	-9.02353
宮	-9.02466
不從	-9.02541
遣	-9.02569
擅	-9.02624
福	-9.02934
蒐	-9.02967
遽	-9.0305
勿	-9.03149
丁	-9.03236
尋	-9.03241
古者	-9.03242
辭也	-9.0328
不為	-9.03351
詐	-9.03372
赤	-9.03385
邦	-9.03634
而言	-9.03634
受命	-9.03679
正也	-9.03798
旅	-9.03822
日食	-9.03822
羊	-9.03914
縱	-9.04043
以來	-9.04077
勇	-9.04101
可知	-9.0431
業	-9.04347
傳云	-9.04412
嫁	-9.04465
賞	-9.04507
界	-9.0473
螽	-9.04744
与	-9.04922
覆	-9.04971
招	-9.04973
而歸	-9.05181
事也	-9.05272
潰	-9.05367
不日	-9.05386
諫	-9.0542
十有二月	-9.055
十四	-9.05556
削	-9.05571
之辭也	-9.05606
偏	-9.05687
孤	-9.0573
而復	-9.05937
不正	-9.06012
省	-9.06067
沈	-9.06215
秋八月	-9.06216
安得	-9.06227
干	-9.06285
委	-9.06293
毛	-9.06303
舒	-9.06494
豐	-9.06801
頓	-9.06836
凶	-9.0697
侵伐	-9.07068
負	-9.0712
狐	-9.07128
先儒	-9.07136
伐衛	-9.07188
采	-9.07262
第	-9.07322
囚	-9.07437
称	-9.07446
達	-9.07468
之亂	-9.07566
而不書	-9.07654
注云	-9.07753
取其	-9.0784
俘	-9.07849
晉文	-9.07913
輿	-9.07948
皆以	-9.08267
開	-9.08348
慮	-9.08382
侵鄭	-9.08396
歲	-9.08461
國家	-9.08725
輔	-9.08766
十三	-9.08936
赦	-9.09142
幣	-9.09168
烏	-9.09174
便	-9.09303
匡	-9.09378
每	-9.09422
之中	-9.09488
色	-9.09588
以此	-9.09655
扶	-9.09907
閔公	-9.09922
兹	-9.09938
見其	-9.09964
不忍	-9.10019
蔑	-9.10139
武王	-9.10228
其位	-9.10411
不義	-9.10444
旱	-9.10466
而出	-9.10678
至此	-9.10863
段	-9.10877
没	-9.10969
仲子	-9.10995
姜氏	-9.11109
配	-9.1116
朔日有食之	-9.11247
窮	-9.1132
側	-9.11456
者非	-9.11508
於諸侯	-9.11673
羽	-9.11789
文姜	-9.11864
而又	-9.11951
矣然	-9.12025
歌	-9.12132
饑	-9.12223
莒人	-9.12305
掩	-9.12344
角	-9.1237
踰	-9.1237
王之	-9.12391
㑹諸侯	-9.12473
欒	-9.12474
成風	-9.12742
史記	-9.12828
日月	-9.13012
管仲	-9.13022
清	-9.13104
十九年	-9.13108
亦有	-9.13179
州吁	-9.13276
揚	-9.13601
晦	-9.13845
公子遂	-9.13923
胡傳	-9.13962
可知矣	-9.14092
為主	-9.14126
行人	-9.14231
飲	-9.14235
猶有	-9.14356
禁	-9.14371
四國	-9.14567
留	-9.1458
愚按	-9.14584
先王	-9.14752
隱公	-9.14881
伐陳	-9.14892
移	-9.14893
之君	-9.14897
姦	-9.15096
託	-9.15197
京	-9.15363
輒	-9.15432
故不書	-9.15535
從楚	-9.15648
愈	-9.15765
伏	-9.15791
紀侯	-9.15887
才	-9.16103
殯	-9.16372
聞之	-9.16572
禄	-9.16591
大義	-9.16603
晉楚	-9.16606
伐秦	-9.1661
隠公	-9.16646
坐	-9.16855
魯史	-9.16938
行父	-9.16975
奚	-9.17136
僣	-9.17231
不過	-9.17273
誓	-9.17411
形	-9.17645
僕	-9.17661
舟	-9.17664
恒	-9.17807
文子	-9.17842
衞人	-9.1787
里克	-9.17873
魯地	-9.17907
意如	-9.1792
髙氏曰	-9.17945
稷	-9.17984
二十五年	-9.18039
蕩	-9.18044
子朝	-9.18105
詩曰	-9.18111
集	-9.18209
之戰	-9.18245
國也	-9.18278
之命	-9.18359
殊	-9.18588
而行	-9.18697
小白	-9.18713
何為	-9.18724
惡之	-9.18814
脅	-9.18833
滅之	-9.18889
成王	-9.18903
下同	-9.18983
十六	-9.19
廬	-9.19001
單	-9.19002
平公	-9.19004
之地	-9.19085
中軍	-9.1911
農	-9.19137
悉	-9.19147
歸于	-9.1926
糾	-9.19332
馮	-9.19349
特書	-9.19451
之禍	-9.19501
令尹	-9.19545
君也	-9.19558
知之	-9.1956
最	-9.1963
錫	-9.19786
擇	-9.19816
子孫	-9.1984
險	-9.20038
寡人	-9.20041
讐	-9.20066
左右	-9.2016
鉏	-9.20223
統	-9.20258
庭	-9.20279
歸之	-9.20344
不告	-9.20347
夏六月	-9.20572
季友	-9.20653
故云	-9.20731
不克	-9.20761
襄王	-9.20972
之惡	-9.21041
黜	-9.21074
徴	-9.2108
友	-9.21098
感	-9.21126
師于	-9.21147
貨	-9.21198
則知	-9.21253
祝	-9.21268
他國	-9.21282
散	-9.21388
之始	-9.21495
其意	-9.21517
公作	-9.21519
附庸	-9.21538
葉	-9.21557
則有	-9.21807
吳子	-9.21827
況	-9.21907
而殺之	-9.22023
禹	-9.22115
晉侯使	-9.22129
井	-9.2219
靖	-9.22275
二十三年	-9.22324
國君	-9.22339
亟	-9.22462
懷	-9.22685
曲沃	-9.22695
其名	-9.22705
虐	-9.22765
胡氏曰	-9.22944
睦	-9.23038
撰	-9.23054
淮	-9.23075
郤	-9.23126
之例	-9.23138
走	-9.23139
以明	-9.23147
為政	-9.23186
如是	-9.23285
之世	-9.23347
諸大夫	-9.23455
屢	-9.23544
差	-9.23554
榖梁傳	-9.23614
於是乎	-9.23642
中國之	-9.23793
國而	-9.23818
如楚	-9.23824
微者	-9.23847
夢	-9.23957
曰君	-9.23963
父子	-9.23982
布	-9.23995
怠	-9.2408
熊	-9.24124
䇿	-9.24154
三十年	-9.24168
預	-9.2417
帶	-9.24281
公榖	-9.24315
愚謂	-9.24318
冬十有二月	-9.24402
之道也	-9.2479
兆	-9.24902
升	-9.25107
王使	-9.25153
草	-9.25168
陳氏曰	-9.25197
不行	-9.25387
之國	-9.25524
乞	-9.25733
以自	-9.25753
武子	-9.25755
欲以	-9.25859
不足以	-9.25972
執之	-9.26237
不雨	-9.26293
精	-9.26294
魯國	-9.26311
敝邑	-9.26338
豹	-9.26369
陽虎	-9.26372
侵宋	-9.26375
尹氏	-9.26479
吏	-9.26487
午	-9.26724
莒子	-9.26762
奈何	-9.26806
汪氏曰	-9.26908
敖	-9.26982
嚴	-9.26986
勸	-9.27015
焚	-9.27196
慎	-9.27297
誣	-9.2743
悔	-9.27538
以正	-9.27566
解云	-9.27684
未必	-9.27839
汝	-9.27896
此言	-9.27924
財	-9.27954
管	-9.27962
而使	-9.27991
師敗績	-9.28046
横	-9.28077
困	-9.28104
盗	-9.28127
叔孫豹	-9.28213
陳人	-9.28319
救之	-9.28439
之罪也	-9.28446
納幣	-9.28592
以待	-9.28631
其身	-9.28642
先君之	-9.28709
不服	-9.28715
大事	-9.28749
嬰齊	-9.28776
哀姜	-9.28835
參	-9.2884
繹	-9.28887
茅	-9.28889
十七	-9.28918
貢	-9.2906
寡	-9.2913
蘇	-9.29139
以上	-9.29225
言其	-9.29444
在今	-9.29478
大臣	-9.29543
振	-9.2986
圉	-9.2998
賵	-9.30034
陳氏	-9.30074
于是	-9.30105
人君	-9.30163
聴	-9.30203
者謂	-9.3031
武公	-9.30356
討之	-9.30403
叔向	-9.30487
故春秋	-9.3052
受之	-9.30532
之志	-9.30585
郎	-9.30596
曰子	-9.30611
逞	-9.30696
迎	-9.30736
造	-9.30761
也音義	-9.30952
展	-9.30983
何以書	-9.31119
素	-9.31287
甯	-9.31295
鹿	-9.31347
之弟	-9.3141
歸父	-9.31496
十八	-9.31497
游	-9.31498
隕	-9.315
者有	-9.31509
幼	-9.31624
皮	-9.31668
濮	-9.31702
折	-9.31714
與楚	-9.31722
二十七年	-9.31726
劉氏曰	-9.31753
來歸	-9.31782
註	-9.31896
華元	-9.31911
不待	-9.31954
公如晉	-9.31973
將以	-9.32007
忿	-9.32042
館	-9.32076
而不知	-9.32091
俟	-9.32158
故言	-9.322
驕	-9.32239
諸侯之師	-9.32262
璧	-9.3231
不成	-9.32312
祭仲	-9.32323
之下	-9.32365
剽	-9.32403
抗	-9.3247
鼎	-9.32646
鄙	-9.32686
龜	-9.32862
辠	-9.32868
富	-9.3288
識	-9.32885
而死	-9.32915
以後	-9.32988
啟	-9.33015
也言	-9.3306
諸夏	-9.33066
己丑	-9.33103
宣子	-9.33138
以下	-9.33176
效	-9.33224
徙	-9.33541
鍾	-9.33549
堂	-9.33561
之難	-9.33564
旗	-9.33632
也凡	-9.33641
蔡人	-9.33673
觀之	-9.33692
歳	-9.33716
扈	-9.33754
慢	-9.33806
總	-9.33851
遠	-9.33909
舜	-9.34302
何故	-9.34365
仲孫	-9.34455
以告	-9.34492
伐我	-9.34597
二君	-9.34756
呼	-9.35001
桓子	-9.35055
二十年	-9.35121
術	-9.35159
壬申	-9.35164
出於	-9.3528
商人	-9.35283
早	-9.35303
在位	-9.35338
庚	-9.35367
延	-9.35421
洩	-9.35449
市	-9.35505
忍	-9.35514
密	-9.35591
惑	-9.35616
二十四年	-9.35634
補	-9.35723
亦曰	-9.3586
是故	-9.35932
邱	-9.35937
之喪	-9.3621
祁	-9.36211
撫	-9.36231
椒	-9.36236
又何	-9.36347
悼	-9.36504
癸亥	-9.36521
雅	-9.36528
督	-9.36578
蒙	-9.36666
諸國	-9.36683
酒	-9.36786
伐莒	-9.36821
二十六年	-9.36883
及其	-9.36922
盟主	-9.37051
二十八年	-9.37102
皆有	-9.3712
佗	-9.37221
厥	-9.37321
蠻	-9.37389
般	-9.37466
復歸	-9.37653
晉人執	-9.37687
叔弓	-9.37781
不應	-9.37916
其人	-9.38067
泉	-9.38101
挾	-9.38405
半	-9.38551
可知也	-9.38568
奔齊	-9.38575
川	-9.38598
以求	-9.38653
王臣	-9.38657
在外	-9.38693
前年	-9.38708
失國	-9.38884
甸	-9.3898
則其	-9.38983
甘	-9.39042
伐邾	-9.3909
是年	-9.39184
洛	-9.39192
冝	-9.39237
公㑹齊侯	-9.39249
庚辰	-9.39371
飾	-9.39377
策	-9.39495
藉	-9.39534
公至自㑹	-9.39741
罷	-9.39763
愚	-9.39772
杜預	-9.39947
有疾	-9.39987
乾	-9.40064
係	-9.40145
斥	-9.40154
沒	-9.40169
王姬	-9.40258
小人	-9.40284
鳥	-9.40347
堅	-9.4037
其民	-9.40379
郈	-9.40421
久矣	-9.40459
陸	-9.40541
著其	-9.40596
平王	-9.40635
幽	-9.40644
荀	-9.40662
櫟	-9.40664
三軍	-9.40671
音註	-9.40988
冬十有一月	-9.41042
不勝	-9.41056
寅	-9.41091
苦	-9.41098
偽	-9.41127
察	-9.41136
不書葬	-9.41167
趙氏	-9.41179
駕	-9.41204
也曷為	-9.41244
析	-9.41249
漸	-9.41358
諸侯之大夫	-9.41476
其為	-9.41596
彌	-9.41716
曹人	-9.41727
書法	-9.41798
尾	-9.4187
念	-9.41901
男	-9.41941
尺	-9.41965
寳	-9.42
願	-9.42112
雖有	-9.42207
亦無	-9.42212
帥師伐	-9.42359
釁	-9.4245
何休	-9.42459
衎	-9.42632
之謀	-9.42714
公及	-9.42724
與齊	-9.4281
林父	-9.4284
編	-9.42865
四時	-9.42905
不出	-9.42962
因其	-9.43066
侈	-9.43072
攘	-9.43223
之臣	-9.43254
之大	-9.43285
持	-9.43288
縁	-9.43333
恵	-9.43398
之人	-9.43444
乆	-9.43446
榮	-9.43611
使人	-9.43683
以伐	-9.43684
擊	-9.43684
有二	-9.437
僅	-9.43719
以禮	-9.43807
邾婁	-9.43837
縣南	-9.43875
禽	-9.43881
矢	-9.43895
其母	-9.44072
成周	-9.44167
秦人	-9.44211
偪	-9.44245
公至自	-9.44276
徵	-9.4431
不信	-9.44328
失其	-9.44404
乙亥	-9.44463
之所以	-9.44494
不相	-9.44604
公穀	-9.44845
杜註	-9.44878
不必	-9.44975
未可	-9.44996
矣而	-9.45049
蒯聵	-9.45061
注正義曰	-9.45208
收	-9.45268
王城	-9.45508
王法	-9.45523
壬午	-9.45587
損	-9.4561
户	-9.45629
其惡	-9.45639
嬴	-9.45655
胥	-9.45676
寒	-9.4578
于宋	-9.45856
程子曰	-9.45875
則不	-9.45951
辛巳	-9.45952
彭城	-9.46082
鞅	-9.4613
靈王	-9.46185
謝	-9.46222
之母	-9.46403
貞	-9.46421
不免	-9.46661
者不	-9.46686
吾子	-9.4669
故知	-9.46754
均	-9.46757
甲戌	-9.46845
艾	-9.46907
魚石	-9.4698
河南	-9.47083
者亦	-9.47084
不朝	-9.47116
懲	-9.47213
如京師	-9.47306
猛	-9.47542
名之	-9.47644
齊之	-9.47743
公會	-9.47806
化	-9.47817
人臣	-9.47836
也且	-9.47858
》	-9.47879
《	-9.4788
李	-9.47919
公薨	-9.47942
翼	-9.47949
鄰	-9.48064
乎曰	-9.48098
直書	-9.48114
一事	-9.48126
蜀	-9.48138
講	-9.48226
謝湜曰	-9.48263
麟	-9.48272
戊辰	-9.48285
洮	-9.4829
失之	-9.4835
王人	-9.48403
百里	-9.48551
俗	-9.48572
稱名	-9.48627
之變	-9.48645
中行	-9.48705
元咺	-9.48707
咸	-9.48744
經文	-9.48803
其父	-9.48841
僚	-9.48843
桑	-9.49004
孝公	-9.49083
事之	-9.49086
据	-9.49105
臧	-9.49133
孔父	-9.49159
寗	-9.49385
憾	-9.49397
祥	-9.49427
池	-9.49483
大雩	-9.49543
傳稱	-9.49635
子般	-9.49693
曰我	-9.49707
殆	-9.49832
逆女	-9.49877
謬	-9.4997
司徒	-9.5001
旦	-9.50042
命之	-9.5007
羣臣	-9.50088
湯	-9.50136
繁	-9.50156
于此	-9.50156
一日	-9.50179
郢	-9.5026
婁	-9.50275
義見	-9.50297
煩	-9.50305
甫	-9.50311
名也	-9.50346
來盟	-9.50369
皆書	-9.50383
臯	-9.50455
褒	-9.50634
?	-9.50636
甲午	-9.50822
親迎	-9.50822
盧	-9.50949
之上	-9.51085
有功	-9.51092
陽生	-9.51098
戈	-9.51105
罪也	-9.51206
墮	-9.51216
又云	-9.51279
失禮	-9.51327
皆不	-9.51383
淺	-9.51397
范氏	-9.51433
棄疾	-9.51584
却	-9.51618
4	-9.51646
智	-9.51775
祈	-9.5184
欒盈	-9.5187
公使	-9.51887
筆	-9.51931
二十二年	-9.51958
事而	-9.52051
癸酉	-9.52073
鄰國	-9.52078
婚	-9.52116
塞	-9.52147
郑	-9.52171
學者	-9.52234
豈有	-9.52258
翬	-9.52354
齊魯	-9.5237
㑹而	-9.52371
于魯	-9.52391
之黨	-9.52573
秦師	-9.52741
其不	-9.52742
有事	-9.5277
綱	-9.52954
曽	-9.53021
同盟于	-9.53205
逐之	-9.53205
薦	-9.53366
夷儀	-9.53394
非常	-9.53504
牧	-9.53525
縣西	-9.53609
周室	-9.53668
葵丘	-9.53676
許男	-9.53804
其文	-9.53815
闗	-9.53953
甲子	-9.54008
捷	-9.54148
不繫	-9.54242
壊	-9.54613
讒	-9.54626
乾侯	-9.54697
大夫也	-9.54723
柔	-9.54765
而卒	-9.54805
之會	-9.54867
州來	-9.54922
子叔姬	-9.55055
三傳	-9.55062
衡	-9.55081
戌	-9.55154
大惡	-9.55175
之田	-9.55217
儒	-9.55248
陳鄭	-9.5528
楚公子	-9.55291
侵齊	-9.55299
不時	-9.55407
荀息	-9.55441
欲立	-9.55534
者三	-9.55545
作亂	-9.55645
恭	-9.55651
日有食之	-9.55717
筮	-9.55865
關	-9.55919
二十一年	-9.55996
東南	-9.56039
天之	-9.56043
條	-9.56092
其説	-9.56209
如字	-9.56219
敬王	-9.56225
魯君	-9.56287
不受	-9.56292
父之	-9.5631
劉子	-9.5646
十九	-9.56553
閏月	-9.56579
穿	-9.5658
盟㑹	-9.56586
公與	-9.56675
頌	-9.56767
輕重	-9.5677
堯	-9.56792
辛亥	-9.5683
以報	-9.56872
逼	-9.56919
縣西南	-9.5694
書日	-9.5696
非正也	-9.57006
二人	-9.57073
絳	-9.57105
集說	-9.57189
錄	-9.57256
鄭地	-9.57326
趙氏曰	-9.5746
慶封	-9.5746
祊	-9.57506
巫	-9.57517
無君	-9.57616
事君	-9.5762
庚午	-9.57636
賄	-9.57638
一年	-9.57709
性	-9.57717
荒	-9.57723
伐許	-9.57812
多矣	-9.5782
牢	-9.57834
内外	-9.57853
可乎	-9.57866
借	-9.57913
麇	-9.57942
以成	-9.58285
臧孫	-9.58319
何以不	-9.5835
戾	-9.58378
祫	-9.5842
納之	-9.58473
踰年	-9.58483
聖人之	-9.58498
子家	-9.58699
為國	-9.58737
郯	-9.58899
朝聘	-9.58958
滕子	-9.59031
鄫子	-9.59065
敝	-9.5909
亥	-9.59195
止之	-9.5929
方伯	-9.59299
茍	-9.5932
3	-9.5933
公孫敖	-9.59366
罕	-9.59381
弓	-9.59567
遷于	-9.59617
反又	-9.5972
則無	-9.59757
獻子	-9.59793
也按	-9.5983
之屬	-9.59859
道也	-9.59918
貫	-9.59939
人心	-9.59953
隧	-9.59992
救陳	-9.60033
悖	-9.60048
征伐	-9.60113
丹	-9.60113
天理	-9.60122
之主	-9.60141
則非	-9.60217
得之	-9.60259
新城	-9.60288
博	-9.60296
䖍	-9.60307
城濮	-9.60315
驅	-9.60317
伯主	-9.60337
陰	-9.60367
按左氏	-9.60412
若之何	-9.60419
主兵	-9.6045
之常	-9.60594
其弟	-9.60648
焉爾	-9.60663
未知	-9.60819
父母	-9.60851
札	-9.6086
帛	-9.6087
相見	-9.60885
敗績	-9.60905
戊申	-9.61045
見矣	-9.61087
豫	-9.6112
憚	-9.61154
不敬	-9.61224
處父	-9.61306
卿大夫	-9.61379
郜	-9.61424
今按	-9.6152
猶未	-9.6162
椘	-9.61667
荘公	-9.61682
孟氏	-9.61743
伍	-9.61851
於鄭	-9.61892
澶淵	-9.61915
其餘	-9.61938
春王三月	-9.61979
仕	-9.61992
齊地	-9.62014
㑹晉	-9.62069
懿	-9.62107
之族	-9.62217
之徒	-9.62232
營	-9.62259
饗	-9.62391
襄仲	-9.62414
杜氏注	-9.62459
舊史	-9.62535
家氏曰	-9.62573
己巳	-9.62625
祔	-9.62634
釋例	-9.62643
蔽	-9.62775
出入	-9.62846
劉氏	-9.6285
覇	-9.6287
一時	-9.62888
殽	-9.63026
興師	-9.63093
獄	-9.63155
大夫之	-9.63206
履	-9.63238
正義	-9.6325
者必	-9.63305
民之	-9.63367
寛	-9.63453
賴	-9.63507
重耳	-9.63557
斂	-9.63647
正傳曰書	-9.63717
書卒	-9.63779
審	-9.63838
邑也	-9.63935
土地	-9.63998
者則	-9.64039
無事	-9.64053
子西	-9.64139
丁未	-9.64174
鄭之	-9.64227
殘	-9.64315
癸巳	-9.64375
人以	-9.64378
姒	-9.64428
天王崩	-9.64474
乞師	-9.64496
薳	-9.64601
盂	-9.64679
所當	-9.65088
不欲	-9.65133
叛晉	-9.65172
真	-9.65176
受其	-9.65246
寜	-9.6528
斉	-9.65284
又有	-9.6531
而反	-9.65345
逸	-9.65364
欽定四庫全書春秋	-9.65399
宴	-9.65547
丈	-9.65552
躬	-9.65588
斬	-9.65658
天地	-9.65756
昬	-9.65764
無王	-9.65789
丑	-9.6582
不容	-9.65852
君父	-9.65948
左師	-9.6597
籍	-9.66054
之詞	-9.6613
惡也	-9.66202
之日	-9.66255
宋襄	-9.66298
程	-9.66406
考之	-9.66427
従	-9.66448
人也	-9.66462
亦可	-9.66517
此書	-9.66529
罰	-9.66559
大夫盟	-9.6668
貶之	-9.66839
夀	-9.66844
厭	-9.66844
此時	-9.66867
駟	-9.66962
卦	-9.6711
為文	-9.67122
冕	-9.67281
邲	-9.67346
之月	-9.67357
氏之	-9.67386
逃歸	-9.67456
不月	-9.67464
肉	-9.67501
谷	-9.67505
鄄	-9.67526
前此	-9.67553
主之	-9.67591
與其	-9.67613
潁	-9.67798
之意也	-9.67835
季孫行父	-9.67857
春王二月	-9.68098
規	-9.68113
公如齊	-9.68114
氷	-9.6813
子糾	-9.68141
其臣	-9.68151
景王	-9.68226
殺其	-9.68247
故不言	-9.68272
無禮	-9.68295
趙孟	-9.68368
奔晉	-9.68375
齊侯使	-9.68476
譏之	-9.68582
必書	-9.68621
昭子	-9.68667
自立	-9.68707
監	-9.68723
之際	-9.68808
面	-9.68846
壽	-9.68939
各有	-9.69057
律	-9.69065
春秋之義	-9.69089
君而	-9.69099
非其	-9.69109
會于	-9.69213
閒	-9.69304
之情	-9.6931
顔	-9.69369
迫	-9.69377
不合	-9.6947
國佐	-9.69582
亦以	-9.6977
盍	-9.69788
而魯	-9.69822
呉子	-9.69853
校	-9.69864
稱爵	-9.69909
不用	-9.69916
惡其	-9.6994
不失	-9.69947
此其	-9.69968
鬭	-9.69973
三十一年	-9.6998
圭	-9.70006
三日	-9.70052
丁巳	-9.70077
書人	-9.70148
于鄭	-9.7016
稱公	-9.70182
無以	-9.70268
為魯	-9.70336
眀	-9.70396
戸	-9.70434
子展	-9.70448
褒貶	-9.70455
其曰	-9.70508
賓	-9.7056
大水	-9.70647
隐	-9.70697
桃	-9.70772
有司	-9.70785
得臣	-9.70813
譏其	-9.70863
房	-9.70887
庚寅	-9.70893
見殺	-9.71013
董	-9.71132
以兵	-9.71167
闕文	-9.71182
之失	-9.71188
白狄	-9.71354
殺大夫	-9.71368
觧	-9.71407
此皆	-9.71452
粟	-9.71478
晉國	-9.71498
公至自晉	-9.71517
泰	-9.71527
欒書	-9.71824
上卿	-9.71922
壬	-9.7204
為一	-9.72078
子玉	-9.72119
仲遂	-9.72141
亡國	-9.72186
來告	-9.72239
其心	-9.72338
述	-9.7238
主人	-9.72404
卓	-9.72405
又以	-9.72413
頃	-9.72456
以致	-9.72553
不臣	-9.72584
名氏	-9.72633
嬰	-9.72645
之類是也	-9.72685
義也	-9.72761
而已矣	-9.72798
鐘	-9.72814
叔武	-9.72831
無知	-9.72835
休	-9.72866
豈不	-9.72902
地名	-9.72908
楊	-9.73002
去之	-9.7302
冬至	-9.73028
不亦	-9.73057
與之盟	-9.73085
踐土	-9.73329
量	-9.73365
侵蔡	-9.73386
倫	-9.73434
崔杼	-9.73451
乙	-9.73451
空	-9.7349
赤狄	-9.73548
國之君	-9.73746
四方	-9.73761
甥	-9.73858
逹	-9.73865
則亦	-9.73916
逆之	-9.73925
虛	-9.73941
伐衞	-9.73961
大敗	-9.73969
弗許	-9.73989
入朔	-9.74025
於王	-9.74201
錯	-9.74269
西南	-9.74271
行也	-9.743
為卿	-9.74495
子駟	-9.74497
書者	-9.7451
而得	-9.74531
謙	-9.74624
士匄	-9.74657
盟而	-9.74717
郳	-9.74767
泰山	-9.74871
三公	-9.74915
之力	-9.74923
季文子	-9.74964
宋師	-9.75068
黒	-9.75144
皆不書	-9.75145
公族	-9.75164
柄	-9.7517
春秋之法	-9.75173
周公之	-9.75209
畜	-9.75254
曾	-9.75276
渠	-9.75341
屈完	-9.75346
與諸侯	-9.75351
瀆	-9.75353
閉	-9.75485
不肯	-9.75544
杞伯	-9.75544
匹	-9.75559
為重	-9.75562
衍	-9.75581
占	-9.75658
𤣥	-9.75724
圍宋	-9.75784
孫氏	-9.75818
而弗	-9.75875
受盟	-9.75878
稱王	-9.75917
鬼神	-9.75978
文也	-9.76023
治兵	-9.76046
附録	-9.7605
其志	-9.76073
而書之	-9.76194
出奔晉	-9.76205
穀梁傳	-9.76234
常事	-9.76319
矣今	-9.76327
賜之	-9.76376
杜云	-9.76436
亦非	-9.76526
滅國	-9.7656
藥	-9.76564
趙鞅	-9.76568
卒于	-9.76584
之外	-9.76599
完	-9.7664
辛丑	-9.76658
不地	-9.7667
於宋	-9.76679
不能救	-9.76741
短	-9.76772
種	-9.76779
邇	-9.76789
返	-9.76821
惠王	-9.76892
左傳曰	-9.76922
未至	-9.76966
矣春秋	-9.76981
冰	-9.76993
屋	-9.76993
絶之	-9.77002
注同	-9.77006
書葬	-9.77094
得其	-9.77096
孔子曰	-9.77137
嗚呼	-9.77243
張氏	-9.7732
告于	-9.77333
丙午	-9.77405
曰不可	-9.77679
司城	-9.77679
乎此	-9.77763
拘	-9.77787
之甚	-9.7781
己亥	-9.77883
逮	-9.77887
笑	-9.77898
可見	-9.77915
立之	-9.77999
天道	-9.78026
當國	-9.78077
稱君	-9.78121
二十五	-9.782
十里	-9.7825
與晉	-9.78271
畝	-9.78284
迹	-9.78293
以叛	-9.78319
子反	-9.78321
六卿	-9.78366
季孫宿	-9.78383
辭曰	-9.78441
由是	-9.78452
雲	-9.78475
四十	-9.78561
又不	-9.7878
愬	-9.78789
黎	-9.78848
丗	-9.78873
司空	-9.78908
未能	-9.78929
命也	-9.79013
是非	-9.79037
有三	-9.79127
用兵	-9.7923
于戚	-9.79257
丙戌	-9.79316
召伯	-9.79319
毒	-9.79336
或以	-9.79383
不致	-9.79423
山川	-9.79429
癸	-9.79432
之制	-9.79435
含	-9.7945
塗	-9.79564
矣此	-9.7957
王曰	-9.79593
諸儒	-9.79602
盟也	-9.79604
訟	-9.79709
其間	-9.79752
純	-9.79757
肥	-9.79856
十有一年	-9.79858
旌	-9.79873
欺	-9.7989
稱師	-9.79903
與國	-9.79907
一也	-9.79907
竭	-9.80013
欽定四庫全書	-9.80053
告廟	-9.80066
枝	-9.80108
也書	-9.80136
此亦	-9.80137
域	-9.80138
書至	-9.80144
墨	-9.80207
虎牢	-9.80238
諸侯而	-9.80298
見於	-9.80301
此則	-9.80466
弑逆	-9.80526
欒氏	-9.80536
在此	-9.80546
譖	-9.80584
為右	-9.8059
經傳	-9.80608
行之	-9.80639
諸侯皆	-9.80664
申生	-9.80667
小邾	-9.80696
牽	-9.80697
括	-9.80816
伐魯	-9.80891
先書	-9.80931
僑如	-9.80934
古之	-9.80952
妃	-9.81026
血	-9.811
齊晉	-9.81224
則曰	-9.8123
城縣	-9.8126
縣東	-9.81278
是謂	-9.81373
環	-9.81384
黃	-9.81386
之義也	-9.81391
青	-9.81424
雖不	-9.81432
毋	-9.81507
若是	-9.81529
其大夫	-9.8154
不宜	-9.81544
而春秋	-9.81573
弦	-9.81633
或問	-9.81647
遏	-9.81654
上軍	-9.81683
魯侯	-9.81691
攷	-9.81712
肅	-9.81714
讙	-9.81896
加之	-9.81923
侍	-9.81955
責之	-9.81956
與盟	-9.82028
戊寅	-9.82045
奸	-9.82194
溺	-9.82197
墓	-9.82213
篡	-9.82253
啖	-9.82284
也又	-9.82331
喻	-9.82412
剛	-9.82424
材	-9.82426
云爾	-9.82521
稍	-9.82558
圃	-9.82558
桓王	-9.82589
圖之	-9.82599
㐮	-9.82667
進之	-9.82774
庚申	-9.82796
平丘	-9.82853
辛酉	-9.82874
不明	-9.82928
死而	-9.82958
羈	-9.82982
斃	-9.83011
是為	-9.83054
使大夫	-9.83116
壞	-9.83133
國都	-9.83134
於外	-9.83151
單子	-9.83197
癸丑	-9.83228
故稱	-9.83263
敢不	-9.83278
其禮	-9.83306
平陽	-9.83325
選	-9.83381
鍼	-9.83381
以著	-9.83393
5	-9.83408
其可	-9.83447
鳴	-9.8345
徧	-9.83462
葛	-9.83529
猶可	-9.8353
而致	-9.83536
紂	-9.83588
候	-9.83608
縣西北	-9.8362
東門	-9.83653
之理	-9.83678
而葬	-9.83706
圍許	-9.83714
趙武	-9.83771
箕	-9.83786
増	-9.83851
其私	-9.83943
慝	-9.8407
禮之	-9.84165
非有	-9.8424
公侯	-9.84242
先王之	-9.84313
宋衛	-9.84355
宋地	-9.84404
庇	-9.84434
乙酉	-9.84523
三桓	-9.84555
陽縣	-9.84574
鮮	-9.84608
聽命	-9.84632
東北	-9.84649
怪	-9.84671
不㑹	-9.84758
其辭	-9.84793
吳人	-9.84836
決	-9.84871
亳	-9.84882
齒	-9.8489
盟者	-9.84891
齊桓公	-9.84899
奔楚	-9.84915
溝	-9.84988
其本	-9.84989
縊	-9.85032
惜	-9.85152
水經注	-9.85172
?」	-9.85222
雜	-9.85229
而入	-9.8524
宛	-9.85251
甲寅	-9.85272
買	-9.85379
至自	-9.85395
仲孫蔑	-9.8542
程子	-9.85446
牙	-9.85452
出而	-9.85531
丁丑	-9.85587
永	-9.85588
非所	-9.8562
孫良夫	-9.85667
無傳	-9.8567
投	-9.85692
言於	-9.85709
蟲	-9.85713
鼔	-9.85743
見之	-9.85861
不郊	-9.8598
隙	-9.85991
者矣	-9.85991
荀偃	-9.85999
然而	-9.86039
即此	-9.86074
以國	-9.86106
伐而	-9.8614
秦穆	-9.86169
皆是	-9.86187
孫氏曰	-9.86223
詳見	-9.86228
距	-9.86327
晉平	-9.86354
莊王	-9.86449
憤	-9.86468
去其	-9.86611
之位	-9.86671
之初	-9.86671
犬	-9.86681
樹	-9.86685
勲	-9.86697
宻	-9.86714
臣之	-9.86778
之前	-9.86785
以前	-9.86835
縣東南	-9.86865
必以	-9.86886
與魯	-9.86904
故特	-9.86944
而不敢	-9.87078
津	-9.87163
軌	-9.87175
㡬	-9.8721
州府	-9.87231
陘	-9.87231
綏	-9.87278
在晉	-9.87377
鄢	-9.87502
于周	-9.87529
而稱	-9.87541
朝王	-9.87551
無駭	-9.87608
答	-9.87632
沙	-9.87641
縣北	-9.87655
為此	-9.87663
渝	-9.87678
乙未	-9.87684
崔氏	-9.87758
霸主	-9.87787
則曷為	-9.87842
只	-9.8785
税	-9.87923
己未	-9.87981
之勢	-9.88033
熟	-9.88059
牟	-9.88092
索	-9.88164
不通	-9.88189
城之	-9.88269
戲	-9.8828
祭祀	-9.88299
寘	-9.88326
輙	-9.88393
賢者	-9.88412
其時	-9.88443
鄭師	-9.88583
去疾	-9.88589
叔孫氏	-9.88619
鹹	-9.88673
細	-9.88704
雖然	-9.88748
階	-9.88791
胡安國曰	-9.88953
霍	-9.88995
異於	-9.89013
訾	-9.89015
敗之	-9.89046
正其	-9.89048
男女	-9.89062
也非也	-9.89255
卒子	-9.89383
二十九年	-9.89394
楚丘	-9.89399
時而	-9.89427
不知其	-9.8947
冀	-9.89499
求成	-9.89533
之私	-9.896
夕	-9.89612
麥	-9.89666
於周	-9.89695
整	-9.89767
桓公之	-9.89847
丙辰	-9.89861
作春秋	-9.89885
于外	-9.89898
為善	-9.89902
癸未	-9.89919
佐之	-9.89932
也何	-9.89962
而為之	-9.89972
得志	-9.89982
匄	-9.90236
雒	-9.90266
穆叔	-9.90293
取邑	-9.90302
如宋	-9.90331
小君	-9.90368
圍之	-9.90382
秉	-9.90439
裔	-9.90445
不自	-9.90491
靡	-9.90514
犂	-9.9053
苗	-9.9053
不競	-9.90535
月者	-9.90714
滿	-9.9073
于廟	-9.90753
驗	-9.90759
亢	-9.90786
棠	-9.90791
鄢陵	-9.9082
晉悼	-9.90997
涖盟	-9.91017
沂	-9.9105
戰而	-9.91078
得以	-9.91113
囿	-9.91183
蛇	-9.91257
俾	-9.91277
謚	-9.91319
前後	-9.91334
待之	-9.91356
而自	-9.91407
鞌	-9.91409
于王	-9.91416
破	-9.91438
雞澤	-9.91451
但書	-9.91477
姬姓	-9.91478
繫之	-9.91488
秦晉	-9.91543
意也	-9.9155
協	-9.91553
百官	-9.91571
首止	-9.91618
也諸侯	-9.91644
異也	-9.91668
不能自	-9.91677
正傳曰	-9.91693
齊景	-9.91718
詞也	-9.91769
或謂	-9.91771
主盟	-9.91837
未得	-9.91846
郤克	-9.91937
有大	-9.91939
著矣	-9.92002
華氏	-9.92004
諸侯不	-9.92041
為夫人	-9.92073
鮮虞	-9.92171
齊宋	-9.92257
何哉	-9.92258
出奔楚	-9.92264
涉	-9.9229
允	-9.923
支	-9.92317
傾	-9.92343
雉	-9.92365
肯	-9.92371
不使	-9.92437
可見矣	-9.92451
者蓋	-9.92494
所在	-9.92496
其情	-9.92503
三卿	-9.92557
辛卯	-9.92559
何也曰	-9.92628
淂	-9.92646
而不言	-9.92651
頃公	-9.92661
當在	-9.92671
巡	-9.92712
㑹吳	-9.92786
而退	-9.92848
所得	-9.92862
良霄	-9.92939
潛	-9.9295
不仁	-9.92954
資	-9.92955
亂臣賊子	-9.92961
耦	-9.92979
衛地	-9.93019
大國之	-9.93026
書爵	-9.93201
與鄭	-9.93288
之卒	-9.9332
壬辰	-9.93328
有常	-9.93344
曷爲	-9.93351
從晉	-9.93363
鱄	-9.93374
為人	-9.93376
之内	-9.93384
𤼵	-9.93466
所由	-9.93539
下文	-9.93575
酅	-9.93602
以事	-9.93839
諱也	-9.93839
庚戌	-9.93845
齊侯宋公	-9.93886
不能討	-9.94043
無異	-9.9405
夫人姜氏	-9.94087
轉	-9.94124
兵車	-9.94196
皆非	-9.94208
羅	-9.94223
而求	-9.94234
内女	-9.94307
成子	-9.9432
尊卑	-9.94381
公即位	-9.94427
夫人之	-9.94442
圍鄭	-9.94455
外之	-9.94464
之孫	-9.94504
恕	-9.9453
㑹之	-9.94542
天王使	-9.94583
此説	-9.94621
稱字	-9.94643
必不	-9.94699
筆削	-9.94732
楚莊	-9.94788
事晉	-9.9481
優	-9.94938
許田	-9.94986
童	-9.95048
懼而	-9.95081
歸生	-9.95084
而立之	-9.95128
求之	-9.95138
莘	-9.95145
趨	-9.95156
禦之	-9.9517
侮	-9.95181
其說	-9.9522
所為	-9.95224
呂	-9.95295
譜	-9.95322
可得	-9.95336
射姑	-9.95337
以别	-9.95355
今日	-9.95385
夷吾	-9.95402
夫婦	-9.95435
而與之	-9.95456
罪之	-9.95505
也或曰	-9.95517
而去	-9.95563
此盟	-9.95609
轅	-9.95677
朱子	-9.95758
稅	-9.95847
落	-9.95864
昧	-9.95921
曰春秋	-9.95921
㨗	-9.95938
妾母	-9.9594
子皮	-9.96097
縣有	-9.96119
而止	-9.96157
矣其	-9.96243
齊桓之	-9.96287
奚齊	-9.96319
為大	-9.96329
不道	-9.96345
曷	-9.96458
西北	-9.96464
不忘	-9.96509
束	-9.96635
耕	-9.96659
為正	-9.9667
其能	-9.96703
反下同	-9.96706
辛未	-9.96716
貶而	-9.96749
己酉	-9.96777
丙	-9.96842
而遂	-9.96856
則當	-9.96874
何氏	-9.9691
逐君	-9.96955
閑	-9.97033
其族	-9.97045
狄人	-9.97094
黑	-9.97138
渉	-9.97192
凡書	-9.97241
子常	-9.97278
當立	-9.9731
匹夫	-9.97338
晉地	-9.97449
其功	-9.97476
親親	-9.97489
一國	-9.97503
荼	-9.9758
也何以	-9.976
屏	-9.97602
右師	-9.97608
穆子	-9.97627
甲辰	-9.97665
鄖	-9.97683
見執	-9.97693
在魯	-9.97714
晏	-9.97744
若此	-9.97766
無功	-9.97796
稱國	-9.97814
相與	-9.97835
進退	-9.97883
也杜氏曰	-9.97907
隋	-9.97908
是知	-9.97923
陪臣	-9.97944
復入	-9.97977
創	-9.97997
東方	-9.98048
属	-9.98105
痛	-9.98113
平子	-9.98204
何如	-9.98339
此類	-9.98369
以義	-9.98382
飲酒	-9.98405
趙子曰	-9.98439
宣王	-9.98512
秋九月	-9.98526
荆楚	-9.9855
羞	-9.98555
自取	-9.98588
丁亥	-9.98656
愆	-9.9867
詹	-9.98794
丙子	-9.9884
歩	-9.98925
桓文	-9.9893
公命	-9.98944
也魯	-9.98954
春秋時	-9.98998
自為	-9.99002
遂以	-9.99021
正朔	-9.99035
源	-9.99042
不序	-9.99112
人倫	-9.99237
濫	-9.99245
出也	-9.99366
左氏以為	-9.99442
之權	-9.99476
無貶	-9.99486
武城	-9.99522
為盟主	-9.99555
與焉	-9.99613
夏之	-9.99672
卽	-9.99727
有國	-9.99745
莫之	-9.99804
周人	-9.99882
為大夫	-9.99962
之邑	-9.99966
子重	-10.0005
晋侯	-10.0006
公羊傳曰	-10.001
者一	-10.0011
以討	-10.0015
闞	-10.0019
彚纂	-10.002
非卿	-10.0022
執事	-10.003
蠻夷	-10.003
晏子	-10.003
皆在	-10.0038
縣東北	-10.0039
不獲	-10.0039
詩云	-10.0042
鑿	-10.005
夲	-10.0055
未踰年	-10.0058
侯伯	-10.0067
棺	-10.0068
伐徐	-10.0073
侵衛	-10.0084
今又	-10.009
崔	-10.0092
鞏	-10.0097
見弑	-10.0099
聼	-10.0103
不曰	-10.0112
三十二年	-10.0116
冦	-10.0116
矜	-10.0118
以定	-10.0118
警	-10.0119
皆同	-10.012
於廟	-10.0123
責其	-10.0126
注据	-10.0128
其官	-10.0131
尚書	-10.0136
書及	-10.0142
夾	-10.0143
異姓	-10.0145
取鄆	-10.0145
凡諸侯	-10.0151
不立	-10.0154
襃	-10.0154
乙巳	-10.0157
鬬	-10.016
此春秋	-10.0161
淵	-10.0161
暇	-10.0164
隆	-10.0171
虞公	-10.0171
從而	-10.0178
弁	-10.0179
告於	-10.0183
為災	-10.0186
不善	-10.0196
襄陵許氏曰	-10.0199
齊鄭	-10.0201
暨	-10.0215
縶	-10.0218
弃	-10.0218
孟獻子	-10.0219
地也	-10.0225
楚滅	-10.0227
文定	-10.0236
以行	-10.0256
遜	-10.0259
晉大夫	-10.0272
故因	-10.0275
来聘	-10.0279
以罪	-10.028
先後	-10.0282
之弑	-10.0285
亦是	-10.0286
自此	-10.0287
廵	-10.0289
得國	-10.0292
於天子	-10.0293
禮記	-10.03
之餘	-10.0306
患之	-10.0316
賀	-10.0317
其道	-10.0319
孔氏	-10.0324
注言	-10.0326
缺	-10.0329
機	-10.0329
舍之	-10.0333
見經	-10.0335
是其	-10.0342
露	-10.0342
入陳	-10.0343
君其	-10.0354
覲	-10.0358
當以	-10.0359
誅之	-10.0367
簒弑	-10.0372
窺	-10.0374
陳乞	-10.0375
既而	-10.0379
一稱	-10.0379
子儀	-10.0381
納公	-10.0382
穀梁曰	-10.0384
不諱	-10.0389
而下	-10.0398
不討	-10.0406
遭	-10.0414
庻	-10.0416
倚	-10.0416
矣又	-10.0418
魯衛	-10.0421
當是時	-10.0426
甯喜	-10.0436
有禮	-10.0438
卻	-10.0441
逢	-10.0445
未成	-10.0445
柯	-10.0448
遇于	-10.0452
衷	-10.0457
弗克	-10.0459
刻	-10.0463
馳	-10.0471
弑之	-10.0471
恵公	-10.0473
共公	-10.0477
鍾離	-10.0477
未及	-10.0477
信也	-10.0479
乙丑	-10.0482
未見	-10.0488
云云	-10.0491
啖氏曰	-10.0493
於朝	-10.0494
大叔	-10.0494
季姬	-10.0495
稱國以殺	-10.0495
敬嬴	-10.0496
君子曰	-10.0497
簡公	-10.0499
佚	-10.0502
為亂	-10.0502
見於經	-10.0511
倍	-10.0515
運	-10.0515
尊王	-10.0518
沙隨	-10.0518
.	-10.0519
所欲	-10.0523
有寵	-10.0524
之兵	-10.0524
非義	-10.0526
于天子	-10.0527
盟於	-10.0529
者乎	-10.0534
虽	-10.0537
莒子邾子	-10.0538
二傳	-10.0542
也左氏曰	-10.0544
從者	-10.0551
稱公子	-10.0552
去國	-10.0553
殖	-10.0554
禾	-10.056
把伯	-10.0562
為義	-10.0565
麋	-10.0589
十有二年	-10.0597
陶	-10.0598
豈非	-10.06
稽	-10.0601
侵陳	-10.0606
8.	-10.0608
歛	-10.0617
練	-10.0618
不得不	-10.0618
不可不	-10.062
此義	-10.0623
人者	-10.0634
涖	-10.0637
乎故	-10.0638
尉	-10.0639
2	-10.064
死於	-10.0641
世家	-10.0645
鳩	-10.0648
鄭莊	-10.0656
齊國	-10.0656
儀父	-10.0659
飛	-10.066
㑹葬	-10.0661
徼	-10.0664
滋	-10.0664
獲麟	-10.0668
入郢	-10.067
雷	-10.0675
壤	-10.0689
不顧	-10.0692
濟西	-10.0695
奏	-10.0696
須句	-10.0699
之象	-10.0703
未聞	-10.0707
兮	-10.0709
稱弟	-10.0716
王猛	-10.072
潘	-10.0724
昭王	-10.0725
敎	-10.0725
脱	-10.0727
王子虎	-10.0729
甞	-10.073
照	-10.0739
蕭魚	-10.0742
猶在	-10.0745
戕	-10.0755
古人	-10.0759
宋華元	-10.0762
左氏云	-10.0765
遲	-10.0767
翟泉	-10.0768
併	-10.0769
下軍	-10.0769
互	-10.0781
秩	-10.0782
栗	-10.0785
其死	-10.0799
展輿	-10.0805
家臣	-10.0807
不入	-10.0808
寇	-10.0808
宋之盟	-10.0809
善惡	-10.0812
行事	-10.0819
使卿	-10.0822
君若	-10.0831
乎對曰	-10.0832
味	-10.0835
不恤	-10.0837
敞	-10.0842
訴	-10.0844
故特書	-10.0851
竝	-10.0855
天王之	-10.0861
之賢	-10.0863
道之	-10.0865
汾	-10.0865
鄣	-10.0868
之可也	-10.0871
矯	-10.0872
穆姜	-10.0873
荀林父	-10.0874
也其言	-10.0877
亡矣	-10.0882
周官	-10.0882
輸	-10.0883
七十	-10.0885
門之外	-10.0885
推之	-10.0886
徇	-10.0887
畀	-10.0887
小邾子	-10.089
之大者	-10.0896
師還	-10.0897
者二	-10.0898
烈	-10.0903
恣	-10.0904
江黄	-10.0908
之職	-10.0911
出師	-10.0912
丙寅	-10.0913
略之	-10.0914
包	-10.0918
自相	-10.0921
春正月	-10.0922
大小	-10.0926
救邢	-10.0928
三人	-10.0928
去年	-10.0931
卿士	-10.0932
冉	-10.0935
莊子	-10.0936
芮	-10.0948
陽處父	-10.0949
弑君之賊	-10.0952
書王	-10.0953
於禮	-10.0956
公羊作	-10.0961
乃止	-10.0962
不稱使	-10.0967
於經	-10.0968
祭公	-10.0971
錫命	-10.0971
其師	-10.0973
殿	-10.0973
貌	-10.0975
代之	-10.0982
辯	-10.0982
何以不言	-10.0988
孟孫	-10.0988
之好	-10.0995
蟄	-10.1
瑞	-10.101
二十六	-10.101
先生	-10.1014
領	-10.1021
不正其	-10.1025
;	-10.1029
旋	-10.1032
桐	-10.1036
者所以	-10.104
驟	-10.1041
所以為	-10.1046
之官	-10.1048
伐吳	-10.1049
鎮	-10.1051
向戌	-10.1056
於其	-10.1056
畫	-10.1056
不若	-10.1056
何必	-10.1065
之䘮	-10.1067
魯大夫	-10.1068
姻	-10.107
歎	-10.107
娣	-10.107
繆	-10.1073
黄池	-10.1076
閽	-10.108
羙	-10.1083
亂也	-10.1084
則又	-10.1092
韓厥	-10.1092
獵	-10.1095
邊	-10.11
勉	-10.1101
旁	-10.1101
人皆	-10.1102
死者	-10.1106
其爵	-10.1109
世卿	-10.1119
髙子	-10.1124
然也	-10.1128
雄	-10.1128
戎狄	-10.1131
陷	-10.1133
于諸侯	-10.1136
此事	-10.1142
以著其	-10.1142
籥	-10.1149
樊	-10.1151
注解云	-10.1152
玄	-10.1158
繩	-10.1164
之别	-10.1175
倉	-10.1178
文武	-10.1179
竒	-10.1184
虢公	-10.1185
焉用	-10.1189
千里	-10.1189
未葬	-10.119
不得已	-10.119
寸	-10.1192
猶曰	-10.1193
禱	-10.1193
之賊	-10.1195
王師	-10.1197
名者	-10.12
潞	-10.12
武宫	-10.1202
今年	-10.1204
睢	-10.1209
非正	-10.1213
其一	-10.1216
二卿	-10.1221
巴	-10.1222
於春秋	-10.1227
其稱	-10.1229
改元	-10.123
媚	-10.1244
陋	-10.1247
而來	-10.1247
饋	-10.1257
伯有	-10.126
三代	-10.1266
来朝	-10.1268
矣夫	-10.1269
漢書	-10.1284
獸	-10.1284
而朝	-10.1285
壬寅	-10.1285
十有四年	-10.1286
焉故	-10.1288
傳文	-10.1289
集説	-10.129
不修	-10.1292
諌	-10.1293
如何	-10.1298
召之	-10.1299
固有	-10.1301
入於	-10.1301
祿	-10.1302
㣲者	-10.1302
不順	-10.1311
其有	-10.1312
王制	-10.1314
變文	-10.1317
以私	-10.1318
王崩	-10.1322
操	-10.1323
萬世	-10.1323
彭	-10.1324
之廟	-10.1325
何罪	-10.1327
丘明	-10.133
以救	-10.1331
王所	-10.1332
亡也	-10.1333
水出	-10.1335
戊子	-10.1341
脤	-10.135
無大夫	-10.1353
荀罃	-10.1354
子弟	-10.1356
麻	-10.1366
覺	-10.1367
頗	-10.1368
首惡	-10.137
赴告	-10.1375
而能	-10.1376
一音	-10.138
舅	-10.1385
誤矣	-10.1395
來者	-10.1401
韋	-10.1409
戊午	-10.141
伊	-10.1411
歸而	-10.1412
釋曰	-10.1412
羣公子	-10.1415
岳	-10.1418
叙	-10.1418
朝歌	-10.142
伐鮮虞	-10.1424
充	-10.1428
禮義	-10.1435
執政	-10.145
回	-10.1463
子臧	-10.1476
魯公	-10.1481
矣若	-10.1481
妖	-10.1481
徹	-10.1481
孺子	-10.1484
後漢	-10.149
孔氏曰	-10.149
何得	-10.1492
貶也	-10.1498
宥	-10.1499
書字	-10.1499
螟	-10.1501
壬戌	-10.1507
决	-10.1512
凡伯	-10.1514
者是	-10.1516
晉文公	-10.1518
縣屬	-10.1519
曰寡君	-10.1519
其卒	-10.152
毛伯	-10.1522
彭生	-10.1524
而欲	-10.1528
子孔	-10.153
而不得	-10.1533
6.	-10.1534
之敗	-10.1534
為是	-10.1537
因之	-10.1538
上帝	-10.1544
牆	-10.1548
以尊	-10.1548
稱侯	-10.155
誥	-10.155
叔仲	-10.1552
所書	-10.1554
其上	-10.1555
從其	-10.1555
本又作	-10.1561
大衍厯	-10.1567
不書即位	-10.1569
隰	-10.1571
而盟	-10.1573
之末	-10.1581
楚子伐鄭	-10.1587
若曰	-10.1588
君臣之義	-10.1589
其失	-10.1596
閱	-10.1597
卋	-10.1602
惡而	-10.1605
國語	-10.1613
子罕	-10.1615
相朝	-10.162
三子	-10.1628
競	-10.163
也是故	-10.163
寶	-10.1638
基	-10.1639
晉君	-10.1645
一朝	-10.1648
上文	-10.1648
明日	-10.1648
不吉	-10.1649
十有八年	-10.1651
使若	-10.1653
季武子	-10.1654
乃還	-10.1654
豈可	-10.1655
憖	-10.1655
倒	-10.1656
貶之也	-10.1659
薨于	-10.1664
蒯	-10.167
叔向曰	-10.1671
往㑹	-10.1672
冶	-10.1673
鐸	-10.1673
卞	-10.1674
淮夷	-10.1685
若以	-10.1687
昭穆	-10.169
遣使	-10.169
供	-10.1692
庶子	-10.1701
二十三	-10.1709
季孫意如	-10.1715
聘于	-10.1717
豆	-10.1723
擊之	-10.1723
之行	-10.1727
7.	-10.1733
公孫歸父	-10.1733
君將	-10.1734
汭	-10.1738
杜言	-10.174
郤至	-10.1741
二十四	-10.1747
孫林父	-10.1748
之立	-10.1752
之死	-10.1761
請於	-10.1763
為齊	-10.1765
請命	-10.1766
王孫	-10.1768
其衆	-10.1771
丙申	-10.1773
畿内	-10.1775
叔孫婼	-10.1777
壇	-10.1778
循	-10.1788
國名	-10.1789
不備	-10.1793
復命	-10.18
丁酉	-10.1801
釋例曰	-10.1801
於天下	-10.1802
泗	-10.1817
有此	-10.1829
壹	-10.184
慈	-10.184
宰周公	-10.1844
戊	-10.1854
叔孫僑如	-10.1857
反下	-10.1859
鄭𤣥云	-10.1862
亦當	-10.1862
三百	-10.1865
不死	-10.1868
服䖍	-10.1876
朝夕	-10.1879
不舉	-10.188
踐	-10.1888
夫差	-10.1889
弗聽	-10.1895
荀躒	-10.1895
宋鄭	-10.1896
子男	-10.19
庶其	-10.1901
所載	-10.191
也胡氏曰	-10.191
伯禽	-10.1911
不稱公子	-10.1917
今河南	-10.1921
𢎞	-10.1921
趙穿	-10.1925
志也	-10.1927
伉	-10.1927
鄭忽	-10.1928
以見其	-10.1929
之分	-10.1941
滅陳	-10.1942
定姒	-10.1947
此傳	-10.1955
恨	-10.1956
誤也	-10.1961
之患	-10.1965
荀寅	-10.1966
狄之	-10.1969
亦未	-10.197
王道	-10.1975
偪陽	-10.1976
宋之	-10.1977
二十八	-10.1984
為名	-10.1986
侵楚	-10.1999
爻	-10.1999
弭	-10.2001
亦書	-10.2003
泓	-10.2004
裳	-10.2008
而殺	-10.2019
作三軍	-10.202
乎且	-10.2022
魯以	-10.2024
不可謂	-10.2025
敏	-10.2028
公羊以為	-10.2032
百姓	-10.2032
王世子	-10.2033
𣣔	-10.2036
而楚	-10.2039
陸渾	-10.2042
者明	-10.2046
夏正	-10.2046
伐者	-10.2047
也案	-10.2048
救齊	-10.2054
竹	-10.2054
周制	-10.2055
祗	-10.2059
子產	-10.2061
叚	-10.2062
闔廬	-10.2062
人情	-10.2063
圍成	-10.2068
父兄	-10.2073
郛	-10.2075
快	-10.2078
在齊	-10.208
武夷胡氏傳	-10.2083
楚子使	-10.209
諸侯盟	-10.209
商臣	-10.2092
諱之也	-10.2096
不祥	-10.2099
紇	-10.2105
根	-10.2111
兩觀	-10.2111
再見	-10.2116
南里	-10.2118
假道	-10.2128
國無	-10.213
存亡	-10.2134
殤公	-10.2139
内大夫	-10.214
城在	-10.214
狀	-10.2144
春秋所以	-10.2155
曷為不言	-10.2159
書歸	-10.2161
台	-10.2161
於君	-10.2164
明其	-10.2166
已見	-10.217
自見矣	-10.2176
而伐之	-10.2177
僖二十	-10.2181
春秋所	-10.2185
夷狄之	-10.2188
公羊云	-10.2189
寓	-10.2196
書取	-10.2198
不食	-10.2203
则	-10.2203
武氏	-10.2222
將死	-10.2222
王正月	-10.2223
一月	-10.2226
書入	-10.2228
一字	-10.2231
與宋	-10.2232
以是為	-10.2242
郟	-10.2248
者即	-10.2249
愧	-10.225
用牲	-10.2254
禮樂	-10.2255
莫能	-10.2261
1.	-10.2269
獨書	-10.2271
斗	-10.2273
遂滅	-10.2283
胙	-10.2284
莫如	-10.2291
不共	-10.2291
子赤	-10.2292
弗能	-10.2294
者衆	-10.2296
季氏之	-10.2306
論語	-10.2309
則可	-10.2309
侵曹	-10.2312
區區	-10.232
弊	-10.2321
嗣君	-10.2325
二邑	-10.2326
臣召南	-10.2329
不葬	-10.2331
曠	-10.2334
而先	-10.2337
于衛	-10.2338
帥師圍	-10.234
雖欲	-10.2342
也愚謂	-10.2345
諸侯無	-10.2346
鬼	-10.2349
出奔齊	-10.2351
六十	-10.2352
以諸侯	-10.2354
雉門	-10.2357
所能	-10.2359
轍	-10.237
在上	-10.237
嶽	-10.2371
肸	-10.238
三命	-10.2381
諱之	-10.2384
不廢	-10.2385
繇	-10.2386
慕	-10.2389
項	-10.2391
隂陽	-10.2395
昭二十	-10.2397
不救	-10.2399
揖	-10.2401
其始	-10.2411
到	-10.2411
可矣	-10.2412
王子朝	-10.242
較	-10.2424
魋	-10.2424
春秋之所	-10.2426
方城	-10.2428
之實	-10.2432
南蒯	-10.2439
也其曰	-10.2441
庫	-10.2445
了	-10.2448
高氏曰	-10.2451
以從	-10.2453
薛伯	-10.2453
偕	-10.2458
裘	-10.2459
申侯	-10.246
也古者	-10.2461
一名	-10.2467
路寢	-10.2468
何氏曰	-10.2479
子囊	-10.248
二事	-10.248
徴舒	-10.2481
伐戎	-10.2482
不書此何以書	-10.2483
於我	-10.2486
汜	-10.2491
始終	-10.2491
㑹齊侯	-10.2491
免於	-10.2493
凌	-10.2494
詭	-10.2495
立君	-10.2502
如莒	-10.2504
此其言	-10.2507
賁	-10.2512
㑹伐	-10.2513
浮	-10.2516
兩君	-10.2521
入春秋	-10.2525
步	-10.2527
春秋之世	-10.2529
公㑹晉侯	-10.253
左氏謂	-10.253
夔	-10.2532
以王命	-10.2532
二十一	-10.2533
如㑹	-10.2533
告朔	-10.2533
於上	-10.2533
戰國	-10.2535
治之	-10.2538
隊	-10.2544
亦非也	-10.2546
僑	-10.255
掠	-10.255
何所	-10.255
同心	-10.2552
逺矣	-10.2553
後人	-10.2553
之善	-10.2556
而請	-10.2562
共王	-10.2569
五十	-10.257
不改	-10.2571
送之	-10.2574
國政	-10.258
雪	-10.258
九年春	-10.2581
欒黶	-10.2586
于社	-10.2592
岸	-10.2598
伐曹	-10.2598
太史	-10.2611
小國之	-10.2614
舉其	-10.2615
譚	-10.2617
部	-10.2618
譎	-10.2621
滕薛	-10.263
列國之	-10.2634
漆	-10.2635
○(	-10.2641
出奔陳	-10.2641
之妻	-10.2642
績	-10.2643
佞	-10.2648
欲去	-10.2651
士鞅	-10.2651
廬陵李氏曰	-10.2653
寄	-10.2654
乏	-10.2656
魯桓	-10.266
看	-10.266
之計	-10.2664
酉	-10.2666
晉殺其大夫	-10.2675
子良	-10.2676
坤	-10.269
祧	-10.2694
不許	-10.2694
辞	-10.2697
今屬	-10.2698
人之所	-10.27
齊侯衛侯	-10.27
大抵	-10.2702
菑	-10.2707
盟于扈	-10.2709
邦國	-10.2711
用幣	-10.2718
共姬	-10.272
二三子	-10.2721
廩	-10.2721
澄	-10.2722
至自齊	-10.2723
為王	-10.2725
不親	-10.2726
汲汲	-10.2728
二十九	-10.2735
于陳	-10.2736
君臣之	-10.2736
入者	-10.2741
紀季	-10.2746
肩	-10.2747
有年	-10.2748
也又曰	-10.2748
王事	-10.275
書時	-10.2755
髙固	-10.2762
當書	-10.2762
遁	-10.2763
庚子	-10.2772
以利	-10.2775
奄	-10.2782
許叔	-10.2789
又書	-10.2793
續	-10.2798
冒	-10.2798
偃師	-10.2801
始於	-10.2802
縣東南有	-10.2806
咺	-10.2806
天子諸侯	-10.2807
義又見	-10.281
者四	-10.2814
杜以	-10.2816
繋	-10.282
傳見	-10.2828
將中軍	-10.2833
維	-10.2838
諸侯伐鄭	-10.2842
食之	-10.2844
也於是	-10.2847
不聽	-10.2848
消	-10.2856
當是	-10.2856
一國之	-10.2862
9.	-10.2863
公宫	-10.2873
之論	-10.2874
㓜	-10.2877
攻之	-10.288
辭以	-10.2883
蒍	-10.2886
為令尹	-10.289
公子友	-10.2895
則不書	-10.2905
十有三年	-10.291
夾谷	-10.2911
故書曰	-10.2912
藩	-10.2913
旨	-10.2913
士㑹	-10.2918
于朝	-10.2918
滛	-10.2927
幕	-10.2927
何獨	-10.2931
緣	-10.2932
大宰	-10.2932
來媵	-10.2936
而獨	-10.2938
攜	-10.2949
菽	-10.295
驪姬	-10.2952
之長	-10.2954
守之	-10.2956
給	-10.2966
陳留	-10.2969
令狐	-10.2982
吳楚	-10.2982
後至	-10.2984
罪其	-10.2985
不幸	-10.2992
必先	-10.2997
河東	-10.2999
阿	-10.3
南陽	-10.3004
蟲牢	-10.3008
負芻	-10.3008
雞	-10.3008
稱人者	-10.3011
漷	-10.302
不暇	-10.3021
鑄	-10.3022
髙厚	-10.3023
呉人	-10.3028
奔莒	-10.3036
視之	-10.3037
杜氏預曰	-10.3044
玉帛	-10.3047
從君	-10.305
奪之	-10.305
敦	-10.3054
同上	-10.3056
欲使	-10.306
餼	-10.3061
伸	-10.3063
成二年	-10.3065
十有一月	-10.3071
孟子曰	-10.3073
七年春	-10.3073
妹	-10.3077
反覆	-10.3082
克之	-10.3083
司寇	-10.3083
之數	-10.3084
執曹伯	-10.3085
禰	-10.3086
韓宣子	-10.3099
今此	-10.3104
范宣子	-10.3104
助之	-10.3106
犧	-10.3108
邵	-10.3115
脫	-10.3115
公會齊侯	-10.3121
而歸之	-10.3123
公至自齊	-10.3129
釋之	-10.3133
千乗	-10.3134
能無	-10.3136
於人	-10.3136
鑒	-10.3137
宵	-10.3137
彘	-10.314
徳而	-10.3141
紓	-10.3142
伯業	-10.3151
乎春秋	-10.3164
晉趙盾	-10.3164
長厯	-10.3167
僖二十八年	-10.3172
故聖人	-10.3175
不務	-10.3179
國在	-10.318
霸業	-10.3189
公會晉侯	-10.3191
所生	-10.3193
二十二	-10.3194
祠	-10.3196
五日	-10.3197
翩	-10.3197
此二	-10.3208
夏時	-10.3212
録之	-10.3219
逾年	-10.322
者以其	-10.3225
本作	-10.3226
楚地	-10.3227
曺	-10.3231
屯	-10.3231
常事不書	-10.3233
以出	-10.3236
於越	-10.3244
悟	-10.3254
之服	-10.3257
削之	-10.3274
大司馬	-10.3277
千乘	-10.3284
故城	-10.3287
晉趙鞅	-10.3288
為諸侯	-10.3295
鄭國	-10.3297
或者	-10.3298
伯討	-10.3301
皆以為	-10.3308
為貶	-10.3313
子木	-10.3313
中國諸侯	-10.3316
或言	-10.332
之詩	-10.3322
晉襄	-10.3324
者盖	-10.3326
寺人	-10.3329
王后	-10.3331
槩	-10.3331
罪在	-10.3337
追之	-10.3339
太叔	-10.3341
下陽	-10.3341
討其	-10.3343
諸樊	-10.3346
限	-10.3348
匿	-10.3348
此之謂	-10.3354
戊戌	-10.3361
子産曰	-10.3362
故使	-10.3364
君薨	-10.3373
柏舉	-10.3375
為晉	-10.3377
繼之	-10.3377
我也	-10.3386
之戒	-10.3389
而告	-10.339
唁	-10.3392
若何	-10.3403
亦云	-10.3404
如陳	-10.341
今乃	-10.3412
無咎	-10.3412
豈得	-10.3417
胡氏傳	-10.3418
社稷之	-10.3423
尋盟	-10.3423
緡	-10.3424
浸	-10.3425
減	-10.3425
伐國	-10.3427
誰敢	-10.3428
救宋	-10.3428
其不言	-10.3429
覿	-10.3429
經不書	-10.3431
之子也	-10.344
莫不	-10.3441
諫曰	-10.3442
汶陽之田	-10.3443
帥師救	-10.3443
师	-10.3445
復讎	-10.3451
焦	-10.3463
之事也	-10.3464
稽首	-10.3471
以相	-10.3475
曰無	-10.3475
邾莒	-10.3476
用師	-10.348
偶	-10.3485
吕氏曰	-10.3494
不絶	-10.3495
為宋	-10.3498
悦	-10.3498
不能正	-10.35
若夫	-10.3504
禽獸	-10.3505
王朝	-10.3507
而奔	-10.3507
悲	-10.3507
士縠	-10.3512
大功	-10.3513
不堪	-10.352
公至自伐	-10.352
在下	-10.352
曼	-10.3521
終身	-10.3523
有餘	-10.3528
已甚	-10.3528
乆矣	-10.353
弗及	-10.3534
至今	-10.3539
以取	-10.3542
堪	-10.3544
不易	-10.355
逕	-10.355
前日	-10.3553
二十七	-10.3559
媯	-10.3561
臧文仲	-10.3564
所云	-10.3576
宋公陳侯	-10.3578
之禮也	-10.3579
曰余	-10.358
邴	-10.3583
案左氏	-10.3585
無名	-10.3592
不聞	-10.3599
載書	-10.3601
又謂	-10.361
頭	-10.3623
子家子	-10.3624
頼	-10.3643
醜	-10.3643
本無	-10.3644
為質	-10.3644
三十里	-10.3652
吁	-10.3654
何足	-10.3655
救徐	-10.3659
出于	-10.3662
胄	-10.3663
地理志	-10.3671
簡子	-10.3672
悪	-10.3677
黍	-10.3678
其家	-10.3694
崔子	-10.3696
戍之	-10.3697
國史	-10.3697
邿	-10.3699
乖	-10.3701
軒	-10.3703
激	-10.3703
定四年	-10.371
之謂也	-10.3713
先言	-10.3714
再書	-10.3716
試	-10.3721
仇牧	-10.3727
康王	-10.3727
而况	-10.3732
𫝊云	-10.3735
孛	-10.3735
姊	-10.3739
底	-10.3745
后稷	-10.3748
得禮	-10.3754
之正	-10.3757
阻	-10.3759
者罪	-10.3762
問於	-10.3762
廪	-10.3763
享之	-10.3765
天討	-10.3767
為之也	-10.3768
其次	-10.3775
無信	-10.3776
入鄆	-10.3778
而後書	-10.3778
談	-10.3782
襄十	-10.3782
齊崔杼	-10.3783
他人	-10.3784
彰	-10.3784
李氏	-10.3794
其誰	-10.3812
狼	-10.3818
楚國	-10.3819
卜郊	-10.382
替	-10.3824
周正	-10.3825
韓起	-10.3826
列於	-10.3826
孔達	-10.3829
許男曹伯	-10.3831
朱子曰	-10.3838
陸氏曰	-10.3839
天地之	-10.3839
五年春	-10.3842
跡	-10.3843
霜	-10.3844
婚姻	-10.3846
非聖人	-10.3847
葬我小君	-10.3847
聲子	-10.3849
無冰	-10.3849
又如字	-10.3851
天子之禮	-10.386
無宇	-10.3862
地震	-10.3863
麗	-10.3864
冢宰	-10.3864
退而	-10.3876
瑣	-10.3883
救患	-10.3884
城成周	-10.3885
泣	-10.3886
而往	-10.3886
宇	-10.3887
不盡	-10.3896
十有三年春	-10.3899
在焉	-10.3901
王官	-10.3901
符	-10.3908
齊世子光	-10.391
吳師	-10.3911
無乃	-10.3941
懿公	-10.3941
北燕	-10.3951
不加	-10.3952
徵舒	-10.3952
他日	-10.3956
城父	-10.396
格	-10.3963
桀	-10.3965
不察	-10.397
贄	-10.3972
東夷	-10.3982
深矣	-10.3994
狄侵齊	-10.3994
奔喪	-10.3995
不志	-10.3996
閭	-10.3997
十有五年	-10.4002
己卯	-10.4006
羔	-10.4007
詰	-10.4007
弗與	-10.401
胥童	-10.4011
所言	-10.4012
禚	-10.4012
事齊	-10.4016
亂賊	-10.4019
也榖梁傳	-10.4026
而去之	-10.4028
豫章	-10.4031
其所以	-10.4032
以为	-10.4034
楚成	-10.4042
惰	-10.4047
之次	-10.4051
書月	-10.4056
注無傳	-10.4056
中夏	-10.406
数	-10.4065
式	-10.4068
大蒐	-10.407
自外	-10.4072
奢	-10.4073
儉	-10.4073
天子之事	-10.4073
子大叔	-10.4078
稱夫人	-10.4079
既葬	-10.4082
鄀	-10.4084
公子慶父	-10.4096
甲申	-10.4107
佩	-10.4109
送葬	-10.4114
𣏌	-10.4115
沮	-10.413
子魚	-10.4131
旬	-10.4135
致其	-10.4135
十有六年	-10.4136
毎	-10.4137
無他	-10.4138
臣聞	-10.416
無復	-10.4162
外大夫	-10.4162
齊襄	-10.4164
本末	-10.4164
但言	-10.4169
五行	-10.4172
蔡景	-10.4174
契	-10.4178
祭伯	-10.4185
纂	-10.4189
雹	-10.4195
刀	-10.4197
副	-10.4199
炎	-10.4213
3.	-10.4216
公伐邾	-10.4218
行成	-10.4218
不可以不	-10.422
顛	-10.422
公子遂如齊	-10.4225
敗宋師	-10.4226
或以為	-10.4229
致女	-10.423
翟	-10.4233
蓼	-10.4234
襚	-10.4235
下云	-10.4237
泥	-10.4239
邯鄲	-10.424
羊舌	-10.424
太廟	-10.4241
幸而	-10.4245
五人	-10.4246
北宫	-10.4248
其室	-10.4253
故謂之	-10.4257
篤	-10.4257
托	-10.426
壘	-10.4261
史官	-10.4265
季札	-10.427
為公	-10.4273
罃	-10.4278
叔牙	-10.4279
詛	-10.4279
人道	-10.4282
天下之大	-10.4286
者葢	-10.4289
築臺	-10.429
罪之也	-10.4296
亦如之	-10.4298
湖	-10.4311
之過也	-10.4316
義例	-10.4316
北杏	-10.4316
論之	-10.4323
者正以	-10.4323
函	-10.4324
無益	-10.4325
入國	-10.4329
七日	-10.4329
糴	-10.4334
襃貶	-10.4334
隣	-10.4334
期而	-10.4335
罪人	-10.4344
日中	-10.435
寗喜	-10.435
十有二年春	-10.4354
康叔	-10.4355
楹	-10.4367
相去	-10.4377
榭	-10.438
春秋之時	-10.438
為楚	-10.4383
刃	-10.4385
不言及	-10.4386
狂	-10.4387
二百四十二年	-10.4388
贈	-10.439
災異	-10.4398
歸寧	-10.4405
姊妹	-10.4409
得失	-10.4409
免牲	-10.4412
1	-10.4413
政事	-10.4415
百四十	-10.4423
袁僑	-10.4425
鄅	-10.4427
歆	-10.4428
婼	-10.4429
冬十一月	-10.443
八年春	-10.4437
乙卯	-10.4449
河陽	-10.445
也髙氏曰	-10.4451
桓二年	-10.4452
命大夫	-10.4453
六年春	-10.4454
曰昔	-10.4472
10.	-10.4477
俞	-10.4477
壬子	-10.4494
蝝	-10.4494
蕃	-10.4495
如之何	-10.4496
得罪於	-10.4497
謗	-10.4498
及楚平	-10.4499
趙孟曰	-10.4502
孟明	-10.4507
東遷	-10.4512
屨	-10.4513
始封	-10.4516
二年春	-10.4516
南北	-10.4517
詔	-10.4518
譛	-10.4521
切又	-10.4527
子叔	-10.453
北方	-10.4534
有事於	-10.4537
微弱	-10.454
嗣子	-10.4546
者惟	-10.4553
娶于	-10.4561
堵	-10.4562
䟽	-10.4563
12.	-10.4563
城楚丘	-10.4569
捨	-10.4583
又不能	-10.4584
瓦	-10.4588
於前	-10.4588
施於	-10.4593
子晳	-10.4593
曲直	-10.4596
會諸侯	-10.4608
郤犫	-10.4608
其祖	-10.4609
鈞	-10.4628
説者	-10.463
柤	-10.4632
耳非	-10.4633
其妻	-10.4637
國子	-10.4639
先公	-10.464
如齊逆女	-10.4643
匠	-10.4647
不得已而	-10.4657
予之	-10.4659
會晉	-10.4664
殺世子	-10.4668
舒鳩	-10.4674
圍陳	-10.4678
也故曰	-10.4683
癸卯	-10.4688
侯爵	-10.4691
何謂	-10.4693
陽榖	-10.4693
葬我君	-10.4693
家氏鉉翁曰	-10.4694
洽	-10.4694
無譏	-10.4698
駒	-10.471
頻	-10.4712
辛夘	-10.4713
不亦可乎	-10.4717
坎	-10.4717
晉悼公	-10.4718
范氏曰	-10.4722
失政	-10.4722
先軫	-10.4725
下書	-10.4732
天子之命	-10.4736
萌	-10.474
主夏盟	-10.4741
閲	-10.4746
專殺	-10.4748
而終	-10.4752
耻	-10.4759
鄟	-10.476
晉陽	-10.4765
與中國	-10.4767
變例	-10.4786
叔孫得臣	-10.4789
百乘	-10.4797
林言	-10.4799
醫	-10.4802
建子	-10.4809
城虎牢	-10.4814
百乗	-10.4814
嫁女	-10.4819
女叔	-10.4821
妨	-10.4824
挈	-10.4826
曉	-10.4827
輯	-10.4827
胥命	-10.4827
二三	-10.4828
要之	-10.4829
三世	-10.484
内史	-10.4843
斾	-10.4846
用事	-10.4851
弗敢	-10.4853
子突	-10.4862
齊人來歸	-10.4868
爰	-10.4869
焉耳	-10.4871
衛孫林父	-10.4871
醉	-10.4872
栁	-10.4875
文王之	-10.4877
陜	-10.4883
而莫之	-10.4883
閻	-10.4888
驂	-10.489
樂祁	-10.489
而成	-10.4893
劉氏敞曰	-10.4893
區	-10.4894
儆	-10.4895
不害	-10.491
普	-10.4913
中丘	-10.4913
播	-10.4917
敗狄	-10.4919
天命	-10.4935
直言	-10.4936
滎陽	-10.4949
會盟	-10.495
未足	-10.4952
未盡	-10.4953
楚人伐鄭	-10.4954
中牟	-10.4959
臧氏	-10.4961
骨	-10.4961
其親	-10.4968
之節	-10.4977
懼其	-10.498
不終	-10.4983
罔	-10.4985
黔牟	-10.4989
洩冶	-10.499
車馬	-10.4997
滅亡	-10.4997
卯	-10.4998
䝉	-10.5007
士魴	-10.5016
叔老	-10.5018
湫	-10.503
闇	-10.503
此說	-10.5045
郤缺	-10.5046
錡	-10.5049
隘	-10.505
甲兵	-10.5052
爽	-10.5052
朋	-10.5054
城邢	-10.5055
先祖	-10.5063
2.	-10.5072
荅	-10.5074
叛楚	-10.5078
先縠	-10.5079
豈能	-10.5085
汶	-10.5086
羿	-10.5087
志在	-10.5089
晉士鞅	-10.5089
女子	-10.5097
漏	-10.5098
吞	-10.51
於是始	-10.5101
子元	-10.5101
九月大雩	-10.5106
十餘年	-10.5119
左𫝊	-10.5121
不言公	-10.5126
悉書	-10.5126
春秋之初	-10.5127
故杜	-10.5138
十年春王正月	-10.5138
芳	-10.5141
溫	-10.5142
印	-10.5148
國之大夫	-10.515
淳于	-10.5154
在喪	-10.5154
豈其	-10.5156
率諸侯	-10.5159
殺人	-10.516
重丘	-10.516
請盟	-10.5162
冬十二月	-10.5162
太宰	-10.5166
壅	-10.517
者多矣	-10.517
狎	-10.5171
一旦	-10.5189
子干	-10.519
稼	-10.519
譬	-10.5192
仗	-10.5194
非時	-10.5197
公子翬	-10.5197
解云即	-10.52
出居	-10.521
無虧	-10.5214
導	-10.5214
而後可	-10.5218
奮	-10.5238
根牟	-10.5263
宣子曰	-10.5267
固請	-10.5267
師敗	-10.5268
由此	-10.5271
所惡	-10.5283
宋萬	-10.5284
公在乾侯	-10.5291
苟有	-10.5295
茲	-10.5301
迭	-10.5309
廹	-10.531
大廟	-10.531
莫敢	-10.5313
蠱	-10.5314
來乞師	-10.5314
正卿	-10.5317
軫	-10.5318
稱伯	-10.5329
孝子	-10.5331
世本	-10.5332
之辱	-10.5336
之恩	-10.5338
非特	-10.5343
紀叔姬	-10.5349
渡	-10.5351
溴梁	-10.5354
秋冬	-10.5356
十五里	-10.5358
君子不	-10.5358
江南	-10.5359
周礼	-10.5361
河曲	-10.5376
禍亂	-10.5376
晚	-10.538
究	-10.538
晝	-10.5385
乞盟	-10.5385
鄬	-10.5386
亦然	-10.5386
8	-10.5391
不嫌	-10.5392
北燕伯	-10.5393
曹衛	-10.5397
必死	-10.5404
叛臣	-10.541
荆蠻	-10.5411
公㑹晉侯宋公	-10.5413
清丘	-10.5414
華亥	-10.5414
十有四年春	-10.5415
忠信	-10.5417
其職	-10.5423
輸平	-10.5423
檉	-10.5429
公至自伐鄭	-10.5429
欵	-10.5431
司冦	-10.5432
百人	-10.5434
未命	-10.5436
失道	-10.544
举	-10.5445
驚	-10.5451
觧云	-10.546
啖子曰	-10.5463
定王	-10.5463
人之國	-10.5469
不赴	-10.5471
視朔	-10.5473
畧之	-10.5474
訖	-10.5474
裁	-10.5477
纔	-10.5478
汪	-10.5478
權衡	-10.548
圍蔡	-10.5487
敗諸	-10.5488
帷	-10.5493
煬	-10.5496
君親	-10.5497
公至自會	-10.5499
不畏	-10.55
之始也	-10.5507
器用	-10.5509
大史	-10.5514
止書	-10.5518
沛	-10.552
爾雅	-10.5526
復國	-10.5527
東平	-10.5528
亦不書	-10.5531
十年春	-10.5534
子貢	-10.5534
相繼	-10.554
五百	-10.554
鹽	-10.5541
遥	-10.5544
帑	-10.5546
霸者	-10.5548
婉	-10.555
誰能	-10.5551
之正也	-10.5557
十有七年春	-10.5559
不得與	-10.5566
知禮	-10.5577
未詳	-10.5577
春秋書之	-10.5578
▁左氏傳	-10.558
家語	-10.5588
9.2	-10.559
稱世子	-10.5591
受賂	-10.5597
民力	-10.5599
十有五年春	-10.5615
為司馬	-10.5617
不見公	-10.5618
公子貞帥師	-10.5625
春秋所書	-10.5625
叛人	-10.5628
外交	-10.563
有事于	-10.5635
𨽻	-10.5635
之本也	-10.5638
胡子	-10.5639
弑君之罪	-10.5641
終始	-10.5645
事實	-10.5646
宋向戌	-10.5653
絰	-10.5656
討罪	-10.5658
春秋不書	-10.5658
失位	-10.5659
大旱	-10.5661
豎	-10.5667
致討	-10.5668
增	-10.5668
糧	-10.5669
聲姜	-10.5669
搆	-10.567
干戈	-10.5671
必敗	-10.5676
眚	-10.5681
反注同	-10.5682
服䖍云	-10.5683
檀弓	-10.569
皋	-10.5691
猶三望	-10.5695
之漸	-10.5699
三年春王正月	-10.5701
而執之	-10.5707
顓頊	-10.5716
吾聞	-10.5717
邳	-10.5718
張氏洽曰	-10.5719
彄	-10.5722
南門	-10.5727
洛陽	-10.5729
弑君者	-10.5731
叔父	-10.5735
威儀	-10.5736
斷道	-10.5736
賈逵	-10.5745
土功	-10.5752
書即位	-10.5753
來討	-10.5755
一等	-10.576
不言戰	-10.576
亹	-10.5763
初立	-10.5764
前書	-10.5766
二年春王正月	-10.5766
異乎	-10.5767
伐邢	-10.5771
伯爵	-10.5777
箴	-10.5789
偷	-10.5791
報怨	-10.5793
黄帝	-10.5794
豕	-10.5794
之邑也	-10.5794
政在	-10.58
師徒	-10.5801
藻	-10.5813
蔡季	-10.5814
不名者	-10.5816
卒于師	-10.5819
加於	-10.5821
范獻子	-10.5823
案他本	-10.5829
有寵於	-10.5829
良夫	-10.5832
也劉氏曰	-10.5834
三綱	-10.5843
劒	-10.5844
貴賤	-10.5845
囊瓦	-10.5846
昭元年	-10.5846
劉炫	-10.5847
五十里	-10.5848
無疑	-10.5852
比事	-10.5853
與夷	-10.5853
諡法	-10.5856
膏	-10.5857
所以見	-10.586
狄泉	-10.5861
其兄	-10.5862
苖	-10.5864
不虞	-10.587
厥貉	-10.5871
滅同姓	-10.5876
庶幾	-10.5877
于太廟	-10.5884
弑父	-10.5886
諸家	-10.5887
謁	-10.5891
作丘甲	-10.5892
之迹	-10.5902
所滅	-10.5903
兩國	-10.5906
渭	-10.591
張本	-10.591
燮	-10.591
徐子	-10.5914
紛	-10.5914
月令	-10.5915
言之則	-10.5915
世室	-10.5916
刼	-10.5916
未畢	-10.592
冢	-10.5922
虧	-10.5924
南宫	-10.5927
太原	-10.5932
公及齊侯	-10.5933
馬陵	-10.5937
或作	-10.5943
宋襄公	-10.5943
魏絳	-10.5947
尹子	-10.595
君子謂	-10.596
泄	-10.5963
侯犯	-10.5965
姚	-10.5968
悼子	-10.5971
皈	-10.5974
未敢	-10.5974
公㑹宋公	-10.5982
夙	-10.599
宅	-10.5992
王氏曰	-10.5992
髙氏	-10.5994
愼	-10.5996
黷	-10.5998
陽穀	-10.6005
公如晉至河乃復	-10.6007
釈	-10.6009
綽	-10.6014
訛	-10.6016
知伯	-10.6017
齊人宋人	-10.602
也程子曰	-10.602
天災	-10.6026
聘禮	-10.6043
禀	-10.6044
未可以	-10.6044
□	-10.6045
聘問	-10.6055
特筆	-10.6058
鄭𤣥	-10.6062
絞	-10.6063
三十六	-10.6063
鄭伯突	-10.6068
辜	-10.6069
先蔑	-10.6088
出姜	-10.609
大辰	-10.609
見伐	-10.6092
不得入	-10.6095
齊侯伐我北鄙	-10.61
朝廷	-10.6107
也穀梁傳	-10.6109
騑	-10.6116
來逆	-10.6121
成宋亂	-10.6122
齊僖	-10.6123
越境	-10.6129
:『	-10.6132
之甚也	-10.6137
两	-10.6137
卒哭	-10.6138
岐	-10.6139
郤犨	-10.6143
壯	-10.6144
丁卯	-10.6144
何忌	-10.6147
荀庚	-10.6148
㑹呉	-10.6159
縣東有	-10.6159
四夷	-10.6164
叔服	-10.6168
電	-10.6169
墜	-10.6174
及齊平	-10.6176
魯邑	-10.6183
訪	-10.6189
疎	-10.6195
蓄	-10.6195
弋	-10.6196
趙衰	-10.6197
其勢	-10.6197
無私	-10.62
背盟	-10.6204
旃	-10.6216
駘	-10.6219
席	-10.6222
天下諸侯	-10.6236
緜	-10.6239
繒	-10.6248
賞罰	-10.6253
如字又	-10.6254
元年春王正月	-10.6254
若敖	-10.626
廷	-10.6261
亞	-10.6268
鬻	-10.627
䇿書	-10.6273
不孝	-10.6274
袁	-10.6276
慶氏	-10.6283
齊桓晉文	-10.6288
齊姜	-10.6291
拔	-10.6294
莫大焉	-10.6296
㓂	-10.6298
翰	-10.63
聞之曰	-10.6304
邾子來朝	-10.6308
宣伯	-10.631
鄭突	-10.6311
大倫	-10.6313
入許	-10.6314
備書	-10.6316
四分	-10.6321
父母之	-10.6322
髪	-10.6323
欲戰	-10.6327
吴子	-10.6337
詩小雅	-10.6348
畔	-10.6355
古今	-10.636
伐我北鄙	-10.6371
其黨	-10.6373
緯	-10.6378
楚令尹	-10.6386
宋衞	-10.6389
萬物	-10.6393
餘祭	-10.6397
祖廟	-10.6397
未絶	-10.6403
不登	-10.6404
迂	-10.6406
權臣	-10.641
救許	-10.6413
齊豹	-10.642
書同盟	-10.6421
蜚	-10.6423
再命	-10.6423
棣	-10.6424
侵我西鄙	-10.6426
求諸侯	-10.6443
庶人	-10.6448
湏	-10.6452
釐	-10.6457
未定	-10.6457
封内	-10.6463
伐山戎	-10.6464
故君子	-10.6466
▁臣謹按	-10.6472
壺	-10.6475
二字	-10.648
石碏	-10.6482
瑗	-10.6484
宜申	-10.6484
足矣	-10.649
公羊謂	-10.649
酖	-10.6493
子羽	-10.6497
叔肸	-10.6498
因事	-10.6506
鳯	-10.6506
匱	-10.6508
不與盟	-10.6514
公㑹晉侯齊侯宋公	-10.6514
遊	-10.6531
季氏私考	-10.6533
兵權	-10.6547
前定	-10.6551
賊不討	-10.6563
浪	-10.6563
堯舜	-10.6567
傲	-10.6569
救衛	-10.6569
榆	-10.6579
伐呉	-10.658
巧	-10.6587
暱	-10.659
錮	-10.659
狡	-10.6591
公子比	-10.6592
昭伯	-10.6596
榖梁云	-10.6601
所宜	-10.6603
詁	-10.6609
山東	-10.6616
稻	-10.6617
頡	-10.6618
宋災	-10.6619
元年春王正月公即位	-10.6621
定哀	-10.6625
季孫宿如晉	-10.6627
未有言	-10.6628
臨川吳氏曰	-10.6641
翦	-10.6642
幹	-10.6643
辰陵	-10.6643
8.1	-10.6643
陳佗	-10.6644
隗	-10.6646
榖梁傳曰	-10.6646
子頽	-10.6648
不果	-10.6659
不稱夫人	-10.6667
諾	-10.6667
杼	-10.6669
冬公如晉	-10.6671
用田賦	-10.6671
不能保	-10.6672
圗	-10.6672
嗟	-10.6675
不討賊	-10.6694
閔僖	-10.6694
怙	-10.6696
天時	-10.6701
所聞	-10.6704
有言曰	-10.6705
宫室	-10.671
陂	-10.6717
亮	-10.6718
柩	-10.6725
燭	-10.6727
産	-10.6738
大變	-10.6748
作主	-10.6749
股肱	-10.675
伯子男	-10.6752
糓	-10.6757
伐郯	-10.6757
三分	-10.6765
封疆	-10.6767
外内	-10.6771
慼	-10.6776
杞桓	-10.6778
公子結	-10.6784
滅項	-10.6797
成十六年	-10.68
鉅	-10.6802
將卑師少	-10.6808
庚輿	-10.6813
奔陳	-10.6816
植	-10.6833
安知	-10.6834
仲孫羯	-10.6837
纓	-10.6839
亳社	-10.6844
景伯	-10.6849
又案	-10.6854
侵衞	-10.6857
㓕	-10.686
百年	-10.6874
安能	-10.6878
外裔	-10.6882
不可得而	-10.6882
匪	-10.6885
兒	-10.6885
員	-10.6886
弛	-10.6888
蘭	-10.6893
汶陽田	-10.6897
據傳	-10.6901
滅蔡	-10.6902
舊好	-10.6905
牡	-10.6906
其社稷	-10.6912
廉	-10.6913
觀社	-10.6921
三十一	-10.6928
𥘉	-10.694
軍旅	-10.6944
鞭	-10.6945
何益	-10.6952
辭焉	-10.6957
據左氏	-10.6964
闔	-10.6968
凢	-10.6971
寝	-10.6975
垣	-10.6984
告糴	-10.6986
柏	-10.6986
幽王	-10.6988
畏齊	-10.6989
擾	-10.6993
乾谿	-10.6996
郤氏	-10.6998
付	-10.7003
于是乎	-10.7011
亨	-10.7024
陸氏	-10.703
樂大心	-10.7031
專封	-10.7032
殤	-10.7036
長葛	-10.7044
濤塗	-10.7052
貜	-10.7055
譽	-10.7055
失信	-10.7057
程氏	-10.707
鲁	-10.7073
彗	-10.708
膳	-10.7083
衞侯鄭伯曹伯	-10.7084
僞	-10.7085
讞	-10.7086
羽父	-10.7087
茷	-10.7087
倡	-10.7088
王畿	-10.7089
王室亂	-10.7096
河内	-10.7099
記事	-10.7101
羮	-10.7112
尊周	-10.7113
取濟西田	-10.7115
圍郕	-10.7116
紹	-10.7138
得志於	-10.7142
見逐	-10.7146
弒	-10.7153
王卿士	-10.7157
蘇子	-10.7161
藝	-10.7162
奐	-10.7164
邦交	-10.7166
比年	-10.7167
灌	-10.7168
劫	-10.7168
臆	-10.717
汰	-10.7173
曰寡人	-10.7177
北門	-10.7194
聶北	-10.7194
樵	-10.7194
虜	-10.7196
蘧	-10.7197
本或作	-10.7201
許氏曰	-10.7205
附㑹	-10.7205
公子瑕	-10.7218
鄒	-10.7218
恪	-10.7222
對曰臣	-10.7222
袒	-10.7223
平隂	-10.7224
藪	-10.7226
公羊榖梁	-10.7234
文子曰	-10.7239
盤	-10.7248
狃	-10.725
貺	-10.7252
彭衙	-10.7252
不以禮	-10.7252
調	-10.7254
西宫	-10.7254
琴	-10.7256
聲伯	-10.7259
左氏作	-10.7261
淳	-10.7261
.5	-10.7264
見于經	-10.7275
宼	-10.7278
郷	-10.7284
繻	-10.7286
自此始	-10.7288
汪氏	-10.7289
百二十	-10.7291
宋督	-10.7293
汪氏克寛曰	-10.7295
駭	-10.7298
嗣位	-10.73
什一	-10.73
而經不書	-10.7304
縣東北有	-10.732
敵國	-10.7321
吉凶	-10.7321
邢丘	-10.7323
為附庸	-10.7325
踊	-10.7335
四年春	-10.7336
苑	-10.734
莽	-10.7341
郤錡	-10.7343
門外	-10.7361
米	-10.7366
融	-10.7366
置閏	-10.7378
十有七年	-10.7382
夫豈	-10.7384
名分	-10.7389
沈子	-10.7389
!	-10.7391
袁婁	-10.7394
9.1	-10.7399
仰	-10.7399
殱	-10.7401
越竟	-10.7408
相似	-10.7409
踐土之盟	-10.741
戦	-10.7415
11.	-10.7419
戢	-10.7427
水旱	-10.7434
汶陽	-10.7434
數年	-10.7438
以譏之	-10.7446
赴以名	-10.7456
于郎	-10.7457
獻捷	-10.7468
今山東	-10.7473
阜	-10.7474
齊慶封	-10.7475
政令	-10.7475
9	-10.7476
唐叔	-10.7477
二十里	-10.7478
悛	-10.748
頒	-10.7483
一嵗	-10.7483
懦	-10.7485
奬	-10.7487
惠伯	-10.7489
自京師	-10.7498
車服	-10.7499
寘諸	-10.7502
新宫	-10.7504
腹	-10.7506
末年	-10.7525
繕	-10.7537
巾	-10.7541
莅	-10.7541
酌	-10.7543
宗婦	-10.7545
典禮	-10.7561
城郭	-10.7564
現	-10.7569
祝柯	-10.7572
拱	-10.7574
山戎	-10.7577
出奔宋	-10.7583
其稱人何	-10.7583
!」	-10.7596
康公	-10.7597
二軍	-10.7599
衝	-10.7602
壻	-10.7602
無厭	-10.7612
周易	-10.7613
唁公	-10.7626
越禮	-10.7629
輅	-10.763
介葛盧	-10.7631
未有書	-10.7633
所以著	-10.7638
何以名	-10.7645
三十二	-10.765
洧	-10.7658
鴻	-10.7663
莒慶	-10.7666
故城在	-10.7667
壽夢	-10.7668
共仲	-10.7675
荀吳	-10.7688
犫	-10.7692
百六十	-10.7693
踵	-10.7693
濼	-10.7695
翬帥師	-10.77
不淂	-10.7709
子蟜	-10.7713
禭	-10.7718
蹇	-10.7718
本亦作	-10.7721
省文	-10.7725
釋怨	-10.7728
潞氏	-10.7732
汲	-10.7747
牟婁	-10.7748
髙郵孫氏曰	-10.7751
臼	-10.7751
叔鞅	-10.7754
探	-10.7754
􁊋	-10.7755
舉重	-10.776
出境	-10.7765
宋殤	-10.7767
5.2	-10.777
斟	-10.7775
廐	-10.7778
詩大雅	-10.7781
扞	-10.7782
新立	-10.7783
鬷	-10.7784
夫人姜氏㑹齊侯	-10.7786
州蒲	-10.7787
注釋曰	-10.7788
歸于京師	-10.7793
牟夷	-10.7795
群	-10.78
艮	-10.7813
燬	-10.7814
簒立	-10.7817
6	-10.7817
公之廟	-10.7818
大有年	-10.7824
集解	-10.7826
逆王后	-10.7827
敬仲	-10.783
薪	-10.7837
泯	-10.7842
▁胡氏傳	-10.7842
事畢	-10.7842
寫	-10.7842
僻	-10.7842
孽	-10.7845
為之請	-10.7848
改卜牛	-10.7848
仇讎	-10.7853
所記	-10.7856
號令	-10.786
.6	-10.7861
渾	-10.7865
衣服	-10.7865
錦	-10.7871
撥亂	-10.7874
冊	-10.7876
齊國夏	-10.7878
畆	-10.788
四鄰	-10.7884
隔	-10.7897
溢	-10.7902
無乃不可乎	-10.7903
公子棄疾	-10.7906
淹	-10.7909
舍中軍	-10.792
北面	-10.7925
雍丘	-10.7929
㑹齊侯宋公陳侯	-10.793
遍	-10.7931
湛	-10.7933
逆祀	-10.7933
甲士	-10.7942
未甞	-10.7949
危之也	-10.7951
娶於	-10.7956
姜戎	-10.796
篡弑	-10.796
南鄙	-10.7961
育	-10.7962
蔓	-10.7966
御戎	-10.7966
桷	-10.7974
傳称	-10.7976
交兵	-10.7977
審矣	-10.7984
歜	-10.7991
黶	-10.7995
溪	-10.7995
鑑	-10.7996
仲孫何忌	-10.7999
相接	-10.8001
原註	-10.8014
彚纂今	-10.8021
賈季	-10.8022
聖人之意	-10.8024
伐鼓	-10.8042
己夘	-10.8051
6.1	-10.8053
割	-10.8055
測	-10.8057
閔二年	-10.8062
救江	-10.807
受命於	-10.8072
飲至	-10.8079
鹵	-10.8086
殊㑹	-10.8088
新作	-10.8091
季孫行父如晉	-10.8096
縣北有	-10.8098
及其大夫	-10.81
来奔	-10.8106
可疑	-10.8108
納糾	-10.8114
棐林	-10.8121
黻	-10.8121
殺太子	-10.8122
憲	-10.8123
士燮	-10.8125
大閲	-10.8133
公孫嬰齊	-10.8141
勞民	-10.8144
啇	-10.8145
穆伯	-10.8145
攸	-10.8147
暫	-10.8148
盟誓	-10.8151
劍	-10.8152
隕霜	-10.8153
髙氏閌曰	-10.8153
公子偃	-10.8156
百七十	-10.8159
直書其事	-10.8161
逆婦	-10.8174
殄	-10.818
遵	-10.8182
鄂	-10.8204
朝廟	-10.8206
于柤	-10.8208
板	-10.8209
5.1	-10.8213
牡丘	-10.8218
范文子	-10.8219
華孫	-10.822
昭四年	-10.8227
胡沈	-10.8227
丗子	-10.8231
朝覲	-10.8231
此何以書	-10.824
縮	-10.8245
䘚	-10.8249
杜元凱	-10.8252
范鞅	-10.8252
十有二	-10.8252
及齊師戰	-10.8252
之願也	-10.8254
祝史	-10.8271
菅	-10.8272
实	-10.8274
伊川	-10.8275
私意	-10.8276
公子牙	-10.8276
伺	-10.8277
灾	-10.828
紊	-10.828
盛衰	-10.8294
東海	-10.8303
息民	-10.8304
岀	-10.8306
旂	-10.8308
儋	-10.8309
紀伯姬	-10.8311
垂隴	-10.8313
曹共	-10.8331
南面	-10.8332
復扶又反	-10.8332
祝融	-10.8335
來㑹葬	-10.8337
何以知其	-10.8343
巫臣	-10.8345
振旅	-10.8346
游吉	-10.835
豈敢	-10.8356
杖	-10.8367
陟	-10.8369
頴	-10.837
諒	-10.8372
竄	-10.8372
旄	-10.8372
公孫蠆	-10.8374
臣謹按	-10.8388
逾	-10.8394
刘炫	-10.8398
夭	-10.8399
佾	-10.8403
。』	-10.8406
佞夫	-10.8422
魄	-10.8435
諭	-10.8437
曲禮	-10.8446
所自出	-10.8447
戍陳	-10.8455
二慶	-10.8455
孔疏	-10.8463
立是為	-10.8463
東西	-10.8464
逵	-10.8465
曰諾	-10.8468
宋災故	-10.847
大無麥禾	-10.8472
田獵	-10.8486
寔	-10.8488
趙文子	-10.8491
濟水	-10.8491
三十三	-10.8506
柯陵	-10.8507
劉夏	-10.851
僖元年	-10.8527
姪	-10.8531
褚	-10.8532
子鮮	-10.8532
國之大事	-10.8533
迷	-10.8535
宋景	-10.8538
衡雍	-10.8539
去聲	-10.8542
少姜	-10.8545
薛氏曰	-10.8548
意恢	-10.8565
稱行人	-10.8565
結好	-10.8565
歃	-10.8566
五等	-10.8567
不設備	-10.8569
星孛	-10.8569
迄	-10.8569
加兵於	-10.8572
石買	-10.8574
仍叔之子	-10.8577
命於天子	-10.8577
程氏曰	-10.8586
㔻鄭	-10.8592
記異也	-10.8592
違命	-10.8593
㰱	-10.8594
何以書譏何譏爾	-10.8598
姞	-10.86
絀	-10.86
貸	-10.8606
十有一年春王正月	-10.8606
公在楚	-10.861
圖伯	-10.8611
魴	-10.8624
强弱	-10.8625
股	-10.8628
陸渾之戎	-10.8629
二十有八年	-10.8629
冥	-10.863
無能為	-10.863
縛	-10.8631
貧	-10.8632
偽反	-10.8634
不亦難乎	-10.8635
趙鞅帥師	-10.8635
十有六年春王正月	-10.8638
昭十三年	-10.8638
公圍成	-10.8648
噫	-10.8667
郊禘	-10.8667
楚䖍	-10.8673
莫敖	-10.8682
濟北	-10.8693
搏	-10.8695
仁義	-10.8696
刪	-10.8696
鄭詹	-10.8696
竈	-10.8697
蚡	-10.8697
政刑	-10.8708
堕	-10.8708
修好	-10.8711
縣故城	-10.8715
甯殖	-10.8734
頑	-10.8734
髠	-10.8735
不書𦵏	-10.8735
歷	-10.8737
原仲	-10.8741
元帥	-10.8742
僖五年	-10.875
乾時	-10.8754
亷	-10.8762
披	-10.8762
撓	-10.8763
髙傒	-10.8764
黒肱	-10.877
私邑	-10.8774
2.1	-10.8776
何言乎	-10.878
夏后	-10.8781
古者諸侯	-10.8787
勝負	-10.8789
闡	-10.8794
臧紇	-10.8795
虺	-10.8796
十有九年	-10.8803
以國氏	-10.8806
婦姜	-10.8809
觀魚	-10.8812
旧	-10.8814
曰吾聞	-10.8821
誦	-10.8827
10.2	-10.8838
梁亡	-10.8843
廢置	-10.8852
朽	-10.8857
鷁	-10.8859
贊	-10.886
檇李	-10.8864
燠	-10.8866
腆	-10.8867
髠頑	-10.8871
10.1	-10.8878
僂	-10.8896
浚	-10.8898
檢	-10.8898
只是	-10.89
洙	-10.8901
昏姻	-10.8902
嚭	-10.8902
沃	-10.8924
聊	-10.8929
甗	-10.893
億	-10.8932
湨梁	-10.8932
倣	-10.8933
穴	-10.8934
殁	-10.8937
知武子	-10.8939
太祖	-10.894
滕子來朝	-10.8944
之為言	-10.8961
巨	-10.8964
蔡般	-10.8969
舒蓼	-10.897
内辭也	-10.8975
許嫁	-10.8975
貢賦	-10.898
于大廟	-10.899
獻舞	-10.899
郑玄云	-10.8993
公榖作	-10.8996
次于陘	-10.8997
郚	-10.8997
毫	-10.8998
未賜族	-10.9
恱	-10.9002
奔走	-10.9006
隠元年	-10.9014
開封府	-10.9021
豕韋	-10.9022
姜姓	-10.9025
潁川	-10.9029
秋大水	-10.9031
浩	-10.9033
參盟	-10.9041
康侯胡氏曰	-10.9042
傳例曰	-10.9045
我先君	-10.9047
帝丘	-10.9051
非伯討	-10.9053
狐偃	-10.9053
衢	-10.9064
狗	-10.9064
揆	-10.9064
庀	-10.9068
楯	-10.9069
昆吾	-10.907
宣榭	-10.9078
書其名	-10.9078
魏舒	-10.908
何以不名	-10.9097
鉞	-10.91
柳	-10.9105
送女	-10.9115
雞父	-10.9126
抱	-10.9135
酈	-10.9135
刖	-10.9136
曹羈	-10.9139
穿鑿	-10.9139
蠻荆	-10.9144
弗克納	-10.9153
弭兵	-10.9154
㑹于扈	-10.9167
轅濤塗	-10.9169
踈	-10.9169
劌	-10.9175
采地	-10.9184
乙夘	-10.92
壓	-10.9202
榮叔	-10.9208
連兵	-10.9208
公子雍	-10.9216
縣境	-10.9222
荀首	-10.9225
嵗首	-10.9226
晨	-10.9237
超	-10.9238
漳	-10.9239
勑	-10.924
長勺	-10.9244
蒯瞶	-10.9245
量力	-10.9253
元妃	-10.9257
東鄙	-10.9268
随	-10.9273
臘	-10.9273
毗	-10.9275
諺	-10.9276
黒壤	-10.9277
宗社	-10.9278
鞌之戰	-10.928
磬	-10.9282
于扈	-10.9282
公朝于王所	-10.9282
衛侯朔	-10.9297
婦道	-10.9301
為楚所	-10.9306
癸夘	-10.9307
揮	-10.9312
趙氏鵬飛曰	-10.9312
遄	-10.9314
雨雪	-10.932
謝氏曰	-10.9324
垂戒	-10.9329
縠	-10.9329
六年春王正月	-10.9329
逆后	-10.934
阪	-10.9346
及鄭平	-10.9351
稱國以弑	-10.9369
宰咺	-10.9377
覊	-10.9382
潜	-10.9388
叔孫州仇	-10.9391
昆	-10.94
奕	-10.9413
鸜鵒	-10.9418
賛	-10.942
衣裳	-10.9421
樓	-10.9449
大雨雹	-10.945
澨	-10.9451
.7	-10.9452
夀夢	-10.9456
汝南	-10.9461
陪	-10.9471
芒	-10.9476
禹貢	-10.9486
英	-10.9487
揜	-10.9487
裏	-10.9488
朾	-10.9489
吉禘	-10.9489
還自晉	-10.9491
劉單	-10.9492
姪娣	-10.9495
曽孫	-10.9505
于首止	-10.9509
墟	-10.9514
公不與盟	-10.9515
廏	-10.9515
深切著明	-10.9524
確	-10.9524
瘧	-10.9528
栢	-10.9529
公羊穀梁	-10.9529
獻㨗	-10.9533
八佾	-10.9534
御廩	-10.9536
未幾	-10.9536
為于偽反	-10.9553
寤	-10.9558
大雨雪	-10.9559
駁	-10.956
百五十	-10.9563
費無極	-10.9564
悔過	-10.9567
淮南	-10.9572
舒庸	-10.9572
坐視	-10.9579
用民力	-10.959
蒼	-10.9593
􁋎	-10.9596
迨	-10.9598
閨	-10.9602
郤宛	-10.9608
盟于洮	-10.9615
衞孫林父	-10.9616
周旋	-10.9626
祝丘	-10.9626
詣	-10.9629
題	-10.963
昆弟	-10.9635
以示譏	-10.9647
徑	-10.9663
枕	-10.9665
梁丘	-10.9669
矛	-10.9669
斧	-10.9669
不待貶絶而	-10.9671
貙	-10.9672
涇	-10.9698
摯	-10.9705
諼	-10.9708
晉郤缺	-10.9718
閭丘	-10.9719
鳳	-10.9734
献	-10.9736
廧咎如	-10.9736
華向	-10.9737
判	-10.9746
城中城	-10.9751
潦	-10.9774
嘆	-10.9776
公子燮	-10.9778
衰絰	-10.9783
寳玉大弓	-10.9784
爕	-10.9785
3.2	-10.9803
先王之制	-10.9803
曹伯來朝	-10.9807
冡	-10.9809
亮反	-10.9817
憑陵	-10.9818
貶而稱人	-10.9831
沂州	-10.9832
西鄙	-10.984
熙	-10.9849
絲	-10.9853
泰山孫氏曰	-10.9858
夫人姜氏如齊	-10.9865
髙祖	-10.9865
宣十二年	-10.9876
四十里	-10.9878
閼	-10.9885
三年之喪	-10.9888
祚	-10.9889
歃血	-10.989
虞虢	-10.9892
屠	-10.9893
鮒	-10.9894
赫	-10.9897
將下軍	-10.9897
君臣之分	-10.9908
裂	-10.9931
同盟于幽	-10.9934
沈尹	-10.9946
葉氏曰	-10.995
為之諱	-10.996
升陘	-10.9962
愚案	-10.9964
瓦屋	-10.9964
稔	-10.9965
城縁陵	-10.9965
乱	-10.9988
刘	-10.999
耆	-10.9997
芻	-10.9998
犒	-11
虔	-11.0001
輦	-11.0001
系	-11.0002
狥	-11.0002
髮	-11.0006
公孟彄	-11.0009
箋	-11.0036
丁夘	-11.0036
埋	-11.0041
隣國	-11.0063
羯	-11.0068
新築	-11.0073
洪	-11.0074
抽	-11.0074
不禮焉	-11.0084
賻	-11.011
踰時	-11.0113
闢	-11.0113
㳺	-11.0113
銜	-11.0113
憫	-11.0116
臧武仲	-11.0117
扈之盟	-11.0118
夷末	-11.0124
劉炫云	-11.0132
內	-11.0134
毅	-11.0155
袲	-11.0156
江人黄人	-11.0159
鄟陵	-11.0165
季平子	-11.017
五年春王正月	-11.0172
筐	-11.018
噬	-11.019
鋒	-11.0192
貶曷為貶	-11.0195
誼	-11.0196
司宼	-11.0196
公子友如齊	-11.0199
秦人伐晉	-11.02
7.1	-11.0221
谿	-11.0228
今改正	-11.0228
賣	-11.0231
鯀	-11.0232
誇	-11.0233
棼	-11.0233
7	-11.0243
再娶	-11.0254
梓慎	-11.0263
隤	-11.0263
婢	-11.0265
李氏廉曰	-11.0271
臯鼬	-11.0272
躋僖公	-11.0285
書于䇿	-11.0289
於餘丘	-11.0307
垂葭	-11.0308
孫氏復曰	-11.031
舛	-11.0312
職貢	-11.0312
叔孫昭子	-11.0316
求金	-11.0318
亾	-11.0342
屈建	-11.0343
鶉火	-11.0345
獳	-11.0349
趙簡子	-11.0357
天下後世	-11.0365
强暴	-11.0365
服虔云	-11.0378
忘親	-11.0416
彼注云	-11.0417
俯	-11.0425
猾夏	-11.0429
居于鄆	-11.0435
想	-11.0436
免牛	-11.0437
时	-11.0448
頃王	-11.0457
処	-11.0457
甚之也	-11.046
邁	-11.0462
䕫	-11.0463
衮	-11.0464
菟	-11.0465
䜴	-11.0466
肖	-11.0466
豎牛	-11.0469
做	-11.0471
▁汪氏克寛曰	-11.0492
巷	-11.0501
彪	-11.0504
聲罪致討	-11.0506
握	-11.0506
及晉侯盟	-11.0512
胥甲	-11.0515
王子猛	-11.052
韓魏	-11.0538
北鄙	-11.0539
肄	-11.055
鐵	-11.0576
叔帶	-11.0584
轘	-11.0585
瘠	-11.0588
納子糾	-11.0607
憑	-11.0619
懸	-11.062
㫁	-11.0624
蹈	-11.0627
蒢	-11.0627
荀呉	-11.065
葵	-11.0656
絕	-11.066
咨	-11.0663
政在大夫	-11.0669
禮樂征伐	-11.067
明堂位	-11.0671
子同生	-11.0677
示威	-11.068
奠	-11.0706
寕	-11.0709
白羽	-11.0709
之恥也	-11.0714
禍福	-11.0727
而義自見	-11.0728
3.1	-11.0729
歸祊	-11.0731
祲	-11.0744
初獻六羽	-11.075
百八十	-11.0769
别種	-11.0775
尽	-11.0775
滯	-11.078
鄔	-11.0782
橋	-11.0782
諜	-11.0784
希	-11.0785
宏	-11.0785
宋皇瑗	-11.0786
向戍	-11.0811
禳	-11.0818
鄸	-11.0822
醴	-11.0823
稟	-11.0824
于僞反	-11.0826
款	-11.0828
怯	-11.0829
貳於楚	-11.0852
酬	-11.0862
陣	-11.0869
品	-11.0871
滅人之國	-11.0895
譙	-11.0904
殉	-11.0904
銘	-11.0908
銳	-11.091
歂	-11.0911
㔻	-11.0922
賈逵云	-11.0925
以示貶	-11.0941
際	-11.0941
犀	-11.0944
琅	-11.0945
穎	-11.0949
暨齊平	-11.0952
四不視朔	-11.0953
聞命矣	-11.0968
竇	-11.0983
圻	-11.0987
百一十	-11.0989
二十有九年	-11.0989
觸	-11.099
犨	-11.0993
大蒐于比蒲	-11.0993
痤	-11.0994
誌	-11.0996
鄵	-11.0997
寗殖	-11.1
嵒	-11.1032
馭	-11.1033
靳	-11.1034
楚公子嬰齊	-11.1037
措	-11.1039
攘夷狄	-11.1039
入于櫟	-11.1045
襄二十九年	-11.1053
臨淄	-11.1064
愎	-11.1069
鴆	-11.1072
棐	-11.1072
殪	-11.1072
玩	-11.1073
曁	-11.1076
吿	-11.1077
蕩意諸	-11.1077
蔿	-11.1084
畿	-11.1103
拠	-11.1103
拯	-11.1113
卬	-11.1114
阨	-11.1115
莒人伐我東鄙	-11.1115
嚚	-11.1117
粢盛	-11.112
梁山崩	-11.1121
璋	-11.1121
黑肱	-11.1122
陳氏傳曰	-11.1138
伍舉	-11.1146
予奪	-11.1153
何以書記異也	-11.1156
鄶	-11.1157
孚	-11.1161
墠	-11.1162
腹心	-11.1169
稱人以殺	-11.1175
以著其罪	-11.1182
郇	-11.1193
傒	-11.1195
鬯	-11.1197
曲阜	-11.1201
方伯連帥	-11.1203
韓獻子	-11.1212
蜃	-11.1229
高厚	-11.1231
瓜	-11.1235
璞	-11.1238
邀	-11.1243
掃	-11.1247
宋公之弟辰	-11.1248
小邾子來朝	-11.1277
故執不知問	-11.1278
闈	-11.1283
與音預	-11.1284
櫬	-11.1285
吐	-11.1285
刋	-11.1285
梅	-11.1286
荆敗蔡師	-11.1287
沓	-11.1288
紏	-11.1289
嗣是為	-11.1295
滎	-11.1298
百九十	-11.1323
鄘	-11.1327
有異志	-11.1329
再拜稽首	-11.1329
兩下相殺	-11.133
躒	-11.1331
伋	-11.1333
稱人以執	-11.1335
冡宰	-11.1338
什	-11.1346
蒐狩	-11.1354
笄	-11.1372
擅興	-11.1375
附錄	-11.1377
夏四月丁巳	-11.1385
把伯姬	-11.1407
澆	-11.141
饔	-11.1412
沿	-11.1413
熾	-11.1415
潔	-11.1418
彌牟	-11.1418
孫于邾	-11.1418
挐	-11.1421
跪	-11.1421
向魋	-11.1429
棟	-11.1455
僖三十三年	-11.1461
途	-11.1462
滕子薛伯	-11.1465
豳	-11.1465
杞伯姬來	-11.1467
漢儒	-11.1482
自晉歸	-11.1501
騁	-11.1502
又東經	-11.1502
譴	-11.1503
世族譜	-11.1504
倖	-11.1504
纍	-11.1504
屑	-11.1504
紀侯大去其國	-11.1513
韋昭	-11.1518
風俗	-11.1527
檀	-11.1541
駢	-11.1544
暗	-11.155
遲速	-11.1552
臧宣叔	-11.1587
儲	-11.159
莱	-11.1592
薳罷	-11.1599
未踰年之君	-11.1603
苫	-11.1628
也無成是無孟氏也子	-11.1634
柴	-11.1636
鋭	-11.1642
說文云	-11.1675
殃	-11.1675
共音恭	-11.1677
㛰	-11.168
暴虐	-11.1693
鄆潰	-11.17
兄弟之國	-11.1702
濵	-11.1718
貍	-11.1721
貝	-11.1725
暮	-11.1727
䧟	-11.1727
郟敖	-11.1729
陳人蔡人	-11.1733
士蒍	-11.1737
夷昧	-11.1742
女嫁	-11.1745
季姜	-11.1748
寔來	-11.1749
渠丘	-11.1751
繞	-11.1761
汙	-11.1763
棗	-11.1765
轂	-11.1767
瞻	-11.1768
自諸侯出	-11.1782
黼	-11.1806
提	-11.181
臾駢	-11.181
叢	-11.1811
哲	-11.1813
複	-11.1814
韶	-11.182
萃	-11.1857
寒暑	-11.1858
殛	-11.1858
擁	-11.1858
齊東野人之	-11.1858
収	-11.1858
諂	-11.1859
入食限	-11.1859
萇𢎞	-11.1862
廖	-11.1863
珠	-11.1865
礿	-11.1871
季孫行父如齊	-11.1872
削而不書	-11.1872
次于郎	-11.1881
熒	-11.1898
几	-11.1905
場	-11.1906
伯州犂	-11.1906
償	-11.1906
聃	-11.1908
巻	-11.1951
彦	-11.1951
苕丘	-11.1954
秘	-11.1955
墮郈	-11.1957
及楚人戰	-11.1978
鴈	-11.1993
驪	-11.1993
氾	-11.1994
梗	-11.1996
槖	-11.1997
所知也	-11.1997
悝	-11.1998
臭	-11.2
鼷鼠	-11.2002
伊尹	-11.2003
躋	-11.2003
嚳	-11.2006
疇	-11.2039
晉趙鞅謂邯鄲午曰歸我衞貢五百家	-11.2041
隅	-11.2041
疲	-11.2042
紛紛	-11.2047
雜記	-11.2055
孫蒯	-11.2056
隸	-11.2083
瞽	-11.2089
鄆讙龜隂	-11.2095
歸于酅	-11.2096
秋八月大雩	-11.2099
毀	-11.2126
亊	-11.2132
飬	-11.2133
耀	-11.2133
成齊人必至于北門且成孟氏之保障	-11.2134
寪	-11.2136
甥舅	-11.2136
驩	-11.2136
擬	-11.2136
昊	-11.2136
自墮之	-11.2138
荐	-11.2138
騐	-11.214
附錄左傳	-11.2144
直𨽻	-11.2172
混	-11.2173
塵	-11.218
儕	-11.218
非仲由	-11.218
偽不知我將不墮冬十二月公圍成弗克	-11.2181
訃	-11.2181
不共戴天	-11.2182
郜鼎	-11.2187
北杏之㑹	-11.219
解云正以	-11.2197
孫州仇	-11.222
貽	-11.2228
父兄皆曰不可衞是以為邯鄲	-11.2228
蒐于紅	-11.2228
臂	-11.2229
料	-11.223
科	-11.223
築郿	-11.2231
鄭棄其師	-11.2233
北斗	-11.2235
北宫喜	-11.2238
難乃旦反	-11.2269
虒	-11.2273
濁	-11.2274
去其險爾	-11.2275
襲魯之事	-11.2275
郈公山不狃	-11.2276
庶孽	-11.228
審矣按	-11.2281
睽	-11.2312
鄩	-11.2317
蔇	-11.2319
』	-11.2319
紅	-11.232
吾舍諸晉陽午許諾歸告其父兄	-11.2323
此正所謂	-11.2323
入其郛	-11.2324
孔子言于	-11.2325
伐邾取須句	-11.2329
子欲正	-11.2331
墮費	-11.2336
劣	-11.2364
組	-11.2368
藏甲大夫無百雉之城	-11.2369
定公曰臣無	-11.237
仲由季氏	-11.237
醢	-11.237
洪範	-11.2372
從祀先公	-11.2375
駟赤	-11.2382
不卒戍	-11.2383
同圍齊	-11.2391
変	-11.241
􁇦	-11.2411
去樂卒事	-11.2417
三家必有其道矣何至使仲由為之况墮	-11.2417
叛費家臣之彊反恃其邑而主不能	-11.2417
使仲由為季氏宰墮三都此蓋	-11.2417
幾危其君而成又卒以叛雖妄人不為也	-11.2417
言欲歸美孔子而不知其義者使孔	-11.2417
孔子行乎季孫三月不違者蓋侯犯叛	-11.2418
帥師墮郈季孫斯仲孫何忌帥師墮費則	-11.2418
有也十有三年秋晉趙鞅入于晉陽以叛	-11.2418
宰爾何與魯事而併得毁三都經書叔	-11.2418
訊	-11.2418
械	-11.2419
歸之于京師	-11.2425
譲	-11.2463
奴	-11.2464
弧	-11.2465
勃	-11.2466
規模	-11.2468
郠	-11.247
求賻	-11.2478
杞伯來朝	-11.2479
文襄之	-11.25
徐邈	-11.2509
憎	-11.2509
齋	-11.2509
㝷	-11.2516
証	-11.2517
陳氏傅良曰	-11.2517
戎蠻子	-11.2518
巽	-11.2519
天王狩于河陽	-11.2524
畀宋人	-11.253
蔵	-11.2561
臯陶	-11.2561
沙鹿	-11.2562
古之制也	-11.2567
陸淳	-11.2569
趙子常曰	-11.2574
弓矢	-11.2577
曼姑	-11.2609
鵲	-11.2611
幅	-11.2611
執宋公以伐宋	-11.2611
箕鄭父	-11.2613
三日哭	-11.2615
釈例曰	-11.265
凖	-11.2655
憗	-11.2659
狹	-11.266
西狩獲麟	-11.266
取邾田	-11.266
茂	-11.2662
裂繻	-11.2668
未之有也	-11.2671
入于夷儀	-11.2672
濡	-11.2707
蚠	-11.2711
姫	-11.2716
告人曰	-11.2745
.10	-11.2754
笙	-11.2757
㦸	-11.2758
君子是以知	-11.2759
以號舉	-11.2762
趡	-11.2763
沙鹿崩	-11.2763
滌	-11.2765
齮	-11.2769
十有五年春王正月	-11.2769
欒武子	-11.2769
大音泰	-11.2803
趣	-11.2806
郵	-11.2809
歡	-11.2809
歸讙及闡	-11.2812
氛	-11.2813
鳥獸	-11.2814
執國命	-11.2817
一舉而	-11.2831
兗	-11.2853
蕪	-11.2857
躍	-11.2858
誨	-11.286
俠	-11.2863
履緰	-11.2863
拳	-11.2868
蓐	-11.2901
譟	-11.2907
趙旃	-11.2908
先且居	-11.2909
夸	-11.2911
静	-11.2911
鼻	-11.2911
疆埸	-11.2914
頽	-11.2917
何賢乎	-11.2919
蠆	-11.2954
秬	-11.2955
幄	-11.2956
万	-11.2959
織	-11.296
洫	-11.2965
暑	-11.3003
湖廣	-11.3009
蘓	-11.3009
案此條	-11.3011
晩	-11.3013
吕祖謙曰	-11.3014
鱗	-11.3014
㨗菑	-11.3014
濕	-11.3058
輪	-11.3058
尨	-11.3059
霣	-11.306
𦙍	-11.3061
馴	-11.3063
雙	-11.3066
書首月	-11.3079
頵	-11.3112
撃	-11.3113
伐宋圍緡	-11.3115
城西郛	-11.3115
粲	-11.3116
新作南門	-11.3116
仲佗石彄	-11.3118
城濮之戰	-11.3123
郉	-11.3157
鄑	-11.3161
公山不狃	-11.3165
園	-11.3166
準	-11.3166
熊過氏曰	-11.3169
常山劉氏曰	-11.3169
閟	-11.3169
夫人姜氏至自齊	-11.3175
兖州府	-11.3191
彤弓	-11.3196
梧	-11.3208
覽	-11.3212
皥	-11.3213
少皥	-11.3213
緦	-11.3215
汲郡	-11.3217
伊川先生解	-11.3224
荷	-11.3262
杵臼	-11.3268
苐	-11.327
詢	-11.327
鄭康成	-11.3273
厠	-11.3318
伐我西鄙	-11.3323
骨肉	-11.3324
鉉翁	-11.3325
5.3	-11.3328
程頥曰	-11.333
斵	-11.3334
泠	-11.3369
秀	-11.337
該	-11.337
女音汝	-11.3371
孟懿子	-11.3374
平王東遷	-11.3375
黑壤	-11.3375
仲孫貜	-11.3378
鼓用牲于社	-11.3379
堙	-11.3381
騶	-11.342
魂	-11.3424
挫	-11.3424
耿	-11.3425
祓	-11.3427
俎	-11.3429
欒書中行偃	-11.3429
抶	-11.3429
木訥	-11.3432
公如齊公至自齊	-11.344
緇	-11.3471
鄾	-11.3476
皷	-11.348
淪	-11.3481
公至自齊居于鄆	-11.3481
媒	-11.3482
諸侯不生名	-11.3482
恊	-11.3484
鰌	-11.3488
大夫之三命者也	-11.3494
眾	-11.3505
夘	-11.3521
鶉	-11.3528
飢	-11.3528
莒人入向	-11.353
通嗣君也	-11.3532
來戰于郎	-11.3534
栽	-11.3535
妙	-11.3535
將焉用之	-11.3535
劉康公	-11.3537
胥靡	-11.3539
䜛	-11.354
愷	-11.3579
窒	-11.3583
祏	-11.3589
隳	-11.3589
孰大焉	-11.3589
慙	-11.3589
閎	-11.3593
逋逃	-11.3606
竜	-11.3632
餒	-11.3633
梓	-11.3633
臀	-11.3636
牂	-11.3637
宦	-11.3637
兢	-11.3639
揔	-11.364
也葉子曰	-11.3661
髦	-11.368
括地志	-11.3687
慿	-11.3695
拂	-11.3699
藐	-11.3699
鼠	-11.3701
鞶	-11.3707
莫大於	-11.371
應劭	-11.3742
膰	-11.3746
菁	-11.3746
㝠	-11.3747
障	-11.3751
漁	-11.3753
夫人孫于齊	-11.3756
劉子單子	-11.3759
犁	-11.3759
注疏卷	-11.3796
好呼報反	-11.3797
畤	-11.3801
不亦宜乎	-11.3803
㧞	-11.3803
淑	-11.3803
翔	-11.3805
孔穎達	-11.3805
王姬歸于齊	-11.3806
郪	-11.3807
天王出居于鄭	-11.3807
畚	-11.3808
公及戎盟于唐	-11.3808
潤	-11.3856
䕶	-11.3859
敘	-11.386
囊	-11.3862
遙	-11.3909
那	-11.391
炭	-11.3911
構	-11.3911
控	-11.3912
堇	-11.3913
巖	-11.3915
藍	-11.3916
排	-11.3916
朴	-11.3919
沈尹戌	-11.3919
奚齊卓子	-11.392
蔡人殺陳佗	-11.3922
伊戾	-11.3923
行即位之禮	-11.3925
爲于僞切	-11.3927
褊	-11.3968
燎	-11.397
凱	-11.3971
彫	-11.3973
叔仲惠伯	-11.3975
嘻	-11.3977
莒人滅鄫	-11.3978
書於䇿	-11.3986
董仲舒	-11.4022
邶	-11.4023
孔安國	-11.4024
浦	-11.4025
䖏	-11.4028
黙	-11.4028
轡	-11.4032
叔孫得臣如京師	-11.4034
飱	-11.4078
欽	-11.4081
次于雍榆	-11.4082
佳	-11.4082
趙同趙括	-11.4083
香	-11.4085
偹	-11.4085
猜	-11.4088
據事直書	-11.4092
北宫括	-11.4094
日南至	-11.4096
書于策	-11.4124
韻	-11.4132
酆舒	-11.4136
輩	-11.4139
宫之竒	-11.4143
麥禾	-11.4145
春秋分記卷	-11.4147
晳	-11.4161
11.1	-11.4192
陳公子招	-11.4195
馘	-11.4197
駐	-11.4197
儷	-11.4198
肘	-11.42
殺適立庶	-11.4201
公㑹晉侯宋公衛侯鄭伯曹伯	-11.4204
昵	-11.4204
䝨	-11.4249
爼	-11.425
禪	-11.4253
概	-11.4255
亳城北	-11.4255
高氏閌曰	-11.4257
摟	-11.4259
珍	-11.426
墻	-11.4263
惎	-11.4305
𤨏	-11.4312
豉	-11.4312
冐	-11.4314
武王克商	-11.4314
朝宿之邑	-11.4315
壁	-11.4315
取讙及闡	-11.4316
尹氏立王子朝	-11.4317
齊侯使其弟年來聘	-11.4317
季康子	-11.4318
宋人圍曹	-11.4318
履霜	-11.4318
「	-11.4339
輝	-11.4358
靣	-11.4369
凝	-11.4369
䑕	-11.4371
鰥	-11.4371
值	-11.4373
弼	-11.4373
頸	-11.4373
嗜	-11.4374
採	-11.4376
蹶	-11.438
考仲子之宫	-11.4384
奇	-11.4426
珪	-11.4429
朞	-11.4429
邉	-11.4429
橐	-11.4431
熱	-11.4431
梏	-11.4434
蠲	-11.4435
存耕趙氏曰	-11.4439
肆大眚	-11.444
𦵏我小君	-11.4445
眷	-11.4487
不去其官	-11.4488
浴	-11.4488
夫音扶	-11.4488
簡牘	-11.4488
骸	-11.4489
祐	-11.449
泮	-11.449
祇	-11.449
比事以觀	-11.4491
」	-11.4501
肓	-11.4541
尫	-11.4546
扼	-11.4546
倦	-11.4547
鸜鵒來巢	-11.4549
齊師滅譚	-11.4551
𨼆	-11.4554
耏	-11.4603
茅堂胡氏曰	-11.4606
晁	-11.4606
跛	-11.4607
汋	-11.4607
其曰人何也	-11.4607
住	-11.4609
効	-11.4609
鶴	-11.4614
皁	-11.4658
今山西	-11.4663
穢	-11.4666
帖	-11.4668
齊人滅遂	-11.4669
汚	-11.467
以者不以者也	-11.4673
賊未討	-11.4698
檮杌	-11.472
蠶	-11.4725
邾人伐我南鄙	-11.4727
故謹而日之	-11.473
逆婦姜于齊	-11.4734
覘	-11.4734
禜	-11.4734
菜	-11.4788
慘	-11.479
倪	-11.4792
州公如曹	-11.4795
莘老孫氏曰	-11.4796
算	-11.4796
綂	-11.4797
尼	-11.4844
靜	-11.4847
翁	-11.4848
犖	-11.485
盧蒲嫳	-11.4852
戯	-11.4855
噐	-11.4857
曰美哉	-11.4877
还	-11.4901
見賢遍反	-11.4906
鄋瞞	-11.4906
漫	-11.4909
謫	-11.491
沐浴	-11.4914
饉	-11.4915
饒	-11.4961
鄗	-11.4964
欣	-11.4971
先代之後	-11.4972
蕭叔朝公	-11.4976
盬	-11.498
体	-11.5021
浞	-11.5022
霄	-11.5034
涕	-11.5035
申公巫臣	-11.5036
顆	-11.5036
飲之酒	-11.5037
蔡桓侯	-11.5045
譏何譏爾	-11.5056
丕	-11.5092
晉荀吳帥師	-11.5094
戍鄭虎牢	-11.5095
貂	-11.5096
岡	-11.5097
殞	-11.5098
截	-11.5098
拾	-11.5099
玦	-11.5099
星隕如雨	-11.51
惻	-11.5101
眞	-11.5101
豬	-11.5103
彛	-11.5108
澗	-11.5153
渚	-11.5154
顓	-11.5154
縷	-11.5159
贅	-11.5159
誄	-11.5161
豚	-11.5161
慾	-11.5162
沐	-11.5163
脯	-11.5163
箇	-11.5164
兇	-11.5166
申包胥	-11.5168
中國無伯	-11.5171
飽	-11.522
蔣	-11.5221
見賢徧反	-11.5222
鬻拳	-11.5222
陴	-11.5222
繡	-11.5223
䑓	-11.5224
逭	-11.5225
豭	-11.5226
入者内弗受也	-11.5229
夫人姜氏歸于齊	-11.5229
趙企明	-11.523
兖	-11.5272
独	-11.5277
裕	-11.5288
立煬宫	-11.5289
牼	-11.5289
為後世戒	-11.5291
楚子鄭伯伐宋	-11.5291
為中國患	-11.5291
淄	-11.534
羸	-11.5343
牖	-11.5347
捐	-11.5348
其是之謂乎	-11.5349
柱	-11.5349
禇	-11.5351
秦伯之弟鍼	-11.5351
邢遷于夷儀	-11.5354
頰	-11.5355
立乎其位	-11.5355
版	-11.5361
彤	-11.537
𤣥枵	-11.5404
穡	-11.5409
麾	-11.5409
齊小白入于齊	-11.5412
从	-11.5412
卧	-11.5417
芋	-11.5418
至黄乃復	-11.5424
王不稱天	-11.5424
華合比	-11.5426
屬辭比事	-11.5427
迁	-11.5474
塹	-11.5477
誕	-11.5478
紼	-11.548
肱	-11.5482
逡	-11.5482
子服景伯	-11.5486
舄	-11.5488
春秋傳卷	-11.5521
帰	-11.5534
愍	-11.554
悅	-11.5543
旒	-11.5543
話	-11.5544
䏻	-11.5545
洞	-11.5546
𤯝	-11.5546
需	-11.5546
懈	-11.5547
無麥苗	-11.5548
宋人遷宿	-11.555
魁	-11.555
宰渠伯糾	-11.5555
及晉處父盟	-11.5559
松	-11.5608
燒	-11.5608
王氏經世	-11.5609
琊	-11.561
邘	-11.561
惇	-11.5611
齊人殺無知	-11.5611
震夷伯之廟	-11.5613
趾	-11.5614
郜大鼎	-11.5614
獮	-11.5618
膠	-11.5673
岱	-11.5674
膚	-11.5676
櫜	-11.5676
貉	-11.5679
艱	-11.5681
呈	-11.5685
徽	-11.5741
覩	-11.5741
膺	-11.5741
蚤	-11.5743
乍	-11.5744
鄏	-11.5744
囘	-11.5746
蕕	-11.5746
笠	-11.5748
這	-11.5751
遑	-11.5752
詒	-11.5805
弘	-11.5807
製	-11.581
樗	-11.5815
『	-11.5836
兕	-11.5871
爱	-11.5871
濱	-11.5873
諮	-11.5876
号	-11.5878
綿	-11.5883
寺	-11.5906
翳	-11.5942
啼	-11.5946
冇	-11.5948
蕞	-11.5948
閌	-11.595
汸	-11.5952
黔	-11.6013
疢	-11.6013
熄	-11.6015
貿	-11.6016
澂	-11.602
溷	-11.602
鬪	-11.6026
霖	-11.6079
裹	-11.6082
飯	-11.6084
愾	-11.6086
駸	-11.6088
熹	-11.609
㝎	-11.6146
俊	-11.6152
牀	-11.6153
枉	-11.6154
嬪	-11.6157
凟	-11.6158
阼	-11.6162
溱	-11.6221
奥	-11.6222
勦	-11.6223
詬	-11.6224
俄	-11.6231
脾	-11.6231
杏	-11.6287
敕	-11.629
顙	-11.6291
碎	-11.6294
騎	-11.6296
緫	-11.6299
鈹	-11.6302
庾	-11.6359
寖	-11.6365
縫	-11.6367
滔	-11.6371
膝	-11.6372
瓊	-11.6375
緱	-11.6427
妘	-11.6432
慧	-11.6432
央	-11.6434
莞	-11.6434
趯	-11.6435
挑	-11.6435
纁	-11.6436
裨	-11.6436
朐	-11.6437
兾	-11.6438
隴	-11.6439
册	-11.6441
昃	-11.6446
芈	-11.6449
軾	-11.6508
跋	-11.6512
貟	-11.6513
粗	-11.6513
酸	-11.6569
嵩	-11.6576
諷	-11.6578
坊	-11.658
郁	-11.6581
筵	-11.6582
顚	-11.6583
熈	-11.6584
歉	-11.6586
稠	-11.6589
枚	-11.6645
鬲	-11.6647
緒	-11.6651
沼	-11.6651
豢	-11.6652
藴	-11.6653
檟	-11.6653
慰	-11.6654
椽	-11.6658
漕	-11.6719
暢	-11.6721
翊	-11.6724
朕	-11.6726
粉	-11.6728
碩	-11.6729
鷄	-11.6729
聰	-11.673
彖	-11.6732
瓘	-11.6733
灼	-11.6735
饜	-11.6737
:	-11.6779
蠧	-11.6796
雋	-11.6798
郲	-11.68
揣	-11.6802
遒	-11.6803
袂	-11.6804
狠	-11.6805
烹	-11.6806
爛	-11.6807
絜	-11.6872
髽	-11.6872
彞	-11.6875
苛	-11.6878
兊	-11.688
樞	-11.6943
別	-11.6948
阮	-11.6957
舘	-11.6957
殳	-11.7016
棫	-11.7025
衽	-11.7026
洗	-11.7027
橫	-11.7028
薊	-11.7085
酆	-11.709
鎬	-11.7092
嚮	-11.7098
斁	-11.7101
級	-11.7101
吹	-11.7106
畱	-11.7106
它	-11.7106
覬	-11.7107
耄	-11.7108
歇	-11.7108
郥	-11.7109
抄	-11.7109
籩	-11.711
旐	-11.7172
猗	-11.7174
𫉬	-11.7177
僨	-11.7178
剪	-11.7178
蠡	-11.7179
齧	-11.7179
謨	-11.7179
黿	-11.7189
掖	-11.7253
厨	-11.7255
蝗	-11.7255
遼	-11.7256
俛	-11.726
歐	-11.726
紿	-11.7262
謟	-11.7266
苴	-11.7325
瓠	-11.7332
彈	-11.7332
𤓰	-11.7332
蹙	-11.7333
妣	-11.7334
冺	-11.7335
染	-11.7336
活	-11.7338
辦	-11.7339
詘	-11.7343
鄠	-11.7406
昉	-11.741
郿	-11.7411
懾	-11.7413
眉	-11.7414
𬒳	-11.7416
􁉸	-11.7416
癘	-11.748
麤	-11.7485
勛	-11.7488
勅	-11.7491
汴	-11.7492
咮	-11.7492
雎	-11.7493
讟	-11.7495
芉	-11.75
郫	-11.7561
綴	-11.757
懟	-11.757
響	-11.7576
斤	-11.7576
􁂧	-11.7576
悍	-11.7581
軋	-11.7651
爇	-11.7652
墊	-11.7652
禆	-11.7655
奨	-11.7658
鞫	-11.7659
叟	-11.7725
澮	-11.7726
濰	-11.773
餬	-11.7734
䘏	-11.7736
贛	-11.7738
慆	-11.7738
邠	-11.7738
捍	-11.7739
吝	-11.7741
継	-11.7803
徂	-11.7808
断	-11.7812
羇	-11.7823
輈	-11.7823
莭	-11.7824
餓	-11.7895
诸	-11.7897
蠭	-11.79
贖	-11.7902
樸	-11.7902
羲	-11.7903
眇	-11.7905
㳂	-11.7909
禫	-11.7909
儼	-11.7909
踣	-11.7973
燔	-11.7974
鬱	-11.7978
燼	-11.798
勾	-11.7986
丞	-11.7986
絻	-11.7987
斐	-11.7987
枵	-11.8052
蘩	-11.8059
波	-11.8061
院	-11.8063
鄍	-11.8064
槐	-11.8065
聾	-11.8067
墳	-11.8071
熸	-11.8071
騂	-11.8076
劔	-11.8151
剥	-11.8156
縗	-11.8228
彝	-11.8235
鸞	-11.8236
瑜	-11.8237
莠	-11.8237
諤	-11.824
驛	-11.8241
个	-11.8244
縳	-11.8321
椁	-11.8321
箭	-11.8323
聳	-11.8325
炊	-11.8326
秣	-11.8326
筭	-11.8327
祼	-11.8329
箾	-11.8334
沔	-11.8397
謳	-11.8406
囂	-11.8407
柰	-11.8409
𠂻	-11.8413
粢	-11.8414
獒	-11.849
紫	-11.8497
鞠	-11.8498
鯈	-11.8499
蠢	-11.8499
啻	-11.8499
郔	-11.8502
挽	-11.8502
瑶	-11.8509
旆	-11.8571
澠	-11.8573
淇	-11.8581
捕	-11.8582
饌	-11.8583
檜	-11.8586
炫	-11.8589
峻	-11.8589
慊	-11.8591
鉤	-11.8593
馹	-11.8598
霤	-11.8659
坂	-11.8671
邰	-11.8675
鞮	-11.8676
蝥	-11.8676
肹	-11.8677
護	-11.8677
詎	-11.8678
葺	-11.8682
舌	-11.8759
跨	-11.8761
頤	-11.8764
㤀	-11.8765
鈎	-11.8768
踞	-11.877
盱	-11.877
櫕	-11.8773
褐	-11.8845
韙	-11.8849
飴	-11.8856
僥	-11.8859
鞍	-11.8859
厄	-11.886
譆	-11.8869
椑	-11.8936
弄	-11.8943
雁	-11.8944
諛	-11.8944
聵	-11.8945
䢵	-11.8946
瞫	-11.8946
濳	-11.8947
洲	-11.8947
岌	-11.8948
瞑	-11.895
跗	-11.8952
遐	-11.8954
閣	-11.8957
耗	-11.9031
寐	-11.9034
潼	-11.9036
鶂	-11.9037
丸	-11.9039
袵	-11.9041
誑	-11.9042
媿	-11.9043
茀	-11.9044
芟	-11.9045
榦	-11.9045
跳	-11.9047
惕	-11.9048
斿	-11.9049
叱	-11.9051
疫	-11.9124
蒞	-11.9134
疥	-11.9134
愁	-11.9134
翕	-11.9135
亀	-11.9135
頺	-11.9136
悌	-11.9137
瘳	-11.9143
篳	-11.9143
浹	-11.9146
逋	-11.9202
穪	-11.9217
簞	-11.9218
寮	-11.9219
馨	-11.9224
騷	-11.9227
的	-11.9228
佹	-11.9231
忮	-11.9231
疵	-11.9232
嗇	-11.9232
㢘	-11.9232
餞	-11.9234
頹	-11.9234
隷	-11.9235
楽	-11.9235
糞	-11.9238
禴	-11.9243
坻	-11.9307
嶧	-11.9314
掘	-11.9322
摧	-11.9324
庖	-11.9324
饘	-11.9325
枯	-11.9326
闘	-11.9326
稚	-11.9326
疚	-11.9328
璠	-11.9328
惴	-11.9329
憊	-11.9332
姨	-11.9419
幷	-11.9424
恬	-11.9424
觴	-11.9426
摩	-11.9427
胷	-11.9435
囲	-11.9503
濬	-11.9507
旰	-11.951
顕	-11.9511
涸	-11.9517
魅	-11.9605
迋	-11.9615
鼬	-11.9616
鵬	-11.9617
演	-11.9617
斛	-11.9617
擕	-11.9617
泝	-11.9618
駮	-11.9619
姆	-11.9621
榛	-11.9622
諉	-11.9623
陈	-11.9623
肇	-11.9711
虗	-11.9712
廿	-11.9713
綺	-11.9713
凍	-11.9714
慨	-11.9714
傎	-11.9716
祉	-11.9718
𫝑	-11.9719
紐	-11.9807
霆	-11.9807
蕘	-11.9808
墉	-11.9811
花	-11.9814
影	-11.9816
䋲	-11.9816
怵	-11.9817
櫝	-11.9819
褰	-11.9822
㤙	-11.9913
瓚	-11.9916
苞	-11.9917
妬	-11.9917
訂	-11.9918
脇	-11.992
抉	-11.9921
氐	-11.9922
罄	-11.9925
軘	-11.9929
泆	-12.0008
㸃	-12.001
逰	-12.0014
弇	-12.0016
涼	-12.0019
挟	-12.002
揺	-12.0021
訥	-12.0022
乳	-12.0025
囬	-12.0032
涌	-12.011
萑	-12.0114
勁	-12.0116
縋	-12.0116
沴	-12.0117
扇	-12.012
忒	-12.012
敷	-12.0126
覦	-12.0128
堞	-12.0129
牒	-12.0132
孑	-12.0133
礱	-12.014
叩	-12.0224
棋	-12.0224
翣	-12.0227
蜮	-12.0228
鄎	-12.0229
燧	-12.0233
憐	-12.0325
禋	-12.0329
諶	-12.033
状	-12.0333
冩	-12.0333
萇	-12.0333
芥	-12.0334
参	-12.0338
羹	-12.0339
彚	-12.0408
豊	-12.0427
刳	-12.0428
寰	-12.043
汨	-12.0435
垢	-12.0438
瑯	-12.0439
豔	-12.0445
茨	-12.0446
拏	-12.0448
堊	-12.0448
圜	-12.0456
奎	-12.0535
蘋	-12.0537
莵	-12.0538
陛	-12.0541
沉	-12.0541
停	-12.0541
掉	-12.0543
拊	-12.0544
猥	-12.0545
戀	-12.0547
勵	-12.0547
脂	-12.0547
竪	-12.0548
薰	-12.0548
鏤	-12.0554
瑰	-12.0558
凉	-12.064
瀍	-12.0648
添	-12.0654
柝	-12.0656
塊	-12.0656
渥	-12.0658
齡	-12.066
斲	-12.0661
嘖	-12.0673
逄	-12.0749
离	-12.0751
婺	-12.0753
濯	-12.0755
譌	-12.0756
翫	-12.0757
掎	-12.0757
頥	-12.0758
佑	-12.0759
窕	-12.076
剄	-12.0761
沾	-12.0761
蕰	-12.0762
隄	-12.0762
蹊	-12.0764
縦	-12.0765
睔	-12.0769
謡	-12.077
叅	-12.0771
扳	-12.0772
餱	-12.0772
㦲	-12.0773
崤	-12.0867
藟	-12.0871
核	-12.0871
網	-12.0872
瞞	-12.0874
惏	-12.0874
壑	-12.0874
翠	-12.0876
擒	-12.0877
鬛	-12.0878
劓	-12.0879
堤	-12.0881
帳	-12.0977
灵	-12.0979
汎	-12.098
村	-12.0981
笏	-12.0982
减	-12.0985
軼	-12.0986
劇	-12.0986
匏	-12.0987
錢	-12.0987
勺	-12.0987
㨿	-12.0988
曩	-12.0989
傍	-12.099
瑟	-12.099
簫	-12.0991
嬀	-12.0993
黝	-12.1
綜	-12.1089
雌	-12.1092
矦	-12.1092
牝	-12.1095
璽	-12.1101
縞	-12.1104
閠	-12.1104
溥	-12.1105
鐡	-12.1105
孺	-12.1168
厉	-12.1202
瘁	-12.1206
蝕	-12.1207
掫	-12.1208
矧	-12.121
琮	-12.121
鎭	-12.1215
仆	-12.1216
繅	-12.1221
学	-12.1314
淖	-12.1327
焞	-12.1328
貎	-12.1328
釡	-12.1329
盥	-12.133
局	-12.133
閾	-12.133
鼷	-12.1332
炙	-12.1333
闚	-12.1334
靷	-12.1334
兌	-12.1335
鸛	-12.1337
涑	-12.1439
嶺	-12.1443
僮	-12.1447
遞	-12.1448
葭	-12.145
酷	-12.1451
㓙	-12.1451
埀	-12.1451
頎	-12.1453
湎	-12.1455
侔	-12.1455
奈	-12.1526
騅	-12.1564
飭	-12.1564
番	-12.1565
繄	-12.1565
鈇	-12.1569
孕	-12.1573
憝	-12.1573
仞	-12.1574
紘	-12.1592
媾	-12.1682
尔	-12.1682
躡	-12.1686
奭	-12.1687
殲	-12.1687
慤	-12.1688
紆	-12.1688
欑	-12.169
訽	-12.1695
灑	-12.1695
羌	-12.1695
儻	-12.1695
𩔖	-12.1696
缾	-12.1696
縢	-12.1696
㸔	-12.1701
𣸪	-12.1795
恢	-12.1797
瘈	-12.1807
韎	-12.181
燥	-12.181
舂	-12.1811
聿	-12.1814
縉	-12.1814
泛	-12.1814
捘	-12.1815
忤	-12.1816
綘	-12.1816
峯	-12.182
畛	-12.1823
跣	-12.1929
脣	-12.193
嫠	-12.1932
粥	-12.1932
嫳	-12.1933
罹	-12.1935
徯	-12.1936
諦	-12.1944
圓	-12.1946
睨	-12.205
両	-12.2051
蓍	-12.2051
轄	-12.2053
摽	-12.2055
澶	-12.2056
莬	-12.2057
豷	-12.2057
擯	-12.2058
喬	-12.2058
溠	-12.2059
矔	-12.2061
䘙	-12.2061
茇	-12.2061
脰	-12.2062
覯	-12.2062
餌	-12.2062
関	-12.2063
寃	-12.2063
昨	-12.2064
迯	-12.2064
厎	-12.2066
躁	-12.2067
渴	-12.2179
鄱	-12.2179
賑	-12.218
柣	-12.2181
租	-12.2188
傑	-12.2191
扄	-12.2298
螭	-12.2301
桔	-12.2312
㪚	-12.2315
輓	-12.2315
絏	-12.2315
觕	-12.2316
罸	-12.2317
鵒	-12.2318
玊	-12.2319
刈	-12.2319
攅	-12.232
邜	-12.232
撻	-12.232
銷	-12.2322
麑	-12.2429
尓	-12.2434
邽	-12.2437
东	-12.2443
顏	-12.2443
銓	-12.2446
磨	-12.2446
昩	-12.2446
冨	-12.2447
翹	-12.2447
腯	-12.2451
倘	-12.2452
抵	-12.254
儁	-12.256
樽	-12.2566
輜	-12.257
郹	-12.257
軨	-12.2571
綦	-12.2571
沸	-12.2572
蓬	-12.2572
咫	-12.2572
賸	-12.2575
㒺	-12.2575
炳	-12.2576
凛	-12.2578
洹	-12.2581
韭	-12.2703
豪	-12.2704
蒿	-12.2706
片	-12.2707
標	-12.2709
誡	-12.2709
畒	-12.2709
腥	-12.2709
跖	-12.2711
遯	-12.2711
簿	-12.2716
很	-12.2719
邂	-12.2723
労	-12.2826
翻	-12.284
窋	-12.2841
璣	-12.2842
挺	-12.2844
評	-12.2844
苻	-12.2845
胸	-12.2847
迓	-12.285
璜	-12.285
坫	-12.2852
逅	-12.2858
韠	-12.2881
刲	-12.2956
苕	-12.2959
贏	-12.2974
蘄	-12.2975
鄤	-12.2975
縵	-12.2977
技	-12.298
喉	-12.2982
喚	-12.2984
鎛	-12.2986
笱	-12.2987
瞍	-12.2994
夣	-12.2994
菆	-12.3111
勒	-12.3113
頷	-12.3114
欿	-12.3114
爪	-12.3114
皐	-12.3116
勘	-12.3118
僃	-12.3119
詠	-12.312
蹯	-12.3122
杵	-12.3123
茹	-12.3123
駿	-12.3123
愠	-12.3128
仝	-12.3141
扃	-12.3242
塴	-12.3248
茢	-12.325
旝	-12.3256
銅	-12.3258
韡	-12.3259
諧	-12.326
慄	-12.3264
冄	-12.3265
吠	-12.3265
燄	-12.3268
䢴	-12.338
餮	-12.3391
饕	-12.3392
隈	-12.3394
㧾	-12.3395
耼	-12.3395
拙	-12.3398
櫓	-12.3399
麕	-12.3399
㤗	-12.34
雕	-12.3401
葱	-12.3402
額	-12.3402
仙	-12.3402
芘	-12.3403
軹	-12.3404
勍	-12.3405
沖	-12.3406
瀦	-12.3406
囯	-12.3406
戱	-12.3409
倨	-12.341
袝	-12.3412
悞	-12.3415
稗	-12.3416
籬	-12.3539
匈	-12.3541
祟	-12.3546
蟹	-12.3546
痁	-12.355
邯	-12.355
穰	-12.355
鞞	-12.3552
娵	-12.3552
擠	-12.3553
鍇	-12.3562
蒸	-12.3687
愔	-12.369
綸	-12.3692
頂	-12.3693
槁	-12.3694
郰	-12.3695
玷	-12.3696
狁	-12.3696
弢	-12.3696
碏	-12.3697
聨	-12.3698
黯	-12.3699
廼	-12.3709
腐	-12.384
沍	-12.384
卣	-12.3842
醇	-12.3844
拓	-12.3844
掇	-12.3847
牾	-12.3848
鼈	-12.3848
嫉	-12.3849
懵	-12.3851
渙	-12.3851
祸	-12.3851
斝	-12.3852
璵	-12.3853
頫	-12.3853
釜	-12.3974
暌	-12.3988
邈	-12.3992
俑	-12.3992
闊	-12.3992
鄐	-12.3993
廂	-12.3993
絡	-12.3993
汗	-12.3995
恠	-12.3995
剖	-12.3996
冲	-12.3998
遫	-12.3999
捥	-12.4
耽	-12.4001
灋	-12.4005
偉	-12.4006
犆	-12.4012
郾	-12.4142
黽	-12.4144
洎	-12.4144
玈	-12.4146
傁	-12.4148
阡	-12.415
祕	-12.4152
㱕	-12.4152
穽	-12.4153
廄	-12.4154
蔀	-12.4154
摘	-12.4155
牴	-12.4155
醒	-12.4155
灰	-12.4157
餙	-12.4162
酎	-12.4285
沚	-12.4298
郱	-12.4301
隻	-12.4301
忝	-12.4305
鈔	-12.4305
疋	-12.4306
碑	-12.4306
耨	-12.4306
瞭	-12.4307
曳	-12.4308
歿	-12.4308
恚	-12.4309
鷩	-12.431
佯	-12.4311
携	-12.4311
鶻	-12.4313
赳	-12.4314
萩	-12.4315
湣	-12.4457
諄	-12.446
陬	-12.4461
薫	-12.4462
滄	-12.4463
鈴	-12.4463
衂	-12.4464
崖	-12.4464
篆	-12.4465
詆	-12.4465
釗	-12.4465
腋	-12.4466
銀	-12.4466
繭	-12.4469
淆	-12.447
秃	-12.447
厪	-12.4473
鄴	-12.4473
朗	-12.4473
售	-12.4474
済	-12.4606
厖	-12.4622
䟦	-12.4623
絺	-12.4623
莪	-12.4624
闋	-12.4625
玁	-12.4626
濆	-12.4627
飫	-12.4635
濩	-12.4641
鏡	-12.4644
矩	-12.4774
耋	-12.4779
涿	-12.4779
緝	-12.478
擐	-12.4781
廻	-12.4782
麓	-12.4783
慭	-12.4785
擔	-12.4787
脉	-12.4788
刄	-12.4788
芊	-12.4792
鸜	-12.4793
卵	-12.4793
逖	-12.4796
棲	-12.4796
糗	-12.4797
嚻	-12.4807
𥙷	-12.4945
眣	-12.4949
纎	-12.4951
眛	-12.4953
㚟	-12.4954
緍	-12.4954
牷	-12.4954
糜	-12.4954
另	-12.4955
掬	-12.4955
䕃	-12.4956
旻	-12.4956
迴	-12.4956
揭	-12.4958
菴	-12.4958
䧏	-12.4959
埽	-12.496
憯	-12.4964
酢	-12.4965
湘	-12.5096
沁	-12.5106
浙	-12.5115
觵	-12.5119
蹷	-12.5119
貰	-12.5121
臾	-12.5125
凰	-12.5127
菲	-12.5129
瓉	-12.513
驁	-12.513
袪	-12.513
侅	-12.5133
豺	-12.5133
霞	-12.5145
曜	-12.5286
郃	-12.5287
壙	-12.529
猾	-12.529
鋪	-12.529
栾	-12.5291
澹	-12.5291
絓	-12.5295
絹	-12.5295
丐	-12.5298
兑	-12.5299
甄	-12.5302
座	-12.5303
唱	-12.5304
劑	-12.5307
鏚	-12.5308
罍	-12.531
扉	-12.5469
促	-12.547
贍	-12.547
鎧	-12.5472
猝	-12.5472
膊	-12.5472
踁	-12.5475
泱	-12.5477
庿	-12.5478
䜟	-12.548
鴟	-12.5481
釀	-12.5482
姣	-12.5484
耘	-12.5484
肜	-12.5484
煌	-12.563
筌	-12.5637
蠜	-12.564
葦	-12.5641
鄇	-12.5643
赭	-12.5648
瑴	-12.565
緼	-12.5651
撲	-12.5651
礙	-12.5652
浣	-12.5653
琥	-12.5654
模	-12.5655
蜡	-12.5656
漂	-12.5656
汁	-12.5657
𥅆	-12.5657
綫	-12.5659
藜	-12.5659
臝	-12.5661
漯	-12.5808
蛤	-12.5812
陕	-12.5821
姤	-12.5823
緑	-12.5825
軻	-12.5827
兠	-12.583
窆	-12.583
紡	-12.5831
船	-12.5832
腵	-12.5835
幘	-12.5837
簋	-12.5838
罵	-12.5839
穫	-12.584
濶	-12.5844
秕	-12.5845
邥	-12.6
㪘	-12.6003
汏	-12.6005
陲	-12.6011
埸	-12.6012
址	-12.6013
汧	-12.6013
鷹	-12.6014
怖	-12.6014
㳟	-12.6015
傴	-12.6019
嬙	-12.6019
諏	-12.6019
貲	-12.6021
圄	-12.6021
唘	-12.6022
删	-12.6022
嫂	-12.6022
雀	-12.6024
媮	-12.6024
櫛	-12.6025
絢	-12.6025
摶	-12.6025
罋	-12.6025
尢	-12.6027
鵞	-12.6027
聯	-12.6028
渇	-12.603
蒺	-12.603
佛	-12.6031
蹄	-12.6198
健	-12.6199
荊	-12.62
鍚	-12.62
軸	-12.6201
㬰	-12.6202
剝	-12.6202
抒	-12.6203
煖	-12.6204
窟	-12.6207
纊	-12.6208
遮	-12.6208
㮣	-12.6209
跦	-12.6209
嚢	-12.621
摇	-12.621
篋	-12.6211
珽	-12.6218
臻	-12.6218
諍	-12.6222
腦	-12.623
產	-12.6325
聶	-12.6385
爨	-12.6395
鷸	-12.6395
胎	-12.6398
䁥	-12.6399
斚	-12.6399
犄	-12.64
範	-12.6401
孜	-12.6403
廧	-12.6406
䙝	-12.6408
恝	-12.6411
筥	-12.6577
冑	-12.6583
幡	-12.6589
炮	-12.659
甬	-12.659
閫	-12.6591
伾	-12.6591
洋	-12.6591
洿	-12.6592
龔	-12.6593
韜	-12.6594
脊	-12.6595
鬚	-12.6595
謐	-12.6596
夑	-12.6597
缶	-12.6599
邧	-12.66
鋤	-12.66
油	-12.66
窘	-12.6601
蹕	-12.6602
哆	-12.6602
摰	-12.6602
鮀	-12.6604
佻	-12.6604
刁	-12.6605
柎	-12.6606
擢	-12.6606
闉	-12.6608
藁	-12.6783
亘	-12.6786
點	-12.6789
攢	-12.6791
昴	-12.6792
腫	-12.6793
唇	-12.6793
膽	-12.6794
鍳	-12.6796
㕘	-12.6798
批	-12.6798
駰	-12.6799
喟	-12.6799
釣	-12.68
鞛	-12.6801
餫	-12.6801
卭	-12.6802
薇	-12.6802
芾	-12.6802
屝	-12.6802
覈	-12.6803
皓	-12.6803
黠	-12.6804
磔	-12.6805
眅	-12.6808
皡	-12.6986
球	-12.699
療	-12.699
彜	-12.699
袍	-12.6992
聒	-12.6993
鏘	-12.6993
株	-12.6996
盲	-12.6998
晢	-12.6999
门	-12.6999
桞	-12.6999
俶	-12.6999
裒	-12.7
骼	-12.7001
刷	-12.7001
裸	-12.7002
机	-12.7003
酀	-12.7003
課	-12.7004
締	-12.7005
蓑	-12.7006
姺	-12.7007
蟀	-12.7007
雝	-12.7008
佃	-12.7009
匐	-12.701
紞	-12.7014
韍	-12.7016
宄	-12.7017
渢	-12.7029
嗾	-12.7194
笥	-12.7195
鳬	-12.7201
寥	-12.7202
婤	-12.7205
篨	-12.7206
眡	-12.7206
悕	-12.7207
兔	-12.7207
亶	-12.7207
皞	-12.7208
䓁	-12.7208
肺	-12.7208
菏	-12.7208
槬	-12.7208
瞿	-12.7209
怛	-12.7209
瑱	-12.7209
漈	-12.7209
毆	-12.721
洒	-12.721
搖	-12.721
倭	-12.721
帙	-12.721
零	-12.7211
杰	-12.7213
泜	-12.7213
懇	-12.7213
庈	-12.7213
衵	-12.7214
匍	-12.7217
蟋	-12.7218
癉	-12.722
曵	-12.7224
堀	-12.7232
廚	-12.7392
槃	-12.7406
问	-12.7406
墾	-12.7411
艷	-12.7418
睥	-12.7419
觩	-12.742
濘	-12.742
鋌	-12.7421
蹟	-12.7422
喙	-12.7422
甑	-12.7422
鏃	-12.7423
鉉	-12.7423
餽	-12.7423
塲	-12.7425
鵝	-12.7425
鷙	-12.7427
擣	-12.7428
㲄	-12.7439
氂	-12.7624
叶	-12.763
囆	-12.7631
裴	-12.7631
扺	-12.7632
扑	-12.7632
冷	-12.7632
溴	-12.7634
匜	-12.7634
粹	-12.7635
輟	-12.7635
軰	-12.7637
陀	-12.7637
䠞	-12.7637
撼	-12.7639
孱	-12.7639
豸	-12.7645
撮	-12.7645
鋸	-12.7647
瑾	-12.7647
淸	-12.7653
蟜	-12.7696
姶	-12.7855
溜	-12.7857
謠	-12.7858
侫	-12.7858
鶩	-12.7859
筑	-12.786
簀	-12.786
疊	-12.7861
漿	-12.7862
袴	-12.7864
郝	-12.7864
綪	-12.7873
綖	-12.7895
咋	-12.8075
粱	-12.8076
脈	-12.8077
儔	-12.8081
秭	-12.8081
邗	-12.8082
茫	-12.8085
恙	-12.8086
襦	-12.8086
羡	-12.8086
邕	-12.8086
誚	-12.8087
嫚	-12.8089
棊	-12.809
鄲	-12.8091
乂	-12.8092
拭	-12.8093
槀	-12.8093
壮	-12.8093
着	-12.8093
蘷	-12.8095
暘	-12.8096
峴	-12.8302
僵	-12.8309
湮	-12.8312
凄	-12.8314
氓	-12.8315
斮	-12.8315
沽	-12.8316
撤	-12.8317
嗤	-12.8319
摠	-12.832
䴢	-12.832
涯	-12.832
唾	-12.8321
柞	-12.8322
屦	-12.8323
瓶	-12.8323
屣	-12.8323
餉	-12.8324
町	-12.8325
吊	-12.8327
菫	-12.8329
僤	-12.8331
胠	-12.8332
峰	-12.8332
瑤	-12.8333
儦	-12.8337
聦	-12.8545
刧	-12.8548
夬	-12.8551
鄼	-12.8553
屛	-12.8553
籧	-12.8556
沶	-12.8558
褻	-12.8559
件	-12.8564
鷃	-12.857
鞬	-12.8571
斜	-12.8575
禬	-12.8787
躇	-12.8793
峙	-12.8795
袤	-12.8795
臥	-12.8796
逝	-12.8799
饁	-12.88
肝	-12.8801
撥	-12.8801
搚	-12.8801
宙	-12.8802
貯	-12.8802
飂	-12.8803
窌	-12.8804
皂	-12.8805
倐	-12.8806
覜	-12.8806
慚	-12.8807
语	-12.8807
砥	-12.8809
逓	-12.881
蹲	-12.881
侑	-12.881
蹂	-12.8811
疽	-12.8811
刎	-12.8815
􁏉	-12.8817
壷	-12.9022
鯨	-12.9038
迺	-12.9044
輹	-12.9048
騰	-12.905
腸	-12.905
悠	-12.9051
牘	-12.9052
綍	-12.9052
葘	-12.9053
碌	-12.9054
閴	-12.9054
赧	-12.9055
轢	-12.9057
蚩	-12.9059
黈	-12.906
滸	-12.9061
樠	-12.9061
鍵	-12.9062
齹	-12.9062
楨	-12.9062
鬰	-12.9062
叄	-12.9063
翺	-12.9064
鑪	-12.9064
鳶	-12.9065
𥚹	-12.9065
愒	-12.9298
裼	-12.9301
粤	-12.9303
鮫	-12.9304
儳	-12.9309
銔	-12.9309
沱	-12.931
䳒	-12.9311
檐	-12.9312
惓	-12.9312
坦	-12.9313
鴡	-12.9313
攀	-12.9313
莾	-12.9318
紳	-12.9324
験	-12.9325
陌	-12.9325
韅	-12.9326
蘀	-12.9327
映	-12.9328
蠹	-12.9528
軥	-12.9558
杭	-12.9558
准	-12.9565
穉	-12.9566
枹	-12.9567
嘏	-12.9568
肌	-12.9572
犴	-12.9572
塈	-12.9572
諗	-12.9573
睹	-12.9573
拉	-12.9573
淩	-12.9573
􁆦	-12.9574
戡	-12.9575
誹	-12.9575
耉	-12.9575
鑠	-12.9575
歠	-12.9575
猖	-12.9575
儵	-12.9576
桂	-12.9577
搜	-12.9578
䜿	-12.9578
鑋	-12.9579
羨	-12.9579
暭	-12.9579
衿	-12.9579
洊	-12.9579
郄	-12.9582
羭	-12.9584
椉	-12.9587
勳	-12.9818
寬	-12.9819
袚	-12.9828
张	-12.9828
燿	-12.9829
瘞	-12.9831
劭	-12.9831
揲	-12.9832
儐	-12.9836
餕	-12.9837
眩	-12.9839
旜	-12.9839
殂	-12.9839
裯	-12.9839
醯	-12.984
齎	-12.984
痍	-12.9842
縂	-12.9842
賾	-12.9842
杪	-12.9843
瘍	-12.9843
鵠	-12.9844
歧	-12.9844
愽	-12.9844
葑	-12.9844
帯	-12.9845
菹	-12.9848
挍	-12.9848
猷	-12.985
涘	-12.985
迸	-12.985
㴱	-12.985
羆	-12.985
楄	-12.9852
耜	-12.9852
轑	-12.9853
纇	-12.9853
矞	-12.9854
鑣	-12.9858
畨	-12.9861
窀	-12.9861
皤	-13.0108
𤾉	-13.011
胤	-13.0113
沬	-13.0113
兎	-13.0114
麴	-13.0114
漚	-13.0116
賚	-13.0116
岷	-13.0118
悱	-13.012
鬒	-13.012
譯	-13.0122
巍	-13.0122
痎	-13.0122
胃	-13.0122
涵	-13.0122
娛	-13.0124
摭	-13.0124
㩀	-13.0125
迅	-13.0125
研	-13.0127
婿	-13.0127
弈	-13.0127
轏	-13.0128
鐲	-13.0131
盪	-13.0132
𢃄	-13.0134
閈	-13.0142
唶	-13.0142
鼆	-13.0388
寿	-13.039
沢	-13.0396
霾	-13.0398
填	-13.0399
繐	-13.0399
夹	-13.0399
敺	-13.0399
眕	-13.04
匃	-13.04
衾	-13.04
袖	-13.0401
嘔	-13.0402
煙	-13.0403
檮	-13.0405
毳	-13.0405
螣	-13.041
蟊	-13.041
苪	-13.041
俳	-13.0411
迥	-13.0411
禎	-13.0411
圈	-13.0411
藺	-13.0412
罟	-13.0413
鲋	-13.0413
扆	-13.0414
霑	-13.0414
筩	-13.0414
焰	-13.0417
榱	-13.0421
靽	-13.0424
酋	-13.0426
瀐	-13.0432
蔭	-13.0681
鯢	-13.0682
猪	-13.0687
徭	-13.0687
巂	-13.0689
搢	-13.0692
秆	-13.0693
芬	-13.0693
竿	-13.0693
眙	-13.0693
嗛	-13.0696
衙	-13.0697
薀	-13.0697
圯	-13.0697
嶔	-13.0697
販	-13.0697
燾	-13.0698
𣢾	-13.0698
杠	-13.0698
蝑	-13.0699
蛾	-13.0699
堰	-13.0699
派	-13.07
渤	-13.0704
狸	-13.0705
玤	-13.0706
捉	-13.0707
筍	-13.0708
鄷	-13.0709
低	-13.071
碧	-13.0711
檇	-13.0711
劬	-13.0712
錞	-13.0713
雃	-13.0713
頿	-13.0713
簇	-13.0723
显	-13.073
蕆	-13.0989
袞	-13.0991
庠	-13.0992
鄹	-13.0993
寂	-13.0994
絇	-13.0995
匕	-13.0995
殫	-13.0996
紙	-13.0997
鑕	-13.0997
郏	-13.0998
桒	-13.1
銖	-13.1
徨	-13.1001
幦	-13.1001
娠	-13.1002
遟	-13.1002
頋	-13.1002
濠	-13.1003
麒	-13.1003
廕	-13.1004
尅	-13.1005
醮	-13.1005
蛟	-13.1005
瞷	-13.1006
綆	-13.1006
长	-13.1006
侏	-13.1007
籠	-13.1007
跌	-13.1007
鍪	-13.1008
儘	-13.1008
琪	-13.101
戻	-13.101
騫	-13.1011
闥	-13.1012
厮	-13.1013
奊	-13.1016
䁀	-13.1018
穸	-13.1022
崑	-13.1022
綣	-13.1036
㕑	-13.1299
戶	-13.13
湔	-13.1301
瞢	-13.1304
刜	-13.1304
恆	-13.1305
􁏄	-13.1305
鋟	-13.1308
庳	-13.131
叫	-13.1311
彷	-13.1312
虫	-13.1313
綢	-13.1313
怡	-13.1314
摏	-13.1314
㸑	-13.1316
掀	-13.1316
衘	-13.1316
葆	-13.1317
鼃	-13.1317
喧	-13.1317
龎	-13.1317
淒	-13.1318
掲	-13.1319
妺	-13.132
瘯	-13.1322
匝	-13.1323
茄	-13.1323
劵	-13.1325
簉	-13.1326
菀	-13.1326
攬	-13.1327
鴒	-13.1328
韣	-13.133
紝	-13.1332
瀋	-13.1332
尪	-13.1609
萴	-13.1625
宝	-13.1626
竅	-13.1628
頊	-13.1632
捶	-13.1632
妥	-13.1633
圬	-13.1633
弩	-13.1634
踖	-13.1635
軷	-13.1635
泌	-13.1635
瑑	-13.1636
涂	-13.1636
胹	-13.1637
躗	-13.1637
纑	-13.1638
翅	-13.1638
鈍	-13.1638
琬	-13.1638
嬉	-13.1639
甍	-13.164
挶	-13.164
膂	-13.164
秒	-13.1642
楷	-13.1643
妒	-13.1643
怍	-13.1644
梟	-13.1644
錐	-13.1645
認	-13.1645
滍	-13.1645
边	-13.1647
肻	-13.1648
徊	-13.1649
耒	-13.1652
像	-13.1652
繢	-13.1653
駹	-13.1654
穮	-13.1659
皿	-13.1664
繾	-13.1668
帅	-13.1939
哿	-13.1944
筴	-13.1956
泂	-13.1961
熏	-13.1963
衈	-13.1963
飪	-13.1963
軛	-13.1965
间	-13.1966
盻	-13.1968
皙	-13.1969
螫	-13.1969
􁂪	-13.1971
敲	-13.1972
叠	-13.1972
琢	-13.1972
倅	-13.1972
泳	-13.1973
僇	-13.1975
軀	-13.1975
駵	-13.1977
鼐	-13.1979
黰	-13.198
培	-13.198
窬	-13.1981
撿	-13.1982
腒	-13.1987
伶	-13.1993
㠯	-13.1996
籌	-13.2296
蠅	-13.2299
麏	-13.2305
淅	-13.2305
阙	-13.2306
矇	-13.2308
鯉	-13.231
轚	-13.231
闖	-13.2311
兜	-13.2311
狽	-13.2312
崛	-13.2312
繳	-13.2313
筋	-13.2314
凜	-13.2316
迮	-13.2317
屡	-13.2317
鄝	-13.2317
琰	-13.2319
蓺	-13.232
摋	-13.232
刦	-13.2321
恰	-13.2321
犠	-13.2321
㽞	-13.2321
秪	-13.2322
頯	-13.2324
態	-13.2327
頜	-13.2331
刮	-13.2331
旴	-13.2332
祛	-13.2333
酁	-13.2336
鉦	-13.2336
坡	-13.2658
酇	-13.2659
潢	-13.2659
闌	-13.266
溉	-13.2661
噲	-13.2662
覃	-13.2662
蘱	-13.2664
熖	-13.2665
磌	-13.2666
靦	-13.2668
濤	-13.2668
胊	-13.267
遬	-13.2671
鸇	-13.2671
憒	-13.2671
稲	-13.2671
盆	-13.2671
烖	-13.2672
肃	-13.2672
䞇	-13.2672
狙	-13.2672
􁊈	-13.2673
掦	-13.2673
猈	-13.2673
魑	-13.2674
刅	-13.2675
絛	-13.2675
絆	-13.2675
蜂	-13.2676
瘼	-13.2678
欠	-13.2679
鰓	-13.268
悻	-13.2681
艶	-13.2681
箠	-13.2681
蹤	-13.2682
瞆	-13.2683
扣	-13.2683
洵	-13.2684
鍥	-13.2686
紵	-13.2687
嫄	-13.2692
蓘	-13.2693
燉	-13.3025
竀	-13.303
襟	-13.3033
殣	-13.3033
駑	-13.3035
悴	-13.3037
芽	-13.3037
幟	-13.3037
塓	-13.304
溳	-13.304
麀	-13.304
瘥	-13.304
蟻	-13.3041
趍	-13.3044
鑰	-13.3044
粒	-13.3044
嶲	-13.3045
彥	-13.3045
单	-13.3045
裝	-13.3045
遶	-13.3046
驌	-13.3047
韤	-13.3047
躓	-13.3047
褽	-13.3047
焮	-13.3047
湨	-13.3048
繪	-13.305
雊	-13.3051
㽔	-13.3052
壌	-13.3054
潄	-13.3054
厈	-13.3056
黥	-13.3056
㓛	-13.3059
暵	-13.3061
溼	-13.3402
邙	-13.3409
瞀	-13.3411
仡	-13.3415
焜	-13.3416
床	-13.3417
塾	-13.3419
抚	-13.3421
畎	-13.3421
埆	-13.3422
侠	-13.3424
襘	-13.3424
鄻	-13.3424
倔	-13.3424
蔚	-13.3426
旟	-13.3427
諓	-13.3427
抜	-13.3428
鬩	-13.3428
咈	-13.343
沫	-13.343
湊	-13.3431
桎	-13.3432
愉	-13.3433
瀘	-13.3433
膇	-13.3433
囏	-13.3434
畋	-13.3434
劾	-13.3434
腊	-13.3436
栖	-13.344
蕉	-13.3447
薮	-13.3763
麄	-13.3781
􁀱	-13.3792
甾	-13.3806
尒	-13.381
圎	-13.3811
贑	-13.3811
仭	-13.3814
鍭	-13.3816
踦	-13.3816
澳	-13.3817
暉	-13.3819
寨	-13.3821
蓽	-13.3822
暖	-13.3823
朡	-13.3824
價	-13.3824
杌	-13.3824
煢	-13.3825
筓	-13.3825
蛮	-13.3825
憶	-13.3826
逈	-13.3826
択	-13.3826
擴	-13.3827
崧	-13.383
謩	-13.383
耐	-13.3831
嫗	-13.3831
徘	-13.3833
霰	-13.3833
毓	-13.3833
獋	-13.3834
湟	-13.3834
壟	-13.3836
蕢	-13.3837
絿	-13.3837
鐃	-13.3837
訐	-13.3839
芸	-13.3839
僔	-13.3839
䦧	-13.384
阱	-13.3841
昳	-13.3843
懽	-13.3844
蕖	-13.3844
崙	-13.3847
啑	-13.3853
弥	-13.3853
柲	-13.3863
劈	-13.4227
蜼	-13.4227
晃	-13.4233
􁅀	-13.4233
柘	-13.4233
涓	-13.4235
虹	-13.4236
眼	-13.4236
逷	-13.4237
睅	-13.4238
簟	-13.4238
緰	-13.4238
莖	-13.4239
昄	-13.4239
𣙗	-13.424
阬	-13.4241
祍	-13.4242
剰	-13.4242
坑	-13.4244
愿	-13.4245
檛	-13.4246
棃	-13.4246
邸	-13.4247
躪	-13.4247
簣	-13.4247
㾐	-13.4247
粮	-13.4247
傚	-13.4248
徠	-13.4248
逗	-13.4249
擭	-13.4249
纘	-13.425
闃	-13.425
啗	-13.4251
茸	-13.4251
􁁔	-13.4252
㦧	-13.4252
汔	-13.4252
𬒮	-13.4253
漠	-13.4254
橈	-13.4256
杅	-13.4259
剸	-13.4259
􁂋	-13.4261
鮦	-13.4263
犢	-13.4264
営	-13.4265
孳	-13.4268
简	-13.4651
漦	-13.4664
􁈍	-13.4665
燀	-13.4665
碭	-13.4668
刊	-13.4669
睋	-13.4669
吸	-13.4672
潮	-13.4675
虣	-13.4675
訝	-13.4675
企	-13.4676
脡	-13.4677
禧	-13.4679
簑	-13.468
癰	-13.468
藋	-13.4681
啜	-13.4681
枋	-13.4682
顥	-13.4682
帆	-13.4683
騒	-13.4683
紕	-13.4683
茶	-13.4684
焬	-13.4686
街	-13.4689
娱	-13.4689
恫	-13.4689
栻	-13.4689
伹	-13.4693
䳭	-13.4694
讋	-13.4694
肋	-13.4697
􁒙	-13.47
颺	-13.4707
髡	-13.5095
霹	-13.5104
靂	-13.5104
祜	-13.512
閶	-13.5121
慟	-13.5124
蘖	-13.5125
玖	-13.5126
桴	-13.5126
眢	-13.5126
䷍	-13.5126
憔	-13.5127
挹	-13.5127
呌	-13.5128
琫	-13.5128
嘿	-13.5128
斑	-13.5128
讖	-13.5129
塘	-13.5129
䷂	-13.513
璿	-13.513
倂	-13.513
䷇	-13.5131
䱷	-13.5131
稀	-13.5131
署	-13.5132
漬	-13.5134
沇	-13.5134
閩	-13.5134
癬	-13.5135
􁒆	-13.5135
襧	-13.5135
𠖇	-13.5135
盎	-13.5136
愸	-13.5137
縻	-13.5137
襁	-13.5137
侗	-13.5138
脗	-13.5139
酣	-13.514
妁	-13.514
旡	-13.514
換	-13.5142
紲	-13.5142
宸	-13.5143
灊	-13.5144
诗	-13.5144
慁	-13.5147
閹	-13.5148
薑	-13.5148
塏	-13.5149
幃	-13.5149
妵	-13.5155
鳻	-13.5158
㷀	-13.5163
㝛	-13.5577
迤	-13.5579
勠	-13.5589
蠦	-13.559
旺	-13.5593
煮	-13.5595
蜰	-13.5595
欬	-13.5596
捌	-13.5596
𣆀	-13.5602
噭	-13.5605
崒	-13.5605
痺	-13.5605
紒	-13.5606
煑	-13.5606
洺	-13.5606
竫	-13.5608
犇	-13.5608
榼	-13.5609
煽	-13.561
謔	-13.561
洸	-13.561
蓻	-13.5611
掔	-13.5611
觶	-13.5611
悶	-13.5612
娄	-13.5612
𠞰	-13.5612
帀	-13.5613
髀	-13.5614
㦯	-13.5614
昻	-13.5614
晰	-13.5614
譁	-13.5614
惧	-13.5614
嗌	-13.5615
瑩	-13.5615
犅	-13.5615
繯	-13.5616
剔	-13.5618
杙	-13.5618
㩦	-13.5619
羗	-13.5619
郸	-13.562
满	-13.5621
綠	-13.5623
瑛	-13.5624
屍	-13.5625
袀	-13.5628
幬	-13.5628
腎	-13.5628
歯	-13.5638
緬	-13.6087
肢	-13.609
尙	-13.6091
洚	-13.6093
絮	-13.6094
膘	-13.6097
戟	-13.61
纒	-13.61
纖	-13.61
襯	-13.6101
玆	-13.6101
堆	-13.6103
戭	-13.6103
竞	-13.6103
皎	-13.6103
栫	-13.6104
毘	-13.6104
襍	-13.6105
稾	-13.6106
㕓	-13.6108
脚	-13.6109
宂	-13.6109
惶	-13.611
虵	-13.611
廛	-13.611
蹔	-13.6111
孥	-13.6111
冗	-13.6112
濓	-13.6112
傫	-13.6112
觓	-13.6112
觚	-13.6114
攫	-13.6114
儌	-13.6114
濄	-13.6115
嶠	-13.6116
瞶	-13.6116
晞	-13.6117
曆	-13.6117
恍	-13.6117
頁	-13.612
瀸	-13.6121
帨	-13.6124
㢲	-13.6125
㤜	-13.6126
湥	-13.6127
躔	-13.6129
牄	-13.613
鶞	-13.6132
腶	-13.6139
嶓	-13.6144
􁈈	-13.6146
杝	-13.6606
楸	-13.6611
撞	-13.6623
䷁	-13.6623
辝	-13.6623
値	-13.6624
楫	-13.6625
旞	-13.6628
㒵	-13.6628
踆	-13.6629
睡	-13.6629
咽	-13.6629
嘲	-13.663
蔥	-13.663
卹	-13.6632
闰	-13.6633
輴	-13.6633
褎	-13.6634
􁀋	-13.6634
夐	-13.6634
嗚	-13.6635
臏	-13.6635
􁀫	-13.6636
宐	-13.6636
森	-13.6636
㫋	-13.6637
􁐼	-13.6638
沭	-13.6638
厓	-13.6638
杓	-13.6638
讃	-13.6638
苓	-13.6639
芃	-13.664
鴞	-13.664
􁁲	-13.664
杯	-13.6641
訢	-13.6642
礪	-13.6642
鍜	-13.6644
曖	-13.6645
蝮	-13.6645
禖	-13.6647
匆	-13.6647
煦	-13.6648
賙	-13.6648
妍	-13.6649
鉗	-13.6649
悚	-13.6649
遡	-13.6649
𡵨	-13.6651
檪	-13.6652
唅	-13.6652
棧	-13.6653
髢	-13.6657
晡	-13.6659
柷	-13.6661
鷦	-13.6667
橁	-13.6671
鳸	-13.6701
鵙	-13.7161
蜉	-13.7165
潭	-13.7166
茠	-13.7167
沌	-13.7168
䡖	-13.7171
闵	-13.7172
髣	-13.7172
蕐	-13.7173
龠	-13.7173
誉	-13.7178
栄	-13.7178
挂	-13.7179
瘦	-13.7181
擿	-13.7182
繠	-13.7183
宕	-13.7183
鄕	-13.7183
燃	-13.7184
蜙	-13.7185
瀾	-13.7186
紾	-13.7187
㢡	-13.7187
㐫	-13.7187
烽	-13.7188
廁	-13.7189
輊	-13.7189
佼	-13.719
庐	-13.719
峽	-13.7191
娯	-13.7193
莩	-13.7193
㔟	-13.7194
廓	-13.7194
軄	-13.7197
柑	-13.7199
喝	-13.72
駈	-13.7201
熬	-13.7202
霽	-13.7202
掣	-13.7205
轝	-13.7205
窻	-13.7206
禂	-13.7206
憧	-13.721
晷	-13.7212
㭬	-13.7212
帬	-13.7213
雂	-13.7214
渻	-13.7214
狷	-13.7215
齬	-13.7759
打	-13.7762
䂓	-13.7765
獎	-13.7766
嘷	-13.7766
詈	-13.7767
䷀	-13.7768
邡	-13.7769
吟	-13.777
針	-13.7771
店	-13.7771
涪	-13.7771
蹹	-13.7772
賃	-13.7773
帚	-13.7773
氶	-13.7774
燦	-13.7774
嗸	-13.7775
芝	-13.7775
莤	-13.7776
敳	-13.7777
夥	-13.7778
☷	-13.7778
琛	-13.7779
僧	-13.7779
覚	-13.778
睿	-13.778
婣	-13.7781
虯	-13.7782
豁	-13.7782
躐	-13.7783
稿	-13.7783
􁆫	-13.7783
隩	-13.7783
䷗	-13.7784
朩	-13.7784
䛕	-13.7784
皦	-13.7784
枸	-13.7784
囷	-13.7785
洶	-13.7785
𡨕	-13.7785
褓	-13.7785
鵰	-13.7785
侃	-13.7786
撝	-13.7786
覧	-13.7786
㱿	-13.7787
姧	-13.7788
㟁	-13.7789
鴝	-13.779
蔬	-13.7791
筦	-13.7791
摮	-13.7791
煨	-13.7791
荻	-13.7792
餐	-13.7797
漾	-13.7798
䧦	-13.7798
樛	-13.7798
繮	-13.7798
讜	-13.7801
撎	-13.7801
􁑟	-13.7806
繂	-13.7814
鵗	-13.7817
鶅	-13.7819
鷷	-13.782
鵉	-13.7854
觳	-13.8366
变	-13.8378
茌	-13.838
髴	-13.8387
峪	-13.8388
眭	-13.839
丒	-13.8394
僉	-13.8396
澍	-13.8396
眂	-13.8397
㳅	-13.8398
騖	-13.8399
卅	-13.84
遨	-13.84
糊	-13.8401
噉	-13.8401
跂	-13.8401
蚣	-13.8402
隹	-13.8403
㡳	-13.8403
畄	-13.8404
禝	-13.8405
雛	-13.8406
迪	-13.8406
烟	-13.8406
邃	-13.8406
枿	-13.8406
惮	-13.8407
匭	-13.8408
㳄	-13.8408
閤	-13.8409
𦂳	-13.8409
煥	-13.841
㵐	-13.8411
藹	-13.8412
透	-13.8412
捄	-13.8412
峨	-13.8412
愜	-13.8412
搶	-13.8413
輂	-13.8414
晴	-13.8414
酳	-13.8415
黚	-13.8415
衖	-13.8415
週	-13.8417
腰	-13.8417
胚	-13.8417
䖝	-13.8418
媦	-13.842
𦦨	-13.8421
忡	-13.8427
鬣	-13.8428
敔	-13.8434
娀	-13.8438
-	-13.903
疹	-13.904
齓	-13.904
􁀮	-13.9045
洓	-13.9045
梲	-13.9048
鄜	-13.9048
纆	-13.9048
齟	-13.9056
岑	-13.9056
瀕	-13.9057
冤	-13.906
碍	-13.9061
笭	-13.9061
簷	-13.9062
鏑	-13.9063
楮	-13.9064
􁊯	-13.9064
竦	-13.9065
篲	-13.9065
玃	-13.9066
鴐	-13.9067
蚪	-13.9067
臡	-13.9067
怕	-13.9069
梮	-13.9069
褫	-13.9069
癡	-13.9069
仄	-13.9069
臚	-13.9069
朘	-13.907
甕	-13.907
藿	-13.9071
睪	-13.9072
坚	-13.9073
姝	-13.9073
棓	-13.9073
扐	-13.9074
𦍑	-13.9074
㭍	-13.9074
陔	-13.9075
䲭	-13.9076
滓	-13.9076
徬	-13.9076
絃	-13.9076
峩	-13.9077
揉	-13.9077
癖	-13.9077
掤	-13.9077
壍	-13.9077
荔	-13.9078
尭	-13.9079
愕	-13.9079
傋	-13.9079
鏌	-13.908
剏	-13.908
傭	-13.9081
捧	-13.9081
虬	-13.9082
詡	-13.9082
韈	-13.9082
團	-13.9082
嵇	-13.9085
𧺫	-13.9086
鴶	-13.9087
鼙	-13.9089
濞	-13.9091
俚	-13.9091
購	-13.9092
𧰼	-13.9092
謾	-13.9093
滙	-13.9094
蟬	-13.9095
㦤	-13.9095
败	-13.9737
纪	-13.9758
岩	-13.9765
抂	-13.9767
􁈩	-13.9767
埃	-13.9768
☵	-13.9769
濂	-13.9772
楛	-13.9774
軑	-13.9774
哂	-13.9775
祷	-13.9775
☳	-13.9777
汦	-13.9777
曝	-13.9778
懌	-13.9778
驥	-13.9778
蓱	-13.9779
摂	-13.9779
訌	-13.9779
逍	-13.9779
穯	-13.978
嘵	-13.978
肫	-13.978
䆫	-13.9781
箒	-13.9782
璂	-13.9783
咳	-13.9783
澡	-13.9783
罇	-13.9784
醎	-13.9784
蕡	-13.9784
訕	-13.9785
鼂	-13.9785
飧	-13.9785
眦	-13.9785
艸	-13.9786
慬	-13.9786
汳	-13.9787
埒	-13.9787
穨	-13.9787
怫	-13.9787
彩	-13.9787
鳧	-13.9787
惽	-13.9787
丧	-13.9787
検	-13.9788
橘	-13.9788
磽	-13.9788
亰	-13.9788
䄂	-13.9789
踴	-13.9789
澌	-13.9789
筏	-13.979
渫	-13.979
貊	-13.979
羑	-13.979
喘	-13.9791
遘	-13.9791
觱	-13.9791
霧	-13.9792
慷	-13.9793
查	-13.9793
􁐠	-13.9793
輾	-13.9794
瓌	-13.9795
湧	-13.9795
眤	-13.9795
􁃽	-13.9795
笫	-13.9795
狭	-13.9796
袛	-13.9796
獍	-13.9797
諰	-13.9797
媟	-13.9798
烕	-13.9798
苢	-13.9798
庵	-13.9798
􁁉	-13.9799
㳫	-13.98
䷑	-13.98
弹	-13.9802
詮	-13.9805
凑	-13.9805
層	-13.9808
叨	-13.9808
簠	-13.981
飮	-13.981
様	-13.9813
鴳	-13.9818
儛	-13.9825
椓	-13.9826
袠	-13.9832
喦	-14.0506
椵	-14.0518
坰	-14.0522
㦣	-14.0534
篚	-14.0535
慍	-14.0536
祢	-14.0537
墝	-14.0537
躊	-14.0538
㗖	-14.0539
佊	-14.0539
墐	-14.0539
笞	-14.054
覡	-14.0545
枲	-14.0545
蔟	-14.0547
稜	-14.0548
擲	-14.0548
腕	-14.0549
坁	-14.0549
剩	-14.0549
鄚	-14.0549
㢤	-14.055
抹	-14.055
懣	-14.0551
污	-14.0551
暝	-14.0551
駷	-14.0551
硬	-14.0552
秌	-14.0553
曏	-14.0554
壩	-14.0554
鄋	-14.0554
麃	-14.0555
䷥	-14.0556
銑	-14.0557
噍	-14.0557
鉶	-14.0558
緘	-14.0558
默	-14.0559
飦	-14.0559
凾	-14.0559
噤	-14.0559
単	-14.056
墍	-14.056
奂	-14.056
漱	-14.056
攖	-14.0561
秫	-14.0561
鎁	-14.0561
埶	-14.0562
☰	-14.0562
㝡	-14.0562
髳	-14.0562
笮	-14.0563
僬	-14.0563
鄳	-14.0563
甌	-14.0563
瘡	-14.0564
蟘	-14.0564
覉	-14.0565
讚	-14.0566
扁	-14.0567
昜	-14.0569
輻	-14.0569
𣲖	-14.057
悮	-14.0571
臋	-14.0572
架	-14.0575
翮	-14.0576
甽	-14.0576
鵴	-14.0576
忻	-14.0577
囓	-14.0577
弆	-14.0579
桶	-14.0579
􁇲	-14.058
殮	-14.0582
些	-14.0582
虡	-14.0594
㐀	-14.1326
灃	-14.1338
湜	-14.1353
豖	-14.1368
􁅾	-14.1368
扎	-14.1368
☱	-14.1369
縕	-14.1371
壝	-14.1374
緌	-14.1374
橤	-14.1376
呴	-14.1376
鄞	-14.1376
椹	-14.1378
趵	-14.1379
𡊮	-14.138
双	-14.138
☲	-14.1381
殍	-14.1381
檄	-14.1381
鬢	-14.1382
囹	-14.1384
婭	-14.1384
徉	-14.1384
腴	-14.1385
薜	-14.1385
髓	-14.1385
郞	-14.1385
弨	-14.1385
惛	-14.1385
郅	-14.1385
錙	-14.1385
昫	-14.1385
縿	-14.1386
縈	-14.1386
枳	-14.1387
聮	-14.1387
堠	-14.1387
贬	-14.1388
鲍	-14.1388
𫐠	-14.1389
懋	-14.1389
眺	-14.1389
㫻	-14.1389
駱	-14.139
矰	-14.139
睚	-14.1391
諳	-14.1391
婪	-14.1392
獘	-14.1393
巣	-14.1394
慱	-14.1394
怱	-14.1394
獯	-14.1395
鑽	-14.1396
儗	-14.1397
惲	-14.1397
歙	-14.1397
陥	-14.1398
吭	-14.1398
冣	-14.1399
罅	-14.1399
舋	-14.1399
义	-14.1402
葅	-14.1403
藳	-14.1404
伎	-14.1404
柬	-14.1404
劄	-14.1408
圅	-14.1412
槨	-14.1413
瘖	-14.1414
埓	-14.1416
瓢	-14.1417
癈	-14.1419
赐	-14.1426
帟	-14.2265
凷	-14.2272
嵬	-14.2273
綬	-14.2274
传	-14.2276
竣	-14.2277
縚	-14.2278
􁀁	-14.2278
裻	-14.228
鵃	-14.2281
蚍	-14.2281
塜	-14.2283
咏	-14.2284
踙	-14.2284
諠	-14.2287
腓	-14.229
惚	-14.2291
踪	-14.2291
鴨	-14.2291
鮪	-14.2291
韐	-14.2292
蘊	-14.2292
蛙	-14.2292
􁈭	-14.2292
忕	-14.2294
獗	-14.2294
柢	-14.2294
斫	-14.2294
剕	-14.2295
譝	-14.2295
珌	-14.2296
煞	-14.2296
潯	-14.2296
攽	-14.2296
𫀆	-14.2297
圮	-14.2297
蒗	-14.2297
瀛	-14.2297
湄	-14.2297
蟠	-14.2298
𨗳	-14.2298
萹	-14.2299
努	-14.2299
慴	-14.23
摹	-14.2301
妲	-14.2301
鍛	-14.2301
港	-14.2302
蒹	-14.2302
睫	-14.2303
伪	-14.2303
霈	-14.2304
㢮	-14.2304
迿	-14.2305
豝	-14.2306
脛	-14.2306
牻	-14.2307
鶬	-14.2309
㯺	-14.2309
髭	-14.2309
飜	-14.2311
稑	-14.2311
褅	-14.2313
娥	-14.2313
珮	-14.2314
昼	-14.2314
塤	-14.2314
怏	-14.2314
𢥠	-14.2315
蔾	-14.2317
爟	-14.2317
惷	-14.2318
塢	-14.2318
耔	-14.2319
彎	-14.232
屹	-14.2321
纉	-14.2324
喈	-14.2325
仿	-14.2326
慣	-14.2329
磐	-14.2331
褘	-14.2332
抎	-14.2338
蹠	-14.3254
澧	-14.3258
洳	-14.3262
渑	-14.3265
肰	-14.3266
淤	-14.3269
倮	-14.3269
飼	-14.3269
􁏷	-14.3275
曍	-14.3276
芑	-14.3276
駉	-14.3277
霓	-14.3278
卤	-14.3278
泇	-14.3279
衁	-14.3279
賎	-14.328
幻	-14.3282
䋇	-14.3282
呦	-14.3284
陞	-14.3284
縲	-14.3284
𥜗	-14.3284
恂	-14.3285
萧	-14.3285
掾	-14.3285
见	-14.3285
蹻	-14.3285
腑	-14.3287
㖩	-14.3287
拍	-14.3287
踳	-14.3288
蜪	-14.3288
猴	-14.3289
頏	-14.329
譊	-14.329
牗	-14.329
険	-14.3291
飄	-14.3291
瞰	-14.3291
勣	-14.3292
沅	-14.3292
扱	-14.3292
瘰	-14.3292
訩	-14.3293
盼	-14.3293
剗	-14.3294
莝	-14.3294
擽	-14.3295
硤	-14.3295
泡	-14.3297
溯	-14.3298
鋳	-14.3298
輶	-14.3298
臛	-14.3298
憙	-14.3299
廋	-14.3299
薈	-14.3299
忸	-14.3299
渦	-14.3299
掛	-14.33
鱣	-14.3301
玫	-14.3301
捭	-14.3301
鄊	-14.3302
児	-14.3302
蒋	-14.3303
搃	-14.3303
譔	-14.3303
壼	-14.3304
疣	-14.3304
䆒	-14.3304
埤	-14.3305
鼱	-14.3305
带	-14.3306
緊	-14.3306
謄	-14.3306
萎	-14.3306
痾	-14.3306
薧	-14.3306
畸	-14.3307
餋	-14.3307
淨	-14.3308
隃	-14.3308
嗀	-14.3308
鍊	-14.3308
籀	-14.3309
覓	-14.3309
酪	-14.3309
魃	-14.331
隮	-14.3311
耇	-14.3311
醖	-14.3312
砭	-14.3312
敇	-14.3312
嘘	-14.3312
躭	-14.3313
瑚	-14.3316
叵	-14.3316
欈	-14.3317
餗	-14.3323
惂	-14.3323
簾	-14.3323
紱	-14.3324
寍	-14.3324
臠	-14.3324
梱	-14.3325
埜	-14.3329
姉	-14.333
䷫	-14.4375
䷖	-14.4379
䷌	-14.438
䷪	-14.4383
㫃	-14.4389
厩	-14.4389
凓	-14.4402
卼	-14.4406
䷓	-14.4408
呵	-14.441
冋	-14.441
㐲	-14.4411
䨇	-14.4413
劎	-14.4414
䷚	-14.4416
呑	-14.4418
㺯	-14.4419
厝	-14.442
呐	-14.442
個	-14.4423
䜌	-14.4436
劖	-14.4441
䓤	-14.4444
債	-14.4447
曀	-16.1552
恁	-16.1553
紜	-16.1554
鳲	-16.1555
昀	-16.1556
0	-16.1557
墀	-16.1557
