<unk>	0
<s>	0
</s>	0
。	-2.18686
)	-3.7632
(	-3.76475
也	-4.71742
者	-4.89258
之	-4.98803
為	-5.1231
引	-5.13615
二合	-5.20077
以	-5.23342
故	-5.31912
此	-5.36745
一	-5.3785
而	-5.48499
心	-5.48992
即	-5.49502
是	-5.50494
二	-5.51588
有	-5.5275
於	-5.5442
不	-5.54855
中	-5.60962
無	-5.65009
三	-5.65449
如	-5.68692
其	-5.70749
若	-5.71414
見	-5.71657
相	-5.79861
生	-5.81179
法	-5.81759
則	-5.82141
大	-5.85112
上	-5.89361
名	-5.91072
等	-5.91286
明	-6.00919
非	-6.04133
得	-6.05758
佛	-6.06353
身	-6.08851
人	-6.11931
言	-6.13945
時	-6.14579
所	-6.1525
一切	-6.16132
自	-6.17265
四	-6.17741
諸	-6.18515
成	-6.19139
我	-6.21556
。】「	-6.23046
因	-6.23805
說	-6.24904
行	-6.25814
謂	-6.26481
。」【	-6.27141
彼	-6.27188
性	-6.2748
空	-6.27789
皆	-6.28247
入	-6.28902
云	-6.29151
作	-6.29256
如來	-6.33226
▁	-6.34235
及	-6.34384
多	-6.35044
下	-6.3628
地	-6.36643
觀	-6.38453
能	-6.40178
與	-6.43085
從	-6.43275
五	-6.43779
知	-6.44042
又	-6.45058
前	-6.45059
菩薩	-6.45647
亦	-6.45857
阿難	-6.47067
處	-6.48877
印	-6.49638
或	-6.50291
如是	-6.50931
當	-6.51434
囉	-6.51844
在	-6.51966
至	-6.54043
今	-6.54817
義	-6.57821
眾生	-6.57896
同	-6.58507
出	-6.6087
用	-6.61334
色	-6.64123
應	-6.64941
然	-6.65068
初	-6.65326
汝	-6.65551
金剛	-6.6574
聞	-6.6577
妄	-6.66094
現	-6.67331
本	-6.67494
識	-6.67518
天	-6.67749
曰	-6.68406
▁*	-6.68501
六	-6.70317
智	-6.70737
合	-6.70906
常	-6.71397
由	-6.72376
,	-6.73344
去	-6.73793
令	-6.73902
破	-6.74106
正	-6.74406
後	-6.75934
事	-6.76809
分	-6.76917
阿	-6.79029
欲	-6.79393
離	-6.80669
經	-6.81319
滅	-6.81933
耶	-6.82235
水	-6.82412
復	-6.82653
取	-6.84666
字	-6.84702
已	-6.84846
真	-6.84907
妙	-6.85376
結	-6.86455
意	-6.87154
次	-6.87359
想	-6.87612
隨	-6.87983
先	-6.89032
體	-6.89034
指	-6.89181
修	-6.8973
迦	-6.90253
巳	-6.90656
根	-6.90942
定	-6.91903
起	-6.92422
王	-6.92724
住	-6.92819
淨	-6.93951
理	-6.94157
雖	-6.94253
道	-6.94668
十	-6.96157
方	-6.9644
賀	-6.96458
矣	-6.96606
既	-6.96642
受	-6.96761
野	-6.97502
摩	-6.97963
解	-6.98013
、	-6.9856
顯	-6.98573
來	-6.99739
通	-6.99834
發	-7.00229
覺	-7.00343
但	-7.00574
八	-7.00883
乃	-7.00961
問	-7.00964
業	-7.01078
具	-7.01393
持	-7.01562
眾	-7.01775
果	-7.01973
何	-7.02843
嚩	-7.03241
盡	-7.03544
那	-7.03578
唵	-7.03803
七	-7.04374
可	-7.04762
證	-7.04815
門	-7.05049
教	-7.05117
未	-7.05285
婆	-7.053
日	-7.06497
清淨	-7.06548
依	-7.07112
外	-7.08072
耳	-7.08113
難	-7.09171
喻	-7.09619
成就	-7.10051
聲	-7.10067
緣	-7.1023
羅	-7.10595
求	-7.11287
別	-7.11651
圓	-7.11742
云何	-7.11973
俱	-7.12221
眼	-7.12645
供養	-7.12735
內	-7.13247
食	-7.13464
他	-7.13881
即是	-7.14775
真言	-7.1489
善	-7.14925
境	-7.15962
塵	-7.17915
世尊	-7.18187
物	-7.18946
香	-7.19165
寶	-7.1917
光	-7.19972
火	-7.20304
悟	-7.20818
念	-7.21309
必	-7.23441
示	-7.23716
句	-7.23966
界	-7.24419
願	-7.24733
迷	-7.25391
執	-7.25392
各	-7.26454
乃至	-7.26492
形	-7.27457
故云	-7.27495
呪	-7.28076
異	-7.28945
位	-7.29011
頭	-7.29215
重	-7.29796
世	-7.30239
立	-7.31958
尾	-7.32002
乎	-7.32267
。△	-7.32321
種種	-7.32512
實	-7.32729
利	-7.33058
釋	-7.33574
麼	-7.34237
帝	-7.35203
除	-7.35909
斷	-7.3596
魔	-7.36225
計	-7.37035
反	-7.37239
惡	-7.37651
勝	-7.37766
子	-7.37872
力	-7.38366
三昧	-7.40476
底	-7.41602
安	-7.42233
誦	-7.42301
娑嚩	-7.42652
轉	-7.43074
開	-7.4351
動	-7.44592
文	-7.45969
度	-7.46298
樂	-7.46781
苦	-7.47364
不能	-7.47576
故曰	-7.48396
月	-7.48438
娑	-7.48969
名為	-7.49586
神	-7.49681
分別	-7.50085
諸佛	-7.50378
著	-7.50743
華	-7.5114
所謂	-7.51194
觸	-7.51472
哩	-7.51571
滿	-7.52412
風	-7.52586
目	-7.52988
餘	-7.53186
悉	-7.53338
論	-7.53558
深	-7.54147
曩	-7.54558
捨	-7.55322
對	-7.55639
類	-7.55846
慧	-7.55968
還	-7.56655
左	-7.56788
】	-7.57492
〕	-7.57618
疑	-7.57909
流	-7.57943
更	-7.57981
師	-7.58097
世間	-7.5811
化	-7.58171
白	-7.58196
答	-7.58265
菩提	-7.5837
便	-7.58547
攝	-7.5906
夜	-7.59451
請	-7.59978
元	-7.60101
唯	-7.60112
味	-7.60294
」	-7.6049
藏	-7.61023
語	-7.61462
主	-7.61465
稱	-7.61643
無量	-7.62073
鬼	-7.62135
使	-7.62554
爾時	-7.63535
約	-7.63855
方便	-7.63857
極	-7.64769
過	-7.65188
九	-7.66162
加持	-7.66477
愛	-7.66532
手	-7.66861
戒	-7.66977
疏	-7.67339
面	-7.67724
拏	-7.67788
虗空	-7.68124
將	-7.68476
惑	-7.68534
涅槃	-7.69061
山	-7.69224
聖	-7.69477
生滅	-7.6992
因緣	-7.70053
舉	-7.70299
十方	-7.70365
兩	-7.70601
陀	-7.7125
遍	-7.71535
法界	-7.71701
失	-7.71714
精	-7.72394
吒	-7.72432
世界	-7.72899
二合引	-7.73136
向	-7.73142
波	-7.73669
數	-7.74103
散	-7.74301
訶	-7.74846
須	-7.75466
猶	-7.75574
會	-7.75612
足	-7.75617
南	-7.75651
種	-7.75866
總	-7.75966
劫	-7.76383
輪	-7.76454
報	-7.76614
無明	-7.76735
斯	-7.77586
真言曰	-7.77761
障	-7.77892
屬	-7.78532
且	-7.78961
母	-7.79361
吽	-7.79629
廣	-7.79692
施	-7.79822
徧	-7.79844
不知	-7.7989
國	-7.80213
怛	-7.80262
自然	-7.80409
病	-7.81297
照	-7.82226
德	-7.82808
信	-7.83421
了	-7.83818
嚕	-7.83915
歸	-7.83957
土	-7.84105
是故	-7.8443
音	-7.84668
功德	-7.84882
不可	-7.85497
置	-7.86075
惟	-7.86229
長	-7.86276
尼	-7.86837
伽	-7.87448
密	-7.88238
普	-7.88317
護	-7.88469
六根	-7.88526
畫	-7.88589
蓋	-7.89236
獲	-7.89294
像	-7.89425
全	-7.90346
口	-7.90427
坐	-7.9089
小	-7.91152
蓮華	-7.91175
藥	-7.91207
所有	-7.91494
始	-7.91604
習	-7.91765
鼻	-7.91809
頂	-7.91849
海	-7.92578
木	-7.92579
。○	-7.92601
邪	-7.92824
尊	-7.92896
解脫	-7.9351
和	-7.93543
儞	-7.93992
情	-7.94185
一切眾生	-7.9419
直	-7.94284
十二	-7.95004
生死	-7.95012
兼	-7.95385
箋云	-7.95497
末	-7.9556
氣	-7.95598
自在	-7.96167
花	-7.96286
縛	-7.96802
居	-7.96802
顛倒	-7.96931
思	-7.97096
要	-7.97181
變	-7.97894
交	-7.98163
一切如來	-7.99405
無有	-7.99529
金	-8.00135
止	-8.00224
▁二	-8.00961
壇	-8.01064
乘	-8.0111
娜	-8.01283
不得	-8.01402
曳	-8.01794
現前	-8.01805
罪	-8.01891
加	-8.02154
右	-8.02158
命	-8.02363
和合	-8.02784
舍	-8.03387
毘	-8.03574
光明	-8.03758
嚩日囉	-8.03782
表	-8.03903
百	-8.03957
細	-8.04402
路	-8.04879
達	-8.05306
量	-8.05784
若有	-8.06428
所以	-8.06454
設	-8.06591
暗	-8.06618
沙	-8.0674
煩惱	-8.06797
次第	-8.0712
圓通	-8.072
莊嚴	-8.07252
福	-8.07299
部	-8.07736
豈	-8.08028
死	-8.08096
雙	-8.08117
僧	-8.08624
例	-8.08734
女	-8.09342
摩訶	-8.09446
陀羅尼	-8.09627
身心	-8.09666
凡	-8.09884
首	-8.10494
亡	-8.10574
我今	-8.10713
趣	-8.10766
共	-8.1116
鉢	-8.12111
以此	-8.1223
貪	-8.12339
第一	-8.12435
惹	-8.1245
馱	-8.12513
終	-8.12626
伏	-8.12674
法門	-8.12677
家	-8.13592
順	-8.13678
弭	-8.14009
攞	-8.14532
似	-8.14767
摩賀	-8.14846
修行	-8.15238
寂	-8.15282
布	-8.15572
薩	-8.15752
辨	-8.16112
不動	-8.16131
不見	-8.1674
妄想	-8.16996
祕密	-8.17032
以為	-8.17202
誐	-8.17619
陰	-8.17676
千	-8.17826
燒	-8.17908
微	-8.18144
第二	-8.18342
品	-8.18603
復次	-8.18668
夫	-8.19082
息	-8.19122
故名	-8.19502
無所	-8.19553
相應	-8.20413
造	-8.20689
虗	-8.21013
諸法	-8.21075
真實	-8.21365
略	-8.21475
)。】「	-8.21677
見性	-8.21892
半	-8.21972
假	-8.22147
衣	-8.22533
行者	-8.2259
▁一	-8.22623
○	-8.22712
卷	-8.22729
歡喜	-8.2281
具足	-8.22855
一一	-8.22897
三摩地	-8.23257
舌	-8.23312
年	-8.23547
猶如	-8.23583
少	-8.23646
經云	-8.24338
并	-8.24356
諦	-8.2487
座	-8.24896
屈	-8.2548
獨	-8.25667
聽	-8.25942
此云	-8.2611
唎	-8.2615
親	-8.26257
室	-8.26578
往	-8.26678
機	-8.27085
宗	-8.27525
蘇	-8.28119
於此	-8.2827
遠	-8.28378
雜	-8.28504
尚	-8.28883
皆是	-8.29016
契	-8.29072
平等	-8.29084
哉	-8.29213
所說	-8.29475
然後	-8.29541
圓滿	-8.30068
龍	-8.3018
不生	-8.30514
墮	-8.3083
宿	-8.30902
含	-8.30939
覩	-8.31056
標	-8.3108
染	-8.31702
雲	-8.32071
影	-8.32089
集	-8.32098
竟	-8.32151
就	-8.32208
窮	-8.32633
被	-8.3275
壞	-8.3281
是人	-8.33287
爾	-8.33414
虗妄	-8.33826
不同	-8.3389
燈	-8.34015
虛空	-8.34283
超	-8.34296
學	-8.34329
並	-8.34441
。「	-8.3451
銷	-8.34806
益	-8.34908
于	-8.34949
器	-8.34998
當知	-8.35005
無礙	-8.3512
一切法	-8.35485
毒	-8.35518
發明	-8.36465
外道	-8.36495
進	-8.36632
樹	-8.36715
遂	-8.36845
遮	-8.36962
感	-8.37169
究竟	-8.37457
龍王	-8.37821
莫	-8.37829
根本	-8.38215
灌頂	-8.38338
慈	-8.3862
邊	-8.38806
彌	-8.3907
殺	-8.3941
里	-8.39411
第三	-8.39537
弟子	-8.39888
此是	-8.39959
都	-8.40016
婬	-8.40246
提	-8.40389
真如	-8.40541
跛	-8.40565
仙	-8.41391
許	-8.41926
之法	-8.42504
珠	-8.42658
地獄	-8.42682
幻	-8.42696
鏡	-8.42714
鉢囉	-8.42948
智慧	-8.43191
害	-8.43232
𩕳	-8.43346
比丘	-8.43493
十六	-8.43651
之心	-8.43932
有情	-8.44018
行人	-8.44086
傳	-8.44257
梵	-8.44282
灑	-8.44357
萬	-8.44481
比	-8.44693
誰	-8.449
文殊	-8.44942
法身	-8.45217
四大	-8.45247
脫	-8.45274
決定	-8.4562
亦不	-8.45626
推	-8.45752
漸	-8.46028
之時	-8.46071
塗	-8.46115
告	-8.46281
縱	-8.46312
常住	-8.46461
禪	-8.46609
致	-8.46652
呬	-8.46661
十一	-8.46763
怛囉	-8.46858
佛言	-8.4686
歷	-8.46968
詳	-8.47178
切	-8.47234
高	-8.4732
闍	-8.47364
播	-8.47598
所生	-8.476
此經	-8.48138
好	-8.48316
近	-8.48491
禮	-8.48848
之相	-8.4898
自性	-8.49032
泥	-8.49121
互	-8.49135
遇	-8.49308
一心	-8.49721
呼	-8.49878
頓	-8.49919
神通	-8.49951
而不	-8.50745
靜	-8.50925
久	-8.51123
跢	-8.51361
易	-8.51402
殊	-8.5157
徵	-8.51643
臂	-8.51702
覆	-8.51754
節	-8.52086
雨	-8.52235
存	-8.52589
復有	-8.52624
喜	-8.52633
畢	-8.52635
之中	-8.52644
平	-8.53466
速	-8.53658
說法	-8.53916
之所	-8.5392
念誦	-8.54763
等者	-8.54893
葢	-8.5505
行陰	-8.55331
間	-8.55411
最	-8.55717
治	-8.55802
吠	-8.56162
麤	-8.56257
本尊	-8.56611
讚	-8.57125
最上	-8.57281
國土	-8.57379
境界	-8.57514
留	-8.57563
佉	-8.57798
號	-8.58003
眷屬	-8.58191
增	-8.58209
狂	-8.5879
竪	-8.5903
汝今	-8.59046
亂	-8.59351
此中	-8.59465
況	-8.59554
際	-8.59878
根塵	-8.6
落	-8.60242
勞	-8.60399
道場	-8.6051
。」【(	-8.60713
悉地	-8.60774
如前	-8.60966
五陰	-8.61262
三界	-8.61335
宮	-8.61367
倒	-8.61491
不應	-8.61829
掌	-8.61897
三昧耶	-8.62165
宜	-8.62165
科	-8.62342
聲聞	-8.62552
汝等	-8.62841
到	-8.63071
辯	-8.63357
林	-8.63497
昔	-8.63518
星	-8.63655
亦無	-8.63658
般若	-8.63735
無上	-8.63754
瑟	-8.63766
悲	-8.6386
㗚	-8.64009
。」【【	-8.64035
忍	-8.64095
功	-8.64198
絕	-8.64418
無盡	-8.64456
沒	-8.64594
梨	-8.6461
寧	-8.64827
亦名	-8.64923
鬼神	-8.64925
即得	-8.65662
大乘	-8.6568
出生	-8.65769
旨	-8.65885
大悲	-8.65938
陳	-8.65952
承	-8.66009
一念	-8.66106
圓明	-8.66138
大眾	-8.66254
之義	-8.66706
無邊	-8.66765
肉	-8.66911
支	-8.67197
塞	-8.67549
哆	-8.67561
諸天	-8.67586
旋	-8.6764
悉皆	-8.68026
成佛	-8.68126
勢	-8.68264
不成	-8.68775
記	-8.68911
吉祥	-8.69122
思惟	-8.69286
恐	-8.69323
菩薩摩訶薩	-8.6967
何以故	-8.69828
受持	-8.69863
曼拏羅	-8.70248
退	-8.70407
牛	-8.70431
各各	-8.7061
之人	-8.70628
開示	-8.70741
一時	-8.70771
憶	-8.7085
審	-8.70989
內外	-8.71111
是也	-8.71163
聚	-8.71198
救	-8.71273
堅固	-8.71291
輕	-8.71362
曩謨	-8.71517
清	-8.71545
如此	-8.71619
相續	-8.71638
蓮花	-8.71702
却	-8.71732
齊	-8.71828
無漏	-8.71833
譬如	-8.7198
消	-8.71984
及諸	-8.72183
呵	-8.72306
菩提心	-8.72457
微塵	-8.72704
純	-8.72758
叉	-8.72778
烏	-8.72812
而為	-8.73278
融	-8.7332
薩嚩	-8.73443
只	-8.73883
胎	-8.74027
授	-8.74178
背	-8.74179
橫	-8.74179
無相	-8.74347
如來藏	-8.74438
本無	-8.74487
驗	-8.74632
奉	-8.74652
十三	-8.74677
步	-8.75065
城	-8.75089
持誦	-8.75154
廣大	-8.75226
而有	-8.75429
是名	-8.75492
飛	-8.75555
徹	-8.75658
恒	-8.75681
書	-8.75753
瑜伽	-8.75767
溫陵曰	-8.75773
降伏	-8.75991
阿闍梨	-8.76089
亦復如是	-8.76148
偈	-8.76246
特	-8.76736
訖	-8.77178
冥	-8.77195
微細	-8.77355
述	-8.77401
實相	-8.77416
七遍	-8.77661
據	-8.77744
十四	-8.77761
種子	-8.77798
拳	-8.77798
飲食	-8.77907
十八	-8.77946
知見	-8.77954
忘	-8.77973
吉	-8.7801
列	-8.7801
周	-8.78087
源	-8.78182
繫	-8.78461
甚	-8.78541
明王	-8.78639
法華	-8.78683
夢	-8.78894
二種	-8.79041
觀音	-8.79042
薩婆	-8.79045
容	-8.7919
補	-8.79372
藥叉	-8.79413
不思議	-8.79842
犯	-8.79922
勸	-8.80106
而巳	-8.80113
最勝	-8.80141
之處	-8.80201
自心	-8.80325
認	-8.80547
偏	-8.8057
堅	-8.80618
湛	-8.80961
忽	-8.80983
勿	-8.81024
循	-8.81175
枳	-8.81287
葉	-8.8147
凡夫	-8.8156
責	-8.81718
視	-8.81943
賊	-8.81975
神呪	-8.82037
差別	-8.82063
靈	-8.82076
喃	-8.82145
瓶	-8.8246
敘	-8.8247
宣說	-8.82516
一句	-8.82533
輪迴	-8.82635
若不	-8.82725
利益	-8.82912
過去	-8.82936
痛	-8.82959
無不	-8.83157
童子	-8.83288
護摩	-8.83383
佛頂	-8.83523
垂	-8.83577
因果	-8.83704
遠離	-8.83982
素	-8.84023
石	-8.84085
莎訶	-8.84215
吾	-8.84328
厭	-8.8435
毗	-8.8438
諸眾生	-8.84448
第四	-8.84547
點	-8.84845
焰	-8.84984
眚	-8.84992
發心	-8.85101
十五	-8.85197
心中	-8.852
此名	-8.85208
皆悉	-8.85257
二十	-8.85377
缽囉	-8.85542
真性	-8.85548
西	-8.85549
質	-8.85647
嚴	-8.85793
由此	-8.86201
黃	-8.86625
䭾	-8.86788
翻	-8.86828
領	-8.86871
中道	-8.86882
。【	-8.86906
捺	-8.86925
無生	-8.87072
澄	-8.87075
違	-8.87129
〔	-8.87336
垢	-8.8736
古	-8.87444
依法	-8.87683
漫荼羅	-8.87805
黑	-8.87922
之性	-8.87957
誠	-8.88028
服	-8.88198
自身	-8.88297
修證	-8.88298
所作	-8.8836
制	-8.8839
揀	-8.88446
善男子	-8.88561
焉	-8.88638
權	-8.88746
盛	-8.88758
塔	-8.88933
慢	-8.89274
甲	-8.89291
備	-8.89345
矩	-8.89408
礙	-8.89434
新	-8.89454
助	-8.89867
隱	-8.90054
於是	-8.90117
壽	-8.9014
象	-8.90188
固	-8.90379
譯	-8.90486
附	-8.90587
放	-8.90679
真心	-8.90794
二者	-8.90905
由是	-8.91111
󲊛	-8.91253
愚	-8.91362
按	-8.91412
無因	-8.91643
本來	-8.91702
能生	-8.91736
修習	-8.91743
赤	-8.91866
獻	-8.91942
河	-8.92152
刀	-8.92243
合掌	-8.92247
若欲	-8.92364
者謂	-8.92474
日月	-8.92479
精進	-8.92569
不相	-8.9258
注	-8.92776
)。(△〔	-8.9285
皆得	-8.92868
我等	-8.9292
其心	-8.92998
(〔	-8.93067
令其	-8.93069
佛說	-8.93126
熏	-8.93227
禰	-8.93273
亦是	-8.93298
隷	-8.93383
百千	-8.93391
覺明	-8.93445
咸	-8.93506
怖	-8.93544
災	-8.9368
下文	-8.93813
「	-8.93835
能令	-8.9393
中間	-8.93941
返	-8.9401
爾時世尊	-8.94116
遊	-8.9438
玅	-8.94824
祖	-8.94965
於中	-8.95237
一者	-8.95418
故有	-8.95576
誦呪	-8.95584
待	-8.95627
識陰	-8.95644
牒	-8.95753
所見	-8.95799
觀察	-8.96076
誤	-8.96183
盧	-8.96277
剎	-8.96363
隨順	-8.9667
此則	-8.96837
帶	-8.97192
變化	-8.97313
圓融	-8.97446
草	-8.97796
)􂏥	-8.9781
仰	-8.97876
伊	-8.98167
善根	-8.98263
忿怒	-8.9839
之體	-8.98512
能見	-8.98515
每	-8.98599
談	-8.98661
賢	-8.98672
無畏	-8.98679
二十五	-8.98817
抳	-8.98885
昏	-8.98961
則無	-8.99024
觀想	-8.99096
蛇	-8.99192
誦真言	-8.99242
乾	-8.99296
出世	-8.99417
羯	-8.99585
儀	-8.99675
無始	-8.99744
資	-8.99788
敬	-8.99824
劍	-8.99843
徒	-8.9994
決	-9.00011
而生	-9.00094
右手	-9.00488
二乘	-9.00501
諸菩薩	-9.00724
等也	-9.00767
索	-9.00898
懸	-9.00903
脩	-9.00915
微妙	-9.01054
其中	-9.01152
了知	-9.01183
患	-9.01374
明暗	-9.01378
.	-9.01424
說此	-9.01599
色陰	-9.01757
不空	-9.01777
三世	-9.01852
酥	-9.01915
三種	-9.0198
不離	-9.0199
沉	-9.02046
簡	-9.02116
如法	-9.02341
出家	-9.02578
舒	-9.02782
狀	-9.02784
▁三	-9.02789
之事	-9.02824
如上	-9.02836
可知	-9.02839
沙門	-9.02843
佛告阿難	-9.03034
濁	-9.03094
小乘	-9.03147
強	-9.03192
永	-9.03331
一百	-9.03376
畢竟	-9.03428
棄	-9.03641
頭指	-9.03663
三合	-9.03875
阿字	-9.04309
二句	-9.04418
露	-9.0453
乳	-9.04577
青	-9.04622
東	-9.04871
金剛手	-9.0488
此陀羅尼	-9.04898
財	-9.04933
降	-9.05035
積	-9.05212
蒙	-9.05262
演	-9.05334
南無	-9.05404
北	-9.05862
現在	-9.05972
曾	-9.06145
又云	-9.06151
怨	-9.06193
嚧	-9.06339
迴向	-9.0639
熱	-9.0648
瞋	-9.06579
蜜	-9.0675
迦囉	-9.06795
左右	-9.06931
無常	-9.07232
移	-9.07696
角	-9.07948
佛告	-9.08045
跋	-9.08109
亦有	-9.08335
遣	-9.08361
謂之	-9.08478
不覺	-9.08698
佛法	-9.08716
妙覺	-9.08806
摩尼	-9.08834
楞嚴	-9.08951
興	-9.08989
七日	-9.0918
曲	-9.09359
網	-9.09406
曩莫	-9.09433
仍	-9.09625
未來	-9.09625
灰	-9.09694
隔	-9.09923
見精	-9.10021
十七	-9.10084
次結	-9.10172
歸命	-9.10197
色空	-9.10373
如是等	-9.10388
髮	-9.10481
登	-9.10593
越	-9.10682
父母	-9.10719
幢	-9.11148
於彼	-9.11151
十種	-9.11266
輸	-9.11413
非是	-9.11473
供	-9.11659
生於	-9.11737
多聞	-9.11875
儀軌	-9.11897
此法	-9.12053
各有	-9.12073
寂滅	-9.1212
召	-9.12132
怛他	-9.12196
六塵	-9.12352
擁護	-9.12397
畜	-9.12592
名曰	-9.12814
四方	-9.12871
幽	-9.12945
逐	-9.12996
本覺	-9.13023
)􂉓	-9.13084
半音	-9.13283
是為	-9.13303
遺	-9.13309
浮	-9.13464
怛嚩	-9.13549
此呪	-9.136
調	-9.13786
若無	-9.13828
【	-9.13977
單	-9.14005
十九	-9.14216
宣	-9.14383
三摩	-9.1439
四種	-9.1439
手執	-9.14407
從此	-9.14458
莎	-9.1455
□	-9.14827
馬	-9.14867
妄見	-9.1487
乞	-9.14871
大小	-9.1489
此等	-9.14891
中有	-9.14896
非真	-9.14945
拔	-9.15026
謬	-9.15049
聞性	-9.15228
妙明	-9.1531
般	-9.15343
𤙖	-9.15502
太	-9.15836
無為	-9.1593
倫	-9.15957
天王	-9.16068
應當	-9.16119
至於	-9.16238
䟽	-9.1624
禁	-9.16365
差	-9.16576
神力	-9.16648
再	-9.16874
之類	-9.17109
虛	-9.17263
斥	-9.17436
努	-9.17466
安樂	-9.1747
覺知	-9.176
堂	-9.17713
俗	-9.17852
擇	-9.17885
收	-9.17909
所求	-9.17972
而成	-9.18079
受陰	-9.18318
律	-9.18318
舊	-9.18329
則有	-9.18395
軍	-9.18421
茶	-9.18498
頌	-9.18537
音聲	-9.18579
何況	-9.18668
穢	-9.19013
義也	-9.19194
十方如來	-9.19223
不可得	-9.19243
彰	-9.19809
端	-9.19839
呪曰	-9.19848
耳根	-9.19915
堪	-9.20119
第十	-9.20162
今此	-9.20255
望	-9.204
三十	-9.20433
濕	-9.20447
羯磨	-9.20567
波羅蜜	-9.20579
二初	-9.20603
左手	-9.20933
翳	-9.20982
然此	-9.21038
迴	-9.21105
阿難言	-9.21109
身中	-9.21274
名字	-9.21355
側	-9.21387
途	-9.21461
涉	-9.21499
二十一	-9.21561
醯	-9.21824
臺	-9.21905
安住	-9.22027
有所	-9.22077
損	-9.22126
事業	-9.22341
能所	-9.22369
有為	-9.22388
鐵	-9.22475
即成	-9.22543
判	-9.2282
甘露	-9.23036
歎	-9.23087
歲	-9.23178
二十八	-9.23269
參	-9.23331
逆	-9.23395
一字	-9.23501
二十四	-9.23789
祇	-9.24006
七大	-9.24042
漏	-9.24157
念佛	-9.24229
大明	-9.2424
招	-9.24359
三寶	-9.24638
熟	-9.24809
華嚴	-9.24812
通達	-9.25007
1	-9.25101
毀	-9.25138
此心	-9.25151
洗	-9.2521
不斷	-9.25321
更無	-9.25551
既無	-9.25594
欲界	-9.25633
瓔珞	-9.25646
獄	-9.25685
婆羅門	-9.25764
前後	-9.25803
斷滅	-9.25842
第六	-9.25861
夜叉	-9.25869
玄	-9.26205
志	-9.26383
如何	-9.26518
初心	-9.26668
法性	-9.26802
申	-9.26818
隨意	-9.26886
癡	-9.2692
一體	-9.2694
其人	-9.26964
是則	-9.27023
泮	-9.27086
蓮	-9.27138
建立	-9.27208
唐	-9.27322
動靜	-9.2741
則知	-9.27607
見聞	-9.2761
改	-9.27646
運	-9.27663
入嚩	-9.27753
段	-9.27844
沈	-9.27897
則能	-9.28069
有二	-9.28117
亦非	-9.28195
十地	-9.28477
一百八遍	-9.28629
禪定	-9.2868
誓	-9.28747
法中	-9.28747
無二	-9.28815
俱胝	-9.28827
酬	-9.28838
福德	-9.28929
纏	-9.29028
滿足	-9.29146
若以	-9.29477
之理	-9.29498
奪	-9.29601
無異	-9.29653
巧	-9.29865
流出	-9.29866
第五	-9.29877
嚩囉	-9.29882
念念	-9.29995
骨	-9.30013
急	-9.30049
車	-9.3006
潤	-9.30097
心不	-9.30123
休	-9.30128
謗	-9.30203
無上菩提	-9.30259
故知	-9.30272
奢摩他	-9.30311
之意	-9.30408
禪那	-9.30498
究	-9.30547
守	-9.30737
無體	-9.30846
貴	-9.30853
一切有情	-9.30864
若能	-9.30954
如幻	-9.31038
淺	-9.31075
作法	-9.31171
懷	-9.31193
今日	-9.31218
凝	-9.31293
殊勝	-9.31368
亦如是	-9.31415
若於	-9.31426
陵	-9.31465
同於	-9.31559
池	-9.31755
任	-9.3191
疾	-9.3196
鳥	-9.32043
得大	-9.32119
色相	-9.32174
剎那	-9.32224
大海	-9.32408
其身	-9.32455
師子	-9.32512
擊	-9.32637
波羅	-9.32796
曼	-9.32916
迹	-9.32928
意識	-9.32985
言之	-9.33134
恭敬	-9.33143
公	-9.33351
陁羅尼	-9.33457
尋	-9.3347
若人	-9.33537
所成	-9.33573
專	-9.3375
劣	-9.33914
又復	-9.33952
同上	-9.34027
經文	-9.34043
六識	-9.34095
即以	-9.34159
遷	-9.34235
彼人	-9.3428
文殊師利	-9.34426
鼓	-9.34496
序	-9.34551
暫	-9.34644
又法	-9.34679
可見	-9.34684
老	-9.34699
羅剎	-9.34783
父	-9.34826
正法	-9.34969
接	-9.35041
二頭指	-9.35473
三藏	-9.35583
增長	-9.35629
而作	-9.35823
寂靜	-9.3586
頂禮	-9.35971
定慧	-9.35972
或有	-9.36009
傷	-9.36147
之境	-9.36182
等覺	-9.36225
云云	-9.36274
二手	-9.36328
七寶	-9.36501
檀	-9.36526
金色	-9.36558
金剛杵	-9.36598
四十	-9.36666
原	-9.36785
無知	-9.36786
流轉	-9.36864
大力	-9.36942
四句	-9.36965
幾	-9.37124
而得	-9.37231
;	-9.37266
三十二	-9.37285
尊者	-9.37333
飲	-9.37344
琉璃	-9.37354
有一	-9.37429
其所	-9.37557
此明	-9.37598
觀世音	-9.37667
摩那婆	-9.37668
薩埵	-9.37693
慮	-9.37714
此即	-9.37724
結界	-9.378
二十三	-9.37993
無非	-9.38062
富	-9.38134
三摩提	-9.38192
准	-9.38206
不出	-9.38341
閉	-9.38422
香水	-9.38572
謨	-9.38602
止觀	-9.38664
群	-9.38731
投	-9.38947
邪見	-9.3896
寫	-9.39039
衣服	-9.3916
識心	-9.39216
薄	-9.39289
字門	-9.39307
彼等	-9.39343
諸如來	-9.39398
蘊	-9.39693
最初	-9.39716
慈悲	-9.39747
普賢	-9.4006
若此	-9.40085
吳興曰	-9.40132
拂	-9.40244
周徧	-9.40247
漸次	-9.4026
如是乃至	-9.40385
第八	-9.40428
墜	-9.4046
分明	-9.40541
守護	-9.40643
論云	-9.40689
發生	-9.40705
有漏	-9.40727
一人	-9.40871
二十二	-9.40916
皆由	-9.40964
智者	-9.40976
天魔	-9.41057
一切諸	-9.41101
所在	-9.41122
逢	-9.41262
五種	-9.41264
竭	-9.413
中指	-9.41326
互相	-9.4145
曼荼羅	-9.41497
憂	-9.41524
的	-9.41686
六十	-9.4171
牙	-9.41762
真妄	-9.41938
調伏	-9.42052
院	-9.4207
空中	-9.421
)「	-9.42151
戰	-9.42216
當得	-9.42222
總持	-9.42289
魅	-9.42376
頗	-9.42383
血	-9.42417
三業	-9.42436
男	-9.42454
安置	-9.42516
闕	-9.42595
捺囉	-9.42601
咎	-9.42616
億	-9.42662
應知	-9.42699
圓覺	-9.42719
該	-9.42776
阿羅漢	-9.42966
祕密主	-9.43018
至此	-9.43027
一分	-9.43097
及與	-9.4315
無垢	-9.43153
以明	-9.43335
法師	-9.43568
如意	-9.43662
尸	-9.4368
二大指	-9.43798
纔	-9.43838
亦然	-9.43852
客	-9.43861
準	-9.44006
妄心	-9.44007
揭	-9.4402
所緣	-9.44334
薩哩嚩	-9.44351
不生滅	-9.44361
惱	-9.44392
大指	-9.44508
不住	-9.44577
心生	-9.4463
者即	-9.44656
前塵	-9.44688
乾慧	-9.44886
擲	-9.44913
帝釋	-9.44947
銘	-9.44989
諸惡	-9.45002
昧	-9.45046
正覺	-9.45084
精明	-9.4514
意謂	-9.45232
麻	-9.45312
不為	-9.45408
法者	-9.45459
升	-9.45473
第七	-9.45564
不淨	-9.4561
見者	-9.45704
會中	-9.45727
者也	-9.45761
八萬四千	-9.45805
磨	-9.45825
受用	-9.4586
餓鬼	-9.45865
盜	-9.45893
今經	-9.45942
鉤	-9.45954
建	-9.46254
延	-9.46262
是時	-9.46292
頂上	-9.46302
寺	-9.46343
多羅	-9.46353
開悟	-9.46563
不壞	-9.46575
為一	-9.46579
枝	-9.46585
乃是	-9.46587
戲論	-9.46712
雖有	-9.46769
三遍	-9.46809
連	-9.46876
鬘	-9.469
意根	-9.46946
遭	-9.46949
東方	-9.47006
看	-9.47014
釋迦	-9.47185
一切佛	-9.47189
塗香	-9.47231
瑟吒	-9.47248
恩	-9.47286
梵天	-9.47401
詣	-9.47582
滯	-9.47716
毛	-9.47809
二十七	-9.47965
水火	-9.48094
觧	-9.48139
洲	-9.48149
一切諸佛	-9.4817
塵勞	-9.48242
壽命	-9.48435
二字	-9.48457
萬法	-9.48461
淫	-9.48478
怒	-9.48534
番	-9.48561
威	-9.48588
飯	-9.48597
關	-9.48617
杵	-9.48621
捻	-9.48655
輩	-9.48855
無間	-9.48963
惡業	-9.48985
之身	-9.49007
可得	-9.49073
甚深	-9.49103
希	-9.49176
秪	-9.4924
分二	-9.49336
阿修羅	-9.49483
藏性	-9.49534
冠	-9.49615
無復	-9.49657
虎	-9.49708
箇	-9.49759
猶未	-9.4978
履	-9.49852
金剛薩埵	-9.49916
𤚥	-9.50002
輪轉	-9.50038
負	-9.50186
註	-9.50266
舍利弗	-9.50267
持戒	-9.50297
從何	-9.50298
勤	-9.50416
寄	-9.50427
觀自在	-9.50435
放光	-9.50635
故能	-9.50802
勃	-9.50813
期	-9.50826
圓成	-9.50897
No	-9.50905
則不	-9.5095
係	-9.50967
大地	-9.50977
正明	-9.51061
亦爾	-9.51085
士	-9.51116
亦云	-9.51134
毫	-9.51157
統	-9.51159
𥠖	-9.51247
豈非	-9.51405
二十六	-9.51433
均	-9.51457
祕	-9.51457
邏	-9.51482
肘	-9.51497
a	-9.51505
是非	-9.51513
三觀	-9.51527
四禪	-9.5153
眼根	-9.51577
隨緣	-9.51635
離諸	-9.51641
姓	-9.51648
前文	-9.51651
限	-9.51708
展轉	-9.51825
淨土	-9.51913
別有	-9.51965
所依	-9.51991
擔	-9.52034
摧	-9.52112
皆有	-9.52118
諦觀	-9.52124
自有	-9.52168
倍	-9.52407
同一	-9.52456
勅	-9.5247
西方	-9.52532
章	-9.52544
唧	-9.5257
美	-9.52688
以其	-9.52812
本性	-9.52927
爐	-9.52929
觀世音菩薩	-9.531
而言	-9.5321
納	-9.53213
人天	-9.53239
莎呵	-9.53248
力故	-9.53288
消滅	-9.53325
所知	-9.53391
洞	-9.53393
譬	-9.53468
迦羅	-9.53509
圍繞	-9.53516
濟	-9.53539
見聞覺知	-9.53807
復以	-9.53925
逼	-9.53967
有大	-9.54209
所證	-9.54292
草木	-9.54475
生起	-9.54574
故名為	-9.54655
體性	-9.54662
無學	-9.54696
非見	-9.54717
研	-9.54774
私	-9.54834
孤山曰	-9.54918
擾	-9.55044
潔	-9.55055
無想	-9.55134
畜生	-9.55263
旦	-9.554
憶念	-9.55723
畔	-9.55746
樓	-9.55795
則汝	-9.55805
三十六	-9.55863
真常	-9.55871
相也	-9.56057
獲得	-9.56091
亦如	-9.56093
齋	-9.5611
故也	-9.56362
心性	-9.56378
即從座起	-9.56408
了義	-9.56426
五百	-9.56442
之本	-9.5662
佛性	-9.5665
騰	-9.56658
聖眾	-9.56777
歇	-9.56896
相似	-9.5691
男女	-9.56948
故以	-9.56951
唯識	-9.56958
汝心	-9.56996
萬行	-9.57026
執金剛	-9.57077
此人	-9.57162
無色	-9.57274
敷	-9.57408
五十	-9.57454
終不	-9.57458
搖	-9.57501
有無	-9.57505
能知	-9.57522
井	-9.57539
三者	-9.5759
遷流	-9.57628
亦得	-9.5769
而後	-9.57901
良	-9.57957
佛所	-9.58
不自	-9.5807
脚	-9.58124
怪	-9.58153
鈍	-9.58252
亦復	-9.58261
不變	-9.5839
明了	-9.58393
想陰	-9.58416
一日	-9.5856
第	-9.58577
是以	-9.58731
之後	-9.58889
咄	-9.58943
無性	-9.58962
自他	-9.58963
析	-9.59026
十界	-9.59122
燒香	-9.59202
耆	-9.59208
吸	-9.59246
枯	-9.59301
濕嚩	-9.59302
􂏥	-9.5936
非有	-9.59444
天台	-9.59473
首楞嚴	-9.59541
宮殿	-9.59559
。○(	-9.59718
二十九	-9.59787
讚歎	-9.59817
名之為	-9.59831
􂏩(	-9.59895
苦惱	-9.59912
執持	-9.59997
白芥子	-9.60068
怖畏	-9.60113
恒河沙	-9.60135
得成就	-9.60293
臣	-9.60322
法塵	-9.60345
觀自在菩薩	-9.60353
不定	-9.60371
拘	-9.60418
未能	-9.60457
孤山云	-9.60557
讀	-9.60606
g	-9.6061
髻	-9.60617
煖	-9.60651
押	-9.60825
像前	-9.60856
大明曰	-9.60872
折	-9.60877
打	-9.60932
揚	-9.60968
代	-9.60979
此方	-9.61002
當機	-9.61011
錯	-9.61101
而白佛言	-9.6123
安隱	-9.61234
於諸	-9.61305
為因	-9.61341
語言	-9.61376
泮吒	-9.61382
三諦	-9.61388
哩野	-9.61488
適	-9.61496
油	-9.6152
辭	-9.61546
未得	-9.61634
威德	-9.6195
天子	-9.61959
何故	-9.62065
此見	-9.62134
陽	-9.62175
即同	-9.62176
俱非	-9.6219
蘖	-9.62197
依此	-9.62231
恒沙	-9.6225
真空	-9.62257
大智	-9.62292
寸	-9.62335
邊際	-9.62381
巾	-9.62458
即此	-9.62477
三十七	-9.62493
一切諸法	-9.62626
寒	-9.62667
族	-9.6268
張	-9.62685
詰	-9.6271
勝義	-9.62711
不了	-9.62733
於其	-9.62793
住於	-9.62891
臨	-9.62899
荼	-9.62911
尺	-9.6306
􂉗(	-9.63114
故稱	-9.63217
而住	-9.63281
觀行	-9.63524
皤	-9.6354
何等	-9.63641
迦葉	-9.63812
鑁	-9.6384
▁初	-9.64066
持呪	-9.64081
選	-9.64161
:「	-9.64232
何以	-9.64319
懺悔	-9.64345
溺	-9.64362
不起	-9.64373
如人	-9.6439
所現	-9.64495
而起	-9.64711
揭囉訶	-9.64803
不復	-9.64968
奔	-9.64986
某甲	-9.65035
傍	-9.65081
因緣自然	-9.65111
毗藥	-9.65261
櫱	-9.65333
能為	-9.65488
人間	-9.65507
經中	-9.65543
疊	-9.6559
天人	-9.65627
如是一類	-9.65649
於一切	-9.65872
威力	-9.65957
避	-9.65995
出現	-9.66136
說是	-9.66165
im	-9.66187
白佛言	-9.6628
預	-9.66327
歸依	-9.66467
奴	-9.66507
泯	-9.66524
欲令	-9.66619
愛樂	-9.6663
俱生	-9.66644
諸相	-9.66822
誦持	-9.66859
手持	-9.6686
侍	-9.66978
習氣	-9.67001
亦可	-9.67018
晝夜	-9.67033
出入	-9.67088
:>	-9.67113
<	-9.67113
諸佛菩薩	-9.67147
發起	-9.67547
缺	-9.67715
大菩薩	-9.67807
諸有情	-9.67814
仁	-9.67877
業果	-9.68039
擬	-9.68042
減	-9.68068
防	-9.68085
不失	-9.68175
善惡	-9.68183
園	-9.68264
無別	-9.68354
慕	-9.68382
羯囉	-9.68404
更有	-9.68506
裏	-9.68549
無著	-9.68589
笑	-9.68663
又以	-9.68714
若見	-9.68844
當於	-9.68862
不從	-9.6888
所明	-9.68943
􂉓	-9.68955
悅	-9.69222
發菩提心	-9.6926
可以	-9.69334
掌中	-9.69378
恨	-9.69385
伴	-9.69441
映	-9.69469
免	-9.695
㘑	-9.69506
是故當知	-9.69522
此印	-9.69546
而無	-9.6955
吽吽	-9.69584
亦能	-9.6964
臍	-9.69687
奢	-9.69784
。】「○(	-9.69846
杖	-9.69886
若從	-9.70002
娑麼	-9.70033
國王	-9.70059
賢聖	-9.70089
皮	-9.70102
不可思議	-9.70153
繞	-9.70339
環	-9.70363
而能	-9.70464
詮	-9.70507
必有	-9.70508
欲求	-9.70607
果報	-9.70752
兜	-9.70821
使者	-9.70881
現身	-9.70908
觀此	-9.70941
灌	-9.71001
一千八遍	-9.71005
甞	-9.71031
三十三	-9.71062
鞞	-9.71097
上音	-9.71118
題	-9.71173
又二	-9.71272
自體	-9.71283
局	-9.71334
冷	-9.71472
根境	-9.71492
佗	-9.71525
此真言	-9.71539
無我	-9.71562
八識	-9.71574
二相	-9.71686
官	-9.71721
諸根	-9.71749
】【	-9.71831
愈	-9.7184
大佛頂	-9.71905
超越	-9.71933
元無	-9.71967
同分	-9.72033
熾盛	-9.72177
或以	-9.72248
皆以	-9.72304
有三	-9.72351
魔事	-9.72492
羣	-9.72504
氷	-9.72561
三十一	-9.72655
護身	-9.72663
稍	-9.72707
所得	-9.72732
長者	-9.72791
得成	-9.72832
知其	-9.72896
博	-9.72989
銅	-9.73012
前云	-9.73045
茲	-9.73063
盤	-9.73162
白色	-9.73181
何處	-9.73196
若復	-9.73309
託	-9.7336
五根	-9.73703
一法	-9.73721
是見	-9.73811
誨	-9.73814
魚	-9.73886
之因	-9.74048
悔	-9.74112
我於	-9.74179
最後	-9.74196
毘盧遮那	-9.74217
見佛	-9.74417
讀誦	-9.74515
喚	-9.74521
四天王	-9.74571
演說	-9.74646
威儀	-9.74729
無數	-9.74753
令彼	-9.74796
遏	-9.74802
善哉善哉	-9.74887
曜	-9.75007
同時	-9.75105
但是	-9.75109
藍	-9.75125
圖	-9.75128
既不	-9.75175
充	-9.75277
三十四	-9.75363
命終	-9.75715
以成	-9.75825
一遍	-9.75967
不明	-9.76073
葛	-9.76147
某	-9.76197
配	-9.76236
依正	-9.76277
小指	-9.76381
之見	-9.76464
弘	-9.7648
丁	-9.76486
四十二	-9.76491
妙心	-9.76552
腰	-9.7667
優	-9.76712
齅	-9.76719
不著	-9.76839
結成	-9.76843
術	-9.76919
晝	-9.76938
無分別	-9.76963
香花	-9.76986
不聞	-9.77038
梵語	-9.77052
上文	-9.77153
風輪	-9.77185
直竪	-9.77204
汝當	-9.77229
識性	-9.7729
於我	-9.77345
諸魔	-9.77346
峯	-9.77384
借	-9.77394
如我	-9.77418
一處	-9.7742
童	-9.77481
三時	-9.77681
四十九	-9.77701
其義	-9.77707
去聲	-9.77743
若是	-9.7775
世人	-9.77754
二中指	-9.77756
未盡	-9.77882
持明	-9.7796
疑惑	-9.77964
如彼	-9.78115
見暗	-9.7815
房	-9.78242
宅	-9.78258
壇中	-9.7834
同異	-9.78384
敬禮	-9.78412
自知	-9.78445
天女	-9.78448
惠	-9.78545
令得	-9.78568
干	-9.78619
富樓那	-9.78624
增益	-9.78628
辛	-9.78679
末世	-9.78688
何所	-9.78736
侵	-9.78758
三十五	-9.78864
湛然	-9.78875
即能	-9.7888
隨喜	-9.78946
衰	-9.79066
你	-9.79202
煙	-9.79228
長水	-9.79386
觀之	-9.7944
變易	-9.7947
示現	-9.79507
是一	-9.79534
疏云	-9.79612
聖人	-9.79755
月輪	-9.79764
畏	-9.79788
以顯	-9.79837
諸有	-9.79881
瑠璃	-9.79884
魔王	-9.79918
續	-9.80018
史	-9.80124
三乘	-9.80145
陀羅	-9.80204
一切世間	-9.8021
大士	-9.80289
何者	-9.8037
是知	-9.80396
瞻	-9.80454
為復	-9.80582
混	-9.80593
安立	-9.80609
證得	-9.80826
空性	-9.81028
妻	-9.81105
性空	-9.81156
部多	-9.81163
缽	-9.8117
奉獻	-9.81213
莽	-9.81241
我心	-9.81261
隨心	-9.81262
誑	-9.81268
嗔	-9.81335
成就法	-9.81368
孤	-9.81416
非和合	-9.81501
默	-9.81516
娑婆	-9.81575
女人	-9.81684
入三摩地	-9.81708
魯	-9.8186
破壞	-9.8189
䭾囉	-9.81905
緣生	-9.81926
養	-9.81983
乾闥婆	-9.81996
甘	-9.82007
噉	-9.82008
▁「	-9.82058
初禪	-9.82152
傾	-9.82164
囊	-9.82194
無有是處	-9.8227
?	-9.82292
入於	-9.82357
無可	-9.82398
豈不	-9.82463
忽然	-9.82491
二義	-9.82637
於一	-9.82663
回	-9.8272
心也	-9.82722
本不生	-9.82771
▁四	-9.82779
短	-9.82808
不捨	-9.82821
作大	-9.82823
非無	-9.82846
舞	-9.8297
諸聖	-9.82998
)。(○〔	-9.83072
無見	-9.83073
二俱	-9.83092
文字	-9.83178
四十四	-9.83182
驚	-9.83189
密言	-9.83212
夢中	-9.8335
諦聽	-9.83379
正是	-9.83398
文二	-9.83557
心地	-9.83579
然則	-9.83589
准前	-9.83622
無定	-9.83682
故此	-9.83707
伸	-9.8372
功用	-9.83737
威神	-9.83756
一向	-9.83772
苦樂	-9.83816
雷	-9.83821
進力	-9.83898
良以	-9.83921
南方	-9.83935
有相	-9.84052
淡	-9.84063
佛剎	-9.84143
滿慈	-9.84161
戍	-9.84177
而說	-9.8418
潛	-9.84292
死後	-9.843
淺深	-9.84311
八十	-9.84319
導	-9.84367
復說	-9.84369
或見	-9.84392
者是	-9.84396
薩怛嚩	-9.84426
敢	-9.84439
六十二	-9.84441
頻	-9.84442
緣起	-9.84458
盲	-9.84484
護持	-9.84557
若作	-9.84568
妙圓	-9.84596
大慈	-9.846
把	-9.84722
緣覺	-9.8473
有見	-9.84758
有何	-9.84834
本有	-9.8487
住處	-9.84905
符	-9.84935
故言	-9.84941
北方	-9.85031
乞食	-9.85048
恐怖	-9.85064
障礙	-9.85122
一百八	-9.85139
十八界	-9.85207
清涼	-9.85251
婆羅	-9.85271
有人	-9.85316
沒馱	-9.85456
閼伽	-9.85567
謝	-9.856
無能	-9.85626
顧	-9.85629
十方界	-9.85689
不滅	-9.85699
罔	-9.85706
以是	-9.85716
誦此	-9.85757
大王	-9.8577
錄	-9.85776
惡趣	-9.8581
訥	-9.85837
敵	-9.85851
法也	-9.85861
跛哩	-9.85867
救護	-9.85935
山河	-9.85946
拶	-9.85952
線	-9.86092
覺性	-9.86097
!	-9.86113
作是	-9.86287
鉢羅	-9.86417
不退	-9.8644
寐	-9.865
唯一	-9.8656
攬	-9.8661
本自	-9.86611
生也	-9.86617
頑	-9.86677
響	-9.86713
值	-9.86715
所願	-9.86765
在內	-9.86783
商	-9.86807
之間	-9.86827
本心	-9.86831
沒䭾	-9.8684
得見	-9.86856
禮拜	-9.86866
跛囉	-9.86887
殿	-9.87068
名號	-9.87132
無聞	-9.87138
攝受	-9.87143
幡	-9.87175
即前	-9.87191
兵	-9.87253
敬愛	-9.87435
去音	-9.87453
不然	-9.87479
於佛	-9.87521
虛妄	-9.87531
書寫	-9.87537
膩	-9.87627
辦	-9.87717
亂想	-9.87781
寂然	-9.87879
為界	-9.87905
地水火風	-9.87984
阿難下	-9.88022
累	-9.88062
受生	-9.88178
啟	-9.8826
真見	-9.88342
而入	-9.88378
宿命	-9.88522
耀	-9.88572
亦應	-9.88573
哀	-9.88574
以右手	-9.88586
聖者	-9.88613
妄計	-9.88627
臥	-9.88638
渴	-9.88753
搖動	-9.88769
四十一	-9.88779
佛身	-9.88794
滅盡	-9.888
慶	-9.88918
羊	-9.88926
伐	-9.88958
黎	-9.88969
知覺	-9.89027
▁【	-9.89062
相合	-9.89329
作護摩	-9.89361
始終	-9.89473
補遺云	-9.89476
無情	-9.8953
婆嚩	-9.89639
州	-9.89711
誰為	-9.89733
影像	-9.89763
偷	-9.89837
十信	-9.89864
聖位	-9.89913
心無	-9.89939
全體	-9.89978
妙法	-9.90012
嘗	-9.90042
㘕	-9.90053
扇	-9.90062
之力	-9.90167
以手	-9.90295
摩羅	-9.90319
巳竟	-9.90333
羅漢	-9.904
海雲	-9.90407
蟲	-9.90412
三千	-9.90589
窮盡	-9.90593
水中	-9.90644
悟入	-9.9066
頂禮佛足	-9.90792
囕	-9.90913
不及	-9.9098
民	-9.90985
我於彼前	-9.91018
初住	-9.91046
佛問圓通	-9.91107
達磨	-9.9114
呪師	-9.91144
豐	-9.91189
鈴	-9.91193
萬物	-9.91333
下明	-9.91392
若謂	-9.91423
蔽	-9.91447
三十八	-9.91463
總結	-9.91465
不受	-9.91513
空華	-9.91558
光焰	-9.91621
七趣	-9.91677
一切智	-9.917
留礙	-9.91834
室哩	-9.91854
浴	-9.91894
大師	-9.9194
唯願	-9.91944
斯為第一	-9.91977
飾	-9.92
抑	-9.92024
三句	-9.92038
藉	-9.92043
不敢	-9.92082
形像	-9.92159
曉	-9.92167
皆為	-9.9221
之言	-9.92212
與諸	-9.92273
色身	-9.9229
善知識	-9.92351
睡	-9.92362
種族	-9.92401
如來藏性	-9.92581
至心	-9.92648
不異	-9.92669
三十九	-9.92678
若因	-9.92689
為體	-9.92719
我以	-9.92739
君	-9.92792
當以	-9.92805
胸	-9.92817
希有	-9.92853
故得	-9.92862
之物	-9.92877
斗	-9.9291
而出	-9.92965
善巧	-9.92969
無餘	-9.92972
五色	-9.93034
為汝	-9.93057
圍	-9.93086
尚不	-9.93152
即於	-9.93201
不是	-9.93202
皆從	-9.93203
妙性	-9.93255
私謂	-9.93281
見其	-9.93301
因此	-9.9335
發吒	-9.93491
香華	-9.93498
試	-9.93531
戶	-9.93846
柱	-9.93864
圓影	-9.93875
無生滅	-9.93887
舍利	-9.93907
心者	-9.93942
貪求	-9.93954
四面	-9.94095
若在	-9.94097
由旬	-9.94116
分三	-9.94127
陀囉	-9.94144
䟦	-9.94191
增進	-9.94309
場	-9.94329
緊	-9.9435
毘那夜迦	-9.94414
卑	-9.94445
孕	-9.94483
詞	-9.94521
蕩	-9.94533
神變	-9.94639
覽	-9.94695
乙	-9.94698
及以	-9.94717
誡	-9.94793
佛之	-9.94818
清淨本然	-9.94895
佛子	-9.94911
成道	-9.94928
於空	-9.94959
謂此	-9.94962
上聲	-9.95031
牽	-9.95039
浪	-9.95043
大威德	-9.95053
但以	-9.9509
否	-9.95159
廢	-9.95298
隅	-9.9536
沫	-9.95529
以上	-9.95553
滋	-9.9574
六結	-9.95795
誦此呪	-9.95807
i	-9.95846
走	-9.95988
今云	-9.95993
猛	-9.95994
發願	-9.96096
鑿	-9.96115
豈有	-9.96133
丸	-9.96202
善哉	-9.96288
則是	-9.96289
明矣	-9.96366
而自	-9.9637
無所得	-9.96388
手印	-9.96406
跋折囉	-9.96433
貫	-9.96462
引一句	-9.96509
比丘尼	-9.96512
腹	-9.96522
法音	-9.96609
淪	-9.96706
非空	-9.96745
為人	-9.96805
四十八	-9.96817
􂗩	-9.96985
察	-9.97132
儗	-9.97184
為緣	-9.97267
貌	-9.97268
田	-9.97272
屍	-9.97286
往昔	-9.97332
眼識	-9.97352
浮塵	-9.97553
陀羅尼經	-9.97557
豆	-9.9762
梵王	-9.97648
云何獲圓通	-9.97666
其體	-9.97707
四門	-9.97722
之用	-9.97747
大空	-9.97752
偽	-9.97782
四十五	-9.97787
上下	-9.97798
何不	-9.97807
溫陵云	-9.97816
有邊	-9.97843
最為	-9.97892
有四	-9.97907
饒益	-9.97935
在於	-9.97937
齒	-9.97972
遶	-9.97989
斯則	-9.98012
無自性	-9.98079
銷滅	-9.98098
隨所	-9.9811
閻浮提	-9.98124
吐	-9.98208
不假	-9.98249
𦦨	-9.98284
振	-9.98395
口中	-9.98408
行道	-9.98453
覺心	-9.98509
此之	-9.98524
栴檀	-9.98619
織	-9.98678
憐愍	-9.9869
之曰	-9.98707
流通	-9.98746
此大	-9.98767
薩嚩怛他	-9.9881
米	-9.98816
承上	-9.98855
金剛手菩薩	-9.98858
牟	-9.98908
一切菩薩	-9.99063
閻	-9.99122
息災	-9.99218
諸大	-9.99267
弟	-9.99275
故不	-9.99293
繩	-9.99307
開敷	-9.99323
己	-9.99372
二十一遍	-9.99407
三德	-9.99421
此約	-9.9943
天台曰	-9.99442
冤	-9.99479
朗	-9.99529
授記	-9.99548
ā	-9.99609
裂	-9.99626
譬如有人	-9.99643
之果	-9.99689
聞法	-9.99696
常住真心	-9.99749
即空	-9.99768
眼見	-9.9978
相著	-9.99802
勇猛	-9.99809
跡	-9.99841
是佛	-9.99863
除滅	-9.99919
箭	-10.0006
章句	-10.0014
殘	-10.0015
顯現	-10.002
陀那	-10.002
因地	-10.0027
洗浴	-10.003
我說	-10.0035
欣	-10.0041
兒	-10.0044
囉拏	-10.0048
得聞	-10.0053
第一義	-10.0055
是真	-10.0057
日日	-10.0069
解結	-10.0072
又如	-10.0073
識界	-10.0081
相好	-10.0082
枲	-10.0085
大涅槃	-10.0085
丈夫	-10.0085
是心	-10.0086
非汝	-10.0093
九十	-10.0098
測	-10.0098
圓教	-10.0101
得解脫	-10.0103
若離	-10.0111
此識	-10.0125
為真	-10.0133
諸尊	-10.0134
十方諸佛	-10.0146
不取	-10.015
障難	-10.0152
當來	-10.0154
廣說	-10.0179
所言	-10.0185
言說	-10.0188
無所有	-10.0194
賤	-10.0195
成正覺	-10.0196
持誦者	-10.0211
所觀	-10.0214
此身	-10.022
夏	-10.0221
議	-10.0223
稽首	-10.0223
黃色	-10.0226
彼諸	-10.0229
便是	-10.0232
四十六	-10.0235
成阿羅漢	-10.0238
即時	-10.0239
修道	-10.0241
修羅	-10.0243
湯	-10.0246
不息	-10.0248
是諸	-10.0248
色界	-10.0251
雞	-10.0253
一切處	-10.026
即真	-10.0269
衛	-10.0273
此文	-10.0278
校	-10.028
苟	-10.0291
歌	-10.0291
所造	-10.0299
薩囉	-10.0304
諸世間	-10.0305
隨其	-10.031
不善	-10.031
或復	-10.0311
所修	-10.0318
作此	-10.032
翼	-10.0323
五十二	-10.0328
不與	-10.0329
四十三	-10.0331
馳	-10.0333
秋	-10.0335
化生	-10.0336
暴	-10.0336
第九	-10.0338
屹囉	-10.0339
能成	-10.0339
一門	-10.0341
汝身	-10.035
昇	-10.035
尚無	-10.0359
必無	-10.0362
之與	-10.0364
善法	-10.0364
條	-10.0372
欠	-10.0372
太子	-10.0373
截	-10.038
速得	-10.0383
金剛部	-10.0384
欲得	-10.0397
膝	-10.0399
四者	-10.0399
三麼	-10.0406
其形	-10.0409
作如是	-10.0411
輪王	-10.0417
或於	-10.0417
學者	-10.0418
金剛三昧	-10.0427
當心	-10.0434
律儀	-10.0437
汝見	-10.0437
他人	-10.0442
禁戒	-10.0443
空生	-10.0445
開合	-10.0449
承事	-10.0454
割	-10.0456
曇	-10.0467
下文云	-10.0469
中之	-10.0472
攀緣	-10.0473
從佛	-10.0474
為大	-10.0474
於心	-10.048
紫	-10.0482
哀愍	-10.0483
所住	-10.0484
一根	-10.0485
令我	-10.0486
秘密	-10.049
阿耨多羅三藐三菩提	-10.0502
以至	-10.0506
默然	-10.0508
唱	-10.0517
誓願	-10.0519
丈	-10.052
迷悟	-10.0521
法王	-10.0526
臭	-10.053
周遍	-10.053
窟	-10.0539
生者	-10.054
義故	-10.0542
天神	-10.0542
實有	-10.0544
無作	-10.0554
客塵	-10.0554
令人	-10.0557
嚩底	-10.057
有知	-10.0576
愍	-10.0578
秫	-10.0579
所感	-10.0579
無量無邊	-10.0582
為我	-10.0582
泉	-10.0595
深入	-10.061
而復	-10.0611
修學	-10.0613
置於	-10.0613
即指	-10.0622
麗	-10.0623
不久	-10.0624
動搖	-10.0625
麼攞	-10.0625
今以	-10.0631
所攝	-10.0635
通塞	-10.0643
如水	-10.0645
惟願	-10.0647
則非	-10.0648
誦此真言	-10.0658
我所	-10.0658
妙覺明	-10.067
麥	-10.0681
加行	-10.0693
四諦	-10.0698
嚕抳迦	-10.0699
或云	-10.07
喇	-10.0706
停	-10.0708
漚	-10.0709
綿	-10.0709
二羽	-10.0712
四十七	-10.072
見思	-10.0722
嚲	-10.073
次說	-10.073
以二手	-10.073
文云	-10.0752
則成	-10.0752
穆	-10.0754
隣	-10.0762
無住	-10.0763
輔	-10.0774
旁	-10.0774
之相也	-10.0776
獸	-10.0778
諸漏	-10.078
五十七	-10.079
大自在天	-10.0795
人民	-10.0796
同前	-10.0798
斫	-10.08
變成	-10.0802
。(〔	-10.0809
矚	-10.0809
貪欲	-10.0809
山河大地	-10.081
議曰	-10.0814
無名指	-10.0815
宛然	-10.0824
心呪	-10.084
一切皆	-10.0863
法王子	-10.0866
真覺	-10.0867
佛世尊	-10.0869
火中	-10.0873
自巳	-10.0873
欽	-10.0874
樓閣	-10.0874
諍	-10.0875
下同	-10.0883
者即是	-10.0884
諸大菩薩	-10.0885
禪智	-10.0888
菩	-10.0888
警	-10.0889
赤色	-10.0898
刺	-10.09
之智	-10.0903
妙音	-10.0908
正破	-10.0909
天竺	-10.0915
戴	-10.0916
不達	-10.0922
五塵	-10.0928
是我	-10.0933
壁	-10.0934
逈	-10.094
之文	-10.0945
三摩耶	-10.0949
不過	-10.095
梵音	-10.0954
弱	-10.096
禪師	-10.0966
唯心	-10.097
貧	-10.098
見明	-10.0983
恃	-10.0985
五十五	-10.0989
二小指	-10.099
吽字	-10.0994
辯才	-10.0997
之地	-10.1001
十方世界	-10.1008
根性	-10.1011
穀	-10.1014
普遍	-10.1015
五十一	-10.1016
真諦	-10.1023
不因	-10.1025
諸佛如來	-10.1028
聲塵	-10.103
熏聞云	-10.1031
矯亂	-10.1033
尊重	-10.104
受持讀誦	-10.1041
所歸	-10.1042
分段	-10.1052
火光	-10.1066
應作	-10.1067
互用	-10.1067
持明者	-10.1072
緣心	-10.1075
對治	-10.1077
能破	-10.1084
為正	-10.109
蹉	-10.1094
內心	-10.1097
額	-10.1104
漫	-10.1106
從是	-10.1108
肩	-10.1111
性相	-10.1116
嗢	-10.1117
什	-10.1117
羂索	-10.1127
轉法輪	-10.1137
諸比丘	-10.1139
三結	-10.1149
不二	-10.1164
即見	-10.1167
寤	-10.1168
楞伽	-10.1172
彌勒	-10.118
一切事	-10.1185
加被	-10.1189
胡	-10.119
錢	-10.119
五十三	-10.1192
為本	-10.1195
離塵	-10.1196
二百	-10.1214
知此	-10.122
羽	-10.1223
非一	-10.1236
澡浴	-10.1242
修行者	-10.1245
珍寶	-10.1247
流逸	-10.125
洛	-10.1256
右邊	-10.1263
本然	-10.1263
經卷	-10.1268
頌曰	-10.1283
熾	-10.129
緊那羅	-10.1298
身口意	-10.13
故今	-10.1303
三日	-10.1305
暮	-10.131
定中	-10.1311
如佛	-10.1312
蘭	-10.1322
即為	-10.1323
五十四	-10.1324
粗	-10.1332
得自在	-10.1341
覺觀	-10.1342
此天	-10.1348
二邊	-10.1348
重重	-10.135
酒	-10.1363
所因	-10.1372
金剛藏	-10.1378
染淨	-10.1379
毘舍	-10.1382
0	-10.1387
踰	-10.1389
酪	-10.1389
周徧法界	-10.1397
六道	-10.1397
孤山	-10.1402
涅	-10.1403
地位	-10.1404
二空	-10.1406
心所	-10.1407
文三	-10.1411
亦同	-10.1411
相對	-10.1416
我當	-10.1425
若得	-10.1428
勒	-10.1431
孔	-10.1436
惹野	-10.1441
煩	-10.1443
更不	-10.1444
眾中	-10.1445
集會	-10.1446
四角	-10.1458
見有	-10.1464
七十	-10.1465
乞叉	-10.1465
劒	-10.1468
豎	-10.147
於如來	-10.1479
不生不滅	-10.1479
六十四	-10.1479
雪	-10.1481
九十九	-10.1487
濫	-10.1492
式	-10.1494
電	-10.1498
捧	-10.1504
橛	-10.1505
有異	-10.1505
除一切	-10.1506
和尚	-10.1519
憑	-10.152
△	-10.1527
嚩日	-10.1527
處也	-10.1529
麼麼	-10.1529
腕	-10.1534
宋	-10.1541
真言加持	-10.1546
是法	-10.1559
故須	-10.156
方得	-10.1563
眠	-10.1564
早	-10.1566
重罪	-10.1568
朝	-10.157
毗盧遮那	-10.1587
奈	-10.1588
玉	-10.159
未曾	-10.159
必須	-10.1591
兩手	-10.1592
長水云	-10.1596
所問	-10.1596
之異	-10.1599
結印	-10.1602
無量壽	-10.1605
體也	-10.1609
自生	-10.161
以下	-10.1618
問曰	-10.1618
曷	-10.1621
冠註此	-10.1627
遍照	-10.1634
乞义	-10.1635
無障礙	-10.1641
卵	-10.1641
非為聖證	-10.1651
總標	-10.1657
與彼	-10.166
天上	-10.1668
所不能	-10.1679
作禮	-10.1681
作拳	-10.1686
莫不	-10.1687
諸事	-10.1692
魂	-10.1692
那謨	-10.1699
莊	-10.1699
鉢頭	-10.17
造作	-10.17
最初方便	-10.1707
正定	-10.1712
瑞	-10.1712
少分	-10.1714
八萬劫	-10.1716
詐	-10.1725
布施	-10.1725
之旨	-10.1728
吼	-10.1731
承佛	-10.1731
婁	-10.1733
與佛	-10.1734
良由	-10.1735
即有	-10.1737
奇	-10.174
h	-10.1741
法眼	-10.1741
遙	-10.1747
菓	-10.175
初地	-10.1754
整	-10.1764
真言者	-10.1766
在外	-10.1767
能除	-10.1775
驚怖	-10.1778
枉	-10.1786
從空	-10.1791
此二	-10.1792
而非	-10.1793
信解	-10.1802
五十六	-10.1802
心目	-10.1814
珍	-10.1825
囉抳	-10.1832
併	-10.1833
畫像	-10.1835
離合	-10.1841
托	-10.1857
不在	-10.186
都無	-10.1862
此乃	-10.1862
圓頓	-10.1863
現行	-10.187
幻化	-10.1871
入此	-10.1872
相叉	-10.1879
付	-10.1879
天眼	-10.1883
我身	-10.1889
造業	-10.189
即說	-10.1891
巳上	-10.1891
當作	-10.1894
第一義諦	-10.19
所執	-10.19
一真	-10.1901
惡人	-10.1902
底哩	-10.1902
鳴	-10.1902
務	-10.1905
明覺	-10.1907
妙用	-10.191
佛菩薩	-10.1911
有學	-10.1912
循業發現	-10.1916
何為	-10.1918
如汝	-10.1918
之道	-10.1919
辟支佛	-10.1924
不可說	-10.1925
不合	-10.1927
不識	-10.1928
不和合	-10.1932
業障	-10.1945
躡	-10.1955
典	-10.1956
焚	-10.1958
柔	-10.196
如是故有	-10.1963
一身	-10.1964
以來	-10.1964
因心	-10.1966
稱為	-10.1967
妨	-10.1969
此下	-10.1986
孰	-10.1988
披	-10.1989
佛果	-10.1994
成就者	-10.1994
如實	-10.1998
身相	-10.2001
師子座	-10.2003
答曰	-10.2004
碎	-10.2021
之外	-10.2023
蘖多	-10.2026
一千	-10.2027
親近	-10.2029
交光	-10.2042
囑	-10.2042
說偈	-10.205
得入	-10.2051
感應	-10.2055
水性	-10.2057
瞿	-10.2063
別業	-10.2064
火輪	-10.2064
夾	-10.2065
后	-10.2069
手把	-10.2071
迎	-10.2072
活	-10.2073
是中	-10.2077
去引	-10.2079
三指	-10.2079
人之	-10.2083
洛叉	-10.2084
通曰	-10.2093
妄生	-10.2095
較	-10.2098
去來	-10.2099
之行	-10.2101
其相	-10.2102
若非	-10.2103
我見	-10.2104
梅	-10.2105
性也	-10.2105
圍遶	-10.2111
十萬遍	-10.2111
孽	-10.2116
載	-10.2119
之名	-10.2124
三滿多	-10.2125
喝	-10.2126
無實	-10.213
十五日	-10.2134
􂢈	-10.2142
薄伽梵	-10.2149
則為	-10.2149
冀	-10.2152
低	-10.2154
三千大千世界	-10.2155
凡有	-10.2159
精真	-10.2159
身根	-10.2161
紛	-10.2161
生處	-10.2162
大千	-10.2167
自覺	-10.2167
答言	-10.217
漢	-10.2173
佛母	-10.2178
伽陀	-10.2178
若言	-10.218
妖	-10.2183
弩	-10.2183
既有	-10.2184
金剛縛	-10.2185
贊	-10.2188
心真言	-10.2188
是則名為	-10.2191
下結	-10.2193
遲	-10.2199
真淨	-10.2201
祈	-10.2205
明妃	-10.2208
逸	-10.221
闇	-10.221
馱囉	-10.2212
摩登伽	-10.2221
不信	-10.2221
階	-10.2225
本因	-10.2227
信心	-10.2228
如鏡	-10.223
偈云	-10.2246
又於	-10.2249
五十八	-10.2267
火燒	-10.2269
多囉	-10.2274
前三	-10.2275
伽羅	-10.2277
若作聖解	-10.2277
觀見	-10.2287
溫陵	-10.2289
真體	-10.2289
出世間	-10.2289
了別	-10.2294
人中	-10.2295
舌根	-10.2296
阿難及諸大眾	-10.2297
妬	-10.2298
不盡	-10.2301
卒	-10.2302
穿	-10.2302
槃	-10.2305
五蘊	-10.2311
發於	-10.2312
消除	-10.2325
八葉	-10.2344
聲聞緣覺	-10.2345
見道	-10.2345
明曰	-10.2348
之由	-10.2349
尒	-10.2351
喇怛曩	-10.2352
即便	-10.2355
金剛拳	-10.2358
不立	-10.236
野娑嚩	-10.236
陛	-10.2369
非心	-10.2369
債	-10.237
有色	-10.2377
粉	-10.2381
所持	-10.2382
信受	-10.2384
為欲	-10.2385
壓	-10.2389
能作	-10.239
瑩	-10.2393
元是	-10.2398
支分	-10.2401
乖	-10.2417
心境	-10.2424
今既	-10.2424
若諸	-10.2425
寶覺	-10.2426
居士	-10.2428
上來	-10.2437
殺盜婬	-10.2439
頃	-10.244
即當	-10.2454
則此	-10.2458
三禪	-10.246
略說	-10.2467
所覺	-10.2469
繼	-10.2475
若有眾生	-10.2475
觀心	-10.2477
塵垢	-10.2483
憐	-10.249
筆	-10.2492
飽	-10.2493
皎	-10.2494
顯示	-10.2496
時彼	-10.2505
柳	-10.2512
任運	-10.2513
忽生	-10.2514
盖	-10.2519
不隨	-10.252
火天	-10.2521
陷	-10.2523
訶囉	-10.2524
二破	-10.2525
紇哩	-10.2525
言其	-10.2526
十二類生	-10.2529
此正	-10.2531
汝之	-10.2535
而坐	-10.2543
三密	-10.2546
普門	-10.2552
頭上	-10.2552
之妄	-10.2555
數珠	-10.2556
二習	-10.2558
元明	-10.2559
向下	-10.2565
心愛	-10.2567
無疑	-10.2575
佛菩提	-10.2577
訖哩	-10.2579
離於	-10.258
迷惑	-10.2586
鎖	-10.2589
身上	-10.2592
饒	-10.2595
僧伽	-10.26
不須	-10.261
無動	-10.2612
婆囉	-10.2613
憾	-10.2614
以前	-10.2614
人身	-10.2624
自證	-10.2628
五十九	-10.2629
下二句	-10.263
遺失	-10.263
佛道	-10.2636
八十一	-10.2641
虗明	-10.2641
蒲	-10.2643
銀	-10.2645
滅後	-10.2652
冒	-10.2654
心住	-10.2668
斛	-10.2669
作是念	-10.2671
岐	-10.2672
須彌山	-10.2675
此菩薩	-10.2679
云何名為	-10.2686
如如	-10.2692
甚麼	-10.2695
閑	-10.2697
則得	-10.27
左邊	-10.2705
十住	-10.2706
綱	-10.2715
諸趣	-10.2715
軌	-10.2717
次以	-10.2726
彌陀	-10.2729
增上	-10.273
紅	-10.2733
佛心	-10.2735
得名	-10.2736
摩頂	-10.2737
尊勝	-10.2737
委	-10.2739
譯云	-10.274
三百	-10.274
今文	-10.2741
曼茶羅	-10.2742
非同	-10.2742
波囉	-10.2742
復次阿難	-10.2749
二禪	-10.2749
起滅	-10.2762
七十七	-10.2769
澁	-10.2773
祭	-10.2775
成辦	-10.2788
佛眼	-10.2795
大仙	-10.2796
懼	-10.2796
羯南	-10.2798
慈心	-10.2815
有五	-10.2819
余	-10.2819
)。(􂨳	-10.2824
勇	-10.2831
二約	-10.2832
正顯	-10.2833
情想	-10.2835
無形	-10.2836
顯真	-10.2836
須彌	-10.2841
悉能	-10.2841
准提	-10.2843
圓照	-10.2846
不入	-10.2858
此呪心	-10.2859
烟	-10.2861
乏	-10.2862
五逆	-10.2865
糞	-10.2866
汝觀	-10.2866
羅剎女	-10.2866
或作	-10.2868
行也	-10.2868
財寶	-10.2873
惱亂	-10.2873
青色	-10.2875
危	-10.2877
竝	-10.2878
以是因緣	-10.2881
應以	-10.2888
相交	-10.2895
頓悟	-10.2901
辰	-10.2906
之門	-10.2911
喉	-10.2919
水輪	-10.2921
冰	-10.2927
長壽	-10.293
吳興云	-10.2937
展	-10.2941
七十二	-10.2942
授與	-10.2943
唵嚩日囉	-10.2947
丹	-10.295
所起	-10.2951
發遣	-10.2955
一經	-10.2973
但有	-10.2978
呪者	-10.2984
償	-10.2985
體用	-10.2985
杜	-10.2997
賴	-10.3006
囉野	-10.3011
等皆	-10.3024
若諸眾生	-10.3027
若有人	-10.3027
能成就	-10.3029
速疾	-10.3038
此皆	-10.3049
九界	-10.3051
櫱多	-10.3056
觀照	-10.3061
定力	-10.3064
瘡	-10.3067
琰	-10.3068
彼此	-10.3071
嚴飾	-10.3074
此亦	-10.3078
佛地	-10.3082
二明	-10.3082
之說	-10.3085
空寂	-10.3086
六十一	-10.3087
愚癡	-10.3097
=	-10.3099
而立	-10.3108
我慢	-10.311
這	-10.3113
有生	-10.3114
阿字門	-10.3116
稱讚	-10.3117
若復有人	-10.3118
入道	-10.3121
頂輪王	-10.3122
之業	-10.3122
金銀	-10.3128
健	-10.3129
天龍	-10.3133
寶冠	-10.3137
覺悟	-10.3141
處所	-10.3141
文中	-10.3143
為說	-10.3143
二塵	-10.3145
撥	-10.3147
心開	-10.3148
庶	-10.3148
向外	-10.3161
有二種	-10.3164
皆同	-10.3167
大慈悲	-10.3169
縷	-10.3169
密語	-10.3169
真際	-10.3172
諸行	-10.3173
十善	-10.3179
雜亂	-10.3182
向上	-10.3186
諾	-10.3189
薩怛	-10.3193
縮	-10.3194
嚕拏	-10.3198
無心	-10.3199
瞻仰	-10.32
弊	-10.3208
六十五	-10.3214
訖㗚	-10.3215
不可得故	-10.3217
如來說	-10.3218
晦	-10.3222
化為	-10.3226
告言	-10.3226
險	-10.3229
加護	-10.3231
鈔	-10.3232
名稱	-10.3233
法輪	-10.3235
心念	-10.3236
訖囉	-10.3242
妙明心	-10.3244
皆依	-10.3249
不容	-10.3251
正示	-10.3253
病者	-10.3255
陁羅𡰱	-10.3255
一切惡	-10.3265
無生忍	-10.3265
用之	-10.3271
盈	-10.3275
春	-10.3278
澤	-10.3282
牟尼	-10.3283
至誠	-10.3283
違順	-10.3284
白衣	-10.3285
六十六	-10.3286
六十三	-10.3287
先以	-10.3288
滅除	-10.3293
護法	-10.3301
今言	-10.3303
六十八	-10.3308
初中	-10.3308
二無名指	-10.3312
偶	-10.3313
有此	-10.3313
麼抳	-10.3323
吹	-10.3324
即入	-10.3328
陀羅尼真言	-10.3331
芥子	-10.3337
令汝	-10.3338
躡前	-10.3344
見分	-10.3345
尅	-10.3346
不礙	-10.3348
狂走	-10.3352
報盡	-10.3353
初果	-10.3353
刻	-10.3356
聚落	-10.3361
八十八	-10.3362
攝心	-10.3366
本如來藏	-10.3366
始覺	-10.3368
猛火	-10.3369
位中	-10.3377
不墮	-10.3381
慳	-10.3384
穴	-10.3386
荅	-10.3392
雖未	-10.3392
得其便	-10.3393
為非	-10.3394
用此	-10.3395
根元	-10.3396
實際	-10.3399
將此	-10.3399
縒	-10.3401
由因世界	-10.3404
婦	-10.3405
役	-10.3407
指示	-10.3408
頭相拄	-10.341
乞灑	-10.3411
t	-10.3413
狐	-10.3414
極樂	-10.3418
前文云	-10.342
同是	-10.3421
豈可	-10.3423
性具	-10.3429
戲	-10.343
涉入	-10.3438
一月	-10.3439
帛	-10.3439
得生	-10.3452
則同	-10.3452
大佛頂如來密因修證了義	-10.3452
訟	-10.3462
壇場	-10.3462
寶藏	-10.3463
不還	-10.3473
思惑	-10.3479
證真	-10.3481
六度	-10.3484
所行	-10.3484
正報	-10.3485
所有一切	-10.3488
須知	-10.3495
講	-10.3497
須臾	-10.3503
八部	-10.3505
無能勝	-10.3506
震	-10.3508
婆夜	-10.351
與汝	-10.3516
大定	-10.3522
沒囉	-10.3523
送	-10.3525
四重	-10.353
質多	-10.3531
彈指	-10.3534
圓光	-10.3536
面向	-10.3536
菩提涅槃	-10.3539
金剛三摩地	-10.3543
成形	-10.3544
而發	-10.3545
方所	-10.3546
一味	-10.3547
鹽	-10.3548
社	-10.3548
於前	-10.3549
尚未	-10.3554
不必	-10.3556
三角	-10.356
既非	-10.3564
上首	-10.3568
9	-10.3573
阿難大眾	-10.3577
了然	-10.3577
醫	-10.3579
嘆	-10.3579
路枳	-10.358
登伽	-10.3582
項	-10.3584
大母指	-10.3584
勝妙	-10.3596
我為	-10.3599
故說	-10.3611
證入	-10.3618
其類充塞	-10.3618
三匝	-10.3622
孔雀	-10.3623
跋折羅	-10.3626
奢摩	-10.3629
麁	-10.3633
禮佛	-10.3635
若依	-10.3638
不忘	-10.3652
何有	-10.3654
r	-10.3656
庾	-10.3657
端嚴	-10.3665
寂照	-10.3667
無妄	-10.3679
毘盧遮那佛	-10.368
以左手	-10.3696
空有	-10.3698
得未曾有	-10.3699
唯有	-10.3707
脉	-10.3708
直至	-10.3709
發光	-10.3713
以喻	-10.3718
喫	-10.3721
覺了	-10.3723
印呪	-10.3725
巳得	-10.3726
毒藥	-10.373
此科	-10.3734
五濁	-10.3739
非自然	-10.3742
速證	-10.3744
之根	-10.3745
不實	-10.3747
誐多	-10.3748
𧹞	-10.3749
譬喻	-10.3752
每日	-10.3754
當體	-10.3756
當用	-10.3758
六十七	-10.3758
鑒	-10.376
奧	-10.3761
不言	-10.3762
狹	-10.3764
諸經	-10.3764
了無	-10.3766
抱	-10.3767
終無	-10.3768
破之	-10.3769
寶珠	-10.3775
等事	-10.3777
正念	-10.3787
孫	-10.3793
吞	-10.3795
作諸	-10.3796
散亂	-10.38
可謂	-10.3801
善住	-10.381
阿閦	-10.3811
如意寶	-10.3813
己身	-10.3816
能入	-10.382
川	-10.3822
欺	-10.3826
妙吉祥	-10.3828
真言唵	-10.383
初發心	-10.3832
蓮華部	-10.384
即非	-10.384
法爾	-10.3844
賜	-10.3846
禍	-10.3846
循環	-10.3847
撮	-10.3847
奉行	-10.3859
七十一	-10.386
晴	-10.3861
周法界	-10.3864
名相	-10.3869
淨妙	-10.3869
達摩	-10.3873
佛國	-10.3874
第八識	-10.3875
諸位	-10.3877
六十九	-10.3878
為彼	-10.3881
覓	-10.3882
聖性	-10.3894
勿令	-10.3895
又曰	-10.3901
不食	-10.3901
三義	-10.3902
憎	-10.3903
本空	-10.3908
𠼝	-10.3909
俱嚕	-10.391
前來	-10.391
又法若	-10.3913
所發	-10.3918
方等	-10.3918
𠸪	-10.392
必定	-10.3922
所以者何	-10.3925
心印	-10.3925
密印	-10.3927
漏盡	-10.3927
種類	-10.3931
行相	-10.3933
能現	-10.3934
今則	-10.3935
螺	-10.3935
􂏖	-10.3943
相分	-10.3944
所變	-10.3946
吳興	-10.3951
即知	-10.3952
金剛界	-10.3954
嚩路枳帝濕嚩	-10.3959
四指	-10.396
不悟	-10.3961
顛	-10.3965
結示	-10.3967
身命	-10.3971
我亦	-10.3973
巳成	-10.3973
稟	-10.3988
矩嚕	-10.399
六種	-10.3992
捉	-10.3997
心體	-10.4001
括	-10.4012
七十五	-10.4015
何得	-10.4015
袈裟	-10.4016
墮無間獄	-10.4016
戀	-10.4017
空也	-10.4018
寶光	-10.4026
竹	-10.4026
教化	-10.4026
九十二	-10.4027
及餘	-10.4034
乃能	-10.4034
同體	-10.4039
梁	-10.4041
宗鏡	-10.4041
斯義	-10.4044
童女	-10.4052
位也	-10.4054
往來	-10.4059
忍願	-10.4059
於意云何	-10.4061
令其成就	-10.4065
岸	-10.4066
六入	-10.4076
團	-10.4076
安慰	-10.4076
爛	-10.4077
所聞	-10.4078
3	-10.4079
從彼	-10.4082
大菩提	-10.4084
驅	-10.4095
月光	-10.4099
似有	-10.4105
妄語	-10.4105
包	-10.4107
聖賢	-10.4109
娜麼	-10.4121
惡道	-10.4123
五處	-10.4128
標指	-10.413
數量	-10.4131
綰	-10.4132
往生	-10.4141
終不能	-10.4141
一類	-10.4143
難陀	-10.4156
以印	-10.4157
汝應	-10.4158
莖	-10.4158
炎	-10.4159
砂	-10.4159
人法	-10.4164
一六	-10.4165
持金剛	-10.4166
非色	-10.4166
諸菩薩萬行首楞嚴經	-10.4168
別教	-10.4172
善男子善女人	-10.4173
性覺	-10.4175
緣塵	-10.4176
不可以	-10.4176
此義	-10.4182
前之	-10.4185
不停	-10.4189
依報	-10.4189
酤	-10.4193
無量劫	-10.4196
汁	-10.4199
七十三	-10.4199
軌則	-10.42
諸大眾	-10.4207
護念	-10.4208
請召	-10.4209
喻如	-10.4211
不依	-10.4215
赴	-10.4215
融通	-10.4219
俱空	-10.4222
衝	-10.4223
無色界	-10.4233
匿王	-10.4234
梵行	-10.424
旋轉	-10.4241
依前	-10.4242
氏	-10.425
結此印	-10.4251
佛教	-10.4252
當處	-10.4254
省	-10.426
無比	-10.4263
區宇	-10.4267
皆得成就	-10.4272
弗	-10.4276
大將	-10.4289
輕安	-10.4291
㰤	-10.4292
真修	-10.4295
厄	-10.4295
見空	-10.43
執著	-10.43
選擇	-10.4302
況復	-10.4304
金剛手菩薩摩訶薩	-10.4306
皺	-10.4307
即誦	-10.4307
靜慮	-10.4308
故佛	-10.4308
眾寶	-10.4309
能以	-10.431
起信	-10.4314
柴	-10.4317
悉得	-10.4317
俗諦	-10.432
諸有為相	-10.4325
室中	-10.4332
不唯	-10.4332
俱舍	-10.4337
非相	-10.4338
床	-10.4343
普賢菩薩	-10.4343
溪	-10.4363
本具	-10.4363
佛語	-10.4367
祗	-10.4369
大悲心	-10.4386
快樂	-10.4392
不退轉	-10.4394
相違	-10.4398
自相	-10.4399
色心	-10.4399
而此	-10.4401
離欲	-10.4401
毘藥	-10.4409
非人	-10.441
汝識	-10.4411
右旋	-10.4413
捨心	-10.4414
不死	-10.4417
亦皆	-10.442
精氣	-10.4423
淨水	-10.4428
唯是	-10.4432
他方	-10.4433
七十四	-10.4438
此意	-10.4441
鮮	-10.4446
業識	-10.4446
全是	-10.4449
釋迦牟尼佛	-10.445
須陀洹	-10.4451
將來	-10.4451
九十一	-10.4452
周匝	-10.4453
是善男子	-10.4454
指頭	-10.4458
俱無	-10.4468
阿鼻	-10.4469
進修	-10.447
發真	-10.4472
意在	-10.4479
此翻	-10.4481
方圓	-10.4485
無上覺	-10.4486
著新淨衣	-10.4489
小兒	-10.4491
大願	-10.4493
妄執	-10.4493
相生	-10.4497
開發	-10.4502
性明	-10.4504
又此	-10.4513
。」【△	-10.4513
稱名	-10.4514
之語	-10.4515
迷悶	-10.4515
大妄語	-10.4517
印相	-10.4522
摩尼寶	-10.4525
七十八	-10.4528
密因	-10.4529
功能	-10.4529
飛行	-10.453
七十六	-10.4534
無窮	-10.4536
入空	-10.4539
不空羂索	-10.454
當知此	-10.454
三曼多	-10.4542
懺	-10.4545
寬	-10.4545
膠	-10.4546
拈	-10.4551
無諸	-10.4552
降三世	-10.4555
又非	-10.4556
般若波羅蜜	-10.4557
永斷	-10.4558
金剛寶	-10.4563
御	-10.4567
紙	-10.4572
王如來	-10.4577
次當	-10.4578
捨身	-10.4581
病人	-10.4582
雖復	-10.4583
不但	-10.4586
七處	-10.4591
虎𤙖	-10.4595
荷	-10.4598
企	-10.4604
疎	-10.4607
密言曰	-10.4608
問答	-10.461
自謂	-10.4612
諸物	-10.4617
妙理	-10.4622
西南	-10.4625
依於	-10.4628
佛所說	-10.4629
等法	-10.4629
一一皆	-10.4632
束	-10.4633
若約	-10.4634
之功	-10.4635
迷妄	-10.4637
誘	-10.4638
受報	-10.4638
怛儞也	-10.464
自在天	-10.4642
法執	-10.4648
爪	-10.4651
將何	-10.4653
八十四	-10.4654
常在	-10.4655
酸	-10.4657
菩提薩埵	-10.4657
大印	-10.4658
皆令	-10.466
大拇指	-10.4662
白言	-10.4664
業相	-10.467
非實	-10.4671
無緣	-10.4676
無有異	-10.4679
千遍	-10.4681
端正	-10.4685
魘	-10.4685
而為說法	-10.4688
辟除	-10.4691
甲冑	-10.4691
而不知	-10.4693
宛	-10.4698
握	-10.4698
櫱跢	-10.4701
四生	-10.4701
梵志	-10.4704
既是	-10.4705
阿難白佛言世尊	-10.4707
蒙佛	-10.4708
麌	-10.471
合成	-10.4711
與前	-10.4713
而今	-10.4718
底曳	-10.4718
餘習	-10.4719
羅睺	-10.472
主人	-10.4722
七十九	-10.4726
夕	-10.4726
東南	-10.4728
拄	-10.4734
鐘	-10.474
身分	-10.474
後文	-10.4741
慎	-10.4749
能覺	-10.4749
行法	-10.475
薰	-10.4751
籠	-10.4753
獲大	-10.4759
金剛王	-10.4763
萬象	-10.4764
彼佛	-10.4768
實無	-10.4769
古人	-10.477
陀羅尼門	-10.4772
甜	-10.4778
其意	-10.4778
以反	-10.4779
金輪	-10.4785
喪	-10.4785
」「	-10.4791
觀智	-10.4794
故為	-10.4794
巘	-10.4796
妃	-10.4802
一肘	-10.4803
拽	-10.4804
尤	-10.4809
崇	-10.4813
南無婆伽婆帝	-10.4814
陀羅尼曰	-10.4815
有體	-10.4818
五穀	-10.4819
思量	-10.4821
上品	-10.4822
所詮	-10.4822
佐	-10.4823
安於	-10.4825
顯發	-10.4826
所居	-10.4827
唵字	-10.4836
不能知	-10.484
即說呪曰	-10.4842
彈	-10.4844
師曰	-10.4845
賓	-10.4846
然而	-10.4848
發揮	-10.4851
大法	-10.4858
誐囉	-10.4868
便成	-10.4871
不令	-10.4871
倚	-10.4873
谷	-10.4876
邪正	-10.4876
苕溪云	-10.4878
頂戴	-10.4878
煎	-10.4879
絲	-10.4879
頸	-10.4883
婬欲	-10.4884
其實	-10.4888
祥	-10.4889
印契	-10.4892
白佛言世尊	-10.4897
并諸	-10.4897
正徧知	-10.4902
莎嚩訶	-10.4904
繁	-10.4905
計度	-10.4908
狗	-10.491
巨	-10.4911
剌	-10.4914
踏	-10.4916
天眾	-10.4918
給	-10.4936
相涉	-10.4937
器中	-10.495
今欲	-10.4955
十方佛	-10.496
八十二	-10.4962
嫌	-10.4965
又有	-10.4966
訥瑟吒	-10.4967
▁五	-10.4968
梵本	-10.4969
教中	-10.497
其餘	-10.4972
精研	-10.4973
佩	-10.4979
南謨	-10.4985
火焰	-10.4986
次於	-10.4986
黑色	-10.4988
作此印	-10.499
妄塵	-10.4993
泣	-10.4999
照明	-10.5
黨	-10.5
毘盧遮那如來	-10.5006
仙人	-10.501
所為	-10.5013
海中	-10.5015
粳米	-10.5016
器界	-10.502
以種種	-10.502
阿難白佛言	-10.5022
顯其	-10.5023
瘧	-10.5024
貯	-10.5028
呪力	-10.5034
夷	-10.5038
次應	-10.5039
芻	-10.5039
曩莫阿	-10.5042
兄弟	-10.5059
敗	-10.5059
是經	-10.5062
魄	-10.5066
歷劫	-10.5066
吃	-10.5066
與如來	-10.5068
坑	-10.507
因緣故	-10.5073
於後	-10.5077
三毒	-10.5084
持此呪	-10.5086
心精	-10.5086
無生法忍	-10.5087
目前	-10.5087
鑑	-10.5094
本非	-10.5097
入流	-10.5098
)。(􂨱	-10.5101
燃	-10.5104
雲海	-10.5104
無所不	-10.5105
儜	-10.5108
快	-10.5114
業報	-10.512
午	-10.512
基	-10.5123
即差	-10.5123
思念	-10.5134
恣	-10.5135
透	-10.5137
教體	-10.5143
輕重	-10.5148
保	-10.5149
明白	-10.5152
得道	-10.5155
。」【〔	-10.5157
昭	-10.5159
捨離	-10.5159
排	-10.516
麼底	-10.5165
哥	-10.5168
復生	-10.5171
世尊我	-10.5177
如是我聞	-10.5178
真理	-10.5181
何者是	-10.5184
轉計	-10.5189
嬈	-10.519
成就教理	-10.5192
如來藏中	-10.5195
之內	-10.5197
梵云	-10.5199
根本印	-10.5203
四天	-10.5203
釤	-10.5207
執心	-10.5208
生死根本	-10.5215
可解	-10.5217
污	-10.5219
皆能	-10.5219
淚	-10.522
正受	-10.5221
厚	-10.5222
何物	-10.5222
化身	-10.5223
亦令	-10.5224
一往	-10.5224
追	-10.523
常為	-10.5231
界外	-10.5233
來去	-10.5233
怛羅	-10.5236
反聞	-10.5236
修禪	-10.5236
罪障	-10.5237
具有	-10.5237
敕	-10.5248
受苦	-10.5248
一乘	-10.5254
弊泮	-10.5254
凡聖	-10.5257
亦當	-10.5261
多曳	-10.5267
鉤召	-10.5267
日輪	-10.5268
未破	-10.5269
曼殊室利	-10.5275
揑	-10.5283
塵沙	-10.5284
涌	-10.5285
外境	-10.529
曬	-10.5297
娑囉	-10.5297
能緣	-10.53
而來	-10.5302
眾多	-10.5304
友	-10.5305
射	-10.5314
脂	-10.5318
作意	-10.5318
剖	-10.532
作此法	-10.532
即心	-10.5321
諸龍	-10.5333
啟請	-10.5334
趨	-10.5351
瓦	-10.5355
霜	-10.5357
輸藍	-10.536
住持	-10.5361
虫	-10.5363
施無畏	-10.5372
三摩地中	-10.5375
空如來藏	-10.5377
想念	-10.5378
大臣	-10.5378
酢	-10.5378
三十二相	-10.5382
諸餘	-10.5383
八十三	-10.5384
九十六	-10.5396
而實	-10.54
本非因緣	-10.5403
結前	-10.5405
鷄	-10.541
呪之	-10.541
波羅蜜多	-10.5411
韈㗚	-10.5411
不待	-10.5413
九十五	-10.5413
翅	-10.5415
激	-10.5415
鄔	-10.542
凌	-10.5421
s	-10.5423
忙	-10.5423
本非因緣非自然性	-10.5424
等相	-10.5429
間斷	-10.543
跓	-10.5431
破戒	-10.5432
召請	-10.544
曩莫三滿多沒馱喃	-10.5442
如我所證	-10.5445
彼真言曰	-10.5447
範	-10.5449
百億	-10.5449
上中下	-10.5451
聽法	-10.5455
作是言	-10.5457
剋	-10.5457
相和	-10.5457
回向	-10.5461
從來	-10.5468
入掌	-10.5471
諸世界	-10.5472
五辛	-10.5478
次明	-10.548
非想	-10.548
故感	-10.5482
萬遍	-10.5484
八十七	-10.5486
如是如是	-10.5488
倪	-10.5491
隨力	-10.5491
這一節經	-10.5494
非自然性	-10.5508
憍	-10.5511
天龍八部	-10.5511
修多羅	-10.5514
結答	-10.5516
薩縛	-10.5528
蠱	-10.5531
先須	-10.5532
徧計	-10.5533
根本無明	-10.5536
由前	-10.5543
證果	-10.5544
今初	-10.5545
遍滿	-10.5549
前境	-10.5549
炭	-10.5551
蝕	-10.5551
底瑟姹	-10.5558
須菩提	-10.5562
如上所說	-10.5562
字輪	-10.5566
多少	-10.5569
結解	-10.5572
殞	-10.5575
率	-10.5576
離一切	-10.5576
不妨	-10.5576
之義也	-10.558
育	-10.558
命終之後	-10.5581
廣果	-10.5581
貪愛	-10.5583
惜	-10.5585
為主	-10.5586
八百	-10.5587
應念	-10.5594
寂滅現前	-10.5596
當知是	-10.5599
枳孃	-10.5604
運心	-10.5604
遊戲	-10.5609
天地	-10.561
瞋恚	-10.5612
產	-10.5617
伏藏	-10.5618
釋成	-10.5629
不能自	-10.5634
三部	-10.5637
化佛	-10.564
物象	-10.5641
一切世界	-10.5643
八十六	-10.565
雪山	-10.5653
歸元	-10.5653
跛野	-10.5657
不分	-10.5658
成菩提	-10.5658
天帝釋	-10.566
能滅	-10.5666
佛土	-10.5666
又善男子	-10.5671
劫濁	-10.5672
大慧	-10.5674
諂	-10.568
本明	-10.5683
彩	-10.5686
三漸次	-10.5686
8	-10.5687
n	-10.5689
二處	-10.5691
亦不能	-10.5692
八十五	-10.5693
挽	-10.5693
同彼	-10.5701
四眾	-10.5702
四百	-10.5702
刃	-10.5707
身語心	-10.5712
藝	-10.5713
克	-10.5716
耽	-10.5719
若求	-10.5724
證知	-10.5725
佛部	-10.5727
戒律	-10.5727
秘	-10.5737
梟	-10.5739
之機	-10.5739
虧	-10.5745
擎	-10.5746
天下	-10.5747
九十八	-10.5753
綵	-10.5754
本妙	-10.5755
d	-10.5756
佛事	-10.576
而證	-10.576
勸請	-10.5767
陸	-10.577
取著	-10.5773
黏	-10.5776
實性	-10.5777
香氣	-10.578
案	-10.5785
直指	-10.5786
旋復	-10.5787
牒前	-10.5791
今汝	-10.5791
諸鬼神	-10.5802
妙真如性	-10.5808
立名	-10.5808
是呪	-10.5809
既盡	-10.5809
疫	-10.581
資中曰	-10.5811
燭	-10.5817
誹謗	-10.5817
八十九	-10.5824
末那	-10.5826
軫	-10.5826
高山	-10.5828
耳根圓通	-10.583
何謂	-10.5833
𪘨	-10.5834
可畏	-10.5834
依教	-10.5836
頌云	-10.5838
四陰	-10.584
慈氏	-10.5841
疲	-10.5848
u	-10.5858
釋迦牟尼如來	-10.5858
方是	-10.5865
下破	-10.5867
不動尊	-10.5876
囉惹	-10.5879
豈能	-10.5881
五輪	-10.5881
飢	-10.5883
觀世音菩薩摩訶薩	-10.5887
獨覺	-10.589
而為說法令其成就	-10.5908
聞聲	-10.591
妙淨	-10.5912
無上道	-10.5916
佇	-10.5917
九十三	-10.5917
極果	-10.5918
白佛	-10.5921
宿習	-10.5922
是物	-10.5922
本部	-10.5927
應云	-10.5933
出入息	-10.5945
一種	-10.5955
等者謂	-10.5961
世出世間	-10.5963
曼拏羅中	-10.5963
藥叉羅剎	-10.5974
三止	-10.5977
正見	-10.598
常說	-10.5988
唵阿	-10.599
總名	-10.6
初總	-10.6004
悉底	-10.601
假名	-10.6013
當觀	-10.602
令諸眾生	-10.6025
圓淨	-10.6028
拜	-10.6037
清水	-10.6044
灾	-10.6047
現量	-10.605
處處	-10.605
那由他	-10.6051
迦哩	-10.6051
冩	-10.6052
經典	-10.6054
殺盜	-10.6054
松	-10.6056
釧	-10.6057
宇	-10.6057
訛	-10.6059
亭	-10.6059
憶持	-10.6063
佛陀	-10.6065
賴耶	-10.6066
方可	-10.6067
迴心	-10.6072
復用	-10.6075
言教	-10.6077
形色	-10.6083
於佛前	-10.6085
身體	-10.6087
如來藏心	-10.6091
疾病	-10.6092
中陰	-10.6092
請問	-10.6093
研究	-10.6094
覺體	-10.6094
誦大明	-10.6102
內相叉	-10.6108
既云	-10.6115
共生	-10.6123
儒	-10.6127
別釋	-10.6127
遵	-10.6128
鹿	-10.613
金剛印	-10.6131
教法	-10.6132
一切鬼神	-10.6138
真言行	-10.6139
胃	-10.6142
娑羅	-10.6144
剛	-10.6148
吒吒	-10.6155
生住異滅	-10.6157
缽納麼	-10.6157
枚	-10.6165
一切真言	-10.6169
勝解	-10.6169
突	-10.617
坻	-10.6173
威光	-10.6176
暗中	-10.6182
金剛鉤	-10.6183
法藏	-10.6184
香臭	-10.6186
嘉	-10.6194
一劫	-10.6197
知味	-10.6201
考	-10.6202
燈明	-10.6204
咩	-10.6206
餅	-10.6209
假使	-10.621
法喻	-10.621
出離	-10.6218
阿那	-10.6221
西門	-10.6223
利樂	-10.6231
蜜㗚	-10.6235
南麼三曼多勃馱喃	-10.6236
雹	-10.6238
罪業	-10.624
窣覩	-10.6242
九十四	-10.6248
觀門	-10.6248
嚩怛他	-10.6254
皆屬	-10.6254
已上	-10.6257
洎	-10.6258
先明	-10.6259
諸人	-10.6259
受想	-10.6261
復告	-10.6263
三十二應	-10.6266
十二處	-10.6267
入定	-10.6267
予	-10.6268
於世間	-10.6269
屋	-10.627
職	-10.6272
除愈	-10.6274
扶	-10.6276
斷惑	-10.6281
雞囉夜彌	-10.6284
五欲	-10.6287
月八日	-10.6287
訓	-10.6297
寤寐	-10.6299
虛空藏	-10.63
應用	-10.63
本無所有	-10.6305
世界眾生	-10.6308
度脫	-10.6313
耳識	-10.6313
既巳	-10.6315
下云	-10.6317
離垢	-10.6319
得無生忍	-10.6321
長水曰	-10.6321
維	-10.6322
▁○	-10.6329
諸師	-10.6329
弓	-10.6333
圓妙	-10.6333
熱惱	-10.6341
徐	-10.6342
奮怒王	-10.6343
囉怛曩	-10.6348
齋戒	-10.635
大寶	-10.6353
其間	-10.6354
吒野	-10.6359
香爐	-10.6361
喜樂	-10.6366
成無上道	-10.6368
對待	-10.6369
淨除	-10.6372
湛明	-10.6373
栗	-10.6374
合掌恭敬	-10.6377
九十七	-10.6382
四字	-10.6387
睺	-10.6393
流注	-10.6395
罰	-10.64
妙湛	-10.6401
娑訶	-10.6404
富貴	-10.6404
成熟	-10.6404
逮	-10.6405
歸於	-10.6408
恚	-10.6409
因何	-10.641
晨朝	-10.641
變為	-10.6414
府	-10.6417
休息	-10.6418
日夜	-10.6424
長行	-10.6425
無還	-10.6431
閻浮	-10.6436
􂛶	-10.6442
此見精	-10.6443
貧窮	-10.6443
充滿	-10.6447
阿闍棃	-10.6447
慶喜	-10.6449
僕	-10.6451
下劣	-10.6452
惟一	-10.6463
本體	-10.6463
斷除	-10.6464
普照	-10.6466
嚩日哩	-10.6468
但能	-10.6471
囉怛那	-10.6478
推破	-10.6478
分位	-10.6482
利他	-10.6485
五指	-10.6487
楞	-10.6487
阿含	-10.6489
為宗	-10.649
而言之	-10.6492
嚩哩	-10.6492
吾今	-10.6496
其光	-10.6505
若實	-10.651
惡鬼	-10.6512
2	-10.6513
不生滅性	-10.6515
因聲	-10.6518
饑	-10.6519
仗	-10.652
徧十方界	-10.652
確	-10.6521
牆	-10.6522
佛意	-10.6524
眉	-10.6525
有三種	-10.6527
發現	-10.6529
末法	-10.6529
金剛智	-10.6532
丙	-10.6541
天像	-10.6546
那伽	-10.6548
色塵	-10.6552
恒河	-10.6554
藏識	-10.6557
唅	-10.6558
參合	-10.656
皇	-10.6561
遷變	-10.6563
器仗	-10.6565
圓滿菩提	-10.6571
聖凡	-10.6571
誦此陀羅尼	-10.6575
漸漸	-10.6576
精舍	-10.6581
祇陀林	-10.6582
壇法	-10.659
初句	-10.6591
片	-10.6594
冥諦	-10.6602
半月	-10.6602
王子	-10.6605
斡	-10.6611
悶	-10.6617
眾會	-10.6622
鳩	-10.6626
武	-10.6627
徑	-10.6627
無聲	-10.6628
佛知見	-10.663
佛問	-10.663
將欲	-10.6631
明淨	-10.6637
本經	-10.664
持地	-10.6642
呪法	-10.6652
菩提樹	-10.6656
一卷	-10.6657
西北	-10.6662
咽	-10.6665
解說	-10.6665
顏	-10.6671
釘	-10.6673
四隅	-10.6674
絡	-10.6674
如虗空	-10.6676
姹	-10.668
身內	-10.6695
流轉國土	-10.6697
正說	-10.6699
論曰	-10.6699
涯	-10.6702
無際	-10.6702
未悟	-10.6703
幸	-10.6706
法要	-10.6713
總是	-10.6717
聰	-10.6718
離一切相	-10.6735
迷真	-10.6753
作種種	-10.6753
瞪	-10.6768
算	-10.6772
無量光	-10.6776
霧	-10.6778
苦行	-10.6779
奉請	-10.6782
朱	-10.6785
奉持	-10.6787
歸真	-10.6788
念處	-10.679
左手執	-10.6793
八種	-10.6793
會通	-10.6795
誐嚩底	-10.6797
相待	-10.6799
花鬘	-10.68
雄	-10.6803
尋常	-10.6804
薪	-10.6806
忿怒明王	-10.6815
江	-10.6815
災難	-10.6816
奏	-10.682
竊	-10.682
如鉤	-10.6825
染著	-10.6828
非但	-10.6836
除去	-10.6851
圓湛	-10.6853
腑	-10.6856
正脈云	-10.6858
棒	-10.6858
作如是言	-10.6858
亢	-10.6869
經論	-10.6871
䛧	-10.6875
資中	-10.6875
下品	-10.6876
恒常	-10.6883
隳	-10.6884
三世諸佛	-10.6888
練	-10.6891
奚	-10.6891
權實	-10.6891
逾	-10.6892
何異	-10.6898
不能見	-10.6901
毗舍	-10.6911
世諦	-10.6916
依他	-10.6916
斷絕	-10.692
導師	-10.6926
非異	-10.6928
滑	-10.6929
矯	-10.6931
掘	-10.6931
五戒	-10.6933
識精	-10.6935
娑婆訶	-10.6935
壇上	-10.6942
云何知	-10.6945
屬於	-10.6953
有二義	-10.6953
優婆塞	-10.6959
遊行	-10.6959
右押左	-10.6971
勢力	-10.6971
三塗	-10.6972
猶是	-10.6976
妄念	-10.698
利根	-10.698
一精明	-10.6982
無限	-10.6985
繫縛	-10.6992
天衣	-10.6999
眾生界	-10.6999
工	-10.7
檢	-10.7
憍尸迦	-10.7002
如斯	-10.7004
無端	-10.7008
阿彌陀佛	-10.7013
𠆙	-10.7014
紫金	-10.7024
出三界	-10.7026
聖道	-10.7028
𢈔	-10.7033
迦樓羅	-10.7042
紀	-10.7042
戟	-10.7043
未證	-10.7047
怨家	-10.7051
地瑟恥	-10.7053
究竟堅固	-10.7063
渾濁	-10.7071
在家	-10.7072
哩抳	-10.7073
覺觸	-10.7074
蒸	-10.7077
決擇	-10.7078
羯吒	-10.708
僧問	-10.708
聖果	-10.7083
虞	-10.7085
逆流	-10.7088
四果	-10.709
胡麻	-10.7091
中節	-10.7093
分證	-10.7097
非因緣	-10.7098
更問	-10.7099
路迦	-10.7102
熾然	-10.7102
天宮	-10.7105
不爾	-10.7106
十方三世	-10.7107
巳滅	-10.7109
能斷	-10.7111
九品	-10.7111
身觸	-10.7112
了了	-10.7116
入其心腑	-10.7118
樹下	-10.7122
倫次	-10.7126
色目	-10.7126
光聚	-10.7128
丁以反	-10.713
出生死	-10.7131
優劣	-10.7135
變現	-10.7136
男子	-10.7136
巴	-10.7142
度生	-10.7148
宣示	-10.7148
右膝著地	-10.7153
旅	-10.7157
清明	-10.7158
震動	-10.7164
圓常	-10.7164
妙德	-10.7167
e	-10.7172
不共	-10.7173
㫊暮伽	-10.7174
彼岸	-10.7176
又何	-10.7183
十萬	-10.719
陀羅尼呪	-10.7192
馬頭	-10.7192
夭	-10.7193
文句	-10.7213
未甞	-10.7225
阿難陀	-10.723
謎	-10.7232
邑	-10.7235
耨	-10.7236
畢竟無體	-10.7242
達囉	-10.7243
肥	-10.7245
遍一切處	-10.7248
如何是	-10.725
匝	-10.7252
今何	-10.7257
惑業	-10.7264
啞	-10.7265
滿月	-10.7268
入佛知見	-10.727
繒	-10.7273
無量功德	-10.7276
不惟	-10.7278
方能	-10.728
阿毘	-10.7281
或可	-10.7282
鎮	-10.7286
捏	-10.7287
鹹	-10.7291
經歷	-10.7295
如虛空	-10.7297
三十三天	-10.7299
捐	-10.7308
大明王	-10.7313
作佛事	-10.7313
紹	-10.7318
妙樂	-10.7318
掩	-10.7318
結跏趺坐	-10.7319
政	-10.7319
鍾	-10.7325
尚有	-10.7328
厭離	-10.7341
病苦	-10.7342
證菩提	-10.7345
五體投地	-10.7349
寶幢	-10.7352
剎土	-10.7353
永無	-10.7355
漂	-10.7357
菴	-10.736
愛敬	-10.7361
光照	-10.7361
三七日	-10.7363
塢	-10.7365
不止	-10.7378
逝	-10.7382
餘皆	-10.7395
那律	-10.7401
氐	-10.7408
無記	-10.7408
乾慧地	-10.7414
菩薩戒	-10.7415
遠近	-10.7419
東北	-10.742
胝	-10.7422
應供	-10.7426
毛端	-10.7442
入道場	-10.7447
智力	-10.745
準前	-10.7455
佛像	-10.7458
入一切如來	-10.7458
第六識	-10.7458
城中	-10.7464
面目	-10.7474
候	-10.7479
卜	-10.7479
各別	-10.748
天帝	-10.7481
騐	-10.7482
廣明	-10.7485
皆如來藏	-10.7489
十方虗空	-10.7493
句義	-10.7499
陰陽	-10.75
真精	-10.7501
坐道場	-10.7501
鍊	-10.7503
微塵數	-10.7511
沐浴	-10.7514
纏縛	-10.7519
誐誐曩	-10.7521
為一體	-10.7527
耳門	-10.7535
雜染	-10.7545
嬭	-10.7548
營	-10.7551
便得	-10.7555
纖	-10.7558
茫	-10.7565
舉喻	-10.7566
水陸	-10.7566
爭	-10.7567
界內	-10.7568
警覺	-10.7573
檀慧	-10.7575
補註曰	-10.7578
三股	-10.7581
所招	-10.7583
伺	-10.7594
阿難當知	-10.7594
勘	-10.7595
瞢	-10.7597
刀兵	-10.7597
餉	-10.7598
侶	-10.76
不祥	-10.7602
摧伏	-10.762
一切諸佛菩薩	-10.7621
畢竟無	-10.7623
粘	-10.7628
肇	-10.7634
姥	-10.7635
欝金	-10.7637
換	-10.7641
掃	-10.7642
如意珠	-10.7642
事理	-10.7642
曾無	-10.7645
設咄嚕	-10.765
顯密	-10.7652
闊	-10.7652
不空王	-10.7657
神鬼	-10.7668
十四日	-10.7669
入壇	-10.7671
本願	-10.7673
淨戒	-10.7675
財物	-10.7678
墨	-10.7682
離苦	-10.7682
惡星	-10.7683
種性	-10.7687
種種供養	-10.7687
遂成	-10.7695
分齊	-10.7695
了達	-10.7705
旃檀	-10.7707
誐嚩帝	-10.771
作壇	-10.7714
鼻根	-10.7714
艾	-10.7715
焦	-10.7722
軍荼利	-10.7723
同居	-10.7726
崩	-10.7728
分為二	-10.7732
十力	-10.7743
咸皆	-10.7747
圓鏡	-10.7753
麼努	-10.7754
弄	-10.7757
微笑	-10.7759
理智	-10.7761
身口	-10.7761
圓根	-10.7764
生於世間	-10.7769
不被	-10.7785
凶	-10.7789
能詮	-10.7794
微屈	-10.78
淨菩提心	-10.7801
器世間	-10.7804
妙蓮華	-10.781
恭	-10.7811
燈光	-10.7812
富那	-10.7816
無差別	-10.7827
榮	-10.783
複	-10.7838
頞	-10.7839
悟則無咎	-10.784
結顯	-10.7841
流入	-10.7842
熏習	-10.7846
食肉	-10.7847
位次	-10.7862
文義	-10.7862
中央	-10.787
虜	-10.7872
畫作	-10.7877
鉢底	-10.7878
毛孔	-10.788
虛空界	-10.7882
歡	-10.7882
意生身	-10.7885
巳盡	-10.7893
安悉香	-10.7895
遞相	-10.7902
所觸	-10.7905
一切智智	-10.7905
神我	-10.791
慈力	-10.7914
妄習	-10.7914
陰魔	-10.7915
醍醐	-10.7915
鉢訥摩	-10.792
廓	-10.7922
無憂	-10.7923
髑髏	-10.7924
幽隱	-10.7927
卍	-10.7928
龜	-10.793
廟	-10.793
採	-10.7932
羝	-10.7932
㧊	-10.7947
一切煩惱	-10.7955
所計	-10.796
汝今諦聽	-10.7964
入流亡所	-10.7964
迦攞	-10.7966
黑暗	-10.797
徧滿	-10.798
不可見	-10.7986
縱有	-10.7993
缾	-10.7995
淨居	-10.7996
挃	-10.7997
針	-10.8
牢	-10.8004
不絕	-10.8005
尾戍	-10.8005
孝	-10.8006
愁	-10.8011
安布	-10.8014
妄本	-10.8016
爾時世尊告	-10.8016
綠	-10.8018
羯羅	-10.8024
所須	-10.8025
依止	-10.8027
魔境	-10.8036
帝釋天	-10.804
▁三結	-10.8043
渾	-10.8046
手足	-10.8047
若有善男子善女人	-10.8047
相捻	-10.805
八萬	-10.8051
摩醯首羅	-10.8056
脈	-10.8057
腦	-10.8062
華鬘	-10.807
那莫	-10.8076
亦須	-10.8087
台	-10.8091
修三摩地	-10.8107
隨其所	-10.8113
是人墜入	-10.8124
速得成就	-10.8126
真言行者	-10.8127
成其伴侶	-10.8132
措	-10.8132
隨類	-10.8136
如空華	-10.8137
嚴身	-10.8141
炬	-10.8143
療	-10.8143
帝那	-10.8145
得阿羅漢	-10.8158
執金剛祕密主	-10.8172
相拄	-10.8177
觀自在菩薩摩訶薩	-10.818
汦	-10.8183
緣影	-10.8196
首楞嚴王	-10.821
初標	-10.8217
凡所	-10.8218
真言門	-10.822
未來世	-10.822
非非想	-10.8222
又以此心	-10.8226
從根	-10.8228
淨穢	-10.823
遠行	-10.8244
胎藏	-10.8245
觸塵	-10.8251
月輪中	-10.8255
伎	-10.8261
鑛	-10.8261
拔濟	-10.8266
船	-10.8275
學人	-10.8277
冤家	-10.8283
正宗	-10.8285
甄	-10.8294
駄	-10.8303
四肘	-10.8305
苦海	-10.8306
講堂	-10.8307
沈水香	-10.831
岐路	-10.8311
啼	-10.832
是人罪畢	-10.8322
未曾有	-10.8326
囉闍	-10.8329
既爾	-10.833
末劫	-10.8332
土木	-10.8338
狂華	-10.8342
是故阿難	-10.8343
諸善男子	-10.8344
浮根四塵	-10.8344
□□	-10.835
而不休息	-10.8352
誅	-10.8355
臨終	-10.8362
千二百	-10.8366
祿	-10.8367
教授	-10.8378
諸外道	-10.8391
鬼魅	-10.8392
叵	-10.8392
競	-10.8395
㳷	-10.8395
隙	-10.8396
誣	-10.8398
祠	-10.8399
目連	-10.8414
4	-10.8418
之辭	-10.8426
轉輪	-10.8426
正遍知	-10.8429
破和合	-10.8432
那庾多	-10.8433
六解一亡	-10.8435
山林	-10.844
殃	-10.8441
猪	-10.8442
表示	-10.8453
5	-10.846
聰明	-10.8467
尾曩	-10.8468
因明立所	-10.8472
由此計度	-10.8474
〕〔	-10.8477
變滅	-10.8479
伹	-10.849
誐拏	-10.849
謨伽	-10.8496
桑	-10.8499
無所依	-10.8508
自恣	-10.8517
本如來藏妙真如性	-10.8518
轉輪王	-10.8521
高下	-10.8529
區	-10.8529
脣	-10.8531
呈	-10.8535
解釋	-10.8537
相背	-10.8538
聖智	-10.854
十二類	-10.8541
有四種	-10.8542
奎	-10.8553
婆伽梵	-10.8558
忿	-10.8569
頻那夜迦	-10.8572
專注	-10.8574
陣	-10.8574
妙覺明心	-10.8576
徧法界	-10.8577
永離	-10.8577
從無始來	-10.8586
c	-10.8593
巖	-10.8595
十法界	-10.8601
汙	-10.8603
六道眾生	-10.8606
幖幟	-10.8606
不能害	-10.8609
剎利	-10.8613
雅	-10.8616
潭	-10.862
席	-10.8634
變異	-10.8637
莎嚩	-10.8641
殺害	-10.8642
如來所說	-10.8648
𠸪乞义	-10.8652
庫	-10.8655
婢	-10.8663
虔	-10.8663
眉間	-10.8664
即時如來	-10.8664
放大光明	-10.8666
虎狼	-10.8667
無差	-10.8667
價	-10.8669
供具	-10.8673
雜色	-10.8676
他物	-10.8682
偈曰	-10.8686
薩哩斡	-10.8688
不肯	-10.8689
恨拏	-10.8697
鑄	-10.8703
不染	-10.8703
得大自在	-10.8705
奇特	-10.8706
此佛所說	-10.8708
鐸	-10.8712
悉皆消滅	-10.8715
并諸眷屬	-10.8715
杓	-10.8722
牛黃	-10.8731
暗室	-10.8733
乳酪	-10.8734
祖曰	-10.8737
涅哩	-10.8742
籌	-10.8745
魍魎	-10.8747
▁2	-10.875
旱	-10.8753
取捨	-10.8756
阿脩羅	-10.8757
填	-10.8757
十二因緣	-10.8762
專心	-10.8763
盡無餘	-10.877
即從座起頂禮佛足而白佛言	-10.8774
瓢	-10.8777
內院	-10.878
𦴭	-10.8784
童真	-10.8784
瑜	-10.8787
人非人等	-10.8793
結加趺坐	-10.8796
而為上首	-10.8796
宿債	-10.8799
大勢至	-10.8799
月十五日	-10.88
放逸	-10.8801
無所畏	-10.8801
祐	-10.8803
大梵天王	-10.8803
)。(􂨲	-10.881
第二月	-10.8813
恥	-10.8813
儀則	-10.883
恭敬供養	-10.8831
方位	-10.8836
白月	-10.8838
無戲論	-10.8841
倣	-10.8841
兜率	-10.8843
枝葉	-10.8843
噁	-10.8844
勉	-10.8844
乍	-10.8847
敷座說法	-10.8847
擣	-10.8851
永滅	-10.8865
嚩日羅	-10.8866
百寶	-10.8868
潛根	-10.8871
舌識	-10.8872
反下同	-10.8876
辟支	-10.8876
志心	-10.8878
窮生類本	-10.888
脾	-10.888
諱	-10.8886
詢	-10.8887
大日如來	-10.8887
皆大歡喜	-10.8888
又彼定中諸善男子	-10.8891
然燈	-10.8894
游	-10.8898
𡆆	-10.8904
不曾	-10.8905
黑月	-10.8907
目佉	-10.8908
白檀	-10.892
提婆	-10.8922
䭾野	-10.8924
身而為說法	-10.8931
紐	-10.8935
一切諸天	-10.8937
悲愍	-10.8937
懈怠	-10.8939
荒	-10.8939
肝	-10.8939
諮	-10.8941
瞋怒	-10.8942
爍	-10.8944
庭	-10.8945
大阿羅漢	-10.8949
所覆	-10.8962
般若波羅蜜多	-10.8963
動念	-10.8966
無遺	-10.8971
以何為	-10.8973
無同異	-10.8979
刑	-10.8987
見濁	-10.8991
叫	-10.8991
僧祇	-10.8991
願力	-10.8997
山王	-10.8998
搵	-10.8999
徧圓	-10.9009
釋迦牟尼	-10.9009
熏修	-10.9009
主宰	-10.9012
永不	-10.9017
流布	-10.9019
李	-10.902
舟	-10.9035
四天下	-10.904
祕藏	-10.9042
)。(􂨰	-10.9044
若謂此	-10.9045
萬億	-10.9047
怛哩	-10.9056
極微	-10.9057
倦	-10.907
八千遍	-10.9073
非無想	-10.9077
聽聞	-10.908
命濁	-10.9081
頑空	-10.9084
能除一切	-10.9084
椀	-10.9086
詵	-10.9088
酒肉	-10.9097
密語曰	-10.9101
身語意	-10.9112
奉詔譯	-10.9112
音樂	-10.9113
如來應正等覺	-10.9118
匿	-10.9121
鬼王	-10.9124
才	-10.9127
逃	-10.9129
閒	-10.9131
苑	-10.9133
手掌	-10.9135
勤修	-10.9136
㫊	-10.9143
種種莊嚴	-10.9145
福智	-10.9151
仁王	-10.9152
陰入處界	-10.9162
歇即菩提	-10.9163
墮地獄	-10.9164
恬	-10.9167
貞	-10.9167
於頂上	-10.9172
謹	-10.9172
樞	-10.9177
真際曰	-10.9182
湛圓	-10.9196
大梵天	-10.9204
忉利天	-10.9216
善現	-10.9217
墮落	-10.9219
一千八	-10.922
緒	-10.9222
閱	-10.9225
冬	-10.9226
煩惱障	-10.9235
酥蜜	-10.924
總攝	-10.924
奉教	-10.9243
周圓	-10.9243
ra	-10.9245
能摧	-10.9253
深信	-10.9254
泛	-10.9262
捷	-10.9262
臘	-10.927
婦人	-10.9272
怛姪他	-10.9275
仡	-10.9275
如前說	-10.9275
外院	-10.9276
精勤	-10.9276
萬劫	-10.9278
紇	-10.9281
起首	-10.9286
鄰虗	-10.9298
彌勒菩薩	-10.9303
苾芻	-10.9305
族姓	-10.9312
功力	-10.9313
享	-10.9316
為復因	-10.9316
瞿曇	-10.9316
悋	-10.9319
替	-10.9319
理趣	-10.9319
巳滅生滅	-10.932
西域	-10.9323
退散	-10.9324
分析	-10.9326
萬德	-10.9328
十年	-10.9333
6	-10.9337
天趣	-10.9347
真俗	-10.9354
狀如	-10.9356
資糧	-10.9358
本無生滅	-10.9362
醜	-10.9362
阿僧祇	-10.9362
座下	-10.9363
絞	-10.9363
肉身	-10.9369
甜苦	-10.9371
波旬	-10.9372
是故應知	-10.9372
數數	-10.9376
鑪	-10.9379
娑曩	-10.9397
幢幡	-10.9401
未嘗	-10.9406
蓮華座	-10.9407
艱	-10.9418
𡁠	-10.942
往詣	-10.942
香嚴	-10.9422
華屋	-10.9423
牛糞	-10.9424
妄認	-10.9432
誦三遍	-10.9434
相貌	-10.9434
屹	-10.9436
娑婆世界	-10.9436
慧命	-10.9444
性覺妙明	-10.9447
那羅延天	-10.946
轉大法輪	-10.9464
滴	-10.9464
右手執	-10.9466
峰	-10.9482
及諸菩薩	-10.9486
k	-10.9486
▁一正	-10.9488
純真	-10.9495
妄為明覺	-10.9499
籍	-10.95
四科	-10.9501
魃	-10.9504
輝	-10.9507
秦	-10.9508
蚊	-10.9508
半加趺坐	-10.9509
四加行	-10.9511
折囉	-10.9511
拭	-10.9512
至等覺	-10.9522
嗚	-10.9531
辣	-10.9535
葛哩	-10.9539
)􂏖(	-10.9547
陳那	-10.9549
莫能	-10.9551
衍	-10.9554
離塵無體	-10.9556
得少為足	-10.9558
淪溺	-10.9559
金剛合掌	-10.9566
煩惱根本	-10.96
曼拏羅印三昧耶	-10.9601
殊不知	-10.9602
六種震動	-10.9602
非有想	-10.9605
魑魅	-10.9607
根身器界	-10.9608
溢	-10.961
宛轉	-10.961
滿馱	-10.9613
司	-10.9614
普賢行	-10.9616
曹	-10.9618
略舉	-10.9627
不昧	-10.9629
仇	-10.9633
金石	-10.9633
旃陀羅	-10.9635
愛染	-10.9635
瑟抳	-10.9639
之謂也	-10.9649
晉	-10.9651
闡提	-10.9655
壅	-10.9657
怨敵	-10.9659
本覺妙明	-10.9664
曼陀羅	-10.9666
渠	-10.9667
千里	-10.9669
賒	-10.9669
江河	-10.9673
閇	-10.9675
三昧耶印	-10.9675
斡資囉	-10.9677
忘失	-10.9684
7	-10.9685
末二句	-10.9686
邪思	-10.9697
俾	-10.9707
於大眾中	-10.9707
睡眠	-10.9709
閣	-10.971
徵起	-10.9712
溼	-10.9716
煉	-10.9719
積集	-10.9721
奢摩他路	-10.9726
娜野	-10.9737
鈍根	-10.974
不空如來藏	-10.9742
過患	-10.9744
滿怛囉	-10.9746
摶	-10.9752
泊	-10.9758
達哩	-10.9766
)。(○	-10.9785
思議	-10.9789
獻閼伽	-10.9791
蘇悉地	-10.9792
戌	-10.9803
易知	-10.9804
櫱帝	-10.9808
長跪	-10.9808
如實知	-10.9813
是故十方一切如來	-10.9813
」【	-10.9821
迦葉波	-10.9825
右手持	-10.9828
因緣和合	-10.9828
誦七遍	-10.9838
劑	-10.9852
鋒	-10.9854
古德	-10.9855
輻	-10.986
無量百千	-10.9863
迫	-10.9864
漿	-10.9866
清潔	-10.9867
不能為害	-10.987
祀	-10.9873
既銷	-10.9877
照了	-10.9883
木佉跛哩嚩	-10.9883
並竪	-10.99
初二句	-10.9901
部主	-10.9904
無想天	-10.9906
京	-10.9909
生勝解者	-10.9909
戾	-10.9913
擾亂	-10.9916
管	-10.9917
呪一百八遍	-10.9918
絹	-10.9919
鄧	-10.9923
及諸大眾	-10.9945
紇㗚	-10.9946
等無差別	-10.9947
不免	-10.9952
荊	-10.9955
蛔	-10.9959
忌	-10.9959
破佛律儀	-10.9963
違越	-10.9964
鬱	-10.9966
壯	-10.9967
左手持	-10.9969
盞	-10.9979
額上	-10.9986
昴	-10.9993
得成菩提	-11.0004
以是義故	-11.0009
蹋	-11.0009
無始來	-11.0016
爽	-11.0016
毒蛇	-11.0032
捫	-11.0034
个	-11.0035
壇內	-11.0052
拒	-11.0054
如汝所言	-11.0061
竅	-11.0064
見非是見	-11.0066
堅執	-11.0076
尾灑	-11.0077
領納	-11.0081
東門	-11.0081
世間出世間	-11.0082
癹吒	-11.0086
蘗	-11.0089
旃	-11.0095
首楞嚴經	-11.0101
寧有方所	-11.0105
効	-11.0114
癘	-11.0114
宣揚	-11.0121
降魔	-11.0131
世間無知	-11.0135
智論云	-11.0137
卵生	-11.0137
千歲	-11.0137
如第二月	-11.0139
焚燒	-11.0148
佛法僧	-11.0152
尸羅	-11.0153
在大眾中	-11.0165
寅	-11.0165
付囑	-11.0169
零	-11.0172
能令眾生	-11.0173
城邑	-11.0175
謀	-11.0177
無優劣	-11.018
洞然	-11.0183
隣虗	-11.0194
猛利	-11.0195
勤勇	-11.0213
無所著	-11.0215
增減	-11.0218
匠	-11.0219
作金剛拳	-11.0221
二十五聖	-11.0222
真珠	-11.0222
掣	-11.0222
囇	-11.0223
誕	-11.0223
市	-11.0228
柯	-11.023
風吹	-11.0233
十方一切諸佛	-11.024
般涅槃	-11.0241
有所得	-11.0244
摩訶薩埵	-11.0264
生死涅槃	-11.0275
阿耨	-11.0276
諸佛所說	-11.0276
商佉	-11.0277
鳩槃茶	-11.0277
炙	-11.028
瞬	-11.028
銷殞	-11.028
罵	-11.0284
色受想	-11.0288
星宿	-11.0288
苾	-11.0289
亦不可得	-11.0294
煩惱濁	-11.0295
五十五位	-11.0295
賀曩賀曩	-11.0298
權小	-11.03
溈	-11.03
va	-11.0305
洹	-11.0328
鬪	-11.0328
曠野	-11.0328
棘	-11.0331
驢	-11.0333
鉗	-11.0337
裹	-11.0338
得安樂	-11.0343
虛空藏菩薩	-11.0354
無邊際	-11.0363
魔軍	-11.0372
唾	-11.0376
馳走	-11.0382
醒	-11.0386
耄	-11.0387
綺	-11.0387
鈎	-11.039
掬	-11.0393
功夫	-11.0395
瑟拏	-11.0396
骨嚕	-11.0412
羯哩	-11.0412
肯	-11.0413
拇指	-11.0414
長老	-11.0414
非和非合	-11.0425
倐	-11.0428
舜若多	-11.0429
無上正等菩提	-11.0431
瓦礫	-11.0431
攸	-11.0431
偏袒右肩	-11.0433
積聚	-11.0435
皷	-11.0437
嚼	-11.0437
無二無別	-11.0437
亦言自得無上涅槃	-11.0437
檀越	-11.0442
糖	-11.0448
百歲	-11.0454
矩嚕矩嚕	-11.0462
悅意	-11.0462
宰	-11.0478
見與見緣	-11.0478
津	-11.049
泰	-11.049
筋	-11.049
颯	-11.0491
屠	-11.0492
一日一夜	-11.0492
姪	-11.0494
兆	-11.0496
唯願世尊	-11.0507
維摩	-11.0508
嚴淨	-11.0514
𠯆	-11.0519
䭾𩕳	-11.0519
華嚴云	-11.052
飲酒	-11.0535
呼召	-11.0536
迅	-11.0537
大圓鏡智	-11.0539
識精元明	-11.0542
以為其本	-11.0543
鑽	-11.0546
怛他揭多	-11.0556
跋日囉	-11.0573
▁|□	-11.0575
二百五十	-11.0584
宴	-11.0593
聲香味觸	-11.0594
抽	-11.0598
淨居天	-11.0605
海印云	-11.0605
浮根	-11.0607
惱害	-11.0607
㲲	-11.0609
一百二十	-11.061
隋	-11.0612
白傘蓋	-11.0616
這一節經世尊	-11.0627
五無間	-11.0631
刳	-11.0643
少許	-11.0646
傘	-11.0657
悲仰	-11.0658
為翼從	-11.0659
飛精附人	-11.0662
沸	-11.0664
保持	-11.0664
未到	-11.0676
乞史	-11.0681
秫第	-11.0686
想陰盡	-11.0686
唧多	-11.0687
紅色	-11.0695
鐘聲	-11.0697
爇	-11.0699
演若達多	-11.0701
福慧	-11.0704
毗婆舍那	-11.0706
救度	-11.071
歟	-11.0711
拍	-11.0711
鬪諍	-11.0712
憾麼	-11.0718
儼	-11.0719
超過	-11.072
窣	-11.0721
富樓那言	-11.0723
埋	-11.0724
衛護	-11.0725
風雨	-11.0726
起信云	-11.0728
海會	-11.0732
資中云	-11.0738
訖唎擔	-11.0741
瘴	-11.076
優婆夷	-11.0763
暫得如是	-11.0765
澀	-11.0765
惶	-11.0766
絕待	-11.0767
剃	-11.0767
塊	-11.0768
緩	-11.0769
不也世尊	-11.0769
髓	-11.077
工夫	-11.0774
端坐	-11.0788
毘沙門	-11.0788
勝劣	-11.08
悉馱	-11.0811
諷	-11.0811
囉曷	-11.0812
若欲成就	-11.0815
白檀香	-11.0817
靡不	-11.0818
誦一遍	-11.0823
靂	-11.0824
醉	-11.0825
二別示	-11.0827
茅	-11.0829
初又二一	-11.0854
香湯	-11.0854
目呿波利簸梨	-11.0855
而說偈言	-11.0862
櫱底	-11.0865
嗅	-11.0869
剩	-11.087
慰	-11.087
堅牢	-11.0871
見相二分	-11.0875
村	-11.0883
菜	-11.0884
諭	-11.0885
嘮	-11.0894
四大天王	-11.0895
驅使	-11.0909
納受	-11.0914
蛻	-11.0922
〕-【	-11.0927
忍辱	-11.0932
隸	-11.0932
招引惡果	-11.0933
躬	-11.0935
因陀羅	-11.0939
垂範	-11.094
窒	-11.0944
)􂉄(	-11.0961
在身內	-11.0963
三摩曳	-11.0965
交蘆	-11.0978
那羅延	-11.0982
炤	-11.0989
青黃赤白	-11.0989
斬	-11.0997
部母	-11.0999
徙	-11.1
髀	-11.1
層	-11.1003
習漏	-11.1005
捺哩	-11.1015
暉	-11.1034
解孤山曰	-11.1044
富單那	-11.1045
適悅	-11.1047
策	-11.105
燒安悉香	-11.1052
毖	-11.1056
這一節經承前	-11.106
當知是人	-11.1066
蠱毒	-11.1067
▁△	-11.107
龍女	-11.1081
棄捨	-11.1084
性真圓融	-11.1094
:	-11.1096
寢	-11.1104
秉	-11.1104
搏	-11.1105
曩莫三曼多沒馱	-11.1109
鬚	-11.111
筏	-11.1111
楚	-11.1112
遜	-11.1116
𡀔	-11.1122
話	-11.1125
勤苦	-11.1133
垂手	-11.1134
聲呼	-11.1134
芽	-11.1142
臟	-11.1158
口中好言	-11.1162
糜	-11.1163
㝹	-11.1167
娑囉娑囉	-11.1187
誐哆	-11.1209
僊	-11.1213
晦昧	-11.1214
贍部洲	-11.1221
旗	-11.1225
縱廣	-11.1229
拔苦	-11.123
合掌頂禮	-11.123
洒	-11.123
落叉	-11.1232
桃	-11.1233
)。(􂨯	-11.1234
所知障	-11.1236
雄黃	-11.1244
如針	-11.125
幽暗	-11.1259
百千萬	-11.1261
亦復不	-11.1263
長養	-11.1276
止息	-11.1276
三處都無	-11.1279
舜	-11.1279
叱	-11.1284
吽發吒	-11.1285
緣塵分別	-11.1289
背涅槃城	-11.1289
稻穀	-11.1289
隆	-11.1293
互融	-11.1294
青蓮華	-11.1296
罐	-11.1298
癹	-11.13
遞	-11.1312
勤求	-11.132
見見非見	-11.1328
師子吼	-11.1328
限量	-11.1331
持真言者	-11.1345
柘	-11.1345
膚	-11.1347
憎愛	-11.1351
㡧	-11.1351
從緣生	-11.1365
異熟	-11.1369
毗陀夜闍瞋陀夜彌	-11.1377
圓通本根	-11.139
崖	-11.139
植	-11.1392
輒	-11.1392
呪詛	-11.1394
軀	-11.1397
料	-11.1397
霽	-11.1398
偃	-11.1398
瞿摩夷	-11.14
衢	-11.1402
插	-11.1405
一真法界	-11.1405
咤	-11.1407
油麻	-11.1417
東西	-11.1425
􂏩	-11.1428
銷亡	-11.1436
照耀	-11.1441
一切種智	-11.1449
定性聲聞	-11.1457
庸	-11.1458
紆	-11.1463
皈	-11.1465
燄	-11.1469
面向東	-11.1473
無間獄	-11.1486
兮	-11.1486
祖師	-11.1498
總徵	-11.1501
輙	-11.1511
茂	-11.1514
變壞	-11.1515
暖	-11.1517
狼	-11.1522
滿多沒馱	-11.1525
抵	-11.1525
石蜜	-11.1527
三種相續	-11.1527
受陰虗妙	-11.1527
進退	-11.1534
天龍藥叉	-11.1555
賛	-11.1555
觀彼幽清常擾動元	-11.1563
不變隨緣	-11.1566
唯心所現	-11.1572
牛乳	-11.1573
性淨明體	-11.1576
闡	-11.1578
洪	-11.1579
暴流	-11.158
個	-11.1595
五股	-11.1596
勑	-11.1626
又善男子窮諸行空	-11.163
死後有相	-11.1633
目犍連	-11.1637
楊	-11.1649
痴	-11.1652
保護	-11.1654
跢姪他	-11.1654
翻譯	-11.1675
一切罪障	-11.1678
俱無處所	-11.168
三緣斷故	-11.1686
輕舉	-11.1688
摸	-11.1692
鎔	-11.1694
洗滌	-11.1695
唯改	-11.1701
賣	-11.1703
一門深入	-11.1704
珂	-11.1706
研窮	-11.1717
惡夢	-11.1729
辟	-11.1731
如來密因	-11.1732
進趣	-11.1736
婬女	-11.1753
陶	-11.1755
慚愧	-11.1756
生滅既滅	-11.1756
禱	-11.176
殑伽沙	-11.176
熱病	-11.1761
澡	-11.1765
股	-11.1769
百千萬億	-11.177
錫	-11.177
無實體	-11.1797
娑頗	-11.1798
戒定慧	-11.1807
埵	-11.1818
費	-11.182
淵	-11.182
交遘	-11.1821
槩	-11.1822
威怒	-11.1822
愚鈍	-11.1822
刀杖	-11.1824
粥	-11.1825
福田	-11.1827
寔	-11.1827
善友	-11.1831
審諦	-11.1842
𠻴	-11.1842
愍念	-11.1844
呪術	-11.1849
勃陀	-11.186
其手印相	-11.1863
隨緣不變	-11.1872
首楞	-11.1874
吽泮吒	-11.1877
俟	-11.1878
朽	-11.1883
照曜	-11.1883
熙怡	-11.1883
殑	-11.1885
臭穢	-11.1887
縣	-11.1889
六根互用	-11.189
阿鼻地獄	-11.189
質礙	-11.1892
鉢娜麼	-11.1895
苗稼	-11.1896
俱舍云	-11.1908
覩嚕覩嚕	-11.1909
納婆	-11.1913
瑟致	-11.1924
􂉗	-11.1925
龍樹	-11.1928
貝	-11.1944
郭	-11.1946
月一日	-11.1948
鄉	-11.1952
傘蓋	-11.1952
怕	-11.1953
渴仰	-11.1954
摧碎	-11.196
妻子	-11.1965
誐挽	-11.1977
跋陀	-11.1995
操	-11.2003
善逝	-11.201
闥	-11.2014
規	-11.2016
飄	-11.2017
嚩囉拏	-11.2017
融室云	-11.2018
藥叉大將	-11.2021
柏	-11.2022
仡哩	-11.2023
穆佉	-11.2033
唬	-11.2038
何藉	-11.2044
同分妄見	-11.2065
聞思修	-11.2067
中指無名指	-11.2069
色究竟天	-11.2071
有佛出世	-11.2072
讒	-11.2075
𠺁	-11.2076
黃金	-11.2076
盧舍那	-11.2078
兄	-11.2079
囒	-11.2091
三結示	-11.2098
得除滅	-11.21
夜叉羅剎	-11.21
福聚	-11.2108
腫	-11.2123
久遠	-11.2123
何關汝入	-11.2126
挍	-11.2129
裝	-11.2138
啞吽	-11.214
聞佛所說	-11.2147
封	-11.2149
無數劫	-11.2149
審詳	-11.2153
準提	-11.2162
入無間獄	-11.2163
作麼生	-11.2171
娜謨	-11.2178
故以為名	-11.2187
根塵識三	-11.2188
別業妄見	-11.2189
而於寂滅精妙未圓	-11.219
困	-11.2197
膿	-11.2204
阿那含	-11.2206
末法之中	-11.2206
詩	-11.2207
築	-11.2208
十四無畏	-11.2211
效	-11.2211
􂏔	-11.2212
香水海	-11.2213
磔	-11.2213
豁然	-11.2214
緫	-11.2221
敷演	-11.2226
景	-11.2251
濘	-11.2251
色香味觸	-11.2261
惑菩提性	-11.2263
婦女	-11.2266
奮	-11.2267
微密觀照	-11.2267
躭	-11.227
圓定發明	-11.2275
間錯	-11.2277
嗣	-11.2277
毒害	-11.2296
禮敬	-11.2297
又汝所明	-11.231
元是菩提妙淨明體	-11.2311
相織妄成	-11.2312
了不可得	-11.2317
》	-11.2317
日月燈	-11.2318
睛	-11.2324
除蓋障	-11.233
增上慢	-11.2331
於其中間	-11.2332
金剛密迹	-11.2334
暇	-11.2335
肢	-11.2336
安立道場	-11.2343
耻	-11.2344
香鑪	-11.2347
仰掌	-11.2355
徃	-11.236
反下同音	-11.2362
奮迅	-11.2381
生汝妄能	-11.2384
斤	-11.2384
亡者神識	-11.2385
東西南北	-11.2386
百千俱胝	-11.2387
跏趺	-11.2388
撞	-11.239
貪瞋癡	-11.239
金翅鳥	-11.2391
鄰	-11.2392
跏	-11.2394
又法欲	-11.2394
踐	-11.2397
撰	-11.2398
促	-11.2399
墻	-11.2399
阿蜜哩	-11.2403
跋捺囉	-11.2423
二手合掌	-11.2425
母捺囉	-11.2434
餓	-11.2437
酉	-11.2445
穌	-11.2448
所既妄立	-11.2449
世尊大毘盧遮那如來	-11.2456
奉送	-11.2464
窺	-11.2465
晃	-11.2466
欝	-11.2469
口說經法	-11.2473
象馬	-11.2476
清淨本然周徧法界	-11.2505
目睛	-11.2518
燧	-11.2521
降臨	-11.2522
作是語巳	-11.2523
當為汝說	-11.2524
妹	-11.2526
難陀龍王	-11.2529
骸	-11.2533
波斯匿王	-11.2538
周遍法界	-11.254
韈	-11.2553
􂢄	-11.2558
婀	-11.2572
域	-11.2581
歌詠	-11.2591
摩睺羅伽	-11.2591
火不能燒	-11.2592
篇	-11.26
容貌	-11.2602
燥	-11.2606
當從淪墜	-11.2608
利養	-11.263
更非他物	-11.2645
楞嚴大定	-11.2649
室羅筏	-11.2657
詶	-11.2659
軟	-11.2659
樹枝	-11.2664
械	-11.2665
趺	-11.2666
臨命終時	-11.2666
澄清	-11.2672
簸	-11.268
二種根本	-11.2684
頂上散	-11.2688
薄伽	-11.2702
暢	-11.2722
為同為異	-11.2723
迷惑不知墮無間獄	-11.2725
威猛	-11.2727
姑	-11.2728
垣	-11.2729
厥	-11.273
函	-11.273
枷鎖	-11.2732
衡	-11.2733
撥無因果	-11.2735
每日三時	-11.2737
長短	-11.2741
生滅去來	-11.2778
㡧像	-11.2781
虹	-11.2782
皆是識心分別計度	-11.2785
􂗶	-11.2791
鶴	-11.2798
殷	-11.28
不遭邪慮	-11.2807
濕吠	-11.2835
憶忘	-11.2851
摩醯首羅天	-11.2851
溫	-11.2857
終而復始	-11.2859
玩	-11.2862
腎	-11.2867
嫉妬	-11.2869
出現於世	-11.2874
毒蟲	-11.2875
具足萬行	-11.2876
拾	-11.2877
三藐三	-11.2899
劒播	-11.29
]	-11.2911
屹哩	-11.2917
清淨明誨	-11.2937
薦	-11.2937
叢	-11.2938
發明二相	-11.2942
添	-11.2944
失於正受	-11.2949
鞭	-11.295
𤙖𤙖	-11.2957
陀隣尼	-11.2992
大悲胎藏	-11.2992
常樂我淨	-11.2996
奇哉	-11.2997
魔不得便	-11.3002
西北方	-11.3005
創	-11.3008
級	-11.3008
扇底迦	-11.3011
踊躍	-11.3012
旛	-11.3015
揀擇	-11.302
違背	-11.3021
犁	-11.3022
瀑流	-11.3022
降雨	-11.3022
玅覺	-11.3032
ma	-11.3034
老死	-11.3055
沇	-11.3056
坎	-11.306
失於正受當從淪墜	-11.3062
一路涅槃門	-11.3067
阿僧祇劫	-11.307
鄙	-11.307
用心交互	-11.307
攻	-11.3071
渡	-11.3071
慇懃	-11.3074
潛行貪欲	-11.3074
龜毛兔角	-11.3076
泐	-11.3077
折伏	-11.3091
八百遍	-11.3096
p	-11.3119
同是菩提瞪發勞相	-11.3133
逗	-11.3138
韻	-11.3142
悚	-11.3145
蟻	-11.3145
得除差	-11.3146
涕	-11.3147
吳	-11.3149
利益安樂	-11.3149
遽	-11.3149
哭	-11.3154
持明仙	-11.3162
恁麼	-11.3175
曩莫塞訖	-11.3178
宰官	-11.3182
從目出	-11.3192
丑	-11.3195
生計度者	-11.3201
谷響云	-11.3206
譽	-11.3208
認賊為子	-11.3215
肅	-11.3215
牖	-11.3216
窮未來際	-11.3217
脇	-11.3219
羞	-11.3221
吻	-11.3222
柰	-11.3222
竿	-11.3226
携李	-11.3227
撲	-11.3229
疫病	-11.3233
▁svāhā	-11.3262
庚	-11.3269
菴摩羅	-11.3275
獎	-11.3283
邦	-11.3292
龍腦香	-11.3292
膳	-11.3293
五色線	-11.3296
巡	-11.3297
嗚呼	-11.3306
火中燒	-11.3309
岳	-11.335
饉	-11.3355
紺	-11.3356
六亂妄想	-11.3356
壇印三昧耶	-11.3357
珊	-11.3361
革	-11.3361
殷勤	-11.3361
販	-11.3362
青蓮	-11.3363
毀謗	-11.3363
嶽	-11.3364
賛捺	-11.3371
謁	-11.3373
顆	-11.3375
曼殊	-11.3376
銜	-11.3377
岳師	-11.3377
搩	-11.3385
𢙣	-11.3386
亥	-11.3417
成等正覺	-11.3426
汝當先覺不入輪迴	-11.3426
又三摩中諸善男子	-11.343
吉凶	-11.343
阿素洛	-11.3431
恠	-11.3434
禽獸	-11.3437
一呪一燒	-11.3443
我今為汝	-11.3444
朅	-11.3445
呪二十一遍	-11.3459
伽藍	-11.3469
惺	-11.3491
文殊師利法王子	-11.3492
勇健	-11.3496
罔象	-11.3498
見精明元	-11.3499
丘	-11.3502
他化自在天	-11.3503
柔軟	-11.3505
揣	-11.3506
毗盧	-11.3509
毗舍遮	-11.3514
帳	-11.3515
血肉	-11.3516
一字頂輪王	-11.3521
係係	-11.3523
大慈大悲	-11.3524
薺	-11.3535
悞	-11.3569
泡	-11.3569
於妙圓中	-11.3573
從座而起	-11.3577
逃逝	-11.3578
鼠	-11.3581
晚	-11.3583
軍茶利	-11.3584
鑠	-11.359
□□□	-11.3592
作是思惟	-11.3596
詐習	-11.3596
則臨終時	-11.3644
根元目為清淨四大	-11.3644
摩利支	-11.3647
遍滿虛空	-11.3651
蠟	-11.3654
空性圓明	-11.3658
不作聖心	-11.3658
棲	-11.3663
擊鐘	-11.3664
虐	-11.3664
漱	-11.3665
宿曜	-11.3679
b	-11.3701
貿	-11.3711
過去未來現在	-11.3717
嘴	-11.3719
癩	-11.372
經家敘	-11.3721
為因地心	-11.3722
舂	-11.3723
几	-11.3724
苗	-11.3727
牀	-11.3729
違拒	-11.373
顏貌	-11.3732
拔折羅	-11.3741
諸惡鬼神	-11.3744
車輅	-11.3745
潮	-11.3765
卯	-11.3784
婆伽婆	-11.3788
一時佛在	-11.3789
《	-11.3791
占	-11.3796
嬉戲	-11.3796
行住坐臥	-11.3798
晨	-11.3798
我滅度後	-11.3805
探	-11.3806
蔓	-11.3807
莎縛訶	-11.3809
聾	-11.3812
冐	-11.382
是法印呪	-11.382
ya	-11.3853
懸崖	-11.3861
恡	-11.3866
西天譯經三藏朝散大夫試	-11.3867
摩呼羅伽	-11.3871
云何忽生山河大地	-11.3873
謙	-11.3873
臆	-11.3873
黏湛發	-11.3873
琴	-11.3875
阿蘇羅	-11.3878
用諸妄想	-11.3884
亡失知見	-11.3887
園林	-11.3893
樣	-11.3893
􂛲	-11.3894
東北角	-11.3895
所以然者	-11.3935
藐	-11.3935
蠢	-11.3945
比丘比丘尼優婆塞優婆夷	-11.3946
與明合	-11.3947
白栴檀香	-11.3956
飢渴	-11.3956
晦昧為空	-11.4017
靡	-11.4018
吾今問汝	-11.4023
三科七大	-11.4024
踊	-11.4024
跋折	-11.4025
鬪戰	-11.4026
諸變化相	-11.4028
顛倒行事	-11.4029
呾	-11.4033
生人道中	-11.4034
墮落外道	-11.4036
桐	-11.4037
年老成魔	-11.4045
𠶹哩	-11.4052
度嚕度嚕	-11.4056
中指背	-11.4077
板	-11.4099
蹈	-11.41
補特伽羅	-11.4104
不自忖量	-11.4104
聞所聞盡	-11.4105
兔	-11.4106
森	-11.4107
耗	-11.4109
都無實義	-11.4113
糝	-11.4113
遺失真性	-11.4113
鉞斧	-11.4115
毘舍遮	-11.4115
旎	-11.413
ṁ	-11.4161
奸	-11.4178
廁	-11.4189
慤	-11.4195
砌	-11.4195
鳳	-11.4195
竇	-11.4205
v	-11.4237
餌	-11.426
咨	-11.4261
辱	-11.4262
篋	-11.4263
凍	-11.4264
帥	-11.4265
汩	-11.4269
削	-11.4269
允	-11.427
央	-11.4306
懈	-11.4337
恰	-11.4337
犬	-11.4339
着	-11.4339
◎	-11.434
刪	-11.4348
肆	-11.435
昌	-11.4351
搜	-11.4355
尖	-11.4362
瘦	-11.4419
纂	-11.442
猴	-11.4426
諫	-11.4429
烈	-11.4431
騎	-11.4437
甕	-11.4451
勗	-11.4499
銳	-11.45
寡	-11.4505
义	-11.4505
娛	-11.4507
躍	-11.4507
忻	-11.4507
忤	-11.4508
溥	-11.4509
厲	-11.4511
浩	-11.4511
曆	-11.4577
豁	-11.458
綴	-11.4587
掉	-11.4587
跪	-11.4593
桓	-11.4594
覲	-11.4605
韋	-11.4655
寓	-11.4666
郝	-11.4669
矜	-11.4674
趙	-11.468
唏	-11.4694
m	-11.4727
秀	-11.4745
疼	-11.4748
怯	-11.4749
殄	-11.475
妾	-11.4753
壹	-11.4755
腋	-11.4756
孩	-11.4759
齡	-11.4761
庵	-11.4769
獘	-11.4806
ṇ	-11.4809
驕	-11.482
迥	-11.4828
愆	-11.4833
勵	-11.4834
枷	-11.4838
畝	-11.4846
􂨠	-11.4908
螫	-11.4909
屏	-11.4917
鎧	-11.4921
抄	-11.4925
麟	-11.4927
格	-11.4928
坦	-11.4931
粟	-11.4933
浸	-11.4934
酧	-11.4935
齲	-11.4936
康	-11.4989
咒	-11.5
噬	-11.5
宵	-11.5001
襪	-11.5004
罽	-11.5008
綖	-11.5009
訪	-11.5013
瀉	-11.5024
墯	-11.5076
萌	-11.5078
黯	-11.5079
慴	-11.5079
迭	-11.5079
蜂	-11.5081
粖	-11.5092
㖿	-11.5093
鼎	-11.5094
嬰	-11.5169
完	-11.5175
牧	-11.5175
件	-11.5175
劬	-11.5177
獅	-11.5179
豪	-11.518
裸	-11.518
姊	-11.5188
疇	-11.5248
彗	-11.5253
袒	-11.5256
忉	-11.526
嫉	-11.5261
姦	-11.5261
雌	-11.5264
膊	-11.5273
稅	-11.5274
檗	-11.5287
蚋	-11.5342
壤	-11.5346
啖	-11.5347
懇	-11.5351
蝦	-11.5354
斧	-11.5355
嗟	-11.5359
討	-11.536
壬	-11.5419
睇	-11.5434
裔	-11.5434
忠	-11.5441
薑	-11.5442
翹	-11.5445
霞	-11.5457
銖	-11.5501
廻	-11.5509
匪	-11.552
䑛	-11.5525
煮	-11.5529
踞	-11.5533
涎	-11.5533
懃	-11.5534
盻	-11.5535
𦙘	-11.5538
廂	-11.5542
眇	-11.5601
朋	-11.5608
誥	-11.5612
譏	-11.5614
蘂	-11.562
轍	-11.562
蔔	-11.5623
侯	-11.5623
􂔗	-11.5677
𡀩	-11.5702
蒼	-11.571
讓	-11.5711
介	-11.5712
敏	-11.5712
穰	-11.5714
駕	-11.5717
膏	-11.5722
懵	-11.5725
聿	-11.5728
秖	-11.5776
揮	-11.5791
串	-11.5794
湧	-11.5797
剝	-11.5799
吏	-11.5802
汗	-11.5802
坤	-11.5805
蹤	-11.5809
蹬	-11.5813
􂉄	-11.5819
呞	-11.5869
旬	-11.5879
孛	-11.5882
孟	-11.5882
課	-11.5895
豫	-11.5903
曀	-11.5905
抧	-11.5906
􂤇	-11.5924
ś	-11.5961
㰠	-11.597
撿	-11.5978
鵠	-11.5981
唇	-11.5991
竺	-11.6061
買	-11.6077
卿	-11.6083
掖	-11.6162
季	-11.6163
殆	-11.6174
眷	-11.6174
䇿	-11.6179
鋪	-11.6181
模	-11.6181
万	-11.6183
派	-11.6186
繇	-11.6261
鐶	-11.6261
閙	-11.6263
遑	-11.6265
璿	-11.6265
淳	-11.6266
稽	-11.6267
耕	-11.6269
肺	-11.6274
訊	-11.6275
咃	-11.6278
圭	-11.6279
蹙	-11.6279
暑	-11.628
𠰢	-11.6339
藪	-11.6355
燕	-11.6362
慾	-11.6365
倘	-11.6367
俯	-11.6367
棃	-11.6367
蔭	-11.6367
僅	-11.6368
禽	-11.6369
􂃅	-11.6373
愧	-11.6374
蟒	-11.6377
裙	-11.6384
尿	-11.6386
隻	-11.6388
j	-11.6442
稚	-11.6461
仲	-11.6463
􂨡	-11.6464
蟯	-11.647
歛	-11.6471
灼	-11.6471
棗	-11.6473
塚	-11.6476
閃	-11.6479
侘	-11.6482
馹	-11.6489
幹	-11.6493
炳	-11.6556
芥	-11.6558
裁	-11.6558
夙	-11.6559
頰	-11.6562
汎	-11.6565
喧	-11.6565
媒	-11.6566
璫	-11.6568
貼	-11.6568
嘛	-11.6582
-	-11.6644
倉	-11.6658
瀾	-11.666
鈷	-11.666
羸	-11.666
絃	-11.6666
瑕	-11.6669
湖	-11.6674
鬬	-11.6674
伯	-11.6678
癸	-11.6741
箕	-11.6748
滌	-11.676
楹	-11.6764
杳	-11.6769
祁	-11.6771
陋	-11.6772
沼	-11.6775
勾	-11.6777
粒	-11.6784
『	-11.6861
蘆	-11.6861
』	-11.6861
撫	-11.687
拙	-11.6871
邇	-11.6872
憚	-11.6872
橋	-11.6872
崛	-11.6873
祝	-11.6874
裳	-11.6876
沾	-11.6877
杻	-11.6878
誌	-11.697
詈	-11.6976
叔	-11.6978
攪	-11.6982
洩	-11.6987
喏	-11.6991
*	-11.704
迄	-11.707
俄	-11.7072
羼	-11.7074
猫	-11.7078
嵐	-11.7078
洋	-11.7079
揆	-11.7079
鴦	-11.7082
哈	-11.7089
陜	-11.7113
農	-11.7173
副	-11.7177
搗	-11.7189
斜	-11.7194
拋	-11.72
㜸	-11.7201
𥁞	-11.7253
痕	-11.7283
縈	-11.7284
膽	-11.7286
頡	-11.729
瓜	-11.7301
埿	-11.7307
戊	-11.7374
傲	-11.7383
檐	-11.7385
曠	-11.7385
􂔹	-11.7387
慚	-11.7393
蝎	-11.7394
揵	-11.7396
憙	-11.7398
瑳	-11.74
謐	-11.7499
臻	-11.7504
巍	-11.7504
郎	-11.7506
稻	-11.7513
ṣ	-11.7589
戈	-11.761
􂨢	-11.7612
赦	-11.7613
贍	-11.762
梯	-11.7621
縵	-11.7631
讎	-11.7706
珮	-11.7719
袋	-11.7723
薜	-11.7723
捕	-11.7729
盎	-11.7732
壑	-11.7734
卓	-11.774
决	-11.7813
諳	-11.7832
錦	-11.7836
僻	-11.7838
屢	-11.7838
饌	-11.7839
沐	-11.7842
迸	-11.7842
駝	-11.7843
孺	-11.7847
霓	-11.7852
􂪙	-11.7871
詎	-11.7943
煥	-11.7946
製	-11.7946
唄	-11.7948
幼	-11.7949
叩	-11.795
坼	-11.7951
罷	-11.7958
揩	-11.7959
阻	-11.796
ī	-11.8042
瓔	-11.8058
欄	-11.8061
擴	-11.8062
掛	-11.8063
纓	-11.8066
鎻	-11.807
犢	-11.8073
聊	-11.8073
呿	-11.8074
礫	-11.8158
􂘢	-11.8162
觜	-11.8164
英	-11.8171
粹	-11.8172
婚	-11.8177
詠	-11.8178
葱	-11.8178
劇	-11.818
雉	-11.8183
裨	-11.8184
詔	-11.8187
瞥	-11.8188
縊	-11.8192
膺	-11.8193
搆	-11.8193
䋾	-11.8212
朔	-11.8286
醎	-11.8291
柁	-11.8292
渤	-11.8295
擯	-11.8297
俊	-11.8298
冶	-11.8299
嫁	-11.83
靺	-11.8301
芬	-11.8304
賈	-11.8304
攘	-11.8307
栖	-11.8316
爹	-11.8316
腸	-11.8319
翁	-11.8334
顙	-11.8403
燼	-11.8403
坊	-11.8408
殫	-11.841
胷	-11.8419
泄	-11.8422
程	-11.8422
檻	-11.8422
拯	-11.8424
胤	-11.8424
焯	-11.8427
儉	-11.8432
盆	-11.8432
撚	-11.8435
􂤔	-11.8439
詑	-11.8439
咓	-11.8455
淮	-11.8532
醋	-11.8537
陟	-11.854
絣	-11.8548
戮	-11.8551
甯	-11.8558
疱	-11.8646
幟	-11.8653
諠	-11.8657
渧	-11.8657
鷲	-11.8659
煞	-11.866
晏	-11.8661
忖	-11.8663
砧	-11.8663
貶	-11.8665
殂	-11.8667
咀	-11.8668
茗	-11.8673
虺	-11.8674
􂪦	-11.8699
郡	-11.878
匹	-11.8781
鴻	-11.8783
挾	-11.8785
槁	-11.879
擅	-11.8791
馥	-11.8912
液	-11.8912
㸦	-11.8913
縫	-11.8914
班	-11.8914
邀	-11.8915
咬	-11.8921
綻	-11.8922
讖	-11.8952
𦗟	-11.8998
蜺	-11.9014
暈	-11.9016
餒	-11.903
雀	-11.903
帀	-11.9032
菽	-11.9038
糠	-11.9038
隍	-11.9039
另	-11.904
睹	-11.904
癰	-11.9041
柄	-11.9049
歧	-11.9054
鑊	-11.9057
嘍	-11.9149
帚	-11.9151
襲	-11.9158
􂨣	-11.9161
蔑	-11.9161
哦	-11.9161
栴	-11.9161
睒	-11.9162
㭊	-11.9168
漉	-11.9171
藤	-11.9178
昵	-11.918
哿	-11.9199
膜	-11.929
餐	-11.9292
囚	-11.9294
揖	-11.9297
懶	-11.9298
菖	-11.9299
嗜	-11.93
碧	-11.9301
沃	-11.9303
瓮	-11.9305
堦	-11.9306
昨	-11.9314
糅	-11.9412
輭	-11.9418
朕	-11.9426
軸	-11.9428
筵	-11.9428
綏	-11.9428
巢	-11.9431
槌	-11.9432
脛	-11.9432
緝	-11.9434
哲	-11.9435
馺	-11.9444
週	-11.9466
拼	-11.9479
鎣	-11.9542
攀	-11.9543
呤	-11.9553
鶖	-11.9556
縠	-11.9557
癲	-11.9559
煑	-11.9559
貢	-11.9559
蠲	-11.9559
蒭	-11.9561
刊	-11.9565
恆	-11.9565
扣	-11.9567
枕	-11.9569
槊	-11.9572
􂏍	-11.9577
凖	-11.9659
o	-11.9669
赫	-11.9682
怠	-11.9689
株	-11.9692
􂗰	-11.9693
飜	-11.9694
䠒	-11.9695
貨	-11.9697
𡫸	-11.9698
摘	-11.9699
遐	-11.9701
礰	-11.9701
斂	-11.9702
莾	-11.9705
悌	-11.9711
𠰒	-11.9713
y	-11.9806
f	-11.9806
褫	-11.9815
訂	-11.9818
沮	-11.9821
匱	-11.9821
蝡	-11.9821
卦	-11.9825
緯	-11.9826
亘	-11.9828
暎	-11.9828
恍	-11.9833
啄	-11.9835
麝	-11.9837
訣	-11.9839
眩	-11.984
飡	-11.984
矟	-11.9842
葷	-11.9843
霾	-11.9961
編	-11.9966
聯	-11.9967
滓	-11.9969
技	-11.9977
宏	-11.9979
裡	-11.9979
袪	-11.9979
系	-12.0104
炷	-12.0106
脗	-12.0107
覈	-12.0111
疥	-12.0112
逕	-12.0112
哹	-12.0114
憨	-12.0121
衫	-12.0122
怙	-12.0245
矍	-12.0248
廿	-12.0249
燋	-12.025
讐	-12.0251
凉	-12.0266
􂏨	-12.0282
猒	-12.0342
蔗	-12.038
痔	-12.038
梓	-12.0388
矢	-12.0391
硬	-12.0399
妓	-12.0399
肖	-12.0401
稠	-12.0402
漆	-12.0408
蘿	-12.0409
帖	-12.0413
纈	-12.0414
肚	-12.0417
䞘	-12.0424
憫	-12.0536
􂨟	-12.0538
闢	-12.0539
滔	-12.0547
霄	-12.0548
嚙	-12.0548
豹	-12.0549
捶	-12.0551
􂟶	-12.0552
釰	-12.0555
濤	-12.0556
𦽆	-12.0557
髆	-12.0559
􂟾	-12.057
贅	-12.0688
栢	-12.0689
瞞	-12.0692
殖	-12.0694
磬	-12.0695
媚	-12.0702
蝮	-12.0702
蹲	-12.0703
覧	-12.0704
祛	-12.0706
采	-12.0709
𠻱	-12.0712
霑	-12.0714
孃	-12.0714
些	-12.0721
叅	-12.0809
殻	-12.0833
蛤	-12.0837
迂	-12.0844
啻	-12.0844
嬌	-12.0847
緋	-12.0854
麵	-12.0854
昆	-12.0985
嚟	-12.0995
矧	-12.0996
鴿	-12.1002
賞	-12.1002
魁	-12.1003
罕	-12.1004
獵	-12.1008
攃	-12.1014
摽	-12.1016
鏟	-12.1023
箋	-12.1138
谿	-12.1151
􂨱	-12.1158
巵	-12.1159
髯	-12.1161
毋	-12.1162
筌	-12.1165
毅	-12.1165
傅	-12.1168
萎	-12.1178
屎	-12.1179
𡩋	-12.1183
𡰱	-12.1184
况	-12.1289
鎗	-12.1302
諄	-12.1303
呌	-12.1304
痰	-12.1307
湫	-12.1313
弦	-12.1314
綜	-12.1314
寵	-12.1316
詃	-12.1318
跟	-12.132
魏	-12.1322
擘	-12.1324
援	-12.1329
態	-12.1329
蓬	-12.133
挂	-12.133
苫	-12.1331
沬	-12.1341
𠽾	-12.1342
脯	-12.1441
穩	-12.1453
熙	-12.1459
慇	-12.1464
屯	-12.1464
仕	-12.1471
䫂	-12.1476
吝	-12.1477
𡋯	-12.1479
郁	-12.148
􂨮	-12.1481
躁	-12.1485
抂	-12.1488
畵	-12.1488
▽	-12.1492
ū	-12.1616
芒	-12.1635
剪	-12.1638
裘	-12.1639
胞	-12.1643
彷	-12.1643
悴	-12.1652
衲	-12.1672
䓛	-12.1681
属	-12.1768
澍	-12.1793
怡	-12.1803
儔	-12.1807
慜	-12.1809
煬	-12.1811
街	-12.1813
搯	-12.1815
諧	-12.1815
盂	-12.1816
漠	-12.1818
鴆	-12.1819
彥	-12.1822
豺	-12.1831
町	-12.1832
塲	-12.1948
潬	-12.1958
絺	-12.1965
娶	-12.1972
尠	-12.1977
屣	-12.1977
鄭	-12.1978
詭	-12.1979
覔	-12.1979
禦	-12.198
辜	-12.1981
監	-12.1982
癎	-12.1983
陪	-12.1983
棓	-12.1985
稜	-12.1989
抨	-12.1992
朵	-12.2
賖	-12.2007
􂨞	-12.2137
踴	-12.2147
癬	-12.215
腥	-12.2152
釐	-12.2152
絰	-12.2153
毳	-12.2154
𠼐	-12.2158
疆	-12.2158
姤	-12.2158
航	-12.2161
罄	-12.2162
臡	-12.2172
㨖	-12.2302
𠿒	-12.2308
芭	-12.2312
乂	-12.2313
犍	-12.2314
撓	-12.2317
嘻	-12.2319
媛	-12.232
猥	-12.2324
虻	-12.2324
婇	-12.2325
瑚	-12.2325
亮	-12.2325
蒱	-12.2328
鬢	-12.2335
遁	-12.2336
玦	-12.2475
囄	-12.2482
瀛	-12.2494
淤	-12.2495
皰	-12.2501
駐	-12.2502
崙	-12.2504
隘	-12.2504
犖	-12.2505
蒜	-12.2506
聳	-12.2508
耐	-12.2509
芸	-12.2509
昝	-12.2513
墓	-12.2514
鑌	-12.2514
勳	-12.2518
堆	-12.2672
狠	-12.2673
蕉	-12.2676
椒	-12.2681
狸	-12.2691
収	-12.2697
椎	-12.27
賽	-12.2702
韶	-12.2703
詫	-12.2718
窹	-12.2831
麄	-12.2833
廡	-12.2858
膾	-12.287
猿	-12.2873
鵝	-12.2874
埽	-12.2885
􂦡	-12.2902
譚	-12.3041
筭	-12.3046
滲	-12.305
鞠	-12.3055
俶	-12.3057
驀	-12.306
館	-12.3062
氛	-12.3062
蠶	-12.3063
鍵	-12.3065
抖	-12.3066
騫	-12.3066
徤	-12.3067
溟	-12.3067
嚨	-12.3069
矛	-12.3069
塑	-12.3071
跨	-12.3072
劉	-12.3075
𡃝	-12.308
蠕	-12.3233
闠	-12.324
杌	-12.3241
赩	-12.3243
蚌	-12.3243
噫	-12.3244
敦	-12.3247
浣	-12.3252
涼	-12.3254
羶	-12.3254
翫	-12.3255
濯	-12.3255
赭	-12.3256
跳	-12.3258
擻	-12.3259
澇	-12.3259
緇	-12.3262
瓷	-12.3262
忒	-12.3264
匣	-12.3269
叭	-12.3275
撒	-12.3275
糓	-12.3433
㲉	-12.3435
螟	-12.3443
簷	-12.3445
擒	-12.3447
閡	-12.3448
厨	-12.3449
𡃤	-12.3453
峻	-12.3454
聆	-12.3454
氈	-12.3458
陂	-12.3459
敲	-12.3462
謾	-12.3466
鴉	-12.3467
釣	-12.3475
刼	-12.3615
禳	-12.3639
剚	-12.364
淩	-12.3641
擁	-12.3646
僉	-12.3647
躓	-12.3647
孚	-12.3649
皓	-12.365
愕	-12.3652
竈	-12.3656
蠅	-12.3657
褥	-12.3659
罏	-12.3659
抗	-12.3659
龕	-12.3661
征	-12.3663
埃	-12.367
􂤂	-12.367
捲	-12.3672
ḍ	-12.3827
惰	-12.3846
腭	-12.385
携	-12.3852
煽	-12.3853
崑	-12.3853
庇	-12.3853
󰹺	-12.3857
儻	-12.3858
賦	-12.3859
佳	-12.386
磋	-12.3864
机	-12.3867
􂪔	-12.3869
咲	-12.3879
嚀	-12.3883
顒	-12.3884
踈	-12.4038
咥	-12.4045
熒	-12.4046
􂨤	-12.4047
痢	-12.4048
廼	-12.4055
攢	-12.4055
績	-12.4056
稼	-12.4059
呰	-12.4059
剉	-12.4061
繖	-12.4061
叮	-12.4062
雕	-12.4065
輟	-12.4066
楷	-12.4067
碍	-12.4067
漬	-12.4069
𡄦	-12.407
淹	-12.407
腠	-12.4073
齧	-12.4073
鞘	-12.4075
晡	-12.4075
剔	-12.4078
􂡠	-12.4081
薀	-12.4224
𥧌	-12.4243
脹	-12.4255
闤	-12.4258
慠	-12.4258
廳	-12.4261
凭	-12.4266
忝	-12.4268
碾	-12.4274
拆	-12.4274
評	-12.4275
巷	-12.4277
瞑	-12.4279
馨	-12.428
啝	-12.4281
牘	-12.4281
釁	-12.4283
􂌞	-12.4288
酌	-12.4293
㧙	-12.4302
𠕀	-12.4308
浦	-12.4311
嘚	-12.4473
桂	-12.4479
緜	-12.448
鋸	-12.4483
躄	-12.4485
璞	-12.4487
架	-12.4488
疙	-12.4488
嚮	-12.4489
㮈	-12.4489
鎚	-12.449
彿	-12.4493
臊	-12.4493
寱	-12.4493
唥	-12.4493
爰	-12.4495
姿	-12.4498
藕	-12.4499
蚖	-12.4502
瀝	-12.4503
盼	-12.4504
覿	-12.4504
蜀	-12.4508
昬	-12.468
竄	-12.4701
吁	-12.4703
炊	-12.4705
誇	-12.4705
訐	-12.4705
炮	-12.4707
拱	-12.4707
昱	-12.4709
佷	-12.471
涸	-12.4714
莂	-12.4716
釆	-12.4716
戚	-12.4724
槍	-12.4725
皂	-12.4726
牝	-12.4728
踵	-12.4729
蕭	-12.4735
翠	-12.4739
梢	-12.4751
𡨋	-12.4879
艮	-12.4907
ṭ	-12.4915
蜾	-12.4923
褁	-12.4927
𠹀	-12.4933
諒	-12.4934
啊	-12.4934
渚	-12.4937
蛆	-12.4944
袖	-12.4944
惛	-12.4945
閭	-12.4945
茹	-12.4946
熊	-12.4948
搥	-12.4951
賺	-12.4955
吟	-12.4955
篩	-12.4955
輿	-12.496
磁	-12.5163
痾	-12.5165
蛉	-12.5168
媟	-12.517
嗽	-12.517
做	-12.5172
鉾	-12.5173
慣	-12.5176
苕	-12.5177
頹	-12.5178
悖	-12.5179
淆	-12.5179
蹄	-12.5179
拓	-12.5179
籤	-12.518
噓	-12.5183
呂	-12.5188
輞	-12.5192
硯	-12.521
汲	-12.5403
緘	-12.5405
磣	-12.5408
奘	-12.541
圈	-12.5413
妍	-12.5415
澹	-12.5415
􂡿	-12.5417
紜	-12.5419
蓄	-12.5421
綸	-12.5424
紋	-12.5428
嶺	-12.5433
􂟮	-12.5457
叟	-12.5644
姻	-12.5647
軒	-12.565
尹	-12.5651
惚	-12.5654
琶	-12.5654
繡	-12.5656
廬	-12.5656
瘂	-12.5659
弼	-12.5666
謫	-12.5667
渺	-12.5669
稀	-12.567
幅	-12.5677
􂏦	-12.568
錐	-12.5686
甥	-12.5883
艸	-12.5886
愗	-12.5888
緤	-12.5891
昂	-12.5896
遄	-12.5898
輦	-12.5904
迪	-12.5905
艶	-12.5906
窓	-12.5907
鴛	-12.5912
裴	-12.5918
甫	-12.5918
芳	-12.5921
悠	-12.5928
􂤄	-12.593
廸	-12.5936
黶	-12.6134
􂚲	-12.6142
􂨝	-12.6143
庖	-12.6149
猜	-12.6149
􂠹	-12.6151
瞖	-12.6153
帙	-12.6156
呢	-12.6157
挺	-12.6158
舐	-12.6158
鉞	-12.616
擿	-12.6161
憤	-12.6162
癃	-12.6164
𣐍	-12.6167
虱	-12.6167
舅	-12.6167
繽	-12.6168
鬧	-12.617
◑	-12.6173
臼	-12.6174
􂪖	-12.6177
芝	-12.6181
菟	-12.6182
岩	-12.6188
聹	-12.6188
憒	-12.6396
悕	-12.6411
碩	-12.6413
潰	-12.6414
藻	-12.6415
鵬	-12.6418
篤	-12.6421
齩	-12.6423
螢	-12.6424
洽	-12.6424
鱗	-12.6424
暝	-12.6425
㤄	-12.6426
島	-12.6426
玻	-12.6436
寗	-12.6437
堵	-12.6437
紊	-12.6438
窠	-12.6439
惕	-12.644
娘	-12.6444
脊	-12.6447
哨	-12.666
靴	-12.6687
歿	-12.669
卉	-12.669
迺	-12.6691
掇	-12.6695
𨽻	-12.6696
琵	-12.6697
蠍	-12.6699
恕	-12.67
闌	-12.67
亞	-12.6701
繆	-12.6703
鞋	-12.6703
𠲎	-12.6704
陞	-12.6705
韓	-12.6708
閼	-12.6708
啐	-12.6711
鸚	-12.6712
潑	-12.6718
∴	-12.6734
珥	-12.6936
𦘕	-12.6953
粮	-12.6958
萸	-12.6961
銓	-12.6961
錍	-12.6964
饍	-12.6967
楯	-12.6968
遘	-12.6969
僮	-12.6969
烹	-12.6969
嚂	-12.6971
叛	-12.6973
巫	-12.6973
繪	-12.6974
瘥	-12.6974
鍮	-12.6976
𡅏	-12.6983
淋	-12.6983
辮	-12.6983
酷	-12.6985
啒	-12.6994
𡆗	-12.6996
矴	-12.7227
綮	-12.7233
腐	-12.7247
鏁	-12.725
遡	-12.725
羖	-12.7251
狩	-12.7252
棟	-12.7252
淘	-12.7253
朴	-12.7253
栽	-12.7254
嫡	-12.7259
鈿	-12.7259
萄	-12.7262
唼	-12.7264
柅	-12.7268
概	-12.7271
麋	-12.7272
駛	-12.7273
澆	-12.7273
瑯	-12.7275
鵲	-12.7276
啉	-12.728
戎	-12.7287
驛	-12.7517
雍	-12.7521
陁	-12.7528
蝶	-12.7536
匙	-12.7541
愽	-12.7543
緻	-12.7545
啗	-12.7548
跌	-12.755
俞	-12.7552
駭	-12.7553
霖	-12.7554
胯	-12.7557
榆	-12.7559
秤	-12.756
鷹	-12.7563
稗	-12.7563
覰	-12.7564
𦜮	-12.7567
謟	-12.7568
駮	-12.757
喯	-12.7576
癊	-12.7836
赧	-12.7836
礦	-12.7844
竦	-12.7846
丞	-12.7848
喘	-12.785
疽	-12.7851
貙	-12.7852
蓽	-12.7855
刈	-12.7855
貳	-12.7856
嶮	-12.7857
匡	-12.7857
迨	-12.7858
囂	-12.786
刮	-12.7862
倡	-12.7864
贈	-12.7866
瞎	-12.7866
沽	-12.7867
幕	-12.7867
侈	-12.7869
􂙒	-12.787
􂣪	-12.787
襄	-12.7877
撦	-12.7883
〇	-12.8143
拕	-12.8153
榜	-12.8155
􂞅	-12.8157
廉	-12.8157
𧜟	-12.8159
怱	-12.8161
悍	-12.8161
􂨭	-12.8165
溉	-12.8167
濃	-12.8168
薤	-12.8169
笛	-12.8169
慄	-12.817
齎	-12.8171
溝	-12.8172
焬	-12.8172
翰	-12.8172
曝	-12.8173
葬	-12.8173
􂦍	-12.8174
㵎	-12.8175
扸	-12.8177
釵	-12.8177
趁	-12.818
芙	-12.8182
褐	-12.8184
擡	-12.8184
衷	-12.8193
銕	-12.8198
烝	-12.8471
脅	-12.8479
􂢬	-12.848
寰	-12.848
撾	-12.8482
磑	-12.8483
璧	-12.8483
鏤	-12.8484
𠃔	-12.8488
兇	-12.8489
靉	-12.8489
鹵	-12.8489
嬾	-12.849
痒	-12.8491
蛟	-12.8492
黍	-12.8492
庠	-12.8493
撻	-12.8494
崔	-12.8499
涵	-12.8499
堙	-12.8499
噎	-12.85
黠	-12.8501
嚥	-12.8502
禾	-12.8504
寥	-12.8504
批	-12.8505
鉛	-12.8505
盾	-12.8507
雁	-12.8508
湊	-12.8508
粆	-12.8511
椽	-12.8516
拿	-12.8538
聶	-12.8538
戱	-12.8807
劂	-12.8809
𠾆	-12.881
蠃	-12.8813
霍	-12.8814
姬	-12.8815
妥	-12.8817
餚	-12.8817
舘	-12.8818
誹	-12.8819
譌	-12.8819
蚯	-12.882
巽	-12.8821
狄	-12.8823
臚	-12.8825
估	-12.8826
噤	-12.8828
羮	-12.8828
氎	-12.8828
掐	-12.883
󰽯	-12.883
濡	-12.883
蓉	-12.8831
􂙱	-12.8831
蓏	-12.8834
欵	-12.8837
嘌	-12.8838
琊	-12.8845
彎	-12.8854
𠷑	-12.9134
喬	-12.9142
蕊	-12.9144
募	-12.9147
䩭	-12.9147
幖	-12.9149
亶	-12.9149
稷	-12.9157
釜	-12.9157
灸	-12.916
訴	-12.9163
恾	-12.9164
煅	-12.9165
筒	-12.9166
汰	-12.9167
寇	-12.9168
㘓	-12.917
禹	-12.917
僚	-12.9172
爨	-12.9172
咳	-12.9172
晹	-12.9174
瀆	-12.9174
羈	-12.9174
驃	-12.9174
譡	-12.9174
􂨯	-12.9175
仞	-12.9175
踪	-12.9178
斑	-12.9181
嘠	-12.9181
犂	-12.9183
凸	-12.9188
駈	-12.919
劄	-12.9193
琳	-12.9197
𦾨	-12.9206
瀑	-12.9402
𣗳	-12.9476
旭	-12.95
醇	-12.9507
傴	-12.9513
冊	-12.9519
䗍	-12.9519
翦	-12.952
馴	-12.9524
迢	-12.9526
繕	-12.9526
尉	-12.9527
鬲	-12.9527
榻	-12.9528
廷	-12.9529
沓	-12.953
襟	-12.9533
它	-12.9534
梳	-12.9534
蒂	-12.9535
橿	-12.9537
灣	-12.9539
挫	-12.9539
𠳐	-12.954
羆	-12.9542
慙	-12.9542
葩	-12.9545
俁	-12.9545
叶	-12.9547
犀	-12.9548
●	-12.9548
褺	-12.9552
􂤈	-12.9555
虬	-12.9565
叚	-12.9862
碌	-12.9867
鵄	-12.9887
銛	-12.9888
糧	-12.9889
症	-12.989
暨	-12.9891
藹	-12.9891
侔	-12.9895
仔	-12.9895
堯	-12.9895
撤	-12.9897
肋	-12.9898
弃	-12.99
鞫	-12.9902
䏶	-12.9902
灘	-12.9902
滄	-12.9903
蝗	-12.9904
盃	-12.9904
驟	-12.9906
兢	-12.9906
逍	-12.9906
慞	-12.9906
墀	-12.9906
􂨰	-12.9907
杏	-12.9909
催	-12.9909
鵮	-12.991
坡	-12.9911
嫰	-12.9913
員	-12.9913
𠷈	-12.9914
杲	-12.9915
礼	-12.9915
姟	-12.9916
瓣	-12.9918
樁	-12.9919
唻	-12.992
㪷	-12.9922
􂪚	-12.9922
羹	-12.9922
魑	-12.9928
蠻	-12.9932
嗘	-12.9954
頼	-13.0225
􂛈	-13.0243
ṛ	-13.0255
A	-13.0258
熈	-13.0259
􂕴	-13.0264
葵	-13.0267
睿	-13.0267
稿	-13.027
􂟭	-13.027
蟬	-13.0274
矒	-13.0276
蚓	-13.028
翔	-13.0282
墠	-13.0282
桎	-13.0282
腿	-13.0283
搭	-13.0283
鰕	-13.0285
構	-13.0288
疵	-13.0289
坏	-13.0289
洟	-13.0289
頺	-13.0292
菁	-13.0294
􂨲	-13.0296
挑	-13.0298
訕	-13.0301
噻	-13.0305
沿	-13.0306
顰	-13.032
瘀	-13.0645
𢢔	-13.0652
爝	-13.0656
伇	-13.0657
𠵴	-13.0658
慨	-13.0662
鍋	-13.0666
坌	-13.0666
兌	-13.0667
蠡	-13.0667
桉	-13.0669
𪾼	-13.067
擗	-13.0671
奄	-13.0673
狥	-13.0674
腩	-13.0674
仝	-13.0675
舛	-13.0676
躋	-13.0676
擐	-13.0676
輅	-13.0676
埀	-13.0678
需	-13.068
咻	-13.0682
欬	-13.0682
姝	-13.0683
騁	-13.0683
霅	-13.0683
桶	-13.0684
惓	-13.0684
裟	-13.0686
輯	-13.0686
璃	-13.0687
愜	-13.0687
襍	-13.0687
躐	-13.0687
拊	-13.069
罥	-13.069
眸	-13.069
丐	-13.0691
邁	-13.0694
潦	-13.0694
􂈻	-13.0695
撼	-13.0695
睦	-13.0695
劈	-13.0696
逋	-13.07
􂉔	-13.0701
隊	-13.0702
萊	-13.0705
胥	-13.0716
椉	-13.1066
旺	-13.1068
B	-13.1071
ḥ	-13.1072
眤	-13.1084
瞙	-13.1085
攷	-13.1087
闔	-13.109
柢	-13.1091
嘔	-13.1091
瘻	-13.1092
欻	-13.1092
眄	-13.1093
佑	-13.1095
颰	-13.1096
塼	-13.1098
颺	-13.11
𤘽	-13.11
俛	-13.1101
邃	-13.1102
盥	-13.1103
沌	-13.1103
肌	-13.1106
蘘	-13.1106
𠯗	-13.1108
儲	-13.1109
祚	-13.1109
謇	-13.1109
韭	-13.111
掠	-13.111
磕	-13.1112
濶	-13.1112
芟	-13.1113
溷	-13.1115
閨	-13.1119
鶻	-13.1119
窗	-13.112
睫	-13.112
帽	-13.1122
帆	-13.1122
搓	-13.1123
𠯈	-13.1127
􂠊	-13.1131
鉄	-13.1132
崗	-13.1132
禇	-13.114
噐	-13.1483
昉	-13.1496
煗	-13.1503
擕	-13.1516
漩	-13.1519
剞	-13.1521
材	-13.1522
嬪	-13.1526
杯	-13.1527
齶	-13.1527
螄	-13.1528
鼈	-13.1529
蚣	-13.1529
癭	-13.153
萇	-13.1531
勦	-13.1531
怜	-13.1532
騾	-13.1532
凹	-13.1533
蒔	-13.1533
􂙑	-13.1533
狎	-13.1535
冲	-13.1535
𠴊	-13.1535
兀	-13.1536
岌	-13.1536
舶	-13.1538
褒	-13.154
繳	-13.154
蚩	-13.1541
阜	-13.1541
宦	-13.1542
劃	-13.1543
瘖	-13.1545
窘	-13.1545
簿	-13.1546
􂠧	-13.1546
燦	-13.1547
憩	-13.155
挨	-13.1551
甦	-13.1552
岑	-13.1552
腨	-13.1553
甖	-13.1553
蛛	-13.1554
嵩	-13.1557
閩	-13.1561
茘	-13.1565
哷	-13.1566
醭	-13.1569
􂠒	-13.1576
擺	-13.158
頦	-13.1581
畧	-13.1935
䧟	-13.1957
ñ	-13.1961
耎	-13.1964
瑠	-13.1967
麾	-13.197
廝	-13.1971
旹	-13.1974
塹	-13.1975
窪	-13.1976
卅	-13.1976
猷	-13.198
錠	-13.198
挈	-13.1981
抹	-13.1984
瘟	-13.1984
磧	-13.1985
癢	-13.1985
窄	-13.1985
屑	-13.1985
楓	-13.1986
壘	-13.1986
釀	-13.1987
幔	-13.1989
翊	-13.1989
爆	-13.1991
嘶	-13.1991
繢	-13.1992
碓	-13.1992
查	-13.1993
釳	-13.1993
􂟘	-13.1993
彊	-13.1994
肎	-13.1994
鵶	-13.1995
琅	-13.1997
窈	-13.1998
隄	-13.1998
嗤	-13.2
𦎌	-13.2001
頤	-13.2001
􂛀	-13.2002
蚤	-13.2005
寮	-13.2005
灯	-13.2013
揔	-13.2022
踝	-13.2025
峙	-13.2374
姉	-13.2415
𧫦	-13.2417
嵗	-13.2431
詛	-13.2435
歒	-13.2437
虵	-13.2439
䶩	-13.2441
嚝	-13.2447
膀	-13.245
鷺	-13.2453
躶	-13.2455
蝱	-13.2458
剗	-13.2459
詬	-13.2459
轄	-13.246
弶	-13.246
羨	-13.246
啅	-13.2461
鸞	-13.2462
疋	-13.2463
綽	-13.2463
亨	-13.2463
嚬	-13.2465
敝	-13.2465
軄	-13.2466
旌	-13.2466
玷	-13.2466
藩	-13.2468
侗	-13.2469
偕	-13.2471
罣	-13.2472
􂍾	-13.2472
鏃	-13.2473
槵	-13.2473
猱	-13.2473
遼	-13.2473
􂤁	-13.2473
篦	-13.2473
搦	-13.2474
亟	-13.2474
萃	-13.2476
楔	-13.2477
酇	-13.2477
頷	-13.2479
濾	-13.2479
覊	-13.2481
瑙	-13.2481
蔬	-13.2482
紗	-13.2482
褻	-13.2487
邈	-13.2492
撅	-13.2495
瑦	-13.2498
懲	-13.2501
鞏	-13.2504
宙	-13.2508
梡	-13.2527
䐇	-13.2932
姧	-13.2943
螻	-13.2948
轂	-13.2952
蟠	-13.2952
猗	-13.2953
𠰘	-13.2954
臾	-13.2954
霰	-13.2954
彫	-13.2955
賑	-13.2956
搔	-13.2956
盋	-13.2957
笈	-13.2957
箱	-13.2958
彭	-13.2959
佚	-13.296
撕	-13.296
醞	-13.2961
岡	-13.2962
􂒖	-13.2962
儱	-13.2964
孳	-13.2965
趾	-13.2965
慌	-13.2965
迯	-13.2966
鴈	-13.2966
􂤉	-13.2966
嬉	-13.2967
爵	-13.2967
躃	-13.2967
盪	-13.297
珞	-13.297
苽	-13.2971
餔	-13.2971
瞽	-13.2972
蟄	-13.2973
鞍	-13.2973
𪘜	-13.2973
凋	-13.2974
穬	-13.2976
梧	-13.2978
歆	-13.2978
茇	-13.2978
蹇	-13.2979
沜	-13.298
堤	-13.2982
脆	-13.2982
鍠	-13.2983
慘	-13.2983
浙	-13.2983
撩	-13.2983
俓	-13.2984
ィ	-13.299
献	-13.2993
袂	-13.2997
龐	-13.3004
拖	-13.301
靣	-13.3446
冝	-13.3464
窻	-13.3465
鍼	-13.3471
厶	-13.3472
扠	-13.3472
墾	-13.3472
𪏭	-13.3472
獷	-13.3473
苻	-13.3473
癖	-13.3475
鵂	-13.3475
閦	-13.3476
版	-13.3476
澓	-13.3478
憧	-13.348
婉	-13.348
鐝	-13.3481
訾	-13.3481
梗	-13.3481
叨	-13.3482
眴	-13.3482
胱	-13.3483
蹔	-13.3483
囿	-13.3484
􂨘	-13.3484
扈	-13.3484
謄	-13.3486
偉	-13.3488
蛾	-13.3488
閫	-13.3488
禎	-13.3492
𦙶	-13.3492
佞	-13.3492
佶	-13.3493
哂	-13.3493
𠹌	-13.3494
臛	-13.3496
謦	-13.3496
譜	-13.3497
駁	-13.3497
犲	-13.3498
劓	-13.3499
鐺	-13.3501
誚	-13.3503
􂨬	-13.3506
洄	-13.3506
𥟦	-13.3507
漁	-13.3512
拉	-13.3512
􂪛	-13.3513
姐	-13.3515
𠴞	-13.3516
刎	-13.3517
描	-13.3519
駱	-13.3523
錽	-13.3545
賔	-13.4
恊	-13.4002
蜋	-13.4011
糟	-13.4014
踦	-13.4016
F	-13.4018
瀨	-13.4018
𩘌	-13.4018
䘖	-13.402
轅	-13.4024
􂟯	-13.4026
遨	-13.4028
叡	-13.403
闚	-13.403
駒	-13.403
憲	-13.403
稔	-13.4031
𣗥	-13.4034
笴	-13.4035
䎡	-13.4036
箄	-13.4036
暘	-13.4036
捍	-13.4037
􂚺	-13.4038
􂗭	-13.4039
恢	-13.404
繭	-13.4042
㓨	-13.4042
慼	-13.4044
磐	-13.4044
蕞	-13.4045
奕	-13.4045
聒	-13.4047
陌	-13.4047
牡	-13.405
黛	-13.4051
恤	-13.4053
囓	-13.4054
俻	-13.4054
彚	-13.4054
勻	-13.4056
盟	-13.4057
櫓	-13.4057
􂏕	-13.406
黿	-13.406
㐫	-13.4063
蜘	-13.4066
饗	-13.4067
店	-13.4067
抉	-13.4068
笞	-13.4069
檛	-13.4073
膓	-13.4079
窋	-13.4081
纜	-13.4084
𠻬	-13.4084
綟	-13.4093
鐱	-13.4095
靠	-13.4604
蠐	-13.4605
啇	-13.4605
貲	-13.461
垛	-13.4611
傚	-13.4613
饋	-13.4615
梱	-13.4618
闐	-13.4619
妒	-13.4619
幀	-13.4619
鋟	-13.462
牗	-13.462
眵	-13.462
橖	-13.462
很	-13.4623
榭	-13.4623
棺	-13.4626
鍐	-13.4629
刧	-13.4629
祟	-13.463
仆	-13.4631
瑣	-13.4632
苞	-13.4633
賾	-13.4633
沖	-13.4633
爼	-13.4634
瞳	-13.4634
簾	-13.4634
鑰	-13.4634
糺	-13.4637
哺	-13.4637
㪍	-13.4638
㘈	-13.4639
暹	-13.4639
钁	-13.464
癈	-13.464
荳	-13.4641
揉	-13.4641
迤	-13.4643
葡	-13.4643
椿	-13.4643
痊	-13.4644
璨	-13.4645
薛	-13.4645
筯	-13.4646
浚	-13.4647
圜	-13.4647
貽	-13.4648
協	-13.4648
轢	-13.4649
攣	-13.4652
刷	-13.4653
郢	-13.4653
玼	-13.4655
鬻	-13.4658
耘	-13.4659
傑	-13.4661
繹	-13.4662
􂤏	-13.4672
璽	-13.4676
𤼵	-13.5217
侮	-13.522
𠯋	-13.5221
螬	-13.5226
啾	-13.5228
擥	-13.523
綾	-13.5231
䩚	-13.5235
堀	-13.5237
篅	-13.5237
蓰	-13.5239
湏	-13.524
藿	-13.5242
趍	-13.5242
塘	-13.5244
諺	-13.5244
嘿	-13.5245
址	-13.5245
扭	-13.5246
汪	-13.5248
彪	-13.5249
涓	-13.5249
䬸	-13.525
晣	-13.5251
噦	-13.5252
湮	-13.5252
摭	-13.5254
毱	-13.5254
聦	-13.5255
瓫	-13.5255
豬	-13.5255
斟	-13.5255
鐫	-13.5256
儭	-13.5256
屆	-13.5256
猨	-13.5257
𢌞	-13.5258
繙	-13.5259
媲	-13.526
墳	-13.5261
瘳	-13.5263
鈸	-13.5263
顫	-13.5263
徇	-13.5264
嘷	-13.5264
諵	-13.5264
𢍉	-13.5264
磲	-13.5265
嚚	-13.5265
曙	-13.5266
㟏	-13.5266
爓	-13.5269
悼	-13.5269
啫	-13.5271
矬	-13.5271
擠	-13.5272
菊	-13.5275
噶	-13.5275
𦰧	-13.5277
冑	-13.5279
嘞	-13.5281
𡀎	-13.5281
酖	-13.5282
瓨	-13.5282
篆	-13.5284
莢	-13.5293
蠆	-13.5294
𤤗	-13.5295
𤜲	-13.5296
擦	-13.5304
蜣	-13.5887
秊	-13.5887
𥌋	-13.5893
泠	-13.5901
娠	-13.5902
伶	-13.5903
檮	-13.5904
髭	-13.5908
𧃯	-13.5912
悱	-13.5912
軰	-13.5913
簫	-13.5914
詺	-13.5915
􂤽	-13.5916
倳	-13.5916
宥	-13.5917
壜	-13.5917
疔	-13.5918
鋤	-13.592
蕪	-13.5923
粳	-13.5924
𡛥	-13.5924
鞮	-13.5925
痟	-13.5926
汞	-13.5927
扁	-13.5928
澈	-13.5928
囹	-13.5929
杉	-13.5929
􂠔	-13.593
皿	-13.5932
頒	-13.5933
榅	-13.5933
䜝	-13.5933
𡄣	-13.5933
杭	-13.5934
愉	-13.5936
蟾	-13.5937
槐	-13.5937
蟹	-13.5938
樊	-13.5938
僣	-13.5939
縻	-13.5939
憔	-13.594
隴	-13.5941
牸	-13.5941
胛	-13.5941
懾	-13.5942
凑	-13.5942
葺	-13.5942
鴟	-13.5942
粃	-13.5943
筐	-13.5943
賷	-13.5945
漲	-13.5945
嶠	-13.5948
舸	-13.5948
縳	-13.5948
衒	-13.5949
棹	-13.5951
娉	-13.5952
𠡠	-13.5953
􂣞	-13.5953
牕	-13.5955
逞	-13.5956
毬	-13.5957
閔	-13.5957
馮	-13.5958
舎	-13.5958
駢	-13.5959
覃	-13.6565
韙	-13.6591
皃	-13.6594
𣲖	-13.6595
闘	-13.6602
夘	-13.6608
􂨎	-13.6609
茖	-13.6612
􂣦	-13.6614
挮	-13.6615
噞	-13.6622
羂	-13.6623
豉	-13.6626
薝	-13.6626
鐙	-13.6626
鵰	-13.6627
樅	-13.6627
琉	-13.6627
篾	-13.6627
拗	-13.6628
珙	-13.6629
冗	-13.6629
䖍	-13.6633
弑	-13.6635
髺	-13.6636
魍	-13.6636
讁	-13.6636
歐	-13.6637
号	-13.6637
愓	-13.6639
隟	-13.664
圄	-13.664
簪	-13.6641
培	-13.6642
塐	-13.6642
牌	-13.6642
絆	-13.6642
蕤	-13.6644
紏	-13.6647
筴	-13.6648
嘲	-13.6648
袍	-13.6648
顗	-13.6648
𠴏	-13.665
蹊	-13.665
􂚒	-13.6651
炒	-13.6653
ヵ	-13.6654
柝	-13.6655
摹	-13.6657
榓	-13.6659
籬	-13.6661
騃	-13.6661
噏	-13.6661
帷	-13.6662
媾	-13.6663
鳧	-13.6666
秼	-13.6667
韹	-13.6667
壍	-13.6671
牯	-13.6673
挐	-13.6673
訢	-13.6675
俐	-13.735
邲	-13.7372
蟣	-13.7381
㨿	-13.7384
燎	-13.7384
砰	-13.7384
弈	-13.7392
顢	-13.7395
躑	-13.7395
窾	-13.7398
懿	-13.7399
坭	-13.7402
枿	-13.7402
陬	-13.7402
鼙	-13.7403
絢	-13.7403
䩕	-13.7403
霔	-13.7403
蛙	-13.7404
綃	-13.7404
膲	-13.7405
竣	-13.7405
哳	-13.7406
售	-13.7406
埤	-13.7406
喁	-13.7406
胭	-13.7407
氳	-13.7407
倨	-13.7408
裕	-13.7408
舡	-13.7409
𨢘	-13.7409
䓗	-13.7409
仳	-13.741
瘢	-13.741
􂘤	-13.741
幞	-13.741
毓	-13.7411
瓈	-13.7411
湘	-13.7412
舵	-13.7412
糊	-13.7412
沴	-13.7412
鱉	-13.7413
暏	-13.7413
渙	-13.7414
核	-13.7414
蔕	-13.7414
㗭	-13.7415
姣	-13.7415
簣	-13.7416
鍛	-13.7418
沛	-13.7418
歉	-13.7419
恙	-13.7419
揄	-13.7419
熠	-13.742
𤳖	-13.7421
吔	-13.7421
竮	-13.7422
竛	-13.7422
㵶	-13.7422
伱	-13.7425
勁	-13.7425
宬	-13.7425
絛	-13.7425
噪	-13.7427
絮	-13.743
陿	-13.7432
剡	-13.7432
雛	-13.7432
炯	-13.7433
𠻳	-13.7434
喆	-13.7434
瓏	-13.7435
𢹂	-13.7436
証	-13.744
廩	-13.7443
秣	-13.7443
腮	-13.7443
徂	-13.7444
撇	-13.7449
搊	-13.745
捃	-13.7454
𢻵	-13.7475
苐	-13.8197
蠛	-13.8203
蠓	-13.8203
􂐘	-13.8204
駃	-13.8209
蕳	-13.821
𥨊	-13.821
孜	-13.8217
諡	-13.8218
迊	-13.8219
詆	-13.8222
軔	-13.8223
㸑	-13.8223
頇	-13.8225
黜	-13.8227
𡁔	-13.8227
蕖	-13.8227
裓	-13.8228
諛	-13.823
蔡	-13.8231
㘄	-13.8232
𦘺	-13.8232
樺	-13.8233
佃	-13.8233
廊	-13.8233
澣	-13.8234
嚇	-13.8234
蜎	-13.8234
􂨜	-13.8234
捩	-13.8235
泚	-13.8236
翮	-13.8238
騷	-13.8238
倏	-13.8238
茸	-13.8239
劾	-13.824
呴	-13.824
𡖺	-13.824
秏	-13.8241
泗	-13.8241
韜	-13.8242
荔	-13.8242
礬	-13.8242
琯	-13.8243
罅	-13.8244
疣	-13.8244
窶	-13.8244
距	-13.8245
伍	-13.8245
豔	-13.8245
𤦲	-13.8245
廋	-13.8246
壺	-13.8246
控	-13.8246
矃	-13.8247
戇	-13.8248
圊	-13.8248
卡	-13.8248
瞭	-13.825
倩	-13.8251
譟	-13.8251
􂤼	-13.8252
箸	-13.8252
磵	-13.8253
縚	-13.8253
貓	-13.8254
匕	-13.8254
丕	-13.8254
㒵	-13.8254
碑	-13.8254
攙	-13.8256
䓻	-13.8256
躅	-13.8256
鍬	-13.8258
擢	-13.8262
碗	-13.8262
苨	-13.8263
隖	-13.8264
􂠓	-13.8266
縕	-13.8267
租	-13.8267
攥	-13.8268
辢	-13.8269
𠲸	-13.8271
跂	-13.8272
挹	-13.8274
崕	-13.8274
咧	-13.8275
𠟃	-13.8277
潞	-13.8279
爺	-13.8281
呶	-13.8284
槽	-13.8287
董	-13.8299
憊	-13.8313
傒	-13.8318
凢	-13.9091
呧	-13.9111
噴	-13.9113
􂦮	-13.9113
瑘	-13.9118
鶹	-13.9121
鴞	-13.9126
𦊱	-13.9126
誵	-13.9127
疹	-13.9127
䆳	-13.9128
梏	-13.9129
罹	-13.913
閏	-13.9131
䨱	-13.9134
哞	-13.9135
輾	-13.9135
剜	-13.9135
霆	-13.9136
𢷤	-13.9137
􂖇	-13.9139
卸	-13.9139
覬	-13.914
廐	-13.914
顓	-13.914
淬	-13.9141
嫩	-13.9141
盍	-13.9141
鸖	-13.9142
晳	-13.9142
蜓	-13.9142
獍	-13.9142
𨽾	-13.9142
爻	-13.9143
郊	-13.9144
㕨	-13.9144
譔	-13.9144
鵞	-13.9145
蚕	-13.9146
泳	-13.9146
𡁬	-13.9147
■	-13.9147
迮	-13.9147
剏	-13.9147
麞	-13.9148
贓	-13.9149
濮	-13.9149
貭	-13.9149
飼	-13.915
㗶	-13.915
棏	-13.915
蔞	-13.9151
瓊	-13.9151
笮	-13.9152
屨	-13.9152
芰	-13.9153
殼	-13.9155
秔	-13.9155
斵	-13.9155
𠺘	-13.9156
妣	-13.9156
猊	-13.9156
鬯	-13.9158
逅	-13.9158
邂	-13.9158
𡅧	-13.9158
呻	-13.9158
􂥂	-13.9158
韮	-13.9159
葦	-13.9159
詁	-13.916
毉	-13.916
𦁐	-13.916
摯	-13.9161
淴	-13.9161
鼉	-13.9162
簨	-13.9162
䬃	-13.9162
奼	-13.9163
鶯	-13.9163
蛩	-13.9165
肱	-13.9166
錮	-13.9167
忱	-13.9168
疰	-13.9168
寘	-13.9169
傭	-13.9169
范	-13.917
旒	-13.9172
鴨	-13.9173
撈	-13.9175
挪	-13.9179
豕	-13.918
樸	-13.9182
窩	-13.9185
徽	-13.9185
椰	-13.9188
􂪡	-13.919
􂙸	-13.9192
仵	-13.9195
嚯	-14.0108
罸	-14.0112
􂣯	-14.0114
熖	-14.0117
觔	-14.0119
苓	-14.0122
儛	-14.0122
軱	-14.0123
祉	-14.0126
痃	-14.0128
埜	-14.0129
褰	-14.0129
扑	-14.0132
偁	-14.0133
恁	-14.0134
炫	-14.0134
粲	-14.0134
札	-14.0135
菀	-14.0135
賁	-14.0138
夥	-14.0138
蚰	-14.0139
濱	-14.014
聘	-14.014
䆿	-14.014
蹴	-14.014
頴	-14.014
縞	-14.014
瘨	-14.0141
僇	-14.0141
𦕈	-14.0143
礪	-14.0143
哽	-14.0143
蠖	-14.0143
颲	-14.0143
翕	-14.0145
瓠	-14.0145
趂	-14.0146
豚	-14.0146
熬	-14.0146
茯	-14.0147
粵	-14.0147
渟	-14.0148
惻	-14.0148
剕	-14.0148
悛	-14.0149
箏	-14.0149
捭	-14.0149
隼	-14.0149
唳	-14.0152
甸	-14.0152
笥	-14.0153
凜	-14.0153
濠	-14.0153
犇	-14.0154
閟	-14.0154
宕	-14.0154
碪	-14.0154
僭	-14.0154
站	-14.0154
捔	-14.0155
胖	-14.0156
渝	-14.0156
攜	-14.0156
鈇	-14.0157
粧	-14.0158
噌	-14.0158
刖	-14.0158
𨤲	-14.0158
泪	-14.0158
戞	-14.0159
𦟛	-14.016
炁	-14.0161
─	-14.0161
籟	-14.0162
姨	-14.0162
荽	-14.0163
侄	-14.0163
挼	-14.0164
鉀	-14.0165
妊	-14.0166
𡅖	-14.0166
畿	-14.0167
楨	-14.0168
譴	-14.0169
鯨	-14.017
黷	-14.0171
咂	-14.0171
靘	-14.0172
懊	-14.0175
渭	-14.0176
麩	-14.0182
柿	-14.0182
哄	-14.0187
鯉	-14.0187
姚	-14.0188
甌	-14.0188
挌	-14.0191
𠍴	-14.0191
璅	-14.0194
訝	-14.02
汾	-14.0207
猩	-14.0207
晁	-14.0212
矮	-14.0233
鬀	-14.1192
𡧓	-14.1193
􂐔	-14.1204
橘	-14.1211
簱	-14.1216
鶉	-14.1219
􂎴	-14.1223
轡	-14.1227
蚶	-14.1228
縲	-14.1231
壟	-14.1232
匐	-14.1235
𩔗	-14.1235
懆	-14.1235
揲	-14.1236
髴	-14.1236
髣	-14.1237
雺	-14.1238
輳	-14.124
蝀	-14.1244
恱	-14.1245
􂝩	-14.1246
裛	-14.1246
淼	-14.1247
涇	-14.1247
斃	-14.1247
􂟵	-14.1248
𧷤	-14.1249
狡	-14.1249
􂨥	-14.1249
慟	-14.125
馝	-14.1251
麒	-14.1251
甑	-14.1252
搬	-14.1252
讇	-14.1253
𠽮	-14.1253
笙	-14.1254
䏺	-14.1254
憘	-14.1256
咏	-14.1256
圃	-14.1256
飫	-14.1257
楮	-14.1258
凰	-14.1258
曦	-14.1258
埠	-14.1258
洮	-14.1258
蠚	-14.1258
橐	-14.1259
貸	-14.1259
絳	-14.1259
葫	-14.1261
貍	-14.1261
詀	-14.1261
馭	-14.1261
嘖	-14.1261
誼	-14.1262
咖	-14.1262
楗	-14.1263
噠	-14.1264
懽	-14.1264
戕	-14.1264
鎩	-14.1264
萍	-14.1266
峨	-14.1267
墟	-14.1267
眺	-14.1267
鑞	-14.1268
穗	-14.1268
痼	-14.1268
浹	-14.1268
磚	-14.1269
署	-14.1269
楪	-14.1269
淑	-14.1271
姞	-14.1271
㗖	-14.1271
奠	-14.1271
瞼	-14.1272
蒺	-14.1273
扃	-14.1273
羲	-14.1274
賸	-14.1275
廔	-14.1275
髠	-14.1275
蹟	-14.1278
漓	-14.1279
腔	-14.1279
𠎝	-14.128
㨗	-14.128
樟	-14.1281
􂚨	-14.1281
穽	-14.1281
䌎	-14.1281
􂡤	-14.1281
甎	-14.1282
岫	-14.1282
喑	-14.1282
糵	-14.1282
脘	-14.1284
􂟻	-14.1284
臈	-14.1285
槎	-14.1285
𨷂	-14.1285
喙	-14.1285
噵	-14.1285
劭	-14.1286
噀	-14.1287
㳂	-14.1288
賚	-14.1289
臀	-14.129
薇	-14.129
觴	-14.129
顱	-14.1291
球	-14.1293
惋	-14.1294
墊	-14.1294
𠾐	-14.1299
愴	-14.13
􂠽	-14.1301
哢	-14.1308
耿	-14.1309
欒	-14.1313
閬	-14.1337
󱄕	-14.2452
𡃇	-14.2459
袁	-14.2461
􂩘	-14.2464
痤	-14.2467
郗	-14.2469
羙	-14.2472
踡	-14.2472
匍	-14.2473
溜	-14.2473
蘃	-14.2476
揜	-14.2477
霿	-14.2477
聃	-14.2479
听	-14.2483
忡	-14.2483
􂩠	-14.2484
嵠	-14.2484
熄	-14.2487
尓	-14.2487
汨	-14.2488
醰	-14.2489
穹	-14.249
肪	-14.2491
徼	-14.2491
􂧄	-14.2491
腴	-14.2494
䌇	-14.2494
鉼	-14.2495
鉅	-14.2495
飃	-14.2496
贖	-14.2496
荀	-14.2496
拇	-14.2497
呆	-14.2497
跬	-14.2498
屩	-14.2499
豊	-14.2499
墼	-14.2499
衙	-14.2499
耑	-14.25
卐	-14.25
蜃	-14.25
䥫	-14.2501
佯	-14.2501
螮	-14.2501
蜯	-14.2502
𣣋	-14.2502
舃	-14.2502
欯	-14.2502
㗛	-14.2503
麫	-14.2503
乩	-14.2503
宼	-14.2503
䖝	-14.2503
厩	-14.2503
癀	-14.2504
円	-14.2504
梭	-14.2505
刦	-14.2505
歘	-14.2505
􂘪	-14.2505
㨶	-14.2505
沗	-14.2505
絜	-14.2506
㕹	-14.2507
㘅	-14.2509
愿	-14.2509
寞	-14.2509
羗	-14.251
忩	-14.251
荏	-14.2511
棍	-14.2511
閴	-14.2511
晤	-14.2511
俵	-14.2511
饈	-14.2513
𠺶	-14.2513
礱	-14.2513
翱	-14.2513
舋	-14.2514
湍	-14.2515
舁	-14.2515
濬	-14.2515
𥢶	-14.2516
淰	-14.2516
笋	-14.2516
啤	-14.2517
撝	-14.2517
􂣁	-14.2517
靖	-14.2517
丱	-14.2517
幣	-14.2518
贄	-14.2518
蘄	-14.252
逭	-14.252
彤	-14.252
醬	-14.2521
糯	-14.2521
拪	-14.2522
糸	-14.2523
􂞄	-14.2525
抬	-14.2526
謔	-14.2526
癤	-14.2526
摻	-14.2527
扉	-14.2528
珪	-14.2529
㗌	-14.2529
勣	-14.2529
擷	-14.253
紉	-14.2531
瞤	-14.2531
鑼	-14.2532
醮	-14.2533
罤	-14.2534
咾	-14.2538
旡	-14.2538
弔	-14.2539
餂	-14.2541
璘	-14.2542
迃	-14.2543
鹻	-14.2543
譫	-14.2547
騙	-14.2548
僂	-14.2548
扮	-14.2548
臑	-14.255
􂤖	-14.255
繚	-14.2553
琦	-14.2553
襴	-14.2557
薙	-14.256
鄂	-14.2563
譋	-14.2564
𠻐	-14.2566
幃	-14.2572
瓚	-14.2577
䁥	-14.2578
笠	-14.259
漾	-14.2591
贉	-14.3854
簁	-14.3871
茟	-14.3872
庄	-14.3882
浡	-14.3894
㕲	-14.3899
瀰	-14.3899
媿	-14.39
􂢂	-14.3901
鄣	-14.3907
㝵	-14.3908
宷	-14.391
捴	-14.391
喭	-14.3913
欹	-14.3913
􂧀	-14.3914
􂣑	-14.3916
桀	-14.3917
絓	-14.3917
筈	-14.3917
𩬊	-14.3919
懌	-14.392
鰲	-14.392
麴	-14.3921
𨗿	-14.3921
齬	-14.3923
篌	-14.3923
嚤	-14.3925
鏘	-14.3925
紡	-14.3926
姙	-14.3926
􂘦	-14.3926
淅	-14.3928
裩	-14.3929
砆	-14.3929
矦	-14.3929
痆	-14.3929
煦	-14.393
𠶒	-14.3931
蔚	-14.3931
倀	-14.3931
穉	-14.3932
醘	-14.3933
齗	-14.3933
髼	-14.3934
紂	-14.3935
􂣢	-14.3936
璀	-14.3936
噳	-14.3937
顇	-14.3937
組	-14.3938
怤	-14.3938
栓	-14.3938
矇	-14.3939
魎	-14.3939
𢯇	-14.3939
囔	-14.3939
嘙	-14.394
咮	-14.3941
􂦲	-14.3941
檜	-14.3943
蜱	-14.3943
􂣍	-14.3944
樵	-14.3944
晰	-14.3945
騖	-14.3945
􂤆	-14.3946
陡	-14.3946
厓	-14.3947
弛	-14.3947
鍱	-14.3947
􂠩	-14.3947
俚	-14.3947
鷂	-14.3948
翡	-14.3948
胮	-14.3949
𧯞	-14.395
􂎫	-14.395
襵	-14.395
𩜶	-14.3952
汀	-14.3953
㗁	-14.3954
袜	-14.3954
剻	-14.3954
􂢉	-14.3954
貂	-14.3954
巔	-14.3955
􂠜	-14.3955
驥	-14.3955
渒	-14.3955
嗏	-14.3956
葂	-14.3956
廕	-14.3958
蜍	-14.3958
𠸎	-14.3958
躲	-14.3959
裒	-14.3959
嗦	-14.3961
聻	-14.3961
筠	-14.3963
熅	-14.3964
儘	-14.3964
癧	-14.3964
廛	-14.3964
鈞	-14.3964
坂	-14.3965
潺	-14.3965
溲	-14.3966
睨	-14.3968
嚫	-14.3969
籃	-14.397
掀	-14.3971
𧦦	-14.3971
􂌸	-14.3972
飭	-14.3972
􂎅	-14.3974
𢋑	-14.3974
賭	-14.3975
姜	-14.3976
耦	-14.3977
㖀	-14.3979
蜆	-14.398
臝	-14.398
痿	-14.3981
隈	-14.3982
俠	-14.3983
猝	-14.3986
艦	-14.3989
􂠴	-14.3992
儐	-14.3992
鎌	-14.3993
璋	-14.3996
儋	-14.4
􂡟	-14.4
楫	-14.4004
琛	-14.4005
􂧟	-14.4017
􂏡	-14.5517
𡽉	-14.552
桴	-14.5534
减	-14.5535
𨳝	-14.5541
俎	-14.5551
臗	-14.5551
􂢖	-14.5559
𨷖	-14.5561
紲	-14.5562
鑵	-14.5564
愶	-14.5564
裊	-14.5566
􂩢	-14.5568
款	-14.5571
裾	-14.5574
涘	-14.5575
􂋧	-14.5575
䰅	-14.5577
灆	-14.5579
啑	-14.5579
􂜉	-14.558
逵	-14.5581
蒵	-14.5581
棙	-14.5582
冢	-14.5583
芮	-14.5584
躔	-14.5585
涔	-14.5585
𨥌	-14.5586
飈	-14.5586
畹	-14.5587
𤓰	-14.5587
柞	-14.5587
胚	-14.5588
𢱍	-14.5589
褚	-14.559
𩯭	-14.559
軻	-14.559
枵	-14.5591
颷	-14.5591
鷇	-14.5593
􂔲	-14.5593
倖	-14.5594
摳	-14.5594
蘸	-14.5594
舩	-14.5595
袾	-14.5596
鵒	-14.5596
嗌	-14.5596
硎	-14.5596
襜	-14.5596
𥕺	-14.5597
臰	-14.5597
禘	-14.5597
莧	-14.5598
𥌊	-14.5598
悽	-14.5599
菱	-14.5599
杪	-14.56
臧	-14.56
傀	-14.5601
儡	-14.5601
鏺	-14.5601
攔	-14.5601
韞	-14.5601
𨲙	-14.5601
僥	-14.5602
囈	-14.5602
鷰	-14.5602
眨	-14.5603
胑	-14.5603
顋	-14.5603
琹	-14.5603
畋	-14.5603
睽	-14.5603
踣	-14.5604
紬	-14.5605
袴	-14.5605
廚	-14.5605
鸎	-14.5605
棖	-14.5605
𧵊	-14.5606
砥	-14.5607
􂔒	-14.5607
𡱁	-14.5607
鐍	-14.5608
埏	-14.5608
􂤍	-14.5608
遯	-14.5608
鶚	-14.5608
􂚷	-14.5608
娥	-14.5609
潘	-14.5609
萠	-14.5609
酣	-14.561
髦	-14.561
褌	-14.561
洶	-14.561
疴	-14.561
套	-14.5611
螃	-14.5611
欀	-14.5611
翎	-14.5612
鋼	-14.5612
璣	-14.5612
郤	-14.5612
𦁛	-14.5612
瑤	-14.5612
縶	-14.5612
摟	-14.5613
𡂺	-14.5613
癥	-14.5614
衿	-14.5614
鵽	-14.5614
𤨏	-14.5615
劵	-14.5616
嗼	-14.5616
怵	-14.5617
謚	-14.5617
抃	-14.5617
枋	-14.5617
􂎹	-14.5618
禿	-14.5618
㖸	-14.5618
馞	-14.5618
𧬘	-14.5618
睜	-14.5618
担	-14.5619
𠻲	-14.5619
鷃	-14.562
黔	-14.562
𠺕	-14.5621
腆	-14.5621
逶	-14.5621
帔	-14.5621
蘧	-14.5622
罩	-14.5622
憬	-14.5622
愎	-14.5623
􂡣	-14.5623
蟦	-14.5624
霈	-14.5624
綬	-14.5624
糾	-14.5624
嘯	-14.5624
籥	-14.5624
饕	-14.5624
盌	-14.5625
雒	-14.5625
鄽	-14.5625
狙	-14.5625
殯	-14.5625
筍	-14.5626
榨	-14.5626
丼	-14.5626
籓	-14.5626
桌	-14.5626
􂤒	-14.5627
嚊	-14.5628
䗫	-14.5628
湎	-14.5629
􂪘	-14.563
朦	-14.5631
𦋺	-14.5632
橈	-14.5637
觝	-14.5638
蟨	-14.5639
𢾊	-14.564
蹶	-14.5641
柤	-14.5643
篡	-14.5644
𦡲	-14.5645
芿	-14.5646
菔	-14.5646
􂎶	-14.5647
獰	-14.5648
摺	-14.5648
啜	-14.565
玡	-14.5654
瘁	-14.5654
圻	-14.5655
鈐	-14.5656
𣧑	-14.5657
黧	-14.5661
屐	-14.5663
肓	-14.5663
怚	-14.5664
鑾	-14.5666
茄	-14.5671
􂤃	-14.5674
晟	-14.5675
咱	-14.5687
穫	-14.5693
䌤	-14.7575
㝱	-14.7577
㿈	-14.7581
体	-14.7582
袈	-14.76
ㄟ	-14.7603
䫌	-14.7609
䞋	-14.7615
㘁	-14.762
䓾	-14.7622
㗳	-14.7626
㥽	-14.7629
㡭	-14.7633
㧌	-14.7638
亹	-14.7644
㶿	-14.7646
㴾	-14.7649
䑨	-14.7656
䳌	-14.7668
㘉	-14.7679
㒧	-14.773
榴	-15.0075
髏	-15.0109
N	-15.3414
髑	-15.3416
醍	-15.3432
醐	-15.3455
圅	-15.8394
𡲼	-15.8416
殪	-15.8417
皚	-15.8418
􂣀	-15.8419
讟	-15.842
蟋	-15.8421
蟀	-15.8422
翛	-15.8423
珈	-15.8424
狻	-15.8425
婥	-15.8426
喟	-15.8427
驍	-15.8428
昰	-15.8429
鏌	-15.8429
鎁	-15.843
蝸	-15.8431
蚥	-15.8432
碼	-15.8433
碯	-15.8434
櫁	-15.8435
鼯	-15.8436
鬟	-15.8437
譎	-15.8438
瞌	-15.8439
蠮	-15.844
𠶹	-15.8441
螉	-15.8441
窕	-15.8442
瑪	-15.8443
玲	-15.8444
漕	-15.8445
栂	-15.8446
􂙜	-15.8447
馲	-15.8448
蕎	-15.8449
崘	-15.845
􂜃	-15.8451
琥	-15.8452
蟆	-15.8453
蓿	-15.8454
苜	-15.8455
硨	-15.8456
獯	-15.8457
􂢕	-15.8458
晶	-15.8459
𠷌	-15.846
穡	-15.8461
扼	-15.8462
蕅	-15.8463
茴	-15.8464
㬥	-15.8465
蜈	-15.8466
倆	-15.8467
々	-15.8468
珀	-15.8469
哮	-15.847
􂣃	-15.8471
ṅ	-15.8472
O	-15.8473
蟇	-15.8474
靆	-15.8475
㵕	-15.8476
鵡	-15.8477
𦎨	-15.8478
菉	-15.8479
􂣂	-15.848
冽	-15.8481
豽	-15.8482
獼	-15.8483
檇	-15.8484
—	-15.8485
[	-15.8486
l	-15.8487
霹	-15.8488
+	-15.8489
􂨳	-15.849
>	-15.8491
|	-15.8492
▲	-15.8493
箜	-15.8493
