<unk>	0
<s>	0
</s>	0
/	-4.00851
之	-4.11406
以	-4.47973
)	-4.49606
(	-4.51733
為	-4.67057
)(	-4.96458
也	-5.02773
而	-5.08096
其	-5.14923
不	-5.21049
者	-5.29655
曰	-5.3151
有	-5.32123
人	-5.34033
王	-5.39562
於	-5.48998
州	-5.54653
上	-5.57573
自	-5.66693
言	-5.68664
事	-5.71413
與	-5.71631
大	-5.74896
至	-5.77361
所	-5.77994
使	-5.85475
一	-5.85538
官	-5.89736
無	-5.90886
則	-5.91355
及	-5.91497
兵	-5.96344
在	-6.01872
等	-6.01896
行	-6.04508
軍	-6.05572
詔	-6.05625
今	-6.06805
知	-6.07866
于	-6.07927
皆	-6.09577
令	-6.11085
此	-6.11886
中	-6.12071
乃	-6.14953
時	-6.15606
帝	-6.1697
子	-6.17894
國	-6.18351
復	-6.19183
又	-6.19337
翻	-6.20933
臣	-6.22375
故	-6.23546
書	-6.2465
城	-6.26875
安	-6.27638
三	-6.28674
出	-6.29198
下	-6.31038
入	-6.319
公	-6.33324
當	-6.35328
亦	-6.35351
命	-6.37272
得	-6.37412
將	-6.37996
用	-6.38306
欲	-6.39408
民	-6.39511
見	-6.39671
文	-6.39945
矣	-6.41189
可	-6.41347
如	-6.41682
已	-6.4196
道	-6.42129
李	-6.42148
請	-6.46141
遂	-6.46668
二	-6.4823
謂	-6.49182
日	-6.49482
明	-6.49841
非	-6.50255
相	-6.53104
立	-6.5367
元	-6.54947
天	-6.54966
張	-6.55093
從	-6.56094
切	-6.57221
奏	-6.5724
即	-6.57764
平	-6.59317
南	-6.59894
是	-6.60581
名	-6.61178
正	-6.61891
後	-6.63501
進	-6.6367
成	-6.64069
若	-6.64553
何	-6.64757
因	-6.65467
漢	-6.65958
初	-6.66058
置	-6.66164
然	-6.66182
▁	-6.66803
同	-6.67163
死	-6.67421
多	-6.67721
未	-6.68734
方	-6.69006
西	-6.70504
武	-6.71058
必	-6.71272
縣	-6.71531
遣	-6.72609
山	-6.72684
北	-6.73472
守	-6.73651
府	-6.75049
前	-6.75065
法	-6.7531
陳	-6.75851
東	-6.76026
先	-6.76298
本	-6.77196
歸	-6.77325
五	-6.7738
議	-6.77581
徳	-6.78965
分	-6.79395
水	-6.79471
年	-6.8001
定	-6.80293
聞	-6.82125
降	-6.83014
宗	-6.83156
既	-6.84067
四	-6.85211
士	-6.85781
作	-6.86222
馬	-6.86716
劉	-6.87156
地	-6.87433
賜	-6.87858
朝	-6.87961
取	-6.88021
還	-6.88607
罷	-6.88859
主	-6.88943
郡	-6.89731
金	-6.8977
云	-6.89942
魏	-6.90231
重	-6.90955
居	-6.90995
始	-6.91785
司	-6.91952
去	-6.91972
數	-6.92384
内	-6.92438
陽	-6.92738
生	-6.95883
都	-6.95919
門	-6.96468
禮	-6.96616
錢	-6.96778
長	-6.97329
治	-6.97426
實	-6.97866
或	-6.97912
外	-6.98023
卒	-6.98149
師	-6.98383
義	-6.98518
天下	-6.99276
周	-6.99487
賊	-6.99522
氏	-6.99825
唐	-6.99832
舉	-7.00316
並	-7.00844
諸	-7.01299
河	-7.01331
宜	-7.01502
雖	-7.02225
且	-7.03036
君	-7.03803
陛下	-7.04189
任	-7.04194
論	-7.0434
以為	-7.04372
稱	-7.08069
殺	-7.08261
路	-7.08472
朝廷	-7.08593
世	-7.09152
家	-7.09233
能	-7.09383
來	-7.1063
乞	-7.11145
改	-7.11455
政	-7.11494
通	-7.1158
親	-7.11648
趙	-7.11687
盡	-7.11695
力	-7.11758
我	-7.11849
六	-7.12514
制	-7.12578
封	-7.12621
興	-7.13175
乎	-7.13359
衆	-7.13655
戰	-7.14101
修	-7.14567
㑹	-7.14895
不可	-7.1522
新	-7.15387
問	-7.15562
除	-7.15856
和	-7.16037
合	-7.17299
直	-7.17367
傳	-7.17887
求	-7.17911
齊	-7.18172
常	-7.18186
失	-7.18245
意	-7.18256
權	-7.18564
音	-7.18721
不能	-7.19314
晉	-7.19317
忠	-7.20098
屬	-7.20331
過	-7.20332
心	-7.2034
信	-7.20834
罪	-7.21263
建	-7.21926
字	-7.22492
兩	-7.23275
孫	-7.23573
經	-7.23597
應	-7.2377
各	-7.23773
光	-7.24468
凡	-7.2462
發	-7.25147
許	-7.25521
甚	-7.25859
髙	-7.26049
召	-7.26051
秦	-7.26113
按	-7.26834
善	-7.27646
鎮	-7.27999
舊	-7.28459
宋	-7.28731
利	-7.2877
逺	-7.29107
更	-7.2944
太	-7.3005
田	-7.30921
恐	-7.31309
近	-7.31405
加	-7.31749
惟	-7.32307
宫	-7.32482
小	-7.32632
受	-7.32643
處	-7.32935
攻	-7.32975
陵	-7.33354
廣	-7.33959
江	-7.3404
志	-7.34043
石	-7.34165
楊	-7.34749
萬	-7.35401
起	-7.35612
奉	-7.36618
宣	-7.36889
計	-7.37169
謀	-7.37338
易	-7.3748
少	-7.37689
爾	-7.38333
特	-7.38548
聖	-7.38673
侯	-7.38977
固	-7.39081
保	-7.39162
服	-7.39392
耳	-7.39422
古	-7.39717
留	-7.39754
史	-7.39986
益	-7.40234
爲	-7.40553
吏	-7.40916
思	-7.41052
九	-7.414
敵	-7.42334
白	-7.42809
梁	-7.42946
據	-7.4307
左	-7.43654
難	-7.43797
止	-7.43967
致	-7.44313
殿	-7.44371
章	-7.44617
海	-7.4464
次	-7.45082
昌	-7.45345
夫	-7.45391
嘗	-7.4556
敗	-7.46066
孝	-7.46706
給	-7.47026
卿	-7.47115
坐	-7.47522
猶	-7.47561
食	-7.47969
賢	-7.4821
省	-7.4824
功	-7.48436
兼	-7.48544
告	-7.48986
深	-7.4949
夏	-7.49629
焉	-7.4963
引	-7.49671
節	-7.49679
十	-7.49739
遷	-7.49904
悉	-7.50159
尚	-7.50311
職	-7.50332
仁	-7.50449
嵗	-7.50468
七	-7.50593
流	-7.50657
承	-7.51119
餘	-7.51635
月	-7.51883
吾	-7.52668
部	-7.53457
開	-7.5375
位	-7.53757
異	-7.54476
望	-7.54562
樂	-7.55603
從之	-7.55692
御	-7.5582
亂	-7.56344
延	-7.56392
祖	-7.56465
度	-7.56691
備	-7.56758
觀	-7.56865
寧	-7.57139
理	-7.5749
廢	-7.57855
免	-7.57977
恩	-7.59261
辭	-7.59593
口	-7.59686
獨	-7.60337
監	-7.60431
納	-7.60437
代	-7.61078
語	-7.61111
紀	-7.61173
仍	-7.61219
威	-7.61339
率	-7.61729
但	-7.61774
臨	-7.61787
獻	-7.62275
濟	-7.62292
帥	-7.62327
清	-7.62439
别	-7.62731
間	-7.6294
后	-7.62973
衛	-7.63383
具	-7.6354
擊	-7.63654
朕	-7.6373
學	-7.64167
德	-7.64361
不得	-7.64409
龍	-7.64552
物	-7.64603
諭	-7.64634
黄	-7.64923
昭	-7.65199
克	-7.65501
依	-7.66118
疾	-7.66395
楚	-7.66519
私	-7.66647
反	-7.66885
比	-7.67268
首	-7.67803
號	-7.68327
考	-7.69233
圖	-7.69721
并	-7.69868
永	-7.69978
神	-7.70011
皇	-7.70135
○	-7.70168
順	-7.70722
良	-7.70765
百	-7.70859
胡	-7.70898
伯	-7.70932
務	-7.71154
身	-7.71675
元年	-7.71811
亡	-7.72062
景	-7.72444
邊	-7.72461
鄭	-7.7254
繼	-7.72749
八	-7.73064
右	-7.73129
吳	-7.7392
幸	-7.73924
充	-7.74138
執	-7.7417
仲	-7.74536
全	-7.75028
對	-7.75171
選	-7.7519
賞	-7.75704
疑	-7.76121
京	-7.76174
授	-7.76265
就	-7.76815
布	-7.76922
勝	-7.77284
里	-7.77286
營	-7.77349
收	-7.77368
将	-7.77505
追	-7.77907
變	-7.78133
至是	-7.78601
責	-7.7868
退	-7.78925
共	-7.7894
父	-7.78979
由	-7.79275
太子	-7.79383
曹	-7.79543
徐	-7.7955
附	-7.79553
誠	-7.79758
誅	-7.80109
惡	-7.80597
差	-7.80683
便	-7.80825
慶	-7.80829
移	-7.81044
土	-7.81064
林	-7.81288
户	-7.81446
崇	-7.81586
好	-7.8168
禁	-7.82081
往	-7.82409
韓	-7.82899
弟	-7.83323
終	-7.83372
報	-7.83699
所以	-7.83999
上曰	-7.84157
送	-7.84163
三年	-7.84269
才	-7.84275
將軍	-7.84326
願	-7.84365
貴	-7.84441
破	-7.84488
集	-7.84551
遇	-7.84671
表	-7.8512
朱	-7.85528
厚	-7.8557
節度使	-7.85614
二年	-7.85856
察	-7.85927
闕	-7.85959
伐	-7.86011
不敢	-7.86124
申	-7.86921
録	-7.87002
領	-7.87076
母	-7.87289
院	-7.8741
州刺史	-7.87491
嘉	-7.8786
太后	-7.879
女	-7.88053
討	-7.88053
被	-7.88439
燕	-7.88509
屯	-7.88596
試	-7.88736
害	-7.88767
要	-7.88932
載	-7.88985
拜	-7.89046
豈	-7.89631
騎	-7.89864
解	-7.90264
説	-7.90316
犯	-7.90367
康	-7.90445
大臣	-7.90766
於是	-7.90909
彦	-7.91062
存	-7.91083
素	-7.91221
盛	-7.92136
先是	-7.92144
再	-7.9237
圍	-7.92513
遺	-7.93144
老	-7.93159
謝	-7.93166
遣使	-7.93835
蜀	-7.93849
輕	-7.93973
懼	-7.93976
左右	-7.94342
皇帝	-7.94617
走	-7.94656
朔	-7.94846
役	-7.95045
哉	-7.95195
業	-7.95375
獲	-7.95489
補	-7.95503
丁	-7.95509
廟	-7.95627
急	-7.95754
久	-7.95941
須	-7.96001
彼	-7.96058
視	-7.9627
動	-7.96483
如此	-7.9677
華	-7.96777
約	-7.96936
邑	-7.97408
聲	-7.97417
風	-7.97694
記	-7.97833
向	-7.97851
汝	-7.97856
絶	-7.98295
每	-7.98314
三月	-7.98587
車	-7.98718
怒	-7.98862
輔	-7.98894
委	-7.9918
聽	-7.99669
徒	-7.99689
隂	-7.99755
勞	-7.99891
郎	-8.00227
嗣	-8.00247
伏	-8.00251
教	-8.00501
徙	-8.00578
第	-8.01233
川	-8.01547
極	-8.01662
勢	-8.01702
甲	-8.02109
注	-8.02166
莫	-8.02349
吕	-8.02486
福	-8.02516
越	-8.03014
夜	-8.03253
交	-8.0356
魯	-8.03661
而不	-8.03715
連	-8.04044
郭	-8.04076
尋	-8.04119
春	-8.04237
例	-8.04552
薦	-8.05047
吉	-8.05428
儀	-8.05447
設	-8.0545
寳	-8.05545
赴	-8.05744
登	-8.05894
持	-8.05947
慮	-8.05982
迎	-8.05986
籍	-8.06638
恭	-8.06731
容	-8.06868
化	-8.06899
救	-8.07231
斷	-8.07626
足	-8.07662
温	-8.07678
色	-8.07769
斬	-8.07944
嚴	-8.08078
高	-8.08098
邪	-8.08334
六月	-8.08706
懐	-8.08727
塞	-8.08758
勿	-8.09027
憂	-8.09187
俱	-8.09247
達	-8.09274
果	-8.09281
尚書	-8.09528
獄	-8.09641
契丹	-8.09764
奔	-8.09799
千	-8.10329
天子	-8.10695
盖	-8.10815
不知	-8.10863
卷	-8.10955
詳	-8.10963
資	-8.111
結	-8.11707
敢	-8.11728
九月	-8.11892
刑	-8.12018
闗	-8.12521
條	-8.1265
典	-8.12995
庶	-8.13103
族	-8.13207
支	-8.13803
息	-8.14045
阿	-8.14177
臺	-8.14437
木	-8.14934
運	-8.14978
原	-8.151
界	-8.15381
狀	-8.15642
推	-8.15718
尊	-8.1575
鹽	-8.15917
五月	-8.15927
市	-8.15963
黨	-8.15987
散	-8.16088
援	-8.16143
逐	-8.1625
▁(	-8.16321
顯	-8.16438
敬	-8.16453
玉	-8.1653
誤	-8.16861
戒	-8.16911
養	-8.16988
費	-8.17098
二月	-8.17176
秋	-8.17717
患	-8.17759
隨	-8.17896
氣	-8.18213
澤	-8.18261
河北	-8.18764
中書	-8.18765
病	-8.19048
指	-8.19104
閣	-8.19194
襲	-8.19223
器	-8.19252
列	-8.19425
青	-8.19478
目	-8.19683
體	-8.20065
二十	-8.2009
疏	-8.20094
詣	-8.20167
專	-8.20237
孟	-8.20238
造	-8.20475
端	-8.2066
糧	-8.21217
八月	-8.21346
蓋	-8.21402
待	-8.21727
累	-8.21766
棄	-8.21798
淮	-8.22169
統	-8.22375
防	-8.22452
十二月	-8.22552
大夫	-8.22574
升	-8.22583
謂之	-8.22622
手	-8.22949
愛	-8.2305
増	-8.23081
夷	-8.231
有司	-8.23117
京師	-8.23406
著	-8.23793
畏	-8.23971
積	-8.23984
宰相	-8.24109
情	-8.24178
陷	-8.24221
堅	-8.24304
真	-8.2445
衣	-8.2452
寨	-8.24666
商	-8.24847
喜	-8.2489
顧	-8.24945
勸	-8.24969
避	-8.251
叛	-8.25148
羣	-8.25247
略	-8.25361
金人	-8.25465
撫	-8.25821
河東	-8.26055
招	-8.2634
呼	-8.26999
杜	-8.27104
怨	-8.27225
姦	-8.27628
侵	-8.27643
格	-8.27832
鄉	-8.27942
赦	-8.28052
蘇	-8.28197
面	-8.2843
烏	-8.28484
姓	-8.28614
放	-8.28656
御史	-8.28811
决	-8.28849
泰	-8.29085
轉	-8.2913
參	-8.29419
管	-8.29428
呉	-8.29438
㫖	-8.29589
說	-8.30056
范	-8.3017
曽	-8.30213
隆	-8.30249
蕭	-8.30566
擇	-8.3077
違	-8.30912
到	-8.31359
稍	-8.3138
逆	-8.31417
關	-8.31494
亮	-8.31657
况	-8.31665
英	-8.31681
叔	-8.317
付	-8.31736
乗	-8.31915
宻	-8.32195
密	-8.3224
䇿	-8.32315
工	-8.32353
曲	-8.32657
美	-8.3283
征	-8.32895
隋	-8.32919
四年	-8.33045
副	-8.33087
侍	-8.33114
酒	-8.33171
可以	-8.33607
火	-8.3366
祭	-8.3368
以來	-8.33874
邉	-8.33913
草	-8.34109
洛	-8.34187
冦	-8.34212
皇后	-8.34344
滅	-8.34522
劾	-8.34563
殺之	-8.34596
而已	-8.34606
榮	-8.34629
羅	-8.3484
末	-8.35112
賀	-8.35179
戎	-8.35348
季	-8.35357
無所	-8.3543
雲	-8.35534
班	-8.35697
奪	-8.35782
習	-8.35894
傷	-8.35939
十一月	-8.36816
室	-8.36918
畧	-8.36974
羣臣	-8.37113
諸將	-8.37149
淵	-8.37383
乆	-8.37503
他	-8.37608
祀	-8.37687
蔡	-8.38153
巴	-8.38285
減	-8.38499
之地	-8.38597
督	-8.38601
雨	-8.38603
簡	-8.38625
太祖	-8.39254
盧	-8.39404
遼	-8.39405
寺	-8.39518
示	-8.39699
機	-8.3982
倉	-8.40033
寛	-8.40223
爵	-8.40455
振	-8.40473
貶	-8.40794
期	-8.40798
助	-8.40887
諫	-8.41081
國家	-8.41194
頭	-8.41255
諸侯	-8.4142
頗	-8.41493
衡	-8.41649
希	-8.41947
諸軍	-8.4203
乘	-8.42341
聚	-8.42446
河南	-8.4286
雍	-8.43108
夀	-8.4313
客	-8.43134
勒	-8.43341
境	-8.43347
憲	-8.43461
科	-8.4353
之意	-8.43538
蕃	-8.43775
尤	-8.43866
博	-8.43882
配	-8.43896
射	-8.44245
折	-8.44461
縱	-8.44559
咸	-8.44787
類	-8.4484
米	-8.44849
候	-8.45257
歴	-8.45321
牛	-8.45356
鼎	-8.45464
財	-8.45467
州縣	-8.45595
程	-8.45664
離	-8.45776
舟	-8.45785
冬	-8.45846
庫	-8.45942
豐	-8.46068
己	-8.4622
谷	-8.46557
横	-8.46816
庭	-8.46836
畢	-8.46978
五年	-8.46986
雄	-8.47159
今日	-8.47304
葢	-8.4752
陜西	-8.47581
竊	-8.4769
虞	-8.47854
弼	-8.47872
指揮	-8.47978
屢	-8.48058
提舉	-8.48081
詩	-8.4809
回	-8.48189
審	-8.48338
諸路	-8.48491
夏四月	-8.48628
襄	-8.49
掠	-8.49024
貢	-8.49161
半	-8.4917
假	-8.4946
然後	-8.49554
之人	-8.49657
𤣥	-8.49673
以聞	-8.49885
震	-8.50171
實録	-8.50381
旦	-8.50435
春秋	-8.50692
俟	-8.50777
未嘗	-8.50978
負	-8.51152
斯	-8.51332
偽	-8.51387
之後	-8.51474
妄	-8.51585
惠	-8.51665
一人	-8.51746
員	-8.51783
太宗	-8.51823
質	-8.52208
寵	-8.52249
冬十月	-8.52359
不足	-8.52413
勇	-8.52485
校	-8.52607
額	-8.52714
蠻	-8.52941
靈	-8.53036
廷	-8.53074
索	-8.53089
性	-8.53257
均	-8.53286
穆	-8.53403
錫	-8.53673
賦	-8.5387
判	-8.54026
强	-8.54662
講	-8.54824
百姓	-8.54878
智	-8.54888
募	-8.55031
釋	-8.5513
浚	-8.55186
野	-8.55291
休	-8.55431
乾	-8.55469
敕	-8.5549
星	-8.5551
爭	-8.5571
險	-8.55869
富	-8.55927
飛	-8.55935
築	-8.56181
副使	-8.56221
秋七月	-8.5629
允	-8.56305
謹	-8.56422
施行	-8.56487
戍	-8.56554
二人	-8.56664
禍	-8.56665
虎	-8.56707
傅	-8.56834
贈	-8.56998
干	-8.57123
危	-8.57177
甫	-8.57204
儒	-8.57467
薄	-8.57504
由是	-8.57674
牧	-8.57713
俊	-8.5786
宿	-8.58001
馮	-8.58052
沈	-8.58097
佐	-8.5821
執政	-8.58485
預	-8.58727
律	-8.58882
丞相	-8.58915
貫	-8.58941
速	-8.59035
雅	-8.5914
来	-8.59156
接	-8.59182
沙	-8.59283
湖	-8.59414
太守	-8.59434
農	-8.5945
祖宗	-8.59616
縁	-8.59927
昔	-8.59966
輸	-8.59971
竒	-8.60065
適	-8.60072
池	-8.6016
掌	-8.60617
尹	-8.60677
捕	-8.60702
僧	-8.60717
耶	-8.60727
綱	-8.60892
百官	-8.60904
舍	-8.6164
長安	-8.61909
賈	-8.6195
讀	-8.61996
決	-8.62155
十二	-8.62185
館	-8.62199
丞	-8.62308
房	-8.62558
訓	-8.6267
紹	-8.62734
却	-8.62904
不許	-8.62999
𢎞	-8.63499
孔	-8.63549
肅	-8.63888
藏	-8.64023
妻	-8.6412
安石	-8.64253
擢	-8.64263
䝉	-8.64354
祠	-8.64435
符	-8.64513
三十	-8.64606
之所	-8.64627
精	-8.648
洪	-8.64951
總	-8.65173
陸	-8.65196
虜	-8.65424
編	-8.65477
郊	-8.65889
優	-8.65934
幾	-8.65961
堂	-8.66039
故事	-8.66096
暴	-8.66106
淮南	-8.66246
崔	-8.6633
困	-8.66342
禹	-8.66377
一日	-8.66408
象	-8.66477
妃	-8.66538
繫	-8.66651
苦	-8.66663
限	-8.66765
焚	-8.66835
戸	-8.6688
之事	-8.66909
勲	-8.67097
案	-8.67112
兄	-8.6712
以下	-8.67158
既而	-8.67199
施	-8.67252
遵	-8.67479
揚	-8.67488
友	-8.67677
對曰	-8.67821
所謂	-8.67823
擾	-8.6784
盗	-8.67932
司馬	-8.68037
薨	-8.68316
寜	-8.68534
即位	-8.68567
秀	-8.6861
頃	-8.68638
今從	-8.6877
滿	-8.68784
覆	-8.68876
有所	-8.68972
調	-8.68993
渠	-8.69072
茍	-8.69091
損	-8.69423
師古曰	-8.69619
虚	-8.69703
聞之	-8.69832
漸	-8.69857
早	-8.69874
畫	-8.70059
其後	-8.70087
裕	-8.70152
都督	-8.7042
尺	-8.70478
𨽻	-8.70694
量	-8.71202
薛	-8.71498
自今	-8.71609
唯	-8.7167
其子	-8.71693
歲	-8.71768
拒	-8.71827
敏	-8.72064
感	-8.72378
何以	-8.7242
堯	-8.72479
鄧	-8.72627
式	-8.72896
曰吾	-8.72923
彊	-8.72957
銀	-8.72975
喪	-8.73507
中外	-8.73615
帶	-8.73737
厯	-8.73882
謙	-8.73991
買	-8.74072
革	-8.74138
六年	-8.74167
䕶	-8.7417
詞	-8.74217
徃	-8.74279
馳	-8.74353
天下之	-8.74502
先帝	-8.7461
弱	-8.74655
葉	-8.74752
策	-8.74795
雜	-8.74846
伊	-8.74932
源	-8.74957
擒	-8.75153
盟	-8.75198
孤	-8.75327
毎	-8.75618
維	-8.75802
禄	-8.75843
丘	-8.76001
趣	-8.76311
匹	-8.76312
宴	-8.76583
赤	-8.76782
殷	-8.76885
蒲	-8.76904
循	-8.76912
匈奴	-8.76943
勤	-8.77226
訪	-8.77309
供	-8.77387
四十	-8.77425
愈	-8.77623
之間	-8.77635
辨	-8.77662
茂	-8.77865
哀	-8.77918
遽	-8.77962
斥	-8.77996
豫	-8.78343
毁	-8.78347
會	-8.78597
以上	-8.78791
超	-8.78822
逹	-8.78863
識	-8.7896
黜	-8.792
故也	-8.7971
貞	-8.79773
潰	-8.79883
舜	-8.80035
趨	-8.80136
羌	-8.80254
董	-8.80377
否	-8.80472
倫	-8.80513
殊	-8.8058
投	-8.80651
逃	-8.80654
翼	-8.80724
為之	-8.80795
懷	-8.81303
冠	-8.81394
茶	-8.81452
場	-8.81586
税	-8.81604
讓	-8.81657
彭	-8.81685
十月	-8.81808
賣	-8.81973
弗	-8.82064
窮	-8.82149
操	-8.8227
至於	-8.82301
君子	-8.82358
紀修	-8.82397
貪	-8.82681
落	-8.82765
敦	-8.83024
船	-8.83034
中國	-8.83231
巻	-8.83263
祥	-8.83276
橋	-8.83304
一百	-8.83349
曾	-8.83496
序	-8.83657
昨	-8.83703
念	-8.83731
屈	-8.83927
未有	-8.83947
謁	-8.83973
竟	-8.8398
是日	-8.84045
種	-8.8406
二百	-8.84331
諡	-8.84429
韋	-8.8452
四方	-8.84583
之心	-8.84761
刺	-8.84782
遜	-8.84883
係	-8.8498
寶	-8.85078
考異曰	-8.85284
也今	-8.85324
袁	-8.85448
靖	-8.85587
七月	-8.85639
脩	-8.86224
不從	-8.86236
小人	-8.86415
予	-8.86478
之言	-8.86572
災	-8.86609
又言	-8.8675
諸州	-8.86777
辟	-8.87017
誰	-8.87138
檢	-8.87161
莊	-8.87181
杖	-8.87415
鼓	-8.87501
顔	-8.87509
最	-8.877
冀	-8.87884
恤	-8.87886
三司	-8.87944
錄	-8.88193
者也	-8.88238
哈	-8.88313
沮	-8.8861
引兵	-8.88689
誣	-8.88697
忌	-8.88723
者皆	-8.88766
曰此	-8.88814
其事	-8.88855
材	-8.8888
員外郎	-8.89175
是月	-8.89444
樞宻院	-8.89462
桓	-8.89563
兒	-8.8966
形	-8.89683
五十	-8.89938
之子	-8.90126
裁	-8.90143
汴	-8.90302
惜	-8.90333
衰	-8.90423
給事中	-8.90557
姚	-8.90673
政事	-8.90698
寢	-8.90722
浩	-8.90881
葬	-8.90978
誘	-8.91153
微	-8.91157
進士	-8.91162
陣	-8.91166
尉	-8.91181
削	-8.91224
江南	-8.91325
之法	-8.91408
衞	-8.91464
崩	-8.91672
辰	-8.91747
樓	-8.91766
𫝊	-8.92062
湯	-8.92104
禦	-8.9215
垂	-8.9221
秩	-8.92244
其所	-8.92381
欽	-8.92384
毋	-8.92512
普	-8.92574
轉運使	-8.93034
效	-8.9318
郎中	-8.9329
自是	-8.93624
驚	-8.93806
陶	-8.93869
洛陽	-8.93894
通鑑	-8.9401
羊	-8.94019
盜	-8.94088
覺	-8.94382
藩	-8.94396
照	-8.94438
不當	-8.94593
魚	-8.9479
浮	-8.94803
牒	-8.94899
監司	-8.94918
增	-8.9498
三百	-8.95042
述	-8.95156
祐	-8.95167
春正月	-8.95172
罰	-8.95244
節度	-8.95295
不及	-8.95298
粟	-8.95345
吏部	-8.95387
細	-8.95442
術	-8.95454
借	-8.95529
俗	-8.95708
品	-8.9575
烈	-8.9579
仰	-8.95879
背	-8.95942
導	-8.95971
専	-8.96014
詐	-8.96503
之時	-8.96574
刺史	-8.96589
官吏	-8.96758
七年	-8.96781
八年	-8.96788
併	-8.96827
津	-8.97015
余	-8.97138
空	-8.97259
牙	-8.97339
用之	-8.9744
四月	-8.97574
使者	-8.97801
之罪	-8.98141
旱	-8.98148
擅	-8.98335
規	-8.98368
東南	-8.9842
上書	-8.98434
利害	-8.98657
晏	-8.9867
争	-8.98679
太原	-8.98692
子孫	-8.9891
價	-8.99127
大將軍	-8.9915
飲	-8.99173
駕	-8.99263
抑	-8.99327
弊	-8.99481
元祐	-8.99625
金主	-8.99632
貨	-8.99671
泣	-8.99757
寒	-8.99809
藥	-8.99947
愚	-8.99956
許之	-8.99958
夫人	-9.0024
虛	-9.00389
徴	-9.00408
蘭	-9.00432
于是	-9.00459
慈	-9.00509
似	-9.00589
舒	-9.00608
衍	-9.00635
嶺	-9.00655
壽	-9.00691
不復	-9.0087
徽	-9.00874
印	-9.01089
惇	-9.01312
稽	-9.01356
魏主	-9.01441
士卒	-9.01605
兄弟	-9.01663
堡	-9.01731
知其	-9.01856
十年	-9.01909
太尉	-9.02129
儲	-9.02161
井	-9.02251
秦檜	-9.02322
渡	-9.0236
寇	-9.02387
奴	-9.02394
轉運司	-9.02402
彌	-9.02525
只	-9.02837
輙	-9.0286
刻	-9.02942
級	-9.02958
致仕	-9.0305
宏	-9.03076
悦	-9.03354
皇太后	-9.03518
三省	-9.03534
臣等	-9.03555
通判	-9.03619
稅	-9.0365
將兵	-9.03668
諌	-9.03676
租	-9.03784
而後	-9.03899
帛	-9.0391
黎	-9.04003
遁	-9.04077
介	-9.04105
不過	-9.04471
御史中丞	-9.04539
於此	-9.04605
正月	-9.04731
純	-9.04825
幽	-9.04863
肆	-9.0496
荆	-9.04982
措置	-9.05044
糴	-9.05055
天地	-9.05081
慰	-9.0509
翰林學士	-9.05464
丹	-9.05528
歩	-9.05622
庸	-9.05626
䘮	-9.05762
拔	-9.05842
惑	-9.0595
兵馬	-9.0596
邵	-9.0613
采	-9.06198
姑	-9.06262
凖	-9.06278
文字	-9.06326
歡	-9.06842
亭	-9.06911
岳	-9.07048
是時	-9.07055
寡	-9.07069
恕	-9.07259
擊之	-9.07378
剛	-9.0754
邦	-9.07587
躬	-9.07629
斬之	-9.07682
答	-9.07737
輒	-9.07962
行之	-9.0805
逼	-9.08131
恃	-9.08136
山東	-9.08201
囚	-9.08281
七十	-9.08655
驕	-9.08702
學士	-9.08849
角	-9.0893
逸	-9.09009
城中	-9.09055
上言	-9.09099
檜	-9.09138
死者	-9.09182
産	-9.09299
之士	-9.09316
甲子	-9.09447
判官	-9.09505
抵	-9.09634
泉	-9.09663
熟	-9.0973
饑	-9.09945
廵	-9.10008
三日	-9.10032
使人	-9.10214
翰	-9.1031
苑	-9.10339
弑	-9.10448
耕	-9.10638
帝曰	-9.10844
遊	-9.1096
前後	-9.10968
人也	-9.11005
珠	-9.11156
旗	-9.11176
扶	-9.11193
續	-9.1121
紹興	-9.1122
鄴	-9.11241
不為	-9.11333
輩	-9.11485
榖	-9.11664
裴	-9.11879
基	-9.11944
歳	-9.11952
雷	-9.11983
倍	-9.11992
輿	-9.12069
句	-9.1221
懿	-9.1221
太平	-9.12298
户部	-9.12311
託	-9.12436
單于	-9.12451
内外	-9.12601
參知政事	-9.12916
甘	-9.12937
鍾	-9.13001
課	-9.13032
料	-9.13291
將士	-9.13482
聴	-9.13517
其言	-9.13558
松	-9.13677
與之	-9.13785
之道	-9.14046
以此	-9.1405
割	-9.14057
忽	-9.1413
珍	-9.14131
傾	-9.14146
儉	-9.14189
側	-9.14218
珪	-9.1432
壁	-9.14422
宅	-9.14422
不如	-9.14425
桑	-9.14493
恨	-9.1455
公主	-9.14585
乏	-9.14852
社稷	-9.14913
占	-9.15026
戮	-9.15112
亟	-9.15192
辛	-9.15328
竭	-9.15349
减	-9.15401
西北	-9.15516
勘	-9.15676
祚	-9.157
武帝	-9.15714
創	-9.15996
江淮	-9.16134
斗	-9.1622
疆	-9.16267
不同	-9.16313
突	-9.16591
秉	-9.16604
欺	-9.1663
吐蕃	-9.16695
亷	-9.16725
亦不	-9.16786
内侍	-9.16796
煩	-9.16854
使臣	-9.16918
司徒	-9.17101
訴	-9.17298
十萬	-9.17327
悔	-9.17439
享	-9.17443
眀	-9.17528
鈔	-9.17615
綱目	-9.17631
步	-9.177
履	-9.17745
侍中	-9.17771
岸	-9.17818
又曰	-9.17824
公事	-9.17903
邀	-9.17906
明年	-9.1793
本路	-9.18079
厲	-9.1815
攝	-9.18575
四川	-9.18767
潛	-9.18769
上下	-9.18769
踰	-9.1902
言者	-9.19209
慎	-9.19262
所部	-9.19326
貧	-9.19349
宗室	-9.19448
突厥	-9.19496
熈	-9.19545
驅	-9.19588
舎	-9.1985
國之	-9.19893
議者	-9.19916
同平章事	-9.19951
必有	-9.20023
竄	-9.20095
孰	-9.20304
刀	-9.20522
笑	-9.20695
其家	-9.20738
狄	-9.20764
司空	-9.20967
閉	-9.21018
足以	-9.21078
十一	-9.21191
嵩	-9.21222
不至	-9.21253
是也	-9.21283
王安石	-9.2134
不然	-9.21406
豈可	-9.21432
駐	-9.21471
状	-9.21575
帳	-9.21621
迹	-9.21632
人心	-9.2196
貸	-9.21967
麟	-9.221
改元	-9.22131
絳	-9.22169
絹	-9.22252
其罪	-9.22348
侍郎	-9.22562
奮	-9.2261
撰	-9.22625
文武	-9.22625
階	-9.22797
用兵	-9.22816
寄	-9.22846
傑	-9.22864
之臣	-9.23097
徵	-9.23281
擬	-9.23324
夕	-9.23359
厭	-9.23388
贓	-9.23469
誓	-9.23511
莽	-9.23582
上疏	-9.23762
卜	-9.23791
坊	-9.23848
範	-9.23913
溪	-9.24022
忘	-9.2408
人主	-9.24173
以通	-9.24281
卑	-9.24435
没	-9.24646
入朝	-9.2467
建康	-9.24702
睿	-9.24757
瓊	-9.24778
園	-9.24818
荒	-9.24883
竇	-9.25079
縣屬	-9.25085
單	-9.25219
署	-9.25282
當考	-9.25322
揚州	-9.25328
漕	-9.25408
竹	-9.25489
軍中	-9.25623
咎	-9.2566
是以	-9.257
憤	-9.25781
叙	-9.25787
隠	-9.25931
宰	-9.26087
哭	-9.26153
巳	-9.26202
毛	-9.26242
欲以	-9.26259
萬人	-9.26362
禮部	-9.26391
沒	-9.26503
百里	-9.26532
寅	-9.26634
當時	-9.26667
柔	-9.26685
驛	-9.26756
覽	-9.26762
游	-9.26846
有功	-9.26981
鑄	-9.27026
考異	-9.27261
某	-9.27654
吴	-9.27732
甲午	-9.27733
戚	-9.27784
司馬光	-9.27816
張浚	-9.27912
㧞	-9.27972
燾	-9.28168
冊	-9.28216
甲申	-9.28309
之功	-9.28384
人皆	-9.28445
蔽	-9.28527
逮	-9.28636
賂	-9.28672
以其	-9.28711
詰	-9.28734
銅	-9.28942
丙午	-9.29074
仙	-9.29144
荀	-9.29318
壬申	-9.29359
䟽	-9.29364
阻	-9.2938
諱	-9.29429
曉	-9.2943
言之	-9.29435
䝉古	-9.29482
黙	-9.29495
十六	-9.2954
羽	-9.29655
又翻	-9.29717
協	-9.29806
澄	-9.29815
江西	-9.29837
丈	-9.29855
討之	-9.30036
賤	-9.30193
詔以	-9.30266
幣	-9.30298
抗	-9.30334
而去	-9.30418
乙未	-9.30636
蒙	-9.30807
不以	-9.3092
十五	-9.30976
民間	-9.30995
乙亥	-9.31157
辛未	-9.31214
豪	-9.31262
確	-9.31313
開封府	-9.31363
曰朕	-9.31462
有差	-9.31535
州軍	-9.31685
不肯	-9.31701
鈐轄	-9.31776
願陛下	-9.31869
丙寅	-9.31976
宮	-9.32038
元豐	-9.32135
遣人	-9.32138
丙子	-9.32165
斤	-9.32315
國公	-9.32336
官軍	-9.32359
殘	-9.32364
甲寅	-9.3251
巡	-9.3252
輔臣	-9.32568
俾	-9.32578
仕	-9.3266
頓	-9.32728
進呈	-9.32781
仗	-9.32885
甲辰	-9.32949
凶	-9.32963
一年	-9.32996
壬寅	-9.3301
丁亥	-9.33022
庚子	-9.33113
㓂	-9.33164
鳯	-9.33178
雪	-9.33196
戊申	-9.33354
衝	-9.33442
辛巳	-9.33567
侍御史	-9.33638
旁	-9.33716
拘	-9.33734
壯	-9.33736
飾	-9.33871
奚	-9.33902
丁酉	-9.33904
鐵	-9.33964
監察御史	-9.33988
成都	-9.34046
渭	-9.34171
辦	-9.34174
屋	-9.34176
台	-9.34193
提	-9.3427
檄	-9.34272
臣竊	-9.3433
髙祖	-9.34339
偏	-9.34371
恒	-9.3439
皮	-9.34392
癸未	-9.34405
壘	-9.34442
太皇太后	-9.34449
瑞	-9.34551
濫	-9.34601
歌	-9.34612
堪	-9.34714
憚	-9.34788
究	-9.34834
留守	-9.34847
韶	-9.34847
戊寅	-9.3489
激	-9.34892
此據	-9.34914
癸酉	-9.3494
三人	-9.34945
父子	-9.3498
壬子	-9.35113
十八	-9.35131
婦	-9.35136
戊辰	-9.35139
辛亥	-9.35299
之計	-9.35324
汾	-9.35346
辱	-9.35449
質實	-9.3551
尼	-9.35566
幹	-9.35615
襄陽	-9.35646
丙辰	-9.35702
不行	-9.35714
庚午	-9.35738
此事	-9.35816
奏事	-9.35821
其地	-9.35957
奸	-9.36013
乙丑	-9.36081
可汗	-9.362
厥	-9.36225
徑	-9.36257
戊午	-9.36375
已而	-9.36604
匿	-9.36643
壬午	-9.36698
蠲	-9.36887
守臣	-9.36991
十三	-9.36998
所在	-9.37119
壊	-9.37152
㣲	-9.37162
軍士	-9.37173
不書	-9.37215
巨	-9.37243
屠	-9.3731
訖	-9.37386
根	-9.37435
育	-9.37453
庚申	-9.37567
血	-9.37573
九年	-9.37603
乙巳	-9.37623
十九	-9.37699
局	-9.37749
曰我	-9.37758
壬辰	-9.37855
扵	-9.37947
士大夫	-9.38002
宗廟	-9.38008
常平	-9.38074
人情	-9.38211
而還	-9.38253
渾	-9.38262
辛酉	-9.38267
褒	-9.38307
千里	-9.38338
丁巳	-9.38426
癸亥	-9.38444
郡王	-9.38509
啟	-9.38542
總管	-9.3864
己亥	-9.38686
戊子	-9.38842
丁未	-9.38893
掩	-9.38947
罕	-9.39008
静	-9.39198
䧟	-9.39262
丁丑	-9.39347
元帥	-9.39456
呂	-9.39541
佛	-9.39597
漏	-9.3963
仇	-9.39655
禧	-9.39668
賔	-9.39807
之際	-9.39829
癸巳	-9.3983
癸丑	-9.399
廬	-9.39976
濮	-9.401
臣僚	-9.40138
肯	-9.40176
篇	-9.40306
畜	-9.40371
丙申	-9.40411
郡縣	-9.40471
太常	-9.4059
庚寅	-9.40624
閲	-9.40628
刑部	-9.40733
乙酉	-9.40837
辛丑	-9.40846
詢	-9.40857
五百	-9.40907
諸王	-9.40919
去年	-9.40947
大敗	-9.4115
其衆	-9.41159
倚	-9.41195
隱	-9.41196
尚書省	-9.41269
緩	-9.41286
己巳	-9.41299
西南	-9.41428
環	-9.41536
融	-9.41562
殿中侍御史	-9.41572
濬	-9.41617
依舊	-9.41679
以待	-9.41705
将軍	-9.4173
如何	-9.41781
差遣	-9.41785
分註	-9.41838
皇子	-9.41875
閔	-9.41878
復扶	-9.4188
福建	-9.41903
翻下同	-9.41927
未可	-9.41943
五千	-9.42097
冒	-9.42235
靡	-9.42353
數萬	-9.42429
舊作	-9.42528
晦	-9.4259
而無	-9.42676
聖人	-9.42677
太廟	-9.42888
是嵗	-9.42896
準	-9.42987
露	-9.43126
之初	-9.4321
贊	-9.4325
寸	-9.43259
貝勒	-9.43276
霸	-9.43282
不可不	-9.43303
子弟	-9.43384
鋒	-9.43437
庚辰	-9.43513
乙	-9.43516
勉	-9.43547
括	-9.43594
饒	-9.43615
大事	-9.43624
之禮	-9.43643
秦王	-9.43693
伺	-9.43788
都監	-9.43803
三千	-9.4382
斛	-9.43869
己未	-9.4391
東北	-9.44023
二千	-9.4404
夢	-9.44047
峻	-9.4406
舞	-9.44178
曰臣	-9.44236
訟	-9.44245
謗	-9.44366
贍	-9.44506
排	-9.44586
収	-9.44613
己酉	-9.44627
所言	-9.44693
匡	-9.44776
以備	-9.44833
曰今	-9.44872
喇	-9.45003
曰陛下	-9.45047
忍	-9.45122
代之	-9.45148
勅	-9.45156
中丞	-9.45251
刪	-9.45261
兩浙	-9.45295
戴	-9.45541
逵	-9.45549
莫不	-9.45623
朗	-9.45734
姓名	-9.45791
鄙	-9.45849
賑	-9.45923
聼	-9.45962
短	-9.46105
西京	-9.46126
己丑	-9.46184
警	-9.46227
宰執	-9.46281
樞	-9.46291
解題曰	-9.46352
穀	-9.46425
強	-9.46449
公子	-9.46571
公卿	-9.46635
神宗	-9.46657
擁	-9.46659
本紀	-9.46766
父母	-9.46853
藉	-9.46891
無不	-9.46943
百餘	-9.4696
骨	-9.47135
琦	-9.47159
晟	-9.47206
屏	-9.47209
旋	-9.47314
東西	-9.47392
攸	-9.47468
悟	-9.47666
陜	-9.47807
太師	-9.47856
蒙古	-9.47906
項	-9.47935
孔子	-9.48207
岐	-9.48392
城下	-9.48453
邢	-9.48462
哲	-9.48551
出入	-9.48856
俸	-9.48883
陰	-9.48893
簿	-9.48907
淳	-9.48955
柄	-9.4896
六十	-9.48989
痛	-9.49099
䖍	-9.49103
仁宗	-9.49215
郢	-9.49332
實錄	-9.49356
車駕	-9.49472
以本	-9.49487
隴	-9.49518
整	-9.49537
了	-9.496
其餘	-9.49623
錦	-9.49658
安石曰	-9.4977
矦	-9.49797
賢曰	-9.50199
旅	-9.50231
不欲	-9.50243
君臣	-9.50291
萬餘	-9.50384
留後	-9.5039
閏	-9.50447
八十	-9.50509
十七	-9.50552
璽	-9.50557
知州	-9.50567
傳云	-9.50615
弓	-9.50635
之民	-9.50667
什	-9.50678
罔	-9.50686
其人	-9.50699
洞	-9.50716
熙	-9.50737
驗	-9.50798
數十	-9.508
貳	-9.50908
南北	-9.51029
之義	-9.51032
長史	-9.51039
鄂	-9.51175
可謂	-9.51186
斂	-9.51321
熊	-9.51402
御史臺	-9.51404
事見	-9.51458
千餘	-9.5147
不聽	-9.51552
沔	-9.51595
凉	-9.51615
彬	-9.51709
兹	-9.5181
年正月	-9.51928
不用	-9.51935
明日	-9.52068
不勝	-9.52236
億	-9.52243
五日	-9.52294
綏	-9.52313
卓	-9.52322
紫	-9.52581
僕	-9.52611
午	-9.52616
證	-9.52644
批	-9.52718
地震	-9.52975
受命	-9.53053
奈何	-9.53149
潤	-9.53186
淺	-9.53251
讀曰	-9.53386
醫	-9.53455
得其	-9.53556
幽州	-9.53626
罷之	-9.53635
欽定四庫全書	-9.53666
夾	-9.53708
㨗	-9.53731
然則	-9.53753
兆	-9.53818
猛	-9.53841
殆	-9.53911
不受	-9.54136
潘	-9.54193
甲戌	-9.54362
後世	-9.54469
乃以	-9.54474
村	-9.54541
鹿	-9.54789
翟	-9.54809
席	-9.54834
妾	-9.54855
不見	-9.54872
雖有	-9.5514
恣	-9.55152
是年	-9.5527
沿	-9.55407
元昊	-9.5542
臯	-9.55448
軍節度使	-9.55516
南陽	-9.55534
趙鼎	-9.5556
臧	-9.55631
毅	-9.55636
僅	-9.55647
遲	-9.55827
押	-9.55866
鑑修	-9.55898
繁	-9.55919
十四	-9.55923
出於	-9.55947
毋得	-9.55982
酌	-9.56021
啓	-9.56142
校尉	-9.56148
肉	-9.5625
契	-9.5626
上以	-9.56295
以示	-9.56369
閩	-9.56382
中原	-9.56541
無以	-9.5657
嫌	-9.56666
今年	-9.56871
挾	-9.56881
撥	-9.57005
丙戌	-9.57031
頒	-9.57046
章惇	-9.57048
遥	-9.5707
京城	-9.57102
誕	-9.57106
銜	-9.57152
霍	-9.57248
十一年	-9.57264
二萬	-9.57299
葛	-9.57321
逢	-9.57499
數千	-9.5751
有罪	-9.57533
僚	-9.57552
秦州	-9.5761
社	-9.57615
鑑	-9.57626
遣兵	-9.57675
相度	-9.57675
兖	-9.57685
撃	-9.57726
軌	-9.57787
自稱	-9.57917
鄰	-9.57946
千餘人	-9.58045
太學	-9.58095
中興	-9.58119
俘	-9.58148
一時	-9.58168
寃	-9.58296
保甲	-9.58343
停	-9.58351
筆	-9.58374
之制	-9.58455
知制誥	-9.58515
數百	-9.58558
慕容	-9.58564
蔡京	-9.58663
潜	-9.58743
誅之	-9.5877
京東	-9.58787
京西	-9.58803
蕩	-9.58858
鳳	-9.58957
又以	-9.58967
人之	-9.5904
薩	-9.59121
自古	-9.59148
歛	-9.59153
男	-9.59173
大軍	-9.59189
戊戌	-9.59291
垣	-9.59332
牢	-9.59343
三萬	-9.59355
周公	-9.59357
玠	-9.59401
壬戌	-9.59446
冲	-9.59541
段	-9.59608
肇	-9.59634
至于	-9.59694
二日	-9.59708
巧	-9.59716
析	-9.59719
詔書	-9.59902
侍從	-9.59963
靜	-9.60011
藝	-9.60018
舊制	-9.60031
展	-9.60082
恥	-9.60161
更不	-9.60163
齎	-9.60165
不與	-9.60195
取之	-9.60278
喻	-9.60443
稷	-9.60579
御史大夫	-9.6064
狂	-9.60728
毒	-9.60846
數日	-9.60874
植	-9.60883
諫官	-9.60883
上表	-9.60895
中書舍人	-9.61059
近臣	-9.61073
圗	-9.61164
遭	-9.6119
妻子	-9.61194
昆	-9.61222
不克	-9.61277
州郡	-9.61298
採	-9.61314
誼	-9.61315
滋	-9.61317
沂	-9.61394
賛	-9.61438
臺諫	-9.61592
邠	-9.616
伍	-9.61612
史記	-9.61635
閤門	-9.61652
隙	-9.61817
十餘	-9.61827
溢	-9.61898
為一	-9.61944
等皆	-9.61991
陞	-9.62001
矢	-9.62055
世祖	-9.62072
庚戌	-9.62222
以吕祖謙	-9.62248
汪	-9.62272
吏部尚書	-9.62328
譏	-9.62344
黒	-9.62391
練	-9.62397
敷	-9.62422
慢	-9.62499
赫	-9.62499
脅	-9.62519
禁中	-9.62652
之上	-9.62677
涇原	-9.62798
知之	-9.62815
暉	-9.62855
下詔	-9.62909
謨	-9.62932
駭	-9.63013
樊	-9.63049
禪	-9.63066
完	-9.63081
徐州	-9.63273
丑	-9.63306
豈不	-9.63331
軍馬	-9.63424
獵	-9.63447
譽	-9.63535
之類	-9.6361
陽縣	-9.63677
齒	-9.63693
在今	-9.63699
潁	-9.63745
畿	-9.63753
湘	-9.63787
言其	-9.6379
麻	-9.63807
属	-9.63847
破之	-9.63949
湖南	-9.63965
宰臣	-9.63969
旬	-9.64103
俞	-9.64185
齋	-9.64208
淮西	-9.64234
其黨	-9.64252
特穆爾	-9.64401
萬一	-9.64496
旣	-9.64526
太傅	-9.64544
制置使	-9.64809
故有是命	-9.64888
不報	-9.64902
庻	-9.64915
行在	-9.64958
璘	-9.64959
有餘	-9.64993
皇太子	-9.65006
測	-9.65037
也故	-9.65094
従	-9.65178
發兵	-9.65201
言臣	-9.6528
東都	-9.65337
千人	-9.6535
邸	-9.65537
渉	-9.6557
不應	-9.65618
一旦	-9.65661
安國	-9.65668
標目修	-9.65733
箋按	-9.65766
辯	-9.6579
忠義	-9.65803
請也	-9.6583
璋	-9.65873
燒	-9.65889
都指揮使	-9.65921
是為	-9.65941
明堂	-9.65996
鳴	-9.66036
住	-9.66036
拱	-9.66164
餉	-9.66253
頌	-9.66266
㡬	-9.66338
距	-9.66342
昏	-9.66348
河中	-9.66349
宇	-9.66359
之故	-9.66442
墓	-9.66443
起居	-9.66447
邱	-9.66475
諒	-9.66543
哩	-9.66547
溝	-9.66629
文帝	-9.66677
刼	-9.66725
宥	-9.66797
篤	-9.66956
頴	-9.66978
聘	-9.67017
墨	-9.67022
二州	-9.67061
參軍	-9.6715
昇	-9.67179
彰	-9.67199
祈	-9.67205
䕫	-9.67206
髙麗	-9.67295
亨	-9.67397
其間	-9.67425
之則	-9.67451
塔	-9.67681
窺	-9.6775
其弟	-9.67813
以新	-9.67821
一切	-9.67902
誨	-9.6804
唐主	-9.68043
之衆	-9.68196
嬰	-9.68207
卿等	-9.68271
以兵	-9.68381
欠	-9.68391
少卿	-9.68478
踐	-9.68573
壬	-9.68577
凌	-9.68579
扈	-9.68585
廵檢	-9.68589
入城	-9.68608
懲	-9.68617
徇	-9.68667
柱	-9.68677
百餘人	-9.68691
祿	-9.6911
皆有	-9.69115
沛	-9.69176
鴻	-9.69219
疲	-9.69223
之數	-9.69224
矯	-9.69232
銓	-9.69234
効	-9.69262
可也	-9.69323
陟	-9.69359
江陵	-9.69409
桂	-9.69424
全忠	-9.69496
今改	-9.69617
樹	-9.69631
詳定	-9.69677
盈	-9.69757
冝	-9.69773
主簿	-9.69814
大怒	-9.70011
壇	-9.70022
束	-9.70059
誥	-9.70098
諸道	-9.70105
節制	-9.70173
幕	-9.70179
又有	-9.70243
聰	-9.70303
劄子	-9.70374
世忠	-9.70391
彈	-9.70414
河陽	-9.70502
以爲	-9.70532
丙	-9.70533
誤也	-9.70541
芻	-9.70596
蓄	-9.70645
曰卿	-9.70691
州防禦使	-9.70745
朔日有食之	-9.70816
云云	-9.70881
拯	-9.70882
百萬	-9.70932
諸司	-9.71037
苗	-9.71119
佑	-9.71151
翰林	-9.71176
為大	-9.71192
題	-9.71205
耆	-9.71217
傳曰	-9.71286
宫中	-9.71307
𦵏	-9.71367
屯田	-9.71415
而死	-9.71441
不相	-9.71492
緒	-9.71541
大破之	-9.71583
瓘	-9.71598
玩	-9.71611
佞	-9.71629
甞	-9.71631
又云	-9.71669
鞫	-9.71693
庚	-9.71737
它	-9.71778
未至	-9.71822
十餘萬	-9.71972
偃	-9.72199
僉	-9.72254
在京	-9.72279
競	-9.72288
皆以	-9.72294
博士	-9.72295
如故	-9.72301
如是	-9.72354
亮翻	-9.72393
徹	-9.72419
公孫	-9.72463
香	-9.72613
至此	-9.72619
邁	-9.72685
姬	-9.7272
第一	-9.72767
若不	-9.72857
之患	-9.72883
所殺	-9.72922
騰	-9.73083
子也	-9.73127
四人	-9.73143
秘	-9.73207
金帛	-9.733
起兵	-9.73311
樞密院	-9.7343
慕	-9.73485
不得已	-9.73527
開封	-9.73542
前日	-9.73553
書曰	-9.73627
未能	-9.73713
宇文	-9.73781
尸	-9.73938
用事	-9.73943
炎	-9.73943
他日	-9.73947
門下	-9.7413
中山	-9.7417
上皇	-9.74176
切下	-9.74176
含	-9.74249
辛卯	-9.74258
恪	-9.74305
姜	-9.74306
奏請	-9.74307
乃止	-9.74325
漢書	-9.74349
錯	-9.74434
不宜	-9.74529
巢	-9.74548
江東	-9.7463
下同	-9.74707
攻之	-9.74715
琳	-9.74908
未知	-9.74925
磨勘	-9.74929
鮮	-9.74937
冗	-9.74948
之外	-9.74968
謫	-9.74977
管勾	-9.74995
大赦	-9.75001
深入	-9.75006
虐	-9.75011
隄	-9.75038
宣撫使	-9.75093
洮	-9.75094
本朝	-9.75207
宗正	-9.75255
軍事	-9.75319
脱	-9.75336
挺	-9.75343
言事	-9.7541
吏翻	-9.75418
湏	-9.75442
道路	-9.75499
不出	-9.75557
祕	-9.75594
纔	-9.75608
亦有	-9.75615
之利	-9.75649
幼	-9.75659
龜	-9.75678
提㸃刑獄	-9.75807
忿	-9.75908
伏誅	-9.75909
晉王	-9.75932
矜	-9.75946
入見	-9.75979
塗	-9.76032
救之	-9.76062
南京	-9.76089
閭	-9.76165
恱	-9.7618
𤼵	-9.76186
州團練使	-9.7619
丁卯	-9.76269
秋八月	-9.76327
復扶又翻	-9.76366
績	-9.76392
都尉	-9.76424
詆	-9.76493
牽	-9.76603
河西	-9.76663
涉	-9.76712
饗	-9.76737
祝	-9.7686
隊	-9.76937
吐	-9.7704
未幾	-9.77081
諷	-9.77083
夏人	-9.77142
未見	-9.77184
有此	-9.77268
將帥	-9.77336
播	-9.77445
皆不	-9.77473
行下	-9.77493
以前	-9.77531
輦	-9.77627
之勢	-9.77642
賴	-9.77643
不在	-9.77776
栁	-9.77874
汲	-9.77909
度支	-9.77939
嚕	-9.77974
欵	-9.7799
大小	-9.78205
安得	-9.78318
峽	-9.78324
胥	-9.78337
酋	-9.78382
言於	-9.78404
奬	-9.78422
一員	-9.78525
職事	-9.78558
相繼	-9.78584
包	-9.78681
安撫	-9.78728
不合	-9.78737
托	-9.7883
贖	-9.78869
朋	-9.78895
隔	-9.79022
何如	-9.79048
資治通鑑	-9.79101
耗	-9.79126
者不	-9.79159
疎	-9.79276
行省	-9.79311
皓	-9.79352
卧	-9.79357
齊王	-9.79395
後魏	-9.79422
監軍	-9.7949
行營	-9.7956
如此則	-9.79569
囘	-9.79631
𦙍	-9.79634
汗	-9.79662
緡	-9.7968
㓜	-9.79694
麗	-9.79806
作亂	-9.79821
兵部	-9.79836
拒之	-9.7984
遠	-9.79855
歎	-9.79979
十里	-9.80054
鑒	-9.8008
祁	-9.80176
消	-9.80247
虧	-9.80257
罵	-9.80258
民力	-9.80317
中書令	-9.80325
榜	-9.80341
大理	-9.80342
狐	-9.80431
貽	-9.80516
鋭	-9.80584
樞宻使	-9.80614
溥	-9.80616
恵	-9.80953
之子也	-9.80995
自殺	-9.81005
先王	-9.81021
所得	-9.81162
乙卯	-9.81249
較	-9.81309
不便	-9.81337
原本	-9.81401
瑪	-9.8154
民之	-9.81577
黃	-9.81627
之弊	-9.81643
不可以	-9.81751
荆州	-9.81804
縣令	-9.8188
萬緡	-9.81907
東宫	-9.81926
鐡	-9.81931
麥	-9.81943
惠卿	-9.81975
浦	-9.82034
旌	-9.8211
庾	-9.82149
晉陽	-9.82271
州府	-9.82311
至今	-9.82405
不已	-9.82452
閤	-9.82495
添	-9.82515
丕	-9.82519
壞	-9.82569
乃命	-9.82578
敗之	-9.82659
及是	-9.82724
拉	-9.82749
荆南	-9.82831
鞏	-9.82837
抱	-9.82929
耿	-9.82944
緣	-9.82973
同知	-9.83095
不若	-9.83181
替	-9.83211
觧	-9.8323
之名	-9.83262
夏五月	-9.833
孺	-9.8331
為名	-9.8336
妖	-9.8347
死之	-9.83472
使之	-9.835
閱	-9.83613
舉兵	-9.8375
閒	-9.83849
此時	-9.83886
僖	-9.83913
亥	-9.84077
償	-9.84114
枉	-9.84135
不忍	-9.8417
伸	-9.84223
賞罰	-9.84244
古者	-9.84316
京兆	-9.8432
輕重	-9.84342
出兵	-9.84429
怪	-9.84495
遼東	-9.8451
夏國	-9.84579
捷	-9.84596
摯	-9.84614
諤	-9.84657
青州	-9.84686
彭城	-9.84724
南郊	-9.85012
弩	-9.85141
為左	-9.85214
廉	-9.85228
其實	-9.85251
為太子	-9.85298
謚	-9.85318
犒	-9.85344
互	-9.8535
副之	-9.8547
七日	-9.85477
翁	-9.85487
迫	-9.85487
偕	-9.85615
僕射	-9.85651
芳	-9.85654
盤	-9.85692
該	-9.85717
軾	-9.85768
又詔	-9.85859
非是	-9.85929
鈞	-9.85949
宦官	-9.86003
權知	-9.86045
其意	-9.86079
癸卯	-9.86086
催	-9.86107
四海	-9.86161
不足以	-9.86264
首領	-9.86269
仲淹	-9.86322
暮	-9.86434
偉	-9.86513
𣙜	-9.86569
嫁	-9.86613
城縣	-9.86638
筠	-9.86702
西域	-9.86719
是非	-9.86754
潞	-9.86849
驍	-9.86884
閻	-9.86889
偽翻	-9.86935
郡國	-9.87048
曰汝	-9.87058
旨	-9.87097
製	-9.87101
梓	-9.8714
平章	-9.87289
知縣	-9.87289
狼	-9.87364
吏民	-9.87396
溺	-9.87482
涼	-9.87486
泗	-9.87498
釋之	-9.87564
進退	-9.87575
弛	-9.87583
斬首	-9.87615
廂	-9.8769
仍令	-9.87712
中書侍郎	-9.87808
臣所	-9.87819
官司	-9.87836
淫	-9.87862
王子	-9.87878
西路	-9.87895
瑾	-9.87949
百五十	-9.87986
右正言	-9.88037
渡江	-9.88087
殺其	-9.88119
無事	-9.88123
蒼	-9.88214
王師	-9.88226
巖	-9.88254
真宗	-9.88265
冬十一月	-9.88332
帝以	-9.88518
弔	-9.88626
五人	-9.88628
劒	-9.88641
吏部侍郎	-9.88661
舊紀	-9.88783
軍民	-9.88835
碑	-9.88989
為相	-9.8899
飢	-9.8903
其父	-9.89142
上批	-9.89243
之禍	-9.89263
逕	-9.89295
者亦	-9.89316
安撫使	-9.89359
塘	-9.89403
鳥	-9.89469
議論	-9.89489
請以	-9.89507
其名	-9.89516
坦	-9.8955
)○	-9.89773
不必	-9.89922
鐸	-9.90031
之命	-9.90044
綬	-9.90156
洲	-9.90173
臣聞	-9.9021
國子監	-9.90291
定州	-9.90327
探	-9.9037
改為	-9.90399
乂	-9.90413
刃	-9.90438
諾	-9.90463
得罪	-9.90535
桀	-9.90551
喬	-9.90552
談	-9.9056
未必	-9.90596
宛	-9.90648
捨	-9.90762
提㸃	-9.90798
數年	-9.90836
戾	-9.90851
韓琦	-9.9101
促	-9.91022
新紀	-9.91038
薊	-9.91043
久之	-9.91107
畨	-9.9114
漳	-9.91147
四百	-9.91173
貌	-9.91249
也臣	-9.91288
風俗	-9.91382
零	-9.91444
咨	-9.91446
奢	-9.91479
蝗	-9.91502
欲乞	-9.91596
萬世	-9.91629
晚	-9.91644
十二年	-9.91663
都統制	-9.91674
分兵	-9.91933
摩	-9.91945
宦者	-9.91966
者多	-9.92009
出身	-9.92041
都統	-9.92049
賓	-9.92067
寕	-9.92145
尚書令	-9.92159
盗賊	-9.92208
酉	-9.92218
瞻	-9.92373
也又	-9.92695
㑹要	-9.92705
巫	-9.92717
之徒	-9.92857
滯	-9.92863
尾	-9.92871
巴延	-9.9293
奉詔	-9.92954
江州	-9.93019
随	-9.93026
大司馬	-9.93052
所奏	-9.93059
春二月	-9.9311
帝紀	-9.93218
謬	-9.93219
蔣	-9.93234
衙	-9.93235
宸	-9.93242
乖	-9.9325
浸	-9.9335
湛	-9.93367
國史	-9.93423
忤	-9.93444
祗	-9.93464
虢	-9.93535
禽	-9.93567
諡曰	-9.93588
戈	-9.9364
之日	-9.9364
取其	-9.93712
朔方	-9.93741
灌	-9.93742
洋	-9.93752
填	-9.9387
腹	-9.93893
復置	-9.93901
饋	-9.93969
販	-9.93991
故曰	-9.93999
鉞	-9.94012
劍	-9.94052
長吏	-9.94062
二十四	-9.9409
必不	-9.94101
三公	-9.94115
在位	-9.94202
書法	-9.94245
乃詔	-9.94246
遏	-9.94357
岱	-9.94453
舉人	-9.94464
檢校	-9.94476
國事	-9.94514
杭州	-9.94535
司農	-9.94647
為人	-9.94661
人臣	-9.94751
矩	-9.94766
之家	-9.94768
安南	-9.94811
平江	-9.94831
綰	-9.94862
換	-9.94889
册	-9.94898
愍	-9.94931
裔	-9.94931
益州	-9.94932
手詔	-9.95101
圭	-9.95139
遂以	-9.95158
後漢	-9.95195
契丹主	-9.9523
遐	-9.95287
輪	-9.95302
沃	-9.95431
韓世忠	-9.95443
在外	-9.95459
豈有	-9.95495
頼	-9.95498
賚	-9.95682
本司	-9.95683
廣西	-9.95691
十五年	-9.95761
斌	-9.95833
睦	-9.95905
鬻	-9.95907
侈	-9.95908
建炎	-9.9591
待制	-9.95938
膺	-9.95941
兖州	-9.96021
花	-9.96091
也若	-9.96127
轉運判官	-9.96129
耶律	-9.96144
當作	-9.96155
一月	-9.96187
閑	-9.96204
宣諭	-9.96206
執中	-9.96224
詔自今	-9.96259
叚	-9.96312
邦昌	-9.96562
今後	-9.96571
童	-9.96601
人君	-9.9661
左傳	-9.96632
己卯	-9.96703
苖	-9.96711
釁	-9.96713
將即亮翻	-9.96729
市易	-9.96826
文王	-9.96828
日月	-9.96862
水經注	-9.96871
悲	-9.96911
膳	-9.96936
渡河	-9.97021
愧	-9.97036
萬餘人	-9.97056
燕王	-9.97098
得之	-9.97112
及其	-9.97133
犬	-9.97141
之師	-9.97142
推恩	-9.97313
不言	-9.97314
姪	-9.97334
萊	-9.97336
鑿	-9.97345
健	-9.97362
取㫖	-9.97594
十六日	-9.97653
子曰	-9.97713
浙	-9.97736
公私	-9.97782
以為然	-9.97853
廣州	-9.97904
尊號	-9.97958
禮部侍郎	-9.97999
昉	-9.98126
轉運副使	-9.9813
州觀察使	-9.98161
涇	-9.98275
沁	-9.98387
應副	-9.98419
古之	-9.98512
降指揮	-9.9853
八日	-9.98536
者並	-9.98557
胄	-9.98614
臣愚	-9.98623
張俊	-9.98695
世子	-9.987
殿前	-9.98704
精兵	-9.9876
涿	-9.98811
頤	-9.98828
靣	-9.98831
注見	-9.98865
戊	-9.98937
翊	-9.99004
入對	-9.9902
悖	-9.99038
糾	-9.99129
之謀	-9.99235
衮	-9.9924
附見	-9.9924
守之	-9.99434
來降	-9.99445
大將	-9.99464
邊事	-9.99489
王珪	-9.99498
諸郡	-9.99532
則是	-9.99541
楚王	-9.99562
復以	-9.99587
者必	-9.9963
潭州	-9.99677
泄	-9.99684
赦天下	-9.99702
入内	-9.99705
五萬	-9.99708
漢中	-9.99743
琮	-9.9981
五代	-9.99813
件	-9.99913
棣	-9.99931
莫敢	-9.99995
不利	-10.0007
戰于	-10.0009
迪	-10.0009
鳯翔	-10.0023
□	-10.0033
東京	-10.0034
揆	-10.0044
戌	-10.0045
更名	-10.0047
爽	-10.0054
曜	-10.0056
域	-10.0063
扼	-10.0066
榆	-10.0069
岳飛	-10.0071
板	-10.0073
奎	-10.0074
從事	-10.008
譚	-10.0088
用翻	-10.0089
詭	-10.0096
以来	-10.0109
卞	-10.0114
齡	-10.0117
奉使	-10.0122
百八十	-10.0122
先朝	-10.0124
長沙	-10.0134
十日	-10.0135
各有	-10.0139
祔	-10.0141
叅	-10.0141
宋主	-10.0143
體量	-10.0144
伏望	-10.0146
鬬	-10.0152
勃	-10.0154
之議	-10.0158
妨	-10.0164
蔡確	-10.0165
之説	-10.017
禀	-10.0174
敝	-10.0175
終不	-10.0177
數人	-10.0192
卒子	-10.0197
曠	-10.0199
官屬	-10.02
安撫司	-10.0202
宗皇帝	-10.021
何也	-10.0225
洽	-10.0237
清河	-10.0238
番	-10.0239
可用	-10.0245
安定	-10.0246
宣撫司	-10.0255
敇	-10.0262
鄜延	-10.0271
遍	-10.0275
賄	-10.028
飭	-10.0285
自立	-10.0289
縣有	-10.0292
羡	-10.0295
勾	-10.0297
夲	-10.0304
奠	-10.0307
侃	-10.0308
未及	-10.0308
㸃	-10.0313
户部侍郎	-10.0334
懸	-10.034
姓也	-10.034
詔曰	-10.0341
稼	-10.0341
二十二	-10.0343
東海	-10.0348
團	-10.0352
臨安府	-10.0353
便宜	-10.0353
㑹稽	-10.0372
轄	-10.0375
不免	-10.0379
興元	-10.0384
貲	-10.0384
僭	-10.0385
詔令	-10.0385
訥	-10.0392
顥	-10.0393
綸	-10.0394
讒	-10.0395
俄	-10.0395
誦	-10.0395
鸞	-10.04
朝㫖	-10.0401
見其	-10.0403
以後	-10.0407
成王	-10.0409
雲南	-10.0411
直言	-10.0412
往往	-10.0412
相與	-10.0421
快	-10.0428
彦博	-10.0428
瑜	-10.0431
兵部尚書	-10.0432
艱	-10.0438
綽	-10.044
紀年	-10.044
中書省	-10.0441
拓	-10.0452
輝	-10.0453
四日	-10.0458
所為	-10.0469
李綱	-10.0474
有大	-10.0476
繩	-10.0485
把	-10.0486
江浙	-10.0495
孜	-10.0495
眷	-10.0497
功臣	-10.0498
十八日	-10.0505
紙	-10.0507
延州	-10.051
泥	-10.0518
而下	-10.053
庶幾	-10.0531
為右	-10.0533
朝直	-10.0534
非所以	-10.0544
之志	-10.0548
其心	-10.0549
讐	-10.0556
不問	-10.0559
雞	-10.056
潼	-10.0571
臣恐	-10.0575
朋黨	-10.0578
踈	-10.0588
編管	-10.0597
那	-10.0598
武王	-10.0602
隘	-10.0608
九日	-10.0611
耳目	-10.0618
戸部	-10.0622
舅	-10.0624
也然	-10.0627
右僕射	-10.0627
東平	-10.0628
之兵	-10.063
浙西	-10.0635
蕃部	-10.0635
文彦博	-10.0637
堯舜	-10.0641
泌	-10.0641
待之	-10.0641
大同	-10.0641
徧	-10.0644
制置	-10.0649
十餘人	-10.0651
克用	-10.0656
苛	-10.0659
眉	-10.0664
緩急	-10.0668
甸	-10.0668
翌日	-10.067
等言	-10.0674
柴	-10.0677
毗	-10.0685
叱	-10.0688
主管	-10.0688
大王	-10.0692
少詩	-10.0698
勑	-10.0701
寘	-10.0703
醉	-10.071
一路	-10.0725
區	-10.0727
勵	-10.0727
書之	-10.0735
纂	-10.0736
釐	-10.0749
頥	-10.0749
捍	-10.075
門外	-10.0752
上帝	-10.0757
侮	-10.076
軰	-10.0761
亦無	-10.0766
成功	-10.0769
赴闕	-10.0779
公議	-10.0783
烏珠	-10.0789
措	-10.0792
選人	-10.0801
十六年	-10.0801
械	-10.0802
孚	-10.0804
冕	-10.0807
長子	-10.0807
辜	-10.0809
貝	-10.0815
納之	-10.0824
殺人	-10.0826
頻	-10.0827
譙	-10.0828
平章事	-10.0833
帥臣	-10.0837
滕	-10.0838
砦	-10.0841
當以	-10.0845
帥師	-10.0846
大防	-10.0849
率兵	-10.0852
亶	-10.0857
揺	-10.0863
腹心	-10.0864
往來	-10.0865
箭	-10.0876
法度	-10.088
轍	-10.0896
繕	-10.0899
何所	-10.09
倡	-10.09
暇	-10.0901
奏乞	-10.0902
自此	-10.0902
内史	-10.0909
札	-10.0911
亦可	-10.092
柵	-10.0926
統制官	-10.0933
禱	-10.0935
碩	-10.0938
山在	-10.0944
鬼	-10.095
廣陵	-10.0955
紛	-10.096
返	-10.0961
富弼	-10.0966
雲中	-10.097
富貴	-10.0977
者為	-10.0978
官爵	-10.098
撓	-10.0982
指揮使	-10.0983
和議	-10.0985
以告	-10.0988
御前	-10.0995
大理寺	-10.0999
僣	-10.1007
曰君	-10.1018
怯	-10.1019
昧	-10.1028
評	-10.1029
眞	-10.103
奇	-10.1031
雇	-10.1035
率衆	-10.1044
本州	-10.1045
髪	-10.1053
裂	-10.1053
廣南	-10.1054
淮東	-10.1055
閏月	-10.1056
入貢	-10.1059
逋	-10.1075
伴	-10.1077
皆為	-10.1081
妹	-10.1089
缺	-10.1091
掾	-10.1093
得以	-10.1097
之役	-10.1101
崖	-10.1101
十三年	-10.1107
蘄	-10.1114
無罪	-10.1123
噐	-10.1129
蘇軾	-10.113
降詔	-10.1133
瓦	-10.1138
同列	-10.1138
曰若	-10.1139
龎	-10.1139
枝	-10.1141
舊傳	-10.1141
艾	-10.1151
甚衆	-10.1154
其母	-10.117
潮	-10.117
則有	-10.1173
諸子	-10.1173
除名	-10.1177
綿	-10.1177
駢	-10.1177
鎮江	-10.1187
改正	-10.1197
琅邪	-10.1198
譴	-10.1198
錡	-10.1201
開元	-10.1203
古今	-10.1204
漢主	-10.1206
禁軍	-10.1208
忠臣	-10.121
偶	-10.1211
癸	-10.1211
算	-10.1211
娶	-10.1221
豆	-10.1222
敖	-10.1223
不下	-10.1223
赴行在	-10.1231
帥讀曰率	-10.1236
資政殿學士	-10.1237
曰昔	-10.1244
惟陛下	-10.1249
從容	-10.1251
一等	-10.1255
號令	-10.1256
行臺	-10.1258
臂	-10.1259
輟	-10.1261
所有	-10.1267
惡之	-10.127
西川	-10.1272
暑	-10.1273
財用	-10.1273
寓	-10.1275
城寨	-10.1281
劉光世	-10.1283
三品	-10.1287
暫	-10.1287
其國	-10.1294
般	-10.1297
第二	-10.1301
努	-10.1307
之職	-10.1308
欣	-10.1309
人馬	-10.1309
酬	-10.131
怠	-10.1321
奏曰	-10.1322
覩	-10.1322
也夫	-10.133
滑	-10.133
出師	-10.1332
懦	-10.1333
鼔	-10.1342
婁	-10.1348
並為	-10.1349
觀之	-10.1352
銳	-10.1357
歎曰	-10.1359
下獄	-10.1368
昊	-10.1368
之語	-10.1369
大學士	-10.1379
為國	-10.1379
主上	-10.138
不容	-10.1383
趙王	-10.1389
論列	-10.139
勛	-10.1395
嚮	-10.1395
縣西	-10.1398
熹	-10.1398
轉運	-10.1398
為陛下	-10.14
帥衆	-10.1403
壅	-10.1407
或曰	-10.141
伏見	-10.1413
紅	-10.1415
在此	-10.1417
河間	-10.1418
波	-10.1418
已上	-10.1423
之變	-10.1424
掖	-10.1425
河内	-10.1426
禦之	-10.1432
婦人	-10.144
大喜	-10.1444
勁	-10.1445
文學	-10.1451
日歴	-10.1454
悼	-10.1456
二十萬	-10.1462
百六十	-10.1467
鮮卑	-10.147
太保	-10.1475
總兵	-10.1475
瓌	-10.1479
翻又	-10.148
崇政殿	-10.1482
敞	-10.1483
阜	-10.1484
平陽	-10.1491
統制	-10.1496
侂胄	-10.1502
左僕射	-10.1506
註	-10.1506
儻	-10.1509
亢	-10.1522
十人	-10.1531
槩	-10.1532
聞奏	-10.1532
疇	-10.1543
護	-10.1547
逺近	-10.1549
第三	-10.1558
貟	-10.156
聖㫖	-10.1564
環慶	-10.1566
鎮撫	-10.1566
帖	-10.1568
二千石	-10.1574
禮部尚書	-10.1581
蘓	-10.1582
噶	-10.1582
覿	-10.1584
右丞相	-10.1586
遼主	-10.1589
牟	-10.1596
一千	-10.1597
十四年	-10.1606
朴	-10.1606
洺	-10.1607
戲	-10.1607
三州	-10.1619
未得	-10.162
駿	-10.1624
三司使	-10.1626
湖北	-10.1633
嫡	-10.1642
熾	-10.1643
二十年	-10.1644
廷尉	-10.1644
而歸	-10.1644
諸将	-10.1645
得失	-10.1647
流涕	-10.1648
此乃	-10.1652
臣下	-10.1673
光武	-10.1674
之費	-10.1677
不悦	-10.1678
居正	-10.1682
臣言	-10.1683
國人	-10.1686
姦邪	-10.1694
倒	-10.1696
兼權	-10.1696
壓	-10.1697
萌	-10.1698
繇	-10.1698
湖廣	-10.1702
鎭	-10.1708
輯	-10.1709
藍	-10.1719
黑	-10.1719
齊主	-10.1719
廹	-10.1722
人户	-10.1725
無復	-10.173
東魏	-10.174
耀	-10.1747
儼	-10.1748
應天	-10.1754
郎官	-10.1758
之下	-10.1763
到翻	-10.1769
之情	-10.1778
今不取	-10.178
等州	-10.1782
艦	-10.1784
推官	-10.1785
䘏	-10.1786
穿	-10.1798
濠	-10.1802
看詳	-10.1803
立法	-10.1803
囂	-10.1805
數千人	-10.1806
徼	-10.1808
謂曰	-10.1813
淑	-10.1823
武臣	-10.1824
無忌	-10.183
浪	-10.1834
邈	-10.1835
一二	-10.1836
范仲淹	-10.1842
無功	-10.1845
一曰	-10.1847
海内	-10.1849
煥	-10.185
鐘	-10.1859
芝	-10.1863
禾	-10.1864
王旦	-10.1865
進兵	-10.1875
墜	-10.1877
公著	-10.1879
等路	-10.1881
燧	-10.1883
且言	-10.1884
所宜	-10.1888
惶	-10.189
猶未	-10.1899
上供	-10.1903
二十八	-10.1903
由此	-10.1904
力戰	-10.1908
嶺南	-10.1915
下有	-10.1917
固守	-10.1918
差官	-10.1921
汝愚	-10.1929
晝	-10.1933
經畧司	-10.1936
因言	-10.1944
熈寧	-10.1946
逾	-10.1955
聖意	-10.1962
而出	-10.1964
獸	-10.1966
師道	-10.1966
生事	-10.1969
塲	-10.1971
常侍	-10.1979
教授	-10.1982
諸縣	-10.1984
萬石	-10.1987
尼瑪哈	-10.199
神武	-10.2003
佃	-10.2007
邇	-10.2009
師古	-10.201
之政	-10.201
水出	-10.2011
熈河	-10.2011
右諫議大夫	-10.2016
曰公	-10.2016
晉侯	-10.2017
彪	-10.202
劉摯	-10.202
之中	-10.2021
布哈	-10.2027
無益	-10.2029
從官	-10.203
諜	-10.2032
上曰朕	-10.2039
樞密使	-10.2039
傳修	-10.2041
臨安	-10.2043
之術	-10.2054
詔諸路	-10.2064
行事	-10.2064
不顧	-10.2066
遮	-10.2068
黼	-10.2071
乃遣	-10.2073
編修	-10.2073
岑	-10.2073
經制	-10.2088
紂	-10.209
曷	-10.2096
大計	-10.2098
匱	-10.2102
黄河	-10.2106
截	-10.2112
光禄大夫	-10.2116
無可	-10.2121
撤	-10.2126
十餘年	-10.2131
復為	-10.2132
衛將軍	-10.2134
涪	-10.2139
氐	-10.2139
來歸	-10.2145
數月	-10.2147
并州	-10.215
光禄	-10.2155
澶州	-10.2158
勒停	-10.216
馬軍	-10.2166
招討使	-10.2166
縣北	-10.2172
左丞相	-10.218
梅	-10.2181
不盡	-10.2193
高祖	-10.22
巾	-10.2203
冶	-10.2208
而有	-10.221
自陳	-10.2211
遁去	-10.2213
上謂	-10.2214
黔	-10.2217
准	-10.2221
學者	-10.2227
姻	-10.2231
荷	-10.2234
参	-10.2234
余按	-10.2237
舍人	-10.2238
曹操	-10.2239
中書門下	-10.2239
刑獄	-10.2242
金銀	-10.2248
肥	-10.2251
出戰	-10.226
國用	-10.226
蘇轍	-10.226
已有	-10.2271
軍前	-10.2272
跡	-10.2274
部署	-10.2278
孟子	-10.2281
望之	-10.2287
平原	-10.2292
鄒	-10.2299
岡	-10.2301
止之	-10.2302
世民	-10.2309
肩	-10.2314
洙	-10.2316
數百人	-10.2318
山西	-10.2324
近日	-10.2325
隅	-10.2328
其勢	-10.233
中正	-10.2332
或有	-10.2334
責之	-10.2339
夷簡	-10.2341
瑋	-10.2341
衆皆	-10.2342
豹	-10.2365
反覆	-10.2366
抃	-10.2368
太史	-10.2371
安危	-10.2374
九域志	-10.2381
見之	-10.2385
固辭	-10.2385
成都府	-10.2385
髙宗	-10.2386
汝南	-10.2389
俯	-10.2396
太僕	-10.2399
倣	-10.2408
之理	-10.2408
劇	-10.2409
瀛	-10.241
靖康	-10.2412
灼	-10.242
樞宻	-10.242
繆	-10.2423
相公	-10.2424
島	-10.2436
經略司	-10.2439
何為	-10.2451
鎬	-10.2452
皇甫	-10.2462
嘆	-10.2464
讎	-10.2466
福州	-10.2469
入冦	-10.2471
王氏	-10.2472
落職	-10.2474
女真	-10.2479
喀	-10.2479
即日	-10.2482
觀察使	-10.2484
敵人	-10.2485
承㫖	-10.249
衢	-10.2493
披	-10.2503
緡錢	-10.2508
寔	-10.2509
十四日	-10.2511
杲	-10.2528
大業	-10.2532
憐	-10.2535
盜賊	-10.2544
可考	-10.2544
號曰	-10.2545
禆	-10.2547
薪	-10.2548
張本	-10.2548
齊侯	-10.2553
陛	-10.2554
沆	-10.2559
直秘閣	-10.2563
地理志	-10.2564
畋	-10.2572
今來	-10.2575
晝夜	-10.2578
遣官	-10.2585
故城	-10.2586
悍	-10.2587
倖	-10.2587
部落	-10.2589
闗中	-10.2597
奭	-10.2603
掃	-10.2603
為于偽翻	-10.2604
璧	-10.2617
況	-10.2621
弃	-10.2628
梁王	-10.2629
淄	-10.2629
歟	-10.2631
活	-10.2632
頡	-10.264
諸生	-10.2651
朱全忠	-10.2652
泰山	-10.266
毫	-10.266
而立	-10.2662
世宗	-10.2666
泗州	-10.2668
總領	-10.2669
百人	-10.268
宋白曰	-10.2686
焦	-10.2689
潭	-10.2692
懋	-10.2699
洎	-10.2702
上聞	-10.271
六人	-10.272
所居	-10.272
蹙	-10.2728
捉	-10.273
月日	-10.2737
三路	-10.2748
天命	-10.2752
猝	-10.2757
中軍	-10.2758
贄	-10.276
士民	-10.2761
而止	-10.2764
堤	-10.2771
攘	-10.2771
領軍	-10.2781
門下侍郎	-10.2784
控	-10.2786
驟	-10.2786
參政	-10.2789
分為	-10.279
見上卷	-10.279
水旱	-10.279
右丞	-10.2794
豈得	-10.2794
失其	-10.2795
二字	-10.2803
弓箭手	-10.2804
城南	-10.2804
光世	-10.2805
演	-10.2808
欲令	-10.2811
開府儀同三司	-10.2814
像	-10.2816
諸臣	-10.2822
荆湖	-10.2825
妙	-10.2826
二十七	-10.2828
古人	-10.2836
諮	-10.284
僥倖	-10.2841
捐	-10.2845
日夜	-10.2849
一名	-10.2854
衆心	-10.2855
處置	-10.2856
攻城	-10.2859
庠	-10.286
于此	-10.2862
今若	-10.2868
列傳	-10.2869
朝政	-10.287
於民	-10.287
年四月	-10.2871
周禮	-10.2881
必欲	-10.2882
不通	-10.2885
墮	-10.2886
大兵	-10.2886
詠	-10.2887
劉豫	-10.289
自為	-10.2904
宿衛	-10.291
睢	-10.2914
岷	-10.2915
酷	-10.293
奕	-10.293
丁夘	-10.2932
左丞	-10.2934
來朝	-10.294
可見	-10.2942
壻	-10.2944
紳	-10.2947
苻	-10.2949
待罪	-10.2952
㕘	-10.2958
泚	-10.2959
遥翻	-10.296
紇	-10.2968
請降	-10.297
懇	-10.2971
太常博士	-10.2972
布曰	-10.2973
樞宻副使	-10.2973
真定	-10.2973
劉氏	-10.2973
蹈	-10.2975
莫若	-10.2975
處分	-10.2984
廪	-10.2988
耻	-10.2989
鬭	-10.2989
九十	-10.2993
布衣	-10.2996
囊	-10.2999
兮	-10.3
辛夘	-10.3001
㤗	-10.3002
十七年	-10.3002
上問	-10.3006
城西	-10.3013
乞罷	-10.3013
帯	-10.3016
上意	-10.3017
疋	-10.3017
龔	-10.3017
靈州	-10.302
紹聖	-10.3022
十七日	-10.3027
座	-10.3028
帑	-10.3032
又遣	-10.3035
六百	-10.3037
人才	-10.3039
問之	-10.3041
追之	-10.3041
三代	-10.3043
錢物	-10.3046
縣地	-10.3049
諫議大夫	-10.3051
宣帝	-10.3054
修撰	-10.3057
皆在	-10.3058
嶽	-10.3059
翔	-10.306
未敢	-10.306
召見	-10.3061
一事	-10.3061
兵部侍郎	-10.3063
巡撫	-10.3066
經筵	-10.3066
歐陽修	-10.3072
禮官	-10.3086
函	-10.3089
粲	-10.3092
建議	-10.3105
上章	-10.3113
劄	-10.3114
其功	-10.3116
於朝	-10.3116
廸	-10.3118
覲	-10.3119
遞	-10.3119
約束	-10.3127
之任	-10.3131
於外	-10.3133
袍	-10.3136
之憂	-10.3145
覘	-10.3146
嗟	-10.3147
世充	-10.315
刑部尚書	-10.3154
二子	-10.3164
朝夕	-10.3167
永興軍	-10.317
賔客	-10.3174
未聞	-10.3176
而退	-10.3177
街	-10.3178
本傳	-10.3178
朔日食	-10.3178
遣中使	-10.318
自有	-10.3187
跋	-10.3188
削去	-10.3189
陂	-10.3193
之望	-10.3199
八百	-10.3202
武皇帝	-10.3204
附此	-10.3205
䑓	-10.3208
千五百	-10.3215
萬里	-10.3224
瑀	-10.3234
瀆	-10.3237
制度	-10.324
已下	-10.3241
夏六月	-10.3243
鄆	-10.3245
再拜	-10.3245
立功	-10.3246
不聴	-10.3246
無異	-10.3248
得免	-10.3249
珙	-10.3251
求去	-10.3252
圓	-10.3255
恩澤	-10.3257
次第	-10.326
邕	-10.326
貢舉	-10.3262
可得	-10.3267
庇	-10.3267
裏	-10.328
泛	-10.3282
郵	-10.3282
廩	-10.3284
埽	-10.3284
十八年	-10.3285
豫章	-10.3287
城門	-10.3287
隂陽	-10.3293
粗	-10.3294
縣東	-10.3294
絲	-10.3296
無他	-10.3309
貞觀	-10.3311
要害	-10.3311
牲	-10.3312
瑗	-10.3312
縣南	-10.3313
視事	-10.3319
縊	-10.3323
八人	-10.3327
柳	-10.3328
贇	-10.3329
戩	-10.3331
㕔	-10.334
遂與	-10.3342
騷	-10.3342
不知所	-10.3344
不絶	-10.3348
濟南	-10.3348
桓公	-10.3348
曦	-10.3352
莒	-10.3355
凝	-10.3357
帥讀	-10.3364
所至	-10.3366
檀	-10.3368
塹	-10.3369
氷	-10.3371
顒	-10.3372
大水	-10.3372
有竒	-10.3373
沼	-10.3383
祇	-10.3384
匠	-10.3385
謀反	-10.3386
貟外郎	-10.3386
不聞	-10.339
吕翻	-10.3392
者甚衆	-10.3397
婢	-10.3399
周主	-10.34
副都	-10.34
淮陽	-10.3403
諫曰	-10.3405
至京師	-10.3407
三十里	-10.341
武昌	-10.3426
丹陽	-10.3446
宣撫	-10.3448
建安	-10.3456
婚	-10.3458
中官	-10.3461
工部侍郎	-10.3463
亳	-10.3464
汜	-10.3464
並依	-10.3466
詣闕	-10.3466
都部署	-10.3468
芮翻	-10.347
生靈	-10.3478
慶州	-10.3479
麾下	-10.348
起復	-10.3482
織	-10.349
知樞密院事	-10.3494
笑曰	-10.3498
數十人	-10.3499
緯	-10.3509
峒	-10.3511
敗走	-10.3519
八千	-10.3527
川陜	-10.3531
不堪	-10.3532
种	-10.3537
漠	-10.3538
寖	-10.3538
混	-10.3539
等處	-10.3541
六日	-10.3543
奉天	-10.3557
山南	-10.3559
秦鳯	-10.3562
内臣	-10.357
不疑	-10.358
隴西	-10.3581
媚	-10.3584
蹇	-10.3584
楚州	-10.3586
醜	-10.3587
還宫	-10.3587
朱熹	-10.359
簾	-10.3595
奪其	-10.3597
太和	-10.3597
藻	-10.3616
大梁	-10.3618
河南府	-10.3627
交趾	-10.3632
前鋒	-10.3634
軒	-10.3635
諸部	-10.3636
用人	-10.3644
乳	-10.3644
蔚	-10.3644
抽	-10.3647
十五里	-10.3656
洗	-10.3658
滔	-10.366
繹	-10.3661
巷	-10.3663
所載	-10.3666
府庫	-10.3667
廬州	-10.3672
視之	-10.3673
昶	-10.3677
以為不可	-10.3677
膠	-10.3679
數十萬	-10.3682
亳州	-10.3687
封樁	-10.3688
曽布	-10.3691
再三	-10.3702
七人	-10.3704
未盡	-10.3705
堰	-10.3706
處之	-10.3706
佩	-10.3707
王巖叟	-10.3713
縛	-10.3721
少府	-10.3724
行遣	-10.3734
梟	-10.3737
璟	-10.3739
大功	-10.374
二十餘	-10.374
鞭	-10.3741
雄州	-10.3742
不載	-10.3745
陳留	-10.3749
吕公著	-10.3757
中郎將	-10.3759
相見	-10.3766
災傷	-10.3766
方今	-10.377
邏	-10.3771
刋	-10.3771
貴人	-10.3775
上䟽	-10.3776
進攻	-10.3782
恢	-10.3783
瑄	-10.3784
奄	-10.3786
繪	-10.3787
繳	-10.3788
天意	-10.3789
嘉祐	-10.379
經義	-10.3794
䕶軍	-10.3796
握	-10.3801
之䇿	-10.3801
三十六	-10.3808
史炤釋文曰	-10.3811
十九年	-10.3812
鄜	-10.3813
托克托	-10.3815
闢	-10.3822
宋史	-10.3822
自來	-10.3824
冀州	-10.3825
將即	-10.3827
四千	-10.3832
朝直遥翻	-10.3833
敎	-10.3835
哲宗	-10.3835
乙夘	-10.3836
記曰	-10.3837
賜名	-10.384
滁	-10.3847
糶	-10.3848
亞	-10.3851
丁謂	-10.386
朝奉郎	-10.3867
守禦	-10.3875
弋	-10.3879
欽若	-10.389
年二月	-10.3902
麾	-10.3911
畆	-10.3916
守將	-10.3927
㫁	-10.3927
財賦	-10.3928
猜	-10.3928
宫觀	-10.3935
朝鮮	-10.394
貼	-10.3941
追封	-10.3942
不須	-10.3949
两	-10.3949
殿中	-10.3951
殿下	-10.3952
更始	-10.3959
抄	-10.3961
兄子	-10.3966
大抵	-10.3967
有隙	-10.3967
形勢	-10.3978
稱臣	-10.3986
先後	-10.3987
𤦺	-10.3987
嬖	-10.399
都督府	-10.3992
𤓰	-10.3992
穴	-10.3993
潞州	-10.3995
譬	-10.401
豈能	-10.4014
邾	-10.402
琪	-10.4021
百九十	-10.4024
言路	-10.4025
卨	-10.4029
茂貞	-10.4033
羲	-10.404
紀綱	-10.404
嬪	-10.4041
鄯	-10.4042
慙	-10.4042
上殿	-10.4045
茅	-10.4054
吐谷渾	-10.4054
憾	-10.4056
李氏	-10.4058
騎兵	-10.4069
都虞候	-10.4073
忠賢	-10.4086
日食	-10.4092
伏乞	-10.4093
㸃檢	-10.4096
死罪	-10.41
中大夫	-10.4103
謂輔臣曰	-10.4112
戰死	-10.4113
之官	-10.4121
光弼	-10.4122
灾	-10.4125
本末	-10.4129
常山	-10.413
黄帝	-10.413
召還	-10.4131
先生	-10.4135
史言	-10.4139
宫室	-10.4143
災異	-10.4148
譖	-10.4152
坤	-10.4153
扶風	-10.4153
摧	-10.4156
杭	-10.416
宗社	-10.4162
侍衛	-10.4164
皆云	-10.4165
殂	-10.4172
可否	-10.4174
子儀	-10.4176
非常	-10.4178
艱難	-10.4183
郡守	-10.4183
二十五	-10.419
侍講	-10.4196
臣子	-10.4197
上都	-10.4203
劭	-10.4204
明帝	-10.421
大破	-10.4215
王莽	-10.422
晩	-10.4221
複	-10.4231
不樂	-10.4235
或謂	-10.4251
稹	-10.4252
歙	-10.4253
桃	-10.4269
字子	-10.4269
葺	-10.4271
蠧	-10.4272
解題曰按	-10.4274
察其	-10.428
廣東	-10.429
欲望	-10.4291
脫	-10.4301
狩	-10.4301
禘	-10.4303
泊	-10.4304
弟子	-10.4306
閼	-10.4316
將來	-10.4326
簒	-10.4336
郝	-10.4336
無敢	-10.4337
覇	-10.434
都堂	-10.4343
義勇	-10.4345
所屬	-10.4352
鄜延路	-10.4352
笞	-10.4354
聰明	-10.4358
譟	-10.4364
使疏吏翻	-10.4367
球	-10.437
郊祀	-10.4371
太常少卿	-10.4372
梧	-10.4373
兩路	-10.4376
責授	-10.4394
軍統制	-10.4399
魁	-10.4401
不可得	-10.4402
不自安	-10.4407
後周	-10.4411
入宫	-10.4423
權發遣	-10.4425
兩省	-10.4426
汙	-10.4435
晋	-10.4435
不惟	-10.4439
山川	-10.444
兼知	-10.4442
所敗	-10.4443
潁川	-10.4447
州安置	-10.445
吹	-10.4452
婺	-10.4453
滑州	-10.4453
二十三	-10.4457
爾等	-10.4461
敗績	-10.4461
大義	-10.4463
又奏	-10.4465
並令	-10.4465
塵	-10.4468
其才	-10.447
故城在今	-10.4475
叡	-10.4486
羸	-10.4487
免役	-10.4489
㳂	-10.4489
貴妃	-10.449
踵	-10.4503
弭	-10.4504
江翻	-10.4504
差役	-10.4505
狡	-10.4517
覈	-10.4519
其徒	-10.4526
所獲	-10.4528
狹	-10.4536
角翻	-10.4537
亦當	-10.4547
不得其	-10.4547
棘	-10.4555
畝	-10.4558
其弊	-10.4561
長樂	-10.4564
范陽	-10.4566
按察	-10.4567
浙東	-10.4571
城北	-10.4575
于朝	-10.4577
渝	-10.4586
上疏曰	-10.4588
縉	-10.4588
膏	-10.4588
十三日	-10.4589
三十萬	-10.459
賁	-10.4599
跪	-10.4602
旻	-10.4618
諳	-10.4621
鶴	-10.4621
途	-10.4624
磨	-10.4637
訛	-10.464
稔	-10.4655
呈	-10.466
恬	-10.466
版	-10.4662
訐	-10.4668
葵	-10.4671
艘	-10.4671
畤	-10.4671
恂	-10.4678
迭	-10.469
銷	-10.4692
逞	-10.4706
劵	-10.4708
靳	-10.471
斃	-10.4723
標	-10.4724
揖	-10.4725
闔	-10.4726
輅	-10.4743
馭	-10.4743
黯	-10.4745
萇	-10.4766
栗	-10.4776
沐	-10.4795
聊	-10.4809
冢	-10.4809
枕	-10.4811
椿	-10.4812
㳺	-10.4812
无	-10.4821
囬	-10.4847
慧	-10.4862
飬	-10.4864
苟	-10.4885
弄	-10.4896
紿	-10.4897
甄	-10.4898
模	-10.4899
叟	-10.4918
几	-10.4929
淹	-10.4932
底	-10.4933
陘	-10.4947
障	-10.4951
僑	-10.4967
瓚	-10.4986
劫	-10.4986
歆	-10.4994
彧	-10.5007
斧	-10.5018
忻	-10.5023
楷	-10.5037
鏐	-10.5038
譯	-10.5054
澗	-10.5058
裳	-10.5071
竦	-10.5072
炳	-10.5094
霖	-10.5111
迷	-10.5112
值	-10.5114
闥	-10.5144
隗	-10.515
佳	-10.5163
寫	-10.5166
琨	-10.5179
訊	-10.5183
冐	-10.5185
鬱	-10.522
姊	-10.5237
估	-10.5242
闇	-10.5257
沉	-10.5259
悅	-10.5261
杞	-10.5271
隕	-10.5272
躍	-10.5275
俠	-10.5278
樁	-10.5291
扎	-10.5291
埶	-10.5294
棟	-10.5327
陀	-10.5342
逰	-10.5347
愿	-10.5349
汰	-10.5349
廓	-10.5351
霄	-10.5352
繒	-10.5362
揮	-10.5365
晨	-10.5365
壤	-10.5367
犍	-10.5384
憑	-10.5387
愆	-10.5387
宦	-10.5389
舌	-10.5405
陪	-10.5441
騐	-10.5442
碎	-10.5456
卭	-10.5457
琛	-10.5459
雙	-10.546
奨	-10.546
俶	-10.5472
酈	-10.5476
銖	-10.5478
僻	-10.5512
掘	-10.5513
燭	-10.5516
㦸	-10.5519
昱	-10.5531
壮	-10.5535
猷	-10.5552
雀	-10.5571
琰	-10.5585
彛	-10.5608
搆	-10.5609
湟	-10.5626
鞍	-10.5626
宼	-10.5627
汚	-10.5628
濤	-10.5643
錮	-10.5644
澧	-10.5664
貯	-10.5665
繡	-10.5668
攜	-10.5688
鉅	-10.5702
濁	-10.5723
頊	-10.573
綂	-10.5761
唱	-10.5762
蠡	-10.5776
牌	-10.5779
嶠	-10.5802
渙	-10.5803
磁	-10.5818
惰	-10.582
兇	-10.582
冉	-10.5835
汶	-10.5836
銘	-10.5836
觸	-10.5837
槍	-10.5839
膽	-10.5875
雋	-10.5882
弁	-10.5897
阮	-10.591
覬	-10.5913
荅	-10.5917
搜	-10.5933
詹	-10.5941
郤	-10.5948
戀	-10.5951
蠶	-10.5953
澹	-10.5955
澶	-10.5966
廖	-10.5971
壕	-10.5972
蟲	-10.599
駮	-10.5994
驤	-10.5995
曩	-10.5996
墳	-10.6011
迄	-10.6012
蔵	-10.6015
卯	-10.6019
圉	-10.6028
寮	-10.6032
晞	-10.6033
鑾	-10.6053
的	-10.6075
惲	-10.6092
扇	-10.6092
縻	-10.6111
筭	-10.6115
恊	-10.6122
簽	-10.6134
讜	-10.6149
藁	-10.615
愬	-10.6151
偁	-10.6153
憫	-10.6154
羗	-10.6192
鞅	-10.6212
倨	-10.6227
陋	-10.623
鷹	-10.6248
漲	-10.6249
售	-10.625
覃	-10.627
疫	-10.6271
匪	-10.6274
誡	-10.6274
棗	-10.6289
剽	-10.6348
裘	-10.6351
黠	-10.6351
攷	-10.6353
荘	-10.6355
琬	-10.6372
曄	-10.6372
窘	-10.6373
淤	-10.6375
臘	-10.6392
偷	-10.6392
晃	-10.6398
潔	-10.6413
珂	-10.6413
戶	-10.6417
顓	-10.6425
鮑	-10.6431
幄	-10.6434
穎	-10.6434
猥	-10.6452
徂	-10.6453
朂	-10.6454
諂	-10.6455
喧	-10.647
卦	-10.6494
駱	-10.651
芮	-10.6522
筵	-10.6534
祫	-10.6538
帷	-10.6558
脚	-10.6578
打	-10.6578
箕	-10.6582
衷	-10.6599
拂	-10.6601
遙	-10.6618
閹	-10.6638
仿	-10.6659
嗜	-10.666
坑	-10.6661
黍	-10.6662
暗	-10.668
珣	-10.6685
韜	-10.6699
漁	-10.6704
吝	-10.6704
挫	-10.6724
牓	-10.6725
綺	-10.6745
岀	-10.6757
甥	-10.6766
猾	-10.6785
懈	-10.6788
股	-10.679
羙	-10.6808
顛	-10.681
熲	-10.6812
鞠	-10.6826
沖	-10.6829
愁	-10.683
瑊	-10.6848
愕	-10.6851
犇	-10.6855
獠	-10.687
裝	-10.6871
懌	-10.6872
閬	-10.6873
狗	-10.6873
徭	-10.6874
弘	-10.6877
嵐	-10.6913
縳	-10.6913
綜	-10.6917
旰	-10.6931
駁	-10.6954
寝	-10.696
涕	-10.6973
傍	-10.698
崧	-10.7045
飯	-10.706
蘆	-10.7068
廼	-10.707
緫	-10.7083
挑	-10.7086
祉	-10.709
盾	-10.7106
郁	-10.7106
䜛	-10.7111
柏	-10.7131
膚	-10.7132
暨	-10.7133
渥	-10.7134
莧	-10.7144
熱	-10.7151
構	-10.7155
鵬	-10.7156
曼	-10.7171
隰	-10.7177
沅	-10.7178
曆	-10.7189
斫	-10.7199
忱	-10.7199
羞	-10.7221
爰	-10.7223
恚	-10.7242
技	-10.7265
粹	-10.7267
鋪	-10.7268
揀	-10.7274
寂	-10.7286
軫	-10.7308
詡	-10.7314
譛	-10.7356
嫉	-10.7373
郴	-10.7377
染	-10.7378
紘	-10.7394
綵	-10.7401
籌	-10.7404
玄	-10.7426
鎧	-10.7438
扞	-10.7441
味	-10.7465
歷	-10.7482
諧	-10.7488
彗	-10.7488
隣	-10.7488
慤	-10.7491
轅	-10.7495
粮	-10.7512
禕	-10.7514
礙	-10.7516
暢	-10.7536
牘	-10.7536
愔	-10.7538
捧	-10.7556
禎	-10.756
棺	-10.7579
矛	-10.758
䕃	-10.7581
斡	-10.7582
渚	-10.7584
桐	-10.7585
瘞	-10.7605
晁	-10.7607
戢	-10.7628
璪	-10.7672
莘	-10.7675
炤	-10.7691
欒	-10.7692
墾	-10.77
樸	-10.772
斜	-10.772
酣	-10.7741
槐	-10.7772
洵	-10.7791
殄	-10.7793
彥	-10.7817
驪	-10.7833
盍	-10.7858
羈	-10.7859
緘	-10.7861
䜟	-10.7861
縝	-10.7879
隸	-10.7884
冡	-10.7887
吞	-10.791
昻	-10.793
繋	-10.7955
諛	-10.7957
牀	-10.798
寐	-10.8003
穰	-10.8029
勔	-10.8049
紊	-10.8049
認	-10.8052
蛇	-10.8074
蓬	-10.8075
貿	-10.8075
愷	-10.8076
翦	-10.8077
剥	-10.81
狥	-10.8101
臻	-10.8125
啜	-10.8139
迂	-10.8148
系	-10.8172
漣	-10.8189
珏	-10.8191
枚	-10.8194
顗	-10.8199
滄	-10.8202
璠	-10.822
倦	-10.8226
慝	-10.8245
濵	-10.8246
黥	-10.8249
儔	-10.825
惻	-10.825
塟	-10.8269
埒	-10.829
郷	-10.829
頸	-10.8295
夔	-10.832
灘	-10.8339
仆	-10.8341
訕	-10.8341
怖	-10.8342
繞	-10.8367
央	-10.837
竝	-10.8372
葭	-10.8393
摠	-10.8394
鉉	-10.8396
䟦	-10.84
蔑	-10.8417
𦍑	-10.8417
楶	-10.8421
咄	-10.8439
紆	-10.8443
亘	-10.8444
鎔	-10.8469
釗	-10.849
婆	-10.8491
猗	-10.8518
偵	-10.8543
稜	-10.8568
咽	-10.8568
響	-10.8573
逗	-10.8591
峴	-10.8595
網	-10.8597
嶷	-10.86
躁	-10.8619
磾	-10.8622
湊	-10.8638
聶	-10.8641
羨	-10.8646
傲	-10.8647
磐	-10.8694
籠	-10.8698
汀	-10.8698
倭	-10.874
据	-10.8743
灋	-10.875
凍	-10.8774
磧	-10.8774
郯	-10.8797
賫	-10.8801
隳	-10.8804
陲	-10.8804
撲	-10.8806
驥	-10.8824
数	-10.8825
祜	-10.8827
瑕	-10.8827
餓	-10.883
鼻	-10.8849
伎	-10.8853
罹	-10.8881
𥘉	-10.8896
慘	-10.8904
墻	-10.8906
曇	-10.8907
壺	-10.8907
㢘	-10.8909
豎	-10.8932
洩	-10.8932
袒	-10.8933
孽	-10.8955
佗	-10.8957
舶	-10.8958
湜	-10.8984
梯	-10.8985
群	-10.8989
磬	-10.9003
倘	-10.9037
脂	-10.906
邽	-10.906
抜	-10.9088
朞	-10.9088
叩	-10.909
漆	-10.909
夙	-10.9091
暠	-10.9091
鉤	-10.9093
牆	-10.9119
谿	-10.914
烽	-10.9145
腰	-10.9148
粉	-10.9165
栢	-10.9167
琴	-10.9169
縮	-10.9172
躡	-10.9196
諲	-10.9197
迥	-10.9197
犀	-10.9199
閫	-10.9201
殯	-10.9202
諶	-10.922
倪	-10.9221
鼐	-10.9223
絀	-10.9223
祧	-10.9224
慟	-10.9224
濶	-10.9225
企	-10.9227
淪	-10.9228
剰	-10.9229
雉	-10.9247
闈	-10.9251
憎	-10.9252
燈	-10.9253
髮	-10.928
瑶	-10.9305
訾	-10.9305
挽	-10.9309
丗	-10.9329
慨	-10.9333
伋	-10.9334
㐮	-10.9336
蕪	-10.9336
墟	-10.9337
舖	-10.9338
屍	-10.9364
榔	-10.9378
銑	-10.938
霜	-10.9387
藴	-10.9387
賽	-10.939
礪	-10.941
膝	-10.9415
穢	-10.9415
凱	-10.9417
皷	-10.9421
際	-10.943
榻	-10.9463
豕	-10.9475
蠱	-10.9494
伽	-10.9494
悛	-10.9496
勣	-10.9514
哥	-10.9524
笏	-10.9524
孛	-10.9526
蹕	-10.953
傕	-10.9532
闊	-10.9555
劣	-10.9557
擴	-10.9562
聿	-10.9587
兢	-10.9588
鳩	-10.9599
翕	-10.9614
綴	-10.9638
詵	-10.9645
漂	-10.9666
宵	-10.9667
掊	-10.9667
楫	-10.9695
店	-10.9696
兾	-10.9696
䑕	-10.9697
弦	-10.9699
畔	-10.9724
諍	-10.9725
雱	-10.9755
檻	-10.9778
迨	-10.9783
曺	-10.9783
攀	-10.9807
冩	-10.9834
枯	-10.9837
馴	-10.984
柯	-10.9863
沸	-10.9864
餽	-10.9865
漫	-10.9894
駒	-10.9898
劔	-10.9902
詬	-10.9924
謐	-10.9927
別	-10.9942
疊	-10.9953
貂	-10.9954
煜	-10.9954
戬	-10.9958
酺	-10.9981
揭	-10.9984
稟	-11.001
勰	-11.0011
偹	-11.0013
鄩	-11.0033
搏	-11.01
蹂	-11.0102
隻	-11.0127
岌	-11.0128
狎	-11.0158
覊	-11.016
朽	-11.0162
夘	-11.018
豉	-11.0218
燔	-11.0219
熺	-11.0219
冇	-11.022
挈	-11.0221
稚	-11.0224
巽	-11.0227
㪚	-11.0251
皝	-11.0253
梗	-11.0254
瀘	-11.027
霧	-11.028
禇	-11.0285
摘	-11.0311
瑱	-11.0311
濡	-11.0321
殖	-11.0344
濳	-11.0344
覧	-11.0371
誌	-11.0372
旭	-11.0394
揣	-11.0398
鈎	-11.0398
瑩	-11.0399
鏜	-11.04
軼	-11.043
茹	-11.043
毀	-11.0431
􁀙	-11.0432
叢	-11.0433
勍	-11.0455
磔	-11.046
粥	-11.0463
驢	-11.0463
儁	-11.0465
蠕	-11.0495
奐	-11.0495
莭	-11.0521
邯	-11.0523
雕	-11.0523
寤	-11.0524
滛	-11.0524
斟	-11.0524
核	-11.0528
紬	-11.0528
拾	-11.0552
敘	-11.0553
爪	-11.0557
攬	-11.0557
逓	-11.0558
瓉	-11.0578
椒	-11.0579
壹	-11.058
遑	-11.0586
埋	-11.0587
畀	-11.0587
秣	-11.0588
廆	-11.0594
鴆	-11.0611
旺	-11.0614
饌	-11.0615
纎	-11.0616
㨿	-11.0617
蔓	-11.062
苴	-11.0647
釣	-11.0676
溫	-11.0676
紓	-11.0678
凢	-11.0679
暹	-11.0681
焞	-11.0681
吿	-11.0682
嶲	-11.0706
噬	-11.074
擲	-11.0742
竺	-11.0744
苞	-11.0744
郅	-11.0744
緝	-11.0774
殱	-11.0774
飽	-11.0779
歐	-11.0792
汧	-11.0797
汎	-11.0803
樵	-11.0804
眼	-11.0804
煙	-11.0805
舘	-11.0808
廊	-11.0814
菜	-11.0833
堵	-11.0837
瘠	-11.084
需	-11.0842
誑	-11.0866
阪	-11.0869
聨	-11.0871
跨	-11.0899
剖	-11.0929
竢	-11.0932
盎	-11.0936
扆	-11.0967
芒	-11.0997
糓	-11.1027
悌	-11.1027
溉	-11.1031
篆	-11.1057
崑	-11.106
拊	-11.1093
曙	-11.1129
龕	-11.1129
儋	-11.1156
狠	-11.1158
郗	-11.1158
弇	-11.1161
陌	-11.1163
㮚	-11.1164
吁	-11.1192
瓜	-11.1219
泓	-11.1222
虹	-11.1224
戡	-11.1227
㝷	-11.1258
勦	-11.1258
圜	-11.1259
裒	-11.1262
昺	-11.1289
紏	-11.1291
摶	-11.1293
籬	-11.1324
稠	-11.1325
麴	-11.1326
頵	-11.1326
昵	-11.1387
慿	-11.1398
囉	-11.1422
贛	-11.1425
皎	-11.1426
檝	-11.1427
掲	-11.1428
戯	-11.1456
醮	-11.1456
閎	-11.1457
褚	-11.1458
怙	-11.146
廨	-11.1461
毆	-11.1461
璞	-11.1466
鉢	-11.1493
蠟	-11.1495
餌	-11.1528
佯	-11.153
筮	-11.1539
綝	-11.155
轂	-11.1555
峯	-11.1558
油	-11.1594
購	-11.1596
甡	-11.1602
軻	-11.1628
想	-11.1633
汭	-11.1658
譁	-11.1661
渦	-11.1664
驩	-11.1665
緬	-11.1667
鹵	-11.1696
俛	-11.1697
燮	-11.1698
浴	-11.1699
厮	-11.1699
鯁	-11.173
隷	-11.1731
衘	-11.1732
縋	-11.1733
縦	-11.1733
轡	-11.1735
雒	-11.1753
闡	-11.1764
駙	-11.1765
坂	-11.1771
摭	-11.1802
駝	-11.1803
絡	-11.1804
懾	-11.1804
糜	-11.1838
謟	-11.1841
幅	-11.1872
港	-11.1874
寗	-11.1876
杏	-11.1906
朐	-11.1909
稻	-11.1911
脊	-11.1911
贏	-11.1912
暐	-11.1915
冨	-11.198
枹	-11.1981
奈	-11.1985
兊	-11.199
玫	-11.2008
黷	-11.2015
殁	-11.2018
裨	-11.202
拳	-11.2048
譜	-11.2051
儂	-11.2054
柰	-11.2128
懽	-11.2129
隐	-11.2157
瑛	-11.2158
浹	-11.2158
衂	-11.2161
槖	-11.2162
㝢	-11.2162
佚	-11.2195
㓕	-11.2196
牂	-11.2197
闐	-11.2197
炭	-11.2198
潯	-11.2225
郃	-11.2231
澈	-11.2232
楯	-11.2234
殉	-11.2237
愼	-11.2242
澠	-11.2266
携	-11.2267
璉	-11.2268
頂	-11.227
崈	-11.2271
昕	-11.23
滉	-11.2302
拙	-11.2303
廐	-11.2308
拆	-11.2309
綾	-11.2312
㓙	-11.2313
餞	-11.234
櫓	-11.2341
瘴	-11.2341
阼	-11.2342
牋	-11.2342
耽	-11.2343
廡	-11.2344
腐	-11.2345
雩	-11.2375
擯	-11.238
郞	-11.2391
寰	-11.2415
邃	-11.2417
穡	-11.2418
堠	-11.2419
冰	-11.2455
涯	-11.2456
讞	-11.2456
茲	-11.2457
犢	-11.2461
緑	-11.249
儆	-11.2491
邜	-11.2492
蕚	-11.2524
愎	-11.2524
刁	-11.2528
謾	-11.2531
悠	-11.2533
䜴	-11.2534
橫	-11.2537
滂	-11.2538
看	-11.2558
晡	-11.2566
昂	-11.2567
濕	-11.2568
袖	-11.2569
誹	-11.2569
璁	-11.2596
捶	-11.26
宕	-11.2601
璜	-11.2607
葦	-11.2643
灣	-11.2645
厨	-11.2647
嬴	-11.2675
畱	-11.2678
塢	-11.2682
骸	-11.2684
栻	-11.2684
尅	-11.2685
芾	-11.269
柩	-11.2721
架	-11.2721
妬	-11.2721
猺	-11.2721
墉	-11.2722
伶	-11.2724
撻	-11.2753
掎	-11.2759
僞	-11.276
綦	-11.2792
鄢	-11.2794
瘡	-11.2797
綯	-11.2798
霽	-11.2798
箴	-11.28
瑟	-11.2801
航	-11.2801
駟	-11.2804
詈	-11.2835
烹	-11.2839
逄	-11.284
冏	-11.2841
妓	-11.2841
肖	-11.2847
訶	-11.2871
鑰	-11.2873
丸	-11.2874
逡	-11.2909
剏	-11.2914
幷	-11.2919
擐	-11.2951
喚	-11.2953
鏤	-11.2954
擘	-11.2989
緋	-11.2992
翠	-11.2996
璀	-11.3026
煌	-11.3034
絕	-11.304
滌	-11.3071
楮	-11.3078
鎻	-11.3109
泝	-11.3111
昬	-11.3112
蒸	-11.3113
昫	-11.3114
蒯	-11.3115
澆	-11.3144
陁	-11.3145
昪	-11.3147
剌	-11.3147
低	-11.315
逖	-11.3153
踏	-11.3153
騫	-11.3154
肘	-11.3185
猖	-11.319
僮	-11.3195
旃	-11.3222
譎	-11.3228
厰	-11.3228
刷	-11.3231
遘	-11.3232
酤	-11.3234
侔	-11.3234
靼	-11.3269
壑	-11.3273
歉	-11.3276
紐	-11.3278
酖	-11.3307
鄖	-11.3316
絃	-11.335
錠	-11.335
珽	-11.3357
棐	-11.3358
蛟	-11.3398
殤	-11.3419
影	-11.3433
瀕	-11.3434
剪	-11.3439
幟	-11.3473
貺	-11.3479
堆	-11.3479
擔	-11.3479
媯	-11.3481
孥	-11.3482
怡	-11.3515
鞬	-11.3515
袤	-11.3517
暾	-11.3518
蚡	-11.3524
讙	-11.3557
秃	-11.3559
隲	-11.356
韻	-11.3561
電	-11.3603
玘	-11.3604
叶	-11.3605
氊	-11.3605
杼	-11.3608
馥	-11.3608
賕	-11.3642
柬	-11.3649
鷄	-11.3681
侁	-11.3682
旄	-11.3683
靚	-11.3684
肝	-11.3687
𠡠	-11.3688
噲	-11.3688
詧	-11.3723
璨	-11.373
霑	-11.3732
頑	-11.3732
礮	-11.3733
誚	-11.3766
惕	-11.3773
夭	-11.3775
擠	-11.3811
悰	-11.3812
盆	-11.3812
彞	-11.3815
裹	-11.3815
殫	-11.3815
婉	-11.3819
雁	-11.3856
倬	-11.3858
詛	-11.386
鼠	-11.3899
怛	-11.3901
烝	-11.3902
沴	-11.3903
凰	-11.3907
僵	-11.3938
謡	-11.3939
櫟	-11.3943
絢	-11.3944
忝	-11.3945
删	-11.3948
豳	-11.3986
邳	-11.4008
哷	-11.4024
曏	-11.4028
絞	-11.4029
嘯	-11.4031
毓	-11.4032
歇	-11.4036
刎	-11.4077
喉	-11.4079
蹤	-11.408
㲄	-11.4082
鶻	-11.411
幡	-11.4118
縫	-11.412
瓠	-11.412
瞽	-11.4121
煦	-11.4123
滬	-11.4162
舛	-11.4165
虗	-11.4167
􁨑	-11.4171
燦	-11.4202
璹	-11.4205
沱	-11.4208
踊	-11.4209
陕	-11.4244
㳟	-11.4244
琿	-11.4244
遴	-11.4252
縑	-11.4252
枋	-11.4256
譲	-11.4258
跌	-11.4292
䛕	-11.4303
潦	-11.4337
坰	-11.4339
刦	-11.4341
㤙	-11.4344
澥	-11.4345
囿	-11.4346
紗	-11.4346
沽	-11.4346
竿	-11.4382
鋹	-11.4385
株	-11.4386
話	-11.4387
妣	-11.4387
濱	-11.4387
騶	-11.439
遹	-11.4393
萃	-11.4394
埸	-11.4432
塤	-11.4434
赧	-11.4434
憸	-11.4434
奥	-11.4435
巒	-11.4436
殽	-11.4437
禺	-11.4474
摰	-11.4476
槊	-11.4477
廻	-11.4479
絰	-11.448
脉	-11.4482
輓	-11.4482
矧	-11.4484
醇	-11.4519
淇	-11.4524
逈	-11.4526
礟	-11.4527
妤	-11.4529
耘	-11.4568
偓	-11.4574
匄	-11.461
眩	-11.4615
蒐	-11.4617
態	-11.4618
訢	-11.462
肱	-11.462
禋	-11.4621
邴	-11.4626
郾	-11.4657
洧	-11.4657
藤	-11.4659
灰	-11.4659
椎	-11.4661
餒	-11.4661
呵	-11.4661
赭	-11.4662
粤	-11.4662
坎	-11.4665
麒	-11.4667
組	-11.4706
坡	-11.4753
箠	-11.4755
愽	-11.4755
輻	-11.4755
軸	-11.4756
侑	-11.4757
趍	-11.4761
栅	-11.48
竈	-11.4805
凋	-11.4805
迴	-11.4805
匈	-11.4847
垍	-11.4851
殛	-11.4853
頰	-11.4895
砲	-11.4897
擣	-11.4899
盪	-11.4899
盩	-11.4938
叨	-11.4946
舂	-11.4946
殃	-11.4946
玊	-11.4947
臥	-11.4947
萼	-11.4954
阨	-11.4955
緦	-11.4992
醴	-11.4994
郟	-11.4995
祏	-11.4995
丐	-11.4997
鎰	-11.5039
泳	-11.5042
們	-11.5088
胷	-11.5092
貎	-11.5095
蝕	-11.5096
鵲	-11.5098
姒	-11.5133
麓	-11.5136
韃	-11.5136
异	-11.5139
觴	-11.5139
莞	-11.5139
淚	-11.5143
燎	-11.5146
苾	-11.5179
竑	-11.518
蚤	-11.5186
炬	-11.5189
厠	-11.5189
皂	-11.5189
蔬	-11.5191
卬	-11.5192
窟	-11.5236
鞮	-11.5236
擄	-11.5237
适	-11.5239
涸	-11.524
瞿	-11.524
躋	-11.5242
聳	-11.5242
愉	-11.5242
厔	-11.528
鄠	-11.5282
臾	-11.5287
瀚	-11.5288
菑	-11.5288
籙	-11.5298
濰	-11.5336
穫	-11.5336
訣	-11.5337
摇	-11.5339
賻	-11.534
狃	-11.5341
慚	-11.5342
様	-11.5344
撒	-11.5385
療	-11.5386
縂	-11.5386
篡	-11.5387
鯀	-11.539
着	-11.5392
掛	-11.5436
牾	-11.5441
彘	-11.5484
楨	-11.5485
片	-11.5487
擕	-11.5487
嗇	-11.549
頽	-11.549
腴	-11.5492
縷	-11.5494
縶	-11.5532
佺	-11.5538
濯	-11.554
刈	-11.554
搖	-11.5541
淖	-11.5584
烟	-11.5594
敺	-11.5634
阬	-11.5636
毬	-11.5639
隍	-11.5641
爕	-11.5642
概	-11.5643
彤	-11.5689
縯	-11.569
肺	-11.5691
騁	-11.5692
塩	-11.5692
圃	-11.5692
查	-11.5693
誇	-11.5693
牡	-11.5735
滇	-11.5738
腕	-11.5739
扺	-11.574
瘳	-11.5743
歿	-11.5748
滎	-11.5757
臼	-11.5787
疽	-11.5793
懣	-11.5794
駞	-11.5794
愠	-11.5794
翳	-11.5797
玷	-11.5797
悚	-11.5797
芬	-11.5799
鎖	-11.5847
楹	-11.5852
莎	-11.5854
窠	-11.5855
緜	-11.5856
娣	-11.5899
媿	-11.5899
殞	-11.59
灤	-11.5902
嵬	-11.5902
凟	-11.5903
筦	-11.5903
霈	-11.5907
瀋	-11.5909
啻	-11.591
濛	-11.5914
醢	-11.5949
迦	-11.595
僦	-11.5953
襃	-11.5956
竣	-11.6009
琚	-11.601
亾	-11.601
曵	-11.6056
蟬	-11.6057
跳	-11.606
倩	-11.6061
哨	-11.6067
纛	-11.6111
旂	-11.6112
爛	-11.6113
馘	-11.6116
酸	-11.6116
床	-11.6116
兀	-11.6116
研	-11.6116
装	-11.6117
娑	-11.6164
涵	-11.6169
軀	-11.6169
髠	-11.6171
鍵	-11.6173
燉	-11.6175
套	-11.6206
灑	-11.6218
豨	-11.622
彚	-11.6221
杯	-11.6222
伉	-11.6223
荔	-11.6224
森	-11.6273
耄	-11.6277
濼	-11.6278
倧	-11.6282
擿	-11.633
豁	-11.6331
掄	-11.6332
豺	-11.6333
鍳	-11.6335
桷	-11.6343
籖	-11.638
舁	-11.6385
矟	-11.6385
屑	-11.6387
鬰	-11.6388
巵	-11.6388
驁	-11.6389
惴	-11.6389
頠	-11.6389
蜂	-11.639
棠	-11.6393
孕	-11.644
彫	-11.6441
砥	-11.6442
糗	-11.6445
琥	-11.6445
鑠	-11.6455
鉗	-11.6494
翹	-11.6495
鍔	-11.6497
跣	-11.655
恟	-11.655
柘	-11.6554
䖏	-11.6558
肜	-11.6559
悝	-11.656
稀	-11.6561
腸	-11.6564
羯	-11.6607
龐	-11.6611
廕	-11.6615
禳	-11.6615
悞	-11.6616
傭	-11.6621
麤	-11.6668
朶	-11.6669
迤	-11.667
㝠	-11.6672
犂	-11.6673
箋	-11.6716
煒	-11.6721
覦	-11.6722
胙	-11.6727
莾	-11.6729
踴	-11.673
礬	-11.6731
夸	-11.6731
㪷	-11.6732
軹	-11.6776
碣	-11.6777
媒	-11.6782
厄	-11.6783
琯	-11.6787
艶	-11.6835
肄	-11.6839
撾	-11.6842
診	-11.6842
紜	-11.6843
菽	-11.6845
卽	-11.6846
鄄	-11.6895
欷	-11.6895
璩	-11.6896
樗	-11.6896
藺	-11.6896
遛	-11.6898
苐	-11.6899
沾	-11.69
眇	-11.6901
圻	-11.6901
偪	-11.6904
蚩	-11.6913
剗	-11.6957
晴	-11.6959
墀	-11.6961
羔	-11.6961
瞋	-11.7006
嚳	-11.701
嗚	-11.7012
踞	-11.7013
兠	-11.7016
陴	-11.7018
𠂻	-11.7018
佾	-11.7019
吟	-11.7019
姿	-11.7021
刄	-11.7021
鈍	-11.7073
渴	-11.7074
涓	-11.7075
𨗳	-11.7076
扣	-11.7077
阡	-11.7079
惓	-11.708
楞	-11.708
霆	-11.708
騏	-11.7081
艮	-11.7084
闞	-11.7136
蟻	-11.7137
孳	-11.7137
伃	-11.714
卹	-11.7141
鋸	-11.7192
𬒳	-11.7193
鍊	-11.7196
僊	-11.7196
訃	-11.7201
瑒	-11.7203
詗	-11.7251
甌	-11.7255
淸	-11.7255
侗	-11.7256
堙	-11.726
駑	-11.726
冷	-11.726
矼	-11.7262
鎛	-11.7311
堞	-11.7313
鬚	-11.7313
峭	-11.7313
閘	-11.7314
皖	-11.7318
䋲	-11.7318
硤	-11.7323
荼	-11.7371
栖	-11.7371
崤	-11.7373
靺	-11.7373
犧	-11.7375
曳	-11.7375
琇	-11.7376
璆	-11.7376
梃	-11.7377
鮪	-11.7429
卻	-11.7432
帽	-11.7438
𦂳	-11.7438
么	-11.7444
秬	-11.7444
舸	-11.7497
礦	-11.7497
臭	-11.7497
兎	-11.7501
夤	-11.7503
溱	-11.7504
閌	-11.7508
臠	-11.7554
勗	-11.7556
㗖	-11.7557
鞨	-11.7558
雛	-11.7559
魂	-11.7561
洹	-11.7561
惋	-11.7561
潢	-11.7562
棲	-11.7562
开	-11.7563
碧	-11.7563
蟠	-11.7566
釀	-11.7617
岢	-11.7622
穉	-11.7622
票	-11.7623
垢	-11.7625
佶	-11.7625
燼	-11.7626
耒	-11.7627
筋	-11.7628
鈐	-11.763
麋	-11.7684
啇	-11.7686
婿	-11.7688
牴	-11.769
咫	-11.7692
煑	-11.7692
耜	-11.7697
墊	-11.7699
噩	-11.774
崙	-11.7749
箇	-11.7751
乍	-11.7753
羿	-11.7754
膂	-11.7755
桞	-11.7755
卵	-11.7756
鋮	-11.7756
剩	-11.776
倅	-11.776
幵	-11.7762
鏡	-11.7809
皥	-11.7811
掇	-11.7813
頷	-11.7814
峙	-11.7815
郿	-11.7815
邙	-11.7817
㩁	-11.7818
僥	-11.7869
齧	-11.7873
閨	-11.7874
唾	-11.7875
万	-11.7876
筏	-11.7879
鴨	-11.7879
闋	-11.788
鄞	-11.788
棧	-11.7882
慄	-11.7883
皃	-11.7925
炅	-11.7937
纓	-11.7939
澣	-11.7942
餼	-11.7943
薫	-11.7949
瑚	-11.8003
啖	-11.8008
飼	-11.8008
碭	-11.8009
顙	-11.801
襟	-11.8014
派	-11.8016
襁	-11.8064
閽	-11.807
諠	-11.8073
涖	-11.8075
罄	-11.8075
迓	-11.8076
餅	-11.8077
嘿	-11.8078
疵	-11.8138
褊	-11.8139
梢	-11.814
㒺	-11.8141
殍	-11.8141
鐫	-11.8144
禫	-11.8145
拖	-11.8145
幢	-11.8198
俚	-11.82
映	-11.8206
穹	-11.8206
恙	-11.8208
臆	-11.8266
鷙	-11.8266
貊	-11.8271
髓	-11.8273
趾	-11.8275
煎	-11.8276
菲	-11.8276
弹	-11.8278
歔	-11.8334
蓮	-11.8334
芟	-11.8336
瑣	-11.8339
鋤	-11.8339
詎	-11.8341
棚	-11.8342
蕘	-11.8342
鉛	-11.8343
褥	-11.8344
鱗	-11.8344
宄	-11.8344
欝	-11.8344
煮	-11.8346
迺	-11.8401
淯	-11.8404
鬲	-11.8406
抉	-11.8406
蹶	-11.8408
培	-11.8408
脇	-11.841
洒	-11.8415
幘	-11.847
衾	-11.8472
崞	-11.8472
蹟	-11.8475
摹	-11.8475
琅	-11.8475
鏑	-11.8476
髦	-11.8483
蓼	-11.8535
啗	-11.8541
踣	-11.8543
媪	-11.8544
亹	-11.8545
滸	-11.8546
箱	-11.8546
胤	-11.8549
滏	-11.855
躐	-11.8551
鈴	-11.8603
鑊	-11.8607
戕	-11.861
綘	-11.861
揔	-11.8612
絛	-11.8613
褐	-11.8613
訂	-11.8614
內	-11.8614
豚	-11.8615
捜	-11.8617
鯉	-11.8624
噉	-11.867
攅	-11.8678
徤	-11.868
嫗	-11.8682
悸	-11.8682
舋	-11.8682
瞰	-11.8684
鏁	-11.8684
朏	-11.8686
宙	-11.8687
関	-11.8744
鄫	-11.8744
厓	-11.8745
繖	-11.8748
腋	-11.875
款	-11.875
枷	-11.8751
橈	-11.8751
縞	-11.8753
𠫭	-11.8754
瑁	-11.8755
蠭	-11.8756
溧	-11.8823
棊	-11.8823
跂	-11.8823
捃	-11.8823
臚	-11.8825
晙	-11.8826
窒	-11.8826
淀	-11.8827
脛	-11.8886
􁝠	-11.889
甯	-11.8891
瘁	-11.8893
攽	-11.8897
湓	-11.8898
鴈	-11.8958
纉	-11.8959
羮	-11.8962
娠	-11.8963
篋	-11.8964
匭	-11.8964
郛	-11.8965
糞	-11.8965
煬	-11.8981
伾	-11.9029
牖	-11.9034
蒋	-11.904
韐	-11.9042
鎗	-11.9042
嘏	-11.9043
漿	-11.9101
耐	-11.9107
債	-11.9107
喝	-11.9108
䧏	-11.9109
牝	-11.9111
渇	-11.9111
徠	-11.9112
衫	-11.9112
榛	-11.9117
鵠	-11.9118
鄕	-11.9124
榷	-11.9178
胸	-11.918
肻	-11.9182
攄	-11.9183
頋	-11.9184
罸	-11.9184
透	-11.9184
殪	-11.9185
淆	-11.9185
录	-11.9186
鄣	-11.9246
圎	-11.9249
翀	-11.9254
湧	-11.9255
峪	-11.9257
莅	-11.9259
挟	-11.9263
煇	-11.9263
涒	-11.9322
釡	-11.9325
諺	-11.9327
剄	-11.9327
屨	-11.9328
籥	-11.9329
湍	-11.9331
餙	-11.9332
与	-11.9392
炙	-11.9394
䙝	-11.9395
棫	-11.9399
莆	-11.94
癘	-11.9401
捽	-11.9402
詘	-11.9403
娥	-11.9403
黓	-11.9403
义	-11.9404
䞇	-11.9404
腦	-11.9405
芥	-11.9406
痍	-11.9406
柟	-11.9409
昃	-11.9412
纒	-11.9473
匐	-11.9475
璿	-11.9478
澳	-11.9479
魄	-11.9479
仔	-11.948
袂	-11.948
賾	-11.9483
騾	-11.9483
捄	-11.9483
袴	-11.9484
鴟	-11.9486
䓁	-11.9486
悒	-11.9547
俵	-11.9555
辠	-11.9557
兔	-11.9557
琢	-11.9559
脯	-11.9561
虓	-11.9567
洫	-11.9629
驃	-11.963
杷	-11.9631
呌	-11.9631
層	-11.9632
曮	-11.9633
倓	-11.9635
冥	-11.9635
党	-11.9638
橐	-11.9705
鍜	-11.9705
嶧	-11.9705
莖	-11.9705
蹋	-11.9706
獗	-11.9707
嫚	-11.9708
洸	-11.9708
棹	-11.9708
彩	-11.9708
媵	-11.9709
犄	-11.971
嗢	-11.971
沓	-11.9712
娘	-11.9715
涂	-11.9718
莱	-11.9782
斐	-11.9785
淡	-11.9786
昴	-11.9787
屛	-11.9793
鉷	-11.9861
袋	-11.9861
掣	-11.9865
瞑	-11.9867
滹	-11.9867
軟	-11.9935
迸	-11.9936
暱	-11.9938
鶉	-11.9941
默	-11.9944
錐	-11.9945
庖	-11.9945
磯	-11.9948
賖	-11.9949
兕	-11.9956
㐫	-11.9959
挹	-12.0015
喋	-12.0017
撞	-12.0018
璫	-12.0024
紱	-12.0025
畎	-12.0026
胎	-12.0027
衿	-12.0093
珉	-12.0095
懃	-12.0097
懟	-12.01
轘	-12.0102
曖	-12.0102
弢	-12.0103
抹	-12.0103
餐	-12.0103
拭	-12.0106
兗	-12.0106
槃	-12.0108
駰	-12.018
靴	-12.0183
匃	-12.0184
現	-12.0185
巍	-12.0185
璡	-12.0188
祺	-12.0259
鉏	-12.026
堕	-12.0263
翥	-12.0263
睨	-12.0263
撙	-12.0266
僃	-12.0267
煉	-12.0267
鼂	-12.0268
剡	-12.0274
倔	-12.0344
羆	-12.0345
迅	-12.0346
㡌	-12.0346
欄	-12.0347
毘	-12.0349
雌	-12.035
緱	-12.0351
逝	-12.0351
沌	-12.0353
両	-12.0355
漬	-12.0426
晷	-12.0426
祼	-12.0429
𢷬	-12.0431
鬯	-12.0435
勺	-12.0507
嗷	-12.0507
液	-12.0508
夬	-12.0509
旒	-12.0513
婕	-12.0514
髀	-12.0514
賃	-12.0515
觖	-12.0516
葱	-12.0518
劓	-12.0518
壼	-12.052
吻	-12.0589
孑	-12.059
濓	-12.059
蹔	-12.0594
悵	-12.0595
槽	-12.0595
闘	-12.0597
宐	-12.0605
杵	-12.0677
癡	-12.0681
麈	-12.0682
眚	-12.0684
爼	-12.069
籩	-12.0694
〇	-12.0757
㸑	-12.0763
盂	-12.0763
傉	-12.0764
暄	-12.0765
囑	-12.0767
陿	-12.0768
闚	-12.077
藪	-12.0771
楙	-12.0776
呪	-12.0847
驂	-12.0848
剔	-12.0848
郕	-12.0851
禰	-12.0852
皁	-12.0852
伷	-12.0853
鈇	-12.0854
捲	-12.0857
甕	-12.0857
兑	-12.0859
搬	-12.0859
媛	-12.0859
璮	-12.0927
菩	-12.0932
詮	-12.0933
壩	-12.0935
淝	-12.0937
貰	-12.0938
攢	-12.0942
嚞	-12.0943
璣	-12.0943
燬	-12.0946
梏	-12.1019
郇	-12.1022
絙	-12.1022
鏃	-12.1022
櫬	-12.1025
睹	-12.1026
詿	-12.1026
怱	-12.1028
嫂	-12.1028
珩	-12.1029
砂	-12.1031
遯	-12.1032
浞	-12.1109
詖	-12.1112
黽	-12.1112
券	-12.1114
寀	-12.1115
禩	-12.1115
胃	-12.1116
颺	-12.1117
葆	-12.1117
隧	-12.1119
娛	-12.112
愀	-12.112
暖	-12.112
餗	-12.1123
荐	-12.1124
皋	-12.1124
鵝	-12.1196
峡	-12.1207
磝	-12.121
樽	-12.1211
𥙷	-12.1282
玭	-12.1286
窖	-12.129
爌	-12.1293
爇	-12.1294
彀	-12.1295
蒿	-12.1295
線	-12.1297
㤀	-12.1298
愜	-12.1301
澂	-12.1302
嘔	-12.1381
悶	-12.1381
搢	-12.1382
緍	-12.1383
𤨏	-12.1383
粒	-12.1386
矍	-12.1386
碌	-12.139
纍	-12.139
爻	-12.1391
址	-12.1393
絜	-12.1395
彖	-12.14
份	-12.1469
罽	-12.1471
縗	-12.1472
涌	-12.1477
㬇	-12.1479
做	-12.1479
暘	-12.1479
黻	-12.148
剝	-12.148
廏	-12.148
拷	-12.1481
釘	-12.1482
霞	-12.1483
淨	-12.1486
椽	-12.1565
讟	-12.157
酢	-12.157
噪	-12.157
闌	-12.1571
嶼	-12.1573
閶	-12.1579
剋	-12.158
噍	-12.1652
謔	-12.1653
虺	-12.1658
菁	-12.166
豢	-12.1664
姧	-12.1664
耤	-12.1664
扁	-12.1664
撝	-12.1665
刳	-12.1666
薰	-12.1667
碻	-12.167
鑲	-12.1745
攺	-12.1752
匕	-12.1753
菟	-12.1753
悴	-12.1753
鹹	-12.1754
邛	-12.1756
賡	-12.176
靑	-12.1764
撼	-12.1765
唇	-12.1766
甬	-12.1841
踧	-12.1849
俎	-12.185
婪	-12.1851
諄	-12.1861
媫	-12.1862
魅	-12.1938
慣	-12.1941
琶	-12.1944
絮	-12.1947
閥	-12.1947
嬉	-12.1948
廙	-12.195
贅	-12.1953
壝	-12.1962
瑑	-12.1962
頲	-12.2041
囯	-12.2043
謩	-12.2046
鏞	-12.2046
匝	-12.2047
睚	-12.2048
浄	-12.2051
埭	-12.2051
脆	-12.2142
鯨	-12.2142
櫛	-12.2142
箸	-12.2144
穽	-12.2144
啼	-12.2147
焰	-12.215
蓍	-12.2155
䍧	-12.2226
桎	-12.2238
圏	-12.2239
紕	-12.2241
爐	-12.2241
愴	-12.2242
忷	-12.2242
韙	-12.2242
畵	-12.2244
孩	-12.2245
扉	-12.2246
孱	-12.2249
轢	-12.2249
杰	-12.225
彝	-12.2255
輜	-12.2315
烜	-12.2336
耦	-12.2336
鬷	-12.2337
獪	-12.2339
掦	-12.234
栰	-12.2341
緄	-12.2343
緇	-12.2344
璝	-12.2344
瘦	-12.2346
唘	-12.2346
聯	-12.2354
蜚	-12.2437
騖	-12.244
譌	-12.2441
鞾	-12.2442
湣	-12.2443
聦	-12.2443
拍	-12.2444
纘	-12.2444
謳	-12.2445
眦	-12.2446
雎	-12.2449
忞	-12.245
鰥	-12.2451
翺	-12.2452
桴	-12.2453
湫	-12.2537
墅	-12.2542
濞	-12.2545
蘧	-12.2547
謄	-12.2547
畸	-12.2547
廞	-12.2549
悆	-12.255
箔	-12.2551
斵	-12.2551
凛	-12.2551
禖	-12.2552
俁	-12.2552
窄	-12.2555
佻	-12.2642
昞	-12.2643
棒	-12.2643
嗤	-12.2647
珥	-12.2648
蒨	-12.265
湎	-12.265
袐	-12.2651
斾	-12.2652
縠	-12.2652
窩	-12.2653
梵	-12.2654
猊	-12.2657
澱	-12.2657
惹	-12.2658
鬪	-12.266
榭	-12.2662
翌	-12.2729
覡	-12.275
閠	-12.2752
瀍	-12.2753
茨	-12.2754
螽	-12.2755
艷	-12.2755
仞	-12.2758
吠	-12.2758
兌	-12.276
艫	-12.2853
狁	-12.2858
饉	-12.286
𠞰	-12.2861
偼	-12.2861
䍐	-12.2863
魴	-12.2865
珝	-12.2949
貉	-12.2956
頫	-12.2959
俳	-12.2963
牐	-12.2964
灝	-12.2966
圯	-12.2966
匣	-12.2967
揜	-12.2969
瑤	-12.297
掞	-12.2971
褓	-12.3065
郜	-12.3065
峰	-12.3067
煨	-12.3067
翬	-12.3068
𨼆	-12.3072
徊	-12.3073
溷	-12.3073
諦	-12.3074
哺	-12.3077
杆	-12.3079
虔	-12.317
㸔	-12.317
蟒	-12.3178
塋	-12.3179
泮	-12.318
聫	-12.3181
埀	-12.3184
炊	-12.3184
衎	-12.3185
噫	-12.3186
讃	-12.3186
崗	-12.3187
盥	-12.3283
氂	-12.3285
螟	-12.3288
湔	-12.329
匏	-12.329
窴	-12.3291
睡	-12.3294
䂓	-12.3297
垜	-12.3298
氶	-12.3298
燄	-12.3299
綎	-12.3397
舳	-12.3398
荻	-12.3398
嗾	-12.3398
㳙	-12.34
鼈	-12.3401
笙	-12.3401
撮	-12.3402
磋	-12.3402
雹	-12.3403
怵	-12.3403
滙	-12.3403
挂	-12.3404
顏	-12.3405
淘	-12.3406
締	-12.3406
濩	-12.3406
產	-12.3407
晸	-12.3409
傔	-12.3409
縀	-12.3411
鏖	-12.3412
罘	-12.3412
爚	-12.3507
㒟	-12.3512
獷	-12.3512
塡	-12.3515
絪	-12.3515
瓶	-12.3515
抛	-12.3515
𢃄	-12.3516
壠	-12.3517
襖	-12.3517
禠	-12.3519
儕	-12.352
鳬	-12.3521
虡	-12.3614
棁	-12.3617
憊	-12.3618
刧	-12.3619
蒍	-12.3622
亰	-12.3624
刖	-12.3624
琵	-12.3625
滻	-12.3625
珊	-12.3627
憶	-12.3627
筞	-12.3628
喟	-12.363
皿	-12.3631
𤯝	-12.3631
泫	-12.3634
觚	-12.3735
慊	-12.3736
迕	-12.374
喫	-12.3741
鍼	-12.3742
鷂	-12.3742
卲	-12.3742
褫	-12.3742
掉	-12.3743
饕	-12.3743
睂	-12.3743
䭾	-12.3744
戇	-12.3745
麄	-12.3747
糊	-12.3749
柞	-12.3847
瑭	-12.385
哂	-12.3852
軋	-12.3855
纊	-12.3855
佖	-12.3855
帆	-12.3859
氓	-12.3861
憙	-12.3861
飄	-12.3861
屡	-12.3862
煖	-12.3862
輳	-12.3863
坻	-12.3863
岩	-12.3864
贑	-12.3867
蹻	-12.3868
湼	-12.387
倞	-12.387
簇	-12.3957
蘂	-12.3959
霫	-12.3964
暕	-12.3967
臍	-12.397
邲	-12.397
慥	-12.3972
鼇	-12.3974
瀝	-12.3974
汛	-12.3974
沭	-12.3977
泯	-12.3978
霾	-12.3978
珵	-12.3978
茫	-12.3978
倜	-12.398
讚	-12.3981
醖	-12.3987
薿	-12.3987
嵇	-12.4091
芍	-12.4092
厦	-12.4092
耨	-12.4094
郫	-12.4094
䨇	-12.4095
蹉	-12.4095
訝	-12.4095
鄼	-12.4096
遶	-12.4096
鄘	-12.4096
梨	-12.4097
帙	-12.4097
舫	-12.4097
銍	-12.4098
簮	-12.4098
洄	-12.4099
朘	-12.41
穗	-12.4101
夣	-12.4103
菴	-12.4103
慾	-12.4104
咥	-12.42
甑	-12.4202
桱	-12.4207
蹊	-12.4207
櫜	-12.4211
蓐	-12.4213
轝	-12.4214
猪	-12.4215
酹	-12.4215
塊	-12.4217
塑	-12.4219
冤	-12.4227
腫	-12.4329
濊	-12.433
癰	-12.4333
冄	-12.4333
眠	-12.4335
聃	-12.4336
邐	-12.4337
鄗	-12.4339
槁	-12.4339
溵	-12.4339
苹	-12.4339
蒞	-12.4339
淦	-12.434
櫃	-12.4341
簋	-12.4342
弅	-12.4342
妥	-12.4343
釜	-12.4343
濃	-12.4343
礫	-12.4344
紈	-12.4344
旼	-12.435
毖	-12.4353
帟	-12.4455
爨	-12.4456
頎	-12.4458
戱	-12.4458
蹴	-12.446
茸	-12.4462
筒	-12.4463
轓	-12.4463
陬	-12.4463
擗	-12.4465
吸	-12.4465
恇	-12.4466
巂	-12.4467
刅	-12.447
鍇	-12.4473
琕	-12.4474
聮	-12.4574
鉦	-12.4585
劬	-12.4586
撿	-12.4587
蜜	-12.4589
恠	-12.4589
綠	-12.4589
狸	-12.4591
夹	-12.4591
秤	-12.4592
鴦	-12.4597
莵	-12.4698
継	-12.47
挿	-12.4704
笄	-12.4704
豔	-12.4705
盲	-12.471
鍪	-12.471
茗	-12.4712
㐲	-12.4713
濘	-12.4713
徘	-12.4713
茵	-12.4714
䏻	-12.4716
叵	-12.4721
幻	-12.4721
憬	-12.4722
誄	-12.4722
諝	-12.4832
慴	-12.4837
湮	-12.4837
鶚	-12.4837
搗	-12.4838
糟	-12.4841
馨	-12.4842
㟁	-12.4842
趂	-12.4844
頺	-12.4844
翅	-12.4845
燃	-12.4845
焕	-12.4846
悮	-12.4846
昩	-12.4847
珫	-12.4848
澍	-12.4849
堨	-12.4963
狙	-12.4963
㬰	-12.4965
竪	-12.4972
飜	-12.4973
圈	-12.4974
腑	-12.4976
臏	-12.4977
妺	-12.4978
儇	-12.4978
埃	-12.498
裸	-12.5096
狷	-12.5098
糠	-12.51
惨	-12.5101
鍠	-12.5103
犨	-12.5104
仄	-12.5105
凑	-12.5106
蕞	-12.5107
髻	-12.5108
讋	-12.5108
熏	-12.5109
暈	-12.5109
紡	-12.5113
萱	-12.5116
瑯	-12.5117
舩	-12.512
騭	-12.522
桁	-12.5226
梲	-12.5226
熒	-12.523
幔	-12.523
悽	-12.5231
纁	-12.5233
偫	-12.5233
豊	-12.5234
髯	-12.5234
燝	-12.5234
帕	-12.5234
睥	-12.5235
肌	-12.5236
檛	-12.5238
澮	-12.5239
穏	-12.524
騤	-12.524
呐	-12.524
娯	-12.524
圩	-12.5241
闓	-12.5241
疹	-12.5244
恰	-12.5245
磑	-12.5247
炫	-12.5358
碉	-12.5362
窋	-12.5364
﨑	-12.5366
蒜	-12.5371
圮	-12.5373
嘛	-12.5374
浣	-12.5374
柸	-12.5375
鎡	-12.5375
翫	-12.5375
酆	-12.538
蒔	-12.5385
琊	-12.5386
蒱	-12.5501
鴉	-12.5503
衒	-12.5504
瘵	-12.5504
佟	-12.5505
煽	-12.5506
弧	-12.5507
齕	-12.551
搒	-12.551
暵	-12.5512
汁	-12.5512
你	-12.5514
覔	-12.5514
璵	-12.5517
騑	-12.5642
吭	-12.5642
紞	-12.5644
渤	-12.5646
旴	-12.5647
闒	-12.5648
盱	-12.565
怏	-12.565
墩	-12.5652
杓	-12.5653
俌	-12.5653
卸	-12.5653
咈	-12.5657
脣	-12.5659
囤	-12.5777
匯	-12.5785
㺯	-12.5785
魔	-12.5786
綢	-12.5788
淅	-12.5789
􁇛	-12.5789
灞	-12.579
悃	-12.579
痺	-12.5793
猫	-12.5793
熖	-12.5795
坼	-12.5798
洊	-12.5798
栩	-12.5799
穜	-12.5921
泠	-12.5925
棨	-12.5926
衽	-12.5927
厝	-12.5929
缶	-12.5929
湝	-12.5929
簫	-12.5929
縈	-12.593
棻	-12.5931
疚	-12.5931
塈	-12.5932
証	-12.5933
藎	-12.5933
駸	-12.5935
彎	-12.5936
㨂	-12.5937
駉	-12.6065
䄂	-12.6068
笮	-12.607
腥	-12.6071
黶	-12.6073
燥	-12.6073
硯	-12.6074
峘	-12.6076
圄	-12.6078
豬	-12.6079
闍	-12.6079
舄	-12.6083
倢	-12.6086
栽	-12.6086
澁	-12.6087
岊	-12.6094
罃	-12.6215
秭	-12.6219
鍚	-12.622
謇	-12.622
塜	-12.6223
𤾉	-12.6223
鈆	-12.6223
囹	-12.6224
讖	-12.6225
倐	-12.6226
繭	-12.6226
癃	-12.6226
䧺	-12.6226
絁	-12.6227
羕	-12.6227
㽞	-12.6229
歃	-12.6229
姐	-12.6233
堦	-12.6233
椀	-12.6236
螫	-12.6357
榦	-12.6365
弈	-12.6367
賨	-12.6369
祸	-12.6369
堇	-12.637
甓	-12.637
嘲	-12.6372
蠢	-12.6374
瀦	-12.6374
蟄	-12.6374
埤	-12.6375
笠	-12.6375
宂	-12.6375
蹄	-12.6376
逍	-12.6377
劑	-12.638
粱	-12.6384
燿	-12.6387
拽	-12.6516
贜	-12.6519
琉	-12.652
騃	-12.6521
噤	-12.6521
溆	-12.6522
盃	-12.6522
紺	-12.6523
𥚹	-12.6524
藜	-12.6526
嶢	-12.6526
峨	-12.6526
摽	-12.6528
絺	-12.6528
瀧	-12.6529
宓	-12.6531
怫	-12.6533
瑴	-12.6533
㕓	-12.6539
柤	-12.654
翾	-12.6668
嬈	-12.6669
瀏	-12.6673
罟	-12.6674
繚	-12.6675
這	-12.6675
酎	-12.6675
糒	-12.6676
頔	-12.6676
氛	-12.6677
㴶	-12.6677
幃	-12.6678
羇	-12.6678
璃	-12.668
紵	-12.6681
趯	-12.6681
蔭	-12.6682
譔	-12.6682
搔	-12.6686
垓	-12.6691
很	-12.6811
飤	-12.6821
鞞	-12.6823
咺	-12.6825
玼	-12.6826
禿	-12.6826
褰	-12.683
椁	-12.6832
糲	-12.6832
僨	-12.6836
瘼	-12.6836
犁	-12.6837
裾	-12.6838
鍛	-12.6838
茭	-12.6839
袵	-12.6841
飱	-12.6841
寋	-12.6841
擎	-12.6843
𦕈	-12.6844
葫	-12.6844
姨	-12.6848
姥	-12.6984
踖	-12.6984
祓	-12.6986
隼	-12.6987
趋	-12.6988
搤	-12.699
鵡	-12.6991
宷	-12.6992
笥	-12.6993
熄	-12.6993
酗	-12.6995
陥	-12.6996
軺	-12.6996
玖	-12.6996
縢	-12.6996
忒	-12.6997
芽	-12.6997
葑	-12.6998
攤	-12.6999
偲	-12.7
嶮	-12.7001
甃	-12.7148
嫄	-12.7148
獬	-12.7149
忙	-12.715
柝	-12.715
虖	-12.7151
凊	-12.7154
殮	-12.7154
璲	-12.7156
蘖	-12.7156
觷	-12.7156
冺	-12.7157
汨	-12.7158
槀	-12.7158
躪	-12.7158
唃	-12.7159
慆	-12.7162
蚝	-12.7163
潬	-12.7167
郄	-12.7168
謖	-12.7168
黤	-12.7294
戣	-12.7306
沇	-12.7314
璯	-12.7315
􁔡	-12.7315
莬	-12.7315
顆	-12.7316
鸚	-12.7316
錬	-12.7317
惮	-12.7317
濙	-12.7317
匍	-12.7319
㩀	-12.7324
茌	-12.7324
艸	-12.7325
巔	-12.7325
藹	-12.7326
蝻	-12.7326
憺	-12.7471
嘍	-12.7475
妲	-12.7478
彠	-12.7479
諉	-12.748
窬	-12.7481
壟	-12.7481
畯	-12.7481
僂	-12.7482
傚	-12.7482
傒	-12.7482
畦	-12.7483
脽	-12.7484
灃	-12.7485
𣲖	-12.7485
遒	-12.7486
屹	-12.7486
媮	-12.7488
㰱	-12.7489
莢	-12.7489
戛	-12.7489
螺	-12.749
咱	-12.7493
舡	-12.7493
斆	-12.7495
麵	-12.7497
稿	-12.764
刹	-12.7644
縡	-12.7645
晊	-12.7645
箐	-12.7648
邰	-12.7648
鸇	-12.7649
韡	-12.7652
槨	-12.7652
蝟	-12.7652
瘖	-12.7653
甦	-12.7653
侫	-12.7655
餱	-12.7656
讁	-12.7657
戞	-12.7657
顚	-12.7658
苫	-12.7659
謠	-12.766
净	-12.7663
簴	-12.7664
斿	-12.7667
彍	-12.7812
昷	-12.7812
玢	-12.7815
暌	-12.7819
閿	-12.7821
憒	-12.7821
牣	-12.7822
溍	-12.7822
蠅	-12.7823
軄	-12.7824
碁	-12.7824
换	-12.7824
逭	-12.7824
跖	-12.7825
搭	-12.7825
瘐	-12.7825
鮒	-12.7826
箝	-12.7826
黏	-12.7827
㫤	-12.7827
僇	-12.7828
顕	-12.7829
賭	-12.783
遡	-12.783
礿	-12.7831
翽	-12.7833
鵞	-12.7833
惔	-12.7837
霤	-12.7994
鍤	-12.7998
彷	-12.7998
喙	-12.7999
犴	-12.8
藐	-12.8
燁	-12.8001
櫂	-12.8001
聵	-12.8002
嶓	-12.8002
坪	-12.8002
翎	-12.8002
觜	-12.8002
玁	-12.8003
瞳	-12.8004
賠	-12.8004
站	-12.8004
鋋	-12.8005
郪	-12.8007
暁	-12.8008
鄶	-12.8009
齮	-12.8009
簠	-12.801
䜿	-12.8011
慱	-12.8011
翩	-12.8012
罍	-12.8016
勳	-12.8017
鏘	-12.8167
芙	-12.817
攫	-12.8171
枳	-12.8173
酪	-12.8174
昰	-12.8174
𣢾	-12.8175
鷺	-12.8175
术	-12.8177
涅	-12.8181
睽	-12.8181
醋	-12.8182
鯤	-12.8183
閧	-12.8185
魋	-12.8185
珦	-12.8185
韵	-12.8187
賙	-12.8188
驄	-12.8189
喘	-12.8189
佇	-12.8191
瑫	-12.8193
槱	-12.8203
尫	-12.8344
僰	-12.8349
漑	-12.8349
怦	-12.8353
簪	-12.8354
昀	-12.8356
扑	-12.8357
炮	-12.8358
机	-12.8359
昝	-12.836
橘	-12.8361
鄲	-12.8361
埓	-12.8362
㞦	-12.8362
喆	-12.8362
繢	-12.8362
恍	-12.8363
曌	-12.8364
眙	-12.8365
嶸	-12.8367
詒	-12.8368
褁	-12.8368
醒	-12.8369
慬	-12.8369
鐶	-12.837
儈	-12.8372
媾	-12.8372
扄	-12.8375
嵊	-12.8375
㢮	-12.8538
綖	-12.8539
齪	-12.8543
逯	-12.8545
詁	-12.8546
歧	-12.8546
脞	-12.8547
夐	-12.8548
沬	-12.8548
栒	-12.8549
洱	-12.855
灅	-12.8552
洶	-12.8552
俅	-12.8552
晻	-12.8553
硬	-12.8556
鋌	-12.8557
椅	-12.8559
罳	-12.8568
瑠	-12.8723
吮	-12.8723
詼	-12.8724
隃	-12.8725
眊	-12.8728
爱	-12.8731
汊	-12.8731
蜑	-12.8732
糺	-12.8732
竅	-12.8733
脈	-12.8733
慼	-12.8734
遄	-12.8735
聾	-12.8735
豸	-12.8735
筐	-12.8735
絫	-12.8736
馹	-12.8736
鵶	-12.8737
躊	-12.8737
檐	-12.8738
惚	-12.8739
閙	-12.8741
献	-12.8742
螭	-12.8743
賒	-12.8744
灄	-12.8744
岵	-12.8745
琸	-12.8902
棃	-12.8904
蝮	-12.8911
唁	-12.8917
躒	-12.8919
町	-12.8921
蕤	-12.8921
鐃	-12.8922
瀹	-12.8923
涔	-12.8923
㦲	-12.8926
叠	-12.8928
狭	-12.8929
寥	-12.8929
拏	-12.893
戅	-12.893
讌	-12.8931
㚟	-12.8932
洳	-12.8933
憮	-12.8933
𥙿	-12.8933
僱	-12.8935
賵	-12.8936
肸	-12.8936
觔	-12.8938
雝	-12.8942
肴	-12.911
紲	-12.9111
銛	-12.9114
祟	-12.9114
釵	-12.9117
嶇	-12.9118
愐	-12.9121
阽	-12.9121
痊	-12.9122
儷	-12.9123
岔	-12.9123
嚚	-12.9125
躇	-12.9125
裼	-12.9126
祲	-12.9127
徨	-12.9128
郈	-12.9128
揉	-12.9128
痕	-12.9129
諴	-12.9129
錙	-12.9129
媟	-12.913
緞	-12.913
瓛	-12.9133
輼	-12.9133
燠	-12.9133
单	-12.9134
勱	-12.9136
佽	-12.914
椹	-12.9308
暝	-12.9316
縵	-12.932
塾	-12.9322
畚	-12.9322
杌	-12.9322
彜	-12.9323
晳	-12.9323
躓	-12.9323
瞎	-12.9323
醪	-12.9323
秪	-12.9323
溳	-12.9323
笛	-12.9325
磻	-12.9325
沘	-12.9326
㐌	-12.9327
壙	-12.9327
喑	-12.9327
盞	-12.9328
凜	-12.9329
佼	-12.933
刲	-12.933
缾	-12.9331
轎	-12.9331
跛	-12.9332
碾	-12.9332
襦	-12.9334
氍	-12.9338
簟	-12.9513
乱	-12.9514
醬	-12.9521
螻	-12.9522
喁	-12.9522
蓉	-12.9523
跬	-12.9526
埜	-12.9526
袪	-12.9528
肢	-12.953
莩	-12.953
鄊	-12.953
籲	-12.953
猴	-12.9531
褶	-12.9531
邂	-12.9532
逅	-12.9532
褘	-12.9533
娱	-12.9533
贐	-12.9533
忮	-12.9534
賍	-12.9535
庳	-12.9538
些	-12.9724
鰲	-12.9729
荏	-12.9731
淶	-12.9731
釃	-12.9731
訿	-12.9732
蕡	-12.9733
眄	-12.9734
隤	-12.9735
刮	-12.9736
㓗	-12.9736
樅	-12.9737
夥	-12.9737
譓	-12.9737
黟	-12.9739
裙	-12.9739
蠆	-12.9739
虵	-12.9739
鞗	-12.974
貍	-12.974
攔	-12.9741
􁁊	-12.9741
薳	-12.9742
巉	-12.9743
鼙	-12.9744
盻	-12.9748
龠	-12.9749
眺	-12.975
􁚠	-12.9756
僴	-12.9756
傖	-12.994
烙	-12.994
骼	-12.9942
煴	-12.9943
嵯	-12.9944
怍	-12.9944
瀼	-12.9945
翃	-12.9946
䦨	-12.9946
囷	-12.9946
觱	-12.9947
鳶	-12.9947
褻	-12.9947
獫	-12.9948
筯	-12.9948
􁝜	-12.9949
蝦	-12.995
昜	-12.9951
㢤	-12.9951
芘	-12.9953
筑	-12.9955
壖	-12.9955
剃	-12.9956
鈿	-12.9957
欹	-12.9957
綮	-12.9957
搶	-12.9959
趫	-12.9964
迢	-12.9964
摺	-12.9965
緹	-12.9966
襆	-12.9974
蛤	-13.0144
婣	-13.0155
魑	-13.0156
墌	-13.016
祅	-13.0162
抶	-13.0164
鹻	-13.0165
剉	-13.0165
朓	-13.0166
毳	-13.0166
拄	-13.0167
瞶	-13.0167
瞍	-13.0168
屣	-13.0169
瑨	-13.017
漙	-13.017
徯	-13.017
饔	-13.0171
筈	-13.0171
忸	-13.0173
闖	-13.0173
颯	-13.0173
泇	-13.0174
㬎	-13.0174
届	-13.0175
漯	-13.0176
嵲	-13.0178
鉄	-13.0179
箎	-13.0182
蘚	-13.0183
畮	-13.0183
暍	-13.0183
眭	-13.0185
鞚	-13.0375
麫	-13.0377
媧	-13.0377
獅	-13.0381
墠	-13.0381
惬	-13.0382
珤	-13.0383
鑣	-13.0383
坌	-13.0384
盭	-13.0385
葷	-13.0385
櫝	-13.0386
柷	-13.0387
痼	-13.0387
侠	-13.0388
艤	-13.0388
繯	-13.0392
鞋	-13.0392
閡	-13.0392
閺	-13.0393
捫	-13.0394
􁞗	-13.0394
澇	-13.0395
莪	-13.0396
亓	-13.0396
肋	-13.0396
峋	-13.0397
綈	-13.0397
漒	-13.0398
儵	-13.0399
斁	-13.0399
靄	-13.04
寬	-13.0402
犫	-13.0601
憕	-13.0607
饟	-13.0607
浿	-13.0608
怎	-13.0608
綫	-13.0612
閟	-13.0615
漷	-13.0616
攴	-13.0618
帔	-13.0619
牁	-13.0619
躔	-13.0619
灊	-13.062
蓺	-13.0621
駘	-13.0621
懵	-13.0622
筴	-13.0622
朦	-13.0623
蒺	-13.0623
兜	-13.0623
羖	-13.0632
猱	-13.0633
旉	-13.0639
潾	-13.0639
蟹	-13.0831
埧	-13.0835
氈	-13.0838
愞	-13.084
冑	-13.084
尖	-13.0843
㽔	-13.0844
鑕	-13.0845
獺	-13.0847
鬛	-13.0847
鋐	-13.0848
䆒	-13.0848
酇	-13.0849
栝	-13.0849
慓	-13.085
曝	-13.085
籓	-13.085
鄔	-13.0851
芸	-13.0852
鄀	-13.0852
韍	-13.0852
嬙	-13.0852
塚	-13.0854
欎	-13.0855
敲	-13.0857
滴	-13.0858
點	-13.0861
暅	-13.1072
另	-13.1076
罌	-13.1078
㛰	-13.1079
橤	-13.108
菰	-13.1081
菱	-13.1081
岫	-13.1081
斑	-13.1084
繻	-13.1085
脾	-13.1087
沍	-13.1087
愒	-13.1088
剴	-13.1089
胊	-13.109
崛	-13.109
㝏	-13.1091
嵒	-13.1092
蓚	-13.1093
搴	-13.1094
秸	-13.1094
磽	-13.1096
逌	-13.1101
黁	-13.1102
姝	-13.1313
犖	-13.1318
胔	-13.1318
鏄	-13.1319
騂	-13.1319
悁	-13.1324
鬴	-13.1326
漚	-13.1326
攣	-13.1326
孃	-13.1327
堊	-13.1328
鴞	-13.1328
壍	-13.1328
婼	-13.1328
梳	-13.1329
穩	-13.1331
閈	-13.1331
躭	-13.1332
針	-13.1332
寑	-13.1332
个	-13.1332
攖	-13.1333
祊	-13.1333
鏊	-13.1335
杻	-13.1335
鷰	-13.1335
貙	-13.1336
肓	-13.1337
冮	-13.1337
鬢	-13.1339
塌	-13.1341
擦	-13.1343
褎	-13.1345
偰	-13.1346
碓	-13.1347
獞	-13.1571
憔	-13.1575
桔	-13.1578
簧	-13.158
尢	-13.1581
蔕	-13.1582
咒	-13.1583
貔	-13.1584
熬	-13.1584
磚	-13.1585
蜡	-13.1585
諏	-13.1586
瀾	-13.1586
㝡	-13.1587
窶	-13.1587
廱	-13.1587
緼	-13.1587
咩	-13.1588
窑	-13.1588
竽	-13.1588
哽	-13.1588
漼	-13.1589
蘿	-13.1591
崘	-13.1596
仵	-13.1596
菊	-13.1602
嬀	-13.1814
橦	-13.1824
鄤	-13.1827
㬋	-13.1829
匀	-13.1831
抒	-13.1832
姫	-13.1833
腆	-13.1833
蟾	-13.1834
埿	-13.1834
䃭	-13.1834
觝	-13.1834
恫	-13.1835
嚭	-13.1835
戻	-13.1835
栲	-13.1836
頁	-13.1836
斮	-13.1836
崍	-13.1838
藿	-13.1838
鐔	-13.1838
棓	-13.1839
柢	-13.1839
粘	-13.184
愭	-13.184
渰	-13.1841
攪	-13.1841
窳	-13.1841
媳	-13.1842
玳	-13.1842
憩	-13.1842
跽	-13.1844
劃	-13.1845
擡	-13.1845
𣏌	-13.1846
憝	-13.1847
仭	-13.1847
穪	-13.185
鎚	-13.1852
鄱	-13.2079
槌	-13.2083
掬	-13.2084
昛	-13.2086
侏	-13.2087
悈	-13.2091
澭	-13.2091
蠹	-13.2092
蹲	-13.2092
諗	-13.2094
薑	-13.2095
㪺	-13.2095
凴	-13.2098
溜	-13.2099
叫	-13.2099
抆	-13.21
捋	-13.21
厩	-13.21
韈	-13.2101
鄃	-13.2101
児	-13.2101
噎	-13.2101
濺	-13.2102
覯	-13.2102
渊	-13.2103
吃	-13.2103
惏	-13.2103
薇	-13.2104
癭	-13.2107
劎	-13.2107
呑	-13.2107
玦	-13.2108
挐	-13.2108
羑	-13.2108
薙	-13.2108
鄚	-13.2111
髣	-13.2113
驘	-13.2114
髴	-13.2114
璐	-13.2115
蘋	-13.2115
饜	-13.2119
从	-13.2337
繅	-13.2344
旛	-13.2351
漾	-13.2353
萯	-13.2358
膜	-13.2359
犲	-13.2359
駹	-13.2364
輛	-13.2365
祛	-13.2366
宁	-13.2366
踪	-13.2367
簷	-13.2367
衊	-13.2368
晤	-13.2368
粢	-13.2368
咤	-13.2369
壷	-13.237
璙	-13.2371
焬	-13.2371
耑	-13.2372
縲	-13.2372
价	-13.2372
沫	-13.2372
颶	-13.2372
淬	-13.2373
䣛	-13.2375
淩	-13.2375
檉	-13.2376
柙	-13.2376
誾	-13.2376
廋	-13.2377
庵	-13.2377
鄏	-13.2378
遟	-13.2379
侂	-13.2381
輴	-13.2381
蹷	-13.2382
瑰	-13.2382
奩	-13.2384
劌	-13.2385
悺	-13.2385
筲	-13.2634
畬	-13.2634
犛	-13.2637
謜	-13.2638
咀	-13.2639
𫀆	-13.264
潚	-13.2641
悻	-13.2643
羹	-13.2643
齟	-13.2643
齬	-13.2643
撩	-13.2643
瘧	-13.2645
鈕	-13.2647
馛	-13.2647
悪	-13.2648
頟	-13.2648
禅	-13.2649
鯢	-13.265
卾	-13.2651
艟	-13.2651
濋	-13.2654
晶	-13.2654
雊	-13.2655
樣	-13.2656
僎	-13.2657
洑	-13.2658
滈	-13.2658
鱄	-13.2659
睫	-13.266
戹	-13.2661
愾	-13.2661
盼	-13.2663
捺	-13.2921
禴	-13.2922
阯	-13.2923
拐	-13.2925
饘	-13.2927
稗	-13.293
綆	-13.293
檣	-13.293
踶	-13.293
筩	-13.2933
簞	-13.2933
誖	-13.2933
葅	-13.2935
醯	-13.2935
岯	-13.2935
珌	-13.2935
嵕	-13.2936
惎	-13.2936
孶	-13.2936
蚪	-13.2936
忼	-13.2936
倀	-13.2937
鵰	-13.2938
懬	-13.2939
憇	-13.294
髭	-13.2941
樛	-13.2942
臟	-13.2943
倂	-13.2944
筍	-13.2947
芰	-13.2948
𠢐	-13.3207
嗔	-13.3211
哆	-13.3212
甖	-13.3215
悄	-13.3218
蚌	-13.3221
絆	-13.3222
㔻	-13.3222
􁔨	-13.3222
攟	-13.3223
蟜	-13.3223
薁	-13.3223
醵	-13.3224
芹	-13.3224
嗛	-13.3225
俣	-13.3225
崆	-13.3225
槎	-13.3225
皦	-13.3225
峩	-13.3228
苕	-13.3228
鸛	-13.3228
楪	-13.3228
洭	-13.3228
膾	-13.3228
霪	-13.3229
鰍	-13.3229
鞘	-13.323
轑	-13.3231
泆	-13.3231
笁	-13.3232
匆	-13.3232
殣	-13.3234
籛	-13.3234
滓	-13.3234
箧	-13.3236
邡	-13.3236
啄	-13.3236
棋	-13.3236
甿	-13.3237
厪	-13.3237
熠	-13.3238
擺	-13.3238
鐇	-13.3246
訩	-13.3246
黿	-13.3519
埇	-13.3521
喏	-13.3524
藳	-13.3525
㦯	-13.3527
袝	-13.3528
橞	-13.3528
訔	-13.353
吊	-13.353
藕	-13.353
㢸	-13.353
幞	-13.353
粳	-13.353
杠	-13.353
枸	-13.3531
哇	-13.3531
尭	-13.3532
鷟	-13.3532
冎	-13.3532
珮	-13.3532
粧	-13.3532
忭	-13.3533
萑	-13.3533
絓	-13.3533
苓	-13.3534
禊	-13.3534
篚	-13.3534
冘	-13.3536
檮	-13.3537
嵎	-13.3538
嘻	-13.3538
巋	-13.3539
珧	-13.3539
忬	-13.3539
灸	-13.354
焯	-13.3541
祋	-13.3542
蓨	-13.3543
趕	-13.3544
譸	-13.3544
蝨	-13.3545
筝	-13.3545
氾	-13.3545
鰌	-13.3548
柑	-13.3549
𢾗	-13.355
啞	-13.355
廽	-13.355
筰	-13.3824
埨	-13.3829
酅	-13.3835
䑛	-13.3837
㬥	-13.3837
恧	-13.3838
荃	-13.3838
壎	-13.3838
煚	-13.3839
匽	-13.3839
跼	-13.3839
吒	-13.384
漊	-13.384
鑪	-13.384
疥	-13.3841
墯	-13.3841
焴	-13.3842
疢	-13.3842
摛	-13.3842
篙	-13.3842
毉	-13.3842
嘘	-13.3843
洿	-13.3844
稳	-13.3844
蓆	-13.3845
愳	-13.3845
鐺	-13.3845
忖	-13.3845
巘	-13.3846
艨	-13.3846
塼	-13.3846
輾	-13.3847
侖	-13.3847
窈	-13.3847
銚	-13.3848
綉	-13.3848
鏹	-13.3848
暀	-13.3848
䴥	-13.3849
枵	-13.3849
瑺	-13.385
窻	-13.3852
鏌	-13.3852
淞	-13.3854
䢴	-13.3858
嫣	-13.386
熨	-13.386
糯	-13.3873
耼	-13.4149
毌	-13.4154
茄	-13.4156
瓖	-13.4157
昳	-13.4158
燇	-13.4158
橛	-13.4159
瑳	-13.416
迯	-13.4162
詾	-13.4163
柹	-13.4164
靁	-13.4165
稈	-13.4165
飴	-13.4165
鏗	-13.4165
虨	-13.4165
菅	-13.4166
猻	-13.4166
杪	-13.4166
逷	-13.4166
猞	-13.4167
崟	-13.4167
刓	-13.4168
䠞	-13.417
􁆶	-13.417
輈	-13.417
桶	-13.4171
璇	-13.4171
豋	-13.4172
纖	-13.4172
壌	-13.4172
簀	-13.4172
崱	-13.4173
橚	-13.4174
怕	-13.4174
諼	-13.4174
聪	-13.4175
䘖	-13.4175
耉	-13.4175
㫺	-13.4178
嵓	-13.4178
臬	-13.4178
紼	-13.4181
篥	-13.4182
溠	-13.4182
篳	-13.4183
軿	-13.447
鍰	-13.4483
炯	-13.4485
虫	-13.4486
厎	-13.4486
甾	-13.4489
􁁦	-13.449
懔	-13.449
椘	-13.4491
辮	-13.4494
磊	-13.4495
芑	-13.4495
猒	-13.4495
匙	-13.4496
圑	-13.4497
倮	-13.4498
潏	-13.4498
嚼	-13.4498
囁	-13.4498
捭	-13.4499
熿	-13.4499
羝	-13.4499
榱	-13.4501
陡	-13.4501
砌	-13.4501
鼷	-13.4502
溲	-13.4502
襍	-13.4502
霅	-13.4502
衲	-13.4503
■	-13.4504
甎	-13.4504
餧	-13.4504
蝶	-13.4505
杉	-13.4505
楛	-13.4505
瀰	-13.4506
飫	-13.4506
疐	-13.4507
蝝	-13.4507
翮	-13.4508
陝	-13.4509
楩	-13.451
茆	-13.4511
􁂍	-13.4512
蚊	-13.4514
虒	-13.4517
惸	-13.4519
詫	-13.4831
嬌	-13.4831
澡	-13.4832
咋	-13.4833
荗	-13.4833
芋	-13.4834
飡	-13.4836
䆳	-13.4836
覉	-13.4836
𧖟	-13.4838
皐	-13.4839
麝	-13.484
爺	-13.484
恁	-13.4841
秔	-13.4841
茀	-13.4841
厫	-13.4842
滲	-13.4842
􁇳	-13.4843
妒	-13.4844
晥	-13.4845
搉	-13.4845
麯	-13.4846
喈	-13.4847
眤	-13.4847
亍	-13.4847
溶	-13.4847
晰	-13.4848
籞	-13.485
􁇚	-13.485
邘	-13.4851
猿	-13.4851
涑	-13.4853
蔥	-13.4853
旤	-13.4855
碍	-13.4856
醤	-13.4858
繄	-13.4858
踝	-13.4863
檥	-13.4872
軛	-13.5182
瑝	-13.5185
嶂	-13.5192
萎	-13.5192
褠	-13.5194
㬠	-13.5196
讇	-13.5197
瓴	-13.5197
㶏	-13.5199
挍	-13.5199
靦	-13.5199
鐙	-13.5201
畹	-13.5201
乣	-13.5201
隈	-13.5202
𥜗	-13.5202
蹐	-13.5203
箏	-13.5204
帢	-13.5204
蜮	-13.5204
縹	-13.5204
晌	-13.5205
阸	-13.5205
垕	-13.5205
窕	-13.5206
曀	-13.5206
璬	-13.5206
櫺	-13.5206
媢	-13.5207
糅	-13.5208
洼	-13.5208
䲭	-13.5208
溴	-13.5208
韞	-13.5208
殲	-13.5209
盬	-13.5209
曅	-13.5209
狴	-13.5209
檡	-13.5209
莋	-13.5209
􁀮	-13.521
𣅿	-13.5211
岍	-13.5211
囏	-13.5212
鐩	-13.5217
彄	-13.5217
眥	-13.5218
墬	-13.5218
嚬	-13.522
剸	-13.5555
糵	-13.5556
歠	-13.556
炕	-13.5561
蛙	-13.5562
郳	-13.5562
蛾	-13.5564
顱	-13.5564
滍	-13.5565
鞓	-13.5565
鑚	-13.5566
幬	-13.5566
菹	-13.5566
嘽	-13.5566
蹌	-13.5567
翛	-13.5568
呴	-13.5569
抔	-13.5571
嚻	-13.5572
緊	-13.5572
儐	-13.5572
㕑	-13.5573
鶩	-13.5573
蜺	-13.5574
劈	-13.5574
蜉	-13.5574
灮	-13.5575
㟭	-13.5577
鈺	-13.5578
篁	-13.5579
祤	-13.5579
癉	-13.558
翂	-13.558
滚	-13.5581
菀	-13.5582
盌	-13.5583
懶	-13.5583
𬗟	-13.5584
韭	-13.5584
苪	-13.5585
臀	-13.5586
䜌	-13.5591
轒	-13.5591
邶	-13.5592
甽	-13.5597
蠋	-13.594
軨	-13.594
澨	-13.5945
殻	-13.5946
埰	-13.5948
槥	-13.5948
阱	-13.5949
輊	-13.5949
浟	-13.595
瞭	-13.5951
耎	-13.5951
潑	-13.5952
鞌	-13.5952
旡	-13.5952
棼	-13.5953
侣	-13.5953
毦	-13.5954
瓢	-13.5954
耰	-13.5954
􁌿	-13.5955
罅	-13.5955
𤇺	-13.5956
鐻	-13.5956
呫	-13.5956
鐬	-13.5957
䰟	-13.5957
庀	-13.5958
蘊	-13.5958
秖	-13.5958
澀	-13.5959
魃	-13.5959
薺	-13.5959
櫻	-13.596
礼	-13.596
噠	-13.596
嚈	-13.596
卉	-13.5961
扃	-13.5962
獯	-13.5962
衺	-13.5963
儗	-13.5964
襯	-13.5965
遝	-13.5965
驎	-13.5966
豷	-13.5967
鍮	-13.5968
櫪	-13.5968
凾	-13.5969
𣪚	-13.5969
濜	-13.5971
瓆	-13.5972
玃	-13.6319
歜	-13.6332
鶡	-13.6333
泲	-13.6334
澌	-13.634
邗	-13.6345
袓	-13.6346
倕	-13.6347
騄	-13.6347
惆	-13.6347
頍	-13.6348
敔	-13.6348
黝	-13.6349
揄	-13.6349
晛	-13.6349
𬞞	-13.635
杳	-13.635
湩	-13.635
鋼	-13.6351
眡	-13.6351
娼	-13.6351
曚	-13.6352
玕	-13.6352
闟	-13.6352
䦧	-13.6352
尃	-13.6353
复	-13.6353
凄	-13.6353
餔	-13.6354
謪	-13.6354
焮	-13.6354
傘	-13.6355
薉	-13.6355
杅	-13.6355
騅	-13.6355
彿	-13.6356
􁇋	-13.6356
襌	-13.6356
愊	-13.6357
蹀	-13.6358
扳	-13.6359
萄	-13.6359
菌	-13.6359
鼉	-13.636
攙	-13.636
楠	-13.6361
􁥫	-13.6361
竚	-13.6361
簳	-13.6362
袞	-13.6362
珀	-13.6362
笈	-13.6363
撠	-13.6363
虬	-13.6363
絅	-13.6364
旟	-13.6364
窰	-13.6365
蕢	-13.6365
繙	-13.6365
蘅	-13.6366
獮	-13.6367
毐	-13.6367
罝	-13.6368
鍋	-13.637
牕	-13.6371
萋	-13.6372
凈	-13.6376
芃	-13.6382
䏰	-13.6747
𡵨	-13.6753
楣	-13.6754
秺	-13.6756
朅	-13.6757
尔	-13.6758
㡳	-13.6759
纜	-13.6761
窣	-13.6763
軓	-13.6764
粕	-13.6765
蔗	-13.6767
綣	-13.6767
煆	-13.6769
櫨	-13.6769
勠	-13.6769
􁕏	-13.677
断	-13.677
瞀	-13.677
禡	-13.677
徉	-13.6771
漴	-13.6772
涎	-13.6773
㢲	-13.6774
畒	-13.6774
瞬	-13.6775
訹	-13.6775
㟍	-13.6775
緻	-13.6776
呶	-13.6776
蹬	-13.6777
琫	-13.6778
篷	-13.6778
瞞	-13.6778
芊	-13.6778
疃	-13.6779
墡	-13.6779
腎	-13.678
蟊	-13.6781
璥	-13.6781
髹	-13.6782
嗸	-13.6783
抦	-13.6783
漓	-13.6783
棉	-13.6784
罩	-13.6785
膢	-13.6787
睺	-13.6789
蜕	-13.679
溟	-13.6791
敫	-13.6791
珹	-13.6792
儌	-13.6794
霓	-13.6796
翜	-13.6797
圵	-13.6798
􁞧	-13.7171
𥿄	-13.7181
涫	-13.7185
惛	-13.7189
㱕	-13.719
䌓	-13.7194
辝	-13.7195
昈	-13.7198
肫	-13.7199
惷	-13.72
蔴	-13.7202
焜	-13.7203
甔	-13.7203
舗	-13.7205
儡	-13.7206
縟	-13.7206
姞	-13.7206
畛	-13.7207
屐	-13.7207
厖	-13.7207
嘷	-13.7208
襜	-13.7208
遨	-13.7209
紖	-13.7209
尓	-13.7209
莠	-13.721
旐	-13.721
嵻	-13.721
虀	-13.721
葠	-13.721
鯈	-13.7212
佋	-13.7212
韲	-13.7212
罥	-13.7212
漉	-13.7212
侄	-13.7213
酃	-13.7213
駔	-13.7214
峗	-13.7215
敳	-13.7216
湞	-13.7216
碏	-13.7218
淥	-13.7218
顫	-13.7219
薈	-13.7219
韠	-13.7219
賧	-13.7219
韉	-13.722
慺	-13.7222
𣆀	-13.7222
鑛	-13.7222
􁕓	-13.7223
汔	-13.7226
禬	-13.7228
汐	-13.7623
麑	-13.7629
䆫	-13.7634
搰	-13.7635
􁨄	-13.7637
粃	-13.7637
眯	-13.7639
琄	-13.7642
埳	-13.7643
𦵔	-13.7645
棰	-13.7645
蟀	-13.7645
霹	-13.7648
窪	-13.7649
蛉	-13.765
蹵	-13.765
禑	-13.765
瘍	-13.7651
㵼	-13.7652
嬃	-13.7652
澎	-13.7653
騧	-13.7653
傀	-13.7655
紃	-13.7655
爝	-13.7658
庱	-13.7658
瘤	-13.7658
閃	-13.7659
柅	-13.7659
鏢	-13.766
髏	-13.7661
糝	-13.7662
恮	-13.7663
壚	-13.7663
蟇	-13.7664
麀	-13.7664
磴	-13.7664
剜	-13.7665
鱓	-13.7665
趁	-13.7665
礌	-13.7665
瞷	-13.7665
轟	-13.7665
柿	-13.7666
餮	-13.7666
矅	-13.7666
串	-13.7666
菓	-13.7667
淙	-13.7667
愓	-13.7668
褾	-13.7668
斄	-13.7669
茙	-13.7669
堋	-13.767
襚	-13.767
鷇	-13.767
緤	-13.7671
腊	-13.7671
睍	-13.7674
臈	-13.7675
嫩	-13.7675
汋	-13.7675
楼	-13.7676
頣	-13.7677
簣	-13.7678
贒	-13.7678
膈	-13.7682
惙	-13.7687
獒	-13.7692
㒷	-13.8099
􁕼	-13.8115
茷	-13.8123
靂	-13.8123
姆	-13.8125
傜	-13.8126
甗	-13.8126
榑	-13.8126
矰	-13.8127
幇	-13.8128
靷	-13.8128
佀	-13.8128
娖	-13.8129
鴿	-13.8129
囓	-13.8129
怤	-13.813
碇	-13.813
剿	-13.813
噀	-13.8132
鴛	-13.8132
鄺	-13.8133
麞	-13.8133
嘖	-13.8133
謼	-13.8133
犠	-13.8133
浃	-13.8134
軏	-13.8134
鸗	-13.8134
梠	-13.8134
崦	-13.8135
芡	-13.8136
臊	-13.8136
鏻	-13.8137
遫	-13.8139
輬	-13.8139
髑	-13.8139
碗	-13.8139
酧	-13.8141
涙	-13.8141
鵒	-13.8142
恡	-13.8142
媕	-13.8142
籕	-13.8143
翿	-13.8143
疉	-13.8144
挨	-13.8144
嫪	-13.8144
眘	-13.8144
鐍	-13.8144
礱	-13.8144
冽	-13.8145
跗	-13.8145
堧	-13.8145
萍	-13.8145
𨵦	-13.8145
瀨	-13.8146
栳	-13.8146
纈	-13.8146
斚	-13.8146
禭	-13.8148
渫	-13.8149
歹	-13.8149
煞	-13.8149
麃	-13.815
樺	-13.815
鶠	-13.815
錞	-13.815
襴	-13.815
酳	-13.8151
蟣	-13.8153
狶	-13.8153
溯	-13.8156
麽	-13.8161
爟	-13.8167
灕	-13.817
汳	-13.8593
薶	-13.86
捩	-13.8609
祍	-13.8621
楧	-13.8622
碙	-13.8623
暦	-13.8623
蕕	-13.8623
撅	-13.8629
籀	-13.863
噴	-13.863
睛	-13.863
蒗	-13.8631
揕	-13.8631
杙	-13.8631
郍	-13.8631
琡	-13.8631
銶	-13.8632
癲	-13.8632
朙	-13.8633
耋	-13.8635
週	-13.8636
獍	-13.8636
塉	-13.8636
渌	-13.8637
离	-13.8637
泒	-13.8637
摴	-13.8637
淋	-13.8637
魘	-13.8637
瘉	-13.8637
􁣕	-13.8638
􁨈	-13.8638
躅	-13.8639
揵	-13.8639
髆	-13.864
蕙	-13.864
滽	-13.864
襪	-13.8641
嗑	-13.8641
鼗	-13.8641
􁀐	-13.8641
鷸	-13.8642
𫐠	-13.8643
鷲	-13.8644
殳	-13.8644
㒒	-13.8644
衜	-13.8645
斸	-13.8645
浰	-13.8645
芉	-13.8647
榼	-13.8648
稾	-13.8649
獎	-13.8649
姤	-13.865
眂	-13.8652
嘱	-13.8653
觥	-13.8654
嘴	-13.8655
痿	-13.8656
瑇	-13.8657
麕	-13.866
縚	-13.8661
裦	-13.8663
蹠	-13.8663
䠆	-13.9137
蔞	-13.9145
佔	-13.9147
掀	-13.9147
𬒮	-13.9148
竞	-13.915
插	-13.9158
袛	-13.9158
晧	-13.916
虯	-13.916
仚	-13.916
緷	-13.916
迃	-13.916
跟	-13.9161
禥	-13.9161
陔	-13.9161
㓛	-13.9161
巇	-13.9161
徜	-13.9161
敭	-13.9161
㭬	-13.9162
埴	-13.9162
濂	-13.9163
􁢱	-13.9163
貣	-13.9163
㩦	-13.9163
俑	-13.9164
辣	-13.9164
漅	-13.9164
崓	-13.9164
痤	-13.9165
稆	-13.9165
鑨	-13.9165
麪	-13.9166
鱉	-13.9167
餬	-13.9167
敉	-13.9168
椓	-13.9168
坫	-13.9169
擷	-13.9169
嘑	-13.9169
瞪	-13.9169
𪠘	-13.917
藟	-13.917
朢	-13.9171
渒	-13.9172
濉	-13.9172
翡	-13.9172
撣	-13.9173
勻	-13.9173
袀	-13.9173
姁	-13.9173
聸	-13.9175
矚	-13.9175
蔀	-13.9176
遅	-13.9177
涘	-13.9177
挼	-13.9177
丄	-13.9177
殚	-13.9178
顰	-13.9178
樟	-13.9179
衩	-13.9184
闉	-13.9185
謏	-13.9194
楡	-13.9194
䘺	-13.9204
鄅	-13.9699
欻	-13.9703
􁏉	-13.9704
莨	-13.9704
絏	-13.9706
咷	-13.9708
确	-13.9711
棡	-13.9711
罼	-13.9712
徬	-13.9712
焱	-13.9713
騣	-13.9714
橅	-13.9714
愻	-13.9714
䥴	-13.9714
榘	-13.9714
訏	-13.9715
筌	-13.9716
嫠	-13.9716
稭	-13.9717
氅	-13.9717
繾	-13.9717
瘢	-13.9717
惘	-13.9718
聆	-13.9718
徕	-13.9718
孀	-13.9718
㖫	-13.9718
駛	-13.972
洌	-13.972
綟	-13.972
個	-13.9721
罣	-13.9721
㵯	-13.9722
􁧯	-13.9722
鸜	-13.9723
幙	-13.9723
泂	-13.9724
戭	-13.9724
綳	-13.9724
嚙	-13.9724
鰓	-13.9724
聒	-13.9725
醻	-13.9725
褔	-13.9725
𡨕	-13.9727
挻	-13.9727
姙	-13.9727
値	-13.9729
艇	-13.9729
嬗	-13.973
枲	-13.973
峝	-13.9731
瓮	-13.9731
鄮	-13.9732
胾	-13.9732
蜒	-13.9732
喣	-13.9733
烖	-13.9734
􁱧	-13.9734
螘	-13.9734
􁑣	-13.9735
鮓	-13.9735
奂	-13.9735
呻	-13.9736
沗	-13.9736
㫄	-13.9737
芷	-13.9739
㻛	-13.9739
穂	-13.974
㗋	-13.9742
痾	-13.9747
秕	-14.0261
掆	-14.0288
𣑽	-14.0292
糖	-14.0292
烱	-14.0293
靉	-14.0297
噦	-14.0299
餳	-14.0299
疣	-14.03
喊	-14.03
鞵	-14.03
紋	-14.03
幗	-14.0301
􁱇	-14.0302
䃺	-14.0302
綌	-14.0303
杕	-14.0303
脤	-14.0304
憃	-14.0304
垠	-14.0304
渺	-14.0304
柂	-14.0304
型	-14.0305
熛	-14.0305
籃	-14.0306
飈	-14.0307
硃	-14.0307
晢	-14.0307
䤈	-14.0307
鮎	-14.0308
􁏄	-14.0308
䆠	-14.0308
傴	-14.0308
蒭	-14.0308
帀	-14.0308
熞	-14.0309
緌	-14.031
篾	-14.0311
凂	-14.0312
澉	-14.0312
搥	-14.0312
淊	-14.0312
袷	-14.0313
鸑	-14.0313
潝	-14.0314
廄	-14.0314
䟎	-14.0314
椰	-14.0315
鄳	-14.0315
狤	-14.0315
卣	-14.0315
笴	-14.0316
廿	-14.0316
睠	-14.0317
鼾	-14.0317
頞	-14.0317
拗	-14.0318
釭	-14.0318
硜	-14.0318
砮	-14.0318
抎	-14.0319
舴	-14.0319
傪	-14.032
瘃	-14.0321
鬨	-14.0324
燋	-14.0325
覷	-14.0325
粽	-14.0325
簏	-14.0325
憖	-14.0326
蒢	-14.0328
蹯	-14.033
檦	-14.0339
鷩	-14.0898
蜣	-14.0904
嫖	-14.0909
嗽	-14.0911
咏	-14.0913
脰	-14.0914
蕳	-14.0914
漦	-14.0917
甜	-14.0917
苔	-14.0918
㳄	-14.0919
欑	-14.0919
僬	-14.092
綍	-14.092
􁀈	-14.092
腄	-14.0921
􁊞	-14.0921
嚢	-14.0922
惺	-14.0922
舷	-14.0923
寞	-14.0923
楔	-14.0923
噱	-14.0924
惽	-14.0925
輗	-14.0925
鑽	-14.0925
㠶	-14.0925
幰	-14.0926
墱	-14.0926
荂	-14.0926
鶖	-14.0926
􁥌	-14.0926
鐐	-14.0927
搯	-14.0928
稒	-14.0928
纚	-14.0928
􁆁	-14.0929
癬	-14.0929
䶵	-14.0929
拶	-14.093
泃	-14.093
稺	-14.093
𫉬	-14.0931
摸	-14.0931
桉	-14.0931
􁂎	-14.0932
黈	-14.0932
麇	-14.0933
􁌆	-14.0933
炰	-14.0933
㳫	-14.0934
楗	-14.0934
鶄	-14.0934
拈	-14.0934
鵁	-14.0934
檑	-14.0935
㬓	-14.0935
茟	-14.0935
剕	-14.0936
迮	-14.0936
僶	-14.0936
瀬	-14.0936
竧	-14.0936
噂	-14.0937
搃	-14.0937
剚	-14.0937
埈	-14.0937
綃	-14.0938
􁀣	-14.0938
偈	-14.0938
餤	-14.0939
麊	-14.0939
艋	-14.0939
㥄	-14.094
輵	-14.094
丼	-14.0941
㶚	-14.0941
屝	-14.0942
肹	-14.0942
鞉	-14.0945
埠	-14.0945
撘	-14.0945
誎	-14.0947
鷖	-14.0949
瘥	-14.095
忩	-14.095
憯	-14.0953
穣	-14.0958
蝱	-14.0959
禜	-14.0963
撗	-14.1569
糇	-14.1571
孊	-14.1572
玨	-14.158
佷	-14.158
幍	-14.158
狻	-14.1583
潩	-14.1584
鄡	-14.1584
砍	-14.1584
旿	-14.1584
笋	-14.1584
冋	-14.1585
邟	-14.1585
?	-14.1585
珎	-14.1586
溽	-14.1587
蛻	-14.1587
麛	-14.1587
叉	-14.1588
繦	-14.1588
㪯	-14.1589
煤	-14.1589
屩	-14.1589
緭	-14.1589
湬	-14.1589
峕	-14.1591
隩	-14.1591
􁱬	-14.1591
咬	-14.1592
鉥	-14.1593
彡	-14.1593
黛	-14.1594
跲	-14.1594
悳	-14.1594
騢	-14.1594
頏	-14.1594
廧	-14.1595
頬	-14.1595
濾	-14.1596
䄠	-14.1596
醲	-14.1596
頹	-14.1596
劊	-14.1596
茇	-14.1597
靠	-14.1597
扛	-14.1597
䴵	-14.1597
㹠	-14.1598
甆	-14.1598
菻	-14.1598
昢	-14.1598
鵃	-14.1598
㠓	-14.1599
裀	-14.1599
觶	-14.1599
忲	-14.1599
抺	-14.1599
􁂒	-14.1599
埏	-14.16
溘	-14.16
猨	-14.16
絝	-14.1601
擥	-14.1601
皛	-14.1601
蠃	-14.1601
檿	-14.1601
堲	-14.1602
炟	-14.1602
㔨	-14.1602
钁	-14.1604
駼	-14.1604
誗	-14.1605
嘵	-14.1605
巗	-14.1605
鋈	-14.1605
䊸	-14.1606
躙	-14.1606
玲	-14.1607
撑	-14.1607
汮	-14.1608
掫	-14.1608
楀	-14.1609
湑	-14.1609
瑙	-14.1609
獘	-14.161
鵑	-14.161
鵜	-14.1611
膊	-14.1611
廑	-14.1611
抝	-14.1611
膓	-14.1611
貅	-14.1612
臑	-14.1612
慫	-14.1613
漪	-14.1613
鄛	-14.1615
䝠	-14.1615
癯	-14.1615
菆	-14.1615
􁃻	-14.1616
嫻	-14.1616
駈	-14.1616
梭	-14.1617
鉶	-14.1617
嵹	-14.1619
藋	-14.162
㠯	-14.162
薌	-14.1621
靬	-14.1623
爍	-14.1627
褧	-14.2254
㼐	-14.2281
睪	-14.2287
柚	-14.2289
崿	-14.2292
呰	-14.2292
􁂆	-14.2294
騒	-14.2294
扜	-14.2295
煠	-14.2296
蔟	-14.2297
蜋	-14.2299
簸	-14.2299
娀	-14.2299
䪹	-14.23
纇	-14.23
馗	-14.23
肈	-14.2301
鱣	-14.2301
𨫼	-14.2302
庲	-14.2302
扐	-14.2302
揑	-14.2303
洚	-14.2304
臋	-14.2304
溼	-14.2304
訞	-14.2304
箄	-14.2306
􁀨	-14.2306
篹	-14.2307
鐲	-14.2307
窀	-14.2308
踉	-14.2308
妍	-14.2308
踘	-14.2308
霰	-14.2308
橡	-14.2309
窆	-14.2309
􁀅	-14.2309
㬭	-14.2309
泅	-14.2309
唏	-14.2309
鼛	-14.231
獼	-14.231
篲	-14.2311
輣	-14.2311
丱	-14.2311
鏦	-14.2312
芈	-14.2312
淓	-14.2313
抨	-14.2313
禨	-14.2313
􁇟	-14.2313
郲	-14.2313
袚	-14.2313
斻	-14.2314
眕	-14.2314
㓪	-14.2314
鑼	-14.2314
尽	-14.2315
珞	-14.2315
㟧	-14.2316
嘶	-14.2316
蹛	-14.2316
揩	-14.2317
馺	-14.2317
襤	-14.2317
剷	-14.2317
闤	-14.2317
倎	-14.2318
橙	-14.2319
譊	-14.2319
蚍	-14.2319
貜	-14.232
鼃	-14.232
菘	-14.232
􁏛	-14.232
羃	-14.232
匵	-14.232
潺	-14.2321
芀	-14.2322
蓑	-14.2322
傿	-14.2322
鹺	-14.2323
桌	-14.2323
䪥	-14.2323
鋟	-14.2323
娬	-14.2324
儺	-14.2324
磵	-14.2324
齷	-14.2325
峥	-14.2325
衟	-14.2325
挌	-14.2326
酲	-14.2326
羶	-14.2326
礓	-14.2327
蒂	-14.2327
埆	-14.2327
壐	-14.2328
泖	-14.2328
乜	-14.2328
䥫	-14.2329
忉	-14.233
靨	-14.233
煃	-14.2331
蓽	-14.2331
馱	-14.2331
劘	-14.2331
奰	-14.2331
餕	-14.2332
硖	-14.2332
娃	-14.2333
獐	-14.2335
禔	-14.2336
䄍	-14.2339
肚	-14.2342
膴	-14.2348
觿	-14.2355
虩	-14.2355
済	-14.3044
銲	-14.3048
鎣	-14.3051
潄	-14.3055
棖	-14.3056
裎	-14.3057
鏬	-14.3064
桮	-14.3066
醊	-14.3067
獶	-14.3067
旍	-14.3067
俀	-14.3068
莚	-14.3068
枿	-14.3071
胛	-14.3072
恌	-14.3072
缸	-14.3072
篠	-14.3073
釧	-14.3074
迁	-14.3074
乩	-14.3074
蹎	-14.3075
驀	-14.3075
体	-14.3076
崕	-14.3076
痩	-14.3076
涣	-14.3077
誶	-14.3077
蝎	-14.3078
􁀰	-14.3079
狑	-14.3079
溏	-14.308
纏	-14.308
懊	-14.3081
橰	-14.3081
偘	-14.3081
闠	-14.3082
䟆	-14.3082
韀	-14.3082
皤	-14.3083
嚇	-14.3083
鋗	-14.3083
鄟	-14.3083
檟	-14.3083
秫	-14.3083
諐	-14.3084
騮	-14.3084
瘇	-14.3084
㸙	-14.3084
㮣	-14.3084
嶭	-14.3085
騍	-14.3086
胝	-14.3086
慍	-14.3086
咼	-14.3086
玝	-14.3087
撚	-14.3088
嬸	-14.3088
轔	-14.3088
􁗁	-14.3088
烺	-14.3088
襈	-14.3089
泐	-14.3089
讕	-14.3089
榕	-14.3089
蜃	-14.3089
鞶	-14.3092
萆	-14.3093
􁱭	-14.3093
稲	-14.3095
蕝	-14.3095
螢	-14.3096
壄	-14.3096
瀉	-14.3096
庥	-14.3096
􁂧	-14.3096
碕	-14.3097
琱	-14.3097
拇	-14.3097
砭	-14.3097
龑	-14.3097
湨	-14.3097
惥	-14.3098
浼	-14.3098
雘	-14.3098
銕	-14.3098
􁐜	-14.3098
䱇	-14.31
蓂	-14.31
䂮	-14.3101
冓	-14.3101
嚨	-14.3101
玹	-14.3102
袹	-14.3104
瘝	-14.3104
咳	-14.3107
霶	-14.3108
罙	-14.3109
趺	-14.311
蓁	-14.311
蜹	-14.3117
駜	-14.3851
鼕	-14.3853
誧	-14.3881
矴	-14.3886
頮	-14.3887
湕	-14.3887
羚	-14.3888
觳	-14.389
鍫	-14.3891
猇	-14.3891
捻	-14.3892
黧	-14.3895
緶	-14.3895
澅	-14.3896
桅	-14.39
悾	-14.39
棍	-14.3901
穄	-14.3901
㻆	-14.3902
􁐏	-14.3902
樉	-14.3902
惱	-14.3902
㮙	-14.3903
傋	-14.3903
洟	-14.3904
耏	-14.3904
橜	-14.3904
儳	-14.3905
韣	-14.3905
㠋	-14.3905
妊	-14.3905
茈	-14.3906
籐	-14.3906
慷	-14.3906
沲	-14.3907
廳	-14.3907
鷃	-14.3907
艻	-14.3908
齓	-14.3908
餫	-14.3908
庄	-14.3908
悊	-14.3909
懴	-14.3909
瑥	-14.3909
茘	-14.391
錘	-14.391
慵	-14.391
娵	-14.391
骲	-14.391
柁	-14.391
曬	-14.3911
窓	-14.3911
怳	-14.3911
􁥟	-14.3912
盔	-14.3912
嶙	-14.3913
鮦	-14.3913
弰	-14.3914
豭	-14.3914
眾	-14.3914
曁	-14.3914
矇	-14.3915
㭊	-14.3915
鵾	-14.3915
鏺	-14.3915
夑	-14.3917
㬚	-14.3917
椑	-14.3917
揷	-14.3917
㕎	-14.3917
釦	-14.3917
櫽	-14.3918
胳	-14.3918
裯	-14.3918
慇	-14.3918
驆	-14.3918
􁆍	-14.3919
泱	-14.3919
焭	-14.392
刊	-14.392
貮	-14.392
鑱	-14.3921
嶅	-14.3921
訽	-14.3921
絍	-14.3921
笳	-14.3921
熢	-14.3922
閾	-14.3922
懍	-14.3922
酥	-14.3922
鉾	-14.3923
"	-14.3923
3	-14.3923
鞲	-14.3923
苜	-14.3923
蠖	-14.3923
袈	-14.3923
崢	-14.3925
驊	-14.3925
帚	-14.3925
澘	-14.3925
蹢	-14.3926
俔	-14.3926
玻	-14.3927
蚣	-14.3927
揲	-14.3927
􁑼	-14.3928
敡	-14.3928
鄿	-14.3928
褭	-14.3929
蚰	-14.3929
嫘	-14.3929
摎	-14.3929
黌	-14.393
䁥	-14.393
秒	-14.393
瞠	-14.393
孌	-14.3931
瓏	-14.3932
䴡	-14.3932
䴚	-14.3933
呿	-14.3934
咲	-14.394
䗶	-14.394
錚	-14.3941
趄	-14.3942
㒡	-14.3944
蹹	-14.3945
𧺫	-14.3947
憧	-14.3947
箜	-14.3947
隮	-14.3949
笱	-14.3953
噽	-14.3953
醅	-14.3995
蚶	-14.4779
飆	-14.4787
雯	-14.4788
茢	-14.4791
蠔	-14.4796
畊	-14.4797
跱	-14.48
狨	-14.4801
薅	-14.4804
柈	-14.4807
萴	-14.4807
巙	-14.4808
鍖	-14.4808
鑴	-14.4809
苽	-14.481
陗	-14.481
脗	-14.4811
澓	-14.4811
蠚	-14.4813
鄈	-14.4813
䐗	-14.4815
侹	-14.4815
鴇	-14.4815
垻	-14.4815
歘	-14.4815
琁	-14.4815
瀟	-14.4815
栫	-14.4815
栱	-14.4815
螣	-14.4816
鉌	-14.4817
鸂	-14.4818
穸	-14.4818
眢	-14.4818
矻	-14.4818
皡	-14.4819
嵫	-14.4819
睶	-14.4819
霛	-14.4819
渢	-14.4819
甋	-14.4819
鰒	-14.4819
睇	-14.4819
仝	-14.482
稙	-14.482
怘	-14.482
尨	-14.482
箯	-14.4821
矮	-14.4821
翣	-14.4821
㺷	-14.4821
麰	-14.4822
鏟	-14.4822
螳	-14.4822
躑	-14.4822
蜍	-14.4822
簨	-14.4823
芼	-14.4823
櫕	-14.4823
畞	-14.4823
苧	-14.4824
饍	-14.4824
裡	-14.4824
湄	-14.4824
剺	-14.4824
斲	-14.4825
絭	-14.4826
邿	-14.4827
牸	-14.4827
蹭	-14.4827
晣	-14.4828
眈	-14.4828
滶	-14.4828
䫻	-14.4828
紝	-14.4828
􁈍	-14.4829
吪	-14.4829
凙	-14.483
嶔	-14.483
蠙	-14.483
砧	-14.4831
称	-14.4831
郏	-14.4831
嵏	-14.4831
篪	-14.4831
䔉	-14.4833
躶	-14.4833
实	-14.4833
拑	-14.4834
訇	-14.4834
岠	-14.4835
敓	-14.4835
涚	-14.4835
􁇨	-14.4835
狽	-14.4835
笲	-14.4835
臓	-14.4836
咅	-14.4837
籧	-14.4837
轊	-14.4837
銃	-14.4838
洨	-14.4838
蚕	-14.4838
疪	-14.4838
墁	-14.4839
鑢	-14.4839
崎	-14.4839
㢠	-14.4839
飮	-14.484
蝤	-14.484
𦦨	-14.484
輶	-14.4841
逶	-14.4841
秠	-14.4843
褕	-14.4843
妘	-14.4843
螉	-14.4844
􁋎	-14.4844
啣	-14.4845
蒟	-14.4845
轜	-14.4845
茪	-14.4847
倥	-14.4847
槳	-14.4847
膀	-14.4848
胖	-14.485
韮	-14.485
枤	-14.4851
蜩	-14.4852
郚	-14.4852
蘩	-14.4855
籮	-14.4855
蘷	-14.4857
塍	-14.4859
傃	-14.4869
蛛	-14.5772
籟	-14.5787
懅	-14.579
弮	-14.5792
儦	-14.5793
橑	-14.5797
丰	-14.5798
鞁	-14.5798
蛣	-14.5799
蛭	-14.58
躧	-14.5801
艽	-14.5803
眸	-14.5804
茒	-14.5805
飊	-14.5806
駡	-14.5808
緗	-14.5809
㚋	-14.5809
鷁	-14.581
􁂋	-14.5811
悕	-14.5811
枌	-14.5812
鞴	-14.5813
稸	-14.5813
骾	-14.5813
軷	-14.5813
􁇒	-14.5813
猘	-14.5814
癩	-14.5814
俴	-14.5814
墪	-14.5814
醸	-14.5814
晹	-14.5814
帬	-14.5815
儛	-14.5815
膿	-14.5815
蹏	-14.5815
宧	-14.5816
淛	-14.5816
僝	-14.5816
辿	-14.5816
圂	-14.5817
苡	-14.5817
趆	-14.5818
剙	-14.5819
骰	-14.5819
謷	-14.5819
僄	-14.5819
怩	-14.582
釱	-14.582
营	-14.582
炷	-14.582
澞	-14.5821
圬	-14.5821
慅	-14.5822
諰	-14.5822
圁	-14.5822
犗	-14.5822
髄	-14.5822
熸	-14.5823
捂	-14.5824
嫈	-14.5824
划	-14.5825
諓	-14.5825
𤏡	-14.5826
鋩	-14.5826
祹	-14.5826
妷	-14.5826
刌	-14.5826
圌	-14.5826
䀋	-14.5827
㵒	-14.5827
㴻	-14.5827
鬵	-14.5827
汏	-14.5828
桿	-14.5828
昖	-14.5828
胞	-14.5828
帊	-14.5828
唄	-14.5828
俻	-14.5829
跅	-14.5829
臝	-14.5829
穯	-14.5829
鍬	-14.5829
裟	-14.5829
燫	-14.583
齩	-14.583
戔	-14.583
臶	-14.583
屮	-14.583
熁	-14.583
玈	-14.583
脁	-14.5831
袱	-14.5831
毼	-14.5831
渣	-14.5831
丏	-14.5831
􁚫	-14.5831
鍍	-14.5832
𧦬	-14.5832
墝	-14.5832
陻	-14.5832
綻	-14.5833
郉	-14.5833
廥	-14.5833
煅	-14.5833
穨	-14.5834
􁣽	-14.5834
儶	-14.5834
翖	-14.5834
胱	-14.5834
唳	-14.5834
釬	-14.5835
逥	-14.5835
閴	-14.5835
湳	-14.5835
捎	-14.5836
鄋	-14.5837
蜴	-14.5837
憋	-14.5837
胆	-14.5839
睆	-14.5839
崐	-14.5839
綡	-14.584
樷	-14.584
鑞	-14.584
榴	-14.5841
堌	-14.5841
㷲	-14.5843
蕉	-14.5843
腯	-14.5843
􁩞	-14.5844
􁱮	-14.5844
蠮	-14.5845
蓿	-14.5845
痘	-14.5845
扢	-14.5847
噣	-14.5848
腓	-14.5849
伻	-14.5849
齰	-14.585
礠	-14.5854
弒	-14.5858
犆	-14.5859
齄	-14.5862
喤	-14.5863
芴	-14.5872
勮	-14.6886
泜	-14.6901
􁌫	-14.6903
襻	-14.6903
􁔿	-14.6905
檾	-14.6906
譒	-14.6906
澋	-14.6907
炆	-14.6908
屎	-14.691
擂	-14.691
鷔	-14.6912
囮	-14.6914
妯	-14.6914
髳	-14.6915
􁄰	-14.6917
仡	-14.6917
轞	-14.6917
芣	-14.6918
臿	-14.6921
莛	-14.6921
蓩	-14.6921
觽	-14.6922
幐	-14.6922
剠	-14.6923
􁂚	-14.6923
斈	-14.6923
鉟	-14.6923
􁄂	-14.6924
暙	-14.6924
焟	-14.6925
鄬	-14.6925
筥	-14.6926
吼	-14.6926
哮	-14.6926
􁁏	-14.6926
嘩	-14.6927
篨	-14.6927
薏	-14.6927
暎	-14.6927
塠	-14.6928
窐	-14.6928
呆	-14.6928
歂	-14.6928
㩧	-14.6928
枅	-14.6928
灨	-14.6928
㫋	-14.6928
捣	-14.6929
晭	-14.6929
䘚	-14.693
浯	-14.693
缿	-14.693
鴒	-14.693
􁓖	-14.693
膩	-14.6931
雚	-14.6931
煕	-14.6932
秅	-14.6932
瓣	-14.6932
輭	-14.6932
杈	-14.6932
靮	-14.6932
茱	-14.6932
鎌	-14.6933
􁂠	-14.6933
㚄	-14.6933
煢	-14.6933
豽	-14.6933
韔	-14.6933
蕋	-14.6933
菼	-14.6933
髫	-14.6933
睒	-14.6933
鑷	-14.6934
穊	-14.6934
罏	-14.6934
慳	-14.6934
􁅔	-14.6934
唶	-14.6934
奫	-14.6935
楓	-14.6935
韎	-14.6935
燻	-14.6935
饁	-14.6936
窊	-14.6936
莝	-14.6936
珓	-14.6936
稃	-14.6936
痏	-14.6936
庋	-14.6936
啑	-14.6936
㜮	-14.6937
稌	-14.6937
燖	-14.6937
姍	-14.6937
胯	-14.6937
􁀞	-14.6938
瓐	-14.6938
㦧	-14.6938
鈸	-14.6938
撡	-14.6938
勌	-14.6938
䘙	-14.6939
䚟	-14.6939
畟	-14.6939
蛆	-14.6939
樻	-14.694
蛋	-14.694
㾗	-14.694
搓	-14.694
甪	-14.694
憗	-14.6941
㷀	-14.6941
蜯	-14.6941
蜥	-14.6942
騩	-14.6942
惄	-14.6942
膰	-14.6942
欬	-14.6943
䍦	-14.6943
榯	-14.6943
訌	-14.6943
窯	-14.6943
霣	-14.6943
樾	-14.6943
啍	-14.6943
贗	-14.6943
堝	-14.6944
􁑿	-14.6944
饐	-14.6945
硝	-14.6945
鮀	-14.6945
紉	-14.6946
潕	-14.6946
摏	-14.6946
裊	-14.6946
桄	-14.6947
粛	-14.6947
䢵	-14.6948
􁂞	-14.6949
罐	-14.6949
輞	-14.695
柺	-14.695
咻	-14.6951
􁀒	-14.6951
逴	-14.6952
䖝	-14.6952
㹪	-14.6952
篦	-14.6953
賸	-14.6953
獧	-14.6953
􁦜	-14.6953
妝	-14.6953
䕠	-14.6953
炒	-14.6954
厙	-14.6954
嬛	-14.6955
挏	-14.6955
鮫	-14.6956
萁	-14.6956
㠖	-14.6956
嗕	-14.6956
偬	-14.6957
琠	-14.6957
譆	-14.6958
耇	-14.696
姺	-14.696
邔	-14.696
醆	-14.6961
稂	-14.6961
虙	-14.6962
淏	-14.6962
牷	-14.6963
牱	-14.6968
忡	-14.6968
穠	-14.6969
韅	-14.6972
緐	-14.6972
朡	-14.6973
辶	-14.6973
獂	-14.6973
涗	-14.6976
箑	-14.6977
趑	-14.6981
溈	-14.6981
嘒	-14.6982
悢	-14.7006
䭔	-14.8154
㒋	-14.8157
倰	-14.8157
唊	-14.8163
㣥	-14.8166
堢	-14.817
堉	-14.8171
傫	-14.8174
匜	-14.8175
啾	-14.8175
㒹	-14.8177
剟	-14.8178
嚪	-14.8178
㮤	-14.8178
仂	-14.8178
呦	-14.818
僙	-14.818
变	-14.8181
伹	-14.8182
儧	-14.8183
䡖	-14.8183
圳	-14.8184
凹	-14.8185
侶	-14.8186
䑠	-14.8187
劼	-14.8187
㡯	-14.8187
堽	-14.8187
儘	-14.819
垾	-14.8194
侲	-14.8194
䍽	-14.8196
塏	-14.8196
倆	-14.8197
壏	-14.8197
侻	-14.8198
㦍	-14.8199
冔	-14.82
俆	-14.82
㪍	-14.8204
偱	-14.8204
炣	-14.8206
艴	-14.8207
䓗	-14.8207
咢	-14.8207
彔	-14.8208
夽	-14.8209
㣓	-14.821
鳲	-14.8211
㴠	-14.8212
砫	-14.8212
剮	-14.8213
烷	-14.8213
淔	-14.8214
嚌	-14.8215
蟋	-14.8215
婭	-14.8216
蓰	-14.8217
珸	-14.8218
猁	-14.8219
詪	-14.822
丌	-14.8221
禝	-14.8221
