<unk>	0
<s>	0
</s>	0
,	-2.40554
。	-2.99197
、	-3.53778
;	-4.7122
!	-4.94351
者	-4.95754
故	-5.03766
(	-5.28922
)	-5.29584
:「	-5.32323
於	-5.35267
不	-5.37054
無	-5.38271
為	-5.4311
之	-5.49675
?	-5.5315
心	-5.54246
法	-5.55324
有	-5.57088
如是	-5.59014
是	-5.60002
。「	-5.6017
以	-5.60757
。」	-5.64748
若	-5.65567
行	-5.65754
一切	-5.73696
得	-5.75413
諸	-5.79742
菩薩	-5.80567
眾生	-5.83937
而	-5.86053
此	-5.86752
如	-5.88908
世尊	-5.89895
生	-5.92187
我	-5.93002
▁	-5.93431
時	-5.93625
如來	-5.95056
其	-5.95598
彼	-5.95633
及	-5.96729
佛	-5.97192
中	-5.98819
爾時	-5.98856
身	-5.98885
等	-6.01419
言	-6.01736
已	-6.02028
所	-6.02365
見	-6.03316
人	-6.04273
大	-6.12518
善男子	-6.18194
說	-6.20181
一	-6.23395
二	-6.26392
能	-6.26766
相	-6.26827
知	-6.31
乃至	-6.32642
也	-6.32759
名	-6.33775
非	-6.36409
即	-6.37808
欲	-6.43766
自	-6.4379
受	-6.44105
智	-6.45021
三	-6.46186
皆	-6.46305
處	-6.47333
常	-6.50267
入	-6.5174
作	-6.53107
或	-6.53268
當	-6.55572
多	-6.55901
觀	-6.57127
令	-6.58661
樂	-6.58842
亦	-6.60047
.	-6.60688
淨	-6.61311
住	-6.61423
眾	-6.6189
善	-6.61915
道	-6.63174
具足	-6.63558
天	-6.64572
修	-6.64904
念	-6.66047
王	-6.6849
無量	-6.68887
四	-6.7036
清淨	-6.71397
復	-6.71755
無有	-6.72539
離	-6.73322
:『	-6.74742
與	-6.74765
悉	-6.7569
空	-6.778
意	-6.78444
業	-6.78728
聲	-6.78774
惡	-6.79229
今	-6.80892
事	-6.81731
經	-6.81938
力	-6.8319
出	-6.83498
苦	-6.83846
種種	-6.83981
上	-6.84229
汝	-6.84474
:	-6.85143
因	-6.85508
語	-6.85627
從	-6.8564
施	-6.85854
滅	-6.86799
應	-6.88427
求	-6.88431
聞	-6.88919
願	-6.89404
明	-6.90361
色	-6.92107
?」	-6.9215
戒	-6.92793
慧	-6.92939
功德	-6.93607
至	-6.94115
在	-6.94182
*	-6.9507
則	-6.95222
隨	-6.95422
供養	-6.95465
地	-6.955
起	-6.95783
想	-6.96841
莊嚴	-6.99351
云何	-7.00625
三昧	-7.01001
盡	-7.01639
現	-7.03039
又	-7.03513
一切眾生	-7.03924
智慧	-7.05201
具	-7.05697
性	-7.06031
成	-7.065
成就	-7.06636
義	-7.07844
來	-7.07886
勝	-7.08473
定	-7.09406
捨	-7.09408
是名	-7.09999
解脫	-7.10421
持	-7.11151
曰	-7.11163
正	-7.12133
識	-7.12171
界	-7.12612
寶	-7.13899
難	-7.14072
菩薩摩訶薩	-7.14447
諸佛	-7.14689
方便	-7.147
二者	-7.16955
一者	-7.17569
精進	-7.18458
。』	-7.19368
利	-7.19833
五	-7.19974
是故	-7.20364
國	-7.21463
復次	-7.216
初	-7.22455
本	-7.23569
八	-7.23615
忍	-7.24293
善哉	-7.24328
謂	-7.25314
因緣	-7.26215
世	-7.26653
若有	-7.26757
世間	-7.27054
煩惱	-7.27166
無所	-7.28108
阿	-7.28339
發	-7.30686
佛言	-7.31051
罪	-7.31497
過	-7.32956
平等	-7.33797
不能	-7.34176
前	-7.3459
他	-7.34944
取	-7.3524
云	-7.35393
何以故	-7.35527
可	-7.35563
那	-7.35589
斯	-7.35659
問	-7.35943
下	-7.36619
分別	-7.36748
緣	-7.3723
所有	-7.37239
六	-7.38597
生死	-7.39075
報	-7.39095
婆	-7.39123
果	-7.39365
耶	-7.39743
遠離	-7.40134
信	-7.40275
水	-7.40787
光	-7.41645
何	-7.42052
聲聞	-7.42686
解	-7.4295
然	-7.4309
所謂	-7.43199
十	-7.43599
斷	-7.44107
未	-7.44518
同	-7.44621
雖	-7.44782
度	-7.44861
分	-7.44951
菩提	-7.45341
轉	-7.45719
復有	-7.45909
摩	-7.4699
七	-7.47013
眼	-7.48396
諸法	-7.48482
比丘	-7.49262
亦不	-7.49696
教	-7.49753
護	-7.50407
正法	-7.51154
龍	-7.51242
德	-7.51315
各	-7.51509
善根	-7.51509
根	-7.51535
使	-7.51827
羅	-7.51993
福	-7.52108
我今	-7.52439
妙	-7.52586
愛	-7.5264
後	-7.52758
白佛言	-7.54045
普	-7.54124
光明	-7.54357
門	-7.54365
壞	-7.55554
句	-7.57119
證	-7.57365
皆悉	-7.57622
由	-7.57863
我等	-7.58051
涅槃	-7.58572
既	-7.58765
便	-7.59451
化	-7.59588
用	-7.59591
修行	-7.59854
依	-7.60102
食	-7.60698
亦復如是	-7.60698
神通	-7.60976
乃	-7.61034
大乘	-7.6155
法界	-7.61937
劫	-7.61979
思惟	-7.62214
種	-7.6235
俱	-7.62984
學	-7.63083
廣	-7.63965
增長	-7.64568
不生	-7.646
迦	-7.65181
示	-7.65243
子	-7.65875
實	-7.66168
口	-7.66212
數	-7.66492
於彼	-7.67015
火	-7.6821
地獄	-7.68768
譬如	-7.68983
自在	-7.69007
覺	-7.69019
深	-7.69501
除	-7.69691
——	-7.69716
華	-7.69778
音	-7.70156
夜叉	-7.70434
著	-7.70756
虛空	-7.70875
共	-7.70926
日	-7.71072
三者	-7.71395
香	-7.71423
是人	-7.71479
說法	-7.72722
佛法	-7.72958
聖	-7.73129
魔	-7.73509
滿	-7.76341
先	-7.76366
少	-7.76396
不得	-7.77073
利益	-7.77225
主	-7.77572
師	-7.77706
一切法	-7.77718
像	-7.78174
命	-7.78551
山	-7.78612
餘	-7.78731
尊	-7.78795
於此	-7.7951
亦無	-7.79593
死	-7.79621
眷屬	-7.79787
世界	-7.8003
即是	-7.80159
唯	-7.80168
雨	-7.80253
布施	-7.8034
無上	-7.80423
之所	-7.80496
受持	-7.80594
是為	-7.80618
重	-7.80844
真實	-7.80963
。】「	-7.8126
貪	-7.81967
汝等	-7.82805
耳	-7.82971
白	-7.83004
諸菩薩	-7.8302
囉	-7.83203
神	-7.83354
但	-7.8365
諸天	-7.8421
十方	-7.84503
真	-7.84708
往	-7.85186
造	-7.85282
輪	-7.85798
失	-7.86288
物	-7.86522
去	-7.8714
。」【	-7.87334
習	-7.8744
猶如	-7.8765
獲	-7.8804
名為	-7.88288
不見	-7.88417
名曰	-7.88662
不可	-7.88704
如是等	-7.88956
立	-7.89082
。△	-7.89461
遍	-7.90136
女	-7.9055
過去	-7.90609
喜	-7.90749
集	-7.90892
向	-7.90934
陀	-7.9126
觸	-7.9132
內	-7.91373
陀羅尼	-7.9247
攝	-7.92557
寂靜	-7.92568
還	-7.93395
僧	-7.93577
伽	-7.93713
破	-7.94126
乘	-7.94218
異	-7.94427
巳	-7.94618
反	-7.94639
海	-7.95513
辯	-7.95678
龍王	-7.95891
邪	-7.96117
觀察	-7.96117
沙門	-7.96446
諸眾生	-7.96492
趣	-7.96504
九	-7.97217
樹	-7.97611
安	-7.97666
形	-7.97669
矣	-7.97799
通	-7.98282
流	-7.98878
散	-7.99059
達	-7.9914
大悲	-7.99279
稱	-7.99429
境界	-7.99554
病	-7.99928
》	-8.00169
味	-8.00393
無礙	-8.00475
毘	-8.01277
速	-8.01286
風	-8.01316
國土	-8.01879
地藏	-8.02275
別	-8.02434
讚	-8.03163
尼	-8.03216
足	-8.03343
舍利弗	-8.03371
月	-8.03619
婆羅門	-8.04117
所以者何	-8.04338
好	-8.04545
結	-8.0481
持戒	-8.05192
母	-8.05385
坐	-8.05436
無盡	-8.06176
修集	-8.06202
安住	-8.06507
外	-8.07011
百	-8.07117
萬	-8.07201
歡喜	-8.07529
更	-8.07572
第一	-8.07828
賢護	-8.07853
慈	-8.07878
器	-8.08436
小	-8.08501
墮	-8.08506
聚	-8.08508
禪	-8.08924
四者	-8.0917
最勝	-8.09562
所作	-8.09827
合	-8.10182
顯	-8.10628
不可思議	-8.10905
方	-8.11002
所攝	-8.11151
動	-8.11656
呵	-8.11714
微妙	-8.11763
極	-8.11843
家	-8.11876
宣說	-8.12135
十二	-8.12326
沙	-8.12455
自然	-8.13007
聽	-8.13556
藏	-8.14108
遮	-8.1414
闍	-8.14175
告	-8.14421
出家	-8.14874
佛告	-8.14979
思	-8.15024
順	-8.15114
無我	-8.15284
一切諸法	-8.15463
悉皆	-8.15664
▁初	-8.15728
乎	-8.16109
若能	-8.16287
癡	-8.16406
調伏	-8.16419
到	-8.16424
大眾	-8.16588
無明	-8.16626
致	-8.17024
品	-8.1736
百千	-8.17883
忍辱	-8.17894
必	-8.18007
夜	-8.18381
將	-8.18425
阿修羅	-8.18677
千	-8.18679
無邊	-8.19656
歸	-8.19683
其心	-8.19888
護持	-8.19905
以此	-8.20079
不可說	-8.20097
恭敬	-8.20178
印	-8.2025
現在	-8.20364
發心	-8.20726
高	-8.20803
禪定	-8.20926
不為	-8.21111
梵	-8.21638
目	-8.21743
鬼	-8.22423
勸	-8.22542
迷	-8.22636
莫	-8.22765
堅固	-8.2281
▁二	-8.23018
了	-8.23094
不空見	-8.23228
之法	-8.23345
頭	-8.23597
終不	-8.23682
不捨	-8.23963
增	-8.24695
文	-8.24702
音聲	-8.24925
亦復	-8.24976
是時	-8.25112
類	-8.25154
惡業	-8.25219
福德	-8.25235
毒	-8.25338
阿難	-8.25441
於諸	-8.25481
波	-8.25557
辯才	-8.25633
善法	-8.25783
體	-8.25974
須	-8.26234
設	-8.26288
奉	-8.26323
金	-8.26643
邊	-8.26678
引	-8.26774
長	-8.26849
帝	-8.27127
不知	-8.27441
甚深	-8.27515
被	-8.27635
或有	-8.27928
所說	-8.28067
無常	-8.28511
畢竟	-8.28602
無相	-8.2886
又復	-8.28953
瞋	-8.29044
提	-8.2911
脫	-8.29358
次名	-8.29748
而不	-8.29871
法門	-8.30179
昔	-8.30696
興	-8.30749
城	-8.31287
障	-8.31358
猶	-8.31538
一心	-8.3177
及以	-8.31835
不著	-8.31946
遠	-8.32158
親	-8.32377
飲食	-8.32435
讚歎	-8.3281
量	-8.32917
總持	-8.33096
己	-8.3338
及諸	-8.33487
塵	-8.33558
若有眾生	-8.33603
疑	-8.34253
諸惡	-8.34474
讀誦	-8.34476
瞋恚	-8.34587
諸根	-8.34823
諦	-8.3508
進	-8.35152
惱	-8.35186
久	-8.35316
一切諸	-8.35503
未來	-8.35604
三寶	-8.35909
師子	-8.35996
果報	-8.36288
答	-8.3636
覩	-8.374
究竟	-8.37462
作如是言	-8.37568
請	-8.3757
毀	-8.37638
愚癡	-8.37776
花	-8.37955
三界	-8.3814
退	-8.38171
父母	-8.38576
永	-8.38579
犯	-8.38583
我當	-8.38607
衣	-8.38879
藥	-8.39525
害	-8.39915
當知	-8.40042
滿足	-8.40186
加	-8.40266
示現	-8.40286
照	-8.40654
依止	-8.40991
寶女	-8.41005
有情	-8.41203
能令	-8.41224
和合	-8.41237
恒	-8.41509
叉	-8.41809
大士	-8.41814
擁護	-8.42757
彼佛	-8.42813
論	-8.42895
獲得	-8.4293
壽命	-8.43028
釋	-8.43186
理	-8.43601
親近	-8.4385
吾	-8.44321
舍	-8.44587
燒	-8.44659
億	-8.44957
人天	-8.45052
一一	-8.45162
亦如是	-8.45352
指	-8.45509
應當	-8.45722
各各	-8.45895
智者	-8.45949
破壞	-8.45998
志	-8.46146
會	-8.46322
屬	-8.46498
了知	-8.46511
號	-8.47038
勿	-8.47049
修習	-8.47117
若人	-8.47117
際	-8.47224
慈悲	-8.47447
所行	-8.47802
其身	-8.47986
十八	-8.48077
付囑	-8.48231
底	-8.48293
變	-8.48339
安樂	-8.48672
衣服	-8.487
禮	-8.49018
歸依	-8.49146
不思議	-8.49482
至心	-8.49534
居	-8.49733
懷	-8.49798
計	-8.49957
守護	-8.50011
大王	-8.50133
梵天	-8.50192
敬	-8.50505
開	-8.50599
彌	-8.50718
遇	-8.50853
威儀	-8.51223
比	-8.51876
慢	-8.51876
境	-8.51971
益	-8.52201
宿	-8.52402
置	-8.52422
餓鬼	-8.52523
諸煩惱	-8.52673
之心	-8.52986
於是	-8.53082
無數	-8.53208
財	-8.53222
要	-8.53272
住於	-8.53321
十六	-8.53416
視	-8.53714
成熟	-8.53894
怖畏	-8.54061
不動	-8.5407
遊	-8.54238
經典	-8.54342
熱	-8.54447
邏	-8.5456
舉	-8.54634
何謂	-8.54637
緣覺	-8.5478
建立	-8.54873
河	-8.54903
獄	-8.5524
沒	-8.55241
頌	-8.55491
大德	-8.55948
悲	-8.55973
無為	-8.56173
力故	-8.56562
!」	-8.56695
手	-8.56716
字	-8.56782
如此	-8.57092
邪見	-8.57162
相應	-8.5731
金剛	-8.57432
息	-8.57453
蓮華	-8.57601
娑	-8.57835
不退	-8.58045
菩薩言	-8.58218
輩	-8.58539
是名菩薩	-8.58816
近	-8.59044
頂	-8.59049
止	-8.59058
魔王	-8.59366
圓滿	-8.59548
鬼神	-8.59779
汝今	-8.59793
?』	-8.59998
最上	-8.60111
經云	-8.60184
不壞	-8.60234
首	-8.60291
以是	-8.60303
無量無邊	-8.60313
天人	-8.60337
宜	-8.60405
身心	-8.60566
是菩薩	-8.60975
多聞	-8.60993
何況	-8.61151
不淨	-8.6144
甚	-8.6149
海意	-8.61633
皆得	-8.61709
勤	-8.6171
壽	-8.61829
次	-8.61927
星	-8.62086
調	-8.62306
廣大	-8.62481
無能	-8.62497
以是因緣	-8.62541
《	-8.62587
三千大千世界	-8.62892
如虛空	-8.63154
陰	-8.63291
慈心	-8.63572
不住	-8.63799
圓	-8.63813
執	-8.63844
和	-8.6402
縛	-8.64043
之中	-8.64137
雲	-8.64153
時彼	-8.64166
決定	-8.64246
於一切	-8.64302
乾闥婆	-8.64388
感	-8.64438
顛倒	-8.64687
土	-8.6469
復有一法	-8.6495
族姓子	-8.64959
宣	-8.64983
咸	-8.64988
對	-8.65183
未曾	-8.65244
此經	-8.65513
并	-8.65554
座	-8.65615
終	-8.657
地藏菩薩	-8.65726
疾	-8.66349
位	-8.66677
記	-8.6683
于	-8.66958
中有習	-8.67095
憍陳如	-8.67113
云何菩薩	-8.67256
答言	-8.67401
即得	-8.67554
不依	-8.677
奢利弗	-8.67793
隨順	-8.67795
何等	-8.679
大海	-8.67908
誰	-8.67933
若有菩薩	-8.67968
路	-8.67991
無生	-8.68051
辟支佛	-8.68185
輕	-8.68279
見佛	-8.68432
應供	-8.6924
菩提心	-8.69242
夫	-8.6929
七寶	-8.6948
則為	-8.69707
供	-8.6972
十三	-8.69814
間	-8.69849
二十	-8.70277
無畏	-8.70392
之人	-8.70529
佛土	-8.70591
非法	-8.70761
。」「	-8.70907
獨	-8.70964
彼人	-8.71141
泥	-8.71218
三世	-8.71337
堅	-8.71502
憍慢	-8.71681
正見	-8.72155
凡夫	-8.72365
鼻	-8.72577
曉了	-8.72782
厭	-8.73044
亂	-8.73273
令其	-8.73438
四大	-8.73729
不應	-8.73855
法性	-8.7387
鉢	-8.73981
虛空藏菩薩	-8.74252
文字	-8.74384
有一	-8.74587
梨	-8.74683
十一	-8.74806
寧	-8.74861
聽受	-8.74891
畜生	-8.74955
悉能	-8.75059
不善	-8.75479
此三昧	-8.7565
寂滅	-8.75656
二合	-8.75727
有所	-8.75763
年	-8.75783
宮	-8.75979
救	-8.76121
一切諸佛	-8.76124
發阿耨多羅三藐三菩提心	-8.76133
。』「	-8.76535
天子	-8.76605
諸有	-8.76774
。○	-8.76853
不以	-8.76976
於我	-8.77098
為欲	-8.77259
逮	-8.77289
教化	-8.77372
曾	-8.77414
剎利	-8.77415
名之為	-8.77652
慚愧	-8.78053
奮迅王	-8.78203
當來	-8.78248
不起	-8.7825
演說	-8.78289
歎	-8.78545
阿羅漢	-8.78601
染	-8.78645
合掌	-8.79046
鬼王	-8.79072
安隱	-8.79151
殺	-8.79498
爾	-8.79691
得解脫	-8.79743
放	-8.79776
彼等	-8.79793
薩	-8.79898
希有	-8.80001
氣	-8.80123
善女人	-8.80229
行者	-8.80306
破戒	-8.80564
苦惱	-8.80565
聞已	-8.81026
末	-8.81066
八萬四千	-8.81408
棄	-8.81434
佛所	-8.8154
三乘	-8.81618
象	-8.81758
誦	-8.81793
之事	-8.81927
況	-8.81992
不退轉	-8.82251
超	-8.82324
善知識	-8.82454
都	-8.82572
不念	-8.82656
世尊告	-8.82777
不可得	-8.82817
亦爾	-8.82875
休息	-8.83008
豈	-8.83014
不取	-8.83296
演	-8.83419
長者	-8.83575
緊那羅	-8.83617
神力	-8.83618
次第	-8.83786
然後	-8.83975
若欲	-8.84425
以為	-8.84466
雜	-8.8452
五者	-8.84525
為說	-8.84599
女人	-8.84652
寂	-8.84677
面	-8.84741
誼	-8.84786
令彼	-8.84914
於諸眾生	-8.85073
入於	-8.85404
今日	-8.85499
治	-8.85506
十五	-8.85587
無漏	-8.85614
不求	-8.8563
娑婆世界	-8.86005
閻浮提	-8.86032
闇	-8.8608
離諸	-8.8608
天女	-8.86115
懺悔	-8.86147
如法	-8.86317
大地	-8.86517
欲界	-8.86547
蛇	-8.86595
吒	-8.86849
等正覺	-8.87188
是為菩薩	-8.87313
不復	-8.87429
憐愍	-8.87493
覆	-8.87641
富	-8.8767
當得	-8.87792
欲得	-8.87824
▁南無	-8.87866
黑	-8.88511
凡	-8.88546
不失	-8.8861
妙法	-8.8863
他人	-8.88645
而能	-8.88762
惑	-8.88833
假	-8.89153
懈怠	-8.89154
云何當得	-8.89682
障礙	-8.89689
能知	-8.89974
於法	-8.89979
或復	-8.90335
而說偈言	-8.90392
熾然	-8.90394
福田	-8.90464
一切智	-8.90554
勇猛	-8.90606
患	-8.90702
聲聞乘	-8.91026
銕	-8.91116
磨	-8.91116
何故	-8.91119
珠	-8.91224
廣說	-8.91499
得聞	-8.91521
不離	-8.91696
唯願	-8.92062
嚴	-8.92115
亦非	-8.92122
誹謗	-8.92173
吉祥	-8.92178
穢	-8.92321
念佛	-8.92501
空中	-8.92508
受用	-8.92584
是三昧	-8.92629
無間	-8.92663
怨	-8.92693
憂	-8.9274
喻	-8.92762
十種	-8.92908
機	-8.9302
為諸眾生	-8.93085
跋	-8.93249
拔	-8.93476
諸龍	-8.93482
惡道	-8.9368
最	-8.93802
察	-8.9381
中有五陰	-8.93849
燈	-8.94093
諦聽	-8.94187
十四	-8.94215
不樂	-8.94275
諸仁者	-8.94354
造作	-8.94364
日月	-8.94393
無量眾生	-8.94467
而為說法	-8.94707
無垢	-8.94804
暫	-8.94813
佛剎	-8.95011
帝釋	-8.95013
阿耨多羅三藐三菩提	-8.95138
呪	-8.95229
伏	-8.95271
而為	-8.95279
成佛	-8.95334
復有二法	-8.95371
法師	-8.95378
直	-8.95461
其人	-8.95472
羅剎	-8.95515
正覺	-8.95589
迴向	-8.95594
差別	-8.9571
瓔珞	-8.96042
呿	-8.96082
所生	-8.96155
聽法	-8.96222
故名	-8.96261
憶念	-8.96432
三十	-8.96483
尋	-8.96681
心無	-8.96902
妄	-8.97023
摩訶	-8.97141
三種	-8.97146
於一切法	-8.9717
則能	-8.9718
精氣	-8.97354
假使	-8.97497
而無	-8.9751
辭	-8.97601
比丘尼	-8.97708
波羅蜜	-8.97954
禁戒	-8.97962
聖人	-8.98045
冥	-8.98066
出世	-8.98082
諸魔	-8.98127
滅度	-8.98134
法中	-8.98399
於佛	-8.98581
真如	-8.98614
承	-8.98673
恩	-8.98734
表	-8.98905
男女	-8.98955
五百	-8.98997
大臣	-8.99096
皆是	-8.99222
律	-8.99478
己身	-8.99664
始	-8.99673
諸法無	-8.99762
怖	-8.99938
一念	-9.00025
牛	-9.00062
心不	-9.00297
信心	-9.00364
降	-9.00438
度脫	-9.00532
大慈	-9.00683
六者	-9.00731
離於	-9.00734
自在王	-9.00791
命終	-9.00866
三十二	-9.00949
詣	-9.00953
名字	-9.00992
住處	-9.00994
釋迦如來	-9.01055
之處	-9.01083
是名為	-9.01372
是經	-9.01407
賢聖	-9.01589
遠離一切	-9.01989
七者	-9.02027
悅	-9.02134
倍	-9.02235
有為	-9.02235
能得	-9.02311
東方	-9.02373
歲	-9.02527
準	-9.02681
一切世間	-9.02703
捨離	-9.02765
無願	-9.02794
葉	-9.02915
畢	-9.02951
安置	-9.02975
骨	-9.02993
波旬	-9.03104
法者	-9.03227
珍寶	-9.03232
悉得	-9.03281
悟	-9.03384
梵行	-9.03428
八十	-9.03498
若不	-9.03566
轉入	-9.03712
守	-9.03756
損	-9.04222
令我	-9.04738
能壞	-9.04785
不斷	-9.04889
助	-9.04945
如實	-9.05044
許	-9.05084
馬	-9.05101
通達	-9.05139
隷	-9.05159
貪欲	-9.05202
若無	-9.05277
攝受	-9.05373
因緣故	-9.05579
外道	-9.05611
網	-9.05637
違	-9.05818
淨戒	-9.05825
說此	-9.05998
誓願	-9.06062
內外	-9.06181
作是念	-9.06199
隨意	-9.06441
隸	-9.06551
蒙	-9.06569
哆	-9.06649
清	-9.0669
自性	-9.06971
人民	-9.07029
盛	-9.07223
聞此	-9.07242
服	-9.07267
鳩槃茶	-9.07294
老	-9.07304
善逝	-9.07329
絕	-9.07332
久住	-9.0737
根本	-9.07533
放逸	-9.07749
令得	-9.07763
十力	-9.07794
情	-9.07827
生於	-9.07899
愛樂	-9.08051
悔	-9.08063
仙	-9.08102
誓	-9.08395
無不	-9.08458
百億	-9.08703
摩睺羅伽	-9.08802
生滅	-9.0889
第二	-9.09009
受苦	-9.09037
支	-9.091
十七	-9.091
痛	-9.0924
平	-9.0933
法故	-9.09345
若菩薩	-9.09423
之時	-9.09545
優婆塞	-9.09557
舌	-9.09579
不可盡	-9.09702
垢	-9.09948
蓋	-9.0999
幾	-9.10163
恚	-9.10173
備	-9.10213
童子	-9.10295
善惡	-9.10313
濁	-9.10369
劫中	-9.10552
自身	-9.10732
彼岸	-9.10914
十九	-9.10949
不信	-9.10981
周	-9.11141
惟	-9.11204
其所	-9.11287
即便	-9.11312
畏	-9.11315
幢	-9.11523
天王	-9.11589
四天下	-9.11635
導	-9.11812
「	-9.11899
有佛	-9.12015
諸佛世尊	-9.12022
石	-9.12193
降伏	-9.12371
作是言	-9.12559
正遍知	-9.12635
?」「	-9.12696
般若	-9.12771
發菩提心	-9.12896
六波羅蜜	-9.13006
漏	-9.13116
由此	-9.13134
夢	-9.1316
諸有情	-9.13164
誠	-9.13274
總	-9.13329
竟	-9.13431
約	-9.1345
四種	-9.13558
魔業	-9.13581
尚	-9.13587
亦能	-9.13953
其中	-9.14017
奪	-9.14053
棄捨	-9.14101
履	-9.14171
授	-9.14172
嫉妬	-9.14179
易	-9.14238
亦無所	-9.143
諸如來	-9.14336
常行	-9.14581
偈	-9.14755
此是	-9.14796
俱胝	-9.14895
發起	-9.14955
肉	-9.14973
牟尼	-9.14977
大方等大集經	-9.15002
惡心	-9.1506
)(	-9.15091
仁	-9.15106
勢力	-9.15303
精	-9.15319
復有三法	-9.15528
幻	-9.15601
八者	-9.15601
見已	-9.15671
或作	-9.157
無作	-9.15702
積	-9.15721
者即是	-9.15728
盧	-9.15734
人中	-9.15752
如幻	-9.15793
得阿耨多羅三藐三菩提	-9.15971
隨喜	-9.16092
眾中	-9.16345
出世間	-9.16545
書寫	-9.1656
清淨故	-9.16608
護持養育	-9.16609
五陰	-9.16673
無餘	-9.16688
愍	-9.16788
一時	-9.16976
仙人	-9.17164
佉	-9.17182
知識	-9.17224
營	-9.1739
制	-9.17438
我所	-9.17478
唯然	-9.17631
俗	-9.17636
第一義	-9.17693
彌勒	-9.17839
尊重	-9.18001
亦如	-9.18063
神足	-9.18076
牟	-9.18092
刀	-9.18229
四方	-9.18242
不久	-9.18264
林	-9.1839
第三	-9.18528
精勤	-9.18569
檀	-9.18775
相好	-9.18846
般若波羅蜜	-9.18947
定意	-9.18956
威德	-9.1903
護持正法	-9.19167
所願	-9.19375
節	-9.19473
是法	-9.19568
而得	-9.19711
無上菩提	-9.19738
父	-9.19761
忽	-9.19835
赤	-9.19872
乃能	-9.19907
慕	-9.19932
二十五	-9.19964
而生	-9.20024
導師	-9.20036
剎	-9.20051
尊者	-9.20172
則得	-9.20251
聞法	-9.20259
功	-9.20274
若於	-9.20426
瞿曇	-9.20498
熟	-9.20528
污	-9.20532
謗	-9.20555
鞞	-9.20582
諂	-9.20618
塵勞	-9.20706
惡趣	-9.20791
欲令	-9.21136
虛	-9.21236
微	-9.21361
知見	-9.2159
威神	-9.21623
亦當	-9.2178
有人	-9.2179
彼諸	-9.2192
菩薩行	-9.22025
一切皆	-9.22063
訶	-9.22167
除滅	-9.22209
善業	-9.22252
罵	-9.22381
色相	-9.22452
虛空藏	-9.2246
一切有情	-9.22503
佛道	-9.22558
諸行	-9.22682
之業	-9.22698
:「『	-9.22773
十方諸佛	-9.22794
大集	-9.23078
作如是	-9.23215
荼	-9.23246
池	-9.23281
鬪諍	-9.23306
流布	-9.23344
一切佛法	-9.23658
不作	-9.23834
汝當	-9.2387
覺觀	-9.24156
善友	-9.2418
開示	-9.2425
一曰	-9.24333
因果	-9.24364
所須	-9.24769
竭	-9.24986
至誠	-9.25044
清淨平等	-9.25089
無想	-9.251
不受	-9.25249
獨覺	-9.25378
師子吼	-9.25418
南	-9.25425
之行	-9.25588
曜	-9.25625
車	-9.2584
苾芻	-9.2587
柔軟	-9.25989
生天	-9.26085
。「『	-9.26106
不忘	-9.26151
善思惟	-9.26288
佛說	-9.26301
智本	-9.26313
語言	-9.26467
神變	-9.26541
兩	-9.2659
常樂	-9.26635
所以	-9.26671
相續	-9.26859
亡	-9.26879
我於	-9.27251
隨所	-9.27259
此法	-9.27355
法行	-9.27593
遣	-9.27612
􂚲	-9.27645
迦樓羅	-9.27726
不與	-9.27817
葢	-9.27866
無所著	-9.27885
是也	-9.27918
哀	-9.27986
二曰	-9.28241
而住	-9.28424
而有	-9.28488
國王	-9.28496
甘露	-9.28542
作是	-9.2859
饒益	-9.28605
端正	-9.2871
惱亂	-9.28785
罪人	-9.28815
弟子	-9.28869
正念	-9.29041
佛世尊	-9.29079
色界	-9.29103
愚	-9.29116
說是	-9.29318
容	-9.29325
亦然	-9.2942
青	-9.29465
書	-9.29493
毘舍	-9.29497
四天王	-9.29537
常當	-9.29572
呼	-9.29575
从	-9.29607
出生	-9.29761
聞是	-9.29868
無所有	-9.301
言辭	-9.30199
無分別	-9.30317
隨其	-9.30324
於其	-9.30345
田	-9.30375
衰	-9.30378
百八	-9.30437
歷	-9.30457
如意	-9.30555
希	-9.30778
賢	-9.31009
」	-9.31108
二十四	-9.31113
塔	-9.31313
拘	-9.31352
信解	-9.31398
無二	-9.31411
優婆夷	-9.31422
若見	-9.31426
一人	-9.3154
婆婆	-9.3181
有大	-9.31814
善能	-9.31872
法身	-9.31941
室	-9.32047
其有	-9.32055
所見	-9.32061
如斯	-9.32115
若干	-9.32186
如彼	-9.32222
密	-9.32248
望	-9.32326
充滿	-9.32373
於眾生	-9.32463
此陀羅尼	-9.32514
二十八	-9.32554
勤修	-9.32566
禮拜	-9.32679
諸眾生故	-9.32692
知一切法	-9.32711
得見	-9.32966
此人	-9.33308
寂然	-9.33314
飛	-9.33339
十方世界	-9.33361
略	-9.3358
解說	-9.33608
心行	-9.33665
所聞	-9.34158
迴	-9.34198
麁	-9.34198
元	-9.34211
而作	-9.34225
存	-9.34241
殊勝	-9.34272
轉輪王	-9.34284
之相	-9.34307
一切善法	-9.34394
步	-9.34488
欲求	-9.34545
七日	-9.3473
仰	-9.34839
我見	-9.34922
礙	-9.35088
諸聲聞	-9.35162
宮殿	-9.35314
差	-9.35345
五欲	-9.35474
能作	-9.35597
無色	-9.35628
速得	-9.35837
不令	-9.3594
所修	-9.36113
頂禮	-9.3616
身口意	-9.36213
菩提道	-9.36221
漸	-9.36242
眾會	-9.36301
顯示	-9.36308
布	-9.36506
地藏菩薩摩訶薩	-9.36533
譬	-9.36604
無極	-9.36784
災	-9.36871
奢	-9.36886
婬	-9.37022
無礙智	-9.37093
樓	-9.37095
三惡道	-9.37189
北方	-9.37259
草木	-9.3731
威	-9.37571
斷除	-9.37616
之力	-9.37684
得大	-9.37821
常為	-9.37859
變化	-9.37925
發願	-9.37988
曉	-9.38011
能生	-9.38054
哉	-9.38158
士	-9.38293
天人師	-9.38319
無異	-9.38568
種子	-9.38635
蘇	-9.38702
如來所	-9.39021
所得	-9.39056
攝取	-9.3906
復有四法	-9.39078
浮	-9.3917
栴檀	-9.39183
床	-9.39213
述	-9.39233
令諸眾生	-9.39265
承事	-9.39335
首陀	-9.39575
各有	-9.39764
法眼	-9.3982
往昔	-9.39828
為令	-9.39858
善知	-9.39877
不分別	-9.39897
適	-9.39903
講	-9.39922
五百眷屬	-9.40044
強	-9.4014
美	-9.40186
焰	-9.40193
橫	-9.4027
讀	-9.4031
復以	-9.4044
一切聲聞	-9.40473
施與	-9.40501
為彼	-9.40531
雖復	-9.40829
勇	-9.40882
丈夫	-9.41014
大哀	-9.41105
不同	-9.41126
越	-9.41142
繫縛	-9.41253
利養	-9.41293
成熟眾生	-9.41321
逮得	-9.41477
今此	-9.41594
憶	-9.41716
一切大眾	-9.41777
天眼	-9.4191
西	-9.42118
頗	-9.42218
城邑	-9.42293
稽首	-9.42296
西方	-9.42304
及餘	-9.42398
現前	-9.42431
恒沙	-9.42452
三曰	-9.42453
遍滿	-9.42498
即時	-9.42568
覺知	-9.42673
決	-9.42674
婆羅	-9.42747
消滅	-9.42828
香華	-9.42999
如是奢利弗	-9.43088
拏	-9.4323
正道	-9.43276
〈	-9.43321
巧	-9.43484
典	-9.43518
華果	-9.43616
消	-9.43662
觀於	-9.43706
眾人	-9.43875
薄	-9.43894
悉令	-9.44
教化眾生	-9.44026
不也	-9.44124
妄語	-9.44304
所可	-9.44312
奴	-9.44323
大仙	-9.44377
交	-9.44413
十善	-9.44507
『	-9.44534
常念	-9.44541
無量阿僧祇	-9.44561
眾寶	-9.44571
事業	-9.44574
無障礙	-9.44622
第四	-9.44718
所言	-9.44837
得菩提	-9.44863
二十一	-9.44946
或為	-9.4505
實際	-9.45051
諸善根	-9.45116
百眷屬	-9.45192
殊	-9.45239
心生	-9.45287
逆	-9.4536
無住	-9.4538
齋	-9.45437
跡	-9.45466
伎樂	-9.45551
具足故	-9.45564
翻	-9.45868
專	-9.45999
九者	-9.46279
不共	-9.46375
亦名	-9.46391
蘊	-9.46406
皆令	-9.4646
醯	-9.46505
泥洹	-9.46509
臨	-9.46537
蓮花	-9.46578
合掌向佛	-9.46589
髮	-9.46634
後世	-9.46717
彼菩薩	-9.4683
十二因緣	-9.46902
諸功德	-9.4706
不滅	-9.47194
本願	-9.47204
云何名為	-9.474
純	-9.47559
減	-9.47573
身命	-9.47577
臥	-9.47597
大德婆伽婆	-9.47656
黃	-9.47838
奉行	-9.47914
講說	-9.47995
二十三	-9.4808
千眷屬	-9.48158
是謂	-9.48269
男	-9.483
佛身	-9.48318
亦有	-9.48366
響	-9.48369
臣	-9.48387
胎	-9.48387
軍	-9.4843
諸大眾	-9.48464
及與	-9.486
行處	-9.48617
即能	-9.48714
縱	-9.48774
血	-9.48827
譬如有人	-9.48846
何等為四	-9.4891
快樂	-9.4892
非是	-9.48954
化作	-9.49142
若我	-9.49196
圍遶	-9.49207
臥具	-9.49248
說言	-9.4925
護法	-9.49263
無量功德	-9.49266
如前	-9.49315
趣向	-9.4937
諸苦	-9.49398
是諸	-9.49414
業報	-9.49492
我以	-9.49663
驚怖	-9.49707
見聞	-9.49707
如說	-9.49765
我身	-9.49774
乏	-9.49853
徧	-9.49883
大神通	-9.50001
檀波羅蜜	-9.50044
梵王	-9.50138
二十二	-9.50152
眾苦	-9.50398
善道	-9.5045
亦令	-9.50479
猶如虛空	-9.50494
短	-9.50677
流轉	-9.50782
忘	-9.50788
弘	-9.50811
已得	-9.5084
滅盡	-9.50855
成就如是	-9.50855
有定名	-9.50879
瞻	-9.50906
得無生法忍	-9.50944
落	-9.50948
而得調伏	-9.5102
窮	-9.5102
旃荼羅	-9.51042
二十六	-9.51053
聚落	-9.51062
吉	-9.51067
登	-9.51094
佛及	-9.51151
聞是三昧	-9.51198
為諸	-9.51219
有諸眾生	-9.5135
而不可盡	-9.51424
惡行	-9.51458
形像	-9.51589
殺生	-9.51702
得佛	-9.51709
復白佛言	-9.51776
常住	-9.5182
化眾生	-9.52029
濟	-9.52035
諸菩薩眾	-9.52036
欺	-9.52057
或現	-9.52059
炎	-9.52139
影	-9.52142
臭	-9.52192
打	-9.52194
覺了	-9.52208
難得	-9.52211
晝夜	-9.52212
重罪	-9.5226
婆呵	-9.52264
資	-9.5227
無量百千	-9.52324
彼諸眾生	-9.52475
得自在	-9.52634
可得	-9.52676
疑惑	-9.52706
之身	-9.52833
在於	-9.52862
非色	-9.5288
十地	-9.5305
句義	-9.53131
人所	-9.53217
乞	-9.53225
微塵	-9.53253
增上	-9.53312
圍繞	-9.5333
載	-9.53346
船	-9.53358
細	-9.53394
道者	-9.53409
鐵	-9.53421
南方	-9.53432
移	-9.53433
稱讚	-9.53526
一切勇	-9.53664
繫	-9.53689
我亦	-9.53742
不懷	-9.54019
如空	-9.54037
五十	-9.54043
四曰	-9.54301
無上道	-9.54381
暢	-9.54468
一劫	-9.54514
見彼	-9.5456
貧窮	-9.54562
毘夜也	-9.54587
有二	-9.54598
辟支佛乘	-9.54799
悲心	-9.54935
似	-9.54969
能以	-9.54981
常得	-9.54992
那由他	-9.55002
惡人	-9.55019
唯願世尊	-9.55077
今者	-9.55089
離欲	-9.5511
正行	-9.55124
不自	-9.55145
摩尼	-9.55198
諸比丘	-9.55234
諸佛法	-9.55276
惡事	-9.55358
知足	-9.55427
如是之人	-9.5546
東	-9.55571
大智	-9.55604
蟲	-9.55657
靜	-9.55848
為我	-9.55944
限	-9.55953
惜	-9.55995
真善	-9.56016
受者	-9.56139
二種	-9.56209
四諦	-9.56239
毛	-9.56312
諍	-9.56384
。《	-9.5645
於阿耨多羅三藐三菩提	-9.5656
民	-9.56581
中有	-9.56669
切	-9.56689
何所	-9.56847
亦為	-9.56904
有三昧名曰	-9.56939
頂禮佛足	-9.56942
新	-9.5695
殃	-9.56955
惡友	-9.56956
遂	-9.56967
救濟	-9.56989
古	-9.57028
修學	-9.57078
未得	-9.57129
於如來	-9.57142
六入	-9.57167
▁「	-9.57204
何謂為	-9.57287
能淨	-9.5729
慳貪	-9.57305
諸菩薩等	-9.57412
法器	-9.57451
大慈悲	-9.57576
道場	-9.57633
多有	-9.57639
值	-9.57764
。」《	-9.57827
阿婆	-9.57827
銀	-9.57992
十者	-9.58012
修於	-9.58049
飲	-9.58079
負	-9.58142
歌	-9.58152
積集	-9.5817
且	-9.58172
烏	-9.58186
悕望	-9.58201
答曰	-9.58215
大慈大悲	-9.58278
過於	-9.58299
而彼	-9.58362
此云	-9.58529
慈愍	-9.58562
須彌	-9.58747
無厭	-9.58845
若復	-9.58923
誑	-9.59079
恨	-9.59235
儞	-9.59291
。』」「	-9.59329
譯	-9.59383
碎	-9.59397
瞻禮	-9.59449
熏	-9.59461
產	-9.59489
白言	-9.59502
於中	-9.59733
一法	-9.59789
驚	-9.59834
釋迦牟尼佛	-9.59844
於他	-9.60065
五濁	-9.60096
惡口	-9.60111
能為	-9.60147
得三昧	-9.60201
仁者	-9.60203
一切煩惱	-9.60295
若得	-9.60323
畜	-9.60393
審	-9.60504
度無極	-9.60522
却	-9.60534
會中	-9.60553
特	-9.60571
臺	-9.6063
暗	-9.60658
獸	-9.60675
徹	-9.60704
是為魔業	-9.60744
於一切眾生	-9.61109
所念	-9.61111
何等為十	-9.61221
大聖	-9.61239
源	-9.61338
無言	-9.6141
善說	-9.61533
諸大	-9.61617
所施	-9.6162
而白佛言	-9.61701
勤求	-9.61724
端	-9.61768
婆羅門等	-9.61828
留	-9.61846
校計	-9.61861
賊	-9.61867
北	-9.61877
覩見	-9.61913
不行	-9.61916
諸天人	-9.61919
怨敵	-9.61954
姓	-9.61959
勿念	-9.61965
如來至真	-9.62169
如是法	-9.62189
離一切	-9.62208
貪著	-9.62336
十惡	-9.62504
心常	-9.62539
深心	-9.62556
是則	-9.62591
六十	-9.62667
合掌恭敬	-9.62769
惡見	-9.62789
閻浮	-9.62865
袈裟	-9.6288
星宿	-9.6289
受生	-9.62907
不墮	-9.6291
塗	-9.62933
為他	-9.62976
養育	-9.6306
垂	-9.63165
伊	-9.63174
無言菩薩	-9.63191
麼	-9.63212
法王	-9.6324
無量無數	-9.63245
開化	-9.63416
禪波羅蜜	-9.63423
善巧方便	-9.63425
却伽	-9.63446
故曰	-9.6355
亦得	-9.63678
何處	-9.63935
速疾	-9.64123
以何	-9.64133
長老	-9.64146
聖道	-9.64164
是中	-9.64251
苦行	-9.64255
快	-9.64302
隱	-9.64371
授記	-9.64391
纏	-9.64419
擲	-9.64431
御	-9.64447
昇	-9.6446
休	-9.64489
二十七	-9.64519
即為	-9.64535
鼓	-9.64544
偏	-9.64547
毘舍遮	-9.64548
處所	-9.64703
不共法	-9.64711
云何為	-9.6486
供給	-9.65011
佛前	-9.65044
法施	-9.65112
譏	-9.65188
此三千大千世界	-9.65475
大梵	-9.65556
權	-9.65635
斫	-9.65755
咩	-9.65771
遭	-9.65806
從座而起	-9.65813
哩	-9.65819
說是法時	-9.65852
勤精進	-9.65852
轉輪聖王	-9.6587
虛空藏菩薩摩訶薩	-9.65873
見者	-9.65873
無上士	-9.65887
唯除	-9.65891
諸菩薩摩訶薩	-9.65936
普賢	-9.65955
無所得	-9.65974
緣覺乘	-9.66067
諸善男子	-9.66107
無所住	-9.66165
轉法輪	-9.66327
觀身	-9.66357
若彼	-9.66364
薩婆	-9.66371
集會	-9.66389
此法門	-9.66408
颰陀和	-9.66617
尸	-9.66829
盲	-9.67066
勇健	-9.67145
鳥	-9.6715
卑	-9.67152
皆由	-9.67316
無所畏	-9.6732
為眾生	-9.67336
藥上	-9.6738
相故	-9.67469
是為如來	-9.67502
如佛	-9.67536
無限	-9.67575
若諸有情	-9.67641
四十	-9.67707
譬如虛空	-9.67776
是等	-9.67837
無著	-9.68106
奮迅	-9.68292
怛	-9.68363
宿命	-9.68394
女身	-9.68397
由旬	-9.68399
名號	-9.68413
私	-9.68421
每	-9.68423
背	-9.68432
索	-9.68448
生處	-9.685
阿羅訶	-9.68537
三藐三佛陀	-9.68538
奢摩他	-9.68586
教他	-9.68619
若遇	-9.68882
惡鬼	-9.68923
聖慧	-9.68957
阿修羅王	-9.69006
此世界	-9.69092
不如	-9.69134
去來	-9.69302
皆能	-9.69315
百千萬億	-9.69515
覺意	-9.69532
隨時	-9.69571
悉知	-9.69599
諸佛如來	-9.69695
遊戲	-9.69758
良	-9.69795
訖	-9.69806
虎	-9.69809
微笑	-9.69812
劣	-9.69817
兩舌	-9.69821
閉	-9.69838
天上	-9.69858
慮	-9.69863
宗	-9.69865
聲聞緣覺	-9.69869
度眾生	-9.69871
諸善	-9.69885
灌頂	-9.69912
不可計	-9.69916
聽聞	-9.69927
分身	-9.69954
默然	-9.69971
而自	-9.69986
即於	-9.7004
於諸法	-9.70096
人身	-9.70127
疑網	-9.70298
此等	-9.70318
見如來	-9.70435
禁	-9.70456
之言	-9.70471
成阿耨多羅三藐三菩提	-9.70573
顯現	-9.70594
聞說	-9.707
名色	-9.70857
輸	-9.70916
養	-9.71018
王子	-9.7105
為人	-9.71052
如是等法	-9.71066
於佛前	-9.71075
菩薩如是	-9.71214
輒	-9.71222
傳	-9.71228
無諍	-9.71252
戰	-9.71266
舍利子	-9.71273
輔	-9.71288
諸善法	-9.71339
殺害	-9.71339
三塗	-9.71473
堪	-9.71563
是事	-9.71572
天下	-9.71598
賢劫	-9.71606
相貌	-9.71768
為眾	-9.71906
世間解	-9.71944
言說	-9.71964
剎土	-9.7199
佛世界	-9.72143
如我	-9.722
心念	-9.72358
已來	-9.7241
是如來	-9.72472
法忍	-9.72501
鳩	-9.72581
羅漢	-9.72589
熾盛	-9.72594
就	-9.72601
詐	-9.72618
孝	-9.72663
調御丈夫	-9.72689
非人等	-9.72788
互相	-9.72789
大虛空藏菩薩	-9.72839
樂說	-9.72877
恒河沙等	-9.72931
自他	-9.72972
是諸眾生	-9.73043
甚多	-9.73096
不貪	-9.73136
於大乘	-9.73253
今現在	-9.73289
不放逸	-9.73303
如是菩薩	-9.73375
迷惑	-9.73415
未曾有	-9.73585
報應	-9.73628
今當	-9.73638
皆為	-9.73695
眾生故	-9.73776
色像	-9.73878
隨其所	-9.73939
王舍城	-9.74036
若復有人	-9.7404
章句	-9.74072
諂曲	-9.74076
投	-9.74087
居士	-9.74096
懺	-9.74113
貧	-9.74136
金色	-9.74146
六萬	-9.74183
二乘	-9.74248
能於	-9.74261
財物	-9.74269
喜樂	-9.74432
虛妄	-9.74433
何等為	-9.74636
勅	-9.74658
供養佛	-9.74686
二十九	-9.74903
猛	-9.7496
勤行精進	-9.75011
所依	-9.75077
其義	-9.75078
十方佛	-9.75106
【	-9.75124
半	-9.75148
天龍	-9.75315
娑婆	-9.75328
木	-9.75341
乾	-9.75382
運	-9.75461
蜜	-9.75484
超越	-9.75485
真諦	-9.75517
嚴飾	-9.75529
飢饉	-9.75572
明行足	-9.75582
其意	-9.75608
千劫	-9.75622
岸	-9.75653
不可宣說	-9.75806
以一	-9.7593
而作是言	-9.76037
歸命	-9.76046
亦不可盡	-9.76068
業障	-9.76089
作者	-9.76292
汝於	-9.76498
無盡意	-9.76535
恐怖	-9.768
復有二法難作	-9.76838
財寶	-9.76839
為求	-9.76841
戲	-9.76933
鎧	-9.76936
傷	-9.76967
盜	-9.76988
建	-9.76995
以是義故	-9.77012
旃陀羅	-9.77013
含	-9.77022
慎	-9.77026
阿差末	-9.77051
手足	-9.77061
末香	-9.77069
三寶種	-9.773
照明	-9.77319
諸見	-9.77338
諸佛國土	-9.77346
三業	-9.77356
成正覺	-9.77379
恭敬供養	-9.77402
飾	-9.77503
不染	-9.77518
五根	-9.77679
志性	-9.77712
則無	-9.77767
部	-9.77804
恒河沙	-9.77821
罪業	-9.77901
佛智	-9.77918
過失	-9.77968
幢幡	-9.78137
敬信	-9.78145
今我	-9.78174
恣	-9.782
魔眾	-9.78224
往彼	-9.78244
釋迦	-9.7827
侵	-9.78409
黨	-9.78412
震	-9.78426
】	-9.78461
或有眾生	-9.78471
列	-9.78475
全	-9.78481
悋	-9.7851
期	-9.78531
堂	-9.78546
稱名	-9.78769
行施	-9.78813
則以	-9.78825
上妙	-9.79044
普勇	-9.79052
能斷	-9.7908
不出	-9.79157
與我	-9.79178
是大	-9.79235
救護	-9.79386
何緣	-9.79481
智力	-9.7958
略說	-9.79658
同一	-9.79692
其數	-9.79708
求法	-9.79789
敷	-9.79824
復有二法多作	-9.79833
發大	-9.79857
貴	-9.79893
勸助	-9.79898
我昔	-9.79905
退失	-9.79921
尾	-9.7994
議	-9.79949
活	-9.79953
展轉	-9.8
剃除鬚髮	-9.80015
伴	-9.80041
一切善根	-9.80211
勝妙	-9.80214
亦復然	-9.8024
大力	-9.80291
能度	-9.8033
數數	-9.80383
長老阿難	-9.80451
第一義諦	-9.80482
修習靜慮	-9.80538
一日	-9.80543
莫不	-9.80603
隨念	-9.80654
種善根	-9.80672
若有比丘	-9.8068
所問	-9.80754
大光明	-9.80821
大小	-9.80845
其土	-9.80858
有漏	-9.80963
云何名	-9.81015
質	-9.81168
之本	-9.81193
以諸	-9.81248
所有眾生	-9.81277
作惡	-9.81311
又如	-9.81311
損減	-9.81411
兵	-9.81414
園	-9.81416
諸業	-9.81441
原	-9.81465
舊	-9.81518
豆	-9.81539
摩訶薩	-9.81556
即說呪曰	-9.8156
一百	-9.81574
八千	-9.81597
文殊師利	-9.81603
佛現	-9.81661
受樂	-9.81689
免	-9.81701
善巧	-9.8171
善住	-9.81771
名稱	-9.81934
無比	-9.82009
淨心	-9.82027
所受	-9.821
諸眾生等	-9.82193
?「	-9.8235
即以	-9.82442
是陀羅尼	-9.82523
知諸法	-9.82587
斷一切	-9.82642
聞者	-9.82704
大師	-9.82755
世人	-9.82771
或以	-9.82796
能與	-9.8282
卷	-9.82827
經法	-9.82918
本來	-9.8297
當校計百八	-9.83057
般涅槃	-9.83119
邊際	-9.83128
銅	-9.83134
諸佛所	-9.83138
富單那	-9.83152
飢渴	-9.83164
而行	-9.83248
所應	-9.83261
四念處	-9.83277
資糧	-9.83287
無動	-9.83355
一切眾	-9.83367
願佛	-9.83395
須菩提	-9.83416
若以	-9.83422
而復	-9.83441
此諸	-9.83465
一切天	-9.83582
如所	-9.83626
所不能	-9.83634
天魔	-9.83667
天宮	-9.83791
寶藏	-9.83823
愛敬	-9.83834
熱惱	-9.83877
號曰	-9.83967
戒行	-9.83981
此身	-9.84039
精進力	-9.84074
樂欲	-9.84188
名聞	-9.84211
罪福	-9.84273
海意菩薩	-9.84313
不空見菩薩摩訶薩	-9.84493
能破	-9.84578
唎	-9.84629
牽	-9.84645
吹	-9.84645
旋	-9.8468
潤	-9.84692
有二種	-9.84694
義者	-9.84708
齊	-9.84714
頃	-9.84728
鏡	-9.84732
譬喻	-9.84736
心性	-9.84757
不聞	-9.84791
諍訟	-9.84794
申	-9.84796
序	-9.84874
世尊以	-9.84928
摩那	-9.84953
三摩	-9.84965
受持讀誦	-9.85034
覺分	-9.85075
神通力	-9.85114
侍	-9.85173
如其	-9.8518
具足成就	-9.85235
恐	-9.85254
所在	-9.8543
里	-9.85451
捨諸	-9.85493
於未來世	-9.85509
珍	-9.85561
如法住	-9.85666
祭	-9.85764
無差別	-9.85782
意樂	-9.85784
一味	-9.85921
不能得	-9.85952
阿那	-9.85991
資生	-9.86038
地神	-9.86067
唱	-9.86069
徒	-9.86189
能除	-9.86237
湯藥	-9.86266
所以然者	-9.86269
堪任	-9.86296
術	-9.86301
病苦	-9.86314
娜	-9.86328
一切菩薩	-9.86349
毫	-9.86378
靈	-9.86381
故知	-9.86398
收	-9.86403
救拔	-9.86495
本末	-9.8663
迦葉	-9.8669
善行	-9.8675
化生	-9.86834
法輪	-9.86867
得如是	-9.86903
若能如是	-9.86917
如是眾生	-9.86937
不盡	-9.86985
諸外道	-9.87045
六道	-9.87079
之名	-9.87129
彼時	-9.87197
何者	-9.8723
淨故	-9.87282
佛國	-9.87414
諸人	-9.87424
於菩提	-9.87424
處處	-9.87429
初生	-9.8758
取著	-9.87622
莎	-9.87804
則為行法	-9.87815
無人	-9.87832
臂	-9.87877
儀	-9.87889
蔽	-9.87932
倚	-9.87936
瞿	-9.87948
踊	-9.8796
皮	-9.87964
。』」	-9.87998
其事	-9.88228
我法	-9.8826
行於	-9.88275
往詣	-9.88307
身相	-9.88318
加持	-9.88329
須彌山	-9.88423
九十	-9.88441
為本	-9.88648
斷滅	-9.88671
於戒	-9.88701
罪報	-9.88749
之義	-9.88803
他方	-9.88913
夢中	-9.88933
緣起	-9.88933
三摩地	-9.88953
散亂	-9.88975
哀愍	-9.89009
斷見	-9.89041
彼世界	-9.89091
執持	-9.89101
為作	-9.89179
前後	-9.8918
不能知	-9.89264
大莊嚴	-9.89265
當知是人	-9.89298
離垢	-9.89411
不畏	-9.89463
若觀	-9.89479
猗	-9.89493
怒	-9.89503
大眾咸皆讚	-9.89587
茶	-9.89598
曠野	-9.89613
洲	-9.8962
真珠	-9.89624
痛痒	-9.89631
叉婆	-9.89643
君	-9.8965
招	-9.89658
兒	-9.89666
遺	-9.89671
惠施	-9.89703
追	-9.89712
增益	-9.8973
以種種	-9.89803
不善業	-9.89813
中間	-9.89817
我是	-9.89821
悉見	-9.89841
到彼岸	-9.89911
能滅	-9.89941
今既	-9.90033
作諸	-9.90068
故得	-9.90125
何因緣故	-9.90196
於生死	-9.90269
多少	-9.90318
如實知	-9.90541
現身	-9.90573
所求	-9.90577
眼識	-9.90623
如夢	-9.90705
一切佛	-9.9077
德本	-9.9107
說之	-9.9121
說如是偈	-9.91215
迦羅	-9.91221
官	-9.91256
出離	-9.9128
震動	-9.91296
暴	-9.91299
右	-9.91303
右膝著地	-9.91314
注	-9.91324
塞	-9.91327
修多羅	-9.91451
娑羅	-9.9146
亦復不	-9.9148
大會	-9.9149
聲聞弟子	-9.91502
大論云	-9.917
受教	-9.91746
陀羅	-9.91766
無量諸佛	-9.91773
眾僧	-9.91788
其福	-9.91916
無緣	-9.91948
加護	-9.91978
三有	-9.92009
惱害	-9.92194
一毛	-9.92246
富貴	-9.92246
知眾生	-9.92252
此善男子	-9.9226
三十七	-9.9234
是曰	-9.92361
當為	-9.92484
華香	-9.9256
惡法	-9.92664
不覺	-9.92714
給	-9.92718
有無量	-9.92733
善修	-9.92738
大願	-9.92786
令住	-9.92824
第十	-9.92838
穀	-9.92889
作大	-9.92901
臨命終時	-9.93005
枝葉	-9.93011
澤	-9.93011
須臾	-9.93026
三十一	-9.93047
甘	-9.93057
接	-9.93063
驢	-9.93127
待	-9.93171
佛名	-9.93209
佛復告	-9.93218
至佛所	-9.93237
大苦	-9.93248
了了	-9.93309
五力	-9.93372
虛空中	-9.93636
解脫門	-9.93814
欲見	-9.9383
亦皆	-9.93911
魔波旬	-9.93919
教令	-9.9393
毀謗	-9.93991
難可	-9.94023
聖女	-9.94104
此佛剎	-9.94157
能施	-9.94165
佛語	-9.94191
形色	-9.94301
我今當	-9.94404
坻	-9.94442
三十二相	-9.9445
某	-9.94497
無行	-9.94587
不共諸佛之法	-9.94667
於世	-9.94716
露	-9.94728
妻子	-9.94733
寒	-9.94791
毘婆舍那	-9.94797
不可稱計	-9.94802
酒	-9.9484
張	-9.94896
毗	-9.94934
殊妙	-9.94937
除諸	-9.94939
根本罪	-9.94954
喻如虛空	-9.94963
大利益	-9.94992
於一	-9.94992
出入	-9.94995
毀壞	-9.95029
樂聞	-9.95043
法藏	-9.9518
如來悉知	-9.95199
得清淨	-9.95201
將護	-9.95288
以無	-9.9529
無諸	-9.95321
思念	-9.95367
普廣	-9.95427
說偈	-9.9543
得是三昧	-9.95491
作如是念	-9.95607
無色界	-9.958
梵名	-9.95816
內心	-9.95866
皆當	-9.95883
寶蓋	-9.9605
世俗	-9.96155
若有善男子	-9.96196
多所	-9.96219
聲聞辟支佛	-9.96248
勞	-9.96412
摩尼寶	-9.96415
惠	-9.96441
付	-9.96441
明了	-9.96448
渡	-9.96484
寺	-9.96488
男子	-9.96489
宅	-9.96534
走	-9.96535
頒宣	-9.96555
調御	-9.96559
是為慧業	-9.96559
擊	-9.96568
升	-9.96572
貫	-9.96588
寒熱	-9.96589
玄	-9.96589
巨	-9.96614
佛告颰陀和	-9.96615
曲	-9.96621
五種	-9.96634
陳	-9.96652
三十五	-9.96696
故名為	-9.96737
是為慧之業	-9.96751
乘者	-9.96759
苦樂	-9.96863
衣食	-9.96971
四禪	-9.97063
當令	-9.97091
少分	-9.97095
匝	-9.97134
修善	-9.9722
不異	-9.97238
往來	-9.97254
之道	-9.97321
世尊即說	-9.97343
炬	-9.97403
得此	-9.97517
鉢囉	-9.97548
亦是	-9.97554
藥王軍	-9.97574
測	-9.97674
修道	-9.97697
疾得	-9.97698
造業	-9.97751
則不	-9.97775
作佛事	-9.97838
如上	-9.97864
若未來世	-9.9788
本際	-9.97975
須陀洹	-9.97998
佛出世	-9.98233
在家	-9.9827
莎呵	-9.98346
返	-9.98346
睡眠	-9.98359
蠲除	-9.98359
】【	-9.9838
塗香	-9.98394
其性	-9.98398
累	-9.98412
身體	-9.98421
心意	-9.98423
是則為	-9.98427
枝	-9.9843
信樂	-9.98437
故云	-9.98438
本無	-9.98462
同聲	-9.98492
為眾生故	-9.98505
隨其所應	-9.98509
如來所說	-9.9852
解脫知見	-9.98521
摧伏	-9.98546
毘尼	-9.98607
有如是	-9.98632
是方便	-9.98652
流通	-9.98673
於世間	-9.98693
阿僧祇劫	-9.98722
復有眾生	-9.98733
愛欲	-9.98755
體性	-9.98763
法義	-9.98918
菩提薩埵	-9.99
所居	-9.99029
見此	-9.99135
菩薩若	-9.99163
人非人等	-9.99259
彼土	-9.99302
聞佛	-9.99394
入定	-9.9943
獨覺乘	-9.9943
諸佛世界	-9.99447
我已	-9.99683
無取	-9.99793
二相	-9.99805
作事	-9.99815
有三	-9.99831
則是	-9.99861
無貪	-9.99878
甚深法	-9.99904
品第	-9.99956
能成就	-9.99967
讚言	-9.99974
廢	-9.99995
逼	-10.0003
之物	-10.0005
不用	-10.0007
福利	-10.001
是故菩薩	-10.0012
至於	-10.0014
憍	-10.0015
不入	-10.0015
威力	-10.0016
牙	-10.0023
欺誑	-10.0023
晝	-10.0024
天神	-10.0024
笑	-10.0026
乳	-10.0028
井	-10.003
刺	-10.0031
靜慮	-10.0031
願力	-10.0032
法華	-10.0033
雙	-10.0033
天耳	-10.0033
勸請	-10.0037
八正道	-10.0041
所有諸	-10.0042
而於	-10.0042
文殊	-10.0045
惡知識	-10.0048
老死	-10.0049
四無所畏	-10.0049
華鬘	-10.0049
乃至一切	-10.0064
於過去	-10.0067
波羅	-10.0078
以自	-10.0086
大菩薩	-10.0092
六根	-10.0103
若聞	-10.0106
釋迦牟尼如來	-10.0107
為人說	-10.0123
二法	-10.0124
得生	-10.0129
眾生界	-10.0132
所造	-10.0161
五逆	-10.0166
彼處	-10.0173
若有人	-10.0173
助道	-10.0176
永斷	-10.0176
五道	-10.0178
生怖畏	-10.0182
終無	-10.0183
坐禪	-10.0183
嚩	-10.0199
三千	-10.0201
奇	-10.0201
▁一心頂禮	-10.0202
常以	-10.0202
衛	-10.0204
忉利天	-10.0205
草	-10.0206
闕	-10.0208
甲冑	-10.0208
堅牢	-10.0211
稱揚	-10.0215
據	-10.0217
端嚴	-10.0217
諸餘	-10.0217
值遇	-10.0218
得入	-10.0219
於意云何	-10.0219
呤	-10.0229
聰明	-10.0238
本性	-10.0239
滅除	-10.024
不可見	-10.0249
於大眾中	-10.0251
心意識	-10.0253
四眾	-10.0259
諸弟子	-10.026
種姓	-10.0263
則有	-10.0263
觀法	-10.0264
幡蓋	-10.027
禮拜供養	-10.0274
為一	-10.0278
中道	-10.0302
三十三	-10.0307
皆有	-10.0309
此土	-10.0318
那吒	-10.0323
為壞	-10.0329
所獲	-10.0333
善入	-10.0337
不說	-10.034
過去諸佛	-10.0341
令此	-10.0351
生念	-10.0352
淨信	-10.0355
上下	-10.0362
來至此	-10.0365
倒	-10.0367
從彼	-10.0374
漏盡	-10.0379
亦應	-10.0381
佛號	-10.0385
生時	-10.0386
噉	-10.0391
十二緣	-10.0393
勤作	-10.0394
婦	-10.0395
頗梨	-10.0397
汝等共護	-10.0402
箭	-10.0403
歌舞	-10.0404
又問	-10.0404
妙樂	-10.0407
剎帝利	-10.0407
臨終	-10.0408
道法	-10.0409
頂上	-10.0411
於己	-10.0413
長夜	-10.0417
正士	-10.0419
而來	-10.0419
得成	-10.0421
師子座	-10.0424
自大	-10.0427
懼	-10.0428
剎那	-10.0433
身口意業	-10.0433
八萬	-10.044
聚集	-10.0443
不亂	-10.0446
供具	-10.0451
得人身	-10.0453
之意	-10.0458
請問	-10.0464
遍照	-10.0464
普照	-10.0464
生大	-10.0467
成就阿耨多羅三藐三菩提	-10.047
復作是念	-10.0475
生歡喜	-10.0485
忘失	-10.0487
具大	-10.0493
〉	-10.0493
而以	-10.0494
作禮	-10.05
多羅	-10.05
寶莊嚴	-10.0503
藥王軍菩薩	-10.0507
諸界	-10.0516
而得解脫	-10.0517
證得	-10.0532
戲論	-10.0535
摧	-10.0544
於虛空中	-10.0546
得安樂	-10.0546
捨於	-10.0555
一句	-10.0563
空無	-10.0563
菩薩摩訶薩眾	-10.0564
二萬	-10.0574
惡魔	-10.0589
尊者阿難	-10.0591
大智慧	-10.0591
能善	-10.0591
千億	-10.0594
亦說	-10.0595
此三宿日	-10.0596
羼提波羅蜜	-10.0597
顧	-10.0597
毫相光	-10.0597
塔寺	-10.0597
送	-10.0602
重擔	-10.0604
馳	-10.0605
低	-10.0607
善權	-10.0609
而致	-10.0609
我等今者	-10.0612
大法	-10.0612
爛	-10.0612
虛誑	-10.0613
竝	-10.0613
捨心	-10.0618
大甲冑輪	-10.0625
鬘	-10.0628
言語	-10.0628
之性	-10.0632
應知	-10.0635
能觀	-10.0638
三十六	-10.0639
成佛道	-10.0644
光目	-10.0647
千萬	-10.065
知色	-10.065
妙音	-10.0652
若天	-10.0661
難陀	-10.0667
羅國	-10.0686
若諸眾生	-10.0699
亦知	-10.07
周遍	-10.0712
輪轉	-10.0719
誰能	-10.0721
伺察	-10.0722
業感	-10.0728
諸世間	-10.0734
行布施	-10.0734
所趣	-10.0735
無罣礙	-10.0735
復更	-10.0737
調伏眾生	-10.0744
慚	-10.0749
悲愍	-10.0752
心得	-10.0754
摩羅	-10.0755
不定	-10.0757
云何得	-10.0765
永離	-10.0774
化度	-10.0774
天地	-10.0785
不聽	-10.0787
泉	-10.0795
滯	-10.0799
充	-10.0801
野	-10.0802
領	-10.0802
慶	-10.0803
輪迴	-10.0809
皆共	-10.0809
舍利	-10.0809
毘梨耶波羅蜜	-10.0809
汝可	-10.081
億百千	-10.0815
泥犁	-10.0816
此道	-10.0818
如大	-10.0818
不善法	-10.0819
令諸	-10.0819
非時	-10.0822
於佛法中	-10.083
勇猛精進	-10.083
以法	-10.0832
著袈裟	-10.0837
無染	-10.0851
行法	-10.0855
一名	-10.0855
為我說	-10.0863
更不	-10.0869
業緣	-10.0872
經中	-10.0874
復能	-10.0885
遵	-10.0888
我為	-10.0893
眾生心	-10.0896
)」	-10.0902
斷諸	-10.0903
未來世中	-10.0905
貢高	-10.0907
發意	-10.0916
舍利弗言	-10.0916
一切所有	-10.0926
七十	-10.0927
之類	-10.0928
是名如來	-10.0929
二人	-10.0929
我說	-10.0933
所起	-10.0936
為得	-10.0945
所住處	-10.0951
令他	-10.0953
無等	-10.0954
何能	-10.0961
羯	-10.0967
迦吒富單那	-10.0968
啟	-10.0981
及諸菩薩	-10.0982
欣	-10.0982
蒱	-10.0987
我能	-10.0992
電	-10.0993
博	-10.0995
寐	-10.0995
太	-10.0996
身口	-10.0997
焦	-10.1
捉	-10.1001
補特伽羅	-10.1002
麗	-10.1002
麁獷	-10.1002
公	-10.1004
腹	-10.1007
涌	-10.101
罵辱	-10.101
而常	-10.1015
犯根本罪	-10.1016
點	-10.1016
即從座起	-10.1018
沈水	-10.1019
種諸善根	-10.102
安慰	-10.102
有四	-10.1023
一乘	-10.1026
大梵天王	-10.1034
釋梵	-10.1042
知已	-10.1044
空寂	-10.105
墮惡趣	-10.1056
油	-10.106
與諸	-10.1062
人間	-10.1068
我時	-10.1068
無處	-10.1068
復問	-10.1072
意識	-10.1082
菩薩白佛言	-10.1082
一切法無	-10.1084
懈	-10.1088
六度	-10.109
第五	-10.1095
左右	-10.1099
所緣	-10.1108
信受	-10.1113
信敬	-10.1114
之後	-10.1116
世界名	-10.1116
能說	-10.1117
樂見	-10.1121
於諸法中	-10.1125
作佛	-10.1126
或時	-10.1129
佛之	-10.114
角	-10.1151
等事	-10.1151
慳	-10.1152
見諸佛	-10.1156
護正法	-10.1161
柔和	-10.1161
宿等日	-10.117
大地獄	-10.1179
唯有	-10.1184
魔子	-10.1185
自見	-10.12
能令眾生	-10.1203
觀一切法	-10.1204
亦無有	-10.1206
隱沒	-10.121
園林	-10.1211
吼	-10.1212
第六	-10.1212
論云	-10.1212
兜	-10.1213
膩	-10.1214
剎利王	-10.1215
以偈頌	-10.1215
善根者	-10.1216
狀	-10.1216
三世諸佛	-10.1217
怪	-10.1219
金銀	-10.1225
受報	-10.123
不可量	-10.1234
常修	-10.1237
之日	-10.1239
於生死中	-10.1249
三十三天	-10.1259
染著	-10.1259
不相	-10.1264
敬禮	-10.1269
涅槃道	-10.1274
聲聞眾	-10.1278
􂚲(	-10.1283
菩薩念佛三昧	-10.1291
普遍	-10.1291
吾我	-10.1297
諸佛所說	-10.1302
賤	-10.1311
五曰	-10.1315
善心	-10.1316
左	-10.1323
諸相	-10.1332
二事	-10.1333
利益安樂	-10.1334
而起	-10.134
遙	-10.134
捨身	-10.1343
聞佛所說	-10.1346
寶珠	-10.1364
眾惡	-10.1365
念佛三昧	-10.1367
無一	-10.138
師子王	-10.1394
於正法	-10.1396
專精	-10.1397
令汝	-10.14
不以為	-10.1401
大明	-10.1407
勤行	-10.141
得無生忍	-10.1411
佛正法	-10.1416
擔	-10.1417
淺	-10.1419
虛空孕菩薩	-10.1419
究	-10.1419
陽	-10.142
卷第三	-10.1421
敗	-10.1421
清涼	-10.1424
洗	-10.1426
周匝	-10.1428
律儀	-10.143
寄	-10.143
溺	-10.1436
馱	-10.1441
彼國	-10.1441
平等故	-10.1441
婦女	-10.1442
久遠	-10.1445
方便智	-10.1445
無有是處	-10.1447
施主	-10.1447
?』「	-10.1453
』	-10.1459
億那由他	-10.146
無上尊	-10.146
未來世	-10.1469
問答	-10.1473
之慧	-10.1474
佛弟子	-10.1482
菩提之心	-10.1485
大集經	-10.1497
如來出世	-10.1509
是故如來	-10.1522
彼一切	-10.1528
我聞	-10.1529
能捨	-10.153
而修	-10.1531
善解	-10.1533
常在	-10.1535
眾具	-10.154
勢	-10.1542
第七	-10.1556
能修	-10.1556
況復	-10.1556
歡喜踊躍	-10.1556
種種寶	-10.1557
為其	-10.1566
諸大菩薩	-10.1568
善護	-10.1569
一佛	-10.1579
歸趣	-10.1587
於三世	-10.1588
虗	-10.1593
修禪	-10.1599
土地	-10.1601
得不退轉	-10.1603
即現	-10.1614
瑞	-10.1615
江	-10.1624
佛所說	-10.1633
照曜	-10.1636
未聞	-10.1638
脩	-10.1638
無復	-10.1639
狂	-10.1639
殊特	-10.1639
卷第二	-10.1642
兄弟	-10.1643
墜	-10.1644
乞食	-10.1645
連	-10.1646
入三昧	-10.1649
發露懺悔	-10.1649
統	-10.165
醫藥	-10.1651
召	-10.1652
天中天	-10.1653
初行菩薩	-10.1653
與虛空等	-10.1653
臭穢	-10.1658
證知	-10.1659
尸波羅蜜	-10.1659
為是	-10.1661
皆以	-10.1663
若在	-10.1664
必當	-10.1674
具戒	-10.1675
萬物	-10.1677
色身	-10.1701
解了	-10.1702
魔界	-10.171
罣礙	-10.1712
四魔	-10.1715
生人天	-10.1716
但為	-10.172
如是說	-10.1721
我於爾時	-10.1721
永不	-10.1723
一切諸天	-10.1723
聖法	-10.1725
知其	-10.1729
梵語	-10.1729
十輪	-10.173
心者	-10.1733
那婆	-10.1737
入涅槃	-10.1741
無知	-10.1742
毀戒	-10.1746
缺	-10.1748
出現於世	-10.1749
行故	-10.1754
任	-10.176
大乘法	-10.1763
三結	-10.1771
以何因緣	-10.1775
恃	-10.1789
毛孔	-10.1792
不瞋	-10.1807
修羅	-10.1808
具足智慧	-10.1811
諸陰	-10.1814
佛界	-10.1816
百六十	-10.183
於時	-10.1831
口業	-10.184
藥草	-10.1843
辦	-10.1843
諸所	-10.1849
賒	-10.1851
拔陂	-10.1852
能護	-10.1852
跛	-10.1854
曠	-10.1855
到佛所	-10.1859
無央數	-10.186
實無	-10.1862
羊	-10.1863
福者	-10.1865
殖	-10.1867
者則	-10.187
逢	-10.1871
脾	-10.1873
關	-10.1873
法雨	-10.1874
無所依	-10.1875
放大光明	-10.1876
迴向阿耨多羅三藐三菩提	-10.1876
積聚	-10.1876
十八不共法	-10.1876
禮敬	-10.1878
標	-10.1881
最後	-10.1885
為大	-10.1894
習氣	-10.1899
場	-10.1899
地獄中	-10.1902
伽陀	-10.1907
雖有	-10.1909
及諸眷屬	-10.1914
不退轉地	-10.192
能成	-10.1929
四攝	-10.1932
佛境界	-10.1938
非我	-10.1941
來集	-10.1959
於三界	-10.1961
唯願如來	-10.1965
已曾	-10.1967
悉為	-10.1972
梵天王	-10.1973
時節	-10.1978
詞	-10.1981
遵修	-10.1984
可愛	-10.1987
所知	-10.1993
念處	-10.1996
依於	-10.1998
福聚	-10.1999
深信	-10.2002
墮惡道	-10.2025
阿僧祇	-10.2038
到已	-10.2049
其行	-10.2062
施者	-10.2066
諸眷屬	-10.2068
諸欲	-10.2068
祇	-10.2076
誡	-10.2079
一日一夜	-10.2081
信者	-10.2081
停	-10.2085
倫	-10.2086
親友	-10.2088
初禪	-10.2092
劫數	-10.2092
共相	-10.2093
算	-10.2095
剎帝利旃荼羅王	-10.2096
呵責	-10.2096
眾生得	-10.2096
一切種智	-10.2096
卷第十	-10.2096
逐	-10.2097
長壽	-10.2098
充足	-10.2102
代	-10.2102
下劣	-10.2103
契	-10.2106
軍眾	-10.2116
起於	-10.2119
分別解說	-10.2123
來集會	-10.2124
人眾	-10.2124
然燈	-10.2127
正等正覺	-10.2132
音樂	-10.2132
行菩薩道	-10.2143
如是三昧	-10.2143
魔事	-10.2151
有三摩地名為	-10.2152
見有	-10.2157
為諸菩薩	-10.2159
放捨	-10.2165
離煩惱	-10.2181
百千劫	-10.2185
信根	-10.2188
能持	-10.2191
為令眾生	-10.2192
世法	-10.2193
復有地獄	-10.2206
不現	-10.2212
自心	-10.2212
〉、	-10.2214
所成	-10.2217
身業	-10.2222
是慧	-10.2226
此名	-10.2227
無疑	-10.2232
常見	-10.2236
不轉	-10.224
若諸菩薩	-10.2247
利益眾生	-10.2249
一切勇菩提薩埵	-10.2249
得福	-10.2252
為眾生說	-10.2254
觀者	-10.2261
是故名為	-10.2261
應時	-10.2269
王位	-10.2273
之間	-10.2283
於空	-10.2285
譽	-10.2288
道心	-10.2291
一相	-10.2296
盡智	-10.2303
菩薩所行	-10.2305
阿羅	-10.2309
栴達囉	-10.231
豐	-10.231
沈	-10.2314
奴婢	-10.2314
飯	-10.2314
愁	-10.2317
那羅延	-10.2319
慇懃	-10.232
偏袒右肩	-10.232
以是之故	-10.2322
便得	-10.2323
囑	-10.2323
荒	-10.2323
杖	-10.2324
功勳	-10.2328
瞻仰	-10.2328
頓	-10.2329
所住	-10.2329
宣暢	-10.2331
百由旬	-10.2334
下賤	-10.2334
所說法	-10.2334
難思議	-10.234
生老病死	-10.234
執著	-10.2347
頭陀	-10.2349
大利	-10.2349
發起精進	-10.2355
至心聽	-10.2357
萬億	-10.2358
世尊讚	-10.2358
疾病	-10.2363
順忍	-10.2373
形相	-10.2374
出息	-10.2377
大將	-10.2381
知於	-10.2398
亂心	-10.2406
念念	-10.2407
南無	-10.2407
優	-10.2412
復於	-10.2417
之眾	-10.2432
剎中	-10.2434
譏毀	-10.2435
非有	-10.2438
正使	-10.2441
有能	-10.245
如月	-10.2463
世尊所	-10.2468
亦不能	-10.2472
三十四	-10.2478
會中有	-10.2482
莫能	-10.2483
以手	-10.2488
則見	-10.2494
厭離	-10.2504
愧	-10.2504
若有人能	-10.2514
價	-10.2516
念心	-10.2519
妙香	-10.2522
無出	-10.2526
掌	-10.253
奉持	-10.2539
悉當	-10.2546
嚧	-10.255
婆伽婆	-10.255
賴	-10.2551
茂	-10.2554
醉	-10.2555
不敢	-10.2557
脚	-10.2558
植	-10.2561
卷第四	-10.2563
妬	-10.2563
餘人	-10.2563
五穀	-10.2563
弭	-10.2563
狗	-10.2564
舍宅	-10.2565
濕	-10.2566
戀	-10.2566
遊行	-10.2567
如汝所說	-10.2567
尤	-10.2568
奚	-10.2568
庶	-10.257
印所印	-10.2571
縱廣	-10.2574
正路	-10.258
咸共	-10.2581
從初發心	-10.2584
我慢	-10.2587
諸波羅蜜	-10.2591
專念	-10.2599
實語	-10.2601
清淨心	-10.2603
坐於	-10.2606
善方便	-10.261
若入	-10.2611
樹下	-10.2612
應以	-10.2615
依著	-10.262
諸陀羅尼	-10.2627
三十八	-10.2627
知之	-10.2628
陀那	-10.2631
年少眾生	-10.2633
印者	-10.2637
而悉	-10.264
天主	-10.2645
猛火	-10.2647
聞名	-10.2658
是身	-10.2664
四王	-10.2665
日光	-10.2665
思想	-10.2675
正定	-10.2681
見十方	-10.2683
所欲	-10.2687
斷絕	-10.2688
無有異	-10.2692
憐愍眾生	-10.2693
教人	-10.2694
眾中有	-10.2699
現在世	-10.2699
無非	-10.2699
不斷絕	-10.27
於後	-10.2709
為說法	-10.2715
諸天子	-10.2719
歸敬	-10.2722
修行者	-10.2728
修福	-10.2729
常懷	-10.2729
問言	-10.2731
滅後	-10.2733
聽我	-10.2737
右遶三匝	-10.2746
歡	-10.2751
師長	-10.2753
日夜	-10.2754
曼	-10.2758
皆從	-10.2764
諸漏	-10.2765
第八	-10.2767
從是	-10.2772
住持	-10.2775
靡不	-10.2793
訟	-10.2796
皆生	-10.2797
固	-10.2801
忿	-10.2801
尸羅	-10.2802
房	-10.2804
三千大千	-10.2805
枯	-10.2805
鹿	-10.2805
業道	-10.2805
得安隱	-10.2806
驅	-10.2808
旨	-10.2809
結使	-10.281
詳	-10.2811
慰	-10.2813
寫	-10.2813
十善業道	-10.2813
速能	-10.2815
銷滅	-10.2818
四無量心	-10.2819
成辦	-10.2823
坊	-10.2824
沙門瞿曇	-10.2825
汝應	-10.2826
或有變作	-10.2827
誹謗正法	-10.2827
時有	-10.2827
即當	-10.283
不隨	-10.2837
心無厭足	-10.2839
不久當	-10.2841
消除	-10.2849
大涅槃	-10.2857
終不能	-10.286
其力	-10.2863
若此	-10.2868
云何當得如	-10.287
大陀羅尼	-10.287
得須陀洹果	-10.2871
身分	-10.2872
大眾中	-10.2883
於彼何者	-10.2886
身行	-10.2889
要當	-10.2891
以神通力	-10.2891
同時	-10.2892
諸結	-10.2898
此中	-10.2899
出時	-10.2907
危	-10.2917
彌勒菩薩	-10.2919
善觀	-10.292
光味	-10.292
我我所	-10.2924
億那由他百千	-10.2924
不悔	-10.293
遶	-10.2933
者即	-10.2936
是善男子	-10.2939
所化	-10.2942
自作	-10.2942
虛空目	-10.2945
於汝	-10.2947
百五十	-10.2951
寶聚	-10.2961
能入	-10.2963
住此	-10.2978
無量無邊阿僧祇	-10.2988
一切天人	-10.3002
波利	-10.3002
業果	-10.3004
是名菩薩摩訶薩	-10.3009
說法者	-10.3009
阿修羅等	-10.3012
求於	-10.3013
本淨	-10.3013
魔軍	-10.3016
能解	-10.302
唯佛	-10.3032
何名	-10.3036
爾所	-10.304
隨住	-10.3044
世尊復告	-10.3046
即生	-10.3048
合集	-10.3051
涅	-10.3052
如如	-10.3054
淚	-10.3055
不惜身命	-10.3059
厚	-10.3059
而坐	-10.306
寤	-10.306
瑟	-10.3061
瓶	-10.3061
漂	-10.3061
章	-10.3061
則為誼	-10.3063
禍	-10.3063
於十方	-10.3064
以來	-10.3065
避	-10.3065
訓	-10.3066
折	-10.3067
邪婬	-10.3068
稱量	-10.3069
麤	-10.3073
觀諸法	-10.3077
此即	-10.3077
即說偈言	-10.3079
酬	-10.3079
意業	-10.308
即於佛前	-10.3081
有因	-10.3084
波羅蜜多	-10.3095
是義	-10.3097
設使	-10.3098
陰蓋	-10.3098
時魔波旬	-10.31
惟願	-10.3101
梵志	-10.3104
過去世	-10.3107
善事	-10.311
當以	-10.3112
安立	-10.3115
如是行者	-10.3117
利樂	-10.3137
生慚愧	-10.3138
一面	-10.3138
善利	-10.3146
阿彌陀佛	-10.3147
是苦	-10.3148
佛眼	-10.3158
勤苦	-10.3173
王言	-10.3173
貪愛	-10.3175
四流	-10.3178
慧根	-10.3182
三十九	-10.3184
山王	-10.3185
右遶	-10.3193
除去	-10.3195
應受	-10.3202
能盡	-10.3204
善哉善哉	-10.3207
能護法	-10.3207
得是	-10.3212
深妙	-10.3217
生疑	-10.3217
修因	-10.3219
樹林	-10.3225
死魔	-10.3227
寶鬘	-10.3234
其餘	-10.3234
一切法門	-10.3235
可說	-10.3236
貌	-10.3237
皆空	-10.3243
施福	-10.3244
墮於	-10.3244
能忍	-10.3245
三藏	-10.3252
法已	-10.3252
實相	-10.3255
五千眷屬	-10.3257
入道	-10.3258
非識	-10.326
辛	-10.3269
等心	-10.3272
六十四	-10.3278
如人	-10.3285
其心平等	-10.3287
肩	-10.3305
熾	-10.3307
黎	-10.3311
自知	-10.3311
之罪	-10.3312
憎	-10.3312
窟	-10.3314
釋提桓因	-10.3314
育	-10.3315
歡悅	-10.3315
竹	-10.3315
禽獸	-10.3316
懸	-10.3318
枯竭	-10.3318
宰	-10.3318
急	-10.3319
空無相願	-10.332
乏少	-10.3321
並	-10.3321
揭	-10.3321
稱譽	-10.3322
憂惱	-10.3322
沉	-10.3325
群生	-10.3325
緣生	-10.3325
篤信	-10.3327
心之所興發	-10.3328
隨逐	-10.333
水火	-10.3331
嘍	-10.3335
復為	-10.3337
法味	-10.334
真實福田	-10.334
不生不滅	-10.3341
生死海	-10.3342
若干種	-10.3344
捨施	-10.3354
染污	-10.3358
一切悉	-10.3362
得大利益	-10.3362
樂法	-10.3365
空三昧	-10.3368
所有一切	-10.3368
樂著	-10.3371
夫人	-10.3376
最為	-10.3388
香花	-10.3394
迴向菩提	-10.3398
正真	-10.3405
不觀	-10.3412
凡所	-10.3413
斷常	-10.3417
白佛	-10.342
羅婆	-10.3421
柔	-10.3422
奉事	-10.3424
無量億	-10.343
處於	-10.3437
其順法者不	-10.3441
作此	-10.3443
受諸	-10.3446
云云	-10.3452
不從	-10.3454
亦以	-10.3465
阿摩	-10.347
得於	-10.3472
此四天下	-10.3472
未盡	-10.3477
行相	-10.3481
願我	-10.349
道中	-10.3492
以彼	-10.3495
不能自	-10.3502
墮地獄	-10.3502
亦不見	-10.3503
遮羅	-10.3512
若魔	-10.3517
修禪定	-10.3527
或因	-10.3538
我心	-10.3544
𠼝	-10.3551
此事	-10.3554
以其	-10.3555
初發心菩薩	-10.3558
敵	-10.3559
互	-10.3559
鬪	-10.356
闍婆	-10.3561
正說	-10.3563
伐	-10.3564
酤胝	-10.3565
鈍	-10.3567
禰	-10.3569
智人	-10.3572
朝	-10.3573
偽	-10.3574
廁	-10.3575
迹	-10.3575
穿	-10.3575
渴	-10.3576
於當來世	-10.3576
宋	-10.3578
檀越	-10.3578
得住	-10.3578
校	-10.358
補	-10.3584
楚	-10.3585
幽	-10.3586
阿鼻地獄	-10.3586
所致	-10.3586
分布	-10.3587
遮障	-10.359
八法	-10.3592
為汝	-10.3594
呿伽	-10.3595
之報	-10.3595
心懷	-10.3597
菩薩眾	-10.3598
過患	-10.3599
加行	-10.3599
動轉	-10.3604
求菩提	-10.3606
險道	-10.3608
三解脫門	-10.3609
諸方	-10.361
現前三昧	-10.3611
雨種種	-10.3621
天中	-10.3622
花果	-10.3623
若自	-10.3626
獄中	-10.3629
佛功德	-10.364
受我	-10.3641
何因緣	-10.3642
虗空	-10.3649
十法	-10.3666
供養恭敬	-10.3666
為佛	-10.3667
是故我	-10.3678
護世	-10.3693
寂定	-10.3699
是處	-10.3705
已能	-10.3708
覺悟	-10.371
令不	-10.3717
苦痛	-10.3718
如是言	-10.3728
欲來	-10.3734
現世	-10.3742
平等心	-10.3749
增減	-10.3749
四事	-10.3754
其形	-10.3755
一切法性	-10.3757
三萬	-10.3768
一切智心	-10.377
巧方便	-10.3775
此經典	-10.3781
當念	-10.3784
此會	-10.3786
放光	-10.379
而此	-10.379
心終	-10.3796
惡比丘	-10.3798
一子	-10.3803
當於	-10.3803
有三摩地名	-10.3805
福報	-10.3805
初發心	-10.3807
阿蘭若	-10.3808
是經典	-10.3821
不可以	-10.3826
此則	-10.3826
十輪經	-10.3827
脾蛇	-10.3829
僧伽吒	-10.3829
皆見	-10.3831
弗	-10.3832
觸惱	-10.3835
揚	-10.3841
夷	-10.3842
受大苦惱	-10.3844
雪山	-10.3846
猶豫	-10.3847
佛說海意菩薩所問淨印法門經	-10.3848
敢	-10.3849
司	-10.3849
此即是為	-10.3851
談	-10.3851
灰	-10.3851
天帝釋	-10.3853
身中	-10.3853
是則名曰	-10.3853
冷	-10.3853
三摩提	-10.3853
除愈	-10.3853
健	-10.3855
朋	-10.3855
唐言	-10.3858
於我法中	-10.3859
為他說	-10.3859
荷	-10.3861
聖行	-10.3861
煩惱障	-10.3863
修行菩提道	-10.3864
覆藏	-10.3865
無生智	-10.3865
無所行	-10.3869
初又二初	-10.387
闇冥	-10.3872
不實	-10.3877
空處	-10.3881
當作	-10.3882
意行	-10.3887
輕慢	-10.3888
有如是相	-10.3888
功德莊嚴	-10.389
四無礙智	-10.3892
我等當	-10.3893
海慧菩薩	-10.3898
四正勤	-10.3901
又善男子	-10.3905
不在	-10.3906
是為四	-10.3907
變成	-10.3907
比丘僧	-10.3914
聖眾	-10.3917
百千那由他	-10.3922
乃得	-10.3923
疑心	-10.3927
王佛	-10.3933
百七十	-10.3943
所愛	-10.3948
持是三昧	-10.3954
聽者	-10.3955
當有	-10.3959
生天上	-10.396
諸苦惱	-10.3966
無窮	-10.3966
能示	-10.3968
復言	-10.3969
樂修	-10.3978
佛神力	-10.3983
法相	-10.3985
甚難	-10.3987
無罪	-10.3988
一切諸惡	-10.3991
地界	-10.3997
自在定	-10.3999
樂受	-10.4007
沫	-10.4009
作證	-10.401
能受持	-10.4012
故須	-10.4021
隣	-10.4026
寶幢	-10.4028
善作	-10.4035
是名諸法	-10.4036
妙色	-10.4042
大菩提	-10.4048
是定	-10.4049
菩薩道	-10.4052
作業	-10.4058
義理	-10.4063
聰	-10.4072
住世	-10.4078
深廣	-10.4082
險	-10.4094
頭面禮	-10.4096
令人	-10.4098
念法	-10.4099
不息	-10.4105
灑	-10.4111
不違	-10.4112
綺	-10.4115
姥	-10.4116
畫	-10.4118
莖	-10.412
甲	-10.4122
阿那含	-10.4122
一生補處	-10.4123
於世尊前	-10.4124
咨嗟	-10.4124
宰官	-10.4124
卷第五	-10.4125
省	-10.4125
嘙	-10.4126
弟	-10.4127
勒	-10.4127
長阿含	-10.4127
憙	-10.4128
耆	-10.4128
逸	-10.4129
多諸	-10.413
凶	-10.413
血肉	-10.4131
嬈	-10.4131
舒	-10.4132
瘡	-10.4133
樂於	-10.4133
樹木	-10.4134
黑闇	-10.4135
對治	-10.4135
往古	-10.4136
福業	-10.4138
壁	-10.4142
了義	-10.4144
教授	-10.4146
之樂	-10.4147
無量世中	-10.4148
如是種種	-10.4149
出入息	-10.4151
猶若	-10.4156
無得	-10.4156
滅百八	-10.4162
皆大歡喜	-10.4163
實性	-10.4165
伽羅	-10.4166
助菩提	-10.417
悅可	-10.4171
禮佛	-10.4173
隨彼	-10.4178
不名	-10.4179
解釋	-10.418
是諸菩薩	-10.4189
毒蛇	-10.4189
同共	-10.4196
觀佛	-10.4202
四神足	-10.4205
生長	-10.4206
其國	-10.4206
力勢	-10.4208
何法	-10.4213
輪王	-10.422
須彌山王	-10.4227
一切諸魔	-10.4229
令入	-10.4231
此二	-10.4236
士夫	-10.4238
真實知	-10.4241
之聲	-10.4243
而死	-10.4245
一切外道	-10.4254
一切行	-10.4255
四十二	-10.4256
因是	-10.4265
假名	-10.4269
大功德	-10.4269
更無	-10.4274
大悲心	-10.4275
之子	-10.4275
能行	-10.4282
故能	-10.4288
言教	-10.4289
見之	-10.4306
億劫	-10.4314
是三昧者	-10.4322
造惡	-10.4323
今世	-10.4323
深法	-10.4328
有佛出世	-10.4329
清淨智	-10.4329
)􂚲	-10.4338
是謂為	-10.4339
諸世界	-10.434
及其	-10.4341
告言	-10.4342
百千萬	-10.4349
所歸	-10.4355
思議	-10.4356
正受	-10.436
不得令	-10.4363
眾德	-10.4366
犯罪	-10.4366
世諦	-10.437
而說	-10.4376
清淨者	-10.4376
心故	-10.4376
讀經	-10.4379
恭	-10.4382
呵呵	-10.4382
復有無量	-10.4386
輪故	-10.4393
法座	-10.4394
恐懼	-10.4396
犁	-10.4402
看	-10.4403
問訊	-10.4404
支節	-10.4404
囑累	-10.4405
至彼	-10.4405
如是等事	-10.4406
汁	-10.4406
見諸眾生	-10.4407
斬	-10.4408
跋帝	-10.4409
飢	-10.4409
非時風雨	-10.441
房舍	-10.441
咃	-10.4411
問佛	-10.4412
善家子善家女	-10.4413
盈滿	-10.4415
承佛威神	-10.4417
還復	-10.4419
四大天王	-10.442
寶髻	-10.4422
太子	-10.4423
摩訶衍	-10.4423
乃往古世	-10.4428
誑惑	-10.4428
羅網	-10.443
橋	-10.4434
無量世界	-10.4434
樂說無礙	-10.4437
止觀	-10.4437
乃至迦吒富單那等	-10.4441
若知	-10.4443
敬重	-10.4445
光佛	-10.4446
此呪	-10.4458
是何	-10.4459
獲福	-10.446
種種色	-10.4464
妄想	-10.4465
百八便	-10.4465
求解脫	-10.4468
獨覺乘等	-10.4468
宣說正法	-10.4471
於夢中	-10.4473
獄卒	-10.4479
能救	-10.4479
行願	-10.448
無生忍	-10.4482
大自在	-10.4486
當為汝說	-10.4491
而去	-10.4495
一切智智	-10.4496
護念	-10.4499
又於	-10.4499
五通	-10.45
如須彌山	-10.4503
菩薩亦復如是	-10.4508
無壞	-10.4512
見一切法	-10.4515
一偈	-10.4523
不厭	-10.4523
最尊	-10.4523
見我	-10.4527
四十五	-10.4536
惡聲	-10.4536
吾當	-10.4537
婆囉	-10.4547
三毒	-10.4548
喜心	-10.4561
大乘經典	-10.4561
同於	-10.4564
翼	-10.4565
之者	-10.4566
無邊際	-10.457
能發	-10.4577
煩惱魔	-10.4583
千佛	-10.4585
二名	-10.4589
不忘失	-10.4597
不虛	-10.4598
因此	-10.4598
如是如是	-10.4599
兜率天	-10.46
此四	-10.4602
心生歡喜	-10.4608
八種	-10.4612
無有二	-10.4615
三事	-10.4616
能滿	-10.4617
其光	-10.4622
如來世尊	-10.4622
無始	-10.4625
此由	-10.463
宿世	-10.4638
識處	-10.4639
白法	-10.464
無瞋	-10.4641
及眷屬	-10.4647
以慧	-10.4668
昧	-10.4676
訶䫂	-10.4679
不誑	-10.4679
大誓莊嚴	-10.4682
階	-10.4683
此義	-10.4689
兩足尊	-10.469
邑	-10.4691
怛哩	-10.4693
槃	-10.4694
欝	-10.4695
焚燒	-10.4697
云何行	-10.4698
從何	-10.4699
族	-10.4699
狐疑	-10.4699
客	-10.4702
澹泊	-10.4702
賣	-10.4702
是故我今	-10.4703
異人	-10.4703
默	-10.4703
瞋怒	-10.4704
劍	-10.4704
善思念之	-10.4705
身壞命終	-10.4707
舍摩他	-10.4707
陵	-10.4708
憂愁	-10.4708
發寶心	-10.4708
嫌	-10.4709
得道	-10.471
刀杖	-10.4711
上中下	-10.4711
樓閣	-10.4711
無實	-10.4712
假使有人	-10.4712
七覺分	-10.4713
割	-10.4713
髓	-10.4713
濘	-10.4714
判	-10.4715
弱	-10.4715
我等亦	-10.4716
無生無滅	-10.4718
受想行識	-10.4718
雷	-10.4719
瓔珞莊嚴	-10.4721
知彼	-10.4724
百千億	-10.4725
中有一	-10.4726
長者子	-10.4727
衛護	-10.4727
無所罣礙	-10.4728
能斷一切	-10.4728
不肯	-10.4732
多羅樹	-10.4733
彼此	-10.4734
無數劫	-10.4737
無依	-10.4738
菩提場	-10.4739
想念	-10.4744
無所生	-10.4746
表示一切法	-10.4747
參	-10.4748
志心	-10.4748
入胎	-10.4752
能調伏	-10.4755
常生	-10.4756
滿中	-10.4761
嫉	-10.4762
至真	-10.4763
作師子吼	-10.4763
大人相者	-10.4764
聖種	-10.4766
如金剛	-10.4768
嚴淨	-10.4769
供養於佛	-10.4774
爾時世尊	-10.4774
四十一	-10.4775
兩手	-10.4777
象王	-10.4785
如汝	-10.4786
諸菩薩摩訶薩等	-10.4786
利眾生	-10.4788
得度	-10.4788
耳根	-10.4792
諸佛之所	-10.4793
輪也	-10.4794
入息	-10.4797
寶德	-10.4799
住者	-10.4807
不解	-10.4809
迦國	-10.4812
施戒	-10.4813
魔言	-10.4815
方等	-10.4817
無受	-10.4817
諸寶	-10.4824
如是念	-10.4829
正信	-10.4832
惡眾生	-10.4837
何因	-10.4838
者名為	-10.4839
為護	-10.4839
大城	-10.484
修定	-10.4843
來者	-10.4845
勝菩提	-10.4846
是心	-10.4849
菩薩大士	-10.485
有四種	-10.4857
來世	-10.4859
自稱	-10.4884
事者	-10.4889
悉共	-10.4891
下方	-10.4899
眷屬圍遶	-10.49
善師	-10.4901
生者	-10.4904
普勇菩薩	-10.4907
無際	-10.491
分明	-10.4912
淨土	-10.4912
而現	-10.4913
謗毀	-10.4914
何以	-10.4917
性相	-10.4935
百四十	-10.4936
魔眷屬	-10.4938
住在	-10.4951
無厭足	-10.4957
以我	-10.4957
謂一切法	-10.496
聞正法	-10.496
不護	-10.4962
阿差末菩薩	-10.4968
不自知	-10.4968
分別說	-10.497
於佛法	-10.4975
有何	-10.4976
殿	-10.4979
皆來	-10.4981
說呪曰	-10.4989
時不空見	-10.4993
素	-10.4998
洗浴	-10.4999
屋	-10.5
何者是	-10.5002
愈	-10.5003
猴	-10.5004
憐	-10.5004
猶若虛空	-10.5005
賓	-10.5005
丘	-10.5006
納	-10.5006
大火	-10.5007
途	-10.5007
圍	-10.5007
片	-10.5007
說是語時	-10.5008
繩	-10.5008
供養如來	-10.5009
疏	-10.501
妻	-10.501
之苦	-10.501
然後乃	-10.501
果實	-10.501
弄	-10.5011
城邑聚落	-10.5012
悲泣	-10.5012
魚	-10.5012
題	-10.5013
傍	-10.5014
早	-10.5016
定慧	-10.5016
叉手	-10.5017
孫	-10.502
段	-10.502
!」「	-10.502
伏藏	-10.5021
雞	-10.5021
大劫	-10.5023
電光	-10.5024
藥叉	-10.5024
無有退轉	-10.5024
漸漸	-10.5025
徵	-10.5026
惡者	-10.5028
高座	-10.5029
辭無礙	-10.503
彌勒菩薩摩訶薩	-10.5034
病人	-10.5034
天眾	-10.5038
三昧正受	-10.5043
千由旬	-10.5044
無量菩薩	-10.5044
慧命	-10.5045
一切諸眾生	-10.5046
弘誓	-10.5046
是名正見	-10.5054
無形	-10.5054
演說法	-10.5055
持禁戒	-10.5057
日藏	-10.506
弊惡	-10.5061
三惡趣	-10.5069
無病	-10.5071
故言	-10.5074
不可數	-10.5075
和上	-10.5076
知此	-10.5077
異學	-10.5078
可意	-10.5079
能見	-10.508
不思議事	-10.5093
是虛空藏菩薩摩訶薩	-10.5102
三月	-10.5108
空行	-10.5108
其地	-10.5111
而得自在	-10.5113
踊躍	-10.5113
能調	-10.5116
修慈	-10.5117
諸入	-10.512
所問經	-10.512
一塵	-10.5122
如是名為	-10.5124
愛語	-10.5127
無增減	-10.5131
意止	-10.5143
毘婆	-10.5151
無量劫	-10.5158
在世	-10.5162
悉是	-10.5165
於往昔	-10.5167
當觀	-10.5173
慧力	-10.5174
淨於	-10.5175
退轉	-10.5176
如日	-10.5177
根性	-10.5178
諸聲聞眾	-10.5179
護戒	-10.5182
不忍	-10.5182
諸禪	-10.5183
有三種	-10.5187
為因	-10.5192
之門	-10.5195
可見	-10.5197
能令一切	-10.5201
之地	-10.5202
所興	-10.5207
無本	-10.5207
佛於是	-10.5207
受行	-10.5209
或在	-10.522
勿令	-10.5231
在彼	-10.5232
病者	-10.5242
心始	-10.5248
即是精進	-10.525
淳	-10.5278
僧物	-10.5285
知法	-10.5289
諸惡業	-10.5292
勤加	-10.5294
大威德	-10.5297
勸化	-10.53
婁	-10.5303
唐	-10.5304
又此精進	-10.5304
奉獻	-10.5309
象馬	-10.531
誤	-10.5312
諷誦	-10.5312
房宿	-10.5312
他化自在天	-10.5313
雄	-10.5314
迎	-10.5317
魔王波旬	-10.5317
泣	-10.5317
恥	-10.5318
僕	-10.5318
聞是語已	-10.5318
自在力	-10.5319
狼	-10.5319
吐	-10.5319
焉	-10.532
塵垢	-10.532
踰	-10.5321
長養	-10.5322
喪	-10.5323
算數	-10.5323
五事	-10.5324
四聖諦	-10.5324
羸劣	-10.5325
常與	-10.5325
富樓那	-10.5326
沸	-10.5326
冀	-10.5327
抱	-10.5328
栽	-10.5328
枉	-10.5328
頸	-10.5329
我念往昔	-10.5329
而說頌	-10.5329
食噉	-10.5329
如上所說	-10.5332
疫病	-10.5332
厭患	-10.5334
恭敬合掌	-10.5336
例	-10.5339
醫王	-10.5339
作是思惟	-10.534
首楞嚴三昧	-10.534
大名稱	-10.5342
歸於	-10.5343
合會	-10.5343
助歡喜	-10.5343
變異	-10.5347
何等為八	-10.5349
大集會正法	-10.5351
宿命智	-10.5352
故當知是忍	-10.5372
死時	-10.5376
現種種	-10.5384
高下	-10.5386
因緣生	-10.5386
長短	-10.5391
普為	-10.5392
若菩薩摩訶薩	-10.5396
此娑婆世界	-10.5399
發於	-10.5399
能得成就	-10.54
無依行	-10.54
生信	-10.5408
往生	-10.5409
那國	-10.5415
恩愛	-10.5417
色如	-10.5419
五趣	-10.5419
苦報	-10.542
寶性	-10.5441
伺察者	-10.5441
樂行	-10.5444
力能	-10.5445
小乘	-10.5445
上方	-10.5445
之福	-10.5448
此剎	-10.5452
悉入	-10.5455
毀禁	-10.5456
百劫	-10.546
於閻浮提	-10.5462
光照	-10.5466
今以	-10.5466
所著	-10.5469
知我	-10.5472
不能盡	-10.5473
所宣	-10.5474
如是相	-10.548
又言	-10.5486
若有能	-10.5491
觀心	-10.5494
而不能	-10.5501
欲入	-10.5503
佛教	-10.5515
雜色	-10.552
心得自在	-10.5523
除斷	-10.5527
大德世尊	-10.5533
共住	-10.5533
如是無量	-10.5536
燒然	-10.5544
五無間	-10.5547
耶婆	-10.5552
令離	-10.5554
正修行	-10.5559
不合	-10.556
菩提樹	-10.5564
觀音	-10.557
卒	-10.5576
能壞一切	-10.5583
茲	-10.5599
黠	-10.5602
諸佛剎土	-10.5606
離相	-10.5606
防	-10.5609
亦不得	-10.5616
法光明	-10.5617
便能	-10.5618
推	-10.5622
輕毀	-10.5623
不修	-10.5627
醫	-10.5627
焚	-10.5628
惡獸	-10.5629
乃得名戒	-10.5629
無明闇	-10.5629
吾今	-10.5631
藥上菩提薩埵	-10.5634
仗	-10.5635
貝	-10.5636
聾	-10.5636
復得	-10.5637
王舍大城	-10.5638
浴	-10.5638
竪	-10.5638
頭面禮足	-10.5638
狂亂	-10.5639
潔	-10.5639
菴	-10.5639
及其眷屬	-10.5639
逮成佛道	-10.564
療	-10.564
頻婆娑羅王	-10.5641
命終之後	-10.5641
鳴	-10.5642
胃	-10.5643
不貪著	-10.5643
較	-10.5643
群黎	-10.5643
苗稼	-10.5643
羅睺羅阿修羅王	-10.5643
延	-10.5644
錯	-10.5644
愍哀	-10.5644
叢林	-10.5645
戶	-10.5645
慳悋	-10.5645
修忍	-10.5645
學是三昧	-10.5646
五濁惡世	-10.5646
斯陀含	-10.5646
務	-10.5646
支提	-10.5647
聞其	-10.5647
耗	-10.5648
牢獄	-10.5649
人非人	-10.5653
如說修行	-10.5654
止息	-10.5656
安隱快樂	-10.5656
牀	-10.5658
五千	-10.566
若曹	-10.5662
奢摩	-10.5663
發露	-10.5663
徒眾	-10.5664
如影	-10.5665
悉來	-10.5673
四法	-10.5674
白衣	-10.5676
信力	-10.5678
若為	-10.5678
正直	-10.5679
或有地獄	-10.5681
希利	-10.5684
超過	-10.5685
繫念	-10.5687
又能	-10.5691
如佛所說	-10.5691
有大威德	-10.5692
容受	-10.5699
聖母	-10.5703
諸物	-10.5705
於空中	-10.5708
國中	-10.571
寶手	-10.5717
眾生性	-10.5728
諸山	-10.5732
當得阿耨多羅三藐三菩提	-10.5732
饒	-10.5734
此間	-10.5734
聖教	-10.5734
甚深經典	-10.5739
設有	-10.575
得此三昧	-10.5755
施設	-10.5757
願行	-10.576
多人	-10.5761
六十二	-10.5767
經卷	-10.578
現在諸佛	-10.5782
當生	-10.5782
如是大悲	-10.5792
藍	-10.5794
可知	-10.5795
難思	-10.5805
先世	-10.5812
來詣	-10.5816
則能為	-10.5817
退沒	-10.5829
等言	-10.583
智海	-10.5837
依法	-10.584
苦海	-10.5841
如本	-10.5842
闍羅	-10.5842
優波	-10.5843
眾魔	-10.5856
若斯	-10.5858
欲聞	-10.5861
如法住者	-10.5862
摧滅	-10.5865
豐饒	-10.5873
慧明	-10.5878
當如是	-10.5883
下至	-10.5885
不具	-10.5887
是觀	-10.589
中出	-10.5892
諸佛菩薩	-10.5893
聞此三昧	-10.5895
不計	-10.5904
為善知識	-10.5905
攝心	-10.5907
一切法中	-10.5909
無有我	-10.5911
猶如大海	-10.5915
方面	-10.592
千年	-10.5926
三惡	-10.5931
無欲	-10.5931
佛事	-10.5937
如是甚深	-10.5943
大論	-10.595
生死罪	-10.5963
真如故則	-10.5964
閻羅	-10.5965
毀辱	-10.5965
慈悲心	-10.5968
不雜	-10.5968
祐	-10.5969
咎	-10.5969
偷盜	-10.5969
棄捐	-10.5971
悅豫	-10.5972
截	-10.5972
無二無別	-10.5973
瑕	-10.5973
是則名為	-10.5974
州	-10.5974
復說偈言	-10.5974
婢	-10.5975
彰	-10.5976
不可樂想	-10.5976
在在處處	-10.5977
保	-10.5978
陰入界	-10.5978
塔廟	-10.5978
駄	-10.5979
擾	-10.5979
羣	-10.598
如法而住	-10.598
障蔽	-10.5981
係	-10.5981
各自	-10.5983
錢	-10.5984
諮問	-10.5985
謬	-10.5987
當復	-10.5989
由是因緣	-10.5989
活命	-10.5989
目連	-10.599
宣揚	-10.5993
不識	-10.5994
瞋恨	-10.5997
非想非非想處	-10.6001
皆應供養	-10.6001
資具	-10.6002
都無	-10.6002
是慈	-10.6009
不能動	-10.6016
歡樂	-10.6017
非法器	-10.6017
唱言	-10.6019
乃至意	-10.603
惡龍	-10.6034
諸惡眾生	-10.6035
一切皆得	-10.6041
涅槃樂	-10.6047
十五日	-10.6048
無價	-10.6057
無生法忍	-10.6058
上首	-10.606
九十九	-10.6063
安忍	-10.6083
不可取	-10.6083
無命	-10.6087
此閻浮提	-10.6089
一毛孔	-10.6094
有如是等	-10.6113
及彼	-10.6115
大光	-10.6116
凡有	-10.6118
無間地獄	-10.613
速證	-10.6131
諸病	-10.6137
與彼	-10.6139
諸惡趣	-10.6148
正住	-10.6151
如我所	-10.6156
皆悉平等	-10.6157
定根	-10.616
不懈	-10.6161
亦悉	-10.6162
為首	-10.6177
修善法	-10.6177
又見	-10.6182
性空	-10.6189
諸通	-10.6191
作何	-10.6194
猶如幻	-10.6203
之形	-10.6213
如海	-10.622
不害	-10.6222
善分別	-10.6223
海水	-10.6224
有為法	-10.6232
甚大	-10.6236
知恩	-10.6236
法幢	-10.6239
誘	-10.6246
於聲聞乘	-10.6249
我欲	-10.6252
諸佛土	-10.6252
大集會	-10.626
少欲	-10.626
幻化	-10.6263
觀世音菩薩	-10.6267
見諸法	-10.6269
軟	-10.6273
不欲	-10.6278
一切佛剎	-10.6283
是故名	-10.6289
所演	-10.6293
業因緣	-10.6298
堅住	-10.6301
更有	-10.6304
得阿羅漢果	-10.6305
隨所在處	-10.6306
頻	-10.6309
正智	-10.6309
從坐而起	-10.631
摩醯首羅	-10.6312
剛	-10.6315
縣	-10.6315
何謂菩薩	-10.6315
竊	-10.6315
煩	-10.6316
知諸眾生	-10.6317
周旋	-10.6317
是則名戒	-10.6318
殘	-10.6319
牢固	-10.6319
崖	-10.632
質直	-10.632
蠱	-10.6321
雅	-10.6321
錄	-10.6321
等無有異	-10.6321
渴仰	-10.6322
氏	-10.6322
綿	-10.6323
齒	-10.6323
式	-10.6324
侶	-10.6324
於虛空	-10.6324
兼	-10.6324
不安	-10.6325
旦	-10.6326
月滿	-10.6326
咤	-10.6326
綺語	-10.6326
夜摩天	-10.6327
饑	-10.6328
星生者	-10.6328
均	-10.6329
豪	-10.6329
喜悅	-10.6329
射	-10.633
絰	-10.633
翳	-10.6331
夜叉大將	-10.6332
陰界入	-10.6333
親近善友	-10.6335
乖	-10.6337
五蓋	-10.6339
墮落	-10.634
娑婆界	-10.6342
如意珠	-10.6344
受諸苦惱	-10.6349
世中	-10.6351
它	-10.6351
諸天世人	-10.6352
燒香	-10.6357
必得	-10.6358
輕重	-10.636
得聞如是	-10.636
摩頂	-10.6365
生死流轉	-10.6368
第九	-10.6374
魔怨	-10.6375
威神力故	-10.6381
備悉	-10.6383
餘乘	-10.6386
為他說法	-10.6388
於彼國土	-10.6391
問如來	-10.6394
蓮華上	-10.6395
六通	-10.6401
一切世界	-10.6408
四攝法	-10.6411
亦與	-10.6414
汝若	-10.6416
無上大乘	-10.6428
然彼	-10.6433
無智	-10.6436
知識無	-10.6438
聞此法門	-10.6445
四無畏	-10.6453
我今欲	-10.6461
自謂	-10.6464
勤作者	-10.6465
而出	-10.6467
攝持	-10.6467
若法	-10.6471
陀羅尼門	-10.6472
般	-10.6474
那羅	-10.6476
囉婆	-10.6484
成就無量	-10.6487
其順法者	-10.6487
眼目	-10.6495
一切勇猛	-10.6496
菩薩持戒	-10.6499
淨妙	-10.6499
唯見	-10.6525
向佛	-10.653
自修	-10.6532
一字	-10.6534
得脫	-10.6541
)「	-10.6558
慧眼	-10.6561
未能	-10.6561
若念	-10.6566
正語	-10.6571
勝智	-10.6571
相似	-10.6572
諸趣	-10.6583
彼諸菩薩	-10.6583
功德天	-10.6588
一日合	-10.6593
惡相	-10.6594
廣宣	-10.6604
遠離於	-10.6606
三行	-10.6609
二邊	-10.661
轉增	-10.6612
皆同	-10.6615
五戒	-10.664
見他	-10.664
法音	-10.6642
群	-10.6651
一切諸佛世尊	-10.6654
睡	-10.6656
為斷	-10.6657
翅	-10.6659
即與	-10.6659
眾生心行	-10.6661
佛告梵王	-10.6663
無憂	-10.6663
定力	-10.6667
憍尸迦	-10.6668
捐	-10.667
穢濁	-10.667
正觀	-10.6673
莊	-10.6673
獨步	-10.6675
惡毒	-10.6675
昏	-10.6675
藉	-10.6677
擇	-10.6678
紹	-10.6678
卷第一	-10.6679
㝹	-10.6679
喚	-10.668
仍	-10.6682
附	-10.6682
人中尊	-10.6682
閻	-10.6682
糞	-10.6682
拔濟	-10.6683
斗	-10.6683
麥	-10.6683
結加趺坐	-10.6683
鬚	-10.6685
獻	-10.6685
又發起者	-10.6685
得法眼淨	-10.6685
繫屬	-10.6686
紅	-10.6686
剎利旃陀羅	-10.6687
非想	-10.6688
不可窮盡	-10.6689
獲得如是	-10.6689
微細	-10.6689
罪苦眾生	-10.6689
不證	-10.6691
怨家	-10.6693
願向菩提	-10.6693
汝今當知	-10.6694
無物	-10.6697
恒河沙數	-10.6698
可畏	-10.6701
九十五	-10.6702
惡言	-10.6703
由是	-10.6704
山林	-10.6707
菩薩摩訶薩成就此輪	-10.6709
實非	-10.671
非常	-10.6712
能除斷	-10.6712
觀眾生	-10.6712
彼則	-10.6714
一切諸來大眾	-10.6717
猶如金剛	-10.6718
堪忍	-10.6718
禪思	-10.6719
汝等應當	-10.672
所觀	-10.672
所得功德	-10.6722
佛告舍利弗	-10.6723
悔過	-10.6726
惡習	-10.6727
汝能	-10.6727
風雨	-10.6731
知色無	-10.6732
數量	-10.6734
六種	-10.6737
大捨	-10.6738
真善剎利	-10.6741
不疑	-10.6742
所因	-10.6745
正勤	-10.6754
無有障礙	-10.6759
陀利	-10.6763
十千	-10.677
限量	-10.677
劫名	-10.6771
火燒	-10.6773
所出	-10.6777
深義	-10.6789
主命	-10.6794
受眾苦	-10.6797
一切眾會	-10.6797
以神力	-10.6802
能分別	-10.6816
忍力	-10.6817
或見	-10.6819
彼岸故	-10.6822
說三乘	-10.6826
除一切	-10.6828
眾生煩惱	-10.683
善丈夫	-10.6831
亦見	-10.684
能使	-10.6853
淨光	-10.6854
則無有	-10.6855
眾多	-10.6856
天帝	-10.6862
誰當	-10.6862
度彼岸	-10.6866
不輕	-10.6869
月光	-10.6873
光明照	-10.6886
為汝說	-10.6894
垢穢	-10.6894
能降	-10.6897
出現	-10.6902
現作	-10.6906
苦集	-10.6907
復見	-10.6911
念力	-10.6911
敘	-10.6914
口中	-10.6927
又云	-10.693
諸禪定	-10.6939
紫	-10.694
此諸眾生	-10.6948
又其	-10.695
詣彼	-10.6952
昴宿	-10.6955
放光明	-10.6956
辟	-10.6959
如幻化	-10.6963
說法師	-10.6966
之內	-10.6971
真金	-10.6976
功德聚	-10.6981
婁宿	-10.6983
大富	-10.6986
思量	-10.6992
皆因	-10.6992
初心	-10.6997
無障	-10.6999
彼佛世界	-10.6999
進退	-10.7
未生	-10.7
于時	-10.7001
所覆	-10.7002
大罪	-10.7005
張宿	-10.7006
莎波呵	-10.7016
有一人	-10.7022
氐宿	-10.7023
滓	-10.7024
斗宿	-10.7024
自言我無罪	-10.7026
誨	-10.7027
是為賢聖之正見也	-10.7029
柳宿	-10.703
之要	-10.7036
眠	-10.7037
呬	-10.7038
村	-10.7039
虎狼	-10.7039
怕	-10.7039
厄	-10.704
瑕穢	-10.7042
非處	-10.7043
作是語已	-10.7043
習行	-10.7044
皆應	-10.7044
虛宿	-10.7044
鮮	-10.7044
摸	-10.7044
吞	-10.7044
良藥	-10.7045
虛偽	-10.7045
藪	-10.7045
泡	-10.7045
則知	-10.7046
要言之	-10.7047
嘆	-10.7047
行住坐臥	-10.7047
以是緣故	-10.7048
苑	-10.7048
坑	-10.7048
願樂欲聞	-10.7049
寺舍	-10.7049
閻浮洲	-10.705
愆	-10.7051
陣	-10.7051
府	-10.7051
單	-10.7053
退坐一面	-10.7053
憒閙	-10.7054
祥	-10.7054
逼迫	-10.7054
覆蔽	-10.7055
以如是等	-10.7055
仇	-10.7056
白彼佛言	-10.7056
祕	-10.7056
懃	-10.7056
擾亂	-10.7057
跪	-10.7057
乃至迦吒富單那	-10.7057
不苦不樂	-10.7058
闡	-10.7063
造惡業	-10.7063
衣服飲食	-10.7065
雖知	-10.7065
悉具足	-10.7066
作大福田	-10.7067
菩提樹下	-10.707
瞋忿	-10.707
日密	-10.707
總示	-10.7071
諸菩薩問佛	-10.7071
聽許	-10.7071
大海水	-10.7072
滿足六波羅蜜	-10.7072
發勤精進	-10.7075
忽然	-10.7075
聰慧	-10.7078
具大慈悲	-10.7081
勤修精進	-10.7084
乃是	-10.7086
青色	-10.7087
常求	-10.7087
現在未來	-10.7088
入於涅槃	-10.7088
威光	-10.7089
於三乘	-10.7091
不隨他	-10.7101
十方一切	-10.7104
供養諸佛	-10.7109
穢惡	-10.7112
城中	-10.7113
爾乃	-10.7123
大水	-10.7124
墮三惡道	-10.7129
眼見	-10.713
誦經	-10.7131
守護供養	-10.7132
半月	-10.7133
俗人	-10.7145
命根	-10.7147
俱共	-10.7151
得菩提時	-10.7151
大道	-10.7159
所有功德	-10.716
無學	-10.7169
知苦	-10.7172
廣說乃至	-10.7174
蘇摩	-10.72
毘羅	-10.7202
樂寂靜	-10.7212
知一切法無	-10.7214
即不能	-10.7215
塵欲	-10.7223
或求	-10.7224
之功	-10.7232
菩薩摩訶薩亦復如是	-10.7233
意力	-10.7233
得受記	-10.7236
如風	-10.7237
作是說	-10.7248
令彼眾生	-10.7249
無減	-10.7259
動搖	-10.7262
乾闥婆等	-10.7279
是初發	-10.728
三日合	-10.7285
佐	-10.7287
調柔	-10.7294
不喜	-10.7294
盡滅	-10.7307
常能	-10.7321
那由他百千	-10.7329
四十四	-10.7335
使我	-10.7338
時舍利弗	-10.7343
胡	-10.7344
真正	-10.7345
於無量劫	-10.7346
二百	-10.7368
眾中有一	-10.7369
不絕	-10.7373
渧	-10.7375
各異	-10.738
千俱胝	-10.7389
競	-10.739
不眴菩薩	-10.74
可謂	-10.7401
種類	-10.7402
諦觀	-10.7403
心如實知	-10.7403
攝護養育	-10.7405
復令	-10.7409
從座起	-10.7414
迫	-10.7416
說偈言	-10.7418
一處	-10.7418
田宅	-10.7419
以權方便	-10.742
哭	-10.7421
困	-10.7422
耳聞	-10.7422
殑伽沙數	-10.7423
掉	-10.7424
謫罰	-10.7424
奈	-10.7425
第	-10.7426
村落	-10.7426
屈	-10.7426
所集	-10.7426
盧遮那	-10.7427
枯涸	-10.7428
優鉢羅	-10.7429
託	-10.7429
雹	-10.743
耽	-10.743
壯	-10.743
繞	-10.743
增上慢	-10.7431
按	-10.7431
案	-10.7431
軌	-10.7431
日用事	-10.7432
覲	-10.7432
童男童女	-10.7433
損耗	-10.7433
為重明此義	-10.7433
漿	-10.7433
憎愛	-10.7434
騰	-10.7434
無覺	-10.7434
貪心	-10.7436
工巧	-10.7436
侵奪	-10.7436
資財	-10.7437
借	-10.7439
羅婆國	-10.7439
伽樓羅	-10.744
遊步	-10.744
淫	-10.7441
醜	-10.7442
飽	-10.7442
以偈讚	-10.7442
作是觀已	-10.7443
呪術	-10.7443
佛問諸菩薩	-10.7444
我今以彼	-10.7444
裂	-10.7445
菩薩成就四法	-10.7445
屋宅	-10.7445
畵	-10.7445
大梵王	-10.7446
寶坊	-10.7446
華嚴	-10.7446
商主	-10.7446
授阿耨多羅三藐三菩提記	-10.7447
黑暗	-10.7448
大寶坊中	-10.7449
化樂天	-10.745
娑婆呵	-10.7451
名為淨印	-10.7452
栴檀香	-10.7453
即從坐起	-10.7453
優波離	-10.7453
尸利	-10.7453
神呪	-10.7453
超勝一切聲	-10.7454
不須	-10.7456
我曹	-10.7459
二子	-10.7459
有八萬四千	-10.7459
乾陀	-10.7461
毒藥	-10.7464
報恩	-10.7469
帝釋天	-10.7471
希求	-10.7473
釋子	-10.7477
了達	-10.7477
天華	-10.7477
我反	-10.7478
演說正法	-10.7481
如響	-10.7481
梵音	-10.7486
作沙門	-10.7486
世尊聲聞弟子	-10.7492
種樹	-10.7496
方所	-10.7496
念誦	-10.75
祭之	-10.7501
以用	-10.7502
佛國土	-10.7504
檀那	-10.7504
名如法住	-10.7504
菩提分法	-10.7505
一切諸法亦復如是	-10.752
達摩	-10.7521
聞經	-10.7524
惡不善法	-10.7527
戒禁	-10.7527
同名	-10.753
何等為三	-10.7532
道路	-10.7533
一由旬	-10.7533
世世	-10.7535
化人	-10.7541
世事	-10.7542
普為一切	-10.7544
修菩提	-10.7552
處非處	-10.7553
值佛	-10.7554
通利	-10.7557
不空見菩薩	-10.7562
七種	-10.7562
亦說無	-10.7564
故不可盡	-10.7568
得大自在	-10.7576
向彼	-10.7576
受安樂	-10.7582
樂求	-10.7588
遙見	-10.7588
從本	-10.7592
尚不能	-10.7594
不墮惡道	-10.7597
九十六	-10.7606
自思惟	-10.7609
離散	-10.761
盡力	-10.7615
平等無二	-10.7617
皆發阿耨多羅三藐三菩提心	-10.7618
無有疑	-10.7619
無我我所	-10.763
惡報	-10.7633
善不善	-10.7637
十方諸	-10.7653
非離	-10.7654
三受	-10.7659
四十六	-10.7671
海中	-10.7694
無量劫中	-10.7696
百萬	-10.7705
於佛所	-10.7712
妙華	-10.7715
於諸如來	-10.7718
滅無餘	-10.774
所遊	-10.7741
阿鼻	-10.7749
無邊身	-10.7762
天人大眾	-10.7769
勝三昧	-10.7772
友	-10.7776
欲貪	-10.7779
口言	-10.7779
性即是	-10.778
瞋心	-10.7781
順法	-10.7782
水中	-10.7795
能作如是	-10.7799
調眾生	-10.7808
無量眾	-10.7811
駈	-10.7816
擯	-10.7818
珊瑚	-10.7818
才	-10.7819
八十四	-10.7822
暉	-10.7823
涅槃之道	-10.7824
善觀作王	-10.7824
溢	-10.7824
叵	-10.7825
使令	-10.7826
旃	-10.7827
我於彼	-10.7827
疲	-10.7828
胸	-10.7828
筋	-10.7828
髻	-10.7829
能到	-10.7829
揵	-10.783
四天下中	-10.783
=	-10.783
摩伽陀國	-10.7831
夙	-10.7831
科	-10.7832
佛告藥上菩提薩埵	-10.7832
辰	-10.7832
富伽羅	-10.7832
誐	-10.7833
拜	-10.7833
悕	-10.7833
慈悲喜捨	-10.7833
如意寶珠	-10.7835
所獲福聚	-10.7836
細軟	-10.7836
而出家者	-10.7836
謙	-10.7837
融	-10.7837
却坐一面	-10.7838
真善剎帝利王	-10.7838
犯根本重罪	-10.7838
法句	-10.7839
賀	-10.784
呵罵	-10.7841
花鬘	-10.7841
較量	-10.7843
伺察門	-10.7843
佉羅	-10.7844
無上大	-10.7844
多地也他	-10.7845
敷演	-10.7845
根源	-10.7845
良醫	-10.7845
潛	-10.7846
天龍八部	-10.7846
恒河沙等諸佛世界	-10.7846
勝上	-10.7849
教誨	-10.785
雜染	-10.7853
毒害	-10.7853
萬歲	-10.7854
此界	-10.7855
音響	-10.7855
受持讀誦書寫	-10.7855
尊貴	-10.7858
既得	-10.7865
此三摩地	-10.7867
謝過	-10.7869
無處所	-10.787
不思	-10.7874
哂	-10.7874
發言	-10.7879
盛滿	-10.7887
定自在王	-10.7889
婬欲	-10.7896
請問如來	-10.7896
佛威神	-10.7898
一渧	-10.7901
其名曰	-10.7905
不眴	-10.7905
財利	-10.7906
佛法僧	-10.7908
百福	-10.791
阿羅漢果	-10.7917
何等法	-10.7926
合掌而	-10.7926
閻浮眾生	-10.7926
喻如	-10.793
眼色	-10.7941
必定	-10.7942
受持正法	-10.7944
四面	-10.7947
堅持	-10.7956
何者為	-10.7959
若男	-10.796
智光	-10.7976
相違	-10.7982
愚人	-10.7986
眼根	-10.7988
無有邊	-10.7989
於一切處	-10.7991
末世	-10.7992
散滅	-10.7998
苦受	-10.7999
死苦	-10.8011
其中眾生	-10.8013
更相	-10.8017
布施供養	-10.8027
利根	-10.8033
教勅	-10.8052
或復有	-10.8053
智慧莊嚴	-10.8054
眾病	-10.8056
而彼菩薩	-10.8058
一向	-10.8062
法炬	-10.8067
一月	-10.8067
於善法	-10.8068
於大乘法	-10.8078
遍知	-10.8088
一切人民	-10.8102
眾生之類	-10.8106
天衣	-10.8108
諸魔眾	-10.8114
所有善根	-10.8119
賢者	-10.8135
彼等眾生	-10.8139
四十八	-10.8141
度世	-10.8142
大丈夫	-10.8144
無盡意菩薩	-10.8148
癡人	-10.8149
諸佛剎	-10.8159
妙寶	-10.8159
舍婆	-10.8162
參宿	-10.8169
失行	-10.8172
弊	-10.8183
道意	-10.8188
字句	-10.819
搖	-10.8192
釋迦牟尼	-10.8194
摩呵	-10.8203
讖	-10.8203
常為一切	-10.821
十方界	-10.8215
顏	-10.8223
祀	-10.8225
承他音	-10.8229
閒	-10.8235
謝	-10.8236
疲惓	-10.8236
菩	-10.8237
芽	-10.8237
證菩提	-10.8238
嗔	-10.8238
童真	-10.8239
於諸佛所	-10.8243
無缺	-10.8243
諸佛境界	-10.8243
懈倦	-10.8243
嶮	-10.8244
駕	-10.8245
膝	-10.8246
淨居天	-10.8246
目揵連	-10.8247
選擇	-10.8247
玉	-10.8248
寬	-10.8248
安詳	-10.8248
浪	-10.8248
決擇	-10.8249
生希有心	-10.8249
總𠢕王菩薩	-10.825
為他人說	-10.8251
梯	-10.8252
堅強	-10.8253
法性爾	-10.8253
昴	-10.8255
泰	-10.8256
改	-10.8256
局	-10.8256
於三寶中	-10.8256
阿耨	-10.8256
渴愛	-10.8256
頻婆羅	-10.8257
梁	-10.8258
八聖道分	-10.8258
汝今諦聽	-10.8258
不可稱	-10.8258
灌	-10.8259
恒河	-10.8261
善權方便	-10.8262
春	-10.8262
南閻浮提	-10.8263
簡	-10.8263
剛強	-10.8266
湯	-10.8266
譬如大海	-10.8267
滅定	-10.8268
美味	-10.827
說是偈已	-10.827
彈	-10.8271
三摩地門	-10.8272
猛利	-10.8274
未來現在	-10.8276
邪論	-10.8276
若有男子女人	-10.8276
何等為五	-10.8277
逼切	-10.8277
獲大	-10.8281
朱	-10.8283
四十九	-10.8285
如是經典	-10.8287
兵眾	-10.8287
居家	-10.8288
弗沙	-10.8289
不妄置立	-10.8289
梵釋	-10.829
不學	-10.8293
得其便	-10.8294
毀犯	-10.8296
如是觀已	-10.8297
於一念頃	-10.8297
無有邊際	-10.8298
七星	-10.83
除其	-10.8301
承事供養	-10.8301
聽受正法	-10.8305
逼惱	-10.8306
魔法門	-10.8307
諸妙	-10.8312
別異	-10.8314
前際	-10.8317
柔順	-10.8321
滅壞	-10.8326
神通變化	-10.8328
過去佛	-10.833
牛王	-10.833
說此陀羅尼	-10.8335
憂苦	-10.834
諸三摩地	-10.8342
空性	-10.8343
是真	-10.8343
大迦葉	-10.835
胡麻	-10.8351
微塵等	-10.8351
不順	-10.8355
四十三	-10.8359
五十三	-10.8361
得未曾有	-10.8363
生死河	-10.8367
佛神力故	-10.8369
脫門	-10.8373
尋即	-10.8377
流轉生死	-10.8378
起大悲心	-10.8384
極惡	-10.8391
種種莊嚴	-10.8399
即名為	-10.8399
將來	-10.8406
則無所	-10.8413
其心清淨	-10.8421
五神通	-10.8432
善女人等	-10.8444
眾事	-10.8451
之文	-10.8451
先當	-10.8454
諸人天	-10.8454
不還	-10.846
繫心	-10.8463
者即是無	-10.8466
欲令眾生	-10.8478
常勤	-10.8483
大梵天	-10.849
婆利	-10.8492
一切人天	-10.85
所說正法	-10.8502
修梵行	-10.8504
如來十力	-10.8508
百三十	-10.8508
種種華	-10.8509
聲聞獨覺	-10.8516
受諸苦	-10.8521
菩薩乘	-10.8535
無量阿僧祇劫	-10.8536
是名為慧	-10.8539
僧眾	-10.8539
十由旬	-10.8541
大神力	-10.8547
亢宿	-10.8548
大龍	-10.8549
龍神	-10.855
義無礙	-10.8552
文句	-10.8559
一一皆	-10.856
一切諸行	-10.8573
入城	-10.8573
捨身命	-10.8585
無差	-10.859
不敬	-10.8596
出世法	-10.8603
不足	-10.8604
必有	-10.8615
念根	-10.8619
大千	-10.8623
出要	-10.8625
井宿	-10.8628
聖智	-10.8628
修行布施	-10.8628
所立	-10.863
日輪	-10.8634
蘭	-10.8646
魔境界	-10.865
大海中	-10.8652
蓮	-10.8658
念慧	-10.8658
胃宿	-10.8662
為佛作禮	-10.8664
男夫婦女	-10.8666
非積聚不可	-10.8667
蓰	-10.867
藥上菩提薩埵摩訶薩埵	-10.8671
耆闍崛山	-10.8675
達囉	-10.8675
[	-10.8675
惹	-10.8676
鐵圍	-10.8676
幡	-10.8676
芽莖	-10.8676
阿須倫	-10.8678
考	-10.868
𦦨	-10.8681
到於彼岸	-10.8681
疲倦	-10.8681
儉	-10.8681
捷	-10.8682
艱	-10.8682
紹三寶種	-10.8682
能除一切	-10.8683
畢宿	-10.8684
天藏大梵	-10.8685
循	-10.8685
明識	-10.8685
羸	-10.8686
無上正等菩提	-10.8687
䫂	-10.8687
榮	-10.8687
繫閉	-10.8687
鮮潔	-10.8688
頑	-10.8688
剋	-10.8688
諮受	-10.8688
責	-10.8688
作是觀時	-10.8688
和雅	-10.8689
劇	-10.8689
咽	-10.8689
無所從來	-10.8689
澁	-10.8689
猪	-10.869
遠塵離垢	-10.869
秪	-10.8692
妨	-10.8692
最初	-10.8692
奇哉	-10.8692
幼	-10.8693
優波底沙	-10.8693
利益事	-10.8693
遲	-10.8694
深固	-10.8694
精還	-10.8694
涉	-10.8694
嗅	-10.8695
阿那含果	-10.8695
復有四事	-10.8696
蔽礙	-10.8696
爭	-10.8698
受勝妙樂	-10.8698
押	-10.8699
并諸眷屬	-10.87
蓮華座	-10.87
大乘大集地藏十輪經	-10.87
而度脫之	-10.8702
舉動	-10.8704
菩薩不退印	-10.8704
八聖道	-10.8704
聖賢	-10.8707
久近	-10.8707
三脫門	-10.8708
神通之力	-10.871
增進	-10.8711
奎	-10.8713
葛	-10.8714
三萬二千	-10.8715
童女	-10.8716
佛告寶女	-10.8717
罪過	-10.8718
雲集	-10.8718
諸菩薩報佛	-10.8724
陀摩	-10.8725
與諸眷屬	-10.8728
六情	-10.873
無自性	-10.8735
正法眼	-10.8737
經歷	-10.8738
於諸有情	-10.8745
身形	-10.8745
如是念已	-10.8747
華蓋	-10.8748
隨業	-10.8749
眾生發阿耨多羅三藐三菩提心	-10.8755
諸惡業障	-10.8755
而為供養	-10.876
諸國土	-10.8762
缺漏	-10.8763
染衣	-10.8765
般若波羅蜜多	-10.8767
普告	-10.8768
佛菩提	-10.8772
百千俱胝	-10.8772
善趣	-10.8776
無有差別	-10.878
自恣	-10.8781
憶想	-10.8784
照耀	-10.8788
恒河沙劫	-10.8794
一一眾生	-10.8802
財施	-10.8804
!』	-10.881
無上智	-10.8817
咸皆	-10.8818
獨處	-10.8819
佛子	-10.882
師子意	-10.8821
三品	-10.8823
為除	-10.883
復還	-10.8842
佛告阿難	-10.8846
救度	-10.8851
法行比丘	-10.8852
正命	-10.8853
閻浮提中	-10.8864
善現	-10.887
諸邪見	-10.8871
我母	-10.8873
地上	-10.8873
一類	-10.8874
妙好	-10.8875
一千	-10.8876
流出	-10.8878
大弟子	-10.8879
止住	-10.888
持用	-10.8888
假令	-10.8889
眾罪	-10.8889
濁惡	-10.8899
精進根	-10.8911
專心	-10.8911
四十七	-10.8915
大石	-10.8918
安止	-10.892
箕宿	-10.8924
伽藍	-10.8929
緣生法	-10.893
遮遮	-10.8938
獨覺乘法	-10.8938
一切法空	-10.894
諸如來所	-10.895
心所念	-10.8963
種種微妙	-10.8967
所謂識	-10.8975
行步	-10.8976
又於過去	-10.8981
迦葉佛	-10.8984
阿彌陀	-10.8989
鴦	-10.8989
六十億	-10.8994
深重	-10.8996
加害	-10.9002
耀	-10.9029
如須彌	-10.9041
為欲利益	-10.9044
勸令	-10.9044
會中有一菩薩	-10.9046
聽經	-10.905
轉復	-10.9054
翼宿	-10.9062
曹	-10.9064
悉來集	-10.9066
成菩提	-10.9087
諮	-10.9095
取證	-10.9097
心宿	-10.9099
危宿	-10.9103
佛輪	-10.9108
又其處者	-10.911
未曾聞	-10.9115
米	-10.9119
非想非非想	-10.9119
有能至心稱名	-10.912
大導師	-10.9122
惓	-10.9123
捺	-10.9126
傾	-10.9127
以天眼	-10.9127
是名聞聲	-10.9128
栗	-10.9128
恐畏	-10.913
斧	-10.9131
積累	-10.9131
牛頭栴檀	-10.9131
黎庶	-10.9131
▁41	-10.9132
滋	-10.9132
堪任摧壓	-10.9133
環	-10.9133
社	-10.9134
羅睺羅	-10.9134
稟	-10.9135
江河	-10.9136
鍾	-10.9136
后	-10.9137
啼	-10.9137
採	-10.9138
奇特	-10.9138
已到第一	-10.9138
四方僧物	-10.9138
蘇婆呵	-10.9139
不增不減	-10.9139
叫喚	-10.914
優曇	-10.914
賜	-10.914
惰	-10.9141
悳	-10.9143
披	-10.9144
穀米	-10.9144
滴	-10.9145
三摩跋提	-10.9145
盜賊	-10.9145
毘樓	-10.9146
教誡	-10.9146
後際	-10.9147
虛空孕菩薩摩訶薩	-10.9147
調戲	-10.9148
瑜伽	-10.9148
聖諦	-10.9149
閣	-10.9149
即告	-10.915
隱蔽	-10.9151
孤	-10.9151
屠	-10.9152
令彼佛土一切	-10.9152
慈氏	-10.9152
墮於惡道	-10.9153
朗	-10.9154
過去未來現在	-10.9155
醜陋	-10.9156
無與等	-10.9158
根本重罪	-10.9159
隔	-10.916
汦	-10.916
第四禪	-10.9161
諍競	-10.9161
住大乘	-10.9163
不求果報	-10.9163
一切五欲皆	-10.9165
了了知	-10.9168
長遠	-10.917
於三乘中	-10.9173
而自莊嚴	-10.9175
名譽	-10.9175
名瓔珞莊嚴	-10.9177
威神之力	-10.9181
波履婆	-10.9185
法界性	-10.9189
開顯	-10.9191
舍利弗問	-10.9192
者則無	-10.9194
來會	-10.9195
變為	-10.9195
毘沙門	-10.9197
自歸	-10.9197
審諦	-10.9208
四天王天	-10.9209
燈明	-10.9211
帝利	-10.9219
自守	-10.9224
不缺	-10.9232
無有住處	-10.9235
次復	-10.9247
分散	-10.9254
鬼宿	-10.9262
造立	-10.9264
一切諸龍	-10.9264
依怙	-10.9266
月藏	-10.9268
薩婆若	-10.9271
皆歡喜	-10.9281
恭敬禮拜	-10.9285
諸賢聖	-10.9285
幢相	-10.9287
奉施	-10.9297
梵眾	-10.9302
彼族姓子	-10.9303
微少	-10.9304
豈非	-10.9305
之所建立	-10.9308
無戲論	-10.9308
一分	-10.9309
得法忍	-10.931
三昧力故	-10.9311
無言說	-10.9314
智者所	-10.9315
平正	-10.9315
鈍根	-10.9317
知他心	-10.9317
之所行	-10.9321
最大	-10.9329
娑囉	-10.9332
若有眾生樂	-10.934
日月光	-10.9342
如是乃能	-10.9347
覆護	-10.9354
九十二	-10.9357
受苦惱	-10.936
汝等當	-10.9363
出家人	-10.9366
會中有一	-10.9378
道品	-10.9381
劫盡	-10.9383
受陰	-10.9388
前世	-10.9391
七財	-10.9394
摩摩	-10.9396
諸龍王	-10.9399
金剛䐡	-10.9401
靡	-10.9416
在會	-10.9419
觀諸眾生	-10.9422
到彼	-10.9423
淨信心	-10.9423
莊嚴其身	-10.9439
有菩薩名	-10.944
趣入	-10.9444
法念處	-10.9452
水界	-10.9455
住十地	-10.9467
惟佛	-10.9468
亦復不能	-10.9475
憐愍心	-10.9475
修供養	-10.949
善本	-10.949
不惜	-10.9493
婆帝	-10.9497
自境界	-10.9509
尚不	-10.9511
百八十	-10.9513
道果	-10.9516
誦持	-10.9528
說此法門	-10.9532
他心智	-10.9535
由此定	-10.9538
勝義	-10.954
虛空界	-10.9542
智慧方便	-10.9543
邪道	-10.9547
熱銕	-10.9552
闍那	-10.9554
奎宿	-10.9563
禮佛足	-10.9563
修第一義	-10.9567
欲塵	-10.9571
六種震動	-10.9571
懷大哀	-10.9572
』「	-10.9573
寶洲	-10.9574
所照	-10.9576
婆邏	-10.9582
次復置	-10.9582
具足最上第一	-10.9587
川	-10.9589
空閑	-10.959
供養地藏菩薩摩訶薩者	-10.9597
無覺觀	-10.9598
默然而住	-10.9602
菩薩得是	-10.9602
室宿	-10.9603
澄	-10.9605
寶星陀羅尼經	-10.9606
挍	-10.9606
鴦耆	-10.9606
稍	-10.9606
芬	-10.9606
繼	-10.9607
矜	-10.9607
怯	-10.9608
威儀禮節	-10.9609
姦	-10.9609
刑	-10.9609
銷	-10.9609
洞	-10.9609
弓	-10.961
朋黨	-10.961
佛爾時頌偈	-10.961
釋梵護世	-10.9612
利他	-10.9612
觜宿	-10.9612
却住一面	-10.9612
屎	-10.9613
卿	-10.9613
無等倫	-10.9614
疾疫	-10.9614
獲十種功德	-10.9615
見是事已	-10.9616
沓	-10.9617
籌	-10.9617
長跪合掌	-10.9617
讚嘆	-10.9618
憂波提舍	-10.9619
娑伽羅龍王	-10.9619
吾當為汝分別解說	-10.9619
若是法器	-10.9619
損害	-10.962
塚間	-10.962
首楞嚴	-10.962
貪瞋癡	-10.9621
伺	-10.9621
孝順	-10.9622
尠	-10.9622
齎	-10.9623
波頭摩	-10.9623
四如意足	-10.9624
月藏菩薩摩訶薩	-10.9625
幽冥	-10.9626
柱	-10.9626
南洲	-10.9627
進止	-10.9627
是慢業	-10.9627
得授記	-10.9628
忉利天宮	-10.9628
開悟	-10.9628
大菩提心	-10.9628
而供養之	-10.9629
泯	-10.963
無生滅	-10.9632
將養	-10.9634
鬬	-10.9635
洪	-10.9635
交露	-10.9638
尊重讚歎	-10.964
譏嫌	-10.964
惡夢	-10.964
地水火風	-10.9641
根原	-10.9641
三千大千世界六種震動	-10.9647
花樹	-10.9648
親屬	-10.9648
聞是佛名	-10.9648
尊敬	-10.9649
閑林	-10.9651
皆來集會	-10.9652
逆罪	-10.9653
六衰	-10.9653
因陀羅	-10.9654
正法久住	-10.9654
破戒比丘	-10.9657
不廢	-10.9657
發道意	-10.9659
閻羅王	-10.966
憶持	-10.966
四真諦	-10.966
歸依三寶	-10.9666
闍師	-10.9668
滿月	-10.967
若非法器	-10.9671
迦吒富單那等	-10.9672
理趣	-10.9679
此是菩薩摩訶薩	-10.9681
極重	-10.9684
從緣生	-10.9686
從他聞	-10.9691
父王	-10.9693
萬四千	-10.9694
為多不	-10.9702
正位	-10.9707
九種	-10.9724
大威力	-10.9734
并及	-10.9739
如其所	-10.9746
他世	-10.9749
財業	-10.9754
般遮	-10.9756
是誰	-10.9757
合成	-10.9763
無作無	-10.9766
火災	-10.977
歸依佛	-10.9775
之源	-10.9778
諍論	-10.9781
作是念已	-10.9784
發菩提	-10.9789
為諸眾生說	-10.9789
順從	-10.9789
其志	-10.979
金剛藏菩薩	-10.9797
造罪	-10.9798
大師子吼	-10.9807
好色	-10.9808
念過去	-10.9813
離諸惡	-10.982
此名能	-10.9841
清淨持戒	-10.9842
我曾	-10.9853
告不空見	-10.9868
身而為說法	-10.9877
六萬億	-10.9877
如法比丘	-10.9879
能摧	-10.9885
見釋迦牟尼佛	-10.9888
須知	-10.989
諸過失	-10.9897
違失	-10.991
舉身	-10.9915
迴向無上菩提	-10.9915
帝王	-10.994
重病	-10.9964
得見佛	-10.9988
此翻	-10.9996
十萬	-11.0015
不謗	-11.0019
生大歡喜	-11.0023
自致	-11.0032
果證	-11.0039
海印	-11.005
角宿	-11.0051
修治	-11.0054
生人中	-11.0059
跋陀和	-11.0073
倦	-11.0074
一切佛法亦	-11.0077
吟	-11.009
善惡業	-11.0095
辟宿	-11.0096
異口同音	-11.0102
安置生天	-11.0103
4	-11.0103
牛宿	-11.0103
貞	-11.0105
軀	-11.0107
真陀羅	-11.0107
說伽陀	-11.0108
娑婆世界主大梵天王	-11.0108
讁罰	-11.0108
尾宿	-11.0109
按云	-11.0109
甞	-11.011
群萌	-11.0111
珊	-11.0111
躬	-11.0112
傾動	-11.0112
抑	-11.0112
鳩槃荼	-11.0112
攬	-11.0112
犍	-11.0112
鄉	-11.0113
脂	-11.0113
無礙辯	-11.0114
詔	-11.0114
蚊	-11.0114
靡所不	-11.0114
爪	-11.0115
於汝意云何	-11.0115
有大勢力	-11.0116
刀兵	-11.0116
輕賤	-11.0116
歟	-11.0116
由延	-11.0116
峯	-11.0117
墮於惡趣	-11.0117
療治	-11.0117
兄	-11.0117
諸忍諸地	-11.0118
光味仙人	-11.0118
工	-11.0118
存亡	-11.0119
風吹	-11.012
腦	-11.012
敗壞	-11.012
兔	-11.0121
狹	-11.0122
柳	-11.0123
算數譬喻所不能及	-11.0123
崩	-11.0124
纏縛	-11.0124
淪	-11.0124
霧	-11.0125
誠諦	-11.0125
剃髮	-11.0126
央	-11.0126
金剛齊	-11.0126
鷹	-11.0127
杜	-11.0128
如是大悲出	-11.0128
孔	-11.0129
蜜低	-11.013
雜穢	-11.013
羂	-11.013
憑	-11.0131
如前所說	-11.0131
纔	-11.0132
再	-11.0132
及與眷屬	-11.0133
承佛神力	-11.0134
五無間罪	-11.0134
空無相無願	-11.0134
刃	-11.0135
不生驚怖	-11.0136
祖	-11.0137
坐道場	-11.0139
有為無為	-11.0139
端坐	-11.0142
給施	-11.0144
墮諸惡趣	-11.0144
眾華	-11.0146
齋日	-11.0146
短命	-11.015
水精	-11.0161
淳至	-11.0162
正典	-11.0166
諸世界中	-11.017
花香	-11.0172
不生憍慢	-11.0174
倒見	-11.0178
離惡道	-11.0181
復有二種	-11.0182
聲聞之人	-11.0188
高廣	-11.0191
而行布施	-11.0192
能為眾生	-11.0192
氣力	-11.0192
開解	-11.0195
成法器	-11.0196
三十二事	-11.0198
佛形像	-11.02
救世	-11.0201
即是佛智	-11.0209
以此善根	-11.0213
四梵行	-11.0214
六道眾生	-11.0217
復以種種	-11.0225
所獲功德	-11.0231
光顯	-11.0233
色陰	-11.0237
開化眾生	-11.0238
得無所畏	-11.0245
當得成佛	-11.0245
不可壞	-11.0258
設供養	-11.0263
為欲欲	-11.0263
於此正法	-11.0272
跋陀	-11.0272
囉闍	-11.0275
入于	-11.0278
說此經	-11.0279
鴦伽	-11.0286
菩薩不共法	-11.0293
能淨於	-11.0293
佛告一切勇	-11.0297
妄言	-11.0298
阿難陀	-11.0304
難陀龍王	-11.0305
我弟子	-11.0313
宣布	-11.0331
陰魔	-11.0336
跋陀和菩薩	-11.0346
障難	-11.0347
不任	-11.0351
不得勝	-11.0371
千歲	-11.0379
一切大地	-11.0404
妙三昧	-11.0408
五十一	-11.0408
二字	-11.0423
見佛身	-11.0426
最第一	-11.0426
生淨信	-11.0439
名為業	-11.0443
我當云何	-11.0446
五十二	-11.0465
永盡	-11.0469
小王	-11.0475
聞此陀羅尼	-11.0496
五百人	-11.0509
六念	-11.0511
本清淨	-11.0526
伽婆	-11.0529
發問	-11.0533
聞是經	-11.0539
遍照十方	-11.0542
諸來大眾	-11.0564
各各自	-11.0565
五十八	-11.0569
三千世界	-11.0572
所生處	-11.0574
夢見	-11.0579
尊重恭敬	-11.0585
手執	-11.0591
餓	-11.0598
聞是法	-11.0601
辱	-11.0613
修菩薩行	-11.0615
如是行者應如實知何者名為	-11.0619
閦浮	-11.0619
溫	-11.062
請問世尊如斯大義	-11.0625
不止守	-11.0625
知一切眾生心	-11.0627
啼哭	-11.0628
誠實	-11.063
冤	-11.063
軫宿	-11.0631
渠	-11.0632
徑路	-11.0632
涯	-11.0632
街	-11.0632
􂚲􂚲(	-11.0633
其日生者	-11.0633
不去不來	-11.0634
當爾之時	-11.0635
閑居	-11.0635
佛告藥上	-11.0635
賢士	-11.0636
我於今者	-11.0637
睺	-11.0637
戴	-11.0637
姟	-11.0639
從定起	-11.0639
啼泣	-11.064
淵	-11.064
鈴	-11.064
匹	-11.064
斯有是處	-11.064
終始	-11.0641
因緣著痛	-11.0641
譯經三藏朝散大夫試鴻臚卿	-11.0641
七日七夜	-11.0642
兜率陀天	-11.0642
摩睺勒	-11.0642
卷第六	-11.0642
貪恚癡	-11.0643
撲	-11.0643
緊	-11.0643
牢	-11.0643
歎未曾有	-11.0643
一句一偈	-11.0644
而為上首	-11.0644
中有五百四十百八愛行	-11.0644
第一義忍清淨平等	-11.0645
摩波利婆	-11.0645
憎嫉	-11.0646
域	-11.0646
耳所聞中聲	-11.0646
眼所見中色	-11.0646
壤	-11.0646
虫	-11.0646
影像	-11.0646
耳所聞惡聲	-11.0647
涕	-11.0647
眼所見惡色	-11.0647
塑像	-11.0647
具足五滓	-11.0647
鼻所聞好香	-11.0648
鼻所聞惡臭	-11.0648
口所得惡味惡語言	-11.0648
憂悲苦惱	-11.0648
不可稱量	-11.0649
發無上菩提心	-11.0649
帝幢	-11.0649
鳥獸	-11.065
䟦	-11.065
阿練若	-11.065
滌	-11.065
完具	-11.065
汝等今者	-11.065
多伽羅香	-11.0651
犯重罪	-11.0652
顯曜	-11.0653
扶	-11.0653
所得福德	-11.0653
此則名為	-11.0653
無生無起	-11.0654
離諸怖畏	-11.0654
無有窮盡	-11.0655
咸作是言	-11.0656
軟語	-11.0656
儻	-11.0657
發大誓願	-11.0657
不受果報	-11.0658
說此法時	-11.0659
右手	-11.0659
四維	-11.0659
遍覆	-11.066
學無學	-11.0661
魂	-11.0664
祠祀	-11.0666
闍梨	-11.0666
推求	-11.0667
奉敬	-11.0667
托	-11.0667
瞿曇沙門	-11.0668
出家弟子	-11.0668
聽聞正法	-11.0675
七七日	-11.0676
遮止	-11.0676
蘭若	-11.0677
土境	-11.0678
旛	-11.0678
何等名為	-11.0681
遠近	-11.0681
即還入	-11.0682
阿蘭若處	-11.0682
義者即	-11.0682
尊位	-11.0683
遍滿虛空	-11.0685
欣樂	-11.0685
寶炬陀羅尼	-11.0686
是金剛句	-11.0686
中最	-11.0686
彼有菩薩名	-11.0687
發誓願	-11.0692
食肉	-11.0694
出於世	-11.0696
身心寂靜	-11.0696
告阿難	-11.0697
成就十輪	-11.0698
供像	-11.0702
興發	-11.0716
西天	-11.0716
發遣	-11.072
虛空藏答	-11.0721
邪命	-11.0723
於彼佛所	-11.0729
勸他	-11.0732
經論	-11.0735
是慈能	-11.0735
大人相	-11.074
令諸有情	-11.075
無有休息	-11.0757
緊那羅王	-11.0759
唯除如來	-11.0762
無慚	-11.0763
禪那	-11.077
百年	-11.0775
舉聲	-11.0775
起瞋	-11.0777
毒龍	-11.0784
日日	-11.0785
聞法已	-11.0791
生隨喜	-11.0804
是為愛	-11.0816
高聲	-11.083
魔宮	-11.083
兜率	-11.0833
教示	-11.0838
不恃	-11.084
應誼	-11.085
生厭離	-11.0856
薄福	-11.0903
彼諸如來	-11.0903
開發	-11.0909
大法王	-11.092
母胎	-11.0936
薩埵	-11.094
大姓	-11.096
自高	-11.0971
女宿	-11.0998
婆提	-11.0998
一切魔眾	-11.1
生人間	-11.1012
有八種	-11.1012
五十七	-11.1021
威勢	-11.1024
寶飾	-11.1026
光味菩薩	-11.1043
好香	-11.1044
一佛剎	-11.1075
藥王軍菩薩復	-11.1081
亢	-11.1088
及未來世	-11.1088
無染著	-11.1093
伽邏	-11.1094
不可動	-11.1099
有四事	-11.1105
寶物	-11.111
所逼	-11.1119
三垢	-11.1127
聞佛說	-11.1135
得免	-11.1146
散華	-11.1147
不從他	-11.1149
眉間	-11.1149
無量有情	-11.116
豫	-11.1161
此佛世界	-11.1161
簁	-11.1169
靨	-11.1175
共護	-11.1178
本罪百八行	-11.1178
脚跡	-11.1179
頞	-11.1181
瑕疵	-11.1182
洛	-11.1184
一日一夜行	-11.1184
名為根	-11.1184
滅中有百八後世當復生受不滅	-11.1184
寂寞	-11.1185
阿逸多	-11.1185
薜荔	-11.1186
其有逮得	-11.1186
說此偈已	-11.1187
忽然不現	-11.1187
噓	-11.1187
秘藏	-11.1188
三種精氣	-11.1189
為壞眾生如是	-11.1189
偷	-11.1189
大方廣	-11.1189
此四宿日	-11.1189
膿血	-11.1189
努	-11.119
]《	-11.119
奔	-11.119
散佛上	-11.1191
率	-11.1191
博叉	-11.1191
三業相應	-11.1191
稚	-11.1191
盲冥	-11.1192
其日得病	-11.1192
大授記陀羅尼	-11.1192
彩	-11.1192
整	-11.1193
塑	-11.1193
卵	-11.1193
當坐因緣生死痛	-11.1194
前後圍遶	-11.1195
慰喻	-11.1195
阿若憍陳如	-11.1196
是名進力	-11.1196
卒暴	-11.1197
便生栽	-11.1197
諸天及人	-11.1197
男子女人	-11.1197
水聚	-11.1198
伴侶	-11.1198
舞	-11.1199
殑伽沙等	-11.1199
頂戴	-11.1199
便辱百八	-11.1199
如實了知	-11.1199
其土人民	-11.1199
被服袈裟	-11.12
塹	-11.12
鞭	-11.1201
鼻所聞中香	-11.1201
車乘	-11.1201
是為罪識	-11.1201
煎	-11.1201
祿	-11.1201
魂神	-11.1202
身所得好細軟可身	-11.1202
懈廢	-11.1202
是為辱	-11.1204
菩薩要當斷是盛百八生死	-11.1204
口所得中味中語言	-11.1204
身所得中細軟	-11.1204
為他解說	-11.1204
妃	-11.1205
甘露味	-11.1207
久遠劫來	-11.1207
愁惱	-11.1207
警	-11.1208
覓	-11.1208
此之謂也	-11.1208
是名念力	-11.121
觀後世畏	-11.121
振	-11.121
壓	-11.121
生龍中	-11.1211
是名慧力	-11.1211
襍	-11.1211
死屍	-11.1211
中有百八罪不可見	-11.1213
阿㝹	-11.1213
日行藏菩薩	-11.1213
傷害	-11.1213
煖	-11.1213
六萬八千	-11.1213
丈	-11.1213
▁○	-11.1214
任運	-11.1214
是為不捨盡	-11.1214
至心諦聽	-11.1215
家宅	-11.1215
阿樓那	-11.1216
天龍鬼神	-11.1216
習交	-11.1219
東西	-11.122
」【△	-11.1221
應器	-11.1221
般涅槃後	-11.1221
形貌	-11.1222
遊戲神通	-11.1223
出現世間	-11.1224
是為進行入道	-11.1226
感動	-11.1226
專注	-11.1227
濟度	-11.1229
何者名為	-11.1229
弘廣	-11.1231
悉來集會	-11.1231
曷囉	-11.1231
知一切法性	-11.1231
經無量劫	-11.1231
水災	-11.1232
是為貫生	-11.1232
畢竟成佛	-11.1232
是為種痛	-11.1233
良由	-11.1235
佉婆	-11.1235
違背	-11.1239
幾種	-11.124
慈哀	-11.124
為滅百八不捨淨	-11.1241
覺支	-11.1244
啟受	-11.1245
或復有人	-11.1246
頭目	-11.1246
瑞應	-11.1247
悲哀	-11.1252
瑞相	-11.1254
若茲	-11.1254
忍行戒	-11.1259
智奮迅	-11.1262
本性清淨	-11.1263
辛苦	-11.1263
殊勝功德	-11.1266
治國	-11.1269
是為墮	-11.128
觀世音	-11.1281
智度無極	-11.1282
光雲	-11.1286
汝等當知	-11.129
千子	-11.1293
未久	-11.1294
已於過去	-11.1295
具足六波羅蜜	-11.1307
無所有處	-11.1314
受無量苦	-11.1332
五日合	-11.1336
千世界	-11.1342
百九十	-11.135
十四日合	-11.135
減少	-11.1371
永不復	-11.1374
清淨無垢	-11.1376
可反	-11.138
降伏魔	-11.1391
得佛道	-11.1393
不能測	-11.1412
力士	-11.1413
心念處	-11.1428
斷三寶種	-11.1442
八十億	-11.1448
我今為汝	-11.1449
無上菩提道	-11.1475
是人不久	-11.1477
面見	-11.1478
胎藏	-11.1493
貴賤	-11.1506
娑摩	-11.151
聲聞大眾	-11.1518
城內	-11.1527
僧伽	-11.1532
所生之處	-11.1538
阿耨多羅三藐三菩提記	-11.1557
記莂	-11.1576
利鈍	-11.1579
盡諸漏	-11.1595
堪受	-11.16
甚深佛法	-11.1622
色無色	-11.1624
曇	-11.163
大乘之法	-11.1643
是名法行	-11.1657
貪嫉	-11.1678
號釋迦牟尼	-11.1692
六十五	-11.1692
留難	-11.1703
深妙法	-11.1732
可怖	-11.1743
不知為疑	-11.1747
商	-11.1751
不知為癡	-11.1751
此會中	-11.1754
曷	-11.1755
秋	-11.1755
盧迦	-11.1757
逝	-11.1758
為欲欲中有五陰	-11.1761
有處示現	-11.1764
波羅奈	-11.1766
巖	-11.1767
為還應戒	-11.1767
尋伺	-11.177
捶	-11.1771
奪其精氣	-11.1771
多地夜他	-11.1771
覩是以後	-11.1771
惟願如來	-11.1773
廟	-11.1773
龜	-11.1773
▁40	-11.1773
無有厭足	-11.1775
二萬一千	-11.1775
徐	-11.1777
職	-11.1777
顏貌	-11.1777
午	-11.1777
錯謬	-11.1777
麻	-11.1778
挑	-11.1778
泉池	-11.1779
伸	-11.1779
徑	-11.1779
此二宿日	-11.1779
禽	-11.1779
陀羅尼呪	-11.178
所住之處	-11.1781
瓦	-11.1781
孤獨	-11.1782
族姓	-11.1782
餘如上說	-11.1783
坦然	-11.1783
緊陀羅	-11.1783
鑑	-11.1783
於晨朝時	-11.1784
縮	-11.1784
亢旱	-11.1785
卷第七	-11.1785
下至一頌	-11.1785
四大洲	-11.1786
侵害	-11.1786
與其眷屬	-11.1786
灌頂剎利大王	-11.1786
冠	-11.1787
愛別離	-11.1787
耕	-11.1787
嘉	-11.1788
眼所見好色	-11.1788
幸	-11.1789
八十種好	-11.1789
徙	-11.1789
鎮	-11.179
怡	-11.179
滿中珍寶	-11.179
殷勤	-11.179
策	-11.1791
束	-11.1791
黑繩	-11.1791
僕使	-11.1792
如理作意	-11.1792
阿脩羅	-11.1793
轉正法輪	-11.1793
百歲	-11.1793
十惡輪	-11.1793
親族	-11.1793
三十七品	-11.1794
喪失	-11.1794
毛竪	-11.1794
如應說法	-11.1794
如水中月	-11.1794
謙下	-11.1795
日月星宿	-11.1795
獵	-11.1795
當墮無間地獄	-11.1795
儔	-11.1795
頭面作禮	-11.1795
尸棄	-11.1795
少欲知足	-11.1796
得須陀洹果乃至阿羅漢果	-11.1796
諸佛正法護持	-11.1796
隨諸佛國入	-11.1796
那庾多	-11.1796
轉大法輪	-11.1796
陸	-11.1797
轉妙法輪	-11.1798
繒	-11.1799
是名信力	-11.18
顏色	-11.1801
斯陀含果	-11.1801
心心數法	-11.1801
腸	-11.1803
稽首足下	-11.1804
百倍	-11.1806
當辱	-11.1808
禮世尊足	-11.1809
舉手	-11.1817
翹	-11.1818
佛法僧寶	-11.1818
我念過去	-11.1818
商人	-11.182
履反	-11.1821
降伏諸魔	-11.1822
苦辛	-11.1827
怨親	-11.1828
越度	-11.1828
却後	-11.1835
宮內	-11.184
修集慈心	-11.1842
如意寶	-11.1844
利益之事	-11.1847
純善	-11.1848
必須	-11.1848
住胎	-11.185
黠慧	-11.185
於如來前	-11.1852
○	-11.1856
如是等輩	-11.1856
掌中	-11.1858
得無上智	-11.1859
大千世界	-11.186
無有作者	-11.1863
善能分別	-11.1865
為調眾生	-11.1866
某人	-11.1868
深遠	-11.1874
菩薩修定	-11.1881
五欲樂	-11.1884
增長善法	-11.1888
我於過去	-11.189
如是四法	-11.1891
作留難	-11.1896
百千萬劫	-11.1899
尚未	-11.19
光曜	-11.1901
百一十	-11.1901
無吾我	-11.1906
今此會中	-11.1967
五逆罪	-11.1986
唯佛能	-11.1986
聚沫	-11.2007
初敘	-11.2015
同歸	-11.2035
如先佛	-11.2039
埵	-11.2059
禪支	-11.2062
勤修習	-11.2067
滅中有五陰	-11.2093
言詞	-11.2096
利益諸眾生	-11.21
佛剎土	-11.2115
千里	-11.2119
諸年少	-11.2131
不動搖	-11.2143
邏娑	-11.2175
坐臥	-11.2217
問於如來	-11.224
千萬億劫	-11.2266
生疑菩薩	-11.2267
知其數	-11.2269
一切勇菩提薩埵摩訶薩埵	-11.2294
質多羅	-11.2308
山頂	-11.2321
能捨一切	-11.2339
續	-11.2361
渚	-11.2366
系	-11.2367
彊	-11.2376
惡業障	-11.238
復有無量無邊眾生	-11.2382
婆樓	-11.2382
從坐起	-11.2384
摧諸	-11.2385
睒	-11.2391
簸	-11.2394
悲因緣故宣說	-11.2394
2	-11.2395
菓	-11.2398
叫	-11.2399
屍	-11.2399
魯	-11.24
谷	-11.24
得無誤失	-11.2401
基	-11.2401
十二部經	-11.2402
縱廣正等	-11.2402
復有一類	-11.2403
丹	-11.2403
鬪戰	-11.2404
五體投地	-11.2404
車𤦲	-11.2405
躍	-11.2405
裏	-11.2405
卷第八	-11.2405
饑渴	-11.2406
嬰	-11.2406
伎	-11.2406
赫	-11.2407
懈惓	-11.2407
楞伽	-11.2408
舋	-11.2408
只	-11.2409
愚冥	-11.2409
篋	-11.2409
地及虛空	-11.2409
戾	-11.2409
破戒惡行苾芻	-11.2409
彼當如是見一切法	-11.2409
隆	-11.241
緩	-11.241
怨賊	-11.241
婬泆	-11.241
謀	-11.241
野馬	-11.2411
不可稱載	-11.2411
岳	-11.2411
忍辱波羅蜜多	-11.2411
哲	-11.2411
凌	-11.2411
隨汝意	-11.2411
阿賴耶	-11.2412
莊飾	-11.2413
試	-11.2413
顛	-11.2413
廣宣流布	-11.2413
慧明三昧	-11.2414
布薩	-11.2414
覺華定自在王如來	-11.2414
三天童女	-11.2414
紙	-11.2415
陶	-11.2415
資生所須	-11.2415
乾竭	-11.2415
不驚不怖	-11.2415
波羅提木叉	-11.2415
高齊天竺三藏那連提耶舍譯	-11.2416
芥子	-11.2416
遇斯光	-11.2416
地平如掌	-11.2416
石蜜	-11.2416
陂	-11.2416
薪	-11.2416
相謂言	-11.2416
醎	-11.2417
不畏後世	-11.2417
隨形好	-11.2417
鄙	-11.2417
非大乘器	-11.2417
眾生壽命士夫	-11.2417
赴	-11.2418
炎德藏菩薩	-11.2418
心大歡喜	-11.2419
饍	-11.2419
庠序	-11.2419
霜	-11.2419
圖	-11.2419
耳所聞好聲	-11.242
燋	-11.242
品題	-11.242
口所得美味好語言	-11.242
歲星	-11.2421
怨憎	-11.2421
覆其上	-11.2421
佉羅坻	-11.2422
捕	-11.2422
戲笑	-11.2422
十方無量諸佛	-11.2422
生大怖畏	-11.2423
不令流布	-11.2423
辟支佛作大福田	-11.2424
不生樂想	-11.2424
烟	-11.2424
名金剛句	-11.2424
準大論	-11.2425
以偈問	-11.2425
元首	-11.2426
的	-11.2426
未來之世	-11.2427
年歲	-11.2428
任持	-11.2428
天仙七宿	-11.2429
關令不動	-11.2429
廣博	-11.2429
毋	-11.243
燃燈	-11.2431
驗	-11.2431
迷亂	-11.2431
柘	-11.2431
若有菩薩修四	-11.2432
夫菩提者	-11.2432
殊異	-11.2432
所得果報	-11.2433
訶波履婆	-11.2435
迦留尼迦	-11.2435
大鐵圍山	-11.2435
觀佛三昧經	-11.2436
地藏本願	-11.2437
次第而坐	-11.2437
為他廣說	-11.2437
五大河	-11.2438
變易	-11.2438
蘊魔	-11.2439
敷具	-11.244
損壞	-11.244
發道心	-11.2441
從佛聞	-11.2441
尚爾	-11.2442
羅剎女	-11.2445
厭倦	-11.2446
羅剎母	-11.2446
耳鼻	-11.2448
卷上	-11.2449
以偈答	-11.2449
誦習	-11.2451
說是呪	-11.2452
寺沙門	-11.2453
薩遮	-11.2453
五蘊	-11.2454
此金剛句	-11.2455
波邏	-11.2456
羅剎子	-11.2458
亦無增減	-11.2459
若如是者	-11.2473
三惡道苦	-11.2475
厭悔	-11.2477
住阿蘭若	-11.2479
給與	-11.248
而無厭足	-11.248
如法修行	-11.2482
尸羅波羅蜜	-11.2486
生惡心	-11.2487
分別演說	-11.2487
清白	-11.2487
成無上道	-11.2491
妙丈夫	-11.2498
說偈讚	-11.2504
缺減	-11.251
若有女人	-11.2512
愚癡無智	-11.2512
受念處	-11.2517
一切樂具	-11.2519
起世經	-11.2528
城門	-11.2534
守是三昧	-11.2539
為斷眾生	-11.2546
三世平等	-11.2547
一菩薩名	-11.258
諸行無常	-11.2591
超度	-11.2595
疑悔	-11.2618
適意	-11.2621
月合	-11.2631
結縛	-11.2639
敬仰	-11.2649
金剛䐡菩薩	-11.2695
慈悲憐愍	-11.2709
過去無量阿僧祇劫	-11.272
八部	-11.2722
深奧	-11.2725
始終	-11.2731
自貢高	-11.2733
離故知	-11.2751
卷下	-11.2788
給侍	-11.2819
毀他	-11.2863
俗諦	-11.2867
造諸惡	-11.2874
久住於世	-11.2875
怙	-11.2895
佛告不空見	-11.2917
山谷	-11.2923
化導	-11.2942
九日合	-11.296
黃金	-11.2968
尚可	-11.3007
一念頃	-11.3027
不自知著不自知滅中有五陰	-11.3045
億數	-11.305
惶	-11.3052
此大集會正法	-11.3052
多地他	-11.3054
闥	-11.3057
疫	-11.3058
跋坻	-11.3058
維	-11.3059
盤	-11.306
般泥洹	-11.3061
是人能禮	-11.3061
駛	-11.3062
應如是學	-11.3062
把	-11.3064
是名為禪	-11.3064
郡	-11.3064
或閉牢獄	-11.3065
霑	-11.3067
右繞三匝	-11.3067
羞恥	-11.3068
無相無願	-11.3068
嗜	-11.3068
褥	-11.3069
岐	-11.307
惛	-11.307
不離親近供養眾僧	-11.307
罰	-11.307
遏	-11.3071
籌量	-11.3071
否	-11.3071
鐵丸	-11.3071
游	-11.3071
一四句偈	-11.3072
地藏菩薩本願經	-11.3072
迦留羅	-11.3072
晨	-11.3073
役	-11.3073
逃	-11.3073
盈	-11.3074
奏	-11.3074
丁	-11.3074
疲厭	-11.3074
鞭杖	-11.3074
諭	-11.3075
偈讚佛已	-11.3075
宇	-11.3075
㵎	-11.3075
捧	-11.3075
刀劍	-11.3075
阿閦	-11.3076
五十校計	-11.3076
百千俱胝那庾多	-11.3076
審如有知	-11.3076
毘奈耶	-11.3077
波羅提	-11.3077
皮肉	-11.3077
宛	-11.3077
吸	-11.3077
剎帝利旃荼羅	-11.3077
世尊欲重明此義	-11.3077
銕圍山	-11.3077
佛悉在前立	-11.3077
封	-11.3077
閑靜	-11.3077
帛	-11.3078
增長三精氣	-11.3078
從初發意	-11.3079
隨所住國	-11.3079
搆	-11.3079
甘蔗	-11.3079
調暢	-11.308
忌	-11.308
間錯	-11.308
拘物頭	-11.308
從三昧起	-11.308
多摩羅跋	-11.3081
三萬六千	-11.3081
吉凶	-11.3081
漢	-11.3082
以佛力故	-11.3082
蒲	-11.3082
潤澤	-11.3082
不可限量	-11.3082
擬	-11.3082
鎖	-11.3083
水火風	-11.3083
綵	-11.3083
酪	-11.3083
鮮明	-11.3083
瞻波	-11.3083
第一彼岸故	-11.3083
不離聞法	-11.3083
悚	-11.3083
胡跪合掌	-11.3083
今正是時	-11.3084
頻婆	-11.3084
愚闇	-11.3084
炙	-11.3084
淨印三昧	-11.3085
本願力故	-11.3085
涕淚	-11.3085
閻羅天子	-11.3086
身所得惡麁堅苦痛不可身	-11.3086
預	-11.3086
百分千分百千	-11.3086
動欲分別中有盛百	-11.3086
大地六種震動	-11.3087
愍傷	-11.3087
準長阿含	-11.3087
窣堵波	-11.3087
俱利多	-11.3088
聖人住處	-11.3089
伎術	-11.3089
戌達羅	-11.3089
往返	-11.309
劬勞	-11.3091
二別明	-11.3091
以方便力	-11.3092
師子將軍	-11.3092
以精進故	-11.3092
是人則能	-11.3092
詮	-11.3092
孰	-11.3092
趣向惡道	-11.3093
諸初生者	-11.3093
毘舍闍	-11.3094
即是我之	-11.3094
映	-11.3095
罔	-11.3095
不關者墮罪	-11.3096
未甞	-11.3096
往詣佛所	-11.3097
雄猛	-11.3097
摧壞	-11.3097
行法比丘	-11.3098
是為菩薩超	-11.3098
吏	-11.3098
曳	-11.3098
諸大龍王	-11.3098
比牟	-11.3098
滋味	-11.3099
絃	-11.3099
虛空之性	-11.3102
脇	-11.3102
開導	-11.3102
寂度無極	-11.3102
覆蓋	-11.3103
嬈害	-11.3103
勃	-11.3103
飲酒	-11.3105
秦言	-11.3106
陀羅尼自在王菩薩	-11.3106
隨所生處	-11.3107
菩薩承佛聖旨	-11.3107
維衛	-11.311
於是法中	-11.3111
至心歸依	-11.3111
身心安樂	-11.3111
佉伽	-11.3112
聞是法已	-11.3114
橫死	-11.3114
四倒	-11.3115
迴向薩婆若	-11.3115
無窮盡	-11.3116
防護	-11.3116
發菩提之心	-11.3117
修羼提波羅蜜	-11.3118
皆悉消滅	-11.312
了義經者	-11.3121
侍從	-11.3122
阿那婆	-11.3122
茂羅	-11.3123
劫奪	-11.3123
無作無受	-11.3124
闍鞞	-11.3124
豐樂	-11.3128
豫知	-11.3128
供養眾僧	-11.3131
無量無邊不可思議	-11.3132
稱歎	-11.3132
曾於過去	-11.3135
精進清淨平等	-11.3136
階道	-11.3136
色無色界	-11.3137
不與取	-11.3137
雜香	-11.3148
復有四種	-11.3151
輸盧	-11.3156
不可稱限	-11.317
修身念處	-11.319
名為誑	-11.3215
病患	-11.3229
一日夜	-11.3285
最妙	-11.3286
十方諸佛世界	-11.33
紫金	-11.3303
墮阿鼻地獄	-11.3305
不斷三寶	-11.3345
豐足	-11.3348
眾生處在	-11.3396
千萬億	-11.3402
猶尚	-11.3436
人及非人	-11.3448
惑亂	-11.3461
佛告跋陀和	-11.3488
七日合	-11.353
為作護	-11.3553
獲大利	-11.3592
羞慚	-11.3625
種種上妙	-11.3644
為信力	-11.3688
世尊欲重宣此義	-11.3711
耳鼻舌身	-11.3719
剌	-11.3745
氐	-11.375
剃頭	-11.3768
撾	-11.3771
能伏一切	-11.3772
毘囉娑	-11.3773
色聲香味觸	-11.3774
眾生修集悲心	-11.3775
兮	-11.3776
慳惜	-11.3776
細滑	-11.3776
寶星陀羅尼	-11.3777
發無上正真道意	-11.3781
政	-11.3782
奮	-11.3783
侯	-11.3783
扇	-11.3783
死此生彼	-11.3784
率爾呵舉破戒苾芻	-11.3784
企	-11.3785
英	-11.3785
是命終人	-11.3785
窈	-11.3785
麁澁	-11.3785
十號具足	-11.3786
自利利他	-11.3787
甘美	-11.3787
諮嗟	-11.3787
如來則為讚說	-11.3787
項	-11.3788
常得不離見一切佛	-11.3788
衣裳	-11.3789
整理衣服	-11.3789
入無畏城	-11.3789
鋸	-11.379
裴	-11.3791
俱胝那庾多百千	-11.3791
出佛身血	-11.3791
肅	-11.3791
氷	-11.3791
鉗	-11.3791
旁	-11.3792
甚奇	-11.3792
橋梁	-11.3792
燭	-11.3792
三輪清淨	-11.3793
傘蓋	-11.3793
楞嚴	-11.3793
并其眷屬	-11.3793
訓誨	-11.3793
某甲	-11.3794
是為菩薩能過魔界	-11.3794
臣民	-11.3794
或有得於	-11.3794
膿	-11.3794
陰陽	-11.3794
謹慎	-11.3795
提頭賴吒天王	-11.3795
不可為喻	-11.3795
側	-11.3795
離間語	-11.3795
究暢	-11.3795
所作已辦	-11.3795
疎	-11.3795
城郭	-11.3795
隨眠	-11.3795
從何處來	-11.3795
下中上	-11.3796
乃往過去	-11.3796
於現身中	-11.3797
亦能令彼一切眾生	-11.3797
中味中語言	-11.3797
東方去此	-11.3797
肢	-11.3797
羯磨	-11.3798
郁	-11.3798
出興於世	-11.3798
忻	-11.3799
微密	-11.3799
斛	-11.3799
恭對	-11.38
阿鼻獄	-11.38
天子千眷屬	-11.38
武	-11.38
求出無期	-11.3801
廣說如前	-11.3801
終無有能	-11.3801
槩	-11.3802
筆	-11.3802
魏	-11.3802
閻浮檀金	-11.3802
我今敬禮	-11.3804
壽終	-11.3804
十方一切諸佛	-11.3804
世尊重顯此義	-11.3804
為聽法故	-11.3804
於其中間	-11.3804
夏	-11.3805
優鉢羅華	-11.3805
能令菩薩摩訶薩等	-11.3805
咄	-11.3805
瞻視	-11.3805
流布之處	-11.3805
出家修道	-11.3805
五百年	-11.3807
皆發無上正真道意	-11.3807
永斷一切煩惱	-11.3807
滋茂	-11.3808
虗妄	-11.3808
於阿耨多羅三藐三菩提而成正覺	-11.3808
八萬四千法聚	-11.3808
九十一劫	-11.3808
佛言藥王軍	-11.381
廣分別說	-11.381
以用供養	-11.381
讀誦書寫	-11.381
與眾等	-11.3811
參合	-11.3811
妖	-11.3811
魅	-11.3812
去來現在	-11.3812
山川	-11.3815
支體	-11.3815
小兒	-11.3815
究盡	-11.3816
夜叉千眷屬	-11.3818
恒河沙世界	-11.3821
不可言說	-11.3824
?』」	-11.3824
凡所演說	-11.3824
諸通慧	-11.3825
乘相應正法	-11.3826
小國王	-11.3826
美妙	-11.3827
無始來	-11.3827
繫著	-11.3827
無上菩提之心	-11.3827
舌味	-11.383
維摩	-11.383
瞻禮地藏	-11.3831
起慈悲心	-11.3831
若犯一	-11.3836
往彼世界	-11.384
或有說言	-11.3843
香象菩薩	-11.3844
六度無極	-11.3844
難測	-11.3844
拘留孫佛	-11.3847
此四天下所有	-11.385
於我所說	-11.385
從因緣生	-11.3857
耳鼻舌身意	-11.3885
九萬二千	-11.3929
受三歸	-11.3969
箕	-11.399
隣國	-11.4067
彼精進王	-11.4085
後世所生	-11.415
決了	-11.4161
正法念經	-11.4227
遇善知識	-11.4261
驚恐	-11.4343
光明普照	-11.4344
最極	-11.4358
麻油	-11.4389
即能獲得	-11.44
觜	-11.4431
莊嚴道場	-11.4464
童	-11.451
天祠	-11.4528
星形如	-11.4529
閑	-11.4529
谿	-11.4538
鐵圍山	-11.4539
摩我頂	-11.4541
憂慼	-11.4543
又有眾生	-11.4544
傲	-11.4545
煮	-11.4546
貨	-11.4546
鴦耆羅娑如來	-11.4547
摧壓	-11.4547
祚	-11.4547
艸	-11.4548
默然許	-11.4549
從空而下	-11.4549
朋友	-11.455
絡	-11.455
牟尼聖人住處	-11.455
妹	-11.455
瘦	-11.4551
如是鎧甲	-11.4551
菩薩見已修集	-11.4552
轉於法輪	-11.4552
貢	-11.4552
治罰	-11.4552
愁憂	-11.4553
割截	-11.4553
阿素洛	-11.4553
尿	-11.4553
踐	-11.4554
團	-11.4554
窮脾	-11.4554
麁惡語	-11.4554
甚為希有	-11.4555
占	-11.4555
疊	-11.4555
世尊為我宣說	-11.4556
蠅	-11.4556
是其莊嚴	-11.4556
庫藏	-11.4556
於諸善根常	-11.4556
鬪訟	-11.4556
嗚	-11.4556
體廢缺	-11.4557
齊限	-11.4557
諸根不具	-11.4557
伴黨	-11.4558
僉	-11.4558
農	-11.4558
是名說義	-11.4558
勉	-11.4558
由是之故	-11.4558
搜	-11.4559
市	-11.4559
酸	-11.4559
犯四重禁	-11.4559
不久便當	-11.4559
常得值遇諸善知識	-11.4559
厥	-11.4559
一剎那頃	-11.4559
乳哺	-11.4559
六十卷	-11.4559
未來世此佛土中	-11.4559
鷲王	-11.4559
我等從今	-11.456
結舌不言	-11.456
矟	-11.456
坦	-11.456
灌頂大王	-11.456
螺	-11.456
毘摩質多羅阿修羅王	-11.456
於剎那頃	-11.4561
我從昔來	-11.4561
陛	-11.4561
幾許	-11.4561
兵仗	-11.4561
受胎者	-11.4561
法欲滅時	-11.4561
富樓那彌多羅尼子	-11.4561
蔭	-11.4562
迦陵頻伽	-11.4562
紀	-11.4562
興隆	-11.4562
菩薩于彼興發大哀為說經	-11.4562
智德峯王佛	-11.4562
牆壁	-11.4562
我之正法	-11.4563
毘沙門天王	-11.4563
朽	-11.4563
羯摩	-11.4563
真珠瓔珞	-11.4563
藐	-11.4563
敏	-11.4563
隋天竺三藏那連提耶舍譯	-11.4563
香味觸	-11.4563
廣設方便	-11.4564
革	-11.4564
求樂離苦	-11.4564
一滴水	-11.4564
為菩提故	-11.4565
所愛妻子	-11.4565
國王大臣	-11.4565
虛空庫藏	-11.4565
既聞法已	-11.4566
津	-11.4566
無所猜	-11.4566
於聲聞乘得無誤失	-11.4566
詣佛所	-11.4566
遮障惡眾生	-11.4567
夭	-11.4568
僧祇	-11.4568
毘樓勒叉天王	-11.4568
丹藏	-11.4568
倉	-11.4569
分百千萬分	-11.4569
令法久住	-11.4569
挽	-11.4569
好醜	-11.4569
常得昇進	-11.457
毘樓博叉天王	-11.457
而不取證	-11.457
為諸有情如應說法	-11.457
結恨	-11.4571
見聞隨喜	-11.4571
潔白	-11.4571
官屬	-11.4571
隨順而行	-11.4572
煑	-11.4572
甚可愛樂	-11.4572
如汝所言	-11.4572
爽	-11.4573
戟	-11.4573
不應取著	-11.4573
於流轉中	-11.4573
當得作佛	-11.4574
馳騁	-11.4574
建立法幢	-11.4574
冬	-11.4574
驚動	-11.4574
過咎	-11.4575
噉食	-11.4575
求哀懺悔	-11.4575
來詣佛所	-11.4575
繒綵	-11.4576
若男若女	-11.4576
鉤	-11.4577
驚疑	-11.4577
無央數劫	-11.4577
金縷	-11.4577
飯食	-11.4577
秘密	-11.4577
厄難	-11.4578
冰	-11.4578
債	-11.4578
衰惱	-11.4578
吾當為汝	-11.4579
不退阿耨多羅三藐三菩提	-11.4579
壑	-11.458
利益存亡	-11.458
樂於寂靜	-11.458
皆是意行	-11.4581
贈	-11.4581
寶貝	-11.4582
番	-11.4582
無明黑闇	-11.4582
為他演說	-11.4583
稱讚貴重	-11.4583
及大聲聞	-11.4583
琴	-11.4584
蕩	-11.4584
開敷	-11.4584
禍福	-11.4585
無願順陀羅尼	-11.4586
珠瓔	-11.4586
僧祇物	-11.4586
堅固鎧	-11.4586
虛假	-11.4586
幾所福	-11.4586
義今說	-11.4587
供養之具	-11.4588
精舍	-11.4588
管	-11.4593
婆樓那	-11.4594
有漏無漏	-11.4595
精勤修習	-11.4596
應如是知	-11.4596
囉系	-11.46
勝義諦	-11.4601
墮於地獄	-11.4603
衝	-11.4606
帝釋天主	-11.4613
又為一切	-11.4614
如是觀時	-11.4617
勤勞	-11.4622
一切法體性	-11.4627
曇摩	-11.4733
法緣慈	-11.475
萬二千菩薩	-11.4771
將軍	-11.4776
△	-11.4844
詣世尊所	-11.4848
佐助	-11.4891
十方無量世界	-11.5013
窮極	-11.5041
上虛空中	-11.5125
軫	-11.5147
垢濁	-11.52
菩薩見已修	-11.5227
告我言	-11.5334
衣食豐	-11.5339
眴	-11.5353
名為自說	-11.5358
擁	-11.5362
裔	-11.5364
及斷命根	-11.5369
牟嘍	-11.537
嘴	-11.5376
日眼蓮華陀羅尼	-11.5377
伎藝	-11.5377
如是忍者是無	-11.5377
危害	-11.5379
百千俱致那由多	-11.5379
曼陀羅華	-11.5379
暖	-11.538
踈	-11.5381
蓮華藏如來	-11.5381
巷	-11.5381
贍部洲	-11.5382
薰	-11.5383
汝亦應令得生敬信	-11.5383
大力軍將	-11.5383
蟻	-11.5383
肌	-11.5383
貧匱	-11.5384
1	-11.5384
𩘌	-11.5385
3	-11.5385
與大比丘眾	-11.5386
清潔	-11.5386
德華藏佛	-11.5386
衢	-11.5386
拍	-11.5386
時婆羅門女	-11.5386
編	-11.5386
群臣	-11.5386
畔	-11.5386
得究竟淨	-11.5387
說是偈	-11.5387
鑒	-11.5387
常於菩提種種行願	-11.5388
轉大梵輪	-11.5388
窓	-11.5388
神主當	-11.5388
即我身是	-11.5388
瘖瘂	-11.5388
箭射	-11.5388
踊躍歡喜	-11.5388
什	-11.5389
村邑	-11.5389
鼠	-11.5389
摧魔如來	-11.5389
是故如來於諸眾生而	-11.539
輕蔑	-11.539
嬈亂	-11.539
阿迦尼吒	-11.539
如說而作	-11.5391
班宣	-11.5391
為護法故	-11.5391
紛	-11.5391
如是菩薩摩訶薩住第一義忍清淨平等	-11.5391
煙	-11.5391
欄楯	-11.5391
盡形壽	-11.5392
諷	-11.5392
宴	-11.5392
諸佛所說念佛三昧	-11.5392
迷悶	-11.5392
是故我禮	-11.5392
從何所來	-11.5392
乃至斷命	-11.5392
瞻波迦華	-11.5392
命終定生無間	-11.5393
四梵住	-11.5393
資生之具	-11.5393
屏	-11.5393
委	-11.5393
北涼天竺三藏曇無讖譯	-11.5393
堪為聲聞	-11.5394
塑畫	-11.5394
問訊釋迦牟尼佛	-11.5394
不作是念我起	-11.5394
效	-11.5394
沒唎	-11.5394
知如是者則知緣生法	-11.5394
無功用	-11.5394
既命終已	-11.5394
京	-11.5395
他方怨敵	-11.5395
炭	-11.5395
斑	-11.5395
統領	-11.5395
二萬五千	-11.5395
童男	-11.5396
發弘誓願	-11.5396
懇	-11.5396
息入出	-11.5396
雷震	-11.5396
刻	-11.5397
常願不處	-11.5397
戚	-11.5397
三牟陀	-11.5397
摩耶夫人	-11.5397
受諸苦毒痛切難忍	-11.5397
狐	-11.5397
十八不共之法	-11.5397
殊致羅娑	-11.5398
遠行安隱	-11.5398
導御	-11.5398
稻	-11.5398
造身語意	-11.5399
阿那婆達多龍王	-11.5399
下至一切被片袈裟剃	-11.5399
撥無因果	-11.54
臍	-11.54
貧賤	-11.54
金剛齊菩薩比丘	-11.54
鬪亂	-11.54
整衣服	-11.5401
信受奉行	-11.5401
藝	-11.5401
九萬九千	-11.5401
疾得是三昧	-11.5401
勒叉	-11.5401
棘	-11.5401
初分三初	-11.5401
乃至以精進	-11.5401
我等昔來	-11.5402
於獨覺乘補特伽羅得無誤失	-11.5402
慼	-11.5402
於獨覺乘得無誤失	-11.5402
娜娜	-11.5402
含笑	-11.5402
惡麁堅苦痛不可身	-11.5403
骨瑣	-11.5403
超殊	-11.5403
未解脫者	-11.5403
乾闥婆千眷屬	-11.5403
令還俗	-11.5403
剉	-11.5404
鑊	-11.5405
塊	-11.5405
沮	-11.5405
初分二初	-11.5406
趺	-11.5406
枳	-11.5406
於睡夢中	-11.5406
不如有人	-11.5406
棒	-11.5406
以己神力	-11.5407
立世阿毗曇	-11.5407
地藏慈尊	-11.5407
殘害	-11.5407
百千生中	-11.5407
糞穢	-11.5407
香潔	-11.5408
財穀	-11.5408
寄付	-11.5408
斫芻	-11.5409
經家敘	-11.5409
匿	-11.5409
袈裟幢	-11.5409
姑	-11.541
貪欲瞋恚愚癡	-11.541
為聞法故	-11.541
荊	-11.541
析	-11.5411
我及我所	-11.5411
諸三昧門	-11.5411
風所吹	-11.5412
以妙香花	-11.5412
剖	-11.5412
能滿六波羅蜜	-11.5412
靜室	-11.5412
楞嚴云	-11.5413
縱廣高下	-11.5414
輭	-11.5415
條	-11.5415
株	-11.5417
母生界	-11.5417
償	-11.5418
往彼娑婆世界	-11.5418
胞胎	-11.5419
蔓	-11.5419
纖毫	-11.5419
沒履呿	-11.5421
法目陀羅尼	-11.5422
此即能修	-11.5422
大乘得無誤失	-11.5422
事而持禁戒	-11.5423
世尊復告賢護菩薩	-11.5423
是諸人等	-11.5423
詣寶高座住	-11.5424
緣覺之乘	-11.5425
祕密章句	-11.5426
得增長故	-11.5441
減損	-11.5447
四百四	-11.5449
我復又	-11.5454
日合氐	-11.5462
怖懼	-11.5474
以頌讚	-11.5501
日合觜	-11.5517
日合箕	-11.5528
日合婁	-11.5532
無量無數阿僧祇	-11.5563
曼陀	-11.5565
場和	-11.5567
羞	-11.5571
丸	-11.6138
罽	-11.6279
謨	-11.6281
秦	-11.6281
享	-11.6281
慠	-11.6283
涼	-11.6283
菜	-11.6284
填	-11.6284
餚	-11.6286
􂍾	-11.6286
輦	-11.6286
撫	-11.6288
蝎	-11.6289
槊	-11.629
蹈	-11.629
鄰	-11.6291
稼	-11.6292
8	-11.6292
欽	-11.6293
區	-11.6293
6	-11.6294
買	-11.6294
雪	-11.6294
憒	-11.6294
獷	-11.6295
姪	-11.6295
羼	-11.6295
蹉	-11.6296
嬾	-11.6296
飄	-11.6296
苗	-11.6297
覽	-11.6297
予	-11.6298
迅	-11.6298
椉	-11.6298
稀	-11.6298
豎	-11.6299
芻	-11.63
詠	-11.6302
庭	-11.6302
嘗	-11.6302
侈	-11.6302
崇	-11.6302
竺	-11.6303
玩	-11.6304
騃	-11.6304
誣	-11.6305
余	-11.6305
湛	-11.6306
包	-11.6307
勑	-11.6308
暇	-11.6308
娶	-11.6308
混	-11.6308
回	-11.6309
膳	-11.6309
額	-11.6309
謹	-11.6309
熈	-11.6309
忠	-11.6309
峻	-11.6309
廿	-11.631
誅	-11.631
瞑	-11.6311
吳	-11.6311
寢	-11.6312
賈	-11.6312
歇	-11.6312
肥	-11.6313
雀	-11.6314
翫	-11.6314
娘	-11.6315
虱	-11.6315
嗟	-11.6316
針	-11.6316
昭	-11.6317
符	-11.6318
劒	-11.6318
逈	-11.6319
懅	-11.6319
誹	-11.6319
該	-11.632
忤	-11.6321
隙	-11.6322
矯	-11.6322
葱	-11.6322
酥	-11.6323
譌	-11.6323
帳	-11.6324
拷	-11.6325
援	-11.6326
嬪	-11.6327
叚	-11.6327
沐	-11.6329
貯	-11.633
鑠	-11.6353
奧	-11.6803
鞮	-11.726
栴	-11.7268
㲲	-11.7274
寮	-11.7275
暮	-11.7282
簉	-11.7282
􂚹	-11.7285
螫	-11.7285
嗣	-11.7287
怠	-11.7287
剃	-11.7287
踦	-11.7288
釘	-11.729
跢	-11.729
皇	-11.7291
隋	-11.7291
鋪	-11.7292
躁	-11.7293
嵐	-11.7294
撿	-11.7294
釧	-11.7294
掬	-11.7294
䐡	-11.7295
犀	-11.7296
裹	-11.7296
曩	-11.7296
抵	-11.7297
邦	-11.7298
笈	-11.7298
陋	-11.7298
舟	-11.7299
癃	-11.7299
孕	-11.7299
恬	-11.7299
爹	-11.73
甕	-11.73
溝	-11.7301
詰	-11.7301
膚	-11.7301
啞	-11.7302
佗	-11.7302
氈	-11.7303
儒	-11.7303
9	-11.7303
雌	-11.7303
粟	-11.7304
允	-11.7305
織	-11.7305
旱	-11.7305
犬	-11.7306
抄	-11.7306
騎	-11.7306
堤	-11.7306
虧	-11.7307
寸	-11.7307
殷	-11.7307
着	-11.7307
遷	-11.7308
晃	-11.7308
炷	-11.7308
摶	-11.731
瞬	-11.7311
亘	-11.7312
羶	-11.7312
偶	-11.7314
唾	-11.7314
卅	-11.7314
台	-11.7315
脣	-11.7317
檢	-11.7318
臻	-11.7318
醒	-11.7318
拭	-11.7321
溪	-11.7322
癘	-11.7327
濯	-11.7328
篤	-11.8356
矩	-11.8374
干	-11.8379
吃	-11.8385
突	-11.8385
慄	-11.839
仚	-11.8393
駝	-11.8395
糜	-11.8395
哺	-11.8396
撮	-11.8396
撰	-11.8397
嚕	-11.8398
輿	-11.84
奸	-11.8401
掃	-11.8402
7	-11.8405
祈	-11.8406
惻	-11.8406
搏	-11.8406
腐	-11.8407
辨	-11.8407
胝	-11.8407
戮	-11.8408
耨	-11.8408
佷	-11.8408
馨	-11.8409
喘	-11.8409
克	-11.8409
穴	-11.8409
卉	-11.8409
伯	-11.8409
替	-11.841
尺	-11.841
祗	-11.841
熒	-11.8411
遞	-11.8412
沾	-11.8412
秉	-11.8413
栘	-11.8413
坌	-11.8413
𣣋	-11.8414
羽	-11.8414
史	-11.8415
庠	-11.8416
敦	-11.8417
帶	-11.8417
柧	-11.8417
躡	-11.8418
笛	-11.8418
穌	-11.8418
函	-11.8419
康	-11.8419
筏	-11.8419
瘖	-11.8419
坎	-11.842
棗	-11.842
紺	-11.842
剝	-11.842
蒭	-11.8421
棲	-11.8421
鹽	-11.8422
柰	-11.8422
諫	-11.8423
陷	-11.8424
扣	-11.8425
遜	-11.8427
槍	-11.8427
疣	-11.8427
詩	-11.8428
鄭	-11.8429
囚	-11.843
豹	-11.843
俄	-11.843
鉾	-11.8431
墨	-11.8432
<	-11.844
i	-11.8441
m	-11.8441
綠	-11.8442
g	-11.8443
掘	-11.8444
灾	-11.8445
掠	-11.8445
拒	-11.9631
謟	-11.9636
洹	-11.9636
妓	-11.9642
趨	-11.9644
禾	-11.9646
穡	-11.9648
椎	-11.9648
羈	-11.9649
吝	-11.9649
唼	-11.9649
眷	-11.9651
咥	-11.9652
蜂	-11.9653
5	-11.9653
淤	-11.9653
縵	-11.9653
播	-11.9654
乙	-11.9654
俯	-11.9654
毳	-11.9654
巡	-11.9654
s	-11.9655
席	-11.9657
嚌	-11.9657
欄	-11.9657
讒	-11.9657
販	-11.9658
完	-11.9658
景	-11.9659
逕	-11.9659
罷	-11.9659
撥	-11.966
淑	-11.9661
佞	-11.9661
蚖	-11.9661
愕	-11.9661
殞	-11.9661
瓔	-11.9662
叡	-11.9662
戍	-11.9662
吠	-11.9663
喧	-11.9664
騾	-11.9664
膏	-11.9664
姿	-11.9664
縷	-11.9664
輻	-11.9664
拋	-11.9665
錠	-11.9665
促	-11.9667
監	-11.9667
殄	-11.9668
皤	-11.9668
汗	-11.9668
乍	-11.9668
迮	-11.9668
肆	-11.9668
骸	-11.9668
嵠	-11.9669
踏	-11.9669
鈎	-11.9669
拯	-11.9669
夕	-11.967
慘	-11.967
俟	-11.967
膠	-11.9673
簫	-11.9673
〔	-11.9673
費	-11.9674
籍	-11.9674
凍	-11.9675
慾	-11.9675
選	-11.9675
屑	-11.9676
墻	-11.9677
碧	-11.9677
耐	-11.9678
癩	-11.9678
裝	-11.9682
魄	-11.9685
栖	-11.9696
腥	-11.9705
箇	-11.9715
祁	-12.1046
慞	-12.1058
𠸪	-12.1061
閙	-12.1063
粗	-12.1067
黶	-12.1071
唏	-12.1071
疵	-12.1072
鷲	-12.1074
啾	-12.1075
嘿	-12.1075
雕	-12.1075
遐	-12.1075
竄	-12.1076
浸	-12.1076
註	-12.1077
喃	-12.1079
稅	-12.1079
饉	-12.1079
錫	-12.1079
蔔	-12.1079
媚	-12.1081
嘔	-12.1081
楊	-12.1081
涸	-12.1081
𠢕	-12.1082
啄	-12.1083
羖	-12.1083
訥	-12.1084
䩕	-12.1084
馥	-12.1084
旹	-12.1085
丑	-12.1085
咨	-12.1085
鏁	-12.1086
梓	-12.1086
蔑	-12.1087
慇	-12.1087
鉀	-12.1088
範	-12.1088
茹	-12.1089
饌	-12.1089
杵	-12.109
准	-12.109
沼	-12.109
晚	-12.1091
屯	-12.1091
澆	-12.1091
擣	-12.1091
這	-12.1091
攫	-12.1092
腋	-12.1092
匱	-12.1092
輯	-12.1093
哽	-12.1093
盪	-12.1093
昵	-12.1093
鱗	-12.1093
掣	-12.1094
械	-12.1094
挺	-12.1094
肘	-12.1095
嫁	-12.1095
叱	-12.1095
逾	-12.1095
夾	-12.1095
叢	-12.1096
脈	-12.1096
鵠	-12.1096
杻	-12.1096
􂚳	-12.1097
拳	-12.1097
鹹	-12.1097
勳	-12.1098
萎	-12.1098
楞	-12.1098
麝	-12.1099
讐	-12.1099
叔	-12.11
拂	-12.11
𧰃	-12.11
寡	-12.1102
晉	-12.1102
撻	-12.1102
弩	-12.1102
渾	-12.1103
姹	-12.1104
厨	-12.1104
桃	-12.1104
悶	-12.1104
掩	-12.1105
癰	-12.1105
浩	-12.1106
繳	-12.1107
憚	-12.1108
籠	-12.1108
葷	-12.1108
溟	-12.1109
鼈	-12.111
唄	-12.1112
衡	-12.1113
嶽	-12.1113
荀	-12.1116
脊	-12.1116
艶	-12.1121
哥	-12.1122
埋	-12.1123
洋	-12.1128
芒	-12.1133
絲	-12.1138
併	-12.1151
肯	-12.2671
崛	-12.2695
臘	-12.2706
靺	-12.2716
戌	-12.2728
展	-12.2731
悠	-12.2731
洽	-12.2731
蘘	-12.2732
匙	-12.2734
悴	-12.2736
阜	-12.2736
躄	-12.2736
胞	-12.2737
瘧	-12.2737
規	-12.2738
晦	-12.2738
紇	-12.2738
鏤	-12.2738
甫	-12.2738
蠲	-12.2739
讇	-12.2739
纓	-12.2739
筭	-12.2739
諾	-12.274
協	-12.2742
䭾	-12.2742
搥	-12.2742
銘	-12.2745
啅	-12.2745
蹇	-12.2745
邲	-12.2746
涑	-12.2746
䏶	-12.2747
糧	-12.2747
0	-12.2749
蒼	-12.2749
茫	-12.275
亭	-12.275
琦	-12.275
葶	-12.2751
頰	-12.2751
蹙	-12.2751
酢	-12.2751
燎	-12.2752
茷	-12.2752
曀	-12.2752
膖	-12.2753
抧	-12.2753
膾	-12.2754
燼	-12.2754
􂌞	-12.2755
苞	-12.2756
脹	-12.2757
朴	-12.2757
偃	-12.2757
漫	-12.2757
髏	-12.2757
勵	-12.2758
廓	-12.2758
魘	-12.2758
枷	-12.2759
錦	-12.2759
藶	-12.276
宀	-12.276
繕	-12.2761
毅	-12.2761
玅	-12.2761
箏	-12.2761
鴿	-12.2761
裁	-12.2762
肖	-12.2762
梟	-12.2762
耻	-12.2762
慌	-12.2762
漚	-12.2763
寇	-12.2763
逋	-12.2764
疇	-12.2764
雛	-12.2765
皷	-12.2766
兆	-12.2767
𪏭	-12.2767
瞳	-12.2768
鍼	-12.2768
􂛄	-12.2768
轂	-12.2768
介	-12.2768
㭊	-12.2769
鴛	-12.2769
呧	-12.2769
誚	-12.2769
鋒	-12.2769
韋	-12.277
霤	-12.277
蒂	-12.277
㖃	-12.2771
偕	-12.2771
庸	-12.2771
激	-12.2771
爇	-12.2771
泠	-12.2772
鷄	-12.2772
濫	-12.2773
厲	-12.2773
燥	-12.2774
倡	-12.2774
鈐	-12.2774
恕	-12.2775
坤	-12.2775
屣	-12.2775
齡	-12.2775
皿	-12.2776
翔	-12.2776
煒	-12.2776
秘	-12.2776
橙	-12.2777
鴈	-12.2778
括	-12.278
鵝	-12.2782
捻	-12.2782
酤	-12.2783
眉	-12.2784
剆	-12.2784
啗	-12.2784
矛	-12.2785
梅	-12.2785
悖	-12.2786
踟	-12.2787
揣	-12.2787
研	-12.279
霹	-12.2791
奘	-12.2794
帥	-12.2795
姊	-12.2802
堵	-12.2819
滸	-12.4684
亮	-12.4698
􂛀	-12.4701
嬭	-12.4714
𤻧	-12.4721
庾	-12.4724
濤	-12.4726
𡗓	-12.4726
謎	-12.4729
喝	-12.4729
粥	-12.473
敧	-12.4732
陁	-12.4733
㘁	-12.4734
脛	-12.4734
璫	-12.4735
丶	-12.4736
脆	-12.4737
肝	-12.4737
貺	-12.4737
匡	-12.4739
恌	-12.4739
苛	-12.4741
練	-12.4741
贍	-12.4742
催	-12.4742
閃	-12.4742
攻	-12.4742
樔	-12.4743
瑩	-12.4743
訴	-12.4743
揥	-12.4743
烈	-12.4744
虞	-12.4745
閡	-12.4746
圭	-12.4746
控	-12.4747
囊	-12.4747
䗍	-12.4749
瘵	-12.4749
澍	-12.4749
猜	-12.475
陞	-12.475
毉	-12.4751
臠	-12.4751
蘆	-12.4752
掛	-12.4752
餅	-12.4752
揩	-12.4752
嘲	-12.4753
隅	-12.4753
悽	-12.4753
丙	-12.4753
幅	-12.4753
闢	-12.4754
排	-12.4754
詎	-12.4754
廊	-12.4754
沃	-12.4754
𠯋	-12.4755
芳	-12.4755
憤	-12.4755
凝	-12.4756
朔	-12.4756
喉	-12.4756
䇿	-12.4756
閜	-12.4756
穆	-12.4757
凟	-12.4757
捫	-12.4757
粉	-12.4759
刪	-12.476
燿	-12.476
咷	-12.476
創	-12.476
豁	-12.4761
邃	-12.4761
玔	-12.4762
罕	-12.4762
猷	-12.4763
穹	-12.4763
坏	-12.4763
爐	-12.4764
暎	-12.4764
撓	-12.4765
餒	-12.4765
暝	-12.4765
芩	-12.4765
澂	-12.4765
魃	-12.4766
螢	-12.4766
虔	-12.4766
蟒	-12.4766
詭	-12.4766
崎	-12.4766
苟	-12.4767
蝮	-12.4767
稽	-12.4767
珂	-12.4767
歘	-12.4767
卓	-12.4767
暑	-12.4767
垓	-12.4767
架	-12.4768
拾	-12.4768
燃	-12.4769
湊	-12.4769
弼	-12.4769
綖	-12.4769
弛	-12.4769
枚	-12.477
瘂	-12.477
炒	-12.477
砂	-12.4771
粒	-12.4772
脅	-12.4772
鵲	-12.4773
赦	-12.4773
壇	-12.4774
熬	-12.4775
庫	-12.4775
趙	-12.4775
欬	-12.4777
湖	-12.4777
蒜	-12.4777
几	-12.4778
抽	-12.4778
潮	-12.4778
擎	-12.4778
巴	-12.4779
諧	-12.4781
唵	-12.4782
鬱	-12.4782
怱	-12.4783
拄	-12.4783
浣	-12.4783
羌	-12.4784
魑	-12.4784
唇	-12.4786
烹	-12.4789
格	-12.4789
李	-12.479
倪	-12.4791
𡁠	-12.4792
湧	-12.4793
煥	-12.4795
懦	-12.4795
綸	-12.4797
鴻	-12.4797
駃	-12.4798
泄	-12.48
蚤	-12.4804
晡	-12.4806
羆	-12.4812
𧯞	-12.482
鞠	-12.4821
莂	-12.5581
㘑	-12.7193
郭	-12.7207
稷	-12.721
吁	-12.7214
閦	-12.7217
曬	-12.7219
仛	-12.7225
潦	-12.7226
侮	-12.7226
粖	-12.7226
枕	-12.7228
紂	-12.7228
㖑	-12.7229
綻	-12.723
𦂅	-12.723
撩	-12.723
咒	-12.723
鑞	-12.7232
嚬	-12.7232
憩	-12.7232
髀	-12.7233
贖	-12.7233
陌	-12.7235
喙	-12.7235
荔	-12.7236
頹	-12.7236
洎	-12.7237
迊	-12.7237
蓐	-12.7237
旬	-12.7238
崙	-12.7239
搔	-12.7239
斤	-12.7239
斂	-12.724
旭	-12.7241
趁	-12.7242
况	-12.7242
丐	-12.7242
𠆙	-12.7242
􂛕	-12.7243
僚	-12.7243
迸	-12.7243
挐	-12.7244
祝	-12.7245
滑	-12.7245
亨	-12.7245
墟	-12.7246
肺	-12.7246
冐	-12.7246
配	-12.7247
漆	-12.7247
埏	-12.7247
澹	-12.7247
婉	-12.7247
鞾	-12.7247
躃	-12.7248
攣	-12.7248
絺	-12.7249
燕	-12.7249
衒	-12.7249
鸚	-12.725
龕	-12.725
脉	-12.725
揆	-12.725
檐	-12.725
-	-12.725
候	-12.7251
料	-12.7251
汙	-12.7251
零	-12.7251
爰	-12.7252
樞	-12.7253
剪	-12.7253
咀	-12.7253
繡	-12.7253
姻	-12.7253
尫	-12.7254
𨷖	-12.7254
航	-12.7254
蹋	-12.7255
澈	-12.7255
鐘	-12.7255
剔	-12.7255
嗢	-12.7255
祠	-12.7256
恤	-12.7257
繪	-12.7257
兀	-12.7257
懆	-12.7257
征	-12.7258
抓	-12.7258
𧂐	-12.7258
拽	-12.7258
牆	-12.7259
𣚰	-12.726
皺	-12.726
豚	-12.726
濡	-12.726
閔	-12.7261
謇	-12.7261
魁	-12.7261
傅	-12.7261
眵	-12.7261
儜	-12.7262
鑄	-12.7262
冶	-12.7262
拓	-12.7262
鑿	-12.7263
銜	-12.7263
淡	-12.7264
㖉	-12.7264
餝	-12.7264
瀆	-12.7264
迄	-12.7264
銳	-12.7264
妾	-12.7265
扠	-12.7265
棱	-12.7265
莠	-12.7266
噌	-12.7266
黟	-12.7266
軸	-12.7266
院	-12.7267
𨂫	-12.7267
揜	-12.7268
瘠	-12.7268
昊	-12.7268
萇	-12.7269
萌	-12.7269
蓄	-12.7269
轅	-12.7269
釁	-12.7269
壙	-12.7269
籬	-12.7269
茸	-12.7269
􂛍	-12.7269
捲	-12.7271
腰	-12.7271
薦	-12.7271
技	-12.7271
攸	-12.7271
拶	-12.7271
派	-12.7271
懌	-12.7271
芥	-12.7271
添	-12.7272
拖	-12.7272
蠆	-12.7272
籤	-12.7272
聊	-12.7272
饜	-12.7272
澗	-12.7273
蹬	-12.7273
綜	-12.7273
袋	-12.7273
吲	-12.7273
泛	-12.7275
佩	-12.7276
鹵	-12.7276
疽	-12.7276
碾	-12.7276
誕	-12.7276
阻	-12.7276
跌	-12.7276
塚	-12.7277
矢	-12.7278
垣	-12.7278
躭	-12.7278
哿	-12.7279
僥	-12.728
縊	-12.728
𣩠	-12.728
尉	-12.7282
郎	-12.7283
甄	-12.7283
讎	-12.7284
弦	-12.7285
戈	-12.7285
匪	-12.7286
𦪑	-12.7287
􂏔	-12.7287
估	-12.7287
禦	-12.7288
綱	-12.7289
態	-12.7289
遁	-12.729
墓	-12.729
𢤱	-12.729
靖	-12.7292
韻	-12.7293
換	-12.7294
饋	-12.7294
媲	-12.7297
班	-12.7298
蛔	-12.7298
線	-12.7301
疆	-12.7304
􂚷	-12.7305
拈	-12.7309
釐	-12.731
鵄	-12.7311
藺	-12.7311
齧	-12.7314
逗	-12.7316
謩	-12.7321
幕	-12.7328
箄	-12.7348
侜	-12.7389
𣢁	-13.0502
嘻	-13.0504
蟾	-13.0512
葵	-13.0531
𦾨	-13.0535
虐	-13.0539
轍	-13.0539
珞	-13.0545
龠	-13.0554
机	-13.0558
舡	-13.0558
壅	-13.056
漬	-13.056
泆	-13.056
婫	-13.0561
埜	-13.0562
貳	-13.0564
碯	-13.0564
頡	-13.0564
跳	-13.0566
卯	-13.0566
裨	-13.0567
僂	-13.0568
卜	-13.0568
駿	-13.0569
呂	-13.057
霞	-13.057
拙	-13.0571
諱	-13.0572
毱	-13.0573
]	-13.0573
攡	-13.0573
隘	-13.0574
抂	-13.0574
蘂	-13.0574
潰	-13.0576
訪	-13.0576
坯	-13.0577
奄	-13.0577
咳	-13.0578
嚪	-13.0579
糓	-13.0579
棺	-13.0579
蹹	-13.0579
緬	-13.058
賖	-13.0581
𨈬	-13.0581
号	-13.0581
悸	-13.0581
禱	-13.0582
鈞	-13.0582
劬	-13.0583
熙	-13.0583
攢	-13.0583
㕛	-13.0583
幹	-13.0583
蕀	-13.0583
齩	-13.0583
隥	-13.0584
壬	-13.0584
楗	-13.0585
疋	-13.0585
檻	-13.0585
牖	-13.0585
竅	-13.0585
巫	-13.0586
戊	-13.0586
鳳	-13.0587
蒸	-13.0587
鄥	-13.0587
埤	-13.0587
淹	-13.0587
𢍉	-13.0587
銖	-13.0588
竈	-13.0589
㹢	-13.0589
跱	-13.0589
餐	-13.0589
恰	-13.0589
擐	-13.0589
涎	-13.0589
蔕	-13.0589
悞	-13.0591
馭	-13.0591
餮	-13.0591
核	-13.0591
磑	-13.0591
秭	-13.0591
匠	-13.0592
驃	-13.0592
兗	-13.0593
匣	-13.0593
麋	-13.0593
劵	-13.0593
擒	-13.0593
玻	-13.0593
㵱	-13.0593
睛	-13.0593
蝸	-13.0593
弈	-13.0593
澇	-13.0594
稗	-13.0594
尅	-13.0594
纖	-13.0594
溷	-13.0595
抹	-13.0595
液	-13.0595
賦	-13.0595
牒	-13.0596
瞞	-13.0596
傑	-13.0597
獅	-13.0597
鉞	-13.0597
蠶	-13.0597
粹	-13.0597
紐	-13.0597
姨	-13.0597
拱	-13.0597
眚	-13.0598
琢	-13.0598
憃	-13.0599
闊	-13.0599
酌	-13.0599
戱	-13.0599
遽	-13.0599
䆳	-13.0599
拼	-13.0599
嫡	-13.0601
璝	-13.0601
𢡖	-13.0601
兇	-13.0601
遘	-13.0601
糠	-13.0601
陟	-13.0602
胆	-13.0602
斥	-13.0603
槐	-13.0603
凉	-13.0603
懾	-13.0603
昌	-13.0603
詢	-13.0603
廉	-13.0603
廂	-13.0603
鎗	-13.0603
衍	-13.0604
績	-13.0604
膽	-13.0604
蔚	-13.0606
昨	-13.0606
碓	-13.0606
穗	-13.0606
疼	-13.0607
謁	-13.0607
胥	-13.0608
挾	-13.0608
偉	-13.0608
刈	-13.0608
擘	-13.0608
綏	-13.0608
爍	-13.0609
愉	-13.061
秀	-13.061
洵	-13.061
巾	-13.061
窒	-13.061
莽	-13.061
虹	-13.0611
謦	-13.0611
萃	-13.0612
蓏	-13.0612
蠍	-13.0612
駐	-13.0612
鼎	-13.0614
卦	-13.0614
斜	-13.0614
勘	-13.0614
𧹞	-13.0614
贊	-13.0614
汎	-13.0614
湎	-13.0614
瞽	-13.0614
艾	-13.0614
挫	-13.0616
需	-13.0616
駁	-13.0616
趂	-13.0617
桓	-13.0618
邈	-13.0618
捭	-13.0618
孟	-13.0618
涂	-13.0618
寅	-13.062
簿	-13.062
翊	-13.062
鎔	-13.062
昞	-13.062
賞	-13.062
秤	-13.0621
督	-13.0622
鈇	-13.0622
仕	-13.0622
擅	-13.0622
祛	-13.0622
侗	-13.0622
塼	-13.0624
俞	-13.0624
搗	-13.0624
町	-13.0624
痒	-13.0625
板	-13.0626
濬	-13.0626
臊	-13.0627
稜	-13.0628
聯	-13.063
洟	-13.063
兦	-13.063
鱠	-13.063
捔	-13.0631
唧	-13.0631
鐇	-13.0631
騷	-13.0633
捄	-13.0634
悒	-13.0635
鍊	-13.0635
隻	-13.0637
迤	-13.0637
裟	-13.0643
砧	-13.0645
鈔	-13.0647
瘴	-13.0649
覃	-13.0651
聳	-13.0651
俾	-13.0653
扼	-13.0656
□	-13.0657
肇	-13.0664
猿	-13.5508
􂛇	-13.5508
嚟	-13.5511
插	-13.5514
㘕	-13.5517
羇	-13.5517
萏	-13.552
岷	-13.5523
璽	-13.5531
𤦲	-13.5535
薜	-13.5539
訕	-13.5539
瞖	-13.5539
巛	-13.5539
迺	-13.5539
窣	-13.5545
苫	-13.5545
諶	-13.5545
貸	-13.5545
哦	-13.5545
瀉	-13.5549
抳	-13.5549
豔	-13.5552
嚼	-13.5552
俠	-13.5553
秏	-13.5554
狡	-13.5555
譴	-13.5555
瞢	-13.5558
叛	-13.5558
彫	-13.5558
鞬	-13.5558
歔	-13.5558
徤	-13.5558
茗	-13.5558
峰	-13.556
噫	-13.5561
慜	-13.5561
輝	-13.5561
刊	-13.5561
猩	-13.5561
衫	-13.5561
訊	-13.5564
䔧	-13.5564
陿	-13.5564
亞	-13.5564
蔡	-13.5564
𥿫	-13.5564
睱	-13.5568
舐	-13.5568
侫	-13.5568
賑	-13.5571
炮	-13.5571
獰	-13.5571
醇	-13.5571
凸	-13.5571
滲	-13.5571
䣑	-13.5571
握	-13.5571
撤	-13.5571
确	-13.5571
𦟛	-13.5571
蠻	-13.5574
盎	-13.5574
佳	-13.5574
拆	-13.5574
䖍	-13.5574
襟	-13.5574
詶	-13.5574
𠲿	-13.5574
烊	-13.5574
憔	-13.5574
糖	-13.5574
鬀	-13.5574
帙	-13.5575
澓	-13.5575
𢰗	-13.5577
䥫	-13.5577
做	-13.5577
廼	-13.5577
棖	-13.5577
泊	-13.5577
恙	-13.5577
癲	-13.5577
燖	-13.5577
蟣	-13.5577
跨	-13.5577
瞀	-13.5577
紏	-13.5577
緯	-13.5577
蝗	-13.5577
軛	-13.5577
騫	-13.5577
𦙽	-13.5577
瑣	-13.5579
膜	-13.558
哹	-13.558
聿	-13.558
倀	-13.558
儸	-13.558
啖	-13.558
弁	-13.558
懲	-13.558
抆	-13.558
槨	-13.558
諊	-13.558
駑	-13.558
裳	-13.5581
繇	-13.5582
霆	-13.5582
痊	-13.5582
椒	-13.5583
跟	-13.5583
䯇	-13.5583
僅	-13.5583
卸	-13.5583
峨	-13.5583
虺	-13.5583
鋤	-13.5583
鴆	-13.5583
𠎝	-13.5585
瑜	-13.5586
噎	-13.5586
嗽	-13.5586
慨	-13.5586
錙	-13.5586
駭	-13.5586
縠	-13.5586
㭰	-13.5586
匈	-13.5586
姤	-13.5586
峙	-13.5586
浙	-13.5586
簷	-13.5586
鐶	-13.5586
貲	-13.5588
措	-13.5588
󰪥	-13.5589
斟	-13.5589
彎	-13.5589
柢	-13.559
䰅	-13.559
討	-13.559
訛	-13.559
酉	-13.559
飼	-13.559
劓	-13.559
囂	-13.559
竿	-13.559
筐	-13.559
緹	-13.559
臛	-13.559
葂	-13.559
虀	-13.559
蠃	-13.559
轄	-13.559
鐸	-13.559
颰	-13.559
袖	-13.5591
潢	-13.5593
𤚥	-13.5593
鑽	-13.5593
丞	-13.5593
宦	-13.5593
癊	-13.5593
刖	-13.5593
坘	-13.5593
樸	-13.5593
淋	-13.5594
埠	-13.5596
郊	-13.5596
勺	-13.5596
樣	-13.5596
些	-13.5596
掖	-13.5596
焱	-13.5596
呈	-13.5596
屹	-13.5596
愶	-13.5596
杳	-13.5596
疐	-13.5596
貰	-13.5596
驎	-13.5596
𥇒	-13.5596
輙	-13.5598
塢	-13.5599
汪	-13.5599
舂	-13.5599
藻	-13.5599
炳	-13.5599
稿	-13.5599
縇	-13.5599
伍	-13.5599
嚝	-13.5599
縫	-13.5599
𤿺	-13.5599
勾	-13.5601
坒	-13.5602
窊	-13.5602
剚	-13.5602
沿	-13.5602
亟	-13.5602
宓	-13.5602
恆	-13.5602
栰	-13.5602
歛	-13.5602
榜	-13.5602
鑪	-13.5602
䏣	-13.5602
唅	-13.5602
姙	-13.5602
濃	-13.5602
脯	-13.5602
㳄	-13.5602
倘	-13.5602
儨	-13.5602
厓	-13.5602
摘	-13.5602
攞	-13.5602
臼	-13.5602
諄	-13.5602
踣	-13.5602
闚	-13.5602
頤	-13.5602
伻	-13.5604
餉	-13.5604
瞙	-13.5604
戎	-13.5605
嘶	-13.5605
紉	-13.5605
頷	-13.5605
効	-13.5605
俸	-13.5605
舜	-13.5605
哱	-13.5605
輞	-13.5605
曚	-13.5605
蠢	-13.5605
𠱀	-13.5605
鶴	-13.5607
蜓	-13.5608
媒	-13.5608
殻	-13.5608
箱	-13.5608
􂌦	-13.5608
􂍧	-13.5608
培	-13.5608
諠	-13.5608
迃	-13.5608
敻	-13.5608
廻	-13.5608
憫	-13.5608
毆	-13.5608
蕪	-13.561
傘	-13.561
臆	-13.5612
竦	-13.5612
諵	-13.5612
捍	-13.5612
柯	-13.5612
閱	-13.5612
迥	-13.5612
㨗	-13.5612
剜	-13.5612
嚙	-13.5612
疥	-13.5612
窖	-13.5612
緻	-13.5612
舶	-13.5612
儐	-13.5613
黏	-13.5613
𥎞	-13.5615
貶	-13.5615
靼	-13.5615
懽	-13.5615
携	-13.5615
曄	-13.5615
烔	-13.5615
瘞	-13.5615
昉	-13.5615
繭	-13.5615
裘	-13.5615
窅	-13.5615
耄	-13.5615
觭	-13.5615
𥄏	-13.5615
􂎛	-13.5615
禎	-13.5616
桑	-13.5616
稔	-13.5618
夥	-13.5618
滄	-13.5618
玷	-13.5618
倩	-13.5618
模	-13.5618
痴	-13.5618
𠍴	-13.5618
騁	-13.5621
汲	-13.5621
杌	-13.5621
埀	-13.5621
緘	-13.5621
酷	-13.5621
羲	-13.5621
踝	-13.5621
冊	-13.5621
墳	-13.5621
洄	-13.5621
貂	-13.5621
仲	-13.5623
盍	-13.5624
㕹	-13.5624
瘤	-13.5624
悛	-13.5624
洒	-13.5624
罹	-13.5624
臈	-13.5624
幬	-13.5627
榆	-13.5627
甦	-13.5627
評	-13.5627
垠	-13.5627
枙	-13.5627
糾	-13.5627
膈	-13.5627
荳	-13.5627
菟	-13.563
桴	-13.563
黿	-13.563
椽	-13.563
嫗	-13.5631
惕	-13.5631
篩	-13.5631
叩	-13.5631
矚	-13.5631
旗	-13.5634
躓	-13.5634
皓	-13.5634
膺	-13.5634
鏘	-13.5634
鯉	-13.5634
邀	-13.5635
透	-13.5637
灸	-13.5637
瘟	-13.5637
偘	-13.5637
蝕	-13.5638
嶺	-13.564
莘	-13.564
遑	-13.564
禳	-13.564
亹	-13.564
瀏	-13.564
烽	-13.564
薀	-13.564
蟯	-13.564
蕭	-13.5641
怵	-13.5643
盆	-13.5643
伶	-13.5645
奕	-13.5645
采	-13.5646
侘	-13.5646
批	-13.5646
淊	-13.5646
癈	-13.5646
幔	-13.5649
煞	-13.5649
蘖	-13.5649
􂛋	-13.5649
頒	-13.5654
磓	-13.5656
懟	-13.5656
篇	-13.5659
乚	-13.5659
仳	-13.5659
蹄	-13.5662
媼	-13.5662
癎	-13.5665
懱	-13.5665
鄂	-13.5665
攘	-13.5668
驕	-13.5678
擗	-13.5681
禧	-13.5681
矰	-13.5684
萋	-13.5684
臰	-13.5687
鵰	-13.5693
旌	-13.5694
􂒖	-13.5703
齅	-13.5725
􂚽	-14.544
𪘨	-14.5441
𩢨	-14.5442
𧿡	-14.5443
𧙯	-14.5444
𥢶	-14.5445
𤳖	-14.5446
𣫢	-14.5447
𢈔	-14.5448
𡓄	-14.5449
𡍫	-14.545
𡋯	-14.5451
𡄇	-14.5452
𡀩	-14.5453
𠰘	-14.5454
㗣	-14.5455
鼨	-14.5455
黛	-14.5456
髠	-14.5457
餌	-14.5458
霖	-14.5459
鐙	-14.546
鐐	-14.5461
鎞	-14.5462
鍱	-14.5463
鋟	-14.5464
釿	-14.5465
郵	-14.5466
邠	-14.5467
遨	-14.5468
逶	-14.5469
貓	-14.547
貍	-14.5471
誷	-14.5472
誥	-14.5473
觴	-14.5474
覔	-14.5475
褒	-14.5476
褁	-14.5477
裓	-14.5478
䢖	-14.5479
䫌	-14.5479
蜘	-14.5479
蜈	-14.548
蛟	-14.5481
蛛	-14.5482
蚣	-14.5483
蚑	-14.5484
蔬	-14.5485
蓉	-14.5486
茵	-14.5487
芙	-14.5488
膇	-14.5489
肚	-14.549
纜	-14.5491
縟	-14.5492
緇	-14.5493
綩	-14.5494
絓	-14.5495
笥	-14.5496
窺	-14.5497
窄	-14.5498
磁	-14.5499
眩	-14.55
甖	-14.5501
瓈	-14.5502
䂎	-14.5503
瑰	-14.5503
琳	-14.5504
珀	-14.5505
玃	-14.5506
猨	-14.5507
狸	-14.5508
狴	-14.5509
狠	-14.551
牸	-14.5511
牲	-14.5512
熊	-14.5513
熄	-14.5514
烝	-14.5515
濼	-14.5516
濱	-14.5517
漱	-14.5518
湔	-14.5519
湏	-14.552
淮	-14.5521
沛	-14.5522
汩	-14.5523
欹	-14.5524
欠	-14.5525
構	-14.5526
榴	-14.5527
森	-14.5528
梗	-14.5529
枵	-14.553
材	-14.5531
朅	-14.5532
敕	-14.5533
攪	-14.5534
䩛	-14.5535
撈	-14.5535
戕	-14.5536
慣	-14.5537
悍	-14.5538
恀	-14.5539
徽	-14.554
徘	-14.5541
徊	-14.5542
㻲	-14.5543
佈	-14.5543
彗	-14.5543
廩	-14.5544
庚	-14.5545
帑	-14.5546
孃	-14.5547
埴	-14.5548
嚇	-14.5549
嚀	-14.555
〡	-14.5551
嘖	-14.5551
喫	-14.5552
喑	-14.5553
哮	-14.5554
呾	-14.5555
呻	-14.5556
呌	-14.5557
叮	-14.5558
倖	-14.5559
叭	-14.5559
凢	-14.556
儴	-14.5561
儲	-14.5562
儆	-14.5563
乑	-14.5564
䴰	-14.5565
䦱	-14.5566
豺	-14.5567
䠒	-14.5567
䖟	-14.5568
㲉	-14.5569
㮈	-14.557
㖪	-14.5571
黜	-14.5572
鸞	-14.5573
鵡	-14.5574
靂	-14.5575
㜸	-14.5575
㹠	-14.5575
䬸	-14.5575
优	-14.5575
佑	-14.5575
佚	-14.5575
倐	-14.5575
闑	-14.5576
閫	-14.5577
閇	-14.5578
鍮	-14.5579
僊	-14.5579
鉛	-14.558
軻	-14.5581
軒	-14.5582
爵	-14.5583
讁	-14.5583
賃	-14.5583
㲣	-14.5583
㲪	-14.5583
䆿	-14.5583
串	-14.5583
俛	-14.5583
体	-14.5583
謑	-14.5584
觔	-14.5585
複	-14.5586
蟇	-14.5587
蝦	-14.5588
萄	-14.5589
菉	-14.559
操	-14.5591
舫	-14.5591
々	-14.5591
䑛	-14.5591
丂	-14.5591
禹	-14.5592
盞	-14.5593
瘀	-14.5594
琶	-14.5595
琵	-14.5596
犛	-14.5597
燁	-14.5598
炰	-14.5599
仞	-14.5599
伉	-14.5599
涵	-14.56
泔	-14.5601
櫓	-14.5602
槁	-14.5603
曆	-14.5604
悷	-14.5605
恢	-14.5606
崑	-14.5607
䁥	-14.5607
䴸	-14.5607
倨	-14.5607
袪	-14.5607
島	-14.5608
宙	-14.5609
娠	-14.561
姚	-14.5611
塜	-14.5612
圊	-14.5613
噤	-14.5614
嗤	-14.5615
亥	-14.5615
咻	-14.5616
匃	-14.5617
􂛁	-14.5618
鷂	-14.5619
馺	-14.562
鄯	-14.5621
粲	-14.5622
畋	-14.5623
㧧	-14.5623
㰠	-14.5623
㳂	-14.5623
䩯	-14.5623
佡	-14.5623
課	-14.5623
璧	-14.5624
瑪	-14.5625
狄	-14.5626
冑	-14.5627
灼	-14.5627
欻	-14.5628
掁	-14.5629
剡	-14.563
寞	-14.563
恍	-14.563
戇	-14.5631
忒	-14.5631
瑚	-14.5631
謫	-14.5631
㰆	-14.5631
俎	-14.5631
帀	-14.5632
孜	-14.5633
妷	-14.5634
埃	-14.5635
副	-14.5636
倣	-14.5637
义	-14.5638
㧣	-14.5639
楯	-14.5639
䩭	-14.564
傭	-14.564
僻	-14.564
𨪏	-14.564
𤴽	-14.5641
𡃳	-14.5642
髑	-14.5643
鏫	-14.5644
迨	-14.5645
辜	-14.5646
踴	-14.5647
麞	-14.5647
䦧	-14.5648
跏	-14.5648
譫	-14.5649
繽	-14.565
繁	-14.5651
甜	-14.5652
玼	-14.5653
溉	-14.5654
棚	-14.5655
㙠	-14.5656
㲖	-14.5656
䘖	-14.5656
侏	-14.5656
俊	-14.5656
倿	-14.5656
慙	-14.5656
愎	-14.5657
堆	-14.5658
圄	-14.5659
囹	-14.566
儼	-14.5661
㗭	-14.5662
蔗	-14.5663
𥝟	-14.5663
䟽	-14.5664
裸	-14.5664
沌	-14.5665
杇	-14.5666
惒	-14.5667
孩	-14.5668
婚	-14.5669
姝	-14.567
嘷	-14.5671
㖿	-14.5672
㞢	-14.5672
乇	-14.5672
蜎	-14.5672
舅	-14.5673
撞	-14.5674
恪	-14.5675
貿	-14.5676
榻	-14.5677
惚	-14.5678
〕	-14.5679
侸	-14.568
魎	-14.568
謚	-14.5681
訾	-14.5682
葦	-14.5683
嬉	-14.5684
>	-14.5685
魍	-14.5686
蠕	-14.5687
琰	-14.5688
岌	-14.5689
妊	-14.569
万	-14.5691
闐	-14.5692
瑠	-14.5693
臧	-14.5694
粳	-14.5695
你	-14.5696
僮	-14.5696
輾	-14.5697
虻	-14.5698
懶	-14.5699
懊	-14.57
瀑	-14.5701
鄔	-14.5702
篌	-14.5703
箜	-14.5704
醐	-14.5705
醍	-14.5706
穬	-14.5707
礫	-14.5708
憺	-14.5709
+	-14.571
蕉	-14.5711
芭	-14.5712
獼	-14.5713
迭	-14.5714
澡	-14.5715
臚	-14.5716
瑙	-14.5717
尒	-14.5718
詈	-14.5719
袈	-14.572
亶	-14.572
諛	-14.572
婇	-14.5721
袒	-14.5722
娛	-14.5723
攀	-14.5724
o	-14.5725
N	-14.5726
殑	-14.5727
臾	-14.5728
呰	-14.5729
琉	-14.573
璃	-14.5731
巍	-14.5732
忉	-14.5733
罣	-14.5734
苾	-14.5735
—	-14.5736
伹	-14.5736
