<unk>	0
<s>	0
</s>	0
。	-1.74794
也	-4.35169
故	-4.35306
者	-4.53965
有	-4.72913
無	-4.90886
為	-5.06575
是	-5.1159
以	-5.14218
之	-5.15629
此	-5.28834
若	-5.29018
即	-5.40289
而	-5.41387
如	-5.44225
一	-5.46634
不	-5.47629
法	-5.49241
非	-5.5144
二	-5.51778
義	-5.55205
則	-5.56207
生	-5.60536
於	-5.62785
明	-5.67911
因	-5.6833
謂	-5.69292
言	-5.69389
中	-5.69466
名	-5.71397
破	-5.74375
等	-5.80306
相	-5.81963
說	-5.85507
亦	-5.86045
又	-5.89449
(	-5.91123
)	-5.91123
三	-5.92893
下	-5.96166
人	-5.97153
空	-5.98873
今	-5.99124
云	-5.99293
見	-6.02321
▁	-6.05278
彼	-6.05901
得	-6.09335
耶	-6.09405
答	-6.10016
心	-6.10944
體	-6.12532
果	-6.12617
異	-6.1551
問	-6.17097
與	-6.20607
我	-6.23294
時	-6.25667
,	-6.28107
智	-6.28993
知	-6.29832
應	-6.30078
成	-6.3076
前	-6.31268
自	-6.32821
佛	-6.3341
論	-6.33875
其	-6.34131
常	-6.35345
滅	-6.38066
用	-6.38658
。「	-6.38826
理	-6.3897
後	-6.39139
大	-6.40671
同	-6.40861
既	-6.41341
作	-6.41493
涅槃	-6.41939
所	-6.42125
如是	-6.43996
初	-6.44355
四	-6.4494
但	-6.46693
皆	-6.47477
即是	-6.49255
行	-6.4976
性	-6.49993
緣	-6.52788
能	-6.54173
起	-6.54382
」	-6.55359
從	-6.56003
是故	-6.56917
然	-6.57772
雖	-6.58741
實	-6.59946
上	-6.60796
色	-6.61284
釋	-6.6141
本	-6.62604
觀	-6.62978
正	-6.63022
通	-6.63756
離	-6.64919
立	-6.65049
物	-6.65644
眾生	-6.6589
真	-6.66026
道	-6.67345
意	-6.67531
及	-6.68129
。」【	-6.69313
諸	-6.70225
一切	-6.70926
身	-6.71865
出	-6.72137
菩薩	-6.72861
可	-6.76392
云何	-6.76411
名為	-6.76555
汝	-6.78252
難	-6.78385
解	-6.79376
由	-6.81243
執	-6.83688
曰	-6.84228
教	-6.84617
耳	-6.85034
諸法	-6.85088
在	-6.85111
別	-6.85704
至	-6.85945
經	-6.85958
有無	-6.86392
業	-6.86531
合	-6.86853
顯	-6.87165
境	-6.88619
住	-6.88798
文	-6.8928
因緣	-6.90974
就	-6.91609
門	-6.92688
次	-6.93269
取	-6.93358
依	-6.93948
無常	-6.94042
定	-6.94346
事	-6.94732
所以	-6.95215
二諦	-6.95242
斷	-6.95463
外	-6.96095
多	-6.96131
復次	-6.96226
識	-6.96414
神	-6.97935
入	-6.97972
。】「	-6.99217
宗	-6.99567
苦	-7.01996
假	-7.02646
過	-7.02958
盡	-7.03225
何以故	-7.05488
故云	-7.07734
無有	-7.07758
未	-7.08137
受	-7.08362
去	-7.08416
兩	-7.08459
五	-7.08553
如來	-7.09302
分	-7.09471
他	-7.102
已	-7.1064
處	-7.11574
證	-7.11826
令	-7.12693
何	-7.12901
因果	-7.14128
或	-7.14172
失	-7.14198
當	-7.15112
先	-7.15206
善	-7.17252
般若	-7.17289
俱	-7.17661
復	-7.18025
生死	-7.18064
釋曰	-7.18168
瓶	-7.20623
*	-7.21184
照	-7.21247
求	-7.21968
餘	-7.22728
分別	-7.22738
具	-7.23621
內	-7.25491
悟	-7.25823
對	-7.26788
乃	-7.27374
亦無	-7.27944
辨	-7.27953
隨	-7.28727
大乘	-7.29494
聞	-7.29755
無為	-7.30665
欲	-7.3077
方便	-7.31422
開	-7.32487
唯	-7.32974
方	-7.33151
不同	-7.34039
二者	-7.34292
無生	-7.34653
師	-7.34785
不得	-7.35191
並	-7.35232
覺	-7.35901
一者	-7.36397
壞	-7.36699
不可	-7.36709
俗	-7.37093
第二	-7.37144
不能	-7.39274
不生	-7.40673
品	-7.40841
論主	-7.41716
來	-7.42201
煩惱	-7.42808
疏	-7.43046
語	-7.44715
眼	-7.44855
世諦	-7.4498
佛性	-7.45098
舉	-7.46135
真諦	-7.46688
引	-7.46844
喻	-7.46878
計	-7.47002
無相	-7.47441
世間	-7.47507
世	-7.48247
現	-7.48432
待	-7.50874
邪	-7.52023
外道	-7.52179
地	-7.52337
約	-7.52696
小	-7.52842
波若	-7.52919
實相	-7.54681
便	-7.54932
六	-7.55606
迷	-7.56164
此是	-7.57275
位	-7.58357
動	-7.59534
生滅	-7.59754
稱	-7.60503
矣	-7.6086
巳	-7.61456
聖	-7.61675
深	-7.61684
若言	-7.6188
總	-7.62106
火	-7.62401
轉	-7.62427
除	-7.62488
結	-7.62825
故名	-7.62835
指	-7.63339
何者	-7.63613
會	-7.64116
第三	-7.64632
惑	-7.64835
樂	-7.64962
不成	-7.64991
慧	-7.65884
中道	-7.65915
不見	-7.66011
絕	-7.66055
天	-7.66172
不二	-7.66492
捨	-7.67339
解脫	-7.67348
則無	-7.68395
必	-7.69065
攝	-7.69304
小乘	-7.70322
若有	-7.70344
外人	-7.70422
自性	-7.70596
根	-7.70792
顛倒	-7.70895
著	-7.71154
諦	-7.712
形	-7.7154
八	-7.73153
譬如	-7.74157
重	-7.74181
化	-7.74258
還	-7.74369
聖人	-7.74463
德	-7.74564
乃至	-7.74742
此中	-7.74929
不應	-7.75058
感	-7.75364
第一	-7.75549
亦應	-7.75677
十	-7.75877
四句	-7.75938
論云	-7.76605
情	-7.7661
偈	-7.76892
學	-7.77048
始	-7.77401
法身	-7.77511
數	-7.77782
自體	-7.77919
不知	-7.79295
無知	-7.79361
若無	-7.79403
陰	-7.79445
如此	-7.79647
凡	-7.80329
亦不	-7.80972
差別	-7.81995
眾	-7.82245
五陰	-7.82401
發	-7.82411
所說	-7.82473
夫	-7.82562
七	-7.82649
力	-7.82663
信	-7.82866
淨	-7.83131
非有	-7.83378
修	-7.84135
非有非無	-7.84136
水	-7.84181
不異	-7.84191
廣	-7.8474
聲	-7.84842
勝	-7.85235
而不	-7.85241
終	-7.85292
今明	-7.85473
而有	-7.85517
長	-7.85696
乎	-7.85845
玄	-7.85849
示	-7.86957
一切法	-7.8779
二乘	-7.88046
三乘	-7.88108
思	-7.88547
妙	-7.88563
未來	-7.88576
故知	-7.89017
反	-7.89194
虛空	-7.8929
遮	-7.90143
答曰	-7.90309
妄	-7.90345
不可得	-7.90738
家	-7.90802
遍	-7.91038
皆是	-7.9151
更	-7.9174
極	-7.92038
變	-7.92051
問曰	-7.92075
和合	-7.92436
遠	-7.92472
子	-7.92762
現在	-7.93074
。】△	-7.93324
念	-7.93367
乘	-7.93895
障	-7.94153
了	-7.94942
屬	-7.95215
惡	-7.95688
略	-7.95747
過去	-7.96017
愛	-7.96047
爾	-7.96104
亦是	-7.96276
須	-7.96866
豈	-7.97177
施	-7.97353
性空	-7.97395
病	-7.97584
將	-7.97767
非無	-7.98023
故言	-7.98818
若爾	-7.98906
止	-7.99433
何故	-7.99642
相續	-8.01528
相違	-8.02884
疑	-8.02981
虛	-8.03208
申	-8.03499
經云	-8.03843
.	-8.04379
共	-8.04766
亦非	-8.04834
決定	-8.06101
寂	-8.06402
少	-8.06676
塵	-8.06796
無因	-8.06826
凡夫	-8.07001
能生	-8.07315
無體	-8.08239
往	-8.084
無所	-8.08545
類	-8.08939
違	-8.0898
所作	-8.09498
歸	-8.09713
即無	-8.09738
一異	-8.09759
有為	-8.09822
向	-8.09851
直	-8.0997
權	-8.10307
各	-8.10323
流	-8.1044
等者	-8.10626
責	-8.10783
不遷	-8.10808
王	-8.11077
偏	-8.11117
可得	-8.11316
三世	-8.11546
次第	-8.11622
倒	-8.11766
種種	-8.11983
一時	-8.1207
縛	-8.12191
既無	-8.12607
是有	-8.12794
人法	-8.12813
非是	-8.13475
猶	-8.13644
虗	-8.1375
三者	-8.13833
論者言	-8.13947
、	-8.13987
標	-8.14223
雙	-8.14275
獨	-8.14473
九	-8.14503
斯	-8.14583
望	-8.14712
相待	-8.15038
微	-8.15148
有二	-8.152
竟	-8.15349
無量	-8.15416
觸	-8.15574
度	-8.15606
息	-8.1575
真俗	-8.15789
第一義中	-8.1661
第四	-8.17854
表	-8.18029
卷	-8.18206
量	-8.19078
境界	-8.19112
不然	-8.19249
諸佛	-8.19286
古	-8.19391
燈	-8.19812
故曰	-8.19817
生時	-8.20158
想	-8.20654
實有	-8.21302
悉	-8.21314
外曰	-8.21885
亦爾	-8.22027
字	-8.22266
昔	-8.22269
窮	-8.22522
假名	-8.22755
象	-8.23039
不有	-8.23561
有所得	-8.23711
義也	-8.24054
利	-8.24139
戲論	-8.24458
殊	-8.24609
此義	-8.24762
故有	-8.24774
造	-8.24877
中論	-8.25048
作者	-8.25137
境智	-8.2514
頌言	-8.25159
則是	-8.25266
是以	-8.25335
亦有	-8.25356
無明	-8.25519
無我	-8.25823
日	-8.25911
使	-8.26394
救	-8.26716
無所得	-8.2684
末	-8.26909
智慧	-8.27258
聲聞	-8.27303
存	-8.27375
道理	-8.2738
之義	-8.27553
順	-8.2819
要	-8.28275
內曰	-8.2853
色等	-8.28882
例	-8.28988
所謂	-8.29218
染	-8.29428
十二	-8.29472
三界	-8.29741
哉	-8.29755
邪見	-8.29936
修妬路	-8.30056
又云	-8.3132
且	-8.31465
萬物	-8.3186
菩提	-8.31862
只	-8.31939
遣	-8.32242
二智	-8.32312
目	-8.3238
種	-8.32472
是則	-8.33364
此則	-8.33481
墮	-8.33483
;	-8.33904
本無	-8.34137
內外	-8.34394
靜	-8.34784
達	-8.34877
推	-8.36146
前後	-8.36184
俗諦	-8.36187
此即	-8.36359
去者	-8.36641
遷	-8.36723
空有	-8.37088
是常	-8.37207
趣	-8.3761
誰	-8.37957
所依	-8.38162
可見	-8.38415
似	-8.3842
句	-8.3844
年	-8.38601
尚	-8.38717
以為	-8.3913
互	-8.39382
山	-8.3939
死	-8.39891
故名為	-8.40111
冥	-8.40296
致	-8.40347
部	-8.40355
不住	-8.40468
所言	-8.40579
常住	-8.40778
邊	-8.41047
若謂	-8.41228
不滅	-8.41368
法性	-8.41788
?	-8.42027
之理	-8.42079
未生	-8.42156
不取	-8.42435
據	-8.42896
三相	-8.43046
尋	-8.43179
興	-8.43189
下半	-8.43268
別有	-8.43434
細	-8.43954
第一義	-8.44099
報	-8.44217
一乘	-8.44289
中有	-8.44347
益	-8.44363
習	-8.44709
此二	-8.44992
亦然	-8.45778
未有	-8.46326
集	-8.46397
風	-8.46531
無故	-8.46581
聖心	-8.46715
圓	-8.4676
安	-8.46805
諸行	-8.46897
現見	-8.47276
▁二	-8.47278
無性	-8.47289
論曰	-8.4758
遂	-8.47684
能所	-8.47899
有法	-8.48068
有所	-8.48226
八不	-8.48265
二種	-8.48334
麁	-8.4841
之法	-8.4843
序	-8.48441
亦如是	-8.48513
法體	-8.48551
國	-8.49002
不空	-8.49295
敘	-8.49391
述曰	-8.49426
迹	-8.49492
而生	-8.49584
足	-8.49837
寂滅	-8.49869
歎	-8.50113
可知	-8.50186
無別	-8.50226
大小	-8.50368
不生不滅	-8.50466
無窮	-8.5071
應有	-8.50803
亡	-8.50842
則有	-8.51186
龍樹	-8.51449
斷常	-8.51567
所見	-8.51643
謂之	-8.51785
有異	-8.51859
萬	-8.52269
有二種	-8.52413
無二	-8.52549
故無	-8.53191
易	-8.53212
近	-8.53296
徵	-8.53429
此論	-8.53521
佛法	-8.53752
福	-8.53878
清淨	-8.54497
復有	-8.54498
不離	-8.54705
正法	-8.54746
真實	-8.54777
一法	-8.55284
故說	-8.55458
譬	-8.55517
宜	-8.55665
傳	-8.55871
不說	-8.56018
自然	-8.56046
若是	-8.56424
翻	-8.56602
之人	-8.56629
而言	-8.56642
為因	-8.56689
述	-8.56939
真如	-8.57097
旨	-8.57196
百	-8.5742
章	-8.57422
畢竟空	-8.57533
界	-8.57574
一切眾生	-8.57705
然則	-8.58037
下第二	-8.58292
伏	-8.5833
正破	-8.58331
罪	-8.58461
機	-8.58668
並是	-8.58836
無礙	-8.59005
極微	-8.59099
平等	-8.59272
藏	-8.5938
有三	-8.59421
周	-8.59958
體用	-8.60065
明之	-8.60074
先有	-8.60557
無名	-8.60585
第一義諦	-8.61138
因中	-8.61156
牛	-8.61173
牒	-8.6137
去來	-8.61379
不作	-8.6177
無所有	-8.61927
虛妄	-8.61947
功	-8.62092
非真	-8.62168
亦得	-8.62472
戒	-8.62621
所知	-8.63062
況	-8.63363
月	-8.63584
猶如	-8.63604
馬	-8.6365
之心	-8.63729
去法	-8.63758
何有	-8.63761
持	-8.63962
正觀	-8.64318
出世	-8.64517
所成	-8.64605
主	-8.64988
借	-8.65015
佛果	-8.65155
三種	-8.65284
四諦	-8.65476
同時	-8.66005
無異	-8.66458
是無	-8.66776
亦名	-8.6694
自在	-8.6709
偈說	-8.67093
為體	-8.67192
都	-8.67343
所生	-8.67357
齊	-8.67383
一體	-8.67384
有性	-8.67789
金	-8.67903
如前	-8.6806
不定	-8.68092
頌	-8.68125
品云	-8.68314
解云	-8.68855
功德	-8.69097
四大	-8.6916
味	-8.69378
短	-8.69437
燃	-8.69635
隱	-8.70244
許	-8.70356
願	-8.70652
聚	-8.70789
萬法	-8.70878
像	-8.70933
如何	-8.70995
善惡	-8.71075
老	-8.71248
當知	-8.71274
即有	-8.71284
薪	-8.71385
大品	-8.71589
毘曇	-8.71684
莫	-8.71734
光	-8.71926
而無	-8.72142
故經云	-8.72155
無自性	-8.72163
汝言	-8.72174
書	-8.72207
乖	-8.7221
半	-8.72219
有餘	-8.72729
所以然者	-8.7301
具足	-8.73081
雖有	-8.7312
本有	-8.73153
若不	-8.7349
手	-8.73967
權實	-8.74065
不可說	-8.74238
河	-8.74331
忘	-8.75176
法師	-8.75252
如論	-8.75974
高	-8.76066
若以	-8.76078
▁初	-8.76125
千	-8.76212
公	-8.76245
縱	-8.76369
立義	-8.76456
過失	-8.76465
寄	-8.76579
世俗	-8.76831
常無常	-8.77076
生者	-8.77442
燒	-8.77652
不出	-8.77819
不名	-8.77978
不失	-8.77982
眼見	-8.77992
談	-8.78102
美	-8.78137
之言	-8.78308
何所	-8.78453
四者	-8.7896
定有	-8.7921
問何故	-8.79281
緣生	-8.79293
未曾	-8.7959
眾緣	-8.80076
驗	-8.80249
經中	-8.80456
所以者何	-8.80506
以此	-8.80517
食	-8.8053
第五	-8.80628
治	-8.80783
實無	-8.80808
是名	-8.80941
之所	-8.80982
如偈	-8.81028
然後	-8.8104
云何有	-8.81921
十地	-8.81984
有體	-8.82017
為有	-8.82125
折	-8.82567
不起	-8.82614
既有	-8.82963
釋之	-8.82976
土	-8.8323
相應	-8.83261
微塵	-8.83304
但是	-8.83723
一一	-8.84016
僧	-8.84029
十二因緣	-8.84037
中無	-8.84198
正因	-8.84513
即真	-8.84681
門破	-8.85176
運	-8.85197
闇	-8.85265
智者	-8.85406
提婆	-8.85538
羅	-8.85645
佛說	-8.85787
滿	-8.85856
無餘	-8.85888
自有	-8.86001
說法	-8.86014
百論	-8.86048
言說	-8.86283
名相	-8.86463
判	-8.86865
長行	-8.8693
兼	-8.87085
蓋	-8.87127
暗	-8.87129
又如	-8.87461
新	-8.87625
名之為	-8.87726
但有	-8.87832
何得	-8.87843
音	-8.88046
為一	-8.88136
自他	-8.88264
二義	-8.88285
好	-8.88351
若離	-8.88443
悲	-8.88669
恐	-8.89182
緣起	-8.89409
超	-8.89471
樹	-8.89689
吾	-8.89806
不須	-8.90071
切	-8.90173
究竟	-8.90207
所執	-8.90289
不在	-8.9029
之中	-8.90442
口	-8.91018
不無	-8.91057
不動	-8.91181
為二	-8.91202
成實	-8.9157
意云	-8.91937
說有	-8.92098
心境	-8.92147
不待	-8.92588
實智	-8.92628
脩	-8.92657
無自體	-8.92684
所立	-8.92731
□	-8.92743
故非	-8.9293
唯有	-8.93237
無生滅	-8.93255
永	-8.93307
無不	-8.9343
何異	-8.93597
雖復	-8.93913
經論	-8.93937
前明	-8.93946
寶	-8.93995
能見	-8.93998
既是	-8.93999
空故	-8.94015
何以	-8.94032
是事不然	-8.94066
為緣	-8.94273
有生	-8.94425
次明	-8.94491
散	-8.94519
命	-8.94561
一念	-8.94591
肇公	-8.94652
契	-8.94815
此文	-8.94852
虗空	-8.94917
比	-8.94972
是無常	-8.94977
故不	-8.9514
奪	-8.95283
體相	-8.95346
恒	-8.95515
久	-8.9557
收	-8.95649
若法	-8.95716
居	-8.95786
淨名	-8.95812
非實	-8.95858
瓶等	-8.95931
世尊	-8.96116
根本	-8.96346
比量	-8.96405
不識	-8.96534
呵	-8.96686
有人	-8.96871
熱	-8.96925
則不	-8.96954
源	-8.97007
劫	-8.97132
初句	-8.97156
名字	-8.97896
支	-8.98028
關	-8.9804
無漏	-8.98062
論之	-8.98136
有果	-8.98258
則非	-8.98288
之道	-8.9831
全	-8.98345
續	-8.98477
到	-8.98514
覆	-8.98546
白	-8.98627
懷	-8.9867
秤	-8.98708
不受	-8.98913
退	-8.99139
猶是	-8.99226
橫	-8.9953
無作	-8.99957
i	-8.99988
權智	-8.99995
什	-9.0005
此品	-9.00159
生生	-9.00195
其義	-9.00274
進	-9.00401
海	-9.00658
罪福	-9.00675
此明	-9.00773
一義	-9.00858
非緣	-9.00909
頭	-9.00992
法華	-9.01085
m	-9.01179
本來	-9.01201
此三	-9.0122
金剛	-9.01342
為是	-9.01419
靈	-9.01509
親	-9.01579
異相	-9.01623
上半	-9.01749
巧	-9.01992
思惟	-9.02064
應知	-9.02067
設	-9.02074
辯	-9.02172
備	-9.02222
愚	-9.02249
:>	-9.02377
g	-9.02381
<	-9.02382
竝	-9.02589
衣	-9.02713
種子	-9.02743
列	-9.02757
辭	-9.02813
以無	-9.02967
自相	-9.02985
亦可	-9.03078
所行	-9.03096
無得	-9.03199
聽	-9.03448
豈非	-9.03607
三論	-9.03686
眼等	-9.03693
舊	-9.03715
次破	-9.03763
有此	-9.03847
淺	-9.03925
柱	-9.03959
必有	-9.03972
於諦	-9.03974
可燃	-9.0405
焉	-9.04064
果報	-9.04076
見者	-9.04176
以明	-9.04183
簡	-9.04201
無實	-9.04211
不盡	-9.04232
二法	-9.04518
所緣	-9.04533
斥	-9.04627
忍	-9.0477
成就	-9.0478
有相	-9.04898
有因	-9.05017
無法	-9.0523
初地	-9.05338
真空	-9.05484
能破	-9.05536
異也	-9.05649
幽	-9.05814
注	-9.05827
之名	-9.06122
此言	-9.06128
二門	-9.06326
伹	-9.06442
弟子	-9.0661
華	-9.06708
甚	-9.06781
是一	-9.06862
礙	-9.06973
下第三	-9.07022
藥	-9.07105
陳	-9.07122
領	-9.075
相生	-9.07795
破之	-9.07861
立名	-9.07994
無心	-9.08326
:「	-9.08414
三時	-9.08643
都無	-9.0873
論者	-9.08768
相即	-9.08884
滯	-9.09112
所破	-9.09255
今謂	-9.09296
異者	-9.09474
差	-9.09487
乳	-9.09759
如是等	-9.09761
由此	-9.09824
謂有	-9.09826
此亦不然	-9.09875
同異	-9.09879
欲令	-9.09923
上來	-9.10318
此說	-9.10343
無果	-9.10501
始終	-9.1068
幻	-9.10747
蘊	-9.1075
西	-9.10855
其體	-9.1129
敬	-9.11464
是有為	-9.11638
以其	-9.11648
無始	-9.11709
不從	-9.11735
一分	-9.11746
悲心	-9.11823
大意	-9.11881
則應	-9.1195
決	-9.12131
剎那	-9.1216
東	-9.12229
》	-9.12293
相似	-9.12383
請	-9.1239
七地	-9.12524
之相	-9.12628
強	-9.12943
正明	-9.13078
四緣	-9.13097
觀察	-9.13133
三藏	-9.13185
此謂	-9.13198
意也	-9.13365
謝	-9.13379
法中	-9.13528
第六	-9.13634
老死	-9.13717
為義	-9.13821
四論	-9.13867
得成	-9.14061
第十	-9.14127
則知	-9.14144
三寶	-9.14364
無住	-9.14444
此下	-9.14471
不斷	-9.14521
問答	-9.14568
號	-9.14899
含	-9.14992
最	-9.15047
言無	-9.15108
初明	-9.15128
詮	-9.15139
一云	-9.15141
不為	-9.15157
俱無	-9.15398
畢竟	-9.15483
損	-9.15705
有人言	-9.15876
影	-9.15935
被	-9.16064
開善	-9.16154
不破	-9.16252
我見	-9.16255
是非	-9.16278
清	-9.16432
母	-9.16518
有知	-9.16764
和	-9.16867
師云	-9.16877
為實	-9.16933
今此	-9.16979
破其	-9.17212
今破	-9.17281
泥	-9.17426
六道	-9.17589
成立	-9.17628
鑒	-9.17711
精	-9.17764
吉	-9.17765
癡	-9.17816
端	-9.17868
段	-9.17908
譬喻	-9.17919
生法	-9.17932
此意	-9.18222
已有	-9.18297
有為法	-9.18363
三句	-9.18376
沒	-9.18598
之用	-9.18783
言有	-9.19
所得	-9.19173
造論	-9.19183
貪	-9.19282
是實	-9.19384
不來	-9.19705
增	-9.19752
感應	-9.19764
諸見	-9.19918
非色	-9.20003
有二義	-9.20194
不自	-9.20248
經說	-9.20389
審	-9.20466
於此	-9.20529
假有	-9.20619
生於	-9.20627
了因	-9.20746
所攝	-9.20765
有我	-9.20905
功能	-9.2094
或有	-9.20961
是事	-9.20974
一人	-9.20975
般若波羅蜜	-9.21135
苦樂	-9.21349
能知	-9.21537
不真	-9.21833
總別	-9.21944
雜	-9.21965
途	-9.22068
禮	-9.2216
所有	-9.22163
長短	-9.22212
聖智	-9.22517
作用	-9.22599
一切皆	-9.22601
之智	-9.22684
氣	-9.23031
云何言	-9.23043
中說	-9.23103
此之	-9.23111
妄想	-9.2317
有三種	-9.23172
節	-9.23182
往來	-9.23253
車	-9.23281
四種	-9.23297
之意	-9.23428
《	-9.23457
何等	-9.23469
有時	-9.23615
幾	-9.23682
輪	-9.2369
舍	-9.23695
釋迦	-9.23706
不以	-9.23714
無體故	-9.23725
不可見	-9.23996
所取	-9.24159
諸法實相	-9.24164
故次頌曰	-9.24397
城	-9.24458
乃是	-9.24714
執有	-9.24733
非常	-9.24813
一心	-9.24923
厭	-9.25012
彌	-9.25098
異故	-9.25119
質	-9.25259
總結	-9.25435
之境	-9.25485
莊嚴	-9.25722
非一	-9.25762
謬	-9.25901
而非	-9.25915
譯	-9.25961
各有	-9.26027
不爾	-9.26062
成論	-9.2608
間	-9.26251
何處	-9.26277
已生	-9.26433
皆空	-9.26477
蓋是	-9.26604
應無	-9.26649
摩訶衍	-9.26711
利益	-9.26864
皆有	-9.26913
禪	-9.27058
患	-9.27062
數論	-9.27241
法者	-9.27281
非有無	-9.27285
改	-9.2731
器	-9.27469
終不	-9.27511
接	-9.27512
教諦	-9.27645
無邊	-9.27698
之時	-9.27743
寧	-9.27763
融	-9.28098
為宗	-9.28114
阿	-9.28197
題	-9.28284
甚深	-9.28344
異法	-9.28367
際	-9.28456
不去	-9.28573
非但	-9.28666
有四	-9.28716
二相	-9.2872
應如	-9.29093
固	-9.29099
有分	-9.29194
有名	-9.29328
三昧	-9.29426
從緣生	-9.29468
己	-9.29479
傍	-9.29573
亦云	-9.29587
廢	-9.29818
勢	-9.29823
返	-9.29864
害	-9.29923
勝義	-9.29951
第七	-9.29973
初偈	-9.30174
滅時	-9.30242
我今	-9.30317
不淨	-9.30396
而得	-9.30422
漸	-9.30487
中間	-9.30542
不一	-9.30564
前云	-9.30659
首	-9.30684
大悲	-9.30852
不善	-9.30901
之體	-9.30977
一切諸法	-9.31034
隨緣	-9.31229
成佛	-9.31377
法空	-9.31539
▁三	-9.31713
破邪	-9.31879
難也	-9.32042
動靜	-9.32123
勸	-9.32228
意謂	-9.32289
無差別	-9.3237
能作	-9.32585
或言	-9.32717
為無	-9.32875
南	-9.33138
然此	-9.33169
轉變	-9.33351
而起	-9.33406
一切智	-9.3379
亦如	-9.33841
謗	-9.33884
容	-9.33891
密	-9.33902
酪	-9.33959
不解	-9.34038
生相	-9.34186
累	-9.34377
前破	-9.3465
滅度	-9.34701
疾	-9.34753
屈	-9.34761
鳥	-9.34804
元	-9.34809
解釋	-9.34914
亦有亦無	-9.34987
不言	-9.35193
泯	-9.35422
亂	-9.35598
拔	-9.35603
可有	-9.35612
又二	-9.35676
十方	-9.35725
義不然	-9.3574
記	-9.35963
不實	-9.36134
明二諦	-9.36225
頓	-9.36288
而今	-9.36431
託	-9.36454
非謂	-9.36487
又若	-9.36609
諸有	-9.36888
對治	-9.36943
今言	-9.3699
僧佉	-9.37042
有何	-9.37082
肇師	-9.3713
更無	-9.37223
一往	-9.37247
生起	-9.37265
布	-9.37297
論中	-9.37372
竪	-9.37408
夢	-9.37513
香	-9.37846
詳	-9.38019
為本	-9.3802
印	-9.38148
世界	-9.38333
太	-9.38446
演	-9.38492
理外	-9.3856
復次若	-9.38649
得失	-9.38895
如彼	-9.38965
遇	-9.39028
守	-9.39058
用也	-9.39093
平	-9.3915
為破	-9.39275
那	-9.39285
此云	-9.39459
以是故	-9.39463
受者	-9.39518
染者	-9.39522
一句	-9.39624
過故	-9.39639
可相	-9.39694
曾	-9.39735
自生	-9.39735
可以	-9.39841
天竺	-9.39922
凡聖	-9.40177
不思議	-9.40193
陀	-9.40222
破也	-9.4025
斷見	-9.40259
義故	-9.4037
華嚴	-9.40544
迴	-9.40831
木	-9.40831
物體	-9.40848
得解脫	-9.40914
是假	-9.40962
異於	-9.41029
有見	-9.41031
引經	-9.41039
諸根	-9.41259
有得	-9.41375
施設	-9.41376
善根	-9.41511
嚴	-9.41616
導	-9.41633
父	-9.41676
路	-9.41679
遊	-9.41731
今欲	-9.41931
說空	-9.41932
不信	-9.41943
廣說	-9.42008
從緣	-9.42204
見有	-9.42232
無記	-9.42343
義不成	-9.42346
論文	-9.42388
生已	-9.42444
不了	-9.42557
亦不成	-9.42658
如其	-9.42695
一物	-9.42801
空者	-9.42843
中假	-9.42941
為真	-9.42957
不可以	-9.43051
作業	-9.43154
是空	-9.43206
二邊	-9.43399
不遍	-9.43402
逆	-9.43402
于	-9.43405
垢	-9.43484
章門	-9.43595
徒	-9.43829
有過	-9.43893
群	-9.4409
穀	-9.44222
盛	-9.44265
故能	-9.44292
為異	-9.44336
尊	-9.4437
牙	-9.44421
小乘人	-9.44557
二俱	-9.44615
爾時	-9.44693
變異	-9.44828
不有有	-9.44913
如實	-9.44926
於中	-9.44967
不相	-9.45108
釋論	-9.4518
之性	-9.45365
古今	-9.45531
在於	-9.45642
得涅槃	-9.45764
明無	-9.45848
第二偈	-9.46061
生果	-9.46082
實法	-9.46096
文二	-9.46119
非因非果	-9.46141
任	-9.46285
得道	-9.46453
相違故	-9.46509
十一	-9.46588
之流	-9.46771
如人	-9.469
偽	-9.47074
徧	-9.47174
空等	-9.47195
勤	-9.47217
越	-9.47303
法界	-9.47792
承	-9.47806
慮	-9.47879
二十	-9.48009
不能自	-9.48034
二見	-9.48055
弘	-9.48117
問若	-9.48124
不失法	-9.48173
非因	-9.48174
是亦不然	-9.48515
相故	-9.48545
性故	-9.48697
大涅槃	-9.48756
故得	-9.48769
悟入	-9.4887
作此	-9.48915
斷滅	-9.49093
阿羅漢	-9.49137
彼云	-9.49218
賢	-9.49349
波	-9.49461
人天	-9.49507
等諸	-9.49655
即知	-9.49752
理內	-9.49866
□□	-9.49872
正道	-9.50067
所起	-9.50081
縷	-9.50082
資	-9.50101
林	-9.50119
不捨	-9.50154
去時	-9.50192
空華	-9.50399
可說	-9.50624
凡有	-9.50641
不合	-9.50672
是果	-9.50795
自作	-9.50852
故是	-9.50896
是法	-9.50977
跡	-9.51008
而說	-9.51055
所明	-9.51075
暫	-9.51105
珠	-9.51109
鏡	-9.51122
成壞	-9.51234
二慧	-9.5137
無用	-9.51407
不變	-9.51605
世人	-9.51605
金剛心	-9.51655
於彼	-9.51666
方等	-9.51704
非實有	-9.51834
為三	-9.51977
未盡	-9.52264
何況	-9.52308
作因	-9.52351
若見	-9.5242
此語	-9.52453
勝義諦中	-9.52615
十八	-9.5289
最後	-9.52897
未得	-9.52918
有漏	-9.52942
相對	-9.53004
正理	-9.53032
勿	-9.53077
曉	-9.53082
摩	-9.53098
寺	-9.5315
理教	-9.53226
不相應	-9.53298
樂等	-9.53625
斷惑	-9.53669
神通	-9.53712
有為無為	-9.53971
可解	-9.53973
堅	-9.54064
石	-9.54087
鈍	-9.5409
第八	-9.54159
生故	-9.54165
外人言	-9.54259
三門	-9.54303
能起	-9.54572
女	-9.54701
劣	-9.54959
默	-9.55006
不許	-9.55103
夜	-9.55107
載	-9.55149
昧	-9.55186
已滅	-9.55227
天下	-9.55344
文云	-9.55385
云何得	-9.55492
天地	-9.55553
一家	-9.55576
是中	-9.55632
四相	-9.55744
常有	-9.5582
人也	-9.55917
一向	-9.55924
洗	-9.56008
勞	-9.56016
破外道	-9.56037
積	-9.56045
留	-9.56097
彰	-9.56098
經曰	-9.56105
以是義故	-9.56126
誦	-9.56174
泥團	-9.56196
不因	-9.5651
佛言	-9.56514
萬行	-9.56548
言其	-9.5667
文字	-9.56871
為果	-9.56946
無見	-9.5699
於無	-9.57105
所證	-9.57159
誠	-9.57163
并	-9.57176
熟	-9.57215
六種	-9.5722
北	-9.5724
因中無果	-9.5724
正是	-9.57331
初二句	-9.57454
之本	-9.57587
雖無	-9.57715
一切法空	-9.57802
有瓶	-9.57809
脫	-9.58041
不著	-9.58041
龍	-9.58121
喜	-9.58222
空義	-9.58303
雲	-9.58321
及以	-9.58351
不可言	-9.58427
說言	-9.58509
放光	-9.58689
諍	-9.58696
非不	-9.58723
即為	-9.58726
之物	-9.58746
不絕	-9.58767
之教	-9.58777
不行	-9.58842
修行	-9.58857
取相	-9.59007
普	-9.59209
釋云	-9.59228
令其	-9.59237
讀	-9.59329
五種	-9.59394
當體	-9.59449
秦王	-9.5945
故今	-9.59651
因緣故	-9.59655
之與	-9.59763
能照	-9.59818
慈	-9.60058
分位	-9.60085
能相	-9.60093
同喻	-9.60126
無分別	-9.60147
何物	-9.60159
生死涅槃	-9.60171
為當	-9.60216
助	-9.603
避	-9.60338
此釋	-9.60364
頂	-9.60398
緣緣	-9.60411
殺	-9.60416
何謂	-9.60497
一偈	-9.60498
不攝	-9.6059
無分別智	-9.60595
緣會	-9.60608
因故	-9.60649
既云	-9.60694
我無我	-9.6071
有兩	-9.60743
肇	-9.60912
今以	-9.60944
求之	-9.6099
負	-9.6111
則為	-9.61169
欲得	-9.61199
漚和	-9.61258
歷	-9.61262
此句	-9.61336
即非	-9.61355
歡喜	-9.61388
適	-9.61434
迦葉	-9.61462
捲	-9.61489
單	-9.61504
護	-9.61514
云何名	-9.61536
但明	-9.61633
為欲	-9.61639
婆	-9.61658
大士	-9.61709
是人	-9.61795
五塵	-9.6181
汝今	-9.61847
義者	-9.61953
芽	-9.61972
釋成	-9.62199
是世諦	-9.62205
常見	-9.62258
此偈	-9.62336
稟	-9.62472
輕	-9.62526
詺	-9.6253
􂎥	-9.6256
棄	-9.62561
背	-9.62565
次釋	-9.62669
稱為	-9.62706
色心	-9.62723
智度論云	-9.62782
佛教	-9.62947
行者	-9.62954
此亦	-9.63012
皆無	-9.63194
又汝	-9.63248
有情	-9.63265
士	-9.6342
遠離	-9.63462
假說	-9.63463
此人	-9.63476
大經	-9.63508
何能	-9.63534
觀行	-9.63548
不得言	-9.63588
丈夫	-9.63593
繫	-9.63634
淵	-9.63654
我所	-9.63655
日月	-9.63755
不成故	-9.63893
五百	-9.63922
下釋	-9.64011
云云	-9.64157
因生	-9.64222
發起	-9.64329
即空	-9.64338
豈不	-9.64406
無物	-9.64482
比丘	-9.6463
不立	-9.64714
不有不無	-9.64817
番	-9.64882
未起	-9.64902
五者	-9.64971
如上	-9.65232
體性	-9.65494
不與	-9.65577
總非	-9.65695
作法	-9.65724
論師	-9.65758
滅故	-9.65799
科	-9.65845
招	-9.65894
有一	-9.65915
歲	-9.65981
何用	-9.66039
偈為二	-9.66059
帝	-9.66081
汝說	-9.66096
而能	-9.66148
更有	-9.66248
問若爾	-9.66248
真理	-9.6632
秦	-9.66329
但以	-9.6638
為正	-9.66391
畢竟無	-9.66446
此四	-9.66638
不壞	-9.66708
現量	-9.66729
若人	-9.67025
炎	-9.67029
是因	-9.6706
大生	-9.67126
既不	-9.67492
前有	-9.67623
破於	-9.67809
略云	-9.67823
數人	-9.67848
無復	-9.68048
次第緣	-9.68099
聖教	-9.68173
講	-9.68214
即應	-9.68216
了知	-9.68302
布施	-9.68364
羅漢	-9.68365
性相	-9.68377
發心	-9.68436
至人	-9.68484
花	-9.68628
本性	-9.68649
觀智	-9.68904
變化	-9.6898
梵	-9.69003
出家	-9.69024
若能	-9.69089
理也	-9.69102
下第四	-9.69189
光明	-9.69224
之外	-9.69268
取者	-9.69304
問云何	-9.69307
依他	-9.69312
隔	-9.69332
阿含	-9.6939
逐	-9.694
制	-9.6941
遺	-9.69412
提	-9.69466
舍利弗	-9.69486
俱有	-9.69498
聖諦	-9.69563
因者	-9.69576
能生果	-9.69616
於世諦中	-9.69693
可生	-9.69732
過去世	-9.69735
先後	-9.69781
總相	-9.69823
其實	-9.69836
上明	-9.69959
滅相	-9.70039
依止	-9.70108
果者	-9.70167
之功	-9.70231
智度論	-9.70249
有五	-9.70257
斷煩惱	-9.70264
非諦	-9.70314
定慧	-9.7032
盲	-9.70366
大品云	-9.70489
畏	-9.7051
今當	-9.70524
角	-9.70535
草木	-9.70556
偈言	-9.70564
壽	-9.70592
之過	-9.70635
有其	-9.70651
善法	-9.70723
亦復如是	-9.70738
應是	-9.70874
而為	-9.70898
宛然	-9.71092
無色	-9.71121
非我	-9.71132
以有	-9.71166
注云	-9.71176
引證	-9.71215
亦無有	-9.71309
各各	-9.71406
不如	-9.71406
無言	-9.71423
具有	-9.71506
是無為	-9.71581
諸佛菩薩	-9.71592
須菩提	-9.71616
闕	-9.71763
二釋	-9.7177
別破	-9.71793
疎	-9.71822
落	-9.71834
傷	-9.71853
是佛	-9.71921
後有	-9.71937
因有	-9.72134
名曰	-9.7219
若汝	-9.72208
又復	-9.72425
不復	-9.72516
之果	-9.72591
此乃	-9.7267
惱	-9.7276
相離	-9.72861
後時	-9.72917
婆羅門	-9.73033
覩	-9.73038
統	-9.73067
沙門	-9.73095
起者	-9.73116
無間	-9.73185
亦復	-9.73279
非瓶	-9.73386
之有	-9.73638
大品經	-9.73652
三法	-9.73805
他性	-9.73861
答云	-9.73881
只是	-9.73998
正答	-9.74003
問此	-9.74007
二不二	-9.74078
既其	-9.74213
通別	-9.74217
希	-9.74254
鈍根	-9.74256
劉公	-9.74259
彼此	-9.74285
仰	-9.74315
服	-9.74317
所相	-9.74417
二空	-9.74451
欲明	-9.74565
諸煩惱	-9.74624
法門	-9.74648
惠	-9.74971
之說	-9.74998
是因緣	-9.7513
空也	-9.75225
而後	-9.75226
淺深	-9.75249
先無	-9.75267
始有	-9.75275
是涅槃	-9.75317
復何	-9.75438
加	-9.75441
究	-9.75466
詰	-9.75503
擬	-9.75534
豈得	-9.757
見諦	-9.76136
計有	-9.76257
之事	-9.76296
今問	-9.76306
物不遷	-9.76373
階	-9.7648
三假	-9.76515
難者	-9.76525
二云	-9.76617
御	-9.7667
豈有	-9.76725
撿	-9.76774
復有人言	-9.76847
不到	-9.76857
因中有果	-9.76867
今就	-9.76915
佛道	-9.77055
微妙	-9.77184
欲界	-9.77247
展轉	-9.77332
建立	-9.7766
破有	-9.77703
作佛	-9.77705
財	-9.77705
為世諦	-9.77714
免	-9.77779
絕待	-9.77803
別異	-9.77878
無緣	-9.77888
泥洹	-9.78047
唱	-9.78107
為常	-9.78116
速	-9.78119
從來	-9.78282
杖	-9.78298
作是	-9.78504
既非	-9.78629
能成	-9.78658
六地	-9.78722
無過	-9.78751
異體	-9.78817
重破	-9.78853
惑者	-9.78936
無滅	-9.78984
能取	-9.79003
故須	-9.79025
但為	-9.79135
體也	-9.79235
起時	-9.79282
軌	-9.79319
懸	-9.79376
薩婆多	-9.79378
原	-9.79379
呼	-9.79395
疊	-9.79407
貴	-9.79443
名色	-9.79464
此復云何	-9.79492
十六	-9.79537
時有	-9.79629
則墮	-9.79684
不覺	-9.80049
緣因	-9.80065
經文	-9.80089
諸外道	-9.80235
此事	-9.80276
二句	-9.8034
則不應	-9.80363
各異	-9.80449
不能生	-9.80491
難云	-9.80619
置	-9.80629
何須	-9.8073
期	-9.80752
住相	-9.81048
三義	-9.81204
所解	-9.81306
說無	-9.81469
涅槃經云	-9.81469
難曰	-9.81491
不名為	-9.81535
別相	-9.81731
佛經	-9.81844
以不	-9.81931
面	-9.81953
念念	-9.81993
夷	-9.81995
宗本	-9.82047
亦同	-9.82047
召	-9.82064
必須	-9.82203
第二明	-9.82221
應當	-9.82354
如幻	-9.82436
有佛性	-9.8246
之因	-9.82658
遮遣	-9.8266
因義不成	-9.82677
釋上	-9.82809
見佛	-9.8281
定無	-9.82816
其性	-9.8291
故成	-9.82945
三德	-9.83045
初牒	-9.83128
於空	-9.83128
既言	-9.83192
論意	-9.83236
等也	-9.83302
星	-9.83361
增長	-9.83383
小生	-9.83415
應不	-9.83417
二人	-9.83508
百年	-9.83601
於聖	-9.83621
十信	-9.8373
即成	-9.83741
常法	-9.83776
取著	-9.83906
知有	-9.83929
什師	-9.84045
汝立	-9.84047
悉皆	-9.84256
義成	-9.84267
青	-9.84306
總破	-9.84355
通達	-9.84372
勝義諦	-9.84407
合故	-9.8441
迷悟	-9.84564
鹹	-9.84573
讚	-9.84627
等法	-9.84649
品中	-9.84664
六度	-9.84735
甘露	-9.84751
習氣	-9.84791
玅	-9.84794
可取	-9.84828
第九	-9.84838
猶未	-9.84947
無形	-9.85022
燃可燃	-9.85135
因緣生	-9.85323
無能	-9.85436
藉	-9.85443
法相	-9.8546
有自體	-9.85469
若因	-9.85475
不應言	-9.85553
得名	-9.85554
縛解	-9.85633
大乘人	-9.85637
莊子	-9.85858
沙	-9.85963
所造	-9.85993
無為法	-9.86015
捉	-9.8606
潛	-9.86098
交	-9.86115
實性	-9.86146
連	-9.86146
修多羅	-9.86152
無生無滅	-9.86156
苟	-9.86182
尼	-9.86197
才	-9.86211
徹	-9.86218
至於	-9.86226
句義	-9.863
而實	-9.86345
流轉	-9.86535
並觀	-9.86601
推求	-9.86639
已去	-9.8671
故下頌	-9.86767
可謂	-9.86789
有四種	-9.86919
眾經	-9.86921
大論	-9.86973
涅槃是	-9.87171
生住滅	-9.87252
如是說	-9.87291
利根	-9.87447
起故	-9.87455
麤	-9.87544
移	-9.87577
晉	-9.87593
臣	-9.87623
初破	-9.87758
今是	-9.87793
三毒	-9.87833
有生滅	-9.87863
假實	-9.87866
有色	-9.87928
又問	-9.88129
若於	-9.88138
又此	-9.88317
二體	-9.88327
於有	-9.88366
何處有	-9.88494
十二門	-9.88563
已未	-9.88563
略明	-9.88681
造作	-9.88706
釋名	-9.8877
前二	-9.88873
此破	-9.88916
薪火	-9.88933
陽	-9.88953
:	-9.88965
令人	-9.8899
黑	-9.89057
若就	-9.8906
參	-9.89084
未甞	-9.89128
以顯	-9.89206
何則	-9.89283
有為相	-9.89295
為空	-9.89304
世俗諦	-9.89331
其相	-9.89394
力故	-9.89398
次句	-9.89417
一種	-9.89515
見空	-9.89569
果生	-9.89639
唯一	-9.89754
少分	-9.89808
釋也	-9.89914
二世	-9.89935
偈云	-9.90027
中論云	-9.90253
為正因	-9.90323
律	-9.9033
為真諦	-9.90363
宿	-9.90401
最勝	-9.90459
見色	-9.90462
」【	-9.90504
若或	-9.90522
他作	-9.90583
後二句	-9.90664
經言	-9.90733
相者	-9.90781
一道	-9.90781
得生	-9.90835
何名	-9.90843
是真	-9.90874
便謂	-9.91013
理事	-9.91065
不必	-9.91069
次偈	-9.91082
羅什	-9.911
則失	-9.91147
明中道	-9.91253
果體	-9.91254
不依	-9.91289
身心	-9.91315
此等	-9.91389
之旨	-9.91466
涅槃經	-9.91558
應物	-9.91647
地等	-9.91647
還是	-9.91691
者不然	-9.91753
競	-9.91842
愚癡	-9.91852
底	-9.9186
條	-9.91869
此法	-9.9188
相可相	-9.91898
再	-9.919
此理	-9.91943
江	-9.91962
能令	-9.91972
什公	-9.92033
隨順	-9.92064
所引	-9.92177
說為	-9.92218
異性	-9.92245
共相	-9.9228
二名	-9.92298
應身	-9.92312
我者	-9.92336
是諦	-9.92416
無知也	-9.92459
乞者	-9.92464
教也	-9.92618
滅者	-9.92688
三結	-9.92774
無人	-9.92787
世諦中	-9.92789
三乘之	-9.92794
言教	-9.92883
真智	-9.92897
染法	-9.92906
豈是	-9.92968
不至	-9.93065
大經云	-9.9315
二破	-9.93166
我我所	-9.9319
一切處	-9.93191
受想行識	-9.93253
後世	-9.93278
畢	-9.9334
互相	-9.9335
該	-9.93374
魔	-9.93384
於凡	-9.93424
正見	-9.93452
君	-9.9346
便是	-9.93532
共生	-9.93542
離於	-9.93687
豈可	-9.93707
如涅槃	-9.93985
六根	-9.94018
第一義空	-9.94062
所詮	-9.94157
心也	-9.94159
智也	-9.94207
域	-9.94288
以彼	-9.94304
一品	-9.94308
破他	-9.94372
二因	-9.94376
皆得	-9.94404
道者	-9.94415
證成	-9.94449
無去	-9.94453
性實	-9.94519
無所依	-9.94526
立宗	-9.94552
義宗	-9.94569
應化	-9.94621
鄣	-9.94658
亦不得	-9.94681
有所作	-9.9471
兩句	-9.94885
地獄	-9.94897
符	-9.94898
調達	-9.94939
却	-9.94962
心無	-9.95001
不應有	-9.95021
自宗	-9.95046
中觀	-9.95082
如來藏	-9.95108
是我	-9.95125
世出世	-9.95149
有神	-9.9515
「	-9.95302
定性	-9.95304
所受	-9.95369
開示	-9.95402
開善云	-9.95435
過也	-9.9571
皆悉	-9.95751
無方	-9.95783
有實	-9.95848
異喻	-9.95862
心為	-9.95985
略說	-9.96271
一相	-9.96303
則無有	-9.96319
若說	-9.9634
下云	-9.96343
慢	-9.96351
志	-9.96387
已破	-9.96415
皆不成	-9.96423
諸菩薩	-9.96427
即破	-9.96428
清涼	-9.96434
亦空	-9.96435
混	-9.96452
寂靜	-9.96528
已來	-9.96529
為論	-9.96791
經中說	-9.96801
相因	-9.96808
教門	-9.96851
為他	-9.96853
其言	-9.96919
汝謂	-9.96956
良	-9.97055
未能	-9.97099
是即	-9.9711
或說	-9.97181
賢聖	-9.97272
同前	-9.97351
了義	-9.974
中之	-9.97485
前問	-9.97506
依此	-9.97553
體者	-9.97572
見法	-9.97602
而可	-9.9762
為境	-9.97682
緣覺	-9.97702
應非	-9.97774
羣	-9.97873
非真非俗	-9.97955
僧祇	-9.97988
!	-9.97992
濟	-9.98017
但破	-9.98053
未去	-9.98071
此經	-9.98096
涉有	-9.9814
何由	-9.98185
處處	-9.98192
未見	-9.98358
假立	-9.98454
以何	-9.98527
亦得言	-9.98575
宣	-9.98593
真常	-9.98629
此義云何	-9.98636
如虛空	-9.98672
二果	-9.98694
知者	-9.98912
實際	-9.98933
無上	-9.99006
現前	-9.99067
法師云	-9.99171
涉	-9.99223
破外	-9.99364
不二而二	-9.99551
憂	-9.99564
為名	-9.99589
別釋	-9.9959
喪	-9.99612
駁	-9.99643
不當	-9.99743
一明	-9.99798
四門	-9.99845
三性	-9.99847
是故今明	-9.9993
真應	-9.99952
為諦	-10.0005
眼根	-10.0006
為喻	-10.001
能為	-10.0019
一處	-10.0033
雖殊	-10.0042
有用	-10.0047
那得	-10.0049
經意	-10.0059
其所	-10.006
諸師	-10.0067
則成	-10.0071
應生	-10.0079
是故無	-10.009
品初	-10.0093
偈本	-10.0098
體一	-10.0103
二明	-10.011
為證	-10.0112
摩訶	-10.0114
而未	-10.0115
不欲	-10.0119
響	-10.0121
一切種智	-10.0124
庶	-10.0125
有住	-10.0125
準	-10.0127
其心	-10.0128
良由	-10.0131
可破	-10.0133
無定	-10.0146
立有	-10.016
明義	-10.0165
決定有	-10.0175
明矣	-10.0177
奪破	-10.019
論主破	-10.0211
相與	-10.0216
傳云	-10.0217
舉體	-10.0218
未必	-10.023
百非	-10.0231
為成	-10.0232
不遷也	-10.0234
執著	-10.0237
諸法性空	-10.0242
六者	-10.0252
不證	-10.0254
為我	-10.0265
舟	-10.0266
眼識	-10.0266
彌勒	-10.0274
欣	-10.028
塞	-10.0288
若異	-10.0289
扶	-10.0292
室	-10.0293
涼	-10.0298
天親	-10.0298
斯論	-10.0306
為四	-10.0311
如前說	-10.0312
大師	-10.0319
亦不然	-10.0328
之異	-10.0333
唯是	-10.0338
生等	-10.0339
因成	-10.0341
諸經	-10.0341
理智	-10.0344
得之	-10.0348
本迹	-10.0349
結使	-10.0352
無起	-10.0353
亦不生	-10.0354
應名	-10.0355
無當	-10.0392
廣破	-10.0394
同類	-10.0396
令悟	-10.0398
為得	-10.04
動而	-10.0408
闡提	-10.0408
中亦無	-10.0412
能說	-10.0414
料簡	-10.0439
為涅槃	-10.0443
蒲	-10.0447
減	-10.0448
典	-10.0449
不出不在	-10.0454
色空	-10.0456
湛然	-10.0456
各別	-10.0456
揀	-10.0459
不一不異	-10.0461
法華云	-10.0465
更生	-10.0468
四依	-10.0469
過去未來	-10.047
同法喻	-10.0476
果果	-10.0479
善巧	-10.0481
以知	-10.0484
外無	-10.0497
能依	-10.0505
真妄	-10.0509
即此	-10.0515
說二諦	-10.0516
法寶	-10.0528
安立	-10.0529
前說	-10.0531
如燈	-10.0543
十二門論	-10.0552
其人	-10.0564
初敘	-10.0567
其理	-10.0569
由是	-10.0574
父母	-10.0579
有邊	-10.058
兔角	-10.0583
二難	-10.0586
說名	-10.0591
成者	-10.0599
之知	-10.0608
善男子	-10.0613
宅	-10.0613
青目	-10.0616
毀	-10.0618
上破	-10.0619
彈	-10.062
履	-10.0622
汎	-10.0622
議	-10.0623
進退	-10.0623
已遮	-10.0624
張	-10.0624
有去	-10.0625
何故不	-10.0634
名也	-10.0636
則不然	-10.0636
淨土	-10.0637
於一	-10.0645
建	-10.0654
何不	-10.0661
作論	-10.0669
實也	-10.0681
是真諦	-10.0683
外有	-10.0686
是故說	-10.0689
不共	-10.0726
本生	-10.0732
叡	-10.0733
實慧	-10.0734
既爾	-10.0747
步	-10.0751
諸相	-10.0759
苦樂等	-10.0782
一切法皆	-10.0786
梵志	-10.0786
供養	-10.0791
舌	-10.0791
士夫	-10.0793
排	-10.0795
而巳	-10.0796
變易	-10.0798
刀	-10.0802
以破	-10.0804
若一	-10.0812
餘二	-10.0814
有不有	-10.0816
若果	-10.0821
後明	-10.0822
外云	-10.0823
為方便	-10.0825
以成	-10.0825
慈悲	-10.0826
汝等	-10.0828
為無為	-10.0831
責之	-10.0836
無從	-10.0836
大宗	-10.0837
何意	-10.084
無可	-10.0844
大道	-10.0856
今略	-10.0861
諍論	-10.0872
是為	-10.0874
道也	-10.0876
是故當知	-10.0876
辟支佛	-10.0881
我說	-10.0883
不相違	-10.0886
始得	-10.0904
時體	-10.0915
誰為	-10.0917
三偈	-10.0919
佛菩薩	-10.0921
假名說	-10.0921
真是	-10.0922
之見	-10.0932
下句	-10.0935
之緣	-10.0936
微細	-10.0941
自心	-10.0957
瞋	-10.096
獲	-10.0962
揚	-10.0965
皆應	-10.0966
狹	-10.0966
此非	-10.0971
本無今有	-10.0973
詞	-10.0975
疏云	-10.0981
有物	-10.0981
成瓶	-10.0985
知無知	-10.0985
福德	-10.0988
所斷	-10.0996
是所	-10.0997
又初	-10.1
增上緣	-10.1001
測	-10.1001
本際	-10.1004
不達	-10.1007
有差別	-10.1012
初發心	-10.1015
涅槃之道	-10.1032
二別	-10.1036
無瓶	-10.1039
即事	-10.104
之文	-10.1042
非空	-10.1051
為顯	-10.1059
因不成	-10.1065
答此	-10.1065
實義	-10.1075
而曰	-10.1077
人言	-10.1087
修道	-10.1107
即彼	-10.111
儀	-10.1116
意識	-10.1117
顯現	-10.112
照空	-10.1123
初中	-10.1125
方廣	-10.1128
巳上	-10.1136
兒	-10.1137
未曾有	-10.1138
第二句	-10.1138
感佛	-10.114
木石	-10.1145
繩	-10.1145
詣	-10.1146
防	-10.1149
賓	-10.1149
可言	-10.115
降	-10.1151
妨	-10.1157
出生	-10.1166
佛所說	-10.1169
空花	-10.1174
初生	-10.1177
一剎那	-10.1185
體無	-10.1189
此難	-10.1191
所計	-10.1199
依二諦	-10.12
從他生	-10.1204
言象	-10.1215
二偈	-10.122
未始	-10.1223
所不能	-10.1225
正釋	-10.1227
乃名	-10.1232
十住	-10.1233
為大	-10.1233
諸緣	-10.1234
自無	-10.1236
能詮	-10.124
如說	-10.1242
序云	-10.1248
前釋	-10.1248
所照	-10.1248
取捨	-10.1249
理實	-10.1271
處有	-10.1278
破性	-10.1278
上云	-10.129
明於	-10.1299
牒上	-10.1308
而成	-10.1308
鹽	-10.1309
婆沙	-10.1318
哀	-10.1319
若彼	-10.132
不常不斷	-10.1321
煩	-10.1325
廓	-10.1326
犢子	-10.1326
竭	-10.133
我體	-10.1336
猶有	-10.1336
傾	-10.1337
能緣	-10.1337
於有無	-10.1339
無性故	-10.134
所用	-10.1345
登	-10.1345
言之	-10.1365
得益	-10.1367
何時	-10.1371
已說	-10.1371
釋上半	-10.1374
九地	-10.1375
不化	-10.1375
異義	-10.1376
五句	-10.1376
即離	-10.138
其過	-10.138
妄心	-10.138
故說頌曰	-10.1386
合時	-10.1392
長行云	-10.1412
下半破	-10.1419
自在天	-10.1423
諸業	-10.1431
果性	-10.1433
智人	-10.1436
此即是	-10.1437
令眾生	-10.1437
不墮	-10.1441
中實	-10.1446
唯有一	-10.1449
一切諸	-10.145
今既	-10.1458
則同	-10.1474
皆不然	-10.1475
同體	-10.1487
文中有	-10.1495
前中	-10.1501
兩偈	-10.1505
不足	-10.1505
之身	-10.1505
入涅槃	-10.1506
網	-10.1508
初標	-10.151
無成	-10.1512
飯	-10.1513
止遣	-10.1514
不明	-10.1515
可信	-10.1515
伴	-10.1517
草	-10.1517
前已	-10.1518
曲	-10.1518
余	-10.1519
結成	-10.152
曠	-10.1521
雨	-10.1522
姓	-10.1523
訓	-10.1523
授	-10.1523
攝法	-10.1523
正義	-10.1526
持戒	-10.1532
餘處	-10.1538
聞說	-10.1538
餘法	-10.1543
無盡	-10.1545
文中	-10.1549
顯示	-10.1551
今更	-10.1554
青等	-10.1554
意者	-10.1556
體非	-10.1558
華嚴云	-10.1562
能證	-10.1566
強名	-10.1566
寂照	-10.1575
俱是	-10.1581
假緣	-10.1582
空無我	-10.159
宛然而	-10.1594
根境	-10.1607
斯則	-10.1608
明佛性	-10.1614
不通	-10.1619
妄執	-10.162
等皆	-10.1627
被破	-10.1629
因滅	-10.163
與彼	-10.1632
皆同	-10.1635
如夢	-10.1639
色陰	-10.1641
亦破	-10.1648
無餘涅槃	-10.166
可成	-10.166
之實	-10.1661
未滅	-10.1664
明了	-10.1667
仁	-10.1671
不相離	-10.1671
得悟	-10.1672
起於	-10.1673
一切時	-10.1676
不真空	-10.1683
的	-10.1689
尺	-10.1692
析	-10.1694
何為	-10.1694
嘖	-10.1695
代	-10.1696
之所以	-10.1697
每	-10.1698
乾	-10.1698
鬼	-10.1699
無畏	-10.1701
若汝意謂	-10.1701
仍	-10.1703
知也	-10.1706
准	-10.1706
淪	-10.1706
沈	-10.1707
儒	-10.1713
心生	-10.1714
雖同	-10.1716
離有無	-10.172
終日	-10.1723
善不善	-10.1725
老子云	-10.1725
不斷不常	-10.1727
非異	-10.1727
隱顯	-10.1733
遠法師	-10.1734
欲顯	-10.1735
故不得	-10.1741
以何為	-10.1741
住處	-10.1744
六塵	-10.1747
之妙	-10.1753
十七	-10.1771
五根	-10.1773
同於	-10.1773
不生滅	-10.1777
是中道	-10.1777
別故	-10.1785
二論	-10.179
聲等	-10.1799
未嘗	-10.18
則不得	-10.1802
諸部	-10.1806
四倒	-10.1812
身子	-10.1813
破外人	-10.1813
亦不應	-10.1817
八地	-10.1818
無差	-10.1839
起信	-10.1839
得果	-10.184
後念	-10.1843
毒	-10.1844
功用	-10.1853
教理	-10.1862
證有	-10.1873
仙	-10.1881
勉	-10.1885
緣有	-10.1886
一雙	-10.1887
特	-10.1892
毛	-10.1893
謂無	-10.1893
私	-10.1894
正性	-10.1895
而彼	-10.1895
研	-10.1895
若先	-10.1896
術	-10.1896
不可思議	-10.1898
先已	-10.1902
頃	-10.1903
第二破	-10.1903
結破	-10.1906
不能見	-10.1906
舉頌	-10.1916
之力	-10.1916
實是	-10.1919
神力	-10.1921
無煩惱	-10.1922
有力	-10.1929
修習	-10.1929
楞伽	-10.1934
兩關	-10.1938
肇論	-10.1944
敢	-10.1949
即生	-10.1956
三事	-10.1958
見聞	-10.1966
時方	-10.1975
是實有	-10.198
證也	-10.1986
住滅	-10.1987
妙有	-10.1989
苦諦	-10.1993
有多	-10.1998
高下	-10.2
共合	-10.2018
有作者	-10.2028
有心	-10.2029
地前	-10.2034
易知	-10.2038
是能	-10.2039
如斯	-10.2039
妙契	-10.2041
本末	-10.2042
自上已來	-10.2042
不乖	-10.2052
寂用	-10.2055
申佛	-10.2057
後釋	-10.2058
於色	-10.2075
非物	-10.2081
赴	-10.2083
敵	-10.2085
祖	-10.2091
昏	-10.2091
涅槃者	-10.2092
檢	-10.2093
逼	-10.2096
老氏	-10.2097
視	-10.2098
並皆	-10.2099
之辭	-10.21
下半明	-10.2103
陀羅	-10.2104
佛告	-10.2104
性有	-10.2106
作作者	-10.2108
或有人言	-10.211
四見	-10.2111
即色	-10.2116
心行	-10.2116
一瓶	-10.2122
都盡	-10.2128
論也	-10.213
為中	-10.2135
卷云	-10.2144
法說	-10.2151
文殊	-10.2157
心法	-10.2159
答言	-10.2161
不違	-10.2161
釋八不	-10.2161
舊云	-10.2163
若執	-10.2178
方得	-10.2188
本始	-10.2193
分明	-10.2199
初釋	-10.2201
破空	-10.2207
若未	-10.2213
道行	-10.2221
生住	-10.2224
上句	-10.2224
是方便	-10.2228
之稱	-10.2231
為第一義諦	-10.2237
愛見	-10.2238
如文	-10.2243
三有	-10.2246
住者	-10.2249
亦不可得	-10.2261
受名	-10.2261
由來	-10.2261
大有	-10.2264
得有	-10.227
無名曰	-10.227
能感	-10.2271
非道理	-10.2272
為能	-10.2272
頌遣言	-10.2273
無合	-10.2277
非常非無常	-10.2278
賴	-10.228
不可得故	-10.2281
嘆	-10.2281
○	-10.2282
從此	-10.2282
鼻	-10.2283
淨不淨	-10.2285
貫	-10.229
父子	-10.2291
索	-10.2291
寂然	-10.2291
有定性	-10.2295
陶師	-10.2297
絕名	-10.2299
具云	-10.2308
而復	-10.2309
未知	-10.2315
不和合	-10.2317
第一義中有	-10.2318
知見	-10.232
過者	-10.2322
生耶	-10.2328
成實論	-10.2333
起滅	-10.2334
捨福	-10.2337
不及	-10.2338
習因	-10.234
又前	-10.2341
諸分	-10.2343
語言	-10.2346
五性	-10.2362
空不空	-10.2373
今云	-10.2375
有二諦	-10.2378
今時	-10.2382
何得言	-10.2385
開為	-10.2386
豈曰	-10.2392
有滅	-10.2394
未來世	-10.2403
體故	-10.2414
何以知	-10.2419
上半牒	-10.2421
開為二	-10.2426
終是	-10.2426
四時	-10.2433
六法	-10.2439
得佛	-10.2441
永滅	-10.2447
上下	-10.2457
應如是	-10.2457
不觀	-10.247
中道也	-10.2477
亦不能	-10.2484
茲	-10.2484
其中	-10.2488
幸	-10.2491
席	-10.2492
靡	-10.2493
坐	-10.2494
朗	-10.2496
赤	-10.2498
迦旃延	-10.2498
非空非有	-10.2501
尚不	-10.2501
次答	-10.2503
雙非	-10.2508
遺民	-10.2511
遠近	-10.2511
知諸法	-10.2513
相成	-10.2513
之處	-10.2514
一諦	-10.2515
勝論	-10.2517
業果	-10.2519
之間	-10.2523
壞故	-10.2523
若知	-10.2525
色即空	-10.2531
不由	-10.2538
此名	-10.2538
餘物	-10.254
故稱為	-10.2543
破我	-10.2546
但說	-10.2559
比知	-10.2561
是俗	-10.2566
二於諦	-10.2566
撥無	-10.2569
本自	-10.2571
作苦	-10.2575
假生	-10.2576
無智	-10.258
不生果	-10.258
文也	-10.2587
行人	-10.2593
便有	-10.2594
芽等	-10.2595
初章	-10.2596
非見	-10.2601
利他	-10.2621
說之	-10.2624
大小乘	-10.2625
本空	-10.263
悉是	-10.2631
世性	-10.2638
二乘人	-10.2638
知無	-10.2644
金心	-10.2656
悉檀	-10.2658
前偈	-10.266
為對	-10.2665
明其	-10.2668
名諦	-10.2674
受用	-10.2675
非二非不二	-10.2684
天子	-10.2689
之行	-10.269
千年	-10.2692
巳下	-10.2696
衰	-10.2698
覓	-10.2701
昇	-10.2704
色即是空	-10.2704
廣大	-10.2706
試	-10.2706
唐	-10.2709
伽	-10.271
摧	-10.271
前三	-10.2711
有所得人	-10.2715
了悟	-10.2718
所以不	-10.2718
所欲	-10.2718
萬化	-10.2721
明空	-10.2723
若無有	-10.2737
破病	-10.2738
亦非有	-10.2739
三諦	-10.2755
不可知	-10.2764
無自性故	-10.2764
為聖	-10.2765
一名	-10.2765
實非	-10.2767
龍樹菩薩	-10.2768
二教	-10.2771
生因	-10.2773
顯事	-10.2777
著有	-10.2778
無常故	-10.2778
等經	-10.2783
推釋	-10.2793
什法師	-10.2799
對待	-10.2807
此門	-10.2819
邪正	-10.2822
各住	-10.2825
又言	-10.2827
尚無	-10.2852
二關	-10.2863
從因緣	-10.2864
前念	-10.2887
浮虛	-10.2889
所為	-10.2891
般若無知	-10.2894
今亦爾	-10.2896
正難	-10.2898
或可	-10.2902
常樂我淨	-10.2903
有礙	-10.2906
鹿	-10.2906
本性空	-10.2907
神覺	-10.2907
訖	-10.2908
附	-10.2911
怖畏	-10.2913
更復	-10.2915
包	-10.2917
從他	-10.2919
州	-10.2921
飛	-10.2922
不吉	-10.2926
分為	-10.2929
非緣生	-10.2933
就文為二	-10.2936
故稱	-10.294
能立	-10.2947
現有	-10.2957
之失	-10.2966
至此	-10.2967
大慧	-10.2967
未悟	-10.2975
今日	-10.2977
無所不知	-10.2981
反照	-10.2987
常寂	-10.2987
同一	-10.3003
今物	-10.3003
幻有	-10.3005
之論	-10.3008
二事	-10.3013
有大	-10.3015
答前	-10.3019
外人云	-10.3026
人之	-10.3032
即涅槃	-10.3034
阿毘曇	-10.3039
信解	-10.3039
一破	-10.304
分之	-10.3041
本住	-10.3046
滅諦	-10.3047
值	-10.3048
初有	-10.305
觀者	-10.3063
事理	-10.3073
汝若	-10.3076
中二	-10.3078
方言	-10.3089
汝執	-10.3095
至理	-10.3097
今初	-10.3099
復言	-10.3108
今還	-10.3109
行相	-10.3111
梁	-10.3112
為眾生	-10.3114
二意	-10.3119
作者作業	-10.3122
若生	-10.3126
油	-10.3127
寒	-10.3128
詠	-10.3128
消	-10.3128
他人	-10.3128
谷	-10.3129
點	-10.3132
寫	-10.3133
括	-10.3134
朋	-10.3135
答上	-10.3135
以見	-10.3136
薄	-10.3139
左	-10.314
不入	-10.3142
彼岸	-10.3144
在因	-10.3149
今昔	-10.3149
法華經	-10.3156
而作	-10.3168
肇法師	-10.3169
今且	-10.3173
非一向	-10.3182
彼經	-10.319
諸眾生	-10.3192
中有二	-10.3193
時分	-10.3199
無去來	-10.3201
方是	-10.3202
眼所見	-10.3211
不可取	-10.3212
為門	-10.3213
應成	-10.3214
性住	-10.3222
欲滅	-10.3223
非正	-10.3225
來去	-10.3228
今論	-10.3232
果起	-10.3232
失二諦	-10.3235
是義	-10.3235
知其	-10.3245
但言	-10.3246
若言其	-10.3249
昔物	-10.3251
智用	-10.3251
攝論	-10.3253
化身	-10.3273
性也	-10.3275
之內	-10.3276
是知	-10.3277
於緣	-10.3278
破法	-10.3287
長者	-10.329
虛假	-10.329
之病	-10.3296
是真實	-10.3304
於我	-10.3307
後破	-10.3311
共知	-10.3327
不假	-10.3328
成故	-10.3333
來者	-10.3334
複假	-10.3346
佛地	-10.3351
能了	-10.3351
遍計所執	-10.3352
丈六	-10.3353
因緣和合	-10.3354
弱	-10.3357
破內	-10.3357
嘉	-10.3357
愚夫	-10.3358
是謂	-10.3358
付	-10.3362
四偈	-10.3362
皆非	-10.3364
遠公	-10.3372
譬喻無體	-10.3373
障礙	-10.3374
涅槃云	-10.3379
有三義	-10.3382
斷伏	-10.3382
雙結	-10.3382
卦	-10.3385
通論	-10.3386
有解	-10.3394
太虛	-10.3401
之情	-10.3405
墮於	-10.3407
定相	-10.3411
難解	-10.3411
學者	-10.3414
劫初	-10.3415
波羅蜜	-10.3422
謂情	-10.3425
覺慧	-10.3427
六情	-10.3432
其名	-10.3436
簡異	-10.3438
不生故	-10.3438
空無	-10.3438
四絕	-10.3441
為權	-10.3449
與瓶	-10.345
能滅	-10.3453
謂以	-10.3459
有淺深	-10.3463
與他	-10.3463
若依	-10.3467
六十	-10.3476
於他	-10.3483
所歸	-10.3483
為俗	-10.3497
若先有	-10.3499
有為空	-10.3499
此土	-10.3501
信受	-10.3501
初中後	-10.3502
與果	-10.3505
有眾生	-10.3507
為性	-10.3513
得菩提	-10.3524
為人	-10.3525
大乘經	-10.3527
學人	-10.353
於佛	-10.3532
菩薩行	-10.3536
意在	-10.3538
放光云	-10.3538
汝宗	-10.3539
非知	-10.3547
在後	-10.3547
色界	-10.3554
有名曰	-10.356
穢	-10.3564
不應說	-10.3566
謙	-10.3567
實等	-10.3569
從眾緣生	-10.357
為用	-10.3573
恩	-10.3574
麻	-10.3574
依二諦說法	-10.3574
肉	-10.3574
煖	-10.3575
十五	-10.3577
縱破	-10.3578
因名	-10.358
於眾生	-10.3586
色法	-10.3587
無量劫	-10.3588
博	-10.3588
智論	-10.3591
與前	-10.3592
擇滅	-10.3602
▁「	-10.3605
次二句	-10.3605
稟教	-10.3611
精進	-10.3614
為難	-10.3617
佛身	-10.3617
亦應爾	-10.3623
復生	-10.3625
一生	-10.3628
如佛	-10.363
第四句	-10.3634
內有	-10.3643
呵責	-10.3644
惡見	-10.3647
若有若無	-10.3652
不改	-10.367
地論	-10.3677
生義	-10.3683
破無	-10.3688
三十	-10.3692
心不	-10.3693
正意	-10.3698
起見	-10.3701
太虗	-10.3706
用之	-10.3708
我亦	-10.3717
三位	-10.3718
滅法	-10.372
智體	-10.372
定執	-10.3724
以理	-10.3727
出因	-10.3734
便成	-10.3741
此義不然	-10.3742
般若之	-10.3758
是二	-10.3771
擊	-10.3772
力能	-10.3774
於前	-10.3776
非非	-10.3781
湛	-10.3791
有何過	-10.3792
不顛倒	-10.3795
疲	-10.3803
是故今	-10.3805
雅	-10.3805
噵	-10.3807
魚	-10.3809
券	-10.3809
解者	-10.381
染染者	-10.3811
抑	-10.3811
孤	-10.3813
充	-10.3813
非果	-10.3815
釋偈本	-10.3817
潤	-10.3817
為瓶	-10.382
朝	-10.3822
而常	-10.3823
問云	-10.3825
觀空	-10.3825
破有無	-10.3828
有方分	-10.3828
如火	-10.3829
瓶衣等	-10.3833
失於	-10.3838
躡前	-10.3843
梵行	-10.3855
覺知	-10.3859
正為	-10.3861
真心	-10.3863
身口	-10.3868
身見	-10.3879
當時	-10.3886
豈能	-10.3889
傍正	-10.3891
非涅槃	-10.3896
出現	-10.3898
。】	-10.3899
外道計	-10.39
十力	-10.3908
虗無	-10.3926
無色界	-10.3928
應捨	-10.393
入空	-10.393
有八	-10.3941
云何是	-10.3944
二家	-10.3946
貌	-10.3948
於心	-10.3948
有所成	-10.3952
果法	-10.3953
復是	-10.396
見諸法	-10.396
絕言	-10.3966
今亦	-10.3969
文言	-10.3974
從本	-10.3975
於果	-10.398
作此說	-10.3982
執無	-10.3983
諸法空	-10.3984
此約	-10.3985
即失	-10.3989
論旨	-10.3992
如一	-10.3994
示現	-10.4
住於	-10.4001
無生忍	-10.4003
為物	-10.4014
若爾者	-10.4014
一切物	-10.4017
無方便	-10.4019
亦異	-10.402
不過	-10.402
增上	-10.4022
生可生	-10.4026
天人	-10.4029
四法	-10.4029
畫	-10.4031
般涅槃	-10.4038
漢	-10.4038
繫縛	-10.4039
篇	-10.404
心數	-10.404
今何故	-10.4044
考	-10.4044
提婆達多	-10.4045
佛為	-10.4047
四微	-10.4049
憶	-10.4052
杜	-10.4052
賊	-10.4053
淡	-10.4053
毗	-10.4053
黃	-10.4055
而知	-10.4055
蒙	-10.4056
大等	-10.4056
為說	-10.4058
客	-10.406
非理	-10.4061
咸	-10.4061
後句	-10.4062
非唯	-10.4077
三身	-10.4085
以辨	-10.4089
於理	-10.4092
即顯	-10.4092
二諦義	-10.4092
菩薩思惟	-10.4093
無知者	-10.4099
或謂	-10.41
為眾生故	-10.4111
非作	-10.4112
不異故	-10.4116
非是無	-10.4116
餘人	-10.4117
離色	-10.4126
皆從	-10.4127
之始	-10.4131
而立	-10.4138
即便	-10.4139
還成	-10.4139
而云	-10.4143
妙存	-10.4154
不異者	-10.4172
是苦	-10.4179
名為涅槃	-10.4183
義得成	-10.4184
作是說	-10.419
或復	-10.419
違害	-10.4194
非第一義	-10.4197
不妨	-10.4204
正論	-10.4205
之徒	-10.4214
察	-10.4221
毫	-10.4226
無窮過	-10.4227
三乘人	-10.4231
三業	-10.4234
非眾生	-10.4237
六入	-10.4238
二諦是	-10.4242
為其	-10.4242
破立	-10.4244
即能	-10.4253
因性	-10.4254
然矣	-10.4258
弗	-10.4258
常情	-10.4259
今文	-10.4268
時節	-10.4269
境也	-10.427
無執	-10.4272
淨名經	-10.4274
寂滅相	-10.4275
擇	-10.428
秤為	-10.4287
焰	-10.4288
聰	-10.4289
局	-10.429
斫	-10.4292
敗	-10.4293
為顯此義	-10.4293
單假	-10.4296
須陀洹	-10.4296
國土	-10.4296
狂	-10.4298
合者	-10.43
慕	-10.43
共許	-10.4301
檀	-10.4301
限	-10.4302
今謂不然	-10.4304
樞	-10.4304
予	-10.4308
因緣所生法	-10.4311
財物	-10.4318
東方	-10.4321
一是	-10.4322
東西	-10.4324
促	-10.4326
別立	-10.4327
牒前	-10.4337
聞者	-10.4338
不成就	-10.4338
凡有二義	-10.4339
如先	-10.4342
一性	-10.4344
得意	-10.4352
動寂	-10.4352
生不生	-10.4356
諸陰	-10.4362
三乘同	-10.4372
內法	-10.4378
今大乘	-10.4383
先已說	-10.4384
名生	-10.4392
是當	-10.4417
初門	-10.4419
何人	-10.4422
若諸法	-10.4428
以喻	-10.4429
共有	-10.4432
有何異	-10.4432
為相	-10.4433
因緣品	-10.4436
五時	-10.4441
第三句	-10.4442
不礙	-10.4445
可滅	-10.4457
我與	-10.446
佛意	-10.4461
緣合	-10.4467
或云	-10.4476
身根	-10.4477
不常	-10.4478
即墮	-10.4488
苦行	-10.4494
第一明	-10.4495
此上	-10.451
故前	-10.4511
自照	-10.4531
中觀論疏卷第	-10.4535
奇	-10.4538
何法	-10.4538
垂	-10.4539
伐	-10.454
預	-10.4542
六波羅蜜	-10.4545
何義	-10.4545
若作	-10.4546
石女	-10.4547
不聞	-10.4547
閑	-10.4547
論釋	-10.4547
牽	-10.4548
鄉	-10.4551
相望	-10.4551
逾	-10.4553
呪	-10.4553
常樂	-10.4555
孔子	-10.4555
忽	-10.4555
□□□	-10.4557
眾緣和合	-10.4565
身智	-10.4567
觀照	-10.4567
四聖諦	-10.4568
三明	-10.4569
分別者	-10.4569
長安	-10.4573
顯理	-10.4573
人空	-10.4579
兩義	-10.4579
則一切	-10.4587
兩種	-10.4597
得於	-10.4602
虗妄	-10.4604
於二諦	-10.4606
又彼	-10.4606
大種	-10.4606
正果	-10.4607
而已	-10.4609
情塵	-10.4613
承前	-10.4617
了達	-10.4633
之宗	-10.4634
為道	-10.4637
色非	-10.4641
便應	-10.4646
取意	-10.4649
則不成	-10.465
第三明	-10.4652
既曰	-10.4657
五乘	-10.4659
虛空等	-10.4662
單中	-10.4665
妙盡	-10.4668
難言	-10.4669
發生	-10.467
者第二	-10.4675
法起	-10.4675
至論	-10.4676
所表	-10.4683
離相	-10.4684
雖異	-10.4691
若瓶	-10.4695
十善	-10.4706
世閒	-10.4707
為所	-10.4709
則生	-10.4713
破救	-10.4713
可是	-10.4716
可名	-10.4717
於物	-10.4718
停	-10.472
在未來	-10.4726
亦非無	-10.4727
非智	-10.4727
一類	-10.4734
俱非	-10.4734
後果	-10.4734
思議	-10.474
愚者	-10.4743
顯正	-10.4744
有六	-10.4748
證得	-10.4749
緣果	-10.4751
有去者	-10.4752
之表	-10.4753
過患	-10.4754
推之	-10.4757
即前	-10.4761
佗	-10.4766
No	-10.4769
於今	-10.4771
他家	-10.4777
澄	-10.4779
十種	-10.4785
甞	-10.4789
以果	-10.4791
能造	-10.4791
封	-10.4793
解惑	-10.4793
錯	-10.4795
目之為	-10.4799
法喻	-10.4799
自見	-10.4799
洞	-10.48
怪	-10.4801
拘	-10.4801
怖	-10.4802
覈	-10.4802
等覺	-10.4802
佛滅度後	-10.4803
毘婆沙	-10.4803
麥	-10.4803
有自體者	-10.4804
童子	-10.4806
馳	-10.4807
萬有	-10.481
胎	-10.4811
以觀	-10.4816
獨存	-10.4825
以前	-10.4827
玄旨	-10.4827
阿難	-10.483
釋經	-10.4846
非道	-10.4848
但見	-10.4861
一味	-10.4864
絕四句	-10.4866
於是	-10.4868
經明	-10.4868
要須	-10.4873
外國	-10.4876
本不生	-10.4882
成論師	-10.4887
何等是	-10.4891
能斷	-10.4894
種類	-10.4894
從生	-10.4897
既不成	-10.4907
寧得	-10.4908
此正	-10.4909
之異名	-10.4939
出入	-10.4939
良以	-10.4939
斷或	-10.495
七日	-10.4959
其事	-10.4963
三十心	-10.4965
一身	-10.4969
救義	-10.4973
中求	-10.4975
說此	-10.4977
名為中道	-10.4977
見佛性	-10.4979
知會	-10.4985
已成	-10.4996
而去	-10.5003
此因	-10.5008
別明	-10.5011
前難	-10.5014
偈破	-10.5017
異耶	-10.5017
為佛	-10.5018
自是	-10.5029
既稱	-10.5031
名言	-10.5035
龜毛	-10.5039
非有故	-10.5042
紛	-10.5047
善行	-10.5049
仁王經	-10.5051
其本	-10.5056
度眾生	-10.5058
無取	-10.5059
恨	-10.5065
惟	-10.5065
鑑	-10.5065
友	-10.5065
三釋	-10.5066
階級	-10.5068
光宅	-10.507
宮	-10.5074
富	-10.5076
夏	-10.5077
複中	-10.5081
釋者	-10.5086
若約	-10.5086
教意	-10.5089
咎	-10.509
皆名	-10.5091
萬德	-10.5091
申正	-10.5092
牒外義	-10.5092
有作	-10.5093
求那	-10.5094
者即是	-10.5094
有緣	-10.5099
龍光	-10.51
從因緣生	-10.51
大論云	-10.5101
雖然	-10.5103
神明	-10.5105
初章名	-10.5107
大方	-10.5111
內無	-10.5115
念念滅	-10.5115
從緣起	-10.5117
難測	-10.5121
是瓶	-10.5138
三家	-10.5139
破云	-10.5142
彼人	-10.5151
頌中	-10.5155
歎曰	-10.5159
叡師	-10.5161
見他	-10.5172
來也	-10.5177
大小乘人	-10.5178
過去時	-10.5183
雖言	-10.5186
漏	-10.5188
難意	-10.5197
未生時	-10.5197
不俗	-10.5201
傍破	-10.5203
空為真諦	-10.5214
非法	-10.5219
大海	-10.5223
破因緣	-10.5226
是故汝	-10.5228
非後	-10.5247
有非有	-10.525
故今明	-10.5252
方有	-10.5254
入於	-10.5259
惑智	-10.5261
能除	-10.5262
結責	-10.5265
此顯	-10.5265
同是	-10.5273
不應理	-10.5277
識等	-10.5287
師子吼	-10.5288
遍計	-10.5294
七者	-10.53
門中	-10.5307
空寂	-10.5307
新故	-10.5312
兆	-10.5323
假無	-10.5327
今依	-10.5327
破常	-10.5327
二諦者	-10.5331
拂	-10.5333
鞞	-10.5334
狀	-10.5335
殆	-10.5336
塗	-10.5337
枝	-10.5337
倍	-10.5337
胡	-10.5337
非所	-10.5339
繁	-10.534
兵	-10.5341
即是涅槃	-10.5341
政	-10.5342
無上菩提	-10.5343
休	-10.5343
曇	-10.5344
智照	-10.5345
五百部	-10.5349
真一	-10.5351
一牒	-10.5352
􂲹	-10.5354
問何以知	-10.5355
非有也	-10.5358
通於	-10.5367
亦不可	-10.537
能發	-10.5378
非俗	-10.5381
合成	-10.5383
莊子云	-10.5383
根塵	-10.5392
古人	-10.5392
若從	-10.5394
方為	-10.5396
證真	-10.5396
之談	-10.5397
唯識	-10.5397
俱生	-10.5398
云何為	-10.5398
若此	-10.54
慧眼	-10.5404
虛妄分別	-10.5406
無患	-10.5413
有三段	-10.5415
非定	-10.5421
非因緣	-10.5432
宗也	-10.5436
真境	-10.5438
彼說	-10.5439
共成	-10.544
若欲	-10.5441
不出有無	-10.5445
智能	-10.5446
是生	-10.546
以無為	-10.5467
然其	-10.5468
無有異	-10.5469
非斷	-10.5474
論初	-10.5478
通破	-10.5479
止息	-10.548
內入	-10.5483
智斷	-10.549
出世間	-10.5492
答中	-10.5492
非他	-10.5496
泥中	-10.5498
故大品經	-10.5503
撥	-10.5505
則不可	-10.5506
有為有	-10.5509
生死中	-10.5515
所宗	-10.5528
因緣生法	-10.5532
此就	-10.5532
即是中道	-10.5536
理內外	-10.5536
二諦中道	-10.5537
已明	-10.5552
由彼	-10.5553
不屬	-10.5562
貪等	-10.5563
幻化人	-10.5564
著空	-10.5564
無自體故	-10.5567
住法	-10.5569
復云	-10.557
住時	-10.557
會通	-10.5573
十九	-10.5574
下第二明	-10.5582
為生	-10.5588
皆不可得	-10.5588
隣	-10.5588
躡	-10.5593
心中	-10.5594
章云	-10.5595
同歸	-10.5597
半偈	-10.5597
熏	-10.5599
非是有	-10.56
真體	-10.5601
納	-10.5606
位中	-10.5606
有成	-10.5608
譏	-10.5608
後二	-10.5609
又釋	-10.5609
如所說	-10.561
男女	-10.5611
朕	-10.5611
立量	-10.5612
復說	-10.5613
製	-10.5616
上半明	-10.5617
懺悔	-10.5617
放	-10.5619
專	-10.562
仲尼	-10.562
懃	-10.5621
義中	-10.5624
如前所說	-10.5629
紛然	-10.563
方便說	-10.563
有業	-10.5631
一部	-10.5632
攝一切	-10.5633
是故不應	-10.5638
寂而	-10.5643
門者	-10.5644
問論主	-10.5646
未變	-10.5648
五蘊	-10.5651
如先說	-10.5655
在前	-10.5656
問前	-10.5658
取其	-10.5659
而應	-10.5665
物物	-10.5666
隨眾生	-10.5678
出離	-10.5679
我宗	-10.5681
四緣生	-10.5689
為佛性	-10.5691
實教	-10.5693
上品	-10.57
不遷之	-10.5701
是一邊	-10.5702
心者	-10.5704
及彼	-10.5708
汝雖	-10.5708
性空故	-10.5712
故無有	-10.5716
作如是說	-10.572
離諸	-10.5722
果中	-10.5727
非離	-10.5728
滅不滅	-10.5732
此敘	-10.5735
下明	-10.5736
不能知	-10.5742
空解	-10.5743
三無性	-10.5743
具四	-10.5744
寂也	-10.5754
復次第一義中	-10.5755
世諦中道	-10.5756
說三	-10.5756
無象	-10.5757
不存	-10.5757
二分	-10.576
是第一義	-10.5762
不燒	-10.5762
正覺	-10.5765
二緣	-10.5767
如水	-10.577
無別體	-10.5783
巳去	-10.5784
諦智	-10.5785
愚人	-10.5789
實方便	-10.5799
無身	-10.5803
皆以	-10.581
四重	-10.5816
六識	-10.5816
牒八不	-10.5817
但應	-10.5824
性有無	-10.5825
我立	-10.5827
若滅	-10.5827
堪	-10.5832
人見	-10.5834
惡止	-10.5835
初發	-10.5837
心體	-10.5838
不戲論	-10.584
無際	-10.5845
忘言	-10.5847
異名	-10.585
所化	-10.5852
不轉	-10.5857
受生	-10.5875
體中	-10.5875
廣釋	-10.5879
舒	-10.588
二用	-10.5883
眼耳等	-10.5886
釋義	-10.5887
自性空	-10.5887
般若燈論	-10.5888
言語	-10.5888
聖道	-10.589
真俗二諦	-10.589
二境	-10.5891
浪	-10.5892
明涅槃	-10.5894
我當	-10.5894
無常者	-10.5896
顏	-10.5896
閉	-10.5898
鄙	-10.5899
春	-10.5899
弊	-10.5899
二業	-10.59
氏	-10.59
熏習	-10.5901
攀緣	-10.5902
心心數法	-10.5902
尤	-10.5906
照有	-10.5909
異見	-10.5911
三品	-10.5912
今大乘明義	-10.5914
損益	-10.5919
貪著	-10.5921
隅	-10.5922
示之	-10.5922
若我	-10.5928
照用	-10.5931
離陰	-10.5932
是時	-10.5943
所能	-10.5943
以此為	-10.5944
若許	-10.5944
佛性者	-10.5946
佛智	-10.5958
於法	-10.5958
以法	-10.5961
皆為	-10.5975
何必	-10.5977
極數	-10.5978
無寄	-10.5986
不生者	-10.5989
無有實	-10.5993
外別有	-10.6008
非無也	-10.601
之能	-10.6013
法藏	-10.6013
不悟	-10.6016
於後	-10.6017
後辨	-10.6023
必然	-10.6026
何得有	-10.6031
無異故	-10.6032
以人	-10.6041
真諦中道	-10.6044
義理	-10.6044
此結	-10.6045
不別	-10.6047
受果	-10.6047
一真	-10.6058
能得	-10.6061
今復	-10.6069
因此	-10.607
契真	-10.6071
品末	-10.6073
周遍	-10.6074
義引	-10.6082
與我	-10.6084
前文	-10.6089
無有自性	-10.609
乞	-10.6091
佛語	-10.6092
三十二	-10.6092
爾者	-10.6093
如此等	-10.6093
冥寂	-10.6096
有三相	-10.6101
解脫者	-10.6104
是菩薩	-10.6108
非有為	-10.611
神知	-10.6112
並照	-10.6115
詮表	-10.612
過於	-10.6121
眾師	-10.6123
複	-10.6124
常義	-10.6125
先破	-10.613
標宗	-10.613
緣性	-10.6132
內道	-10.614
入道	-10.6141
義則不然	-10.6141
謂諸法	-10.6143
造色	-10.6152
單複	-10.6161
不曾	-10.6166
後心	-10.6167
若破	-10.6168
徵釋	-10.617
今世	-10.6172
所問	-10.6176
生無生	-10.6177
纏	-10.6181
誑	-10.6184
略示	-10.6184
浮	-10.6184
破異	-10.6184
汝義	-10.6184
化眾生	-10.6187
闍	-10.6188
△	-10.619
於一切法	-10.6191
盧	-10.6192
義云	-10.6193
作如是言	-10.6193
臨	-10.6194
大眾部	-10.6195
撰	-10.6197
委	-10.6197
配	-10.6198
澤	-10.6198
千里	-10.6199
誓	-10.6201
世師	-10.6201
慳	-10.6203
劉	-10.6208
色是	-10.6208
了別	-10.6209
證理	-10.6212
後方	-10.6213
作緣	-10.6213
又有	-10.6214
應會	-10.6215
略破	-10.6218
之殊	-10.6223
利樂	-10.6226
是俗諦	-10.6226
無依	-10.6227
之前	-10.6229
大智	-10.6231
去者去	-10.6232
皆失	-10.6233
秦主	-10.6234
真偽	-10.6234
今說	-10.6235
至當	-10.6237
一數	-10.6238
文三	-10.6244
是以聖人	-10.6245
流動	-10.6251
最上	-10.6259
厭離	-10.626
起作	-10.6265
中為二	-10.6269
瓶體	-10.6272
所由	-10.6277
名為正	-10.628
見等	-10.6283
後際	-10.6284
七種	-10.6285
乃有	-10.6293
顛倒故	-10.6295
彼宗	-10.6298
應云	-10.6303
所燒	-10.6304
顯真	-10.6311
破壞	-10.6314
如虗空	-10.6319
有合	-10.6319
妙道	-10.6325
有餘無餘	-10.6327
初心	-10.6327
可了	-10.633
就初	-10.6332
行解	-10.6335
觀色	-10.634
必當	-10.6341
廣略	-10.635
四家	-10.635
計我	-10.6355
略釋	-10.6358
亦復不	-10.636
而來	-10.6361
只是一	-10.6364
名體	-10.637
一佛乘	-10.637
頌破	-10.6373
當果	-10.6377
苦集	-10.6382
方便慧	-10.6385
亦具	-10.6397
例破	-10.6408
然彼	-10.6413
自住	-10.6415
依世俗	-10.6416
一切世間	-10.6418
表理	-10.6422
一邊	-10.6422
將欲	-10.6426
故無過	-10.6436
即名	-10.6442
為因者	-10.6451
之根	-10.6453
能通	-10.6457
集諦	-10.6458
玄道	-10.646
復次下	-10.647
四結	-10.647
虎	-10.6483
無名相	-10.6485
嘗	-10.6485
兩教	-10.6486
因中先有果	-10.6487
所以有	-10.6488
飲	-10.6492
拆	-10.6492
龜茲	-10.6494
嘿	-10.6497
蛇	-10.6497
濁	-10.6498
男	-10.6499
毘	-10.6499
搆	-10.6501
招提	-10.6501
恒沙	-10.6502
十二部經	-10.6503
逈	-10.6503
梵王	-10.6503
雖無而有	-10.6504
迎	-10.6504
兮	-10.6504
呈	-10.6506
民	-10.6506
津	-10.6506
舊義	-10.6506
二俱不然	-10.651
於世	-10.6512
性地	-10.6515
文義	-10.6516
道諦	-10.6521
梨耶	-10.6524
須彌	-10.6532
解也	-10.6536
生滅無生滅	-10.6546
色等法	-10.6546
所立宗	-10.6559
物不遷論	-10.6562
若復	-10.6571
非心	-10.6572
為正因佛性	-10.6574
來意	-10.6586
方能	-10.6587
所縛	-10.659
隨俗	-10.6591
論宗	-10.6593
故不常	-10.6595
後一	-10.6596
十地菩薩	-10.6598
竝是	-10.6602
心識	-10.6608
不從緣生	-10.6611
如理	-10.6612
道人	-10.6613
乘體	-10.6616
亦通	-10.6617
真性	-10.6618
歸一	-10.6619
已後	-10.6622
自起	-10.6624
恒有	-10.6626
三無為	-10.6637
異類	-10.6638
有病	-10.6644
宗中	-10.6647
出生死	-10.6649
大苦	-10.6655
極成	-10.6658
初後	-10.6662
是第一義諦	-10.6665
初總	-10.6669
兩捨	-10.6674
不自生	-10.6674
離斷常	-10.668
翻為	-10.6683
聞之	-10.6689
玄得	-10.6692
既破	-10.6705
佛乘	-10.671
不顯	-10.671
五道	-10.6716
離苦	-10.6717
滅已	-10.672
諸體	-10.6722
或時	-10.6727
但釋	-10.6729
則無所	-10.6736
以空為	-10.6741
若立	-10.6742
昔人	-10.6749
衛世	-10.676
戲	-10.6772
大聖	-10.6772
皆由	-10.678
迦	-10.678
更不	-10.6782
云何乃	-10.6784
此三種	-10.6788
昔物不至今	-10.6793
座	-10.6794
獸	-10.6794
斯二	-10.6797
婆伽婆	-10.6798
婉	-10.6803
二諦也	-10.6804
搜	-10.6806
純	-10.6806
憶念	-10.6807
泊	-10.6807
第一義悉檀	-10.6807
破邪顯正	-10.6808
權實二智	-10.681
君子	-10.6811
崇	-10.6811
貧	-10.6812
任運	-10.6812
調	-10.6813
廣明	-10.6814
能化	-10.6815
雖有而無	-10.6816
若成	-10.682
有無等	-10.6821
田	-10.6822
頗	-10.6825
姚興	-10.6825
西域	-10.6826
有體無體	-10.6827
先世	-10.6829
假人	-10.683
師子吼品	-10.6837
正顯	-10.6837
辨之	-10.6837
五百年	-10.6837
芥子	-10.6838
善吉	-10.6842
我為	-10.6842
為斷	-10.6843
空色	-10.6844
始生	-10.6855
則無因	-10.6859
實不實	-10.686
引經證	-10.6861
故非有	-10.6864
幻事	-10.6866
無蹤	-10.6868
十方諸佛	-10.6869
是緣	-10.687
常存	-10.6874
若論	-10.6874
釋前	-10.6876
次就	-10.6877
以通	-10.688
非彼	-10.6883
以來	-10.6884
不真空論	-10.6884
頌曰	-10.6885
有形	-10.6889
其道	-10.6892
故大經	-10.6893
不復更	-10.6893
無境	-10.6894
其文	-10.6896
釋下半	-10.6897
色性	-10.6904
因緣假名	-10.6909
以有無	-10.6912
法花	-10.6923
此空	-10.6924
假設	-10.6929
一切有為	-10.6929
既同	-10.693
所疑	-10.6931
緣生故	-10.6938
還復	-10.6938
所顯	-10.694
中觀論	-10.6943
何故爾	-10.6946
是其	-10.6952
山中	-10.6955
此二句	-10.6962
死有	-10.6966
救上	-10.6973
已上	-10.6982
自利	-10.6985
依何	-10.6986
性無性	-10.6988
譬說	-10.6992
見道	-10.6993
師等	-10.7009
但約	-10.7013
幻化	-10.7024
教化	-10.7027
色等諸法	-10.7031
二約	-10.7032
作相	-10.7037
像法	-10.7038
對上	-10.7039
未了	-10.704
空空	-10.7041
悲者	-10.7046
色相	-10.7048
五陰中	-10.7048
其用	-10.705
論義	-10.7051
正教	-10.7055
後得	-10.706
開宗	-10.7062
有二過	-10.7065
更說	-10.7067
變為	-10.7068
意同	-10.7069
果地	-10.7078
亦無體	-10.708
報身	-10.7081
似有	-10.7081
非因果	-10.7082
雖說	-10.7082
頭足	-10.7084
因緣者	-10.7084
薩婆若	-10.7085
自知	-10.7087
根性	-10.7093
佛法中	-10.7096
則違	-10.7101
次辨	-10.7107
下結	-10.7111
但得	-10.7113
因緣空	-10.7113
令彼	-10.7114
聖言	-10.7115
非有非不有	-10.7122
葉	-10.7124
處中	-10.7124
釋吉藏撰	-10.7125
答彼	-10.7125
渡	-10.7126
恚	-10.7129
瓶衣	-10.7129
束	-10.713
有何咎	-10.7131
淳	-10.7132
破申	-10.7132
此中立驗	-10.7132
軍	-10.7133
然即下	-10.7134
云何當有	-10.7135
鏡像	-10.7135
孰	-10.7136
二俱有過	-10.7136
慨	-10.7137
蔽	-10.7137
非一非異	-10.7138
直明	-10.7139
評	-10.7139
老子	-10.7139
夫論	-10.7139
欲示	-10.714
詩	-10.714
多瓶	-10.7141
題目	-10.7143
謂彼	-10.7143
右	-10.7145
本自不生	-10.7146
野	-10.7146
結上	-10.7147
無惑取	-10.7149
二十五諦	-10.7154
第二科	-10.7158
此執	-10.7161
遷流	-10.7168
如汝所說	-10.7168
妙悟	-10.7169
生公	-10.717
縱有	-10.7172
若如是者	-10.7174
八倒	-10.7178
自立	-10.7181
思量	-10.7184
身中	-10.7185
具破	-10.7187
都無所	-10.7201
得言	-10.7202
感應義	-10.7205
是虛妄	-10.7205
出有無	-10.7207
證涅槃	-10.7209
一理	-10.721
是境	-10.721
一劫	-10.721
獨覺	-10.7218
假俗	-10.7221
眾聖	-10.7221
三人	-10.7227
略舉	-10.7228
常遍	-10.7229
離五陰	-10.723
諸法性	-10.7233
正智	-10.7244
十三	-10.7249
隨義	-10.7263
彼即	-10.7263
分段	-10.7268
之域	-10.7271
因體	-10.7272
難可	-10.7274
相因待	-10.7274
為彼	-10.7278
外謂	-10.7281
至佛	-10.7288
其身	-10.7292
非想	-10.7293
無處	-10.7297
脩行	-10.7314
不應生	-10.7315
造化	-10.7323
行行	-10.7324
宣說	-10.7331
上半破	-10.7337
以有為	-10.7349
不相似	-10.7356
為失	-10.7357
捨身	-10.7358
總明	-10.736
與外道	-10.7364
而不知	-10.7366
若實有	-10.7368
無生法忍	-10.7371
名教	-10.7373
得成佛	-10.7378
此皆	-10.7387
實體	-10.7388
一致	-10.7393
眾多	-10.7397
而現	-10.74
施者	-10.7402
亦應然	-10.7402
等義	-10.7408
應見	-10.7408
下文	-10.7411
說世諦	-10.7413
青黃	-10.7413
愍	-10.7415
三聚	-10.7425
所觀	-10.7425
論師云	-10.7427
無障礙	-10.7435
岸	-10.7438
貪瞋	-10.7448
鈔	-10.745
投	-10.7455
自部人	-10.7456
威	-10.7462
與今何異	-10.7462
但取	-10.7462
成實師	-10.7464
腹	-10.7464
物無不是	-10.7464
不滯	-10.7465
影響	-10.7466
池	-10.7467
第	-10.7469
啟	-10.747
按	-10.747
迦毘羅	-10.747
綱	-10.7471
奉	-10.7471
僧寶	-10.7472
溺	-10.7472
錄	-10.7472
儒童	-10.7473
聲聞辟支佛	-10.7475
悅	-10.7475
康	-10.7476
顧	-10.7476
若聞	-10.7477
鉢	-10.7477
初一	-10.7478
照境	-10.7478
亦不見	-10.7479
史	-10.7479
孔	-10.7479
下第五	-10.7479
逕	-10.7481
無所行	-10.7481
維摩	-10.7482
善業	-10.7482
脩習	-10.7484
成具	-10.7484
百千	-10.7488
麁細	-10.7494
顯道	-10.7494
次一偈	-10.7496
遍不遍	-10.7496
了了	-10.7497
若使	-10.7498
永斷	-10.7498
久矣	-10.7499
天王	-10.7504
自破	-10.7505
安樂	-10.7505
昔日	-10.7506
於涅槃	-10.7507
凡有二種	-10.751
起業	-10.7514
禪定	-10.7515
千萬	-10.7517
與有合	-10.752
何耶	-10.7524
並非	-10.7526
與理	-10.7527
不仁	-10.7534
衛世師	-10.7535
釋論云	-10.7536
為凡	-10.7548
歸於	-10.755
不例	-10.7552
三字	-10.7552
之極	-10.7553
多種	-10.7559
今舉	-10.7559
今取	-10.7561
三地	-10.7561
眾生有佛性	-10.7562
其意	-10.7573
若不爾	-10.7576
及與	-10.7581
妄見	-10.7582
問佛	-10.7591
此彼	-10.7592
緣非緣	-10.7596
因緣有	-10.7599
未成	-10.76
易云	-10.7603
住住	-10.7606
同也	-10.7608
明不遷	-10.7609
而失	-10.7611
此有無	-10.7613
更無別	-10.7614
阿毘曇人	-10.7614
相貌	-10.7617
隨所	-10.7619
所辨	-10.7621
八者	-10.7625
故論云	-10.7628
五十	-10.7636
冥冥	-10.765
不差	-10.7651
報佛	-10.7656
正宗	-10.7657
四心	-10.7658
窮盡	-10.7667
以證	-10.767
相反	-10.7671
無所見	-10.7672
是有法	-10.7691
亦復無	-10.7692
此引	-10.7694
波若無知	-10.7698
文意	-10.7705
空見	-10.7708
智境	-10.772
易見	-10.7724
麁果	-10.7724
釋偈	-10.7727
皆實	-10.7727
汝既	-10.773
前識	-10.7734
即是實相	-10.7741
如如	-10.7742
無別異	-10.7747
是無記	-10.7754
化生	-10.7756
至果	-10.7758
借名	-10.7762
二執	-10.7763
亦許	-10.7764
五求	-10.7764
立比量	-10.7766
如因	-10.7766
兩品	-10.7767
三菩提	-10.7768
體異	-10.777
二諦教	-10.7771
大眾	-10.7773
▁二釋	-10.7783
受報	-10.7789
得無得	-10.7791
而論之	-10.7796
觀因緣	-10.7798
如石女兒	-10.78
裁	-10.78
舍那	-10.7802
扇	-10.7803
發生正觀	-10.7804
帶	-10.7804
奔	-10.7805
米	-10.7806
厥	-10.7806
邊見	-10.7807
上中下	-10.7807
勝鬘	-10.7807
箇	-10.7808
轍	-10.7809
起等	-10.781
府	-10.781
亦以	-10.781
髮	-10.7811
烟	-10.7812
王宮	-10.7812
六十二見	-10.7814
笑	-10.7815
莊周	-10.7816
磨	-10.7817
致問	-10.7817
瑤	-10.7817
玉	-10.7818
因因而果	-10.7818
根緣	-10.7818
圖度	-10.7819
若了	-10.7819
邈	-10.782
二十五	-10.7823
由如是故	-10.7825
受記	-10.7825
弘始	-10.7825
思慮	-10.7827
道場	-10.7828
來現在	-10.7829
扣	-10.7829
遲	-10.783
為眾生說法	-10.7833
佛滅後	-10.7833
即滅	-10.7835
使一切眾生	-10.7838
又曰	-10.7845
可尋	-10.7847
三年	-10.7847
澄師	-10.7848
之耳	-10.7849
得解	-10.7849
生老死	-10.785
即體	-10.7852
不俱	-10.7853
去時去	-10.7853
長行釋	-10.7854
環中	-10.7857
次問答	-10.786
世間現見	-10.7865
諸賢聖	-10.7867
聲聞人	-10.7868
故就	-10.7877
能生本生	-10.7882
依經	-10.7882
若然者	-10.7886
無慮	-10.789
皆云	-10.7892
唯佛	-10.7896
現在世	-10.7903
開合	-10.7904
假施設	-10.7907
會歸	-10.7908
至極	-10.7933
莫能	-10.7944
大事	-10.7946
空觀	-10.7948
長行為	-10.7949
禪師	-10.795
破四緣	-10.7954
捨離	-10.7958
亦言	-10.7961
我所說	-10.7966
作意	-10.7969
亦滅	-10.797
結前	-10.7972
契經	-10.798
眾苦	-10.7981
契會	-10.7983
共起	-10.7988
無咎	-10.8012
生時生	-10.8012
故頌	-10.8014
故名為大	-10.8018
歎佛	-10.8028
不窮	-10.8039
總標	-10.8039
便失	-10.8044
四果	-10.8047
虛無	-10.806
相待假	-10.8075
相不可得	-10.808
師言	-10.8091
無作者	-10.8099
救云	-10.8105
五偈	-10.8109
是以下	-10.811
不見佛性	-10.8116
諸論	-10.812
佛出世	-10.8124
所遮	-10.8124
凡有四	-10.8126
宗極	-10.8136
色因	-10.8144
音聲	-10.8145
能取所取	-10.8146
蜜	-10.8146
起愛	-10.8149
欲求	-10.8151
動而非靜	-10.8155
以緣求智	-10.8159
所現	-10.816
至道	-10.8163
片	-10.8163
▁【	-10.8163
灰	-10.8164
宋	-10.8165
壅	-10.8166
兔	-10.8166
方圓	-10.8166
喚	-10.8167
暢	-10.8167
輩	-10.8168
蕩	-10.8169
睿	-10.8171
壯	-10.8171
染污	-10.8172
無有是處	-10.8172
爾雅云	-10.8172
則不見	-10.8173
有果無果	-10.8173
悟解	-10.8173
我說即是空	-10.8173
名為世諦	-10.8173
盜	-10.8173
犯	-10.8174
攬	-10.8174
蘇	-10.8175
務	-10.8176
故說此品	-10.8176
犢子部	-10.8177
川	-10.8177
中道為佛性	-10.8178
眷屬	-10.8179
亦一亦異	-10.818
俱舍論	-10.818
成聖	-10.8186
空慧	-10.8187
邪執	-10.8187
數論師	-10.8192
凡有三	-10.8194
因緣假	-10.8198
凡有三義	-10.8208
稱歎	-10.8211
中有三	-10.8211
語意	-10.8216
同時起	-10.8217
真知	-10.8219
不免	-10.822
無涯	-10.8222
況復	-10.823
諸蘊	-10.8231
偏破	-10.8232
因緣有無	-10.8234
自體空	-10.8238
末世	-10.8242
盛行	-10.8244
自上已來破	-10.825
卷上	-10.8253
?」	-10.8268
下第二釋	-10.8268
不在有無	-10.8274
一毫	-10.8276
遍學	-10.8282
誰能	-10.8297
五名	-10.8298
而惑者	-10.8306
今對	-10.8309
攝一切法	-10.8311
惑盡	-10.8323
亦遍	-10.8323
第二義	-10.8323
所以須	-10.833
起染	-10.8335
未達	-10.8344
正使	-10.8353
不成過	-10.8355
諸論師	-10.8355
雙破	-10.8368
故論偈	-10.8375
說有無	-10.8381
俱絕	-10.8385
所乘	-10.8393
全體	-10.8398
眼色	-10.8405
所聞	-10.8408
因待	-10.8413
就勝義	-10.8414
處所	-10.8418
為主	-10.8429
不自在	-10.8433
去來品	-10.8438
苦受	-10.844
行處	-10.8444
大地	-10.8446
三種中道	-10.8454
汝所立	-10.8464
離欲	-10.8466
六因	-10.8467
有方便	-10.8468
生死苦	-10.8469
已去未去	-10.847
同源	-10.8471
五度	-10.8479
有所得心	-10.8489
二部	-10.8489
異品	-10.8492
更無異	-10.8496
心神	-10.8499
維摩經	-10.8506
略廣	-10.8507
品竟	-10.8512
而實不爾	-10.8521
寸	-10.8528
答曰下	-10.853
有所得者	-10.8532
如是決定	-10.8532
金光明	-10.8532
冷	-10.8532
救濟	-10.8534
嬰兒	-10.8534
菩薩摩訶薩	-10.8535
厚	-10.8535
三時門	-10.8536
跋	-10.8537
弁	-10.8537
振	-10.8538
李	-10.8538
有何物而可	-10.8538
追	-10.8538
耀	-10.8539
橫竪	-10.8539
弟	-10.8539
養	-10.854
憑	-10.8541
逮	-10.8541
率	-10.8543
燭	-10.8543
解不同	-10.8543
偏執	-10.8544
如是一切	-10.8545
血	-10.8547
飲食	-10.8548
思我	-10.8549
封執	-10.8551
廬山	-10.8554
故不須	-10.8557
眼等根	-10.8561
或名	-10.8562
例如	-10.8563
屈申	-10.8564
大師云	-10.8568
契經言	-10.8569
彌存	-10.8569
稱之為	-10.857
幽深	-10.8576
二十七	-10.8586
篇云	-10.8587
而言有	-10.8591
三世佛	-10.8594
但就	-10.8596
九流	-10.8598
染淨	-10.8603
」「	-10.8604
四難	-10.8609
三空	-10.861
初步	-10.8614
雙絕	-10.8618
前際	-10.8624
故涅槃云	-10.8629
是誰	-10.863
深遠	-10.8641
破法人	-10.8644
捨罪	-10.8647
在初	-10.865
簡別	-10.8658
無定性	-10.8659
莊嚴云	-10.8661
依空	-10.8661
凡有二	-10.8667
具二義	-10.8668
如虛空等	-10.8669
第一真諦	-10.8671
次云	-10.868
今破此	-10.8687
四人	-10.8688
若未生	-10.869
則壞	-10.869
全真	-10.869
諦觀	-10.8699
中住	-10.87
復次下第二	-10.8701
方乃	-10.8701
無有我	-10.8702
何曾	-10.8708
即名為	-10.8712
苦果	-10.8721
可縛	-10.8723
明知	-10.8724
異部	-10.8725
大覺	-10.8729
無所知	-10.8729
之類	-10.873
不起故	-10.8737
之終	-10.8743
未嘗有	-10.876
無著	-10.8767
大同	-10.877
方成	-10.8776
真俗不二	-10.8776
非佛性	-10.8779
何緣	-10.8784
二地	-10.8785
唯心	-10.8802
不敢	-10.8804
無實體	-10.8821
云何知	-10.8824
第三偈	-10.883
無始終	-10.8831
動轉	-10.8843
有所生	-10.8851
一字	-10.8851
先釋	-10.8857
中道為體	-10.8859
亦不異	-10.8872
須識	-10.8873
涅槃無名	-10.8874
亦不離	-10.8875
諸法自性	-10.8875
一氣	-10.8879
論語	-10.8882
偈上半	-10.8886
唯見	-10.8886
就文為	-10.8896
梨	-10.8898
告	-10.8901
絹	-10.8907
書云	-10.8908
帖	-10.8911
酬	-10.8912
鼓	-10.8913
漫	-10.8913
破世間	-10.8915
物各性住	-10.8915
債	-10.8917
羊	-10.8917
夢中	-10.8918
億	-10.8918
此若無者	-10.8918
非真俗	-10.8919
濫	-10.8919
壁	-10.8919
莊	-10.8919
不來不出	-10.8919
令他解	-10.8919
果與果果	-10.892
丘	-10.8922
矜	-10.8922
毗曇	-10.8924
為遮	-10.8924
撫	-10.8925
保	-10.8925
籍	-10.8925
和合生	-10.8927
宰	-10.8927
恢	-10.8928
亡不為無	-10.8928
遙	-10.8929
妙盡冥符	-10.8931
勒沙婆	-10.8933
廣百論	-10.8935
窈	-10.8936
哲	-10.8937
新新	-10.8937
朱	-10.8938
僧佉人言	-10.894
滿足	-10.8945
無分別慧	-10.8947
本意	-10.8948
復云何	-10.8949
照實相	-10.895
論語云	-10.8951
五識	-10.8953
貪欲	-10.8953
□□□□	-10.8956
二諦是教	-10.8958
名方便	-10.8959
默然	-10.8967
我執	-10.8968
二乘之人	-10.897
論序云	-10.8971
說名為	-10.898
冥會	-10.898
圓成	-10.8982
指前	-10.8988
成論師云	-10.8989
不可為無	-10.8989
如中論	-10.8992
類遣	-10.8994
已起	-10.9003
遮彼	-10.9008
不容	-10.9017
後段	-10.9018
橫計	-10.9019
于時	-10.9021
名為佛性	-10.9022
若望	-10.9023
此四句	-10.9024
復起	-10.9026
涅槃之體	-10.9031
現事	-10.9037
對偏	-10.9042
具縛	-10.9045
何妨	-10.9046
現在時	-10.9047
不見其	-10.905
三際	-10.9056
行陰	-10.9061
此乃是	-10.9061
二十四	-10.9072
各執	-10.9075
後當	-10.9078
之義也	-10.908
真法身	-10.908
萬物之	-10.9082
三分	-10.9089
在果	-10.9092
愚智	-10.9092
不相離故	-10.9092
一切有為法	-10.9099
標相	-10.9104
謂般若	-10.9108
述成	-10.9113
便得	-10.9113
待緣	-10.9116
法輪	-10.912
為新	-10.9123
無二故	-10.9125
有本云	-10.9129
所許	-10.9129
二無我	-10.913
不可信	-10.9131
莫之	-10.9131
亦當	-10.9133
所發	-10.9136
下第二破	-10.9139
則不能	-10.9142
說頌曰	-10.9147
外救	-10.9148
就緣	-10.9148
作無作	-10.9149
未足	-10.9152
俱空	-10.9158
滅盡	-10.9158
顯了	-10.9176
橫論	-10.9182
其旨	-10.9186
可聞	-10.9186
破人法	-10.9189
使我	-10.9206
悟理	-10.9215
更互	-10.9215
得樂	-10.922
空門	-10.9222
思之	-10.9235
五大	-10.9239
在昔	-10.9248
於第一義中	-10.9251
五部	-10.9268
之士	-10.9271
多分	-10.9271
真身	-10.9272
初偈明	-10.9276
得涅槃者	-10.9284
丈	-10.9288
箭	-10.9304
初四句	-10.9306
發菩提心	-10.9306
迦葉品	-10.9307
何所以邪	-10.9309
莊老	-10.931
論主對破	-10.9311
文殊師利	-10.9311
積集	-10.9313
無有一法	-10.9314
破闇	-10.9315
供	-10.9319
怨	-10.9319
質礙	-10.932
智無知	-10.9321
割	-10.9321
離緣	-10.9321
恭敬	-10.9321
匿	-10.9321
宇	-10.9321
行善	-10.9322
無依無得	-10.9322
墜	-10.9322
遷而不遷	-10.9323
增益	-10.9323
翳	-10.9324
有幾種	-10.9325
堂	-10.9325
賤	-10.9326
回	-10.9326
徐	-10.9326
春秋	-10.9326
今約	-10.9327
火宅	-10.9335
華嚴經云	-10.9336
理無不統	-10.9336
馬鳴	-10.9336
汝所執	-10.9337
游	-10.9338
隆	-10.9338
天女	-10.9339
未來現在時	-10.934
論文云	-10.9342
引教	-10.9344
立驗	-10.9346
緣生無性	-10.9347
為真實	-10.9347
業果報	-10.9348
能生所生	-10.9349
無所住	-10.935
又開二	-10.9355
須破之	-10.9363
示其	-10.9364
此所說	-10.9365
捨罪福	-10.9365
不退	-10.9365
諸大乘經	-10.9369
亦有此義	-10.9369
定是無常	-10.9375
就真性	-10.9379
中道佛性	-10.9381
今先	-10.9381
三雙	-10.9381
有本住	-10.9384
若不因	-10.9384
現行	-10.9386
始起	-10.9387
四悉檀	-10.9388
竟無	-10.9389
隨宜	-10.9396
本覺	-10.9398
苦惱	-10.9407
圓滿	-10.9407
二際	-10.9413
未詳	-10.9413
無益	-10.9419
自作苦	-10.9431
問曰下第二	-10.9435
有過失故	-10.944
非勝義諦	-10.9446
四德	-10.9451
報因	-10.9467
二章	-10.9468
凡夫二乘	-10.9471
有相無相	-10.9477
師子	-10.9484
初就	-10.9484
本宗	-10.9492
今總	-10.9495
地攝	-10.9498
可立	-10.9517
非戲論	-10.9525
甚多	-10.9534
辟支	-10.9536
雙照	-10.9536
不稱	-10.9538
雙牒	-10.956
不測	-10.9562
想心	-10.9565
種智	-10.9565
法非法	-10.9566
應廣說	-10.9571
運出	-10.9578
必是	-10.958
是則無	-10.958
五事	-10.9581
諸子	-10.9583
中道第一義諦	-10.9587
有去來	-10.9589
境界因	-10.9595
此二人	-10.9597
便為	-10.9604
在乎	-10.9607
有為之法	-10.9612
之本意	-10.9616
神我	-10.9626
不息	-10.9628
之要	-10.963
釋章門	-10.9631
並破	-10.9633
等四句	-10.9635
化人	-10.9651
多用	-10.9652
鳩摩羅	-10.9653
上來破	-10.9655
楞伽經	-10.9657
深淺	-10.9664
無異性	-10.9665
此論正	-10.9668
人功	-10.9672
同品	-10.9676
如經云	-10.9699
而不取	-10.9703
各自	-10.9711
如兔角	-10.9713
豁	-10.9719
至七地	-10.9721
剎	-10.9721
滯於	-10.9723
寒暑	-10.9726
蓮華	-10.9727
辦	-10.9729
假令	-10.9733
假有不名	-10.9735
輪迴	-10.9736
逝	-10.9736
筆	-10.9737
婬	-10.9738
瓦	-10.9738
奢	-10.9738
烏	-10.9739
濕	-10.974
依他起性	-10.9743
案	-10.9745
本有今無	-10.9745
雜亂	-10.9745
小雅	-10.9746
宗旨	-10.9746
如上偈說	-10.9746
身口意	-10.9748
沖	-10.9748
撫會	-10.9749
係	-10.975
峯	-10.975
坦	-10.975
更無有	-10.9753
渾	-10.9753
式	-10.9756
妙用	-10.9758
覩變	-10.9759
作瓶	-10.976
萬象	-10.9765
反覆	-10.9768
頓悟	-10.9769
無差別差別	-10.9769
破洗	-10.9774
開善義	-10.9776
近遠	-10.9779
聞聲	-10.9786
則不名	-10.9791
五逆	-10.9792
有六道	-10.9794
涅槃無名論	-10.9796
答婆沙	-10.98
十四	-10.9801
有可生	-10.9801
風俗	-10.9802
三時門破	-10.9805
應機	-10.9805
天眼	-10.9808
名第一義諦	-10.9815
共有因	-10.9817
難論主	-10.9821
不可為有	-10.9822
五陰和合	-10.9826
九品	-10.983
結難	-10.9836
萬善	-10.9836
攝論師	-10.9838
誰當	-10.9839
先已破	-10.9839
欲令眾生	-10.9841
永離	-10.9842
無相無名	-10.9847
一闡提	-10.9853
正辨	-10.9856
有無二法	-10.9859
今當說	-10.9865
肇師云	-10.987
變壞	-10.9874
始是	-10.988
契理	-10.9888
雜心	-10.9889
香等	-10.989
惑業	-10.9893
應許	-10.991
未去者	-10.9911
有無俱	-10.9917
領前	-10.9922
十二入	-10.9925
非所作	-10.9926
行施	-10.9927
不二之理	-10.9937
皆依	-10.9943
汝所說	-10.9951
重生	-10.9954
五難	-10.996
修福	-10.996
猶在	-10.9973
細果	-10.9981
故有此品	-11
動作	-11.0016
如法華	-11.0017
復更	-11.0017
妙理	-11.002
能破闇	-11.0021
直是	-11.0023
異執	-11.0028
為俗諦	-11.0038
經部	-11.0041
受戒	-11.0047
能運	-11.0048
無常苦	-11.0051
名波若	-11.0062
能遮	-11.0072
有實體	-11.0073
地論師	-11.0082
能縛	-11.0085
有無二見	-11.0086
明闇	-11.0089
隨其	-11.0099
所申	-11.0101
天上	-11.0118
無違	-11.0122
二俱無	-11.0137
波羅	-11.0141
㮈	-11.0144
祀	-11.015
虗心	-11.0152
迭	-11.0155
慶	-11.0156
增減	-11.0158
勇猛	-11.016
糞	-11.016
而恒	-11.016
審察	-11.0162
併	-11.0165
無始無終	-11.0165
探	-11.0166
以二諦為宗	-11.0166
看	-11.0167
眼等諸根	-11.0168
枯	-11.0168
急	-11.0169
報恩	-11.0169
即其事也	-11.0169
因中發觀	-11.0171
遁	-11.0172
電	-11.0172
向有今無	-11.0173
聊	-11.0173
逢	-11.0174
嚮	-11.0175
走	-11.0175
法塵	-11.0176
工	-11.0176
猛	-11.0176
居士	-11.0177
地水火風	-11.0177
影像	-11.0177
祇	-11.0177
掌	-11.0177
欣樂	-11.0178
脚	-11.0178
不相到	-11.0178
動與事會	-11.0178
三章	-11.0179
穀子	-11.018
輒	-11.018
臺	-11.0183
生疑	-11.0187
小兒	-11.0187
滿字	-11.0188
二而不二	-11.0189
作如此	-11.019
此之二	-11.0191
言不有有	-11.0191
蓋以	-11.0191
聲聞緣覺	-11.0194
有為世諦	-11.0195
彖	-11.0195
大小內外	-11.0199
內學	-11.0205
無方分	-11.0207
延	-11.021
無生滅生滅	-11.0215
形相	-11.0216
關中	-11.0217
宗途	-11.0222
十年	-11.0223
實相波若	-11.0227
聲色	-11.0243
智度論釋	-11.0244
西方	-11.0252
不可以有無	-11.0254
寧有	-11.0254
十卷	-11.0258
從四緣生	-11.0264
融通	-11.0268
假號	-11.0271
虗寂	-11.0274
莫不	-11.0276
實權	-11.0277
後解釋	-11.028
變成	-11.0281
得無生法忍	-11.0281
佛陀	-11.0283
入實相	-11.0285
可得言	-11.0287
口中	-11.029
智力	-11.0291
下二句	-11.0295
本願	-11.0301
此章	-11.0308
無名相中	-11.0308
此牒	-11.0309
六趣	-11.0313
體同時	-11.0316
二諦相即	-11.033
為實智	-11.034
巳還	-11.0352
相續假	-11.0355
是則不然	-11.0371
真際	-11.0397
申經	-11.0399
空即是色	-11.0402
量云	-11.0403
後偈	-11.0406
明昧	-11.042
兩家	-11.0441
諸惡	-11.0453
遣執	-11.0454
虛實	-11.0467
五欲	-11.0472
入第一義	-11.0475
破塵	-11.0477
聖凡	-11.0482
以是因緣	-11.0493
法身菩薩	-11.0495
六合	-11.05
如前釋	-11.0506
略解	-11.0515
第二釋	-11.0522
第三義	-11.0524
必定	-11.0549
尚書	-11.0555
佛弟子	-11.0556
前章	-11.0557
一切不成	-11.056
生老病死	-11.056
妙絕	-11.0561
化物	-11.0565
梵天	-11.0574
不無無	-11.0578
證無為	-11.0579
汝若言	-11.0585
倒不倒	-11.0597
勤修	-11.0598
無功用	-11.0603
外人立	-11.0608
非真實	-11.0609
薩埵	-11.0611
如乾闥婆城	-11.0612
慰	-11.0613
熾	-11.0613
有無之外	-11.0613
瞿曇	-11.0615
不斷亦不常	-11.0616
責其	-11.0617
本無惑取之知	-11.0619
不關	-11.0619
釋不同	-11.0621
優劣	-11.0621
戴	-11.0622
毒藥	-11.0622
恃	-11.0623
九十六種	-11.0623
憐愍	-11.0623
是故無過	-11.0623
渴	-11.0626
甘	-11.0626
上座部	-11.0627
均	-11.0627
非能非所	-11.0628
註	-11.0628
校	-11.0628
不相因	-11.0628
恬	-11.0628
陰界入	-11.0628
孟	-11.0629
崩	-11.0629
覽	-11.063
溫	-11.063
今此一品	-11.063
修靜慮	-11.063
優樓迦	-11.063
送	-11.0631
訶梨	-11.0631
醫	-11.0631
存不為有	-11.0631
虛誑	-11.0632
衡	-11.0633
就緣假	-11.0635
罔	-11.0635
逸	-11.0635
雪山	-11.0635
姚嵩	-11.0635
簣	-11.0636
故以為門	-11.0637
亦是中道義	-11.0637
如經說	-11.0637
吐	-11.0639
賢首	-11.0639
為是義故	-11.0639
乃曰涅槃	-11.064
舜	-11.0641
竹	-11.0641
果不俱因	-11.0641
有不自有	-11.0641
雙林	-11.0641
尾	-11.0643
堅固	-11.0643
忘懷	-11.0645
貧窮	-11.0645
對緣假	-11.0646
漭	-11.0648
念念生滅	-11.0648
始自	-11.0649
幽微	-11.0649
遍滿	-11.065
破邪見	-11.0651
梵語	-11.0652
繫辭	-11.0653
聚集	-11.0655
何容	-11.0659
從初發心	-11.0663
分為二	-11.0666
萬機	-11.0666
漸次	-11.067
依他起	-11.0676
絕百非	-11.0679
因成假	-11.0682
三十二相	-11.0682
歷然	-11.0685
對緣	-11.069
生滅斷常	-11.0692
淨名經云	-11.0694
舉喻	-11.0694
故云爾	-11.0695
可爾	-11.0703
未生位	-11.0714
先標	-11.0718
無所不為	-11.072
隨意	-11.072
無相門	-11.0722
然後方	-11.0727
無所不	-11.0735
水土	-11.0743
初引經	-11.0748
所遷	-11.0764
十二因緣不生不滅	-11.0764
迷情	-11.0768
果果性	-11.0771
大劫	-11.0781
淨穢	-11.0784
安住	-11.0785
橫謂	-11.0787
內曰下	-11.0793
有體故	-11.0794
四緣中	-11.0803
秦言	-11.0804
始覺	-11.081
所修	-11.0812
女人	-11.0815
四忘	-11.082
餘無餘	-11.0832
表非有非無	-11.0841
無累	-11.0845
福報	-11.0845
無少法	-11.0852
無不無	-11.0853
無所取	-11.0864
更須	-11.0864
不生而生	-11.0864
相好	-11.0867
不從緣	-11.0876
不忍	-11.0893
斯乃	-11.0895
小大	-11.09
以智為	-11.0901
是何物	-11.0901
虗實	-11.0904
色塵	-11.0907
四大造	-11.0908
說無我	-11.0909
今借	-11.092
第三重	-11.0923
小乘教	-11.0935
福慧	-11.0954
有過失	-11.0954
成論云	-11.097
問云何名	-11.0974
上半牒下半	-11.0977
與中論	-11.0981
所以作此	-11.0996
來出	-11.1002
諸塵	-11.1003
就勝義諦	-11.1004
五指	-11.1004
疑難	-11.1004
遠師	-11.1006
權用	-11.1009
問此論	-11.1024
流轉者	-11.1041
起迷	-11.1046
正因佛性	-11.1052
若有人言	-11.1057
可度	-11.1059
觀十二因緣	-11.1061
上根	-11.1062
法無去來	-11.1073
進修	-11.1075
生已生	-11.1079
明暗	-11.1081
有四義	-11.1082
非究竟	-11.1082
墮在	-11.1085
迴小入大	-11.1089
捐	-11.1094
累無不寂	-11.1095
驚	-11.1095
肆	-11.1096
當而無當	-11.1096
允	-11.1096
三歸一	-11.1097
捨身命	-11.1097
緣觀俱寂	-11.1097
無明初念	-11.1097
銘	-11.1098
巨	-11.1098
怕	-11.1099
皮	-11.1099
如幻如夢	-11.1101
於向未嘗無	-11.1102
學二諦失二諦	-11.1102
無量無邊	-11.1102
袪	-11.1102
歟	-11.1103
不物於物	-11.1103
冶	-11.1103
薩	-11.1103
作此釋	-11.1104
歡	-11.1104
詶	-11.1105
稽	-11.1105
孫	-11.1105
陋	-11.1106
爰	-11.1106
奧	-11.1107
蕭然	-11.1107
三惡道	-11.1107
百偈	-11.1108
呂	-11.1108
酒	-11.1109
設許	-11.1109
筌	-11.1109
墨	-11.1109
婦	-11.111
是而無是	-11.111
本來寂滅	-11.111
格	-11.1112
莖	-11.1112
現觀	-11.1112
嗔	-11.1112
香味	-11.1112
漠	-11.1114
騰	-11.1115
不疾	-11.1116
披	-11.1116
郢人	-11.1116
冲	-11.1116
鑿	-11.1117
旦	-11.1119
非謂是非	-11.112
學大乘	-11.1121
漸捨	-11.1122
由無故有	-11.1123
此一章	-11.1124
久近	-11.1125
恍	-11.1126
隨順眾生	-11.1128
安隱	-11.113
初地巳上	-11.1131
寄名	-11.1131
序主	-11.1131
如兔角等	-11.1132
喻非也	-11.1135
違自宗	-11.1136
已生未生	-11.1137
教化眾生	-11.1139
凝然	-11.1139
三輪	-11.114
妄語	-11.1141
會釋	-11.1142
青黃等	-11.115
聲性	-11.115
鑒照	-11.1151
蒼生	-11.1152
內外大小	-11.1154
而有而無	-11.1157
違宗	-11.1159
諸戲論	-11.1162
頓盡	-11.1163
神御	-11.1163
結習	-11.1167
為他作	-11.1167
十門	-11.117
不能照	-11.1171
第一句	-11.1173
虗玄	-11.1173
審實	-11.1175
一切種	-11.1176
過咎	-11.1176
玄妙	-11.1177
承上	-11.1182
仙人	-11.1183
滅法人	-11.1184
界外	-11.1185
止惡	-11.1186
泥曰	-11.1191
開境智	-11.1191
因果二法	-11.1192
鳩摩羅什	-11.1194
多羅	-11.1195
是則無窮	-11.1196
是立因	-11.12
圓覺	-11.1204
去者去法	-11.1207
樂受	-11.1221
是故汝說	-11.1232
水火	-11.1233
佛世尊	-11.1242
縱其	-11.1246
諸行無常	-11.1248
二十五有	-11.1252
不停	-11.1256
是皆不然	-11.1264
判二諦	-11.1264
因與果	-11.1268
一一皆	-11.1272
要由	-11.1296
令捨	-11.1299
無有性	-11.1303
群生	-11.1309
未嘗無	-11.131
次更	-11.1312
六事	-11.1323
墮斷常	-11.1327
為傍	-11.1331
盡淨	-11.1335
例然	-11.1338
言迹	-11.1338
十八空	-11.1348
大患	-11.1348
不可執	-11.1355
有別異	-11.1358
性空之理	-11.1365
就世俗	-11.1366
其猶	-11.1375
則不爾	-11.1375
流通	-11.1378
就初又	-11.1381
權方便	-11.1386
百論云	-11.1387
開為三	-11.1387
初正明	-11.1389
小教	-11.1399
破三相	-11.1402
諸有為法	-11.1407
謝滅	-11.141
下釋下半	-11.1414
三世諸佛	-11.1417
世俗法	-11.1422
中已有	-11.1424
無容	-11.1434
何以故下釋	-11.1435
菩提果	-11.1435
竪論	-11.1437
如幻化	-11.1438
邊無邊	-11.1443
結業	-11.1452
十重	-11.1456
是立宗	-11.1463
若先無	-11.147
能燒	-11.1476
亦復非	-11.1482
有無之境	-11.1493
空有二諦	-11.1511
三節	-11.1512
存乎	-11.1516
斷除	-11.1521
據理	-11.1523
善惡業	-11.1537
問若為	-11.1559
非境非智	-11.1574
不廢	-11.1574
亦同此	-11.1582
三總結	-11.1584
靜而非動	-11.1588
憎	-11.159
四大五根	-11.159
污	-11.1592
非內非外	-11.1592
陶	-11.1593
浣	-11.1594
殘氣	-11.1596
各性住於一世	-11.1597
好醜	-11.1597
十方三世諸佛	-11.1597
此下解釋也	-11.1597
三解脫門	-11.1597
昔物自在昔	-11.1597
稽首	-11.1598
珍	-11.1598
埿	-11.1598
圖	-11.1598
德無不圓	-11.1599
百論疏卷	-11.1602
酥	-11.1602
今物自在今	-11.1602
秋	-11.1603
晝夜	-11.1604
誤	-11.1605
逍遙	-11.1605
不二而二明之	-11.1606
法住法位	-11.1607
牟尼	-11.1607
此中意者	-11.1607
優	-11.1608
憶想分別	-11.1608
癈	-11.1609
猶如兔角	-11.1609
洽	-11.1609
房	-11.161
誡	-11.1611
汝先說	-11.1612
常無常等	-11.1613
奏	-11.1613
震旦	-11.1614
維摩詰	-11.1614
冀	-11.1614
舉譬	-11.1615
恒河	-11.1616
素	-11.1616
希夷	-11.1617
譬如兔角	-11.1617
分析	-11.1618
生法二空	-11.1618
難家	-11.1619
匠	-11.162
採	-11.1623
身口業	-11.1624
輕重	-11.1625
堯	-11.1625
棄捨	-11.1626
豈容	-11.1627
諸家	-11.1629
瓶衣等物	-11.163
在其中	-11.1632
實無有	-11.1635
太子	-11.1636
成我義	-11.1641
大般涅槃	-11.1642
武	-11.1643
推窮	-11.1643
佗性	-11.1644
前釋上半	-11.1649
大鈔	-11.1652
無始來	-11.1656
出莊子	-11.1658
異而同	-11.1666
悲愍	-11.1672
是以經云	-11.1675
亦復然	-11.1675
火薪	-11.1683
相因而	-11.1687
顯中道	-11.1699
有所得大乘	-11.1707
梵音	-11.1714
自害	-11.1714
十品	-11.1715
始末	-11.1728
夫聖人	-11.1729
流來	-11.1733
答亦得	-11.1735
須菩提言	-11.1742
深玄	-11.1744
說有我	-11.1747
墮負	-11.175
用寂	-11.1754
前句	-11.1754
法華經云	-11.1775
明二諦是教	-11.1781
易解	-11.1782
豈可以	-11.1783
誰復	-11.1784
心心法	-11.1788
互不相	-11.179
諸法皆空	-11.1805
未來善	-11.1822
先牒	-11.1825
斷結	-11.1832
多少	-11.1837
於勝義諦中	-11.1842
眼見色	-11.1846
真諦無相	-11.1847
而不動	-11.1849
無本住	-11.1864
十家	-11.189
釋疑	-11.1894
共作	-11.1902
前二句	-11.1928
何故但	-11.1932
已竟	-11.1935
離微	-11.1946
破戒	-11.1964
注釋	-11.199
有成壞	-11.1991
既許	-11.1995
為有為無	-11.1998
要待	-11.2001
八事	-11.2006
雙定	-11.2006
自己	-11.2008
二十三	-11.2031
般	-11.2032
俗非諦	-11.2033
歸一乘	-11.2063
望聖	-11.2065
涯	-11.2072
真如性	-11.2073
文有三	-11.2098
環	-11.2101
干	-11.2112
世間顛倒謂有	-11.2113
棗	-11.2114
豈待	-11.2116
坐道場	-11.2117
聖天菩薩	-11.2118
明大乘觀行	-11.2118
虫	-11.2119
三乘通教	-11.2119
兔馬	-11.2122
發生二智	-11.2124
衍	-11.2124
健	-11.2125
鞞世師人	-11.2126
九十六術	-11.2126
井	-11.2126
淚	-11.2126
南北	-11.2127
露	-11.2127
鐵	-11.2128
為一為異	-11.2128
灰身滅智	-11.2128
俯	-11.2128
歌	-11.2129
求向物於向	-11.2129
倫	-11.213
居無不無	-11.213
着	-11.213
挫	-11.213
故復頌曰	-11.213
曜	-11.213
畢竟清淨	-11.2131
織	-11.2131
翼	-11.2132
得佛之理	-11.2133
非大非小	-11.2133
早	-11.2134
二十五品	-11.2135
立已成	-11.2136
之跡	-11.2137
出二諦外	-11.2137
繫屬	-11.2137
性常自空	-11.2137
盖	-11.2138
壽命	-11.2138
遯	-11.2139
刃	-11.214
雪	-11.214
理極同無	-11.214
幽途	-11.214
無十方分	-11.2141
刻	-11.2141
轉法輪	-11.2142
映	-11.2142
伸	-11.2144
萬累	-11.2144
柔	-11.2147
釋頌文	-11.2148
非色非心	-11.215
積德	-11.2152
波若波羅蜜	-11.2154
亦有過	-11.2157
次兩偈	-11.2158
欽	-11.2158
下第三總結	-11.2161
諸佛世尊	-11.2161
出入觀	-11.2161
又說頌曰	-11.2164
勢力	-11.2164
種種因緣	-11.2164
瓶瓫	-11.2168
南方	-11.217
上座	-11.2172
涉求	-11.2178
相有故	-11.2178
趣向	-11.218
隔別	-11.2181
有多門	-11.2183
國王	-11.2184
不遷之義	-11.2187
有兩種	-11.2187
於空義	-11.2192
眼能見	-11.2197
老病死	-11.2202
通三性	-11.2202
永盡	-11.2206
極細	-11.2207
所生果	-11.2211
脩慧	-11.2213
深旨	-11.2213
已還	-11.2216
妄情	-11.2218
所緣境	-11.2219
復有何	-11.2225
妄計	-11.2226
利根人	-11.2231
而弗	-11.2231
五種求	-11.2234
外凡夫	-11.2236
非昔人	-11.2241
分際	-11.2243
無知而知	-11.2246
盲人	-11.2247
之咎	-11.2252
細分	-11.2253
下兩句	-11.2258
初地斷	-11.227
經曰下	-11.2272
引大品	-11.2283
文旨	-11.2283
得無生忍	-11.2284
山門	-11.2295
單空	-11.2295
縱奪	-11.2303
不應爾	-11.2305
總攝	-11.2317
下第六	-11.232
般若無知論	-11.232
去去者	-11.2328
如涅槃云	-11.2333
能生他	-11.2346
畢竟無生	-11.235
世諦之中	-11.2358
智惠	-11.2371
受陰	-11.2376
有多種	-11.2383
藉緣	-11.2389
上三句	-11.2392
百劫	-11.2394
全同	-11.2401
而有差別	-11.2402
方便淨	-11.2412
為眾生說	-11.2412
宗本義	-11.2413
有三意	-11.2431
六句	-11.2453
界內	-11.2491
我亦不	-11.2531
歸敬	-11.2535
強說	-11.2558
演說	-11.2561
一切眾生皆	-11.2587
輪轉	-11.2592
治道	-11.2607
以之為	-11.2612
有作用	-11.2615
凝	-11.2627
初正破	-11.2634
相續不斷	-11.2636
墮無因	-11.2641
興皇	-11.2648
昭	-11.2649
對他	-11.2663
射	-11.2668
大乘中觀釋論卷第十	-11.2672
到不到	-11.2675
安慧菩薩造	-11.2676
寥	-11.2676
有表不有	-11.2676
譯經三藏朝散大夫試鴻臚卿	-11.2677
倦	-11.2677
大乘中觀釋論	-11.2677
卑	-11.2678
寬	-11.2679
噫	-11.268
非無非不無	-11.268
一道清淨	-11.2681
園	-11.2681
如鏡中像	-11.2681
擾	-11.2681
若一若異	-11.2682
侍	-11.2682
半有半無	-11.2682
京	-11.2682
行亦不受	-11.2683
此執不然	-11.2683
毘婆闍婆提	-11.2683
阿耨多羅三藐三菩提	-11.2683
仗	-11.2684
於今未嘗有	-11.2685
毗婆沙	-11.2685
誹謗	-11.2685
垂迹	-11.2686
名無得物之功	-11.2686
諸有智者	-11.2687
浴	-11.2687
不到闇	-11.2688
紐	-11.2688
諸方等經	-11.2688
今亦無滅	-11.2689
亦為是假名	-11.2689
雷	-11.269
阿那含	-11.2691
斯陀含	-11.2691
肯	-11.2691
毛詩	-11.2693
賜	-11.2693
會三歸一	-11.2694
今當更說	-11.2695
聾	-11.2695
翫	-11.2695
塹	-11.2696
闡	-11.2696
今借此語	-11.2696
入不二法門	-11.2698
慎	-11.2699
過去現在	-11.27
晦	-11.27
我即無為	-11.27
彌綸	-11.2701
白牛	-11.2702
八地巳上	-11.2702
枝末	-11.2703
緣會而生	-11.2704
好尚	-11.2705
夫人經云	-11.2705
勝劣	-11.2706
大乘明義	-11.2706
萬端	-11.2707
地攝兩論成毗二家	-11.271
半字	-11.2711
仲	-11.2712
引經證成	-11.2713
天下之	-11.2714
龍樹出世	-11.2714
▁初引經	-11.2717
汗	-11.2719
成壞二法	-11.272
畢竟不可得	-11.2722
譬如瓶等	-11.2723
不攝瓶	-11.2724
續故不斷	-11.2725
一異門破	-11.2727
施戒	-11.2729
一豪	-11.2733
猶如虛空	-11.274
俗即真	-11.2742
隣人	-11.2745
猶存	-11.2752
以二智為	-11.2755
後破救	-11.276
有一物	-11.2773
同喻不成	-11.2776
去不去	-11.2781
空即色	-11.2781
無同喻	-11.2786
二正問	-11.2786
有少法	-11.2799
偏邪	-11.281
為正因體	-11.2813
先正破	-11.2817
僧佉人	-11.283
二儀	-11.283
善趣	-11.2833
抱一	-11.2843
重玄	-11.2844
信矣	-11.2849
偈上半牒	-11.2861
今次破	-11.2867
一體異體	-11.2877
俱不成	-11.2888
動靜不二	-11.2898
更互相	-11.2898
共位	-11.2919
旨歸	-11.2934
皆是世諦	-11.2941
般若之體	-11.2942
過去時中	-11.2946
難陀	-11.2972
何不名	-11.2979
設難	-11.2992
以其不來	-11.2994
初總標	-11.3002
何能生果	-11.3007
復何所	-11.301
展轉相	-11.3029
如來滅後	-11.3075
一切諸法皆	-11.308
曾當	-11.3092
因過去時	-11.3111
何因緣故	-11.3116
破可破	-11.3141
若其無	-11.3157
有二相	-11.3183
無礙道	-11.3188
朽	-11.3208
初偈上半	-11.3209
緣中無	-11.321
有兩義	-11.3233
成熟	-11.3242
如說而行	-11.3248
如行而說	-11.3249
愧	-11.3252
操	-11.3254
色不自色	-11.3259
中後假	-11.326
合為一	-11.3261
故有此門來	-11.3262
6	-11.3262
旃陀羅	-11.3263
謀	-11.3263
懈	-11.3263
一性異性	-11.3264
8	-11.3265
爪	-11.3266
祕	-11.3268
阿闍梨	-11.3268
偃	-11.3268
昔物住昔	-11.3268
欲言其有	-11.3269
霄	-11.327
璃	-11.327
地攝兩論	-11.327
如佛所言	-11.3271
有其所以不無	-11.3271
地攝等四家	-11.3271
愈	-11.3271
物無不當	-11.3272
畢竟不生	-11.3272
範	-11.3272
此中應問	-11.3272
正量部	-11.3272
牢	-11.3275
增上慢	-11.3275
二人俱有	-11.3276
斗	-11.3277
進修三位	-11.3277
幼	-11.3277
相與而無	-11.3278
授記	-11.3278
中道為二諦體	-11.3279
乏	-11.3279
精勤	-11.3279
篤	-11.3279
匡山	-11.3279
非有亦非無	-11.3279
卒	-11.328
竺	-11.3281
窮靈極數	-11.3281
屋	-11.3281
擲	-11.3281
如來性品	-11.3282
摩醯首羅	-11.3282
安置	-11.3282
交臂	-11.3282
拙	-11.3282
沙彌	-11.3284
作老	-11.3285
令物解	-11.3285
裂	-11.3285
曇無德	-11.3286
復次僧佉人言	-11.3286
丑	-11.3287
翻譯	-11.3288
終不能	-11.3288
稍	-11.3289
縱關	-11.3289
葢	-11.3289
贊	-11.3289
規	-11.3289
循	-11.329
染及染者	-11.3292
豫	-11.3292
漸漸	-11.3292
十八部	-11.3293
方寸	-11.3294
游刃	-11.3295
孝	-11.3295
陰陽	-11.3295
知而無知	-11.3296
雙泯	-11.3296
不二法門	-11.3297
須彌入芥子	-11.3301
已生位	-11.3301
谷神	-11.3302
惚	-11.3303
升	-11.3303
知即無知	-11.3305
究竟之道	-11.3305
脩萬行	-11.3306
雙融	-11.3312
處有不有	-11.3316
施主	-11.3316
幽玄	-11.3317
十四難	-11.3323
建立諸法	-11.3323
小劫	-11.3324
昭然	-11.3331
不二之道	-11.3332
第十地	-11.3332
老少	-11.3335
有非真有	-11.3336
加行	-11.3337
具含	-11.3339
第二頭	-11.3341
靈照	-11.3344
妄取	-11.3347
已去未去去時	-11.3353
何關	-11.3353
起信云	-11.3361
聖旨	-11.3363
收入	-11.3365
數量	-11.3379
造論意	-11.3381
德王	-11.3385
了了見	-11.3389
七地菩薩	-11.34
和上	-11.3403
不堪	-11.3405
諸法性相	-11.341
第一家	-11.3411
作善業	-11.3413
極重	-11.3424
久住	-11.3426
有漏無漏	-11.3441
經書	-11.3442
指前破	-11.3444
邊際	-11.345
初句牒	-11.3481
有邊無邊	-11.3492
令信解	-11.3495
三科	-11.3525
感報	-11.3547
大小乘經	-11.3557
無起滅	-11.3558
驗無體	-11.3575
文中初	-11.358
隨世俗	-11.358
超出	-11.3584
惡趣	-11.3591
略標	-11.3606
能感佛	-11.3633
漏盡	-11.3645
復何用	-11.3648
二科	-11.3653
己身	-11.3665
釋中二	-11.3683
偈為三	-11.3686
二種俱	-11.371
已謝	-11.3781
難差	-11.3798
初二偈	-11.3817
初標宗	-11.3817
無此過	-11.3818
二俱是	-11.3821
搖	-11.3827
闊	-11.3879
遠離二邊	-11.3881
非空非不空	-11.3884
色聲香味觸	-11.3887
汰	-11.3887
侶	-11.389
於凡是諦	-11.389
c	-11.389
長養	-11.389
如水中月	-11.3891
寢	-11.3891
用歸體	-11.3891
二諦合明中道	-11.3891
瓜	-11.3892
貶	-11.3892
悔	-11.3893
思益經	-11.3893
黨	-11.3893
攝嶺	-11.3894
曇摩	-11.3894
無去無來	-11.3894
浩	-11.3894
竊	-11.3895
如空花等	-11.3895
龜	-11.3895
注釋為二	-11.3896
照不失虗	-11.3896
積聚	-11.3896
煙	-11.3896
責向物於今	-11.3897
寂怕	-11.3897
殘	-11.3897
姚萇	-11.3897
中百二論	-11.3897
賓主	-11.3897
打	-11.3898
異自我耳	-11.3899
破不收	-11.3899
能相所相	-11.3899
抽	-11.3899
爭	-11.3899
厲	-11.39
惡取空	-11.39
敷	-11.3901
頑	-11.3901
英	-11.3902
拳	-11.3902
次半偈	-11.3902
亮	-11.3903
道遠乎哉	-11.3903
寡	-11.3903
洋	-11.3903
纔	-11.3903
如虛空花	-11.3903
無名無說	-11.3903
逍遙園	-11.3903
因不昔滅	-11.3904
能證之人	-11.3904
皇帝	-11.3905
本性清淨	-11.3907
詐	-11.3907
釋僧肇	-11.3907
側	-11.3907
不動真際	-11.3907
姚	-11.3908
桑	-11.3908
薩婆多部	-11.391
從初至	-11.391
舍利	-11.391
官	-11.3911
至長安	-11.3912
婬欲	-11.3912
過去未來現在	-11.3913
未兆	-11.3913
無所從來	-11.3913
壽量	-11.3914
舞	-11.3915
企	-11.3916
少壯	-11.3916
爻	-11.3917
現在未來時	-11.3917
境為智	-11.3917
紀	-11.3918
悞	-11.3919
煩重	-11.3919
彌昧	-11.3919
偶	-11.3922
佇	-11.3926
草堂	-11.3928
聖賢	-11.3929
不行中道	-11.3931
漚和般若	-11.3934
在論初	-11.3937
財施	-11.3938
三結成	-11.3941
自謙	-11.3942
勸學	-11.3944
五種佛性	-11.3948
命根	-11.3948
命終	-11.3951
▁No	-11.3951
十二年	-11.3958
有果生	-11.3958
覆疏	-11.3961
諸比丘	-11.3975
語非也	-11.3975
聖心無知	-11.3978
北方	-11.3981
受果報	-11.3988
諸有情	-11.4001
弘道	-11.4003
可知矣	-11.4005
設復	-11.401
文殊問	-11.4019
隨機	-11.4026
」《	-11.4027
火燒	-11.4028
結歸	-11.4041
不壞假名	-11.4068
後秦	-11.4071
如是五句	-11.4081
無知無見	-11.4108
平正	-11.4143
本自無	-11.4153
還墮	-11.4158
無因無果	-11.4163
運動	-11.4203
不來不去	-11.421
未嘗不	-11.4232
斷諸煩惱	-11.4259
穢土	-11.4348
三藏教	-11.4376
抱	-11.4396
引放光	-11.4423
里	-11.4434
色性自空	-11.4543
苞	-11.4548
眇	-11.4549
欺	-11.455
大唐中印度三藏波羅頗蜜多羅譯	-11.455
隨眠	-11.455
旋	-11.455
染法染者	-11.4551
無表不無	-11.4553
一實諦	-11.4554
如是等諸修多羅	-11.4554
樓	-11.4554
又開三	-11.4556
佛告極勇猛	-11.4557
闡提人無	-11.4557
有佛無佛	-11.4558
隣虛塵	-11.4558
旬	-11.4559
八萬四千	-11.4559
肅	-11.4559
快樂	-11.4559
躰	-11.4559
此中說驗	-11.4559
諸賢聖真知顛倒性空	-11.4559
文正爾	-11.456
絙	-11.456
梁武	-11.4561
撓	-11.4561
嫌	-11.4561
麗	-11.4561
曹	-11.4561
影闇	-11.4562
無來無去	-11.4562
尸	-11.4562
先已遮故	-11.4562
骨	-11.4563
野馬	-11.4563
▁二推釋	-11.4564
所觀之境	-11.4565
地持論	-11.4565
非有為非無為	-11.4565
冬	-11.4565
薩衛	-11.4565
竺法汰	-11.4565
皇	-11.4565
心行處滅	-11.4566
斬	-11.4566
稻	-11.4566
乍	-11.4566
凉	-11.4567
前滅後生	-11.4567
善根人有	-11.4567
非非有非非無	-11.4567
從自體生	-11.4568
狗	-11.4568
攝大乘論	-11.4568
物物斯照	-11.4568
白首	-11.4569
虗不失照	-11.4569
汪	-11.4569
忻	-11.4569
摩尼	-11.4569
枝條	-11.4569
鎔	-11.457
遷即不遷	-11.457
庭	-11.457
焚	-11.457
是事則不然	-11.4571
騁	-11.4571
弘始三年	-11.4571
真般若者	-11.4571
窮理盡性	-11.4571
吳	-11.4572
不相往來	-11.4572
常與無常	-11.4572
襟	-11.4573
窺	-11.4573
讓	-11.4574
壑	-11.4574
觸事而真	-11.4574
密嚴	-11.4574
逐近	-11.4575
祛	-11.4575
安穩	-11.4575
匠石	-11.4576
是名般若波羅蜜	-11.4576
所知之境	-11.4577
財寶	-11.4577
輕薄	-11.4577
鴈	-11.4577
畔	-11.4578
定慧之名	-11.4578
沉	-11.458
引二經	-11.458
吹	-11.458
司	-11.458
炳	-11.4581
第三總結	-11.4583
伯	-11.4583
通漏無漏	-11.4584
數緣盡	-11.4584
釋道安	-11.4585
不可測	-11.4585
有本作	-11.4586
能得之人	-11.4587
薩波若	-11.4587
三災	-11.4589
定有定無	-11.459
調伏	-11.4592
借無以	-11.4593
猶如色等	-11.4593
分別說三	-11.4595
缾	-11.4598
是故名諦	-11.4599
三不三	-11.4604
了不了	-11.4606
能破暗	-11.4608
申正涅槃	-11.4613
作如此說	-11.4613
八謬	-11.4619
俱泯	-11.462
泯絕	-11.4624
是義云何	-11.4624
仁王	-11.4629
悲心施	-11.463
前後一時	-11.4633
入於涅槃	-11.4638
塵勞	-11.4639
二諦教門	-11.4641
答中上半	-11.4647
散壞	-11.465
不朽	-11.465
梁傳	-11.4671
足分等	-11.4675
應信受	-11.468
□□□□□	-11.4695
隨俗說	-11.4704
本自無生	-11.4724
十六諦	-11.4732
外道所計	-11.4735
眼不能見	-11.4758
世俗言說	-11.4761
畢竟寂滅	-11.4805
值佛	-11.4832
標章門	-11.4845
不遷之理	-11.4861
十住菩薩	-11.4873
敬三寶	-11.4946
令悟不	-11.5008
自他共	-11.5021
第二兩偈	-11.5042
主諦	-11.5057
總別一體	-11.5062
去時有去	-11.508
苽	-11.5248
因與因因	-11.5255
是因非果	-11.5261
唐捐	-11.5264
是果非因	-11.5265
頻	-11.5266
是故偈中說	-11.5266
善根人無	-11.5266
取外意	-11.5267
答曰下第三破救	-11.5268
凡有心者	-11.5268
假有假無	-11.5268
路伽	-11.5269
世諦即第一義諦	-11.5269
三是故下結	-11.5269
偈本龍樹菩薩釋論分別明菩薩	-11.5269
緣所不能生	-11.527
男女等相	-11.527
同疑因	-11.527
非有邊非無邊	-11.527
伺察	-11.527
物莫之無	-11.527
拒	-11.527
暑	-11.527
涅	-11.5271
蟲	-11.5271
一中解無量	-11.5271
悕	-11.5271
[	-11.5271
f	-11.5271
膏	-11.5272
荅言	-11.5272
豐	-11.5272
]	-11.5272
鉤	-11.5272
本有始有	-11.5272
明與無明	-11.5272
瓶等諸物	-11.5272
掩	-11.5272
成毗二家	-11.5273
萬里	-11.5273
▁157	-11.5273
欲言其無	-11.5273
偷	-11.5273
童壽	-11.5273
昧者不覺	-11.5274
世間相常住	-11.5274
即俗之真	-11.5274
亦有邊亦無邊	-11.5274
緣盡於觀	-11.5274
躍	-11.5275
籠	-11.5275
困	-11.5275
杳	-11.5276
陵	-11.5276
銅	-11.5276
穴	-11.5276
因中先無果	-11.5276
岳	-11.5277
不知何以目之	-11.5277
八萬法藏	-11.5277
飢	-11.5277
色香味觸	-11.5277
惜	-11.5277
軍林	-11.5277
徃來	-11.5277
寂寥	-11.5278
眠	-11.5278
言而無當	-11.5278
髓	-11.5279
丸	-11.5279
荷	-11.5279
真諦破假	-11.5279
如先所說	-11.528
臂	-11.528
似空花	-11.528
物我冥一	-11.528
樂苦癡	-11.5281
由有故無	-11.5281
泛	-11.5281
蘭	-11.5281
言語道斷	-11.5282
恬淡	-11.5282
法無有無之相	-11.5282
依世諦說	-11.5282
認	-11.5282
求生不得	-11.5282
忍辱	-11.5283
痛	-11.5283
誕	-11.5283
螢	-11.5283
譬如餘物	-11.5283
榮	-11.5284
辛	-11.5284
嶽	-11.5284
終歸於空	-11.5284
一切有無法	-11.5285
銷	-11.5285
心大歡喜	-11.5285
注肇論疏	-11.5285
誨	-11.5286
洹	-11.5286
罔象	-11.5286
黑白	-11.5286
昨	-11.5286
無明住地	-11.5287
萌	-11.5287
江南	-11.5287
以有觀故	-11.5288
槃	-11.5288
三藏法師	-11.5288
偏病	-11.5289
本經二十	-11.5289
暇	-11.5289
心智寂滅	-11.5289
盈	-11.529
八聖道	-11.529
靈鑒	-11.529
精巧	-11.529
畜生	-11.5291
無名之致	-11.5292
碍	-11.5292
以何義故	-11.5292
用三去	-11.5293
憂喜	-11.5294
泉	-11.5294
無如此義	-11.5295
補處	-11.5295
因謂之有	-11.5296
侯	-11.5297
懷抱	-11.5297
黎	-11.5297
遍一切處	-11.5298
錯亂	-11.5298
季	-11.5299
踐	-11.5299
魯	-11.5299
初生燈	-11.5299
楚	-11.53
冠	-11.5302
弘道終日	-11.5302
羣方	-11.5303
滅盡定	-11.5303
譬喻部	-11.5304
魄	-11.5304
洪	-11.5305
勒	-11.5306
役	-11.5306
總攝一切	-11.5307
學士	-11.5311
下半正破	-11.5311
如上所說	-11.5311
以神從覺	-11.5311
日損	-11.5311
瓔珞經云	-11.5311
蔚	-11.5312
不遷之旨	-11.5312
滅諸戲論	-11.5317
犍	-11.5318
十號	-11.5321
四不四	-11.5323
自性他性	-11.5323
不三三	-11.5324
治病	-11.5328
須廢	-11.5333
存亡	-11.5345
平等無二	-11.5346
復作是	-11.5381
世間出世間	-11.5441
答曰下第二	-11.5488
眾生與佛	-11.5511
非不能非	-11.5511
安法師	-11.5515
周易	-11.5528
遍破一切	-11.5568
日光	-11.5577
去者不去	-11.5649
若汝復	-11.5724
影師	-11.5752
隨其所	-11.5833
用即寂	-11.5931
恂恂	-11.6019
秘	-11.602
完	-11.6023
愛非愛	-11.6027
災	-11.603
周旋	-11.6031
如龜毛等	-11.6031
左右	-11.6032
假生假滅	-11.6034
物非真物	-11.6035
若因若果	-11.6035
為緣之所起	-11.6036
必求靜於諸動	-11.6037
耽	-11.6037
一家相傳云	-11.6037
勇	-11.6037
翰	-11.6038
稟教之流	-11.6038
宛	-11.6038
故下文云	-11.6039
嶮	-11.6039
眩	-11.604
瞖	-11.6041
十六知見	-11.6041
童	-11.6041
何以得知	-11.6041
勤勞	-11.6041
遷與不遷	-11.6041
踰	-11.6042
擔	-11.6042
二世無義	-11.6043
生心動念	-11.6043
。」△	-11.6043
不動等覺而建立諸法	-11.6044
苦集滅道	-11.6044
維	-11.6044
竅	-11.6044
亦實亦不實	-11.6044
試論之曰	-11.6045
迦夷	-11.6045
柏	-11.6046
遭	-11.6046
念佛三昧	-11.6046
剖	-11.6046
鼻舌身	-11.6047
殿	-11.6047
可以神會	-11.6048
因中前有果	-11.6048
臥	-11.6048
芻	-11.6048
無會可撫	-11.6049
成我所成	-11.6049
諱	-11.6049
韜	-11.6049
罪福報應	-11.6049
果有其所以不有	-11.605
今亦不往	-11.605
斤	-11.605
親友	-11.605
汙	-11.605
揮	-11.605
欝	-11.6051
謂標釋結	-11.6051
塔	-11.6052
生住異滅	-11.6052
威儀	-11.6052
性種性	-11.6052
泰	-11.6052
龍光傳開善	-11.6053
從本以來	-11.6053
銀	-11.6053
若提子	-11.6053
混融	-11.6053
緣起故不無	-11.6053
引說證成	-11.6053
候	-11.6054
而無慮焉	-11.6054
根性不同	-11.6054
理無不契	-11.6054
耆	-11.6055
雖在昔而不化	-11.6055
禁	-11.6055
山林	-11.6055
低	-11.6056
藥草	-11.6056
物無當名之實	-11.6056
補	-11.6056
猴	-11.6057
道超名外	-11.6057
冥符	-11.6057
非實非不實	-11.6057
應逾動	-11.6059
蹈	-11.606
視聽	-11.606
辰	-11.606
本性空寂	-11.606
檀越	-11.6061
矩	-11.6061
翅	-11.6061
窅	-11.6061
有生有滅	-11.6062
弱喪	-11.6062
代謝	-11.6062
穀牙	-11.6063
魏	-11.6065
斵	-11.6065
閻浮提	-11.6065
幽靈不竭	-11.6065
付屬	-11.6066
圜	-11.6066
丁	-11.6067
末代	-11.6067
庸	-11.6067
禹	-11.6067
玩	-11.6068
坐禪	-11.6068
順忍	-11.6068
那忽	-11.6068
見有得道	-11.6069
省	-11.607
有十方分	-11.6074
天女曰	-11.6074
班	-11.6074
為二諦攝	-11.6075
旃延	-11.6076
夫人經	-11.6076
姑臧	-11.6076
剎那剎那	-11.6078
痾	-11.6079
復次有作是	-11.608
展轉相續	-11.608
半滿	-11.6081
不破暗	-11.6081
伊	-11.6082
十翼	-11.6083
推斥	-11.6083
五陰永滅	-11.6084
新舊	-11.6084
當生善	-11.6084
不滅不來	-11.6085
以理推	-11.6087
三慧品	-11.609
聲聞法中	-11.6092
脩短	-11.6095
動搖	-11.6103
火能燒	-11.6107
倉	-11.6111
讚歎	-11.6117
幻士	-11.613
蹤跡	-11.6132
本業經	-11.6144
一行半	-11.6157
偈意如	-11.6167
非名非	-11.6204
有三階	-11.627
同而異	-11.6295
如經偈	-11.6389
有而不有	-11.6408
第三一偈	-11.6507
前已廣	-11.6537
墮斷滅	-11.6647
二十七品	-11.6804
禾	-11.6822
涅盤	-11.684
不二之旨	-11.6851
非色滅空	-11.6857
煮	-11.6858
逼迫	-11.6861
真即俗	-11.6862
托	-11.6863
闍那	-11.6864
尒	-11.6864
諦不諦	-11.6865
有於凡實	-11.6867
栖	-11.6867
物莫之逆	-11.6868
話	-11.6868
性莫之易	-11.6868
四大所生色	-11.6869
刈	-11.6869
因法有人	-11.6869
如來無一切智	-11.687
怙	-11.6871
渧	-11.6871
為破彼執	-11.6871
森羅	-11.6871
虛不失照	-11.6871
燃燈佛	-11.6872
無我無我所	-11.6872
滌	-11.6872
褒貶	-11.6873
兩言一會	-11.6873
何處當有	-11.6874
稻穀等	-11.6874
趨	-11.6874
陰入界	-11.6874
妻	-11.6874
放逸	-11.6874
釋卷第十	-11.6875
無狀無名	-11.6875
陽焰	-11.6875
名實無當	-11.6875
團	-11.6876
能緣所緣	-11.6876
坑	-11.6876
四悉壇	-11.6876
觀門次第	-11.6876
鹿苑	-11.6877
闡提人有	-11.6877
出生入死	-11.6877
善知識	-11.6878
自上以來	-11.6878
塊	-11.6878
法性生身	-11.6878
羈	-11.6878
此無過失	-11.6879
論初已來	-11.6879
物莫之有	-11.688
囊括	-11.688
跋摩	-11.688
譬如耶若達多	-11.688
今所明者	-11.688
不可以智知	-11.6881
高僧傳	-11.6881
是事亦不然	-11.6881
阿梨耶識	-11.6881
聖智之無	-11.6882
廁	-11.6882
險	-11.6882
無動轉者	-11.6882
?「	-11.6883
猛利	-11.6883
祥	-11.6883
北土	-11.6883
為凡說有	-11.6883
呪術	-11.6883
二人俱無	-11.6884
觀盡於緣	-11.6884
皎	-11.6884
焦	-11.6884
於今未甞有	-11.6885
不生亦不滅	-11.6885
聖無有無之知	-11.6885
隣虛	-11.6885
嵩	-11.6886
攻	-11.6886
鎖	-11.6886
神有應會之用	-11.6887
璣	-11.6887
則異乎無相	-11.6888
誓願	-11.6888
因中有果無果	-11.6888
粟	-11.6888
魂	-11.6888
三法一體	-11.6888
面折	-11.6889
軟	-11.6889
佛在世時	-11.6889
生時亦不生	-11.6889
至於無損	-11.6889
蹄	-11.6889
氷	-11.689
晏	-11.689
不從非緣生	-11.689
徑	-11.689
罷	-11.6891
圍	-11.6891
決擇	-11.6891
憙	-11.6891
曆	-11.6891
大小兩教	-11.6892
危	-11.6892
詎	-11.6892
一有一無	-11.6893
其致一也	-11.6893
市	-11.6894
無滯而不通	-11.6894
從佛起	-11.6895
普賢	-11.6895
除糞	-11.6895
依福捨罪	-11.6896
斧	-11.6896
牓	-11.6897
懼	-11.6897
譬如幻化人	-11.6897
繼	-11.6898
皮陀	-11.6898
起盡法	-11.6898
倣	-11.6899
損害	-11.69
東晉	-11.6902
着寂	-11.6902
十萬偈	-11.6903
粗	-11.6903
肩	-11.6903
抱一湛然	-11.6903
能破所破	-11.6903
藪	-11.6905
無如上過	-11.6905
陸	-11.6906
符堅	-11.6906
惡止善行	-11.6907
神而無功	-11.6907
謹	-11.6907
鬱	-11.6909
不滅不化	-11.6909
思擇	-11.6912
金剛三昧	-11.6912
徽	-11.6913
叩	-11.6916
有實行二乘	-11.6932
瀑	-11.6936
擊發	-11.7035
心慧境	-11.7147
後當廣	-11.7261
車輪	-11.7304
漏無漏	-11.7518
無生亦無滅	-11.7761
俗亦諦亦非諦	-11.7762
瓔珞經	-11.7766
吠	-11.7768
不見空與不空	-11.777
生緣老死	-11.777
泣	-11.7774
世人知者名	-11.7774
去者不至方	-11.7774
假無不名無	-11.7775
補特伽羅	-11.7775
觀方知彼去	-11.7777
互相因待	-11.7777
非本非始	-11.7778
依名釋義	-11.7778
椽	-11.7778
薄福鈍根	-11.7778
汝不善說	-11.7779
瑜伽	-11.7779
猥	-11.7779
樊	-11.7779
屍	-11.7779
怜	-11.7779
灯	-11.778
暨	-11.778
快	-11.778
耆婆	-11.778
前因後果	-11.7781
惑智之無	-11.7781
能說是因緣善滅諸戲論	-11.7781
怨憎	-11.7781
稟佛教	-11.7782
以實為義	-11.7782
照不失虛	-11.7783
社	-11.7783
食油	-11.7783
蘇酪	-11.7784
取及取者	-11.7784
𦦨	-11.7784
桎梏	-11.7784
晚	-11.7785
離去有去	-11.7785
於聖是實	-11.7785
羅睺羅	-11.7785
有得有失	-11.7785
如幻夢	-11.7785
非生死非涅槃	-11.7785
醜	-11.7785
體同時用前後	-11.7786
如先已遮	-11.7786
我樂淨	-11.7786
亦為遮空所對治	-11.7786
非權非實	-11.7786
七地以上	-11.7787
昔物在昔	-11.7787
前果後因	-11.7787
於教二諦	-11.7787
所乘不一	-11.7787
雖靜而常往	-11.7787
不苦不樂	-11.7788
支道林	-11.7788
三雙六句	-11.7788
橫絕百非	-11.7788
雖往而常靜	-11.7788
柰	-11.7788
侵	-11.7788
雖有而非有	-11.7788
三獸渡河	-11.7788
二世有義	-11.7788
生已更生	-11.7788
阿羅漢辟支佛	-11.7788
無依無得大乘四論玄義記卷第	-11.7788
無因邪因	-11.7789
勵	-11.7789
瞻	-11.7789
愕	-11.7789
不一亦不異	-11.779
糸	-11.779
鄰	-11.779
琰	-11.779
祈	-11.779
洲	-11.779
眾糸	-11.779
焚燒	-11.7791
訶	-11.7791
惻	-11.7791
譯場	-11.7791
生死長遠	-11.7791
道慧道種慧	-11.7792
否	-11.7792
鸞	-11.7792
剋	-11.7792
空無相無作	-11.7792
小後大	-11.7793
截	-11.7793
醉	-11.7793
有無之數	-11.7793
靈怕獨感	-11.7793
以目品	-11.7793
應會之道	-11.7793
睡	-11.7794
今此品者	-11.7794
法自相相違	-11.7794
了達非有無	-11.7794
悋	-11.7794
習種性	-11.7795
挍	-11.7795
若以無相為無相	-11.7795
心生於有心	-11.7795
知無所遺	-11.7796
無心於內	-11.7796
雖處有名之中	-11.7796
煥	-11.7796
駕	-11.7796
芳	-11.7796
三乘之路開	-11.7796
會不失機	-11.7796
譚	-11.7796
宿命	-11.7797
與物推移	-11.7797
茫	-11.7797
慜	-11.7797
即事而真	-11.7797
須臾	-11.7797
璿璣	-11.7797
開二關責	-11.7798
匍	-11.7798
於向未甞無	-11.7798
茂	-11.7799
雲庵	-11.7799
神彌靜	-11.7799
松	-11.7799
紙	-11.78
怠	-11.78
詭	-11.78
蓮社	-11.78
拯	-11.78
輙	-11.78
瞽	-11.78
無為雖一	-11.7801
緒	-11.7802
升降	-11.7802
郭	-11.7802
老莊	-11.7802
踟	-11.7803
秀	-11.7803
玄之又玄	-11.7804
倚	-11.7804
千載之下	-11.7804
男等相	-11.7804
耆年解脫	-11.7805
寂即用	-11.7805
津梁	-11.7805
令開解	-11.7805
穿	-11.7806
遐	-11.7806
神與知合	-11.7807
初十心	-11.7807
是生滅法	-11.7808
二與不二	-11.7808
佛與菩薩	-11.7808
數以應之	-11.7808
不即不離	-11.7809
要誓	-11.7809
為莫之大	-11.781
戶	-11.7811
施莫之廣	-11.7811
創	-11.7811
一亦無三	-11.7812
萬累都捐	-11.7812
紫	-11.7815
蘇摩	-11.7816
下智觀	-11.7816
縣	-11.7817
儒老	-11.7817
甲	-11.7817
無不自無	-11.7818
無而謂有	-11.7819
怏怏	-11.7819
吞	-11.782
黃帝	-11.7821
凶	-11.7821
姚主	-11.7826
佛不出世	-11.7828
摩耶經	-11.783
延促	-11.7831
興皇大師	-11.7845
十里	-11.796
空處等至	-11.7969
一頌約	-11.7991
如先偈	-11.8475
蒼	-11.8718
泥洹盡諦	-11.8755
非人非法	-11.8762
蕭	-11.8766
真諦絕假	-11.8769
由果有緣	-11.8771
▁185	-11.8772
如幻如化	-11.8773
毘曇人云	-11.8773
今則無因待	-11.8774
祠	-11.8774
無本無始	-11.8775
推功歸佛	-11.8775
吉祥	-11.8775
泡	-11.8777
內外並冥	-11.8777
四沙門果	-11.8778
尊卑	-11.8778
矯	-11.8778
二來意者	-11.8779
本護法菩薩釋三藏法師玄奘奉詔譯	-11.8779
植	-11.8779
眼不見色	-11.8779
栗	-11.8779
宮商	-11.878
純陀	-11.878
入佛知見	-11.8781
從體起用	-11.8782
不生不滅是無常義	-11.8782
戢	-11.8782
動而常靜	-11.8783
以空有為世諦	-11.8783
不滯於無	-11.8783
此應思擇	-11.8783
聖以之靈	-11.8784
覆而求今	-11.8784
諸論義師	-11.8784
憂悲苦惱	-11.8784
豎	-11.8784
造論所由	-11.8784
喉	-11.8784
疆	-11.8784
熾盛	-11.8784
本性自空	-11.8785
若色至識	-11.8785
成已復成	-11.8785
三十四心	-11.8785
僧佉衛世	-11.8785
菴	-11.8785
僻	-11.8785
誘	-11.8786
躁	-11.8786
當於無當	-11.8786
籌	-11.8786
不自不他	-11.8786
知與無知	-11.8787
如般若波羅蜜經中	-11.8787
難以事求	-11.8787
邕	-11.8787
囑	-11.8787
有此品來者	-11.8787
擬議	-11.8788
頗胝迦	-11.8788
滋	-11.8788
諸佛依二諦為眾生說法	-11.8788
疎而不漏	-11.8788
一切眾生悉有佛	-11.8788
六道迴宗	-11.8788
非無假說無	-11.8789
體絕陰入	-11.8789
自性清淨心	-11.8789
寂而常照	-11.8789
俊	-11.8789
無量中解一	-11.8789
鍊	-11.879
遞	-11.879
近而不可知者	-11.879
挺	-11.879
薪有火	-11.8791
即動而靜	-11.8791
是名世間第	-11.8791
旋嵐	-11.8791
炷	-11.8791
謂今物可至昔	-11.8791
勅	-11.8792
郡	-11.8792
故滅身以歸無	-11.8792
正言似反	-11.8792
若常若無常	-11.8792
聽之不聞	-11.8793
誰當信者	-11.8793
漠漠	-11.8793
眹	-11.8793
養育	-11.8793
得聲聞菩提	-11.8794
舉非緣決	-11.8794
揖	-11.8794
迫	-11.8794
十二緣河	-11.8794
末世鈍根	-11.8794
爛	-11.8795
整	-11.8795
憍尸迦	-11.8795
無為而無所不為	-11.8795
瑞	-11.8795
中論四諦品	-11.8795
無患雖同	-11.8795
嗅	-11.8795
夕	-11.8796
浩然大均	-11.8796
瞿	-11.8796
逃	-11.8797
奇特	-11.8797
以此而推	-11.8797
可住子	-11.8797
棺	-11.8797
因及譬喻	-11.8797
園林	-11.8798
軌轍	-11.8798
商	-11.8798
研覈	-11.8798
飾	-11.8798
不知何因緣故空	-11.8798
構	-11.8799
斯理之玄	-11.8799
燋	-11.8799
莊子外篇	-11.8799
怗	-11.8799
大患永滅	-11.8799
薩雲	-11.8799
因滅果生	-11.8799
上智觀故得	-11.88
綿	-11.88
無是無當	-11.88
無縛無解	-11.88
缺	-11.88
輔	-11.8801
膺	-11.8801
入菩薩位	-11.8801
有無絕於內	-11.8801
八萬劫	-11.8802
碩	-11.8803
因不來今	-11.8803
於一時中	-11.8804
阿僧祇劫	-11.8804
異亦無三	-11.8804
嗟	-11.8804
上二界	-11.8805
渺	-11.8805
其中有精	-11.8806
叔	-11.8806
軀	-11.8806
悠	-11.8806
布施持戒	-11.8806
幢	-11.8807
實如明詔	-11.8808
胸	-11.8808
其性本空	-11.8809
阿漚	-11.8809
朴	-11.8809
佛未出世	-11.881
佉	-11.881
檀波羅蜜	-11.881
鳧	-11.8811
長為短	-11.8812
三十二相八十種好	-11.8812
營	-11.8813
叢	-11.8813
嫉	-11.8813
訛	-11.8813
㒵	-11.8813
統御	-11.8814
侔	-11.8815
掩室	-11.8815
遣法自相	-11.8817
兄	-11.8818
剃	-11.8819
空不異色	-11.8819
雀	-11.8821
楚夏	-11.8821
王弼	-11.8821
賦	-11.8822
緬	-11.8824
應而不為	-11.8825
針	-11.8825
連環	-11.8825
大集經	-11.8832
與神異	-11.8832
兔角龜毛	-11.884
妙之門	-11.8847
從果觀	-11.8862
方外之	-11.8865
二破救中	-11.8876
二諦為教	-11.8877
理必不	-11.9053
無新無	-11.9066
觀法品	-11.913
地菩薩斷	-11.9406
故不應執	-11.943
豪	-11.9823
場	-11.9852
衛	-11.9869
刧	-11.987
笋	-11.9873
道種慧	-11.9878
獄	-11.9878
巖	-11.988
去未去去時	-11.9881
灾	-11.9882
彥	-11.9883
藍	-11.9884
中發於觀	-11.9885
見他苦時	-11.9885
亦因亦果	-11.9886
蕩蕩	-11.9886
修觀行者	-11.9886
㝡	-11.9886
憍	-11.9886
假不生假不滅	-11.9887
閣	-11.9888
郭注云	-11.9888
燸	-11.9888
大分深義	-11.9888
於世人為實	-11.9888
員	-11.9888
離四句百非	-11.9888
儒僮	-11.9889
光梵大師賜紫沙門臣惟淨等奉詔譯	-11.9889
船	-11.9889
目對真而莫覺	-11.9889
去亦無所至	-11.9889
甲辰歲高麗國大藏都監奉𠡠彫造	-11.9889
名相靡因	-11.989
是法還成待	-11.989
耶若達多	-11.989
惘悒	-11.9891
應物現形	-11.9892
空於聖實	-11.9892
秪	-11.9892
力者負之而趨	-11.9892
能燒所燒	-11.9892
故契經說	-11.9893
僕	-11.9893
世與第一	-11.9893
非有假說有	-11.9893
眉	-11.9893
若法有待成	-11.9893
諮	-11.9894
誠諦之言	-11.9894
離色因有色	-11.9894
s	-11.9894
雖無而非無	-11.9894
非推之使無	-11.9895
亦破亦收	-11.9895
破如可破	-11.9895
觸物而一	-11.9895
象非真象	-11.9895
迷教於諦	-11.9895
能表之教	-11.9895
輸	-11.9896
不釋動以求靜	-11.9896
霜	-11.9896
他有有可有	-11.9896
隨聖說	-11.9896
不常亦不斷	-11.9896
不非物於物	-11.9896
恑	-11.9897
復次經部師言	-11.9897
避苦求樂	-11.9897
俯仰順化	-11.9897
去無所至	-11.9897
廣雅云	-11.9897
掌珍論	-11.9898
隻	-11.9899
江河競注而不流	-11.9899
晝	-11.9899
佳	-11.9899
相開避	-11.9899
碑	-11.9899
乃所以為真是	-11.9899
天而不周	-11.9899
不可謂之不有	-11.9899
驥	-11.99
不遷而遷	-11.99
似不似	-11.99
非有非無假說有	-11.99
夙	-11.99
枚	-11.9901
苻	-11.9901
交絡	-11.9901
嶺	-11.9901
撫掌	-11.9901
彩	-11.9901
十八不共法	-11.9902
月十五日	-11.9902
羽	-11.9902
似去而留	-11.9902
二諦攝法盡	-11.9902
杌	-11.9903
午	-11.9903
活	-11.9903
本自有之	-11.9903
無在無不在	-11.9903
誹	-11.9903
厝	-11.9904
三乘五教	-11.9904
若心體自然	-11.9904
跛	-11.9904
二言未始一	-11.9904
無常亦常亦無常非常非無常	-11.9904
驚怖	-11.9904
其唯物性乎	-11.9905
吾猶昔人	-11.9905
練	-11.9905
上更起	-11.9905
入滅定	-11.9905
知獨照	-11.9905
九流於是乎交歸	-11.9905
臭	-11.9905
迄	-11.9906
歸于無二	-11.9906
超度四流	-11.9907
不為而過為	-11.9907
滓	-11.9907
去無所去	-11.9907
照而常寂	-11.9907
赤縣	-11.9907
宏	-11.9907
褒	-11.9907
竺道生	-11.9907
所遇而順適	-11.9907
生死及涅槃	-11.9907
各各不相知	-11.9907
亦常亦無常	-11.9907
潔	-11.9908
以名求物	-11.9908
經稱有餘涅槃	-11.9908
詔	-11.9908
言象莫測	-11.9908
微隱難測	-11.9908
成其私	-11.9908
殷	-11.9908
無一法為說	-11.9909
四空之所昏昧	-11.9909
蒼蒼	-11.9909
一念之力權慧具矣	-11.9909
均天人	-11.9909
初二因微	-11.9909
少踐大方	-11.9909
如來無處所	-11.9909
無道無果	-11.991
何以故下第三釋	-11.991
視聽之所不暨	-11.991
今無依無得宗	-11.991
天得一以清	-11.991
鎮	-11.991
感而後應	-11.9911
紛繞	-11.9911
乾慧地	-11.9911
借無破有	-11.9911
噉	-11.9912
壤	-11.9912
聞畢竟空如刀傷	-11.9912
燈能自照	-11.9912
炬	-11.9912
餌	-11.9913
鄭	-11.9913
心想都滅	-11.9913
不可謂之有	-11.9914
抗	-11.9915
寂滅為樂	-11.9915
絕於靈照	-11.9915
星紀	-11.9915
蓮	-11.9915
葱	-11.9916
借異破	-11.9916
迂	-11.9916
物莫能一	-11.9917
無有少法可	-11.9917
澡	-11.9918
算	-11.9918
頹	-11.9919
富樓那	-11.9919
共離二門	-11.9919
䨱	-11.992
大品經三慧品	-11.992
至功常存	-11.992
肥	-11.9921
逵	-11.9921
色不異空	-11.9921
夾	-11.9921
盤	-11.9922
躊躇	-11.9922
邁	-11.9923
農	-11.9924
賞	-11.9924
與道通洞	-11.9924
不遷當俗	-11.9924
可指示	-11.9925
因而不施	-11.9925
區	-11.9926
與思合	-11.9926
體之即神	-11.9927
亦違汝	-11.9927
嗣	-11.9929
因變為果	-11.9929
乞求者	-11.9931
左見右識	-11.9931
無三說三	-11.9932
橋	-11.9933
覺非神相	-11.9936
瘵	-11.9936
怳	-11.9938
師說不同	-11.9943
中論涅槃品	-11.9952
釆	-11.9953
去時亦無去	-12.0046
無量義經	-12.0093
地正斷	-12.0116
母生子	-12.0174
答具有二	-12.0204
當學般若	-12.0448
】	-12.0603
等至所緣境	-12.088
畜	-12.108
從單中出	-12.1124
何況我耶	-12.1125
從複假入	-12.1126
道無隱機	-12.1126
杜塞視聽	-12.1126
歛	-12.1126
從複中出	-12.1127
從單假入	-12.1127
成破不一	-12.1128
薗	-12.113
隨其流處	-12.113
教轉名境	-12.1132
從淺至深	-12.1132
迴邪入正	-12.1132
順之所謂通	-12.1133
閻浮	-12.1133
從無住本立一切法	-12.1133
瑣	-12.1133
逆之所謂塞	-12.1133
然藉光明虛空顯了	-12.1134
有於凡是實	-12.1135
謗佛法僧	-12.1135
別而為言	-12.1135
可不欣乎	-12.1135
四釋文中	-12.1135
從因緣品至	-12.1135
甫	-12.1136
轉輪聖王	-12.1137
智者了達其性無二	-12.1138
首楞嚴三昧	-12.1138
燄	-12.1138
不壞假名而說實相	-12.1138
無取無捨	-12.1139
械	-12.1139
至當可當	-12.1139
若能若所	-12.1139
方便以為父	-12.1139
耳鼻舌身意	-12.1139
復次鞞世師言	-12.114
非生滅非不生滅	-12.114
震	-12.1141
渝	-12.1141
人之所謂動者	-12.1141
智度菩薩母	-12.1141
見可見見者	-12.1141
樑	-12.1142
韻	-12.1143
軸	-12.1143
諸佛常依二諦說法	-12.1143
五華施佛	-12.1143
此釋下半頌	-12.1143
對緣而照	-12.1143
來無所從	-12.1143
強為立名	-12.1143
往而弗遷	-12.1144
豈曰排今而可往	-12.1144
不緣色生識	-12.1144
亦得亦失	-12.1144
寒暑迭遷	-12.1144
0	-12.1144
羸	-12.1145
誣	-12.1145
智則知矣	-12.1145
崖	-12.1146
慚	-12.1146
鈴	-12.1146
住而可留	-12.1146
桎	-12.1146
無心意而現行	-12.1147
5	-12.1147
照理達事	-12.1147
於其間哉	-12.1147
乃所以為至當	-12.1147
攷	-12.1147
有無既已無	-12.1147
秖	-12.1147
仲尼之所以臨川	-12.1148
與實相相應	-12.1148
飄	-12.1148
迢	-12.1148
從俗諦複中出	-12.1148
從俗諦單假入	-12.1148
巾	-12.1148
勞勤莫先於有智	-12.1148
度脫眾生	-12.1148
邕邕	-12.1149
一切因緣故不應有	-12.1149
言辭相寂滅	-12.1149
則寂照之名	-12.1149
遍體和合	-12.1149
眼不自見	-12.1149
可物於物	-12.1149
觀辨於心	-12.1149
勝義理中	-12.1149
速於川流	-12.1149
人命逝速	-12.1149
今而無古	-12.1149
我於過去世	-12.1149
有無量種	-12.1149
虧盈	-12.115
必有知於可知	-12.115
或有或無	-12.115
斯言有由矣	-12.115
不馳騁於古今	-12.115
四微成柱	-12.115
屢	-12.115
稱去而不遷	-12.115
必有會於可會	-12.1151
竪超四句	-12.1151
絲	-12.1151
斯皆感往者之難留	-12.1151
言語道斷心行處滅	-12.1151
五取蘊	-12.1151
虞	-12.1151
士聞道	-12.1151
不疾而疾	-12.1151
群數之應	-12.1151
應緣而現	-12.1152
結縛永除	-12.1152
貞	-12.1152
曼殊室利	-12.1152
閱	-12.1152
故知物不去	-12.1152
無數於外	-12.1152
襲	-12.1152
囊	-12.1152
寄懷無所	-12.1152
所見未甞同	-12.1152
一切因緣故應有	-12.1152
四十四智	-12.1152
道絕群方	-12.1152
瓶與一合	-12.1152
以明物不來	-12.1153
造此中論	-12.1153
聆流動者	-12.1153
煞	-12.1153
聖智尚存	-12.1153
若因中先有果生	-12.1154
効	-12.1154
大分深義所謂空也	-12.1154
故是定慧之體	-12.1154
秉	-12.1154
則謂昔物不至今	-12.1155
而有而無為假	-12.1155
不從昔以至今	-12.1155
閑人之常想	-12.1155
荖	-12.1155
求果不可得	-12.1155
前總後別	-12.1155
價	-12.1155
欲求聖心之異	-12.1155
床	-12.1156
代謝隔別	-12.1156
寐	-12.1156
戰	-12.1156
成山假就於始簣	-12.1156
飜	-12.1156
廿	-12.1157
為當咸覩其變	-12.1157
已有還無	-12.1158
可燃無燃	-12.1158
同無不極	-12.1158
乘乘各異	-12.1158
古不至今	-12.1158
徙	-12.1158
至第二步	-12.1158
聖遠乎哉	-12.1158
咽	-12.1158
虧	-12.1158
身及諸根	-12.1158
那羅延	-12.1158
地得一以寧	-12.1159
恙	-12.1159
俗有真無	-12.1159
夭	-12.1159
鳥鳥各異	-12.1159
忘知遺會	-12.1159
知無者誰	-12.1159
智有窮幽之鑒而無知焉	-12.1159
不可以事相求之耳	-12.1159
一不有有屬	-12.1159
吾聞其語	-12.116
天地與我同根	-12.116
萬物與我一體	-12.116
而語聖心者乎	-12.116
而遠與無名同	-12.116
釋迦掩室於摩竭	-12.116
鐘	-12.116
下句反此	-12.116
物莫能二	-12.116
心亦不有亦不無	-12.1161
俟	-12.1161
胡吉藏撰	-12.1161
邃	-12.1161
臧否	-12.1161
稱謂淪於外	-12.1161
儔	-12.1161
邪見斷見之無	-12.1161
習應品	-12.1162
恰	-12.1162
齒	-12.1162
談真有不遷之稱	-12.1163
开	-12.1163
虗伯獨感	-12.1163
淨瑕穢	-12.1163
北天之運	-12.1164
猒	-12.1164
盆	-12.1164
不離諸法而得涅槃	-12.1165
開一為三	-12.1165
等定慧地	-12.1165
為諸法立處	-12.1165
雖異而合	-12.1165
恥	-12.1166
鵽	-12.1166
優婆掘多	-12.1166
從真諦複中出	-12.1166
損不可虧	-12.1166
益不可盈	-12.1166
闢	-12.1166
苑	-12.1166
伎	-12.1167
壍	-12.1167
金剛般若經	-12.1167
妖	-12.1167
汝是破人	-12.1167
各住自位	-12.1167
從真諦單假入	-12.1167
雖合而異	-12.1167
啞	-12.1169
更無第五緣	-12.1169
應病授藥	-12.117
汝等所行是菩薩道	-12.1171
八相成道	-12.1171
何不用耳見	-12.1171
宣之於口	-12.1173
脛	-12.1173
紛綸	-12.1173
逗	-12.1174
兩雙四句	-12.1174
乾坤	-12.1174
柯	-12.1174
剛	-12.1174
鶴	-12.1174
屬虗子	-12.1175
阜	-12.1175
戾	-12.1176
齊物篇	-12.1176
極象外之談	-12.1176
言之者失其真	-12.1177
域中有四大	-12.1177
譽	-12.1177
離心緣相	-12.1179
潢	-12.118
道與神會	-12.118
曳	-12.118
麼	-12.118
膚	-12.1181
乃累劫之津梁矣	-12.1181
雖妙非無	-12.1181
恍惚	-12.1181
垂文作則	-12.1184
萇	-12.1187
釋二章門	-12.1188
因應而作	-12.1189
脉	-12.1193
昆	-12.1195
未易言也	-12.1691
【	-12.2499
苦無常無我不淨	-12.2501
鼇	-12.2544
悟發之器	-12.2549
天龍咸敬	-12.2549
廬	-12.2552
緩	-12.2555
耄	-12.2555
寔	-12.2556
無起亦無滅	-12.2556
撮	-12.2558
我之所謂靜者	-12.256
立言之本意	-12.256
俗以真為義	-12.2562
馭	-12.2562
通鑒不為有	-12.2563
不共不無因	-12.2564
非苦非樂	-12.2564
無方便慧縛	-12.2565
象馬兔	-12.2565
涎	-12.2565
劫得到	-12.2565
立巳成過	-12.2565
即偽即真	-12.2566
摸	-12.2567
尋夫不動之作	-12.2567
羂	-12.2567
憩	-12.2567
鷄	-12.2567
因法假名時	-12.2567
不矜不恃	-12.2567
無色無見無對	-12.2567
眾緣所生法	-12.2568
項	-12.2568
禍	-12.2568
如瓶盆等	-12.2568
琳	-12.2568
瓔	-12.2568
罄	-12.2568
混而不渝	-12.2568
觀發於中	-12.2569
奚	-12.2569
峻	-12.2569
梏	-12.2569
業與果合	-12.257
眾論競作	-12.257
那由他	-12.2571
離有離無	-12.2571
匪	-12.2572
求果無蹤	-12.2572
內自免過	-12.2572
可得聞乎	-12.2572
慧行無分別	-12.2572
目擊道存	-12.2572
鬪	-12.2572
獨靜於名教之外	-12.2573
道源是同	-12.2573
支法詳	-12.2573
蠅	-12.2574
優婆塞	-12.2574
往物既不來	-12.2574
既以取捨為心	-12.2574
稟二諦教發生二智	-12.2574
學二諦成一	-12.2574
自照照他	-12.2574
復何滯哉	-12.2574
苟得其道	-12.2574
是法不可示	-12.2574
非生非不生	-12.2574
灌	-12.2575
乳中有酪	-12.2575
勘	-12.2575
啼	-12.2575
有者有於無	-12.2575
先牒計總	-12.2575
楷	-12.2575
醎	-12.2575
見緣起為見法	-12.2576
極於相內	-12.2576
智為雜毒	-12.2576
燒煮等	-12.2576
豈曰去而可遣	-12.2576
彊	-12.2576
莊生之所以藏山	-12.2576
百齡一質	-12.2576
俱出火宅	-12.2576
不徐而徐	-12.2576
學佛教人	-12.2577
類相關	-12.2577
古而無今	-12.2577
亭毒蒼生	-12.2577
見多者著	-12.2577
數有承問	-12.2578
不累於有	-12.2578
顛	-12.2578
辱	-12.2578
嬰	-12.2578
是以梵志出家	-12.2578
討	-12.2578
假無假不無	-12.2578
昔人尚存乎	-12.2578
則名相異陳	-12.2578
不可以識識	-12.2579
即萬物之自虛	-12.2579
恭	-12.2579
去時中無發	-12.2579
莫知所之	-12.2579
勝趣非一	-12.2579
由智故境	-12.2579
不覺形隨	-12.258
愆	-12.258
蔡	-12.258
法身初建	-12.258
窮其原	-12.258
弗若多羅	-12.258
離繫外道	-12.258
真偽之途	-12.258
亥	-12.2581
脣	-12.2581
頭中有足	-12.2581
時方物類	-12.2581
金翅鳥	-12.2581
馬喻馬之非馬	-12.2582
不染塵累	-12.2582
憰	-12.2582
爽	-12.2582
羣數之應	-12.2582
若法因待成	-12.2582
今物在今	-12.2582
大患莫若於有身	-12.2582
非迹無以	-12.2582
旋嵐偃嶽而常靜	-12.2582
高而無上	-12.2582
菟	-12.2582
於外無數於內無心	-12.2582
論宣於口	-12.2582
四弘誓願	-12.2583
罕	-12.2583
為當唯照無相耶	-12.2583
一去來以成體	-12.2583
彼岸豈異	-12.2583
空無相無願	-12.2583
雖速而不轉	-12.2583
一念相應慧	-12.2583
果出有無之域	-12.2583
順俗則違真	-12.2583
稱住不必住	-12.2583
即萬物之自虗	-12.2584
霞	-12.2584
冰	-12.2584
故能不取而知	-12.2584
果以功業不可朽故	-12.2584
總六合以鏡心	-12.2584
聞大乘法說畢竟空	-12.2584
辟	-12.2584
譬彼真無	-12.2584
坌	-12.2584
修途託至於初步	-12.2585
能領受	-12.2585
不從今以至昔	-12.2585
得意毫微	-12.2585
因無為而有差別	-12.2585
固以幾乎息矣	-12.2585
而欲遷之者	-12.2585
卅	-12.2585
刺	-12.2585
處計常之中	-12.2586
宙	-12.2586
就法說門	-12.2586
忠	-12.2586
無形不形	-12.2586
炭	-12.2586
我適無為	-12.2586
唯此一事實	-12.2586
茨	-12.2587
鮮	-12.2587
堓	-12.2587
非色不異色	-12.2587
當有深證	-12.2587
鑛	-12.2587
寶積曰	-12.2587
太玄之鄉	-12.2588
極於五陰之內	-12.2588
字林云	-12.2588
眴	-12.2589
技	-12.2589
故不得以得之	-12.2589
通百劫而彌固	-12.2589
閇	-12.2589
𨷂	-12.2589
敏	-12.259
誠真一之無差	-12.259
院	-12.259
亭	-12.259
若稱生同外	-12.2591
第十六心	-12.2591
般舟三昧	-12.2591
智有窮幽之鑒	-12.2591
嘵	-12.2592
扁	-12.2593
導俗有流動之說	-12.2593
而行業湛然	-12.2593
仰攀玄根	-12.2594
萃	-12.2594
如牛二角	-12.2594
荒	-12.2594
羯	-12.2595
卵	-12.2595
菩薩得無生智	-12.2596
吏	-12.2596
俯提弱喪	-12.2597
復次鞞婆沙	-12.2597
假伏中斷	-12.2597
邑	-12.2597
阿賴耶識	-12.2597
苟能契神於即物	-12.2597
瑕	-12.2598
知病識藥	-12.2598
十方佛土中	-12.2598
無謂不靜	-12.2598
佛初成道	-12.2598
漆	-12.2599
丹	-12.2599
剌	-12.2599
極數故數以應之	-12.2599
化母所育	-12.2599
拜	-12.26
姑蘇堯峯蘭若沙門遵式	-12.2601
帛	-12.2601
逍	-12.2602
洪流滔天	-12.2603
甚奇世尊	-12.2603
膠	-12.2603
鸚	-12.2603
排方外之談	-12.2604
庖	-12.2604
駒	-12.2604
縮	-12.2605
景	-12.2605
悶	-12.2605
爐	-12.2606
懺	-12.2606
索之而不得	-12.2606
諫	-12.2606
不面在昔	-12.2607
派	-12.2608
邦	-12.2609
尠	-12.2609
介	-12.2609
念屬神	-12.2611
以覺從神	-12.2612
拓	-12.2613
頴	-12.2614
熙	-12.2614
遜	-12.2615
寓	-12.2615
趙	-12.2616
再供養火	-12.2619
地上忍	-12.2623
不可以形名得	-12.2625
恠	-12.2626
𢄶	-12.263
重出論義	-12.2635
羅漢最後心	-12.2635
滅後有無等	-12.3072
蹤	-12.3741
瓫	-12.4189
捨於身命	-12.4194
讌	-12.4199
蠱	-12.4205
『	-12.4206
殉	-12.4211
愽	-12.4214
真以俗為義	-12.422
無復別有一盡處	-12.4221
墮在失處	-12.4221
菓	-12.4221
有便不便	-12.4222
破他法故自法成	-12.4223
因去了去者	-12.4223
舉足下足	-12.4224
答通而為論	-12.4224
為凡說我無我	-12.4225
貪恚癡	-12.4225
靈鑒幽燭	-12.4226
淵默以之而遼	-12.4226
諸有二者無道無果	-12.4226
患難以之而起	-12.4227
玄關之唱	-12.4227
存而不可論者	-12.4227
恢恢焉	-12.4228
衿	-12.4228
乾乾宵夕	-12.4229
有無一異生滅去來	-12.4229
而以南北為喻	-12.4229
邏	-12.4229
在茲而顯	-12.4229
匡	-12.423
瑩	-12.423
會萬物以成	-12.4231
觀身實相觀佛亦然	-12.4232
所造未嘗異	-12.4232
因來何少	-12.4232
怕爾而來	-12.4232
十白業道	-12.4232
阿鞞䟦致	-12.4232
憚	-12.4233
真諦無兔馬之遺	-12.4233
離色有色因	-12.4233
故照緣而非	-12.4234
內無機照之勤	-12.4234
楊	-12.4234
監	-12.4234
斯皆即動而求靜	-12.4234
聞無作無解	-12.4234
此非我異無為	-12.4235
即色遊玄論	-12.4235
外息大患之本	-12.4235
豈唯無知名無知	-12.4235
王舍城	-12.4236
聞有作有解	-12.4236
釋前偈下半	-12.4236
非善非惡	-12.4236
阿修羅	-12.4236
不可於色中求	-12.4236
誥	-12.4236
但見於空不見不空	-12.4237
定知諸法有體	-12.4237
恐是當之生	-12.4237
斯則物我不異之	-12.4237
有諦無諦中道第一義諦	-12.4237
聞世諦謂是第一義諦	-12.4237
欲以通其鑒	-12.4237
無慧方便縛	-12.4237
顯於茲矣	-12.4237
蚊	-12.4238
臘	-12.4238
寂焉無聞	-12.4238
瀉	-12.4238
禽	-12.4238
迮	-12.4238
靜而非動以其不去	-12.4238
靜而弗留矣	-12.4239
不可以知名哉	-12.4239
金剛佛舍利	-12.4239
有慧方便解	-12.4239
亦能亦所諦	-12.4239
失在於物虛	-12.4239
形以智勞	-12.4239
神雖世表	-12.4239
a	-12.4239
死已而滅	-12.4239
隨順眾生說有二諦	-12.424
其猶高下相傾	-12.424
措	-12.424
7	-12.424
菩薩住二諦中	-12.424
諸賢聖真知性空	-12.424
宜先定聖心所以應會之道	-12.424
茅	-12.424
豈釋動以求靜	-12.424
仕	-12.424
余則謂之不然	-12.424
夫真由離起	-12.424
雖象而非象	-12.424
因去知去者	-12.424
夫生死交謝	-12.4241
如幻如焰	-12.4241
孰與止之	-12.4241
乘五衍之安車	-12.4241
烈	-12.4241
如毛孔	-12.4241
融冶二儀	-12.4241
智雖事外	-12.4241
確	-12.4241
豈尋化以階道	-12.4241
皷	-12.4242
義承有本	-12.4242
阻	-12.4242
六家七宗	-12.4242
及內殿故敬奉	-12.4242
謂不從今至古	-12.4242
徒知年往	-12.4242
豈待宰割以求通哉	-12.4242
藏舟於壑	-12.4243
林下之雅詠	-12.4243
本末精悉	-12.4243
隨他意語	-12.4243
其道既存	-12.4243
是以物不即名而就實	-12.4243
愁	-12.4244
亦假亦中	-12.4244
名不即物而履真	-12.4244
婬怒癡	-12.4244
往物不化	-12.4244
蟬	-12.4244
鞭	-12.4244
超語兼默	-12.4244
既知往物而不來	-12.4244
覆尋聖言	-12.4244
何莫由之哉	-12.4244
趾	-12.4244
窟	-12.4244
其唯聖人乎	-12.4244
導而弗先	-12.4244
佛說何等善法	-12.4244
所物而可物	-12.4244
所造未甞異	-12.4244
三百年中從	-12.4244
以中為名者	-12.4244
幟	-12.4244
是品義意	-12.4244
攀	-12.4245
每一言集	-12.4245
諸說中第一	-12.4245
雖真而非有	-12.4245
賢聖之道存	-12.4245
非體非非體	-12.4245
▁87	-12.4245
誚	-12.4245
像法決疑經	-12.4245
頰	-12.4245
業報猶魂	-12.4245
模	-12.4245
葦	-12.4245
踈	-12.4245
迴向三有	-12.4245
違真故迷性而莫返	-12.4246
雖物而非物	-12.4246
▁182	-12.4246
言無相寂滅之道	-12.4246
真諦可亡而知	-12.4246
之所由生也	-12.4246
汪哉洋哉	-12.4246
其斯之謂歟	-12.4247
邊云何有後世	-12.4247
故不知以知之	-12.4247
欲令眾生深識第一義諦	-12.4247
而演非常之教	-12.4247
今若至古	-12.4247
方等之淵府	-12.4247
鍱	-12.4247
蹹	-12.4247
隣人見之曰	-12.4247
𩑶	-12.4247
我則言其住	-12.4247
滅惡生善	-12.4247
諒	-12.4247
亦可如來言耳	-12.4247
諸佛以此為性	-12.4247
今物何所往	-12.4248
正破內傍破外	-12.4248
多即言以定旨	-12.4248
河西道朗	-12.4248
祭	-12.4248
駛	-12.4248
有佛無佛性相常住	-12.4248
須菩提白佛言	-12.4248
世間眼見萬物不	-12.4248
伺	-12.4248
鋒	-12.4248
夫談真則逆俗	-12.4249
閑居學肆	-12.4249
形不可以象	-12.4249
果有無相之知	-12.4249
晨	-12.4249
諸法從本來常自寂滅	-12.4249
不能用是去	-12.4249
釋人之所謂往	-12.4249
村	-12.425
捉破為立	-12.425
要損之又損之	-12.425
諮參無所	-12.425
逾動逾寂	-12.425
終日域中	-12.425
故非生滅非無生滅	-12.425
神冥累之方	-12.425
於高論之旨	-12.425
稱去不必去	-12.425
粹	-12.4251
內有獨鑒之明	-12.4251
從俗諦單中出	-12.4251
滑	-12.4251
於何而不在	-12.4251
會歸同致矣	-12.4251
浸	-12.4251
無聽而聽者	-12.4252
雖眾經殊致	-12.4252
雞	-12.4252
故萬德斯弘	-12.4252
愛佛地功德	-12.4252
二理未始殊	-12.4252
回也見新	-12.4252
隙	-12.4252
越諸根境	-12.4252
漂	-12.4252
夫止此而此	-12.4252
改凡成聖	-12.4252
適彼而彼	-12.4252
應接無方	-12.4253
於然燈佛所	-12.4253
給	-12.4253
埃	-12.4253
糅	-12.4253
所以有此破來者	-12.4253
磐	-12.4253
墻	-12.4254
吐不一之殊教	-12.4254
應必有由矣	-12.4254
內以流滯	-12.4254
尋此有無之言	-12.4254
不近人情	-12.4254
窮本極末	-12.4254
瘡	-12.4254
我則言其去	-12.4254
有稱非同	-12.4254
犬	-12.4255
壹	-12.4255
無教不申	-12.4255
是諸聖智不相違背	-12.4255
觀空而不證	-12.4255
執諸法有決定	-12.4255
第一大道無有兩正	-12.4255
異無相之照乎	-12.4255
不自有其知	-12.4255
離成無壞	-12.4256
動而逾寂	-12.4256
以少從多	-12.4256
湯	-12.4256
低頭舉手	-12.4256
然則去住雖殊	-12.4256
菩薩瓔珞本業經	-12.4256
䟦	-12.4256
聖人無私於知會	-12.4256
鳴	-12.4257
逝者如斯	-12.4257
嗤	-12.4257
待果起方滅	-12.4257
暖	-12.4257
陂	-12.4257
不非色於非色	-12.4257
離去者有去	-12.4257
釋源大白馬寺宗主贈邽國公海印開法	-12.4258
今演論之作	-12.4258
祿	-12.4258
經喻螢日	-12.4258
昂	-12.4258
竪窮四句	-12.4258
阿順那	-12.4258
歲次星紀	-12.4258
無縛無脫	-12.4258
大師長講沙門文才述	-12.4259
羞	-12.4259
雹	-12.4259
燎	-12.4259
眾聖於是乎冥會	-12.4259
復何怪哉	-12.4259
理屈辭窮	-12.4259
若存若亡	-12.426
聆	-12.426
來問婉切	-12.426
鵂	-12.426
然異端之論	-12.426
待緣而後有	-12.426
理外感理外	-12.426
聃	-12.426
綸	-12.426
享	-12.426
獨王於世表	-12.426
巨細相容	-12.426
脫珍御服	-12.426
躬	-12.426
祐	-12.4261
推過還外	-12.4261
發心畢竟二不別	-12.4261
稠	-12.4261
頓盡於五陰之內	-12.4262
秦乘入國之謀	-12.4262
旻	-12.4262
誠以不異於異	-12.4262
理外感理內	-12.4263
仞	-12.4263
於無異法中而說諸法異	-12.4263
繞	-12.4264
復何惑於去留	-12.4264
覩變之知異無相	-12.4264
服像雖殊	-12.4264
若欲止於心	-12.4265
霑	-12.4265
殺生祀天	-12.4265
紹	-12.4265
諭	-12.4265
極耳目於視聽	-12.4265
士受道以	-12.4266
恣	-12.4266
說一乘法事	-12.4266
然則眾生非眾生	-12.4266
翹	-12.4267
矛	-12.4267
惘	-12.4267
捺	-12.4267
法華實相之旨	-12.4267
如十地義中說	-12.4268
九折十演者	-12.4268
沖而不改	-12.4268
威被蒼生	-12.4268
同出而異名	-12.4268
猪	-12.4269
獨建於三有之外	-12.4269
台	-12.4269
弓	-12.4269
非行非不行	-12.4269
以因緣故諸法生	-12.4269
摘	-12.4269
讖	-12.427
說法不有亦不無	-12.427
如烟微鄣	-12.427
柴	-12.427
佇想用勞	-12.4271
剪	-12.4271
有物之宗極者	-12.4272
即而究之	-12.4273
埴	-12.4273
非數緣滅	-12.4273
歸乎無極	-12.4274
尉	-12.4274
北山錄	-12.4274
力負無以化其體	-12.4275
盾	-12.4276
裏	-12.4276
論有九折十演	-12.4277
𢭀	-12.4277
堊	-12.4277
個	-12.4278
飽	-12.4278
在天而天	-12.4279
圖以弘顯幽旨	-12.4279
誰見誰曉	-12.4279
人與杖合	-12.428
聦	-12.4282
窮所不能滯	-12.4282
繹	-12.4284
遊刃萬機	-12.4285
六趣不能攝其生	-12.429
徤	-12.4291
萬有參分	-12.4291
鍮	-12.4291
聊以擬	-12.4303
所以靜躁之極	-12.4987
靜躁之極未易言	-12.5431
蟻	-12.6189
直結盡而	-12.6202
碎	-12.6205
此直好無之談	-12.6207
或總或別	-12.6208
五眼所不見	-12.6208
毘婆舍那	-12.6209
駭	-12.6215
鼈	-12.6215
亦諦亦非諦	-12.6217
臧	-12.6218
耕	-12.6218
繪	-12.6219
未發無去時	-12.6219
吟	-12.6219
能拔物苦	-12.6219
借妄止妄	-12.622
零	-12.6222
憤愧何深	-12.6222
於勝義上更	-12.6222
實能表道	-12.6223
終日言而未嘗言	-12.6223
從深至淺	-12.6224
言用即同而異	-12.6224
㲉	-12.6224
窮源第十六	-12.6224
因因而有故名因因	-12.6225
革	-12.6225
今有合瓶故	-12.6225
非非二非非不二	-12.6225
未領色之非色	-12.6226
涅槃與無煩惱不異	-12.6226
誠以即物順通	-12.6226
所以為患耳	-12.6226
馮	-12.6226
擯	-12.6226
生生奔競	-12.6226
其唯聖智乎	-12.6226
楯	-12.6226
自非道用潛流	-12.6226
通古第十七	-12.6226
管	-12.6227
雖未清承	-12.6227
豈謂滌除萬物	-12.6227
何必非有無此有	-12.6227
銳	-12.6227
如旋火輪	-12.6227
感寄之誠	-12.6227
推涉聖文	-12.6227
厭苦求樂	-12.6227
遠法師頃恒履宜	-12.6228
以為欣慰	-12.6229
諸賢聖真知諸法空	-12.6229
繕	-12.6229
想開究之功	-12.6229
蔓	-12.6229
采	-12.6229
全如意珠	-12.6229
溪	-12.6229
驢	-12.6229
脇	-12.623
是以聖人空洞其懷	-12.6231
牘	-12.6231
斯則無知之所知	-12.6231
如刀傷心	-12.6231
般若無不窮之鑒	-12.6231
卜	-12.6232
2	-12.6232
率稱其美	-12.6232
辭致清婉	-12.6232
鍛	-12.6232
沫	-12.6232
即物之情哉	-12.6232
斷集證滅修道	-12.6232
神道之妙稱	-12.6233
斂	-12.6233
百非所不非	-12.6233
祗	-12.6233
而止無為之境	-12.6233
雖靜而不離動	-12.6233
無上正等菩提	-12.6233
言殊致一	-12.6233
所知自常淨	-12.6233
什法師以午年	-12.6234
其猶燈盡火滅	-12.6234
薩迦耶見	-12.6234
若謂以現見而有	-12.6234
百是所不是	-12.6234
故名教絕焉	-12.6234
壞因來壞	-12.6234
譏動第十四	-12.6235
佐	-12.6235
堅濕暖動	-12.6235
故聖智存焉	-12.6235
於菩薩之行道場之照	-12.6235
未更近問	-12.6235
所以會而不差	-12.6235
所以聖迹萬端	-12.6235
惶	-12.6235
道俗通佳	-12.6236
怕爾無兆	-12.6236
扸	-12.6236
控	-12.6236
尋大方而徵隅	-12.6236
不厭有而觀空	-12.6236
誠以無是可是	-12.6236
君得與相見	-12.6236
從業更生業	-12.6236
涅槃之始為生死之終	-12.6236
若使無有有云何當有無	-12.6236
夫以不同而適同	-12.6236
是以三乘觀法無異	-12.6236
夫物無以自通	-12.6236
非遷非不遷	-12.6237
羲	-12.6237
列子湯問篇	-12.6237
名也極於題目	-12.6237
詰漸第十二	-12.6237
焉可以名於無名	-12.6237
阿毗曇人言	-12.6237
怯	-12.6237
餘迹不泯	-12.6237
朗然懸解	-12.6237
澁	-12.6237
尋夫立文之本旨者	-12.6238
糠	-12.6238
殃	-12.6238
擅	-12.6238
荊	-12.6238
無異杜耳目於胎	-12.6238
俱濟緣起之津	-12.6238
狩	-12.6238
鉾	-12.6238
夫智之生也	-12.6238
悟懷絕冥之肆	-12.6238
然則法相為無相之相	-12.6238
儁	-12.6239
腸	-12.6239
濤	-12.624
輿	-12.6242
忌	-12.6242
賖	-12.6243
糧	-12.6243
罵	-12.6243
虵	-12.6244
捕	-12.6245
鼠	-12.6245
丙	-12.6245
釧	-12.6246
幅	-12.6246
遼	-12.6247
􂒀	-12.6247
哭	-12.6248
編	-12.6248
奈	-12.6248
某	-12.6249
嵐	-12.625
稀	-12.625
4	-12.625
巍	-12.6251
濯	-12.6251
抄	-12.6251
囉	-12.6251
翔	-12.6251
鍾	-12.6251
忙	-12.6251
架	-12.6252
婁	-12.6252
毉	-12.6253
矚	-12.6253
湻	-12.6254
燥	-12.6254
產	-12.6254
覔	-12.6254
妹	-12.6255
惓	-12.6256
慣	-12.6257
庇	-12.6257
綽	-12.6258
壇	-12.6258
央	-12.6259
鋌	-12.6259
獻	-12.626
榜	-12.626
鵞	-12.6261
漬	-12.6262
酌	-12.6262
卓	-12.6262
霧	-12.6263
憐	-12.6263
涌	-12.6263
乙	-12.6263
冤	-12.6263
猷	-12.6264
淹	-12.6265
摭	-12.6265
遵	-12.6265
鑄	-12.6265
諂	-12.6266
鴿	-12.6266
勳	-12.6268
旱	-12.6268
砂	-12.6268
臆	-12.6269
齋	-12.6271
雄	-12.6272
訪	-12.6272
腐	-12.6272
陷	-12.6272
悼	-12.6273
謁	-12.6273
錦	-12.6275
黜	-12.6276
阮	-12.6277
癘	-12.6277
課	-12.6278
裕	-12.6279
弄	-12.628
替	-12.628
䬸	-12.6281
洛	-12.6281
闚	-12.6283
裔	-12.6285
族	-12.6287
奴	-12.6289
鳳	-12.6295
飡	-12.6296
暄	-12.6296
廷	-12.6316
閒	-12.7002
菩	-12.8388
􂲙	-12.8675
繭	-12.8681
雉	-12.8686
鳩	-12.8714
憤	-12.8714
荅	-12.8716
鵠	-12.8721
儻	-12.8721
睺	-12.8723
狎	-12.8723
筏	-12.8723
輝	-12.8724
揭	-12.8725
濃	-12.8725
帙	-12.8726
鑽	-12.8728
胝	-12.8729
䇿	-12.8729
祝	-12.8731
脈	-12.8731
職	-12.8731
㻔	-12.8732
廕	-12.8734
潮	-12.8734
峰	-12.8734
拍	-12.8734
蒭	-12.8734
嚬	-12.8735
縠	-12.8736
湏	-12.8736
煎	-12.8736
齎	-12.8737
鬘	-12.8738
炙	-12.8739
函	-12.8739
t	-12.8739
u	-12.8739
滄	-12.8739
脾	-12.8739
拾	-12.8741
臻	-12.8741
殖	-12.8741
矦	-12.8741
椎	-12.8741
驟	-12.8741
暉	-12.8742
謨	-12.8742
播	-12.8742
汲	-12.8742
弼	-12.8743
鵄	-12.8743
綜	-12.8743
遘	-12.8745
殻	-12.8745
寘	-12.8745
裹	-12.8745
双	-12.8745
厄	-12.8745
壺	-12.8746
娥	-12.8746
漁	-12.8746
效	-12.8746
匱	-12.8746
廉	-12.8746
鎌	-12.8746
漿	-12.8747
沾	-12.8747
拄	-12.8748
衲	-12.8749
輻	-12.875
愜	-12.875
隘	-12.875
駢	-12.875
姑	-12.8751
暮	-12.8751
舛	-12.8751
育	-12.8751
鬧	-12.8752
曼	-12.8752
佯	-12.8752
揩	-12.8752
奘	-12.8752
憒	-12.8753
賈	-12.8753
郢	-12.8753
坤	-12.8754
繡	-12.8754
紋	-12.8754
阬	-12.8754
餐	-12.8754
錐	-12.8755
曷	-12.8756
歒	-12.8757
艸	-12.8757
征	-12.8757
痢	-12.8757
庫	-12.8759
態	-12.8759
駿	-12.8759
牖	-12.8759
庂	-12.8759
斲	-12.8759
杭	-12.8759
弋	-12.8759
杯	-12.876
卿	-12.876
邇	-12.876
疵	-12.8761
巴	-12.8761
亘	-12.8761
粒	-12.8761
懇	-12.8761
𦘕	-12.8761
克	-12.8763
怛	-12.8763
沸	-12.8763
雁	-12.8763
溝	-12.8765
忒	-12.8766
甜	-12.8766
劒	-12.8766
牝	-12.8766
埵	-12.8767
濡	-12.8767
穹	-12.8767
掘	-12.8768
拱	-12.877
滔	-12.877
廼	-12.877
窻	-12.8772
㦎	-12.8772
僅	-12.8773
証	-12.8774
廟	-12.8774
暴	-12.8775
琴	-12.8775
吸	-12.8775
菜	-12.8777
孽	-12.8777
喧	-12.8778
筭	-12.8778
决	-12.8778
獵	-12.8778
訊	-12.8778
寅	-12.8779
沃	-12.8779
刪	-12.8779
瞬	-12.8779
傚	-12.8781
騎	-12.8781
䆳	-12.8781
庵	-12.8784
璿	-12.8785
犁	-12.8785
徂	-12.8786
件	-12.8788
僭	-12.8788
賣	-12.8789
繇	-12.8792
級	-12.8792
墓	-12.8793
趁	-12.8793
雍	-12.8796
眺	-12.8796
躇	-12.8799
庚	-12.8799
嵆	-12.88
禦	-12.8803
梯	-12.8804
熹	-12.8818
宍	-12.8829
陣	-13.1995
溟	-13.2022
橙	-13.2022
甍	-13.2025
盞	-13.2032
+	-13.2036
舶	-13.2042
粮	-13.2042
荃	-13.2044
辤	-13.2044
森	-13.2046
畎	-13.2047
哂	-13.2047
踵	-13.2048
昉	-13.2053
瑟	-13.2053
顇	-13.2055
􂳍	-13.2055
郎	-13.2057
膽	-13.2057
醪	-13.2059
拇	-13.2059
𥦡	-13.2059
帷	-13.2059
豆	-13.2059
裨	-13.2059
劍	-13.2059
寤	-13.206
輟	-13.2061
儜	-13.2061
叶	-13.2061
姊	-13.2061
旃	-13.2062
塼	-13.2063
尓	-13.2063
緫	-13.2064
莾	-13.2065
霆	-13.2065
酷	-13.2065
俞	-13.2067
紘	-13.2067
嗢	-13.2067
聯	-13.2067
板	-13.2068
㲲	-13.2069
薤	-13.2069
譎	-13.2069
償	-13.2069
溉	-13.2069
3	-13.207
9	-13.207
蓬	-13.207
梗	-13.2071
齡	-13.2071
𠄎	-13.2071
澍	-13.2071
窂	-13.2071
貯	-13.2071
蠹	-13.2071
駝	-13.2071
勑	-13.2073
痴	-13.2073
n	-13.2073
狸	-13.2073
療	-13.2073
閏	-13.2074
吼	-13.2074
裴	-13.2074
㧈	-13.2074
綠	-13.2074
剝	-13.2074
買	-13.2074
旹	-13.2074
料	-13.2075
遏	-13.2076
饗	-13.2076
謳	-13.2076
攢	-13.2076
棒	-13.2076
櫪	-13.2076
莿	-13.2076
拈	-13.2078
篾	-13.2078
憕	-13.2078
閡	-13.2078
寵	-13.2079
酉	-13.2079
喟	-13.2079
怡	-13.208
萍	-13.208
迕	-13.208
基	-13.208
稚	-13.208
薰	-13.208
雌	-13.208
鶉	-13.208
孩	-13.2082
忉	-13.2082
蠢	-13.2082
頸	-13.2082
迯	-13.2082
擁	-13.2083
汁	-13.2084
詫	-13.2084
凌	-13.2084
宵	-13.2084
綺	-13.2084
肝	-13.2084
𠲖	-13.2084
昊	-13.2086
崙	-13.2086
殞	-13.2086
貝	-13.2086
献	-13.2086
膜	-13.2087
札	-13.2088
刑	-13.2088
縫	-13.2088
帀	-13.2088
牟	-13.2088
頒	-13.2088
隷	-13.209
閴	-13.209
膝	-13.209
斐	-13.209
芒	-13.209
懿	-13.209
頺	-13.209
錢	-13.209
糓	-13.2091
俄	-13.2092
喫	-13.2092
枷	-13.2092
𥪰	-13.2092
矌	-13.2092
錘	-13.2092
航	-13.2092
鎧	-13.2092
靳	-13.2092
嚼	-13.2092
絞	-13.2092
埋	-13.2093
貢	-13.2094
惺	-13.2094
墳	-13.2094
佞	-13.2094
怒	-13.2094
􂐀	-13.2094
彫	-13.2095
瀝	-13.2096
蹶	-13.2096
餝	-13.2096
晈	-13.2098
跨	-13.2098
濶	-13.2098
窪	-13.2098
材	-13.2098
𦒱	-13.2098
較	-13.2098
伇	-13.2099
崑	-13.2099
戎	-13.21
㝹	-13.21
妍	-13.21
憲	-13.21
鑪	-13.21
癸	-13.21
兀	-13.2101
唇	-13.2101
鵲	-13.2101
潦	-13.2101
漉	-13.2101
綖	-13.2101
咀	-13.2102
磬	-13.2103
燕	-13.2103
脊	-13.2103
慙	-13.2103
填	-13.2103
荀	-13.2103
沮	-13.2105
槩	-13.2105
娛	-13.2105
腠	-13.2107
閃	-13.2107
鼎	-13.2107
蔑	-13.2107
洒	-13.2107
疣	-13.2107
楗	-13.2109
渠	-13.2109
藝	-13.2109
嗜	-13.2111
犧	-13.2111
瘦	-13.2111
鍵	-13.2113
􂮪	-13.2113
歙	-13.2113
暎	-13.2113
激	-13.2113
靖	-13.2115
鴻	-13.2117
僣	-13.2117
㵎	-13.2117
媚	-13.2119
歇	-13.2119
挾	-13.2121
愓	-13.2123
昌	-13.2128
瓮	-13.2128
唾	-13.2128
馱	-13.213
覿	-13.2134
虐	-13.2138
筠	-13.2142
衒	-13.2142
韓	-13.2146
羗	-13.2163
妓	-13.2171
璞	-13.6973
莽	-13.6991
稔	-13.6997
荏	-13.7009
荼	-13.7013
苓	-13.7019
箘	-13.7022
蚌	-13.7022
廩	-13.7028
屏	-13.7028
尖	-13.7032
䓗	-13.7035
爵	-13.7035
洎	-13.7035
螻	-13.7035
萊	-13.7038
曩	-13.7038
簫	-13.7038
擴	-13.7041
傖	-13.7044
柵	-13.7044
歿	-13.7044
翊	-13.7047
簧	-13.7047
㭊	-13.7047
碧	-13.705
屎	-13.705
僮	-13.7053
旅	-13.7054
縈	-13.7054
劃	-13.7054
歆	-13.7057
恂	-13.7057
啄	-13.7057
囂	-13.7057
几	-13.7057
杼	-13.7057
繆	-13.7057
膾	-13.7058
剏	-13.706
惕	-13.706
絃	-13.706
叫	-13.706
渭	-13.706
楪	-13.706
榍	-13.706
矧	-13.706
搦	-13.7062
犇	-13.7063
煉	-13.7063
搏	-13.7063
廻	-13.7063
沐	-13.7063
癩	-13.7063
怱	-13.7065
囚	-13.7066
仄	-13.7066
潭	-13.7066
濵	-13.7066
牀	-13.7066
蘿	-13.7066
涕	-13.7069
癰	-13.7069
抵	-13.7069
撲	-13.7069
籟	-13.7069
蘄	-13.7069
芥	-13.7072
S	-13.7072
Ś	-13.7072
㦗	-13.7072
捶	-13.7072
h	-13.7073
k	-13.7073
y	-13.7073
Ā	-13.7073
䨥	-13.7073
厈	-13.7073
慌	-13.7073
炊	-13.7076
杲	-13.7076
聳	-13.7076
佩	-13.7076
妃	-13.7076
帥	-13.7076
猫	-13.7076
筒	-13.7076
蚤	-13.7077
絡	-13.7078
㔁	-13.7079
株	-13.7079
樸	-13.7079
殄	-13.7079
夸	-13.7079
悴	-13.7079
抖	-13.7079
楹	-13.7079
滴	-13.7079
筞	-13.7079
傅	-13.7082
弃	-13.7082
疹	-13.7082
䥫	-13.7082
戌	-13.7082
敦	-13.7082
眯	-13.7082
睫	-13.7082
莛	-13.7082
紅	-13.7085
蘆	-13.7085
凍	-13.7085
卯	-13.7085
吇	-13.7085
坥	-13.7085
姪	-13.7085
娵	-13.7085
孜	-13.7085
嶷	-13.7085
泄	-13.7085
狐	-13.7085
皰	-13.7085
翮	-13.7085
棟	-13.7087
叛	-13.7088
築	-13.7088
突	-13.7088
唏	-13.7088
剩	-13.7088
姙	-13.7088
尅	-13.7088
楔	-13.7088
兇	-13.7091
燦	-13.7091
况	-13.7091
圀	-13.7091
掉	-13.7091
淮	-13.7091
舘	-13.7091
藻	-13.7091
婢	-13.7091
岑	-13.7091
恕	-13.7091
稜	-13.7091
穩	-13.7092
㓨	-13.7095
肘	-13.7095
篋	-13.7095
嗸	-13.7095
搥	-13.7095
溥	-13.7095
甄	-13.7098
忿	-13.7098
惔	-13.7098
瘳	-13.7098
収	-13.7098
个	-13.7098
凜	-13.7098
囱	-13.7098
彧	-13.7098
纂	-13.7098
苗	-13.7098
仆	-13.7101
磅	-13.7101
咲	-13.7104
后	-13.7104
坎	-13.7104
縻	-13.7104
婚	-13.7104
展	-13.7107
匃	-13.7107
策	-13.7107
橛	-13.7107
殂	-13.7107
槊	-13.711
硎	-13.711
蕃	-13.711
娶	-13.711
嘍	-13.711
漚	-13.7111
削	-13.7113
殼	-13.7113
狼	-13.7113
蔗	-13.7113
姬	-13.7113
徇	-13.7113
淫	-13.7113
㝵	-13.7117
弩	-13.7117
穗	-13.7117
〈	-13.7117
〉	-13.7117
嫁	-13.7117
蟾	-13.712
腋	-13.712
胃	-13.712
喆	-13.712
柄	-13.7123
悒	-13.7123
戊	-13.7123
旌	-13.7123
濬	-13.7123
枉	-13.7126
翟	-13.7126
募	-13.7129
售	-13.7129
蜀	-13.7132
瀰	-13.7136
概	-13.7139
硬	-13.7142
枕	-13.7142
厶	-13.7142
竚	-13.7142
薨	-13.7145
桂	-13.7148
牲	-13.7151
嘻	-13.7161
籥	-13.7161
屑	-13.7183
机	-14.6816
泐	-14.6832
裡	-14.6966
裊	-14.6967
蟭	-14.6968
螟	-14.6969
蝶	-14.697
蚋	-14.6971
蘂	-14.6972
蔭	-14.6973
苡	-14.6974
芣	-14.6975
臍	-14.6976
脂	-14.6977
聶	-14.6978
羆	-14.6979
絍	-14.698
篡	-14.6981
窿	-14.6982
窯	-14.6983
癕	-14.6984
琛	-14.6985
琅	-14.6986
珷	-14.6987
玞	-14.6988
犎	-14.6989
牆	-14.699
爝	-14.6991
灼	-14.6992
灑	-14.6993
濛	-14.6994
泏	-14.6995
毱	-14.6996
欻	-14.6997
樣	-14.6998
槌	-14.6999
桃	-14.7
杻	-14.7001
杵	-14.7002
朧	-14.7003
撈	-14.7004
挽	-14.7005
抨	-14.7006
懟	-14.7007
彪	-14.7008
弒	-14.7009
廂	-14.701
嬉	-14.7011
婫	-14.7012
婇	-14.7013
娜	-14.7014
娉	-14.7015
姥	-14.7016
塚	-14.7017
堆	-14.7018
坘	-14.7019
坏	-14.702
坊	-14.7021
喙	-14.7022
哺	-14.7023
呰	-14.7024
勁	-14.7025
劑	-14.7026
副	-14.7027
偉	-14.7028
俛	-14.7029
亞	-14.703
䤟	-14.7031
-	-14.7032
戀	-14.7032
𦋺	-14.7033
鴦	-14.7034
鴛	-14.7035
骸	-14.7036
眷	-14.7037
馥	-14.7037
隴	-14.7038
閦	-14.7039
躃	-14.704
踊	-14.7041
裟	-14.7042
袈	-14.7043
蛾	-14.7044
蚯	-14.7045
蚓	-14.7046
虬	-14.7047
藂	-14.7048
薀	-14.7049
芟	-14.705
腦	-14.7051
胞	-14.7052
徃	-14.7052
笮	-14.7053
窓	-14.7054
祜	-14.7055
瞍	-14.7056
狄	-14.7057
炤	-14.7058
澗	-14.7059
淤	-14.706
晞	-14.7061
敝	-14.7062
挑	-14.7063
戍	-14.7064
彗	-14.7065
岐	-14.7066
屐	-14.7067
孑	-14.7068
嬈	-14.7069
埏	-14.707
劬	-14.7071
瑜	-14.7072
傴	-14.7072
o	-14.7073
蠲	-14.7073
㗚	-14.7073
㒹	-14.7074
魎	-14.7075
魍	-14.7076
魅	-14.7077
騷	-14.7078
韲	-14.7079
郁	-14.708
痕	-14.7081
這	-14.7081
袍	-14.7082
葬	-14.7083
臼	-14.7084
耐	-14.7085
緯	-14.7086
糟	-14.7087
粕	-14.7088
程	-14.7089
琉	-14.709
涔	-14.7091
浙	-14.7092
敕	-14.7093
臾	-14.7093
援	-14.7094
彬	-14.7095
劇	-14.7096
儐	-14.7097
串	-14.7098
㨝	-14.7099
黠	-14.71
鶹	-14.7101
犢	-14.7101
頡	-14.7102
詢	-14.7103
街	-14.7104
猿	-14.7105
蠟	-14.7105
莎	-14.7106
膳	-14.7107
耿	-14.7108
瞥	-14.7109
獅	-14.711
湍	-14.7111
沛	-14.7112
幖	-14.7113
巷	-14.7114
兜	-14.7115
傭	-14.7116
鵡	-14.7117
邽	-14.7118
贈	-14.7119
諺	-14.712
衢	-14.7121
萎	-14.7122
緇	-14.7123
礫	-14.7124
磁	-14.7125
盟	-14.7126
璇	-14.7127
沌	-14.7128
藐	-14.7129
栴	-14.7129
揵	-14.713
彿	-14.7131
彷	-14.7132
奮	-14.7133
嗚	-14.7134
』	-14.7135
醐	-14.7136
驍	-14.7137
醍	-14.7137
選	-14.7138
裸	-14.7139
蕉	-14.714
苾	-14.7141
芭	-14.7142
熈	-14.7143
層	-14.7144
煌	-14.7145
憨	-14.7146
兢	-14.7147
𠡠	-14.7148
湜	-14.7149
肖	-14.715
罣	-14.7151
釐	-14.7152
蹰	-14.7153
襄	-14.7154
罽	-14.7155
瑠	-14.7156
獼	-14.7157
牧	-14.7158
棲	-14.7159
匐	-14.716
蹔	-14.7161
髴	-14.7161
髣	-14.7162
驃	-14.7163
顒	-14.7164
迅	-14.7165
崛	-14.7166
叵	-14.7167
㽵	-14.7168
怏	-14.7169
纖	-14.7169
彭	-14.717
慇	-14.7171
寞	-14.7172
叉	-14.7173
餓	-14.7174
醯	-14.7175
臚	-14.7176
娑	-14.7177
圭	-14.7178
鷲	-14.7179
陛	-14.718
穆	-14.7181
饒	-14.7182
闥	-14.7183
桓	-14.7184
閻	-14.7185
躊	-14.7185
紜	-14.7185
韋	-14.7186
耨	-14.7187
珞	-14.7188
N	-14.7189
1	-14.719
楞	-14.7191
>	-14.7192
妬	-14.7193
屆	-14.7193
