<unk>	0
<s>	0
</s>	0
/	-3.3108
(	-3.75148
)	-3.90668
)(	-4.11172
之	-4.39384
以	-4.80637
也	-5.01837
為	-5.03731
而	-5.26031
有	-5.2728
日	-5.32618
其	-5.3859
増	-5.38628
者	-5.4176
不	-5.44379
於	-5.46277
中	-5.47015
人	-5.5166
一	-5.55767
上	-5.60011
月	-5.60724
春	-5.6303
大	-5.63209
曰	-5.67242
時	-5.71341
生	-5.72933
至	-5.79177
則	-5.82534
水	-5.83019
詩	-5.84606
天	-5.85377
子	-5.86897
三	-5.89124
如	-5.94305
夜	-5.95703
秋	-5.99985
花	-6.03183
出	-6.04371
行	-6.05592
山	-6.09529
原	-6.09918
在	-6.10587
無	-6.12669
五	-6.19448
夏	-6.22295
作	-6.24785
風	-6.26361
增	-6.26859
長	-6.27374
下	-6.27646
令	-6.29482
王	-6.30725
自	-6.31543
書	-6.32368
用	-6.32789
四	-6.33283
故	-6.33452
見	-6.34282
成	-6.36178
氣	-6.38712
所	-6.38838
冬	-6.40586
二	-6.40647
正	-6.40802
得	-6.41567
陽	-6.4161
事	-6.42351
此	-6.42663
雨	-6.43407
皆	-6.45492
白	-6.46503
與	-6.46722
年	-6.46825
後	-6.47011
官	-6.49027
方	-6.49597
入	-6.50323
火	-6.50558
乃	-6.53654
地	-6.54117
及	-6.55416
神	-6.57917
金	-6.58045
始	-6.59311
嵗	-6.60414
酒	-6.6051
初	-6.61122
相	-6.6121
雲	-6.6147
言	-6.61475
食	-6.62486
門	-6.63504
朝	-6.63547
明	-6.6535
石	-6.672
𫝊	-6.67553
賜	-6.67689
又	-6.67949
取	-6.68072
道	-6.68114
九	-6.68173
六	-6.68634
南	-6.68683
開	-6.69053
物	-6.71425
寒	-6.71488
文	-6.71803
元	-6.72271
名	-6.72828
分	-6.73454
注	-6.73538
木	-6.73609
是	-6.74052
隂	-6.7474
云	-6.75145
小	-6.75639
葉	-6.76185
黄	-6.77205
節	-6.77511
公	-6.77617
星	-6.77763
帝	-6.78778
謂	-6.7895
東	-6.79018
可	-6.79146
種	-6.79166
當	-6.79484
草	-6.79784
前	-6.79792
光	-6.80555
多	-6.82453
國	-6.83513
主	-6.84379
法	-6.85008
和	-6.85211
香	-6.85338
樂	-6.85423
内	-6.86467
百	-6.87005
青	-6.87009
玉	-6.87261
亦	-6.8735
未	-6.88007
數	-6.88723
使	-6.89165
土	-6.89225
詔	-6.90391
西	-6.90503
民	-6.90631
新	-6.90651
即	-6.91402
經	-6.92513
宫	-6.93055
殿	-6.932
謂之	-6.93367
復	-6.93742
常	-6.95306
清	-6.9537
七	-6.95541
龍	-6.96111
合	-6.96229
正月	-6.97068
家	-6.97161
先	-6.97617
十	-6.97681
祭	-6.97958
州	-6.98233
諸	-6.99384
命	-6.99456
觀	-6.99716
扵	-6.99811
已	-6.99828
馬	-7.01152
禮	-7.02821
髙	-7.02838
北	-7.03673
起	-7.03928
田	-7.03986
去	-7.04237
衣	-7.05378
今	-7.05409
色	-7.05815
從	-7.06169
或	-7.06195
知	-7.0726
平	-7.07484
記	-7.084
樹	-7.08704
熟	-7.08731
▁	-7.09451
徳	-7.09626
聲	-7.1012
若	-7.10547
同	-7.10615
宜	-7.10867
服	-7.10922
然	-7.12561
凡	-7.12767
二月	-7.14059
因	-7.1439
立	-7.14521
臣	-7.14567
魚	-7.14912
實	-7.15477
居	-7.15563
獻	-7.15759
三月	-7.16251
必	-7.17583
過	-7.18407
盛	-7.18615
志	-7.18673
來	-7.19105
周	-7.19125
欲	-7.19196
各	-7.19326
應	-7.19556
萬	-7.20481
八月	-7.20764
華	-7.21143
歸	-7.2244
四月	-7.22489
定	-7.22705
何	-7.22824
重	-7.23904
心	-7.24979
進	-7.25296
通	-7.25334
宴	-7.25519
五月	-7.25567
李	-7.25619
八	-7.25933
置	-7.2646
君	-7.26781
御	-7.27527
焉	-7.27659
註	-7.27951
安	-7.2802
閏	-7.28255
傳	-7.28608
候	-7.28934
極	-7.28947
河	-7.29289
外	-7.29391
鳴	-7.29545
度	-7.30014
盡	-7.30218
望	-7.30489
建	-7.3073
林	-7.31414
太	-7.31931
次	-7.31982
飛	-7.32113
集	-7.32764
女	-7.32935
鳥	-7.33093
收	-7.33374
師	-7.33412
間	-7.33516
更	-7.33574
十月	-7.33659
兩	-7.33813
来	-7.34794
歌	-7.34875
辰	-7.35343
宗	-7.35375
祀	-7.36604
治	-7.36796
士	-7.37045
占	-7.37537
乾	-7.37844
問	-7.37886
每	-7.38239
頭	-7.38852
疏	-7.3888
少	-7.39016
聞	-7.39253
城	-7.39399
景	-7.39483
還	-7.39878
七月	-7.39932
廟	-7.40417
張	-7.40495
雪	-7.4096
矣	-7.41192
武	-7.41624
四時	-7.41665
舉	-7.43004
將	-7.43377
㑹	-7.44073
九月	-7.44391
晝	-7.44698
既	-7.44729
江	-7.45115
朔	-7.45487
本	-7.45581
麥	-7.45991
坐	-7.46448
異	-7.47142
奏	-7.4731
能	-7.47612
動	-7.47809
落	-7.47809
祠	-7.47821
千	-7.47968
賦	-7.4818
赤	-7.49158
飲	-7.49192
氏	-7.49214
歳	-7.49481
海	-7.49498
等	-7.49749
終	-7.50132
聖	-7.50427
修	-7.50593
縣	-7.50636
老	-7.50764
處	-7.50805
十二月	-7.5106
遂	-7.5134
首	-7.51547
甚	-7.52004
萬物	-7.52282
堂	-7.52852
歴	-7.53631
六月	-7.54209
流	-7.54228
燈	-7.54525
古	-7.54997
易	-7.55042
奉	-7.55317
宿	-7.55351
于	-7.56195
漢	-7.56199
紅	-7.56261
池	-7.57328
廣	-7.57445
象	-7.57992
嘗	-7.58245
臺	-7.58339
餘	-7.584
降	-7.58645
仙	-7.5899
學	-7.59123
臨	-7.59863
政	-7.59955
暮	-7.6053
唐	-7.6083
紀	-7.61016
紫	-7.61644
司	-7.62087
似	-7.62119
幸	-7.62262
刻	-7.62664
律	-7.62908
陳	-7.63458
半	-7.63545
滿	-7.6366
制	-7.63668
寳	-7.63781
深	-7.64228
散	-7.64244
興	-7.64257
竹	-7.64317
蠶	-7.64525
登	-7.64545
止	-7.64816
▁(	-7.65133
都	-7.6536
請	-7.65491
一日	-7.65529
非	-7.66233
歲	-7.66233
史	-7.66492
寺	-7.66655
霜	-7.66971
靈	-7.67422
惟	-7.67551
泉	-7.67877
造	-7.68427
受	-7.68473
室	-7.68497
會	-7.68835
著	-7.69309
迎	-7.69588
十一月	-7.69916
夕	-7.70116
畢	-7.70786
直	-7.70943
細	-7.70954
露	-7.71044
錢	-7.71059
交	-7.71371
羣	-7.71794
曲	-7.72164
旦	-7.72327
親	-7.7248
米	-7.72688
早	-7.73107
果	-7.73114
莭	-7.73136
車	-7.7347
封	-7.73525
采	-7.74345
好	-7.74361
世	-7.7447
向	-7.74823
字	-7.7494
母	-7.75129
枝	-7.75302
客	-7.75329
思	-7.75415
齊	-7.75419
十二	-7.75731
以為	-7.75905
禁	-7.76191
午	-7.76216
章	-7.76317
圖	-7.76683
目	-7.7679
位	-7.77101
府	-7.77666
斗	-7.77945
農	-7.78066
原禮	-7.78324
左	-7.78355
牛	-7.78364
三日	-7.7872
義	-7.79065
身	-7.79085
宣	-7.79127
慶	-7.79425
五日	-7.79435
樓	-7.79444
勝	-7.7953
猶	-7.79587
對	-7.79646
語	-7.8
耕	-7.8002
舊	-7.80415
貴	-7.8045
野	-7.80918
具	-7.8095
功	-7.80999
梁	-7.81556
照	-7.81667
冬至	-7.81808
衆	-7.81956
射	-7.82127
送	-7.82467
録	-7.82838
就	-7.82947
元年	-7.83077
藏	-7.83375
設	-7.83391
根	-7.83513
佛	-7.8387
近	-7.83878
嘉	-7.83881
澤	-7.83945
高	-7.84346
市	-7.84377
布	-7.844
加	-7.84448
精	-7.84841
别	-7.84916
夢	-7.84941
雞	-7.85029
宋	-7.85042
伏	-7.85061
逰	-7.8537
逺	-7.85403
里	-7.85635
眀	-7.8578
舞	-7.85849
齋	-7.86379
乎	-7.86416
晴	-7.86961
試	-7.87461
化	-7.87572
鼓	-7.87891
角	-7.87904
變	-7.87906
手	-7.87909
稱	-7.87929
郊	-7.88077
熱	-7.8838
甲	-7.88998
遊	-7.89317
俗	-7.89347
求	-7.89451
足	-7.89499
拜	-7.90019
暑	-7.90219
雷	-7.90527
𤼵	-7.90566
儀	-7.90699
味	-7.91022
除	-7.91834
三年	-7.91892
増玉海	-7.91943
皇	-7.91955
羅	-7.92108
遇	-7.92127
苦	-7.92209
豆	-7.92349
連	-7.9262
燕	-7.92669
亭	-7.93075
改	-7.93078
冰	-7.93199
雖	-7.93244
兵	-7.93399
意	-7.93401
良	-7.93676
真	-7.93842
口	-7.94302
天下	-7.94631
序	-7.94656
我	-7.94665
列	-7.9483
獨	-7.94835
教	-7.94891
形	-7.95013
孝	-7.95348
耳	-7.95391
論	-7.95406
考	-7.95425
軍	-7.95767
二年	-7.96302
採	-7.96324
喜	-7.96476
疾	-7.96527
二十	-7.9657
期	-7.96571
魏	-7.96776
卷	-7.96996
載	-7.9708
井	-7.97418
養	-7.97425
空	-7.97428
路	-7.97626
畫	-7.97661
便	-7.97677
桃	-7.97826
燭	-7.98081
共	-7.98214
蟲	-7.98554
郡	-7.98575
致	-7.98677
乗	-7.98708
珠	-7.98773
微	-7.99317
咸	-7.99367
雜	-7.9977
善	-7.99825
藥	-7.99925
爲	-8.00197
温	-8.0052
錄	-8.00556
瑞	-8.00915
表	-8.01118
理	-8.01602
桑	-8.01676
要	-8.01683
𩔖	-8.02167
夫	-8.02204
厯	-8.02277
隨	-8.0228
殺	-8.02339
視	-8.02455
梅	-8.02707
晨	-8.0294
輕	-8.03463
給	-8.03538
祖	-8.03864
發	-8.04014
轉	-8.04059
臘	-8.04172
吉	-8.04189
永	-8.04587
解	-8.04666
執	-8.04719
率	-8.0475
吏	-8.05148
羊	-8.05218
號	-8.05227
備	-8.05286
毎	-8.05484
劉	-8.05947
申	-8.06082
説	-8.06443
召	-8.06504
留	-8.06537
氷	-8.06617
結	-8.0676
放	-8.07721
庭	-8.07743
引	-8.07763
力	-8.07771
省	-8.07836
榖	-8.07927
園	-8.07991
漏	-8.07998
尚	-8.08266
信	-8.08348
院	-8.08525
皮	-8.08807
晚	-8.08969
再	-8.0903
掌	-8.09074
忽	-8.09183
天子	-8.09459
丹	-8.09472
日月	-8.09545
失	-8.09686
夀	-8.09851
浮	-8.10261
毛	-8.10311
升	-8.10437
右	-8.10519
菜	-8.10869
器	-8.10992
授	-8.11021
旱	-8.11177
指	-8.11571
莫	-8.1219
許	-8.1222
閣	-8.12284
容	-8.12288
将	-8.13536
莖	-8.14022
端	-8.14147
息	-8.14317
楊	-8.14698
芳	-8.14891
甘	-8.1555
肉	-8.16171
絲	-8.16215
晝夜	-8.16348
隂陽	-8.16626
尺	-8.1671
音	-8.17274
卿	-8.17347
美	-8.1749
條	-8.17541
蘭	-8.17551
増本草綱目	-8.17581
兮	-8.17765
社	-8.17779
薄	-8.18354
屬	-8.18476
薦	-8.1897
積	-8.18991
最	-8.18993
僧	-8.19037
侍	-8.19074
所以	-8.19117
盤	-8.19749
影	-8.19754
稻	-8.19765
賞	-8.19969
移	-8.20368
講	-8.20386
謝	-8.2044
利	-8.20451
告	-8.20452
且	-8.20476
守	-8.21023
随	-8.2114
末	-8.21708
延	-8.21738
看	-8.21838
羽	-8.21902
聚	-8.21935
懐	-8.21939
御製	-8.21957
面	-8.22005
鄉	-8.22119
仁	-8.22481
陵	-8.22524
立春	-8.22622
勞	-8.22623
推	-8.23421
京	-8.23551
選	-8.23945
益	-8.24033
醉	-8.24071
體	-8.24145
湯	-8.24165
絶	-8.24225
五年	-8.24725
洗	-8.24826
九日	-8.25058
寅	-8.25528
納	-8.25578
刑	-8.25848
順	-8.25863
十五日	-8.2613
七日	-8.26169
符	-8.2628
房	-8.26296
但	-8.26337
壇	-8.26376
陰	-8.26626
晉	-8.26968
昏	-8.26973
茶	-8.2698
苑	-8.2701
調	-8.27095
朱	-8.27259
虎	-8.27646
栁	-8.27837
曉	-8.27894
離	-8.2811
福	-8.28591
施	-8.28605
含	-8.28639
呼	-8.28712
之日	-8.28779
陽氣	-8.2912
筆	-8.29442
仲	-8.29655
承	-8.29677
郎	-8.30282
久	-8.3045
難	-8.30934
不可	-8.31262
兒	-8.3159
之時	-8.31661
天地	-8.31691
昌	-8.31745
湖	-8.32327
黒	-8.32356
退	-8.32423
漸	-8.32539
歡	-8.32543
並	-8.3255
計	-8.32601
貢	-8.32971
代	-8.33062
丁	-8.33213
户	-8.33329
俱	-8.33348
運	-8.33354
十日	-8.33362
休	-8.3337
監	-8.33399
讀	-8.33768
麻	-8.33835
蓋	-8.3422
遣	-8.34731
卜	-8.34934
盖	-8.34954
待	-8.3538
川	-8.35563
尊	-8.35852
閉	-8.35855
屋	-8.35865
春秋	-8.36037
辭	-8.36688
卯	-8.37015
常以	-8.37056
菊	-8.37192
碧	-8.37461
參	-8.37465
急	-8.37499
歩	-8.37503
第	-8.37597
職	-8.37613
德	-8.37628
孫	-8.37774
依	-8.37943
到	-8.38291
扇	-8.38336
感	-8.38341
沙	-8.38349
冷	-8.38364
持	-8.38398
亥	-8.38465
覆	-8.38521
名曰	-8.38522
吹	-8.38821
往	-8.39056
祥	-8.39101
遺	-8.39132
烏	-8.39161
罷	-8.39163
比	-8.39193
素	-8.39194
駕	-8.39213
飯	-8.39261
夏至	-8.39655
工	-8.39774
嚴	-8.40089
斷	-8.40119
辛	-8.40162
助	-8.40188
谷	-8.40633
詞	-8.40698
吾	-8.40723
父	-8.40767
涼	-8.40803
典	-8.40844
𤓰	-8.40964
須	-8.41423
之月	-8.41484
辟	-8.41648
英	-8.4178
任	-8.41798
榮	-8.41799
㣲	-8.41807
議	-8.41831
楚	-8.41904
尾	-8.42633
肅	-8.42648
溪	-8.42662
凍	-8.4272
旬	-8.43234
翠	-8.43514
茂	-8.43519
騎	-8.43538
銅	-8.43545
獸	-8.43565
性	-8.43607
四年	-8.43978
三十	-8.44229
凉	-8.44373
鏡	-8.4439
綵	-8.44427
燒	-8.44459
忌	-8.44462
舍	-8.44975
鶴	-8.45014
洞	-8.45314
悉	-8.45399
宮	-8.45426
察	-8.45444
六年	-8.45604
豐	-8.45869
驚	-8.46241
蔵	-8.46293
商	-8.463
覺	-8.46764
勿	-8.46845
侯	-8.47142
病	-8.47152
厚	-8.47193
願	-8.47197
旗	-8.47207
㸃	-8.47226
籍	-8.47233
業	-8.47243
戒	-8.47263
盈	-8.473
麴	-8.47307
晦	-8.47715
可以	-8.47805
桂	-8.48064
穴	-8.48073
聼	-8.48092
虚	-8.48098
敬	-8.48154
昭	-8.48193
皇帝	-8.48309
丈	-8.48316
棗	-8.49049
灰	-8.49107
戲	-8.49143
習	-8.49183
蓮	-8.4986
短	-8.49927
品	-8.49998
句	-8.50022
報	-8.50063
鹽	-8.50139
上元	-8.50432
蜀	-8.50748
越	-8.5099
衛	-8.5107
草木	-8.51747
酉	-8.51849
橋	-8.51892
松	-8.51961
接	-8.51962
伯	-8.51988
鳳	-8.51999
補	-8.52016
潤	-8.52043
惡	-8.52047
部	-8.52757
丑	-8.52793
禾	-8.52855
裏	-8.52891
壁	-8.52982
賀	-8.53002
雙	-8.53026
學士	-8.53063
元日	-8.53656
管	-8.53982
獲	-8.53991
孔	-8.54463
中有	-8.54688
笑	-8.54698
故曰	-8.54809
増齊民要術	-8.54822
潮	-8.54865
卦	-8.54906
黍	-8.54936
秦	-8.54977
飬	-8.55082
二日	-8.55457
甲子	-8.55475
五行	-8.55647
賢	-8.55914
舟	-8.55929
配	-8.5599
懸	-8.55995
一名	-8.56123
不得	-8.56823
鬼	-8.56906
增玉海	-8.5694
龜	-8.56989
崇	-8.57027
仍	-8.57027
蒸	-8.57028
統	-8.57656
季	-8.57953
竝	-8.57953
垂	-8.57955
趙	-8.5799
孟	-8.5799
傷	-8.58019
按	-8.58045
百官	-8.58052
關	-8.5807
昔	-8.58072
波	-8.58084
月令	-8.58811
蒼	-8.58943
帶	-8.5899
箭	-8.59148
朕	-8.59164
十五	-8.59867
佳	-8.59991
製	-8.60073
泥	-8.60078
幽	-8.60086
緑	-8.60104
詣	-8.60105
闕	-8.60108
逐	-8.60121
旁	-8.6013
校	-8.60135
烟	-8.60142
班	-8.60143
紙	-8.60151
邊	-8.60201
毋	-8.60207
宵	-8.61095
簡	-8.61192
情	-8.61193
總	-8.61239
輿	-8.61245
胡	-8.61994
七年	-8.6218
尤	-8.623
於是	-8.63022
避	-8.63227
祝	-8.63297
濟	-8.63316
庶	-8.63325
左右	-8.63385
帛	-8.63412
五色	-8.6346
不知	-8.63593
開元	-8.64193
蜜	-8.6439
錦	-8.64397
汁	-8.64419
秀	-8.64445
静	-8.64448
閒	-8.64449
館	-8.64461
編	-8.64469
食之	-8.64711
陸	-8.65065
愛	-8.65243
眼	-8.65369
粟	-8.65512
冠	-8.6554
供	-8.65544
塞	-8.6559
羣臣	-8.65631
死	-8.66063
炎	-8.6651
窮	-8.66547
圓	-8.66572
消	-8.66621
寧	-8.66657
蛇	-8.66673
廵	-8.66695
題	-8.66735
務	-8.66814
詔曰	-8.67219
十六日	-8.67416
銀	-8.67494
戌	-8.67603
康	-8.67689
衡	-8.67762
背	-8.678
鄭	-8.67824
并	-8.67836
爾	-8.67846
蘇	-8.67873
不能	-8.68547
才	-8.68914
呉	-8.68944
被	-8.68954
頒	-8.68965
釋	-8.68974
濕	-8.69013
均	-8.69036
索	-8.69055
席	-8.6906
兼	-8.69062
詩云	-8.6941
竒	-8.70055
科	-8.70065
孤	-8.70078
遲	-8.70099
特	-8.70144
坤	-8.70144
婦	-8.70543
之所	-8.70867
穀	-8.71001
黑	-8.71213
苗	-8.71216
像	-8.71224
履	-8.7124
韓	-8.71244
鼔	-8.7125
餅	-8.71294
吳	-8.71303
全	-8.71354
適	-8.71358
却	-8.7137
尚書	-8.71633
暴	-8.72424
岸	-8.72445
盆	-8.725
卧	-8.72531
蕭	-8.72547
原淮南子	-8.72583
然後	-8.73282
丸	-8.73607
宻	-8.73621
肥	-8.73671
繁	-8.73684
破	-8.73699
虞	-8.73711
尋	-8.73732
折	-8.73771
春分	-8.74515
驗	-8.74841
揚	-8.74881
寄	-8.74902
圗	-8.74904
仗	-8.74914
牲	-8.74927
顧	-8.74952
清明	-8.75269
賔	-8.75939
洛	-8.75948
東方	-8.76024
宅	-8.76152
戴	-8.76198
粥	-8.76231
鼎	-8.7626
差	-8.76316
叢	-8.76662
之以	-8.76861
立夏	-8.76969
后	-8.77098
立秋	-8.77169
西南	-8.77329
側	-8.77388
麗	-8.77403
枕	-8.77419
恐	-8.77482
諸侯	-8.77539
秋分	-8.78036
南方	-8.78084
享	-8.78266
霧	-8.78538
暖	-8.78549
由	-8.78591
膏	-8.7868
拂	-8.78687
充	-8.78703
續	-8.78738
増唐㑹要	-8.7875
油	-8.79885
姑	-8.79906
富	-8.79906
術	-8.79935
枯	-8.79962
堅	-8.79968
念	-8.79969
輪	-8.80028
寒食	-8.80306
浸	-8.80955
冬月	-8.81075
織	-8.81124
干	-8.81161
停	-8.81218
杜	-8.81241
乘	-8.81255
伐	-8.81297
誰	-8.81304
荷	-8.81314
減	-8.81344
量	-8.81351
以下	-8.81373
之氣	-8.81476
大如	-8.82271
夫人	-8.82452
震	-8.82459
一人	-8.82488
者為	-8.82704
十八日	-8.82905
八日	-8.83563
一月	-8.83584
汝	-8.83726
従	-8.83819
葵	-8.83824
刀	-8.83867
殊	-8.83888
稍	-8.83889
吐	-8.83895
擊	-8.83902
打	-8.83904
凝	-8.83908
弦	-8.83912
饗	-8.83938
殷	-8.83941
瓜	-8.83959
十三	-8.84236
而不	-8.84733
十四日	-8.84935
鎮	-8.85205
煮	-8.85226
乞	-8.85242
徐	-8.85254
識	-8.85256
仰	-8.85269
裘	-8.85291
炊	-8.85349
有司	-8.85523
翼	-8.85718
庚	-8.8615
祈	-8.86163
九年	-8.86288
戸	-8.86439
逹	-8.86573
爵	-8.86581
植	-8.86589
四日	-8.86596
杯	-8.8661
假	-8.86629
反	-8.86638
繼	-8.8666
飾	-8.86678
帳	-8.86685
約	-8.86693
崔	-8.86694
禽	-8.867
寸	-8.87012
太宗	-8.87086
天道	-8.8741
狀	-8.87741
如此	-8.87783
閑	-8.87933
珍	-8.87968
骨	-8.87984
筍	-8.87986
圍	-8.87996
團	-8.87996
觧	-8.88012
豈	-8.88026
害	-8.88085
魯	-8.88092
佐	-8.88113
故事	-8.88843
維	-8.89033
綠	-8.89307
鹿	-8.89318
頃	-8.89352
徃	-8.89359
投	-8.89369
鐘	-8.89412
殘	-8.89431
振	-8.89432
戰	-8.89442
雅	-8.90747
橘	-8.90794
恩	-8.90817
邑	-8.90836
負	-8.90881
示	-8.90968
六日	-8.91215
風雨	-8.92229
柳	-8.92232
營	-8.92277
壽	-8.92279
閏月	-8.92286
預	-8.92288
遍	-8.92289
災	-8.92303
誦	-8.92313
他	-8.92347
唯	-8.92349
舒	-8.92375
岳	-8.92379
琴	-8.92385
銘	-8.92408
一年	-8.92684
明堂	-8.92816
二十日	-8.92931
十三日	-8.93129
蟄	-8.93646
夘	-8.93655
芽	-8.9368
博	-8.93688
繞	-8.93714
貧	-8.93715
柔	-8.93719
凌	-8.93725
腹	-8.93748
逢	-8.93765
雍	-8.93771
斯	-8.93772
虹	-8.93781
回	-8.93787
湏	-8.93794
鳯	-8.93801
洲	-8.93811
曹	-8.93814
權	-8.93834
一嵗	-8.93988
者也	-8.94589
十二日	-8.94688
五十	-8.94777
雀	-8.94856
苖	-8.95041
不見	-8.95072
吕	-8.95184
旋	-8.95232
徧	-8.95244
斜	-8.9525
隠	-8.95257
輦	-8.95272
淡	-8.95276
罪	-8.95282
謹	-8.95282
談	-8.95292
存	-8.95304
原詩	-8.95317
北方	-8.95798
十一日	-8.96298
甕	-8.96406
十四	-8.96431
牡丹	-8.96565
栽	-8.96632
収	-8.96686
船	-8.96694
徴	-8.96758
艾	-8.96761
固	-8.96771
横	-8.96774
邪	-8.96782
芝	-8.96789
兹	-8.96791
忠	-8.96794
爛	-8.96797
韻	-8.96798
杖	-8.96837
葢	-8.96847
原夏小正	-8.96943
六十	-8.96946
十六	-8.97079
八年	-8.97202
勸	-8.97288
日在	-8.97322
之中	-8.97348
出入	-8.97535
東南	-8.97635
杏	-8.97773
蘇軾	-8.97882
雉	-8.98217
蟬	-8.98237
墨	-8.98277
倉	-8.98282
損	-8.98309
澄	-8.98311
煎	-8.98316
鷹	-8.98318
賣	-8.98333
三十日	-8.98342
保	-8.98344
聽	-8.98344
盧	-8.98353
獄	-8.98393
本草	-8.9872
是日	-8.98836
宗紀	-8.9906
桐	-8.9979
塵	-8.99836
密	-8.99847
走	-8.99878
塗	-8.99898
尹	-8.99906
貯	-8.99921
防	-8.99934
壺	-8.99934
太守	-9.00097
帝紀	-9.00692
曰此	-9.00921
西方	-9.01048
白居易	-9.01147
泰	-9.01177
鍾	-9.01229
譜	-9.01353
畜	-9.01432
蒲	-9.01476
擇	-9.01485
訖	-9.01514
晷	-9.01552
穿	-9.01577
界	-9.01608
之後	-9.024
戊	-9.02586
之間	-9.02737
西北	-9.02805
状	-9.02815
霞	-9.0294
為一	-9.02948
牧	-9.02985
庫	-9.02994
鳩	-9.03008
荒	-9.03063
村	-9.03079
案	-9.03092
亂	-9.03093
彌	-9.031
招	-9.03102
勤	-9.03109
頌	-9.03125
京師	-9.03308
生於	-9.04001
童	-9.04437
綿	-9.04572
傾	-9.04675
予	-9.04724
争	-9.04741
牀	-9.04744
覽	-9.04756
課	-9.04779
質	-9.04787
卒	-9.04793
太平	-9.05142
進士	-9.05158
季夏	-9.0521
開花	-9.05496
千里	-9.05696
每月	-9.05818
枚	-9.06005
格	-9.06256
眠	-9.06338
輙	-9.06342
䇿	-9.06368
斤	-9.06377
剛	-9.06383
吟	-9.06392
誕	-9.06392
津	-9.06397
映	-9.06409
資	-9.06452
椒	-9.06481
二百	-9.07302
四方	-9.0742
從之	-9.07501
隂氣	-9.07758
糞	-9.08005
機	-9.08012
唱	-9.08019
牢	-9.08023
簾	-9.08048
卵	-9.08049
只	-9.0806
篇	-9.08076
暗	-9.0809
渡	-9.081
熙	-9.08101
隔	-9.08105
赦	-9.08114
源	-9.08137
辨	-9.08145
程	-9.0817
嶽	-9.08174
啓	-9.08183
司馬	-9.08525
太白	-9.08901
壬	-9.09246
用事	-9.09249
春夏	-9.09375
者以	-9.09503
南郊	-9.09654
愈	-9.09711
顔	-9.09747
曝	-9.09747
揺	-9.09749
栗	-9.09759
頂	-9.0976
役	-9.09765
寝	-9.09787
刺	-9.09799
遷	-9.09811
□	-9.09815
東北	-9.09822
劍	-9.09826
呂	-9.09913
宰相	-9.09971
以上	-9.10025
荆	-9.10083
白露	-9.10421
日出	-9.10768
夷	-9.11095
賦詩	-9.11224
十九日	-9.11353
渠	-9.1149
印	-9.11499
吴	-9.11499
帯	-9.11512
鮮	-9.11525
寢	-9.11565
式	-9.11569
憂	-9.11624
叔	-9.11631
算	-9.11644
染	-9.11796
為之	-9.11973
二十四日	-9.12066
大夫	-9.12201
葉似	-9.12276
長安	-9.12617
八十	-9.12733
有一	-9.13222
幹	-9.13236
徒	-9.13266
遥	-9.13294
齒	-9.133
畧	-9.13313
巧	-9.13348
韋	-9.1335
賈	-9.13352
牙	-9.13357
淺	-9.13364
坎	-9.1338
忘	-9.13381
限	-9.13389
雄	-9.13397
翔	-9.13397
二十九日	-9.13649
武帝	-9.13783
隂乾	-9.13952
日中	-9.14294
丞	-9.14967
沈	-9.15053
三百	-9.15055
雁	-9.15066
掃	-9.15066
融	-9.15069
慈	-9.15071
威	-9.15071
郭	-9.15101
産	-9.15103
獵	-9.1511
環	-9.15128
晩	-9.15134
披	-9.15141
脂	-9.15142
毒	-9.15168
核	-9.1517
顯	-9.15178
坊	-9.15191
䟽	-9.15248
十七日	-9.15558
三月三日	-9.15744
丙	-9.16447
私	-9.16761
真人	-9.16848
十年	-9.16873
上有	-9.1692
街	-9.16957
恒	-9.16987
𢎞	-9.17001
革	-9.17002
薑	-9.1701
乆	-9.1701
抱	-9.17018
籠	-9.17018
謁	-9.17031
堯	-9.17039
赴	-9.17039
隐	-9.17052
寛	-9.17056
啟	-9.17063
鴈	-9.17088
堪	-9.17097
材	-9.17108
飄	-9.17127
立冬	-9.17222
二十八日	-9.17506
十餘	-9.17872
明日	-9.17913
之曰	-9.17974
七月七日	-9.18038
黄帝	-9.1818
槐	-9.18812
范	-9.18846
廢	-9.18856
疎	-9.18913
鑄	-9.18935
畏	-9.18935
繫	-9.18937
偶	-9.18945
滅	-9.1897
煖	-9.18983
宰臣	-9.18985
二十三日	-9.19209
大小	-9.19468
太常	-9.2005
先生	-9.2035
姓	-9.20547
癸	-9.20635
四時之	-9.20684
敕	-9.20773
疑	-9.20796
束	-9.20803
髪	-9.20809
粉	-9.2081
決	-9.20844
四十	-9.2085
禱	-9.20854
羞	-9.20856
竿	-9.20864
訓	-9.20872
翁	-9.20872
至於	-9.20877
掘	-9.20878
否	-9.20958
而後	-9.2119
讀書	-9.21264
用之	-9.21286
江南	-9.21424
隆	-9.21818
夜半	-9.22285
秋冬	-9.2237
閲	-9.22434
說	-9.22561
絃	-9.22691
巖	-9.22714
男	-9.22755
巢	-9.22761
員	-9.22763
純	-9.22766
征	-9.22773
妻	-9.22774
徹	-9.22785
鵲	-9.22786
佩	-9.22788
丘	-9.22794
妃	-9.22799
單	-9.22811
諺云	-9.22814
訪	-9.22876
藍	-9.22877
服之	-9.22902
竈	-9.22905
數十	-9.23251
遣使	-9.23539
増宋史禮志	-9.23852
臘月	-9.23913
重陽	-9.24055
夏月	-9.24203
所在	-9.24297
賤	-9.2469
倍	-9.2472
萌	-9.24726
免	-9.24734
領	-9.24744
峯	-9.24749
巨	-9.24783
撰	-9.24785
愁	-9.24791
催	-9.24802
判	-9.24809
潔	-9.24817
烈	-9.24825
浴	-9.24829
羙	-9.24842
灌	-9.24857
五月五日	-9.24891
族	-9.24916
原書	-9.24969
所謂	-9.25516
門外	-9.25797
育	-9.26358
昇	-9.26413
増漢書	-9.26475
韭	-9.2671
頗	-9.26794
余	-9.26797
貫	-9.26798
沉	-9.26812
妙	-9.26813
彼	-9.26821
陶	-9.26824
鸞	-9.26825
累	-9.26838
騰	-9.26851
弱	-9.26857
築	-9.26919
䝉	-9.26925
支	-9.2701
寒暑	-9.27331
梨	-9.2754
二年正月	-9.2761
二十五日	-9.27691
仲春	-9.27953
太陽	-9.28117
晋	-9.28509
底	-9.28569
上下	-9.28687
嶺	-9.2871
詳	-9.28784
巫	-9.28819
繡	-9.28846
惠	-9.28868
銜	-9.28879
燥	-9.2888
亡	-9.28886
浄	-9.28897
禹	-9.289
磨	-9.28905
筵	-9.28913
㡬	-9.28913
軒	-9.28914
棲	-9.28915
兆	-9.2892
階	-9.2892
恭	-9.28921
躬	-9.28928
爐	-9.28932
規	-9.2894
片	-9.28942
属	-9.28943
囊	-9.28948
民用	-9.28974
哉	-9.28975
蠟	-9.28997
幾	-9.29034
結實	-9.29041
前後	-9.29105
冬夏	-9.30173
視之	-9.30355
大寒	-9.30422
蔓	-9.30531
宰	-9.3087
塘	-9.30894
競	-9.30918
渚	-9.30942
睡	-9.30967
脚	-9.30969
澆	-9.30975
綴	-9.30981
勅	-9.30987
翻	-9.31007
曽	-9.31019
績	-9.31022
液	-9.31024
徵	-9.31031
増宋史	-9.31038
瓊	-9.31039
之數	-9.31065
乳	-9.31079
衰	-9.31088
徑	-9.31095
脯	-9.31101
荔枝	-9.3112
隅	-9.31136
暉	-9.31138
陣	-9.31138
憶	-9.31143
淵	-9.31154
春風	-9.3134
而生	-9.31549
中書	-9.31641
四月八日	-9.31698
二十一日	-9.31827
物候	-9.31996
季冬	-9.32118
元和	-9.32392
附	-9.33015
層	-9.33084
茅	-9.33128
洪	-9.33148
魄	-9.33153
倒	-9.33161
宇	-9.33174
切	-9.33198
驅	-9.33203
漿	-9.33218
縷	-9.33225
導	-9.33245
買	-9.33249
薪	-9.33255
竟	-9.33264
克	-9.33268
䑕	-9.33288
提	-9.33307
帥	-9.33313
僕	-9.33333
十一	-9.3342
毬	-9.33433
之事	-9.33503
政典	-9.33514
不敢	-9.33559
霜降	-9.33596
以其	-9.33866
朱子	-9.34401
明年	-9.34651
五更	-9.34951
也故	-9.34984
端午	-9.35173
㫖	-9.35318
剪	-9.35342
醫	-9.35344
頓	-9.35346
两	-9.35358
圃	-9.35363
柏	-9.35364
絳	-9.35385
座	-9.35387
旅	-9.35395
逸	-9.35421
契	-9.35429
雩	-9.35429
沒	-9.3543
竊	-9.35452
據	-9.35483
警	-9.35506
葦	-9.35511
貞觀	-9.35513
遠	-9.35521
占驗	-9.35566
雨水	-9.35576
囚	-9.35648
是月	-9.35872
天氣	-9.35887
禁中	-9.36066
五榖	-9.36067
朔日	-9.36176
每嵗	-9.36395
之法	-9.36484
人家	-9.36683
日行	-9.36964
増唐書	-9.37201
晏	-9.37226
襄	-9.37259
東西	-9.37354
白色	-9.3739
暢	-9.37659
絹	-9.37662
艮	-9.37665
碑	-9.3767
太平興國	-9.37693
牽牛	-9.37726
弓	-9.37737
舜	-9.37742
場	-9.37755
䕶	-9.37765
觴	-9.37774
速	-9.37775
七夕	-9.37801
藝	-9.37808
戎	-9.37815
犬	-9.37817
寫	-9.37874
各有	-9.37911
雜紀	-9.37999
杜甫	-9.38027
二十七日	-9.38244
仲秋	-9.3844
貞	-9.38566
二十四	-9.38943
一時	-9.39199
乙	-9.39632
蔡	-9.3983
而出	-9.39859
杜甫詩	-9.39874
蘂	-9.39921
竭	-9.39931
原選擇歴書	-9.39949
扶	-9.3997
肺	-9.39986
偏	-9.39992
達	-9.39998
後五日	-9.39999
練	-9.40027
優	-9.40048
蕃	-9.40062
柱	-9.40072
馳	-9.40082
緩	-9.40084
百姓	-9.40133
令人	-9.40195
盛夏	-9.40347
二十二日	-9.40433
御史	-9.40479
是也	-9.40706
文武	-9.41007
數百	-9.41074
上旬	-9.41106
風至	-9.41122
夏日	-9.41566
不復	-9.41623
水中	-9.41661
祭之	-9.4203
淮	-9.42137
踏	-9.42206
増名勝志	-9.42269
夜則	-9.42298
羮	-9.42316
鋤	-9.42335
腰	-9.4236
漁	-9.42369
增齊民要術	-9.4237
斂	-9.42381
箋	-9.42382
頻	-9.42387
誠	-9.4239
煙	-9.42398
霽	-9.42402
儒	-9.42406
值	-9.42415
耀	-9.42434
虛	-9.42436
勒	-9.42444
罰	-9.42447
西域	-9.42463
壯	-9.42486
沃	-9.42524
麟	-9.42528
寶	-9.42577
太祖	-9.42689
集説	-9.42745
増淮南子	-9.42801
十八	-9.42859
今年	-9.4297
髙祖	-9.42989
巳	-9.43017
皆有	-9.43098
之則	-9.43175
中氣	-9.43342
道士	-9.43347
其中	-9.43558
化為	-9.43725
故以	-9.43857
於此	-9.44079
季春	-9.44244
之屬	-9.44484
漫	-9.44731
鑿	-9.44774
研	-9.44779
匹	-9.44788
芋	-9.44806
輝	-9.44813
揷	-9.44837
寕	-9.44846
傅	-9.44851
𤣥	-9.44853
斛	-9.44855
原禮是月也	-9.44883
詠	-9.44886
曙	-9.44903
増雲笈七籖	-9.44904
彩	-9.44908
穫	-9.44919
叩	-9.44922
可食	-9.44929
犀	-9.44932
煩	-9.44936
幕	-9.44937
碎	-9.44953
増晉書	-9.45122
太史	-9.45217
山有	-9.46351
也言	-9.46451
孟冬	-9.46604
一石	-9.46611
周禮	-9.4681
増詩	-9.4698
埋	-9.47217
汗	-9.47236
㓜	-9.47282
贊	-9.47293
葛	-9.47297
塔	-9.47297
秘	-9.47311
傍	-9.47322
笛	-9.47334
禪	-9.47348
繩	-9.47355
膳	-9.47361
游	-9.47367
悲	-9.47371
擁	-9.47372
祥符	-9.47389
岐	-9.47399
委	-9.474
答	-9.47405
煑	-9.4741
友	-9.47413
原漢書	-9.47423
曜	-9.47431
酸	-9.47472
丞相	-9.47574
有餘	-9.47642
曰吾	-9.47754
小兒	-9.47772
之道	-9.47828
梅花	-9.48139
田家	-9.48345
神仙	-9.4835
晦日	-9.48758
飲酒	-9.48847
弟	-9.49302
諸州	-9.49543
線	-9.49707
輔	-9.49715
己	-9.49725
勃	-9.49728
祐	-9.4973
一百	-9.49784
躍	-9.49797
禳	-9.49862
爽	-9.49865
整	-9.49877
墜	-9.49892
饑	-9.4991
蜂	-9.4991
血	-9.49913
怪	-9.49916
畝	-9.4992
例	-9.49923
増農政全書	-9.49933
追	-9.49955
淨	-9.49961
犯	-9.49971
戚	-9.49972
困	-9.49977
婆	-9.49982
巴	-9.49999
其時	-9.50029
黄鍾	-9.50075
桃花	-9.50109
孟春	-9.50121
壬子	-9.50144
雞鳴	-9.50322
二十六日	-9.50397
太學	-9.5082
孔子	-9.51058
穆	-9.51109
郡國	-9.51146
際	-9.51225
婦人	-9.51291
對曰	-9.51452
朔望	-9.51519
蒿	-9.52032
中央	-9.52316
仙人	-9.52388
芒	-9.52392
潭	-9.52398
豫	-9.52403
祗	-9.52424
測	-9.52444
逆	-9.52448
肝	-9.52449
柴	-9.52451
掩	-9.52455
啼	-9.52456
自然	-9.52466
曾	-9.52484
包	-9.52497
莊	-9.52511
寔	-9.52515
蕩	-9.52515
玩	-9.52533
粒	-9.52538
呈	-9.5254
兔	-9.52542
厭	-9.52544
鬱	-9.52561
渾	-9.52581
阿	-9.52585
旌	-9.52611
炭	-9.52622
勢	-9.52627
猛	-9.52627
酌	-9.52644
添	-9.52692
之辰	-9.52828
亦有	-9.52857
近臣	-9.52925
宫中	-9.53065
隋	-9.53161
王者	-9.53191
中秋	-9.53238
漏刻	-9.53397
不及	-9.5356
公卿	-9.53706
而已	-9.53735
時也	-9.54039
黄色	-9.54314
是謂	-9.54458
取其	-9.5463
敢	-9.547
君子	-9.54964
種之	-9.55012
参	-9.55143
蛾	-9.55144
増北史	-9.55166
驚蟄	-9.55204
住	-9.55204
撫	-9.55206
署	-9.55226
零	-9.55226
付	-9.55234
歎	-9.55239
奴	-9.55242
榆	-9.55248
慮	-9.55264
揮	-9.55274
鶯	-9.55279
璧	-9.55292
戍	-9.55298
亮	-9.55298
厥	-9.55302
鐵	-9.55307
違	-9.55308
天之	-9.55315
錫	-9.55318
患	-9.55345
洛陽	-9.5565
一斗	-9.55661
甘露	-9.55681
七十	-9.55739
之𩔖	-9.55745
時有	-9.55812
刺史	-9.5677
循	-9.57822
滴	-9.57857
裳	-9.57864
増南史	-9.57873
夾	-9.57912
架	-9.57926
欣	-9.57934
夲	-9.57966
稔	-9.57975
效	-9.57977
滋	-9.57978
泛	-9.5798
搗	-9.57991
恵	-9.57993
潛	-9.57999
抵	-9.58004
强	-9.58007
禄	-9.58016
疫	-9.58018
允	-9.58035
䧏	-9.58037
増唐會要	-9.58069
尉	-9.58094
貨	-9.58103
塲	-9.58105
板	-9.58116
爰	-9.58136
焦	-9.58147
其日	-9.583
避暑	-9.58309
氣也	-9.58507
後苑	-9.58517
聖人	-9.5865
唐書	-9.58655
宗廟	-9.58663
季秋	-9.58725
其上	-9.59694
者謂	-9.59819
原唐書	-9.5986
之禮	-9.59899
至春	-9.60029
一尺	-9.6037
探	-9.60498
明皇	-9.60527
迎春	-9.60618
鱗	-9.60689
低	-9.60767
惜	-9.60778
哀	-9.60781
繭	-9.60807
蚊	-9.60818
裴	-9.60825
屈	-9.60836
沐	-9.60838
把	-9.60839
諫	-9.60844
笙	-9.60866
捧	-9.60879
瓶	-9.60888
栢	-9.60888
摩	-9.6089
趣	-9.60892
廻	-9.60892
租	-9.60902
借	-9.60903
蠻	-9.60903
局	-9.60904
悦	-9.60906
境	-9.60907
函	-9.6091
壓	-9.60918
樞	-9.60924
綺	-9.60924
協	-9.60948
烝	-9.60958
展	-9.60961
駐	-9.60967
財	-9.60995
衝	-9.61008
織女	-9.61022
之地	-9.61029
博士	-9.61066
笋	-9.61082
晝漏	-9.61144
始生	-9.61154
大雪	-9.6126
四季	-9.61411
故謂之	-9.61637
朝夕	-9.61775
是為	-9.61852
三尺	-9.62024
三時	-9.62039
也注	-9.62207
夜漏	-9.62246
天地之	-9.62359
北斗	-9.62466
以正月	-9.62527
九月九日	-9.62583
是以	-9.63014
此日	-9.63354
十二時	-9.63387
南北	-9.63425
不足	-9.63497
簇	-9.63694
簿	-9.63766
四分	-9.63785
灑	-9.63786
霄	-9.63789
鼠	-9.63793
憐	-9.63794
輸	-9.63799
鞭	-9.63804
溝	-9.63804
囘	-9.63805
㨗	-9.63809
暫	-9.63816
秩	-9.6383
慎	-9.63841
蔽	-9.63843
蔬	-9.63844
㸔	-9.63846
肆	-9.6385
曬	-9.63863
車駕	-9.63875
介	-9.6388
澗	-9.63892
觸	-9.63901
冊	-9.63903
嗣	-9.63929
司空	-9.64085
芒種	-9.64147
之初	-9.64337
太廟	-9.645
何以	-9.64513
葉如	-9.64717
正旦	-9.65
無所	-9.65187
取之	-9.65345
大雨	-9.65357
三公	-9.65547
仲夏	-9.657
一曰	-9.66182
暈	-9.666
帖	-9.66658
邦	-9.6671
之義	-9.66712
糕	-9.66765
旺	-9.66769
愆	-9.6679
捕	-9.66791
甲寅	-9.66792
蓬	-9.66802
浪	-9.66822
釀	-9.6683
藉	-9.66833
舌	-9.66837
厲	-9.66839
黃	-9.66843
藻	-9.66855
抽	-9.66864
膽	-9.66887
撃	-9.66906
響	-9.66923
漬	-9.66926
裂	-9.66951
膠	-9.66952
原後漢書	-9.66954
詩序	-9.66973
滑	-9.66986
之精	-9.67115
狩	-9.67118
三百六十	-9.67154
曲江	-9.67323
故也	-9.67426
蓮花	-9.67723
十有二	-9.67831
而去	-9.67965
起居	-9.68078
之言	-9.68379
者皆	-9.68633
莫不	-9.68786
御書	-9.68818
山中	-9.6886
第一	-9.68944
天寳	-9.69098
立春日	-9.69102
司天	-9.69402
其所	-9.69469
賜宴	-9.69548
之餘	-9.69585
増管子	-9.698
䨇	-9.6985
斫	-9.69853
闌	-9.69865
陌	-9.69876
狗	-9.69878
瑩	-9.6989
絮	-9.69891
樽	-9.69912
拱	-9.69918
湘	-9.69921
隴	-9.69921
耐	-9.69926
秉	-9.69935
纂	-9.69936
輒	-9.69937
檢	-9.69942
吞	-9.69944
倦	-9.69957
瞻	-9.69975
紛	-9.69992
敗	-9.69994
檀	-9.69994
奔	-9.69997
舎	-9.69999
想	-9.70014
陂	-9.70017
耶	-9.70025
矢	-9.70038
汲	-9.70045
激	-9.70048
春生	-9.70057
鈎	-9.70076
鞠	-9.70078
食貨志	-9.70085
濃	-9.70089
繋	-9.70109
再拜	-9.70181
雜記	-9.70327
増史記	-9.70364
宜春	-9.70373
五穀	-9.7041
戊子	-9.70416
庚子	-9.70482
農事	-9.70574
五星	-9.70584
之始	-9.70615
禮畢	-9.70665
人神	-9.70713
各一	-9.70744
政和	-9.70812
山川	-9.70857
太和	-9.71049
五刻	-9.71146
山谷	-9.7117
呼為	-9.71241
人間	-9.71373
武帝紀	-9.71485
飲食	-9.71607
十里	-9.71767
嵗時	-9.71818
貞元	-9.71951
侍中	-9.72016
以後	-9.72202
順時	-9.72377
子時	-9.72385
上言	-9.72483
以象	-9.72887
嫩	-9.73018
百里	-9.73046
俯	-9.73069
増水經注	-9.73084
饒	-9.73101
圭	-9.73117
裹	-9.73123
欽	-9.73125
輔臣	-9.73128
鐡	-9.73146
爪	-9.73155
濁	-9.73156
淳化	-9.73165
普	-9.7317
鴻	-9.73182
縁	-9.73187
雌	-9.73187
蒙	-9.73194
増酉陽雜俎	-9.73197
怨	-9.73202
諭	-9.73206
徙	-9.73213
趨	-9.73218
也者	-9.7322
屢	-9.73225
脱	-9.73238
基	-9.73242
沸	-9.73245
寐	-9.73245
禦	-9.73255
浩	-9.73255
増後漢書	-9.73257
盂	-9.7326
刈	-9.73265
輟	-9.73268
穗	-9.73271
弄	-9.73273
脩	-9.73277
筒	-9.73289
此時	-9.73301
味甘	-9.73309
雕	-9.73326
之不	-9.73531
自是	-9.73588
今日	-9.7362
豐年	-9.73649
狀如	-9.73653
不同	-9.73683
人日	-9.73764
士女	-9.73818
故名	-9.74047
日為	-9.74109
遊方	-9.7411
土人	-9.74132
菊花	-9.74153
有三	-9.74266
原爾雅	-9.74302
星辰	-9.74514
中元	-9.74586
年七月	-9.74589
子曰	-9.74826
焚	-9.74854
火候	-9.74867
十九	-9.75118
午時	-9.75194
衣服	-9.75256
三四	-9.75321
四海	-9.75365
彭	-9.75922
人皆	-9.75992
十一年	-9.76066
上曰	-9.76129
清風	-9.76211
三年十一月	-9.76269
朶	-9.76328
芸	-9.76371
縱	-9.76383
稽	-9.76408
蝶	-9.76426
耗	-9.76427
昴	-9.76435
范成大	-9.76449
僚	-9.76458
甫	-9.7646
暇	-9.76462
磬	-9.76474
副	-9.76491
尼	-9.76495
燃	-9.76503
濶	-9.76505
了	-9.76509
浦	-9.7655
榖雨	-9.76552
健	-9.76563
憲	-9.76565
儉	-9.76566
窺	-9.76568
宛	-9.7657
卑	-9.76573
闔	-9.76578
錯	-9.76606
酢	-9.76608
侵	-9.76623
衙	-9.76638
妾	-9.76661
蟹	-9.76665
敎	-9.76691
仲冬	-9.76709
二尺	-9.76759
后土	-9.76829
朝日	-9.76845
故云	-9.76917
漢書	-9.77418
増舊唐書	-9.77504
増蘇軾	-9.77609
祭祀	-9.77677
物也	-9.77892
河東	-9.77948
使者	-9.78007
出於	-9.78034
一刻	-9.78108
三伏	-9.78179
郊祀	-9.78226
其實	-9.78456
則為	-9.78597
四刻	-9.78751
子孫	-9.79074
翰林	-9.79268
大火	-9.79322
增禮	-9.79534
之一	-9.79538
大水	-9.79681
十三年	-9.79757
尖	-9.79779
増拾遺記	-9.79808
為人	-9.79811
閤	-9.79813
超	-9.79834
鈴	-9.7984
皆以	-9.79846
巷	-9.79856
涸	-9.79876
腎	-9.79876
活	-9.79878
圎	-9.79892
薛	-9.79906
酘	-9.79922
巾	-9.79924
網	-9.79928
妓	-9.79935
熊	-9.79955
鏤	-9.79962
硯	-9.79964
鬚	-9.79966
救	-9.79967
菩薩	-9.79976
燎	-9.79984
赫	-9.79984
擬	-9.79988
魁	-9.79988
大者	-9.79991
耆	-9.79991
幣	-9.80009
迹	-9.8001
瓦	-9.80017
屯	-9.80017
帷	-9.80017
袁	-9.80017
審	-9.8002
料	-9.80038
危	-9.80048
鍼	-9.8005
靜	-9.80053
天文志	-9.80055
都人	-9.80063
鵝	-9.80077
箔	-9.80085
述	-9.80086
淘	-9.80093
黎	-9.80101
簫	-9.80109
浣	-9.8011
墓	-9.80127
弗	-9.80137
原荆楚嵗時記	-9.80207
冥	-9.80221
二分	-9.80329
増禮	-9.80375
講武	-9.80433
仁宗	-9.80643
日入	-9.80802
杏花	-9.81023
東郊	-9.81078
東風	-9.81195
風吹	-9.81237
昨	-9.81626
州刺史	-9.81698
公曰	-9.81784
萬嵗	-9.8183
来年	-9.81916
以此	-9.82431
二月二日	-9.82667
於天	-9.82697
各以	-9.82856
主人	-9.82952
宴於	-9.83082
至此	-9.83155
光明	-9.83215
周天	-9.83284
以示	-9.83316
嗟	-9.8339
葱	-9.83392
豹	-9.83404
墮	-9.8341
醒	-9.83437
増玉海祥符	-9.83441
原參同契朝	-9.83451
敷	-9.83454
稷	-9.83467
盞	-9.83474
殻	-9.83484
砂	-9.83497
歛	-9.83497
蘆	-9.835
薺	-9.83507
蓄	-9.83518
塊	-9.83518
纔	-9.83522
胥	-9.83525
衢	-9.83532
胎	-9.83543
倚	-9.83547
芻	-9.8355
醴	-9.83563
賊	-9.83567
藤	-9.83568
額	-9.83579
箕	-9.83582
銷	-9.83596
裁	-9.83614
幡	-9.83614
天門	-9.83617
邉	-9.83642
滯	-9.83643
糧	-9.8367
菖蒲	-9.83735
札	-9.83747
閭	-9.83773
鈞	-9.83774
濯	-9.83793
嘉禾	-9.83795
五帝	-9.83859
皇后	-9.84101
平旦	-9.84203
長短	-9.84308
又曰	-9.84321
節序	-9.84384
古今	-9.84516
中星	-9.84543
初五日	-9.84582
必有	-9.84729
甕中	-9.84921
勿令	-9.85085
不出	-9.85087
得其	-9.85116
三升	-9.85166
何也	-9.85328
置酒	-9.8534
其事	-9.85559
而成	-9.85787
小雪	-9.85853
初置	-9.85903
原易	-9.85908
每至	-9.8629
某	-9.86429
飲之	-9.86858
以水	-9.86865
太隂	-9.86923
話	-9.86982
土王	-9.86998
長春	-9.8709
祁	-9.871
請以	-9.87126
贈	-9.87154
鞍	-9.87155
彦	-9.87161
怒	-9.87166
顆	-9.87172
爭	-9.87184
軟	-9.87187
邀	-9.87193
割	-9.87202
增本草綱目	-9.87225
十七	-9.87228
綱	-9.87231
芟	-9.87233
羔	-9.8724
淫	-9.87244
標	-9.87247
專	-9.87247
喧	-9.87248
驛	-9.87249
蟄蟲	-9.87251
步	-9.87251
儲	-9.87253
稀	-9.8727
瓠	-9.87272
麫	-9.87277
貌	-9.87296
菰	-9.87297
炙	-9.87298
扈	-9.87305
裙	-9.87306
䖏	-9.87316
轡	-9.87316
甜	-9.87323
豪	-9.8733
炬	-9.87339
靖	-9.87343
為正	-9.87374
伴	-9.87407
昬	-9.87417
太蔟	-9.87419
可種	-9.87467
寡	-9.87504
以成	-9.87548
司徒	-9.87588
玉海	-9.87638
西京	-9.87649
以備	-9.87696
萬年	-9.87825
長生	-9.87853
縣志	-9.87967
童子	-9.88021
冬日	-9.88327
寒露	-9.88413
五六月	-9.88618
隂陽之	-9.88703
黄花	-9.88751
日夜	-9.88758
二人	-9.88862
中旬	-9.8905
孟夏	-9.89187
三刻	-9.8937
子弟	-9.89422
黄道	-9.90209
一度	-9.90372
在天	-9.90683
白虎通	-9.90782
薇	-9.90825
春時	-9.90852
之神	-9.90869
大暑	-9.90889
療	-9.90903
爾雅	-9.90915
一夕	-9.90924
茹	-9.90938
漲	-9.90976
灘	-9.90991
寜	-9.91003
嘯	-9.91012
趙孟頫	-9.91012
坑	-9.91014
斑	-9.91016
紹	-9.91018
増續文獻通考	-9.9102
数	-9.91021
歇	-9.91033
小寒	-9.91033
乍	-9.91035
斧	-9.91035
翅	-9.91041
瓣	-9.91051
徽	-9.91051
卉	-9.91064
歐陽	-9.91066
價	-9.91066
略	-9.9107
插	-9.91072
稼	-9.91074
装	-9.91076
鬭	-9.9108
渉	-9.91087
紗	-9.91094
勉	-9.91095
竅	-9.91096
増陶朱公書	-9.91102
濤	-9.91104
狐	-9.91106
十五年	-9.9111
襟	-9.91112
簷	-9.91114
寂	-9.91116
跡	-9.91116
孕	-9.91123
淳	-9.91123
巽	-9.9113
稲	-9.91131
五經	-9.91133
奠	-9.91133
脉	-9.91137
蕪	-9.9114
伊	-9.91142
女子	-9.91146
馮	-9.91148
秘閣	-9.91162
攤	-9.91162
歷	-9.91163
冶	-9.91164
漉	-9.91165
杪	-9.91165
排	-9.91181
那	-9.9119
禮部	-9.91196
蓼	-9.91198
敦	-9.91202
未央	-9.91211
番	-9.9123
彈	-9.91237
遽	-9.91249
奪	-9.91267
東坡	-9.9128
併	-9.91282
父母	-9.91282
痛	-9.91307
習射	-9.91338
婦女	-9.91378
衞	-9.91392
増通典	-9.91412
逺近	-9.91476
將軍	-9.91489
二年九月	-9.91583
孝經	-9.91785
至秋	-9.91938
登髙	-9.91958
也疏	-9.92111
其葉	-9.92181
無不	-9.92236
中國	-9.92401
不過	-9.92523
於東	-9.92665
内外	-9.9267
成都	-9.92747
枝葉	-9.92846
之上	-9.9326
以待	-9.93342
九十	-9.93349
見之	-9.93692
月朔	-9.93798
時雨	-9.93906
有四	-9.93926
注云	-9.94125
嵗星	-9.94278
上已	-9.94413
無事	-9.9445
地氣	-9.94512
南風	-9.94676
桓	-9.94702
太一	-9.94747
台	-9.94888
之官	-9.94902
夏小正	-9.94921
原管子	-9.94938
鯉	-9.9495
垣	-9.94958
几	-9.94988
乏	-9.94996
蝗	-9.95006
羲	-9.95008
拒	-9.95018
蓴	-9.95018
珪	-9.95018
腸	-9.95022
芥	-9.95028
㧞	-9.95034
禊	-9.95044
浙	-9.95054
踰	-9.95056
攻	-9.95059
股	-9.95061
韶	-9.95063
屏	-9.95064
蟻	-9.95065
仕	-9.9507
泣	-9.95072
見一	-9.95073
餳	-9.95077
慕	-9.9508
攝	-9.95084
飽	-9.95086
竇	-9.95086
析	-9.9509
舂	-9.95098
亷	-9.95104
饋	-9.95116
沐浴	-9.95119
剝	-9.9512
眉	-9.95145
荘	-9.95146
减	-9.95147
汾	-9.95147
希	-9.95148
俟	-9.95149
飢	-9.95149
齎	-9.9515
史記	-9.95187
𨽻	-9.95191
臼	-9.95191
鼻	-9.95193
駒	-9.95205
書禮志	-9.95209
男女	-9.95229
畱	-9.95239
夜夢	-9.95259
朋	-9.95259
黨	-9.95261
卓	-9.95273
皎	-9.95281
鳥獸	-9.95303
唐太宗	-9.95327
觀之	-9.95372
太后	-9.95388
子午	-9.95465
小者	-9.95582
時令	-9.95683
初八日	-9.95707
桑葉	-9.9572
其子	-9.95803
候選	-9.95813
名也	-9.95829
状如	-9.95835
車馬	-9.95892
上帝	-9.95944
即位	-9.96014
觀燈	-9.96017
侍郎	-9.96091
泰山	-9.96143
百草	-9.96145
不成	-9.96301
二年十一月	-9.96414
一嵗之	-9.96486
然則	-9.96494
有二	-9.96531
采根	-9.96632
在地	-9.96646
二刻	-9.9667
十二辰	-9.96693
百餘	-9.96703
萬里	-9.96705
以金	-9.96741
小滿	-9.96757
元旦	-9.96773
風俗	-9.96812
結子	-9.96863
數日	-9.97129
家人	-9.97319
朔旦	-9.97349
以十月	-9.97433
三斗	-9.97659
上夀	-9.97888
是時	-9.9789
黄龍	-9.979
月初	-9.97906
初生	-9.98248
先是	-9.98312
天文	-9.9832
生者	-9.98339
之音	-9.98379
成熟	-9.98496
古者	-9.98514
輅	-9.98657
糖	-9.99051
廬	-9.99066
岡	-9.99109
冲	-9.9912
昆	-9.99121
釵	-9.99147
崖	-9.9917
蠧	-9.99174
㫁	-9.9918
箇	-9.99201
絡	-9.99203
跪	-9.99211
胃	-9.99218
原遵生八牋	-9.99239
棄	-9.99241
袍	-9.99242
増左𫝊	-9.99245
懼	-9.99255
㳺	-9.99256
操	-9.99257
芬	-9.99261
糜	-9.99263
摘	-9.9929
朗	-9.99307
鋪	-9.99309
俊	-9.99321
快	-9.99328
瑟	-9.99328
丁亥	-9.99331
截	-9.99332
創	-9.9934
甲乙	-9.99342
豕	-9.99351
貸	-9.99356
蜡	-9.99361
邱	-9.9938
京兆	-9.99384
餞	-9.99393
餌	-9.994
嘆	-9.994
陛下	-9.99413
風土記	-9.99417
酒食	-9.99422
五百	-9.99443
霍	-9.99461
音比	-9.99494
寵	-9.99502
一莖	-9.99575
使人	-9.99594
増易通卦驗	-9.99596
煥	-9.99649
之下	-9.99749
半月	-9.99779
丙子	-9.99819
元豐	-9.99841
自今	-9.99897
天時	-10.0008
山在	-10.0025
増王	-10.0042
見於	-10.0047
水浸	-10.0049
前一日	-10.0054
有五	-10.0058
知縣	-10.0061
之令	-10.0068
冬至後	-10.0075
元年正月	-10.0084
東井	-10.0093
曰我	-10.0096
下有	-10.0112
也謂	-10.02
南海	-10.0201
從官	-10.0224
八分	-10.0237
氣候	-10.0249
申時	-10.0283
有光	-10.0294
里有	-10.0306
人有	-10.0307
賜之	-10.0311
韓愈	-10.0318
不用	-10.032
流水	-10.0321
和氣	-10.0333
蕉	-10.0342
恨	-10.0344
飼	-10.0345
太子	-10.0345
騐	-10.035
促	-10.0351
携	-10.0351
牕	-10.0353
灼	-10.0354
智	-10.0354
壅	-10.0355
填	-10.0355
䕃	-10.0356
叟	-10.0356
兄	-10.0358
緯	-10.0358
穰	-10.0358
潜	-10.0359
互	-10.036
掛	-10.036
冬則	-10.036
旂	-10.036
勾	-10.0361
饌	-10.0361
阜	-10.0362
偃	-10.0362
况	-10.0362
漆	-10.0363
廼	-10.0363
縮	-10.0364
沛	-10.0364
詰	-10.0365
往往	-10.0365
潘	-10.0367
丙寅	-10.0368
挂	-10.0368
俸	-10.0369
溫	-10.037
丙午	-10.0371
奇	-10.0371
壊	-10.0371
己酉	-10.0371
瑶	-10.0372
迷	-10.0376
鄙	-10.0376
也今	-10.0381
賔客	-10.0385
營室	-10.0388
又云	-10.0403
於地	-10.0404
人謂之	-10.0409
二十四氣	-10.0411
冬至日	-10.0422
太極	-10.0425
夏之	-10.0429
八九	-10.0431
増魏書	-10.0437
秋風	-10.0443
諸軍	-10.0444
毎嵗	-10.0449
閏餘	-10.0453
年年	-10.0477
其根	-10.0478
未嘗	-10.0485
増易	-10.0487
多少	-10.0516
臘日	-10.0523
玉女	-10.053
水上	-10.0531
月令曰	-10.0531
増玉海紹興	-10.0538
十四年	-10.0543
舍人	-10.0552
因以	-10.0559
又有	-10.056
草生	-10.0578
無人	-10.0581
於時	-10.06
終日	-10.0601
縣西	-10.0604
久之	-10.0631
小豆	-10.0637
南山	-10.0651
此月	-10.0679
為陽	-10.0706
百二十	-10.072
亦曰	-10.0738
花開	-10.0738
可作	-10.075
俄	-10.0755
色白	-10.0764
常有	-10.077
正月一日	-10.0778
百刻	-10.0779
殿前	-10.079
其數	-10.0791
蔀	-10.0792
呌	-10.0795
而小	-10.0798
區	-10.0798
有異	-10.0798
増圖經本草	-10.0803
闗	-10.0804
重九	-10.0805
脆	-10.0809
拾	-10.0809
没	-10.081
之内	-10.081
七言詩	-10.0811
聊	-10.0811
酣	-10.0811
瘡	-10.0812
决	-10.0812
增管子	-10.0812
狂	-10.0813
削	-10.0813
湧	-10.0813
邸	-10.0814
拔	-10.0814
賛	-10.0814
扉	-10.0815
電	-10.0815
葡萄	-10.0815
廷	-10.0815
人也	-10.0815
斬	-10.0817
嬪	-10.0817
䆫	-10.0818
後十五日斗指	-10.0818
透	-10.0818
兄弟	-10.0819
渭	-10.082
俾	-10.0821
叙	-10.0821
婁	-10.0821
臯	-10.0822
潦	-10.0822
鴉	-10.0823
戊寅	-10.0823
凖	-10.0823
虧	-10.0823
牓	-10.0824
匠	-10.0825
胄	-10.0825
刹	-10.0828
㽔賔	-10.0828
遁	-10.0828
李嶠	-10.0832
泄	-10.0834
葭	-10.0834
廽	-10.0837
藏之	-10.0838
帖子	-10.085
初四日	-10.0853
東方朔	-10.0856
李賀	-10.0859
元宵	-10.0862
衣冠	-10.0869
除夕	-10.0873
其聲	-10.0876
七十二	-10.0885
涼風	-10.0895
五六	-10.0907
白虎	-10.0912
三五	-10.0916
之末	-10.0929
文章	-10.0942
神光	-10.0946
下種	-10.0949
小暑	-10.095
孟子	-10.0953
君臣	-10.0956
有白	-10.0957
三元	-10.097
赤道	-10.0989
乃止	-10.099
王公	-10.1002
海中	-10.1009
老人	-10.101
其氣	-10.1022
種者	-10.1035
水旱	-10.1041
晝日	-10.1051
相傳	-10.1053
亦可	-10.1064
今朝	-10.108
寒氣	-10.1083
不盡	-10.11
人以	-10.1107
也又	-10.1133
以應	-10.1148
縣有	-10.1154
州縣	-10.1168
五寸	-10.1175
公主	-10.1179
夏則	-10.1211
十卷	-10.124
雨雪	-10.125
未有	-10.125
晝則	-10.1259
篆	-10.1272
牽	-10.1275
伺	-10.1278
祫	-10.1279
與之	-10.1279
庾	-10.128
翰	-10.1283
冕	-10.1283
增後漢書	-10.1284
其樹	-10.1284
峰	-10.1284
亘	-10.1285
嚢	-10.1285
現	-10.1286
梧	-10.1286
籬	-10.1287
猿	-10.1288
鴨	-10.1289
牆	-10.1289
須臾	-10.129
脾	-10.129
漢書律歴志	-10.129
柰	-10.1292
畆	-10.1292
悟	-10.1292
雲氣	-10.1292
隣	-10.1292
酥	-10.1293
増金史	-10.1293
強	-10.1293
人掌	-10.1293
芙蓉	-10.1293
屠	-10.1294
戊巳	-10.1294
遵	-10.1294
隻	-10.1294
挺	-10.1294
梗	-10.1294
疇	-10.1295
汎	-10.1295
揖	-10.1295
討	-10.1296
遼	-10.1296
周易集解	-10.1296
雛	-10.1297
増國語	-10.1297
勲	-10.1297
策	-10.1297
喬	-10.1297
十二年	-10.1298
厨	-10.1299
擲	-10.13
増春秋繁露	-10.13
蛟	-10.1302
社稷	-10.1302
敏	-10.1303
覩	-10.1305
太乙	-10.1306
隊	-10.1309
作樂	-10.131
㕔	-10.1311
丙辰	-10.1312
畿	-10.1312
暴乾	-10.1312
賢良	-10.1313
㤙	-10.1313
賜近臣	-10.1314
嶺南	-10.1314
藉田	-10.1316
是故	-10.1326
原史記	-10.1329
釀酒	-10.133
二年六月	-10.1333
六月六日	-10.1334
高祖	-10.1337
號為	-10.1339
古之	-10.1352
年夏四月	-10.1356
真君	-10.1362
去皮	-10.1364
霜雪	-10.1367
主有	-10.1369
以進	-10.1373
青龍	-10.138
實録	-10.1384
一歲	-10.1384
城門	-10.14
五代	-10.1411
行事	-10.1416
夷則	-10.1417
風從	-10.1421
可愛	-10.1426
空中	-10.144
之本	-10.1446
五尺	-10.1454
太清	-10.1461
從臣	-10.1468
政事	-10.1499
之時也	-10.1514
之際	-10.1524
二十五	-10.1536
天子乃	-10.1538
必以	-10.155
春日	-10.1553
居之	-10.1568
祭天	-10.1582
至則	-10.1593
立秋日	-10.1595
之處	-10.1599
分龍	-10.1602
無雨	-10.1602
其後	-10.1618
弟子	-10.163
社日	-10.1632
城南	-10.1647
形如	-10.1685
物皆	-10.1688
忽有	-10.1689
梅雨	-10.1704
一千	-10.1707
真宗	-10.1711
增漢書	-10.1711
順天	-10.1735
通鑑	-10.1739
至冬	-10.1742
置於	-10.1749
以供	-10.1754
曰朕	-10.1754
之家	-10.1755
霖	-10.1767
以獻	-10.1775
凄	-10.1777
然而	-10.1777
二曰	-10.1778
堤	-10.1778
彘	-10.1778
褐	-10.1779
兌	-10.1779
拘	-10.178
藕	-10.1781
衫	-10.1781
溢	-10.1781
粧	-10.1782
纒	-10.1782
谿	-10.1782
鬻	-10.1783
畔	-10.1783
邵	-10.1783
穂	-10.1784
腦	-10.1784
駟	-10.1784
蒜	-10.1785
疋	-10.1786
怠	-10.1788
兎	-10.1788
阮	-10.1788
菴	-10.1789
陟	-10.1789
原開天遺事	-10.1789
熏	-10.179
哲	-10.179
㦸	-10.1791
嬉	-10.1791
釣	-10.1792
挑	-10.1792
樵	-10.1792
茱萸	-10.1792
㝠	-10.1793
醬	-10.1793
蚤	-10.1793
增宋史	-10.1793
蠅	-10.1794
濵	-10.1794
拾遺	-10.1794
鉤	-10.1795
榜	-10.1795
元年四月	-10.1795
播	-10.1796
剖	-10.1796
牌	-10.1797
誓	-10.1797
祝融	-10.1798
原國語	-10.1798
毫	-10.1798
聨	-10.1799
楮	-10.1799
岑	-10.18
酬	-10.18
知其	-10.18
宦	-10.1802
鑑	-10.1802
眞	-10.1802
眷	-10.1802
加十五日斗指	-10.1802
鑰	-10.1803
嘉祐	-10.1807
廵狩	-10.1807
鮪	-10.1809
其下	-10.181
元祐	-10.1811
連理	-10.1811
甲申	-10.1815
舉人	-10.182
元氣	-10.1825
米貴	-10.1828
故為	-10.1829
甲午	-10.183
十刻	-10.1835
詩話	-10.1835
一宿	-10.1838
者所以	-10.1843
一級	-10.1863
増白虎通	-10.1868
金吾	-10.187
千餘	-10.1871
受命	-10.1882
北郊	-10.189
春月	-10.1893
三十六	-10.1895
下旬	-10.1895
可為	-10.1898
春三月	-10.1903
者名	-10.1905
若有	-10.1913
宣和	-10.1916
之半	-10.1918
元夕	-10.1923
夜分	-10.1928
風起	-10.1932
處暑	-10.1932
雪詩	-10.1938
開寳	-10.1946
有所	-10.1946
一寸	-10.1946
者天之	-10.1954
不食	-10.196
相似	-10.1962
燈燭	-10.1969
晴雨	-10.1972
上御	-10.1973
荅	-10.1974
問曰	-10.1983
月八日	-10.1987
起於	-10.1998
山下	-10.2002
親王	-10.2011
七八月	-10.2029
八九月	-10.2066
之制	-10.2071
人呼為	-10.2078
二年四月	-10.2086
三分	-10.2092
内有	-10.2122
宋書符瑞志	-10.2154
夏正	-10.2157
文公	-10.2161
有聲	-10.2164
有小	-10.2166
不宜	-10.2179
故有	-10.2182
古人	-10.2186
初六日	-10.2194
名為	-10.2221
而有	-10.2226
數千	-10.2246
月為	-10.2251
凋	-10.2254
乃命	-10.2259
學者	-10.2265
増史記天官書	-10.2265
得一	-10.2266
衍	-10.2281
芎	-10.2285
周公	-10.229
也註	-10.2292
九天	-10.2299
陛	-10.23
春氣	-10.2301
墾	-10.2301
色青	-10.2302
孚	-10.2302
者謂之	-10.2303
粗	-10.2303
萼	-10.2304
蛤	-10.2305
綾	-10.2308
淑	-10.2308
荆楚歳時記	-10.2309
芹	-10.2313
氊	-10.2313
臥	-10.2313
緣	-10.2314
早春	-10.2314
啖	-10.2314
費	-10.2315
會稽	-10.2315
乂	-10.2315
簟	-10.2315
䑓	-10.2317
宸	-10.2317
窟	-10.2317
鵠	-10.2317
鄴	-10.2318
峽	-10.2318
櫻桃	-10.2319
欄	-10.2319
筠	-10.2319
軸	-10.2319
稜	-10.232
顓頊	-10.232
汴	-10.2321
漠	-10.2321
貴賤	-10.2322
庻	-10.2322
南至	-10.2322
軫	-10.2322
豬	-10.2322
聰	-10.2323
覧	-10.2323
範	-10.2324
幄	-10.2324
醪	-10.2324
蟾	-10.2324
貼	-10.2324
粲	-10.2324
縦	-10.2325
遞	-10.2325
庸	-10.2325
多雨	-10.2325
廊	-10.2326
稠	-10.2327
逄	-10.2327
奕	-10.2327
寤	-10.2327
滄	-10.2327
夭	-10.2328
婢	-10.2328
郷	-10.2329
醤	-10.2329
娥	-10.233
昧	-10.2331
庚寅	-10.2331
丁巳	-10.2332
亨	-10.2332
剥	-10.2334
孰	-10.2336
菱	-10.2337
滌	-10.2338
城郭	-10.2338
壬午	-10.2338
家貧	-10.2338
斗柄	-10.2339
倫	-10.2345
己未	-10.2346
曝乾	-10.2346
酎	-10.2348
煒	-10.2351
将軍	-10.2356
昆明	-10.2357
毎歳	-10.2368
不凋	-10.2369
增周禮	-10.2371
眀堂	-10.2375
三輔	-10.2388
進退	-10.2395
天下之	-10.2405
莖葉	-10.2407
功臣	-10.2408
初七日	-10.2414
黄雀	-10.2416
而行	-10.2422
翰林學士	-10.2436
十分	-10.2437
圖經	-10.2441
有人	-10.2453
置閏	-10.2457
十七年	-10.2477
初三日	-10.2477
秋氣	-10.2481
一葉	-10.2501
盛徳	-10.2508
相見	-10.2516
瑞雪	-10.2521
迎氣	-10.2531
其花	-10.2541
千年	-10.2558
每日	-10.2571
龍見	-10.2585
國家	-10.2613
號曰	-10.264
春雨	-10.2643
觀者	-10.2644
來年	-10.2662
四十八	-10.2664
何如	-10.2671
四百	-10.2679
半夜	-10.2686
二年五月	-10.2707
月色	-10.2711
盛於	-10.2711
黄門	-10.2752
不絶	-10.2755
吉日	-10.2783
二寸	-10.2789
元年五月	-10.2801
一丈	-10.2802
朝賀	-10.2806
白雲	-10.2839
於庭	-10.2842
般	-10.2842
獻之	-10.2843
瀆	-10.285
蜩	-10.2854
肯	-10.2857
葩	-10.2858
嬰	-10.2858
吸	-10.286
寇	-10.286
培	-10.2861
奮	-10.2861
肩	-10.2862
鄰	-10.2863
糟	-10.2866
針	-10.2866
狼	-10.2866
鮓	-10.2866
熙寧	-10.2866
喚	-10.2867
賽	-10.2867
萍	-10.2867
麋	-10.2867
税	-10.2868
靡	-10.2868
撒	-10.2868
收之	-10.2868
如何	-10.2868
襲	-10.2868
幼	-10.2868
淹	-10.2869
燠	-10.2869
嫌	-10.2869
吉凶	-10.287
閩	-10.287
飭	-10.287
匱	-10.287
妖	-10.287
匝	-10.287
耒	-10.287
原四民月令	-10.2872
猪	-10.2873
匪	-10.2873
複	-10.2873
杵	-10.2873
膝	-10.2873
臂	-10.2873
返	-10.2873
鳳凰	-10.2873
霑	-10.2873
寓	-10.2875
原陶朱公書	-10.2875
跳	-10.2876
憑	-10.2877
晡	-10.2877
菽	-10.2877
亟	-10.2877
刋	-10.2877
茄	-10.2877
逮	-10.2878
辛巳	-10.2878
督	-10.2878
嫁	-10.2879
肇	-10.288
董	-10.288
凶	-10.288
折楊栁	-10.288
輩	-10.288
妨	-10.2881
䖍	-10.2881
磔	-10.2882
雹	-10.2883
棚	-10.2883
禪師	-10.2884
繒	-10.2884
三素雲	-10.2885
増乾淳嵗時記	-10.2885
簮	-10.2885
太尉	-10.2886
己亥	-10.2886
忙	-10.2886
東坡詩云	-10.2888
閤門	-10.2889
嚮	-10.2891
卯酉	-10.2892
亦如之	-10.2892
帽	-10.2892
増法苑珠林	-10.2893
嫗	-10.2894
増唐書百官志	-10.2894
攪	-10.2894
閱	-10.2895
不雨	-10.2896
辛夘	-10.2899
六氣	-10.29
秫	-10.2902
蠶市	-10.2906
通典	-10.2907
戊辰	-10.291
南吕	-10.2922
原禮命	-10.2927
司農	-10.2935
上巳	-10.2935
石上	-10.2944
俄而	-10.2946
正嵗	-10.2953
初二日	-10.2955
宗室	-10.2963
處處	-10.2964
文曰	-10.2974
赤帝	-10.2979
吏民	-10.2985
初九日	-10.2989
何處	-10.2999
延年	-10.2999
以木	-10.3006
一卷	-10.3016
少陽	-10.3019
以聞	-10.3019
非常	-10.3022
樂章	-10.3022
王維	-10.3023
辰星	-10.3025
毎年	-10.3027
中和	-10.3039
門下	-10.3043
景龍	-10.3056
一陽	-10.3083
望日	-10.3094
嵗首	-10.3096
清明日	-10.3135
明月	-10.314
大臣	-10.3146
奏事	-10.3151
四年十一月	-10.3159
入學	-10.3159
之候	-10.316
其形	-10.3172
不覺	-10.3175
其法	-10.3182
自此	-10.3184
大旱	-10.3188
大熟	-10.3191
樹木	-10.3193
亦不	-10.3193
正中	-10.3202
二十七	-10.3211
春色	-10.3219
卿等	-10.3228
初夏	-10.3228
二月八日	-10.3248
有年	-10.3248
之意	-10.3256
孟秋	-10.3258
萬物皆	-10.326
農桑	-10.3297
禮儀	-10.3301
荆州	-10.3302
青色	-10.3307
已後	-10.3312
諸生	-10.3316
其餘	-10.3322
山林	-10.333
郡縣	-10.3331
祭於	-10.3356
帝曰	-10.3357
家家	-10.3357
色如	-10.3361
俗以	-10.3367
諺	-10.3372
夢中	-10.3375
八月采	-10.3375
州人	-10.3383
之夕	-10.3392
元年九月	-10.3393
不失	-10.3396
淮南	-10.341
株	-10.3417
石榴	-10.3438
菌	-10.344
淳熙	-10.3441
十八年	-10.3443
螢	-10.3443
踈	-10.3445
姦	-10.3446
沈約	-10.3447
謂曰	-10.3447
牖	-10.345
☱	-10.3451
扁	-10.3451
蒔	-10.3452
糠	-10.3452
犁	-10.3453
烹	-10.3454
纎	-10.3454
亞	-10.3454
漚	-10.3454
競渡	-10.3455
牡	-10.3455
謨	-10.3456
喉	-10.3456
殆	-10.3457
逼	-10.3457
繕	-10.3457
圜	-10.3457
春酒	-10.3458
皁	-10.3458
辯	-10.3458
柘	-10.3458
類	-10.3458
謙	-10.3458
弧	-10.3459
褥	-10.3459
劣	-10.3459
諌	-10.346
原選擇歴書二	-10.346
峻	-10.346
距	-10.346
缺	-10.346
樹下	-10.3461
隕	-10.3461
鷺	-10.3461
逍遥	-10.3461
耘	-10.3462
長夏	-10.3462
原雜占	-10.3462
演	-10.3463
乙酉	-10.3463
慰	-10.3463
洽	-10.3464
迭	-10.3464
曠	-10.3464
庚戌	-10.3464
蹄	-10.3464
濡	-10.3465
暄	-10.3465
為末	-10.3466
抄	-10.3466
糉	-10.3467
珥	-10.3467
驢	-10.3468
泊	-10.3468
攸	-10.3468
聘	-10.3469
滓	-10.3469
勁	-10.347
颯	-10.347
慧	-10.347
蓂	-10.3471
鮑	-10.3471
隙	-10.3471
江淮	-10.3472
李白詩	-10.3472
貺	-10.3473
妄	-10.3474
踐	-10.3474
遙	-10.3476
括	-10.3476
郡守	-10.3476
稼穡	-10.3477
之物	-10.3478
増内經	-10.3478
觀稼	-10.348
瀉	-10.3481
消息	-10.3483
一種	-10.3485
十日一	-10.3485
邦國	-10.3486
幷	-10.3488
林鍾	-10.3492
壮	-10.3503
張説	-10.3505
父老	-10.351
斗指	-10.3511
庚辰	-10.3513
次第	-10.3515
吏部	-10.3516
數丈	-10.3521
絲竹	-10.3522
次五日	-10.3538
鬼神	-10.3543
盛暑	-10.3551
數尺	-10.3563
二年八月	-10.3567
至今	-10.3568
餘分	-10.3568
夜雨	-10.3568
命有司	-10.357
初十日	-10.3571
有功	-10.3576
四年四月	-10.3577
之聲	-10.3587
廣州	-10.3587
八尺	-10.3591
採之	-10.36
樂府	-10.3606
日暮	-10.3631
之氣也	-10.3632
相對	-10.3635
右主	-10.364
玉堂	-10.3655
冬官	-10.3662
海上	-10.3666
侍讀	-10.3667
欲知	-10.3669
陰陽	-10.3679
麻子	-10.3687
文帝	-10.3696
未盡	-10.3698
白鶴	-10.3731
行禮	-10.3733
為小	-10.3738
叢生	-10.3749
卯時	-10.375
太初	-10.376
作詩	-10.376
京城	-10.3761
城東	-10.3773
不為	-10.3773
以紀	-10.3808
皆可	-10.3812
帝君	-10.3812
熟時	-10.3817
初一日	-10.3823
雞子	-10.3824
人多	-10.3834
一枝	-10.384
二十一	-10.3852
北風	-10.3874
漢書武帝紀	-10.3885
生葉	-10.3899
今人	-10.3903
覆之	-10.3915
暑月	-10.392
都城	-10.3926
四年二月	-10.3934
黄雲	-10.3954
一朝	-10.3961
秋七月	-10.3968
俗名	-10.3971
以来	-10.3975
新年	-10.3978
聞之	-10.3988
北極	-10.399
至于	-10.3995
上親	-10.3997
民事	-10.3998
白如	-10.4019
氏之	-10.4034
元正	-10.4043
獺	-10.4062
媚	-10.4066
紋	-10.4071
的	-10.4073
枸杞	-10.4073
☴	-10.4073
睿	-10.4073
丙戌	-10.4074
旄	-10.4074
☶	-10.4075
梓	-10.4076
荀	-10.4076
諷	-10.4077
原南史	-10.4077
闢	-10.4077
原埤雅	-10.4077
拌	-10.4079
炒	-10.4079
坼	-10.408
掾	-10.408
净	-10.408
億	-10.4081
墳	-10.4081
膾	-10.4081
薰	-10.4081
蓐收	-10.4082
閙	-10.4082
以竹	-10.4082
穎	-10.4083
翳	-10.4083
鄧	-10.4084
楊萬里	-10.4084
忍	-10.4084
咽	-10.4084
矩	-10.4085
婚	-10.4085
苞	-10.4085
戈	-10.4085
梵	-10.4085
紺	-10.4085
姚	-10.4085
糶	-10.4085
夣	-10.4085
愧	-10.4086
廷尉	-10.4087
泗	-10.4087
柑	-10.4087
亊	-10.4087
遮	-10.4087
耿	-10.4088
髮	-10.4088
陽春	-10.4088
元稹	-10.4089
槎	-10.4089
疊	-10.4089
捨	-10.4089
亢	-10.4089
劇	-10.409
臻	-10.409
増唐書禮樂志	-10.409
挽	-10.409
押	-10.4091
原雲笈七籖	-10.4091
藁	-10.4092
弊	-10.4092
癸巳	-10.4092
訣	-10.4092
增左傳	-10.4092
奈	-10.4093
劒	-10.4094
祚	-10.4094
緋	-10.4094
荚	-10.4095
風俗通	-10.4096
儺	-10.4096
鳯凰	-10.4096
甲戌	-10.4098
鑾	-10.4098
姿	-10.4099
餉	-10.41
鑒	-10.41
獮	-10.41
沾	-10.4101
蚌	-10.4101
紐	-10.4101
敵	-10.4102
哭	-10.4102
途	-10.4103
乞巧	-10.4104
戯	-10.4104
百僚	-10.4104
朝廷	-10.4104
蒐	-10.4104
張衡	-10.4107
畤	-10.4109
齋戒	-10.4111
姑洗	-10.4111
湛	-10.4111
原晉書	-10.4112
縣令	-10.4112
主簿	-10.4118
増帝京景物畧	-10.4119
三寸	-10.4127
毎至	-10.4132
羲和	-10.4133
晦朔	-10.4134
舊俗	-10.4137
早晚	-10.414
辰為	-10.4145
此謂	-10.4147
七月十五日	-10.4149
杭州	-10.4149
循行	-10.4153
侍臣	-10.4153
西北風	-10.4154
伏日	-10.4157
七八	-10.4171
甲辰	-10.4171
水底	-10.4173
應制	-10.4178
諺曰	-10.4189
之卦	-10.4191
以次	-10.4191
朱明	-10.4193
及第	-10.4201
二十八	-10.4204
其名	-10.4207
法善	-10.421
無窮	-10.4219
三年四月	-10.4223
慶雲	-10.4235
龍池	-10.4235
壬寅	-10.4242
曰某	-10.4242
得之	-10.4256
蜀人	-10.4256
老子	-10.4272
江東	-10.4307
十九年	-10.4309
民間	-10.4315
祈榖	-10.4331
禮樂	-10.4344
池中	-10.4359
太元	-10.4372
八刻	-10.4376
其言	-10.4378
増隋書	-10.4381
無射	-10.4393
華山	-10.44
増晋書	-10.4405
焚之	-10.4405
日次	-10.4405
不須	-10.4415
丈餘	-10.4421
黄金	-10.4434
不死	-10.4449
芝生	-10.4467
一章	-10.4472
有差	-10.4497
相去	-10.45
主水	-10.4511
二三月	-10.4519
六出	-10.4523
赤色	-10.4526
原晋書	-10.453
正月十五日	-10.454
其音	-10.4541
二丈	-10.4552
辰巳	-10.4555
光照	-10.4556
已而	-10.4584
種麥	-10.4621
八百	-10.4627
御定月令輯要卷	-10.463
白玉	-10.4641
三年九月	-10.4646
社前	-10.4671
時政	-10.4677
淮南子	-10.4682
漢中	-10.4696
㤗	-10.4702
當時	-10.4704
畦	-10.4706
棉	-10.4713
萊	-10.4721
啇	-10.4722
児	-10.4722
三更	-10.4722
倉庚	-10.4724
疆	-10.4729
邁	-10.4732
芍藥	-10.4732
一升	-10.4733
廩	-10.4734
囬	-10.4736
謀	-10.4738
諧	-10.4738
珊瑚	-10.4739
犧牲	-10.4739
增酉陽雜爼	-10.4739
旛	-10.474
柿	-10.474
砌	-10.474
☳	-10.4741
捲	-10.4743
萃	-10.4744
誅	-10.4744
徼	-10.4744
瀛	-10.4744
芡	-10.4744
☰	-10.4744
原通考	-10.4744
溉	-10.4746
皓	-10.4746
奢	-10.4747
異物志	-10.4747
陪	-10.4747
原左𫝊	-10.4748
幔	-10.4749
墻	-10.4749
府志	-10.4749
床	-10.4749
蝦	-10.4749
麪	-10.475
鬬	-10.4751
東京夢華錄	-10.4751
組	-10.4751
握	-10.4751
崑崙	-10.4751
㑹稽	-10.4752
原農政全書	-10.4754
様	-10.4754
擣	-10.4754
禘	-10.4754
鶉	-10.4755
僅	-10.4755
繪	-10.4755
茫	-10.4755
嗜	-10.4756
膚	-10.4756
冀	-10.4756
冒	-10.4756
稚	-10.4757
盃	-10.4757
渴	-10.4758
閨	-10.4758
囿	-10.4758
壑	-10.476
蓬萊	-10.476
遐	-10.4761
餐	-10.4761
忩	-10.4761
噐	-10.4761
禧	-10.4762
腐	-10.4762
䄂	-10.4764
敞	-10.4764
遯	-10.4764
縈	-10.4764
娱	-10.4764
幅	-10.4765
釐	-10.4765
麝	-10.4765
繇	-10.4766
換	-10.4766
擾	-10.4766
祥瑞	-10.4766
禽獸	-10.4767
㢲	-10.4768
燃燈	-10.4768
弋	-10.4768
鍊	-10.4768
己丑	-10.4769
衣裳	-10.4769
棟	-10.4769
匏	-10.477
増嘉定縣志	-10.477
厠	-10.4771
西王母	-10.4772
唐明皇	-10.4772
頤	-10.4772
該	-10.4773
漢武帝	-10.4775
圜丘	-10.4778
櫻	-10.4778
丁丑	-10.4779
弓弩	-10.4784
天竺	-10.4784
焚香	-10.4787
應制詩	-10.4788
辰時	-10.4793
甘泉	-10.4794
覲	-10.4797
相與	-10.4798
之象也	-10.4804
五行之	-10.4807
増通鑑	-10.4809
集賢	-10.4814
日午時	-10.4814
宴羣臣	-10.4816
冬十月	-10.4816
甚美	-10.4818
侍宴	-10.4823
增晉書	-10.4824
其皮	-10.4828
北面	-10.4829
白鹿	-10.483
桃花水	-10.4838
月之卦也	-10.4841
芝草	-10.4843
賜羣臣	-10.485
六時	-10.4853
仲月	-10.4853
詞云	-10.4856
黄昏	-10.4856
御樓	-10.4867
薦新	-10.4869
百蟲	-10.4871
大閲	-10.488
紫色	-10.4904
一枚	-10.4907
夏至日	-10.4908
紅色	-10.4911
土牛	-10.4913
土功	-10.4913
三年正月	-10.4924
東向	-10.4928
元君	-10.4929
七刻	-10.4941
五色雲	-10.4944
之始也	-10.4946
而止	-10.4959
翰林院	-10.4962
神農	-10.4964
飛去	-10.4964
魏文帝	-10.4987
壬癸	-10.4995
亦名	-10.5012
癸亥	-10.5018
享先	-10.5031
王母	-10.5036
貢舉	-10.5038
心星	-10.5052
上辛	-10.5061
除夜	-10.5066
色黄	-10.5075
去年	-10.5087
號令	-10.5107
正月朔	-10.5136
雨後	-10.5138
郎中	-10.5149
先王	-10.5161
所居	-10.518
辰戌	-10.5226
一兩	-10.5237
金錢	-10.5243
八風	-10.5254
三年八月	-10.5293
四方之	-10.5299
東門	-10.5302
同用	-10.5313
苑中	-10.5339
二年七月	-10.535
刻漏	-10.5357
杓	-10.538
明朝	-10.538
丑未	-10.5392
相𫝊	-10.5392
吕氏春秋	-10.5418
時刻	-10.5425
梁武帝	-10.5432
筮	-10.5435
十數	-10.5437
蘖	-10.5438
不許	-10.5439
狄	-10.5439
甞	-10.544
苕	-10.5444
増埤雅	-10.5446
翟	-10.5447
漳	-10.5447
撲	-10.5448
醮	-10.5448
𧖟	-10.5448
苔	-10.5449
増四民月令	-10.5449
霏	-10.5449
晒	-10.545
薫	-10.545
増述異記	-10.5451
昉	-10.5451
匀	-10.5451
茭	-10.5452
楓	-10.5452
薤	-10.5452
毁	-10.5454
盗	-10.5454
縑	-10.5454
潞	-10.5455
增雲笈七籖	-10.5455
兑	-10.5455
掖	-10.5455
闐	-10.5455
筐	-10.5455
蘋	-10.5456
梟	-10.5456
夙	-10.5456
乙亥	-10.5456
豁	-10.5457
鉸	-10.5457
蚯蚓	-10.5457
壬戌	-10.5458
闇	-10.5458
槿	-10.5459
酪	-10.5459
凱	-10.5459
馥	-10.5459
咏	-10.546
楝	-10.546
嫁娶	-10.546
籥	-10.546
阻	-10.5462
増夢溪筆談	-10.5462
黙	-10.5462
紹興	-10.5462
☲	-10.5462
柄	-10.5463
百寮	-10.5463
潁	-10.5464
桴	-10.5464
梧桐	-10.5465
坡	-10.5465
綬	-10.5466
瑣	-10.5466
恤	-10.5466
増元史	-10.5466
莎	-10.5467
誤	-10.5467
浥	-10.5467
聳	-10.5467
淚	-10.5467
庾信	-10.5467
國子監	-10.5468
痕	-10.5468
弩	-10.5468
炁	-10.5468
怕	-10.5469
洒	-10.5469
緒	-10.5469
窠	-10.5469
敲	-10.5469
澹	-10.547
版	-10.547
誥	-10.547
茗	-10.547
愚	-10.547
綘	-10.547
陸㳺	-10.547
飴	-10.5471
屑	-10.5471
鹹	-10.5471
宰執	-10.5471
二千石	-10.5471
☵	-10.5472
項	-10.5473
螺	-10.5473
戊戌	-10.5473
豔	-10.5473
叚	-10.5474
贄	-10.5474
璣	-10.5474
増遼史禮志	-10.5474
撤	-10.5475
馴	-10.5475
釁	-10.5475
咎	-10.5475
爻	-10.5475
燧	-10.5477
問其故	-10.5477
倣	-10.5477
校獵	-10.5477
己巳	-10.5478
軌	-10.5479
賚	-10.5479
遶	-10.548
原周禮春官	-10.5481
讓	-10.5481
雒陽	-10.5484
蹕	-10.5484
島	-10.5485
祇	-10.5485
壠	-10.5486
籌	-10.5487
奎	-10.5487
穢	-10.5488
喻	-10.549
炳	-10.549
臣僚	-10.5491
舍利	-10.5493
扶桑	-10.5493
踏青	-10.5494
縛	-10.5495
昊天	-10.5497
供養	-10.5497
修撰	-10.5498
増隋書禮儀志	-10.55
六合	-10.5508
增淮南子	-10.5508
翫月	-10.5508
良久	-10.551
姓名	-10.5513
廵守	-10.5516
士庶	-10.5517
毎歲	-10.5519
廣陵	-10.552
粟米	-10.5525
乙未	-10.5527
郡人	-10.5536
萬夀	-10.5545
百工	-10.5545
五年九月	-10.5549
歌舞	-10.5549
欽定四庫全書御定月令輯要卷	-10.555
霜露	-10.5552
附子	-10.5583
漢武	-10.5585
白居易詩	-10.5599
香美	-10.56
田野	-10.5608
清眀	-10.5611
牛馬	-10.5616
黒色	-10.5616
上昇	-10.5622
建武	-10.5631
占城	-10.5638
司命	-10.5642
致祭	-10.5643
四面	-10.5648
開皇	-10.5649
盛陽	-10.5678
陽始	-10.569
歲星	-10.5692
小麥	-10.5695
一百二十	-10.5696
陰氣	-10.5714
張樂	-10.5728
四年正月	-10.5736
海棠	-10.5751
旦日	-10.5756
元武	-10.5759
樹髙	-10.576
帝親	-10.5762
水面	-10.5777
河南	-10.5806
壬辰	-10.5839
原周禮天官	-10.5853
初八	-10.5897
受朝	-10.5902
鄉人	-10.5925
賞花	-10.5926
陽氣始	-10.5936
勸農	-10.5944
暑氣	-10.595
平地	-10.5957
承天	-10.5967
土地	-10.6033
種竹	-10.6045
陽縣	-10.6047
木葉	-10.6066
門前	-10.607
寅申	-10.6083
數里	-10.6121
金玉	-10.6122
州府	-10.6132
猫	-10.617
俗呼	-10.6174
酺	-10.6181
増羣芳譜	-10.6189
級	-10.6199
茵	-10.621
鰲	-10.6213
陀	-10.6214
聒	-10.6214
裕	-10.6215
徳殿	-10.6218
郢	-10.6218
嵩	-10.6218
犢	-10.6218
贏	-10.6218
金明池	-10.6218
袋	-10.6219
蓍	-10.6219
興慶宫	-10.622
千秋節	-10.6221
拍	-10.6222
拳	-10.6223
抑	-10.6223
隰	-10.6223
个	-10.6224
増清異錄	-10.6225
甯	-10.6225
鶻	-10.6225
駢	-10.6226
蝕	-10.6226
臧	-10.6227
曵	-10.6227
鏘	-10.6227
稅	-10.6228
増種樹書	-10.6228
慘	-10.6228
撥	-10.6228
☷	-10.6229
秧	-10.6229
蝦蟇	-10.6229
増癸辛雜識	-10.6229
弼	-10.623
軰	-10.623
跋	-10.623
廡	-10.623
麓	-10.6231
狙	-10.6231
涯	-10.6231
千五百	-10.6232
縳	-10.6232
逾	-10.6232
泡	-10.6232
之分野	-10.6232
遲遲	-10.6233
沼	-10.6233
㢠廻	-10.6234
檻	-10.6234
噉	-10.6234
厄	-10.6234
埃	-10.6234
庾肩吾	-10.6234
乙丑	-10.6235
岱	-10.6235
暘	-10.6235
樞宻	-10.6235
縫	-10.6235
讌	-10.6235
晟	-10.6236
帚	-10.6236
原本草綱目	-10.6236
訟	-10.6237
増田家五行	-10.6237
増左傳	-10.6237
耦	-10.6238
波斯國	-10.6238
箴	-10.6239
寥	-10.6239
牝	-10.6239
疲	-10.624
冐	-10.624
楸	-10.624
氐	-10.624
澀	-10.624
篤	-10.624
責	-10.624
扣	-10.624
増玉海淳熙	-10.6241
日次初一日	-10.6242
沈佺期	-10.6242
豊	-10.6242
徂	-10.6243
仞	-10.6243
糴	-10.6243
蠡海集	-10.6243
樊	-10.6243
枇杷	-10.6243
殖	-10.6244
艱	-10.6245
甸	-10.6245
伶	-10.6245
錦繡	-10.6245
𫀆	-10.6246
侈	-10.6246
昃	-10.6246
賁	-10.6247
筍譜	-10.6248
藜	-10.6248
箱	-10.6248
汪	-10.6248
堆	-10.6248
廹	-10.6248
魂	-10.6251
宏	-10.6252
搜	-10.6252
鉢	-10.6253
申酉	-10.6253
膢	-10.6254
蔟	-10.6254
巵	-10.6254
原酉陽雜俎	-10.6257
詢	-10.6257
飈	-10.6258
㪚	-10.6259
陬	-10.6259
弹	-10.626
癘	-10.626
辟雍	-10.626
尚書省	-10.6264
洞庭	-10.6266
乾坤	-10.6266
詳定	-10.627
戊午	-10.6272
仲春之月	-10.6273
中和節	-10.6274
増抱朴子	-10.6274
第三	-10.6277
真珠	-10.6279
朔旦冬至	-10.628
田獵	-10.6282
太康	-10.6284
為上時	-10.6286
巳時	-10.6294
誕辰	-10.6294
往来	-10.6298
上巳日	-10.6298
條風	-10.6301
命婦	-10.6302
燈火	-10.6304
收斂	-10.6304
農家	-10.6304
四年九月	-10.6308
炎帝	-10.6309
律厯	-10.631
升降	-10.6311
守歳	-10.6321
探春	-10.6322
千萬	-10.6324
增齊民要術作	-10.6333
辛未	-10.6333
桃李	-10.6333
佳節	-10.6335
汝南	-10.6335
中央土	-10.6336
樂詞	-10.6339
山上有	-10.6342
官府	-10.6342
七里	-10.6347
樂工	-10.6351
前代	-10.6353
笑曰	-10.6357
増齊民要術作	-10.6378
二十餘	-10.6379
俗謂之	-10.6383
閏十二月	-10.6386
蔓生	-10.6394
襄陽	-10.6396
胡桃	-10.6422
以為常	-10.6438
好學	-10.6484
第二	-10.6498
東海	-10.6503
夏旱	-10.6507
三旬	-10.6508
長養	-10.6515
百五十	-10.6526
功成	-10.6548
城西	-10.655
三統	-10.6553
千金	-10.6575
莫知	-10.6587
南極	-10.6602
日中時	-10.6605
戌時	-10.6641
酘之	-10.6659
入室	-10.6692
春園	-10.671
正月七日	-10.6724
増玉海紹興十	-10.6754
所司	-10.6764
萬歲	-10.6797
巳午	-10.6813
各一人	-10.6827
三年五月	-10.6841
徳宗	-10.6864
四十九	-10.6873
七寸	-10.6899
色赤	-10.691
八卦	-10.6913
原禮乃	-10.6917
即今	-10.6923
學士院	-10.6929
六十日	-10.6959
杭	-10.6981
唐六典	-10.703
抱朴子	-10.7031
唐㑹要	-10.7032
皥	-10.7037
鵲巢	-10.7038
遵生八牋	-10.704
原東方朔占書	-10.704
澇	-10.7042
増世説	-10.7046
彪	-10.7046
姥	-10.705
峨	-10.7052
煉	-10.7052
黏	-10.7054
荆楚嵗時記	-10.7055
莢	-10.7055
混	-10.7055
樣	-10.7056
本草拾遺	-10.7056
槃	-10.7057
醋	-10.7057
洋	-10.7057
舘	-10.7058
茸	-10.7058
蘿	-10.7058
齡	-10.7059
簪	-10.7059
駿	-10.7059
瞿	-10.7059
翌日	-10.706
句芒	-10.706
增圖經本草	-10.706
増宋書	-10.706
晶	-10.7061
碾	-10.7061
蔥	-10.7061
鈿	-10.7062
羹	-10.7062
皇祐	-10.7062
増説文	-10.7062
睹	-10.7062
綏	-10.7062
耜	-10.7062
蔓延	-10.7063
靣	-10.7063
増田家雜占	-10.7063
茍	-10.7063
笳	-10.7063
刃	-10.7063
壤	-10.7063
菘	-10.7063
䴡	-10.7063
循環	-10.7063
奥	-10.7063
廉	-10.7063
檢校	-10.7063
莧	-10.7063
馭	-10.7064
險	-10.7064
搏	-10.7064
玉海乾徳	-10.7064
增唐會要	-10.7065
増史記封禪書	-10.7065
馨	-10.7065
行春令	-10.7065
菑	-10.7066
仲冬之月	-10.7066
暨	-10.7066
攀	-10.7066
㡌	-10.7066
廂	-10.7066
撮	-10.7066
溜	-10.7066
鴟	-10.7066
敇	-10.7066
洛陽伽藍記	-10.7067
原説文	-10.7067
虫	-10.7068
棘	-10.7068
拭	-10.7069
熬	-10.7069
劉禹錫	-10.7069
漢官儀	-10.7069
三統厯曰	-10.7069
凛	-10.7069
原梁元帝纂要	-10.707
牟	-10.707
儼	-10.707
苓	-10.707
癸丑	-10.707
蠲	-10.7071
麋角	-10.7071
揭	-10.7071
鼈	-10.7071
丙丁	-10.7071
謬	-10.7072
悠悠	-10.7072
遜	-10.7072
臟	-10.7072
陶潛	-10.7072
盜	-10.7073
匿	-10.7073
原續文獻通考	-10.7073
泝	-10.7073
障	-10.7074
周書時訓曰	-10.7074
璫	-10.7074
髻	-10.7074
軒轅	-10.7074
鹵簿	-10.7074
緝	-10.7076
謫	-10.7076
什	-10.7077
呪	-10.7077
佑	-10.7077
勇	-10.7077
紫宸	-10.7077
查	-10.7078
晉樂志曰	-10.7078
剪綵	-10.7078
態	-10.7079
蔗	-10.7079
提要録	-10.7079
鴻雁	-10.7079
原左傳	-10.7079
増酉陽雜爼	-10.708
增爾雅翼	-10.708
森	-10.708
二十八宿	-10.708
霹靂	-10.708
増列子	-10.7082
醇	-10.7082
苴	-10.7082
履端	-10.7083
脫	-10.7083
増宋史五行志	-10.7083
姬	-10.7083
増玉海元祐	-10.7083
増爾雅翼	-10.7083
腥	-10.7084
桺	-10.7084
拊	-10.7085
姤	-10.7085
祠后土	-10.7085
瘞	-10.7085
究	-10.7085
達旦	-10.7085
班固	-10.7085
螢火	-10.7085
弛	-10.7085
渾儀	-10.7086
隱	-10.7086
萌芽	-10.7086
仲淹	-10.7086
夬	-10.7087
庖	-10.7087
値	-10.7087
媒	-10.7088
閏三月	-10.7089
袒	-10.7089
原周禮夏官	-10.7089
庚申	-10.7089
蜃	-10.709
彊	-10.709
増後漢書禮儀志	-10.7091
辛亥	-10.7091
孛	-10.7092
閉蔵	-10.7092
館閣	-10.7093
覿	-10.7094
朱雀	-10.7095
増山家清供	-10.7097
懿	-10.7098
益州	-10.7099
增唐書百官志	-10.7099
轉運	-10.71
巡	-10.71
鶉火	-10.7102
冢	-10.7103
四年六月	-10.7103
丁酉	-10.7103
莽	-10.7104
懷	-10.7105
通攷	-10.7105
爆竹	-10.7105
増唐六典	-10.7107
舅	-10.7108
廬山	-10.711
善惡	-10.711
經筵	-10.7111
原周禮地官	-10.7111
屏風	-10.7113
計吏	-10.7118
衆僧	-10.7122
泥封	-10.7123
稱賀	-10.7123
黍米	-10.7125
變化	-10.7129
農夫	-10.7131
月失政	-10.7131
一株	-10.7135
應鍾	-10.7135
張說	-10.7136
六年十一月	-10.714
太素	-10.7141
六十刻	-10.7144
告朔	-10.7145
九年十一月	-10.715
蒼龍	-10.7153
百穀	-10.7157
朝霞	-10.7159
増韓愈	-10.7161
温泉	-10.7165
門戸	-10.7166
清凉	-10.7169
蠶室	-10.7172
離宫	-10.7178
百辟	-10.7191
主旱	-10.7202
木蘭	-10.7205
殿庭	-10.721
生育	-10.7213
無差	-10.7231
髙宗	-10.7237
馬射	-10.7238
今夕	-10.7259
聖徳	-10.7271
改元	-10.7275
辛丑	-10.7279
張華	-10.7287
金銀	-10.7291
淮南子注	-10.731
丹陽	-10.7348
河北	-10.7353
原隋書	-10.7367
二升	-10.7406
觀酺	-10.7493
昨夜	-10.7549
七年九月	-10.7607
州郡	-10.7631
文帝紀	-10.7737
也淮南子	-10.7776
眀皇	-10.7823
乾淳嵗時記	-10.7914
祓	-10.7938
孝經緯	-10.7946
頴	-10.7947
增羣芳譜	-10.795
舊唐書禮儀志	-10.795
幸玉津園	-10.7951
帝京景物畧	-10.7952
蓐	-10.7952
緡	-10.7956
觔	-10.7958
援	-10.796
?	-10.796
政不失	-10.7962
少皥	-10.7962
萎	-10.7963
鬛	-10.7963
榭	-10.7963
之節初五日	-10.7963
謝靈運	-10.7964
準	-10.7964
竦	-10.7964
段	-10.7965
翹	-10.7965
三四尺	-10.7965
百餘里	-10.7965
屛	-10.7965
膩	-10.7965
僖	-10.7967
徃徃	-10.7967
袴	-10.7967
旭	-10.7967
璽	-10.7968
含元殿	-10.7968
舫	-10.7969
增玉海紹興	-10.797
模	-10.797
蜻	-10.797
漕	-10.7971
駭	-10.7971
増西湖志餘	-10.7972
悵	-10.7972
歉	-10.7973
酷	-10.7973
筋	-10.7973
柯	-10.7974
蔴	-10.7975
池塘	-10.7975
詩疏廣要	-10.7976
猗	-10.7976
蘿蔔	-10.7976
轂	-10.7976
節度使	-10.7976
祿	-10.7977
棹	-10.7977
鬢	-10.7977
尸	-10.7977
償	-10.7977
榛	-10.7977
顛	-10.7977
峭	-10.7978
擘	-10.7978
聴	-10.7978
皂	-10.7978
蘓	-10.7978
叡	-10.7978
洎	-10.7979
茟	-10.7979
紵	-10.7979
榻	-10.798
獄訟	-10.798
朴	-10.798
糓	-10.798
晁	-10.798
辦	-10.798
蠢	-10.798
増玉海皇祐	-10.798
騷	-10.7981
行冬令	-10.7981
専	-10.7981
梁簡文帝	-10.7981
后妃	-10.7981
呂氏春秋	-10.7981
嚼	-10.7982
痩	-10.7982
擢	-10.7982
熈	-10.7983
諱	-10.7983
十直齋日	-10.7983
恊	-10.7983
也夏小正曰	-10.7984
蘩	-10.7984
准	-10.7984
糯	-10.7984
襪	-10.7984
伍	-10.7984
涌	-10.7985
原宋史	-10.7985
癸酉	-10.7985
涕	-10.7986
幘	-10.7986
畨	-10.7986
荻	-10.7986
渥	-10.7986
乙夘	-10.7986
歐陽修	-10.7986
驕	-10.7986
而斗建	-10.7987
轍	-10.7987
釋奠	-10.7987
葅	-10.7987
蔡邕	-10.7987
閶闔	-10.7988
霸	-10.7988
隼	-10.7988
溽暑	-10.7988
獅	-10.7988
沿	-10.7988
紛紛	-10.7989
榴花	-10.7989
覈	-10.7989
帆	-10.7989
螽	-10.799
驪	-10.799
角亢	-10.799
貂	-10.799
増家語	-10.7991
祈禱	-10.7991
麤	-10.7991
淅	-10.7991
捉	-10.7991
乗輿	-10.7991
肄	-10.7991
闈	-10.7992
乙巳	-10.7992
㸑	-10.7993
濛	-10.7993
爆	-10.7993
鎖	-10.7993
瘧	-10.7994
日月星辰	-10.7994
召輔臣	-10.7994
鋭	-10.7994
偹	-10.7994
貉	-10.7994
祈福	-10.7995
鋒	-10.7995
貽	-10.7995
萹	-10.7995
夹	-10.7995
壬申	-10.7997
邇	-10.7997
李商隠	-10.7997
灑掃	-10.7997
靄	-10.7998
霆	-10.7998
䋲	-10.7999
増紀厯撮要	-10.7999
替	-10.8
鯉魚	-10.8
泌	-10.8
弓矢	-10.8001
松柏	-10.8001
効	-10.8001
綯	-10.8002
原齊民要術	-10.8002
辛酉	-10.8003
四瀆	-10.8005
突	-10.8005
夙夜	-10.8006
最佳	-10.8006
礬	-10.8006
鄉飲酒	-10.801
門之外	-10.801
豫章	-10.8011
竹筍	-10.8012
車騎	-10.8012
纁	-10.8013
孝經緯曰	-10.8014
無疆	-10.8015
増吕氏春秋	-10.8016
熾	-10.8016
季秋之月	-10.8018
低田	-10.8019
鐘鼓	-10.8019
旰	-10.802
増山海經	-10.8022
顔色	-10.8026
枝條	-10.8026
大酺	-10.8029
存問	-10.803
夏至之日	-10.8037
癸未	-10.8039
夹鍾	-10.804
起居注	-10.8041
乙卯	-10.8042
羅浮	-10.8045
鄉里	-10.8047
也位於	-10.8048
數寸	-10.8048
江湖	-10.8052
澄清	-10.8053
增漢書律歴志	-10.8054
大小麥	-10.8055
雲霧	-10.8062
少卿	-10.8063
布政	-10.8067
牛羊	-10.8069
取汁	-10.807
紫微	-10.8074
賦序	-10.8088
氏掌	-10.8091
祖宗	-10.8095
無私	-10.8097
五百里	-10.8104
西湖	-10.8111
賔主	-10.8112
七夕詩	-10.8114
永平	-10.8122
青蒿	-10.8137
千歲	-10.814
年豐	-10.8142
七十二日	-10.8151
彭城	-10.8154
百榖	-10.8156
尺五寸	-10.8162
晏子	-10.8166
靈芝	-10.8191
積雪	-10.8206
張燈	-10.8235
卿大夫	-10.8278
亭午	-10.8291
曰今日	-10.8348
北陸	-10.8377
隆冬	-10.8458
六寸	-10.8588
刑部	-10.8656
舊制	-10.8731
正月二日	-10.8791
一百八	-10.8884
酉陽雜俎	-10.8911
宋史禮志	-10.8921
唐書百官志	-10.8921
山海經	-10.8933
易通卦驗	-10.8941
梔	-10.8942
冦	-10.8951
𥜗	-10.8951
誡	-10.8952
增續文獻通考	-10.8953
僧孺	-10.8953
銓	-10.8956
原春秋繁露	-10.8956
傲	-10.8957
両	-10.8957
梳	-10.8957
皺	-10.8958
燿	-10.8959
憫	-10.896
恠	-10.896
甃	-10.8961
詹	-10.8961
砧	-10.8961
増通考	-10.8962
增田家五行	-10.8962
跨	-10.8962
寘	-10.8963
蒂	-10.8963
譯	-10.8963
摧	-10.8963
咨	-10.8964
嵐	-10.8964
倪	-10.8964
原拾遺記	-10.8964
娯	-10.8965
鷄	-10.8965
洪範	-10.8966
荼	-10.8967
濾	-10.8967
文宣王	-10.8967
増東京夢華録	-10.8968
機杼	-10.8968
呵	-10.8968
釘	-10.8968
喪	-10.8968
天下太平	-10.8968
苧	-10.8968
牒	-10.8968
欺	-10.8969
澡	-10.8969
河豚	-10.8969
杞	-10.8969
涓	-10.8969
江淹	-10.897
楹	-10.897
天倉開	-10.897
顥	-10.897
梯	-10.897
増月令章句自	-10.8971
射干	-10.8971
章得象	-10.8971
塾	-10.8971
苐	-10.8971
鞏	-10.8971
鉛	-10.8972
蕪菁	-10.8972
偷	-10.8972
蔞	-10.8972
寃	-10.8972
祛	-10.8973
曼	-10.8973
椰	-10.8973
原舊唐書	-10.8973
褰	-10.8974
増論衡	-10.8974
勘	-10.8974
増宋㑹要	-10.8974
悽	-10.8974
秔	-10.8975
侣	-10.8975
瀝	-10.8975
肌	-10.8976
彫	-10.8976
茲	-10.8976
驟	-10.8977
禺	-10.8977
叅	-10.8977
姜	-10.8977
焰	-10.8977
訛	-10.8977
縱横	-10.8977
搜神記	-10.8977
泛舟	-10.8977
耒耜	-10.8978
伎	-10.8978
之氣乗之也又行	-10.8978
蠱	-10.8978
漂	-10.8978
鬰	-10.8978
篩	-10.8979
窓	-10.8979
樞密	-10.8979
餻	-10.8979
貝	-10.898
冩	-10.898
晳	-10.898
鷙	-10.898
國史補	-10.898
増玉海雍熙	-10.898
蛛	-10.898
藹	-10.898
菉豆	-10.898
賑	-10.8981
貪	-10.8981
廿	-10.8981
軿	-10.8981
釜	-10.8981
南薰	-10.8981
原感應篇	-10.8981
洙	-10.8981
鳧	-10.8982
渙	-10.8982
庚辛	-10.8982
櫟	-10.8982
噴	-10.8983
都督	-10.8983
梅堯臣	-10.8983
召近臣	-10.8983
盂蘭盆	-10.8983
枸	-10.8984
技	-10.8984
域	-10.8984
五品以上	-10.8985
丁夘	-10.8985
増汜勝之書	-10.8985
諡	-10.8985
叶	-10.8985
椹	-10.8985
剉	-10.8986
之氣乘之也	-10.8986
鼉	-10.8986
原逸周書	-10.8986
涎	-10.8986
滕	-10.8986
鴿	-10.8986
罕	-10.8987
屠蘇	-10.8987
寰	-10.8987
圈	-10.8987
寅夘	-10.8988
訾	-10.8988
攷	-10.8988
增農政全書	-10.8988
蔀七十六嵗次	-10.8989
挾	-10.8989
盲	-10.8989
原楚辭	-10.899
掠	-10.899
邢	-10.899
楷	-10.899
纂要曰	-10.899
㓂	-10.8991
糾	-10.8991
甌	-10.8992
纊	-10.8992
懽	-10.8993
増曲洧舊聞	-10.8993
衮	-10.8993
栖	-10.8993
増玉海慶厯	-10.8993
太液池	-10.8993
釡	-10.8994
挈壺	-10.8994
後漢書章帝紀建初	-10.8995
漢舊儀	-10.8995
玉牒	-10.8995
逓	-10.8995
牘	-10.8996
増太平廣記	-10.8996
摭	-10.8996
増梁書	-10.8997
炷	-10.8997
戴勝	-10.8997
完	-10.8998
原列子	-10.8998
硫	-10.8998
粢	-10.8999
羡	-10.8999
浚	-10.8999
郁	-10.8999
戊申	-10.9
自此始	-10.9
原禮天子居	-10.9
訊	-10.9
秀才	-10.9
堇	-10.9001
豳	-10.9001
孟嘗君	-10.9001
虢	-10.9002
永徽	-10.9003
卽	-10.9004
戌亥	-10.9004
臍	-10.9005
參差	-10.9005
尅	-10.9005
煎湯	-10.9008
梨園	-10.9009
各有差	-10.9009
螻	-10.9009
供帳	-10.9011
味辛	-10.9011
一日一夜	-10.9012
束帛	-10.9013
師曠	-10.9014
宋史職官志	-10.9015
校尉	-10.9015
增宋史禮志	-10.9016
増名醫别録	-10.9017
詔曰朕	-10.9023
之嵗曰	-10.9023
蔡𫝊	-10.9024
旣	-10.9025
麥秀	-10.9026
千畝	-10.9028
元和志	-10.9032
増三禮義宗	-10.9033
鼓吹	-10.9034
供奉	-10.9035
黑色	-10.9035
集說	-10.9045
苦菜	-10.9046
不可勝	-10.9049
為中時	-10.9058
大衍	-10.9062
皇考	-10.9064
世祖	-10.9068
冬至之日	-10.9069
寸許	-10.9074
武陵	-10.9079
龍眼	-10.9085
桓公	-10.9086
太極殿	-10.9086
由是	-10.9097
秋風起	-10.9113
暑熱	-10.9187
依舊	-10.9385
月律謂之	-10.9388
楊梅	-10.9405
形似	-10.9412
十有一	-10.9571
荅曰	-10.9674
兵部	-10.9683
欽定四庫全書御定月令輯要卷十	-11.0001
褒	-11.0005
鳸	-11.0021
浴佛	-11.0044
兜	-11.0045
蕨	-11.0056
翫	-11.0057
蔕	-11.0058
幟	-11.006
增名勝志	-11.006
誇	-11.0061
增選擇歴書	-11.0061
淋	-11.0062
黔	-11.0063
嶠	-11.0063
蜉	-11.0063
柝	-11.0064
橙	-11.0064
勤政樓	-11.0064
増師曠占	-11.0064
昜	-11.0065
鎬	-11.0065
雊	-11.0067
蔚	-11.0067
詔褒	-11.0067
緹	-11.0067
蛀	-11.0068
五六尺	-11.0069
増齊民要術崔寔曰	-11.0069
豎	-11.0069
吿	-11.0069
原水經注	-11.007
蛙	-11.0071
頼	-11.0071
増益部方物畧記	-11.0071
水晶宫	-11.0071
榆莢	-11.0072
増隋書天文志	-11.0072
庚午	-11.0073
枲	-11.0073
移栽	-11.0073
倩	-11.0073
孳	-11.0074
獺祭魚	-11.0075
迤	-11.0075
衷	-11.0075
弁	-11.0075
𦂳	-11.0076
花萼樓	-11.0076
眺	-11.0076
繚	-11.0076
律中黄鍾	-11.0077
賞花釣魚	-11.0077
瓊林苑	-11.0077
鑪	-11.0077
薯	-11.0078
墀	-11.0078
摶	-11.0078
娘	-11.008
囀	-11.008
啟蟄	-11.008
巒	-11.008
僊	-11.008
椀	-11.0081
漾	-11.0081
着	-11.0082
増避暑録話	-11.0082
攜	-11.0082
焙	-11.0082
誘	-11.0083
惲	-11.0083
翦	-11.0083
井花水	-11.0084
鱠	-11.0084
猴	-11.0084
麯	-11.0084
廐	-11.0084
啄	-11.0085
纍	-11.0085
増唐㑹要開元十	-11.0085
長尺餘	-11.0085
塩	-11.0085
謳	-11.0086
茅君	-11.0086
少昊	-11.0086
刪	-11.0086
戮	-11.0086
鴛鴦	-11.0086
顒	-11.0086
泠	-11.0087
遨	-11.0087
秃	-11.0087
宋史河渠志	-11.0087
麒麟	-11.0087
窖	-11.0087
爼	-11.0088
祓除	-11.0088
逃	-11.0088
王羲之	-11.0088
祓禊	-11.0088
中書門下	-11.0088
陽雲出	-11.0088
撾	-11.0088
偉	-11.0088
袖	-11.0089
鷗	-11.0089
岫	-11.0089
慨	-11.0089
縹	-11.0089
郝	-11.0089
欝	-11.0089
熒惑	-11.0089
戾	-11.009
增四民月令	-11.009
軾	-11.009
麞	-11.009
雚	-11.009
天尊詳見	-11.0091
蜺	-11.0091
逕	-11.0091
吹笙	-11.0091
枳	-11.0091
磧	-11.0091
絺	-11.0092
騶	-11.0092
囷	-11.0092
增埤雅	-11.0092
揉	-11.0092
鄂	-11.0093
麵	-11.0093
梢	-11.0093
較	-11.0093
區種	-11.0093
常參官	-11.0093
增夢溪筆談	-11.0094
慿	-11.0094
綃	-11.0094
幃	-11.0094
臾	-11.0094
无	-11.0094
四時纂要	-11.0094
瀑	-11.0094
陸游	-11.0094
暍	-11.0095
䟦	-11.0095
娶	-11.0095
欵	-11.0095
㠯	-11.0096
龕	-11.0096
穉	-11.0096
辱	-11.0096
妊	-11.0096
覔	-11.0096
裝	-11.0097
鑚	-11.0097
蔣	-11.0097
祖禰	-11.0098
腊	-11.0098
賓	-11.0098
迥	-11.0098
孜	-11.0098
陜	-11.0099
笏	-11.0099
鉦	-11.0099
矜	-11.0099
増李尤	-11.01
灾	-11.01
猷	-11.01
司天監	-11.01
㳟	-11.01
諤	-11.01
葺	-11.01
琯	-11.0101
庠	-11.0101
粳	-11.0101
建寅之月	-11.0102
杳	-11.0102
昧爽	-11.0102
搆	-11.0102
譽	-11.0102
原酉陽雜爼	-11.0102
滎陽	-11.0102
灣	-11.0102
禾稼	-11.0102
醜	-11.0102
虵	-11.0103
鯨	-11.0103
日初出	-11.0103
南方草木狀	-11.0103
澍	-11.0103
玉燭寳典	-11.0103
膺	-11.0103
昻	-11.0103
穹	-11.0103
朔日值	-11.0104
韓琦	-11.0104
丙申	-11.0104
翕	-11.0104
崔憬曰	-11.0104
元史祭祀志	-11.0104
躔	-11.0104
鳬	-11.0104
后稷	-11.0105
恣	-11.0105
敘	-11.0106
褚	-11.0106
暝	-11.0106
牋	-11.0106
太常卿	-11.0107
睢	-11.0107
縚	-11.0107
曹植	-11.0108
𤾉	-11.0108
閼	-11.0108
槌	-11.0108
春夏秋冬	-11.0109
増後漢書明帝紀永平	-11.0109
桶	-11.0109
義倉	-11.0109
増周禮春官	-11.011
枉	-11.011
搖	-11.011
承㫖	-11.0111
瓢	-11.0111
篴	-11.0111
測景	-11.0111
祼	-11.0112
爍	-11.0112
垢	-11.0112
麻姑	-11.0112
増玉海乾道	-11.0113
天寳遺事	-11.0113
鴽	-11.0113
嘲	-11.0114
秤	-11.0114
恕	-11.0114
禰	-11.0115
僕射	-11.0115
御座	-11.0115
原後漢書禮儀志	-11.0116
原周禮秋官	-11.0116
氛	-11.0116
淒	-11.0117
爇	-11.0118
水衡記黄河水	-11.0118
􁀥	-11.0119
増四民月令正月	-11.0121
橛	-11.0121
元枵	-11.0121
縱觀	-11.0122
鎻	-11.0122
月令天道月卦	-11.0124
為一端	-11.0124
為下時	-11.0125
嵩山	-11.0126
迢	-11.0126
教坊	-11.0127
紙筆	-11.0127
霖雨	-11.013
増周禮地官	-11.013
四五尺	-11.0131
女貞	-11.0135
列侯	-11.0137
王褒	-11.014
侍講	-11.014
颶風	-11.0143
振旅	-11.0144
畦種	-11.0146
頃刻	-11.0148
賜御書	-11.015
左旋	-11.015
黄梅雨	-11.0151
有司奏	-11.0157
㤗山	-11.0159
増玉海祥符三年	-11.0168
木鐸	-11.0169
月生苖	-11.0183
慶雲見	-11.0186
玉輅	-11.0219
増唐㑹要貞觀	-11.0286
御定月令輯要卷十	-11.0328
郡第	-11.0603
穆宗	-11.0759
増乾淳歳時記	-11.0772
丈夫	-11.0777
増唐㑹要貞觀十	-11.1024
兖州	-11.1248
陶朱公書	-11.1263
紀厯撮要	-11.1283
睛	-11.1295
昊	-11.1299
榴	-11.1299
増乾淳嵗時記元夕	-11.1299
塜	-11.1303
增名醫别錄	-11.1303
荑	-11.1306
誌	-11.1306
蜋	-11.1307
款	-11.1309
贖	-11.1309
碁	-11.1312
誨	-11.1312
毨	-11.1312
艷	-11.1314
狹	-11.1314
陶𢎞景	-11.1315
萋萋	-11.1316
俚	-11.1316
三禮義宗	-11.1317
籃	-11.1318
翎	-11.1318
鯽	-11.1318
恬	-11.1319
望春亭	-11.1319
原田家雜占	-11.132
麾	-11.1322
滛	-11.1322
筴	-11.1322
嵌	-11.1322
浹	-11.1322
糊	-11.1323
趂	-11.1323
蒺藜	-11.1323
増嵗華紀麗譜	-11.1323
旒	-11.1323
溝瀆	-11.1323
遭	-11.1323
性理大全	-11.1323
肴	-11.1324
靛	-11.1324
迴	-11.1325
醃	-11.1325
渭濵	-11.1325
琰	-11.1326
塢	-11.1326
辜	-11.1327
櫚	-11.1327
曷	-11.1327
周益公日記	-11.1327
嶺表錄異	-11.1327
増樂緯	-11.1327
乖	-11.1327
萄	-11.1328
原千金月令	-11.1328
恢	-11.1328
琶	-11.1328
椘	-11.1329
豚	-11.1329
蓽	-11.1329
惰	-11.133
臭	-11.133
迅	-11.133
嚶	-11.133
瀘	-11.133
猨	-11.1331
求遺書	-11.1331
惑	-11.1331
原羣芳譜	-11.1331
挹	-11.1331
雌雄	-11.1331
擕	-11.1331
望春宫	-11.1332
缸	-11.1332
増食譜張手美	-11.1332
藿	-11.1333
通政使司	-11.1333
棠	-11.1333
玊	-11.1333
薹	-11.1333
増政和本草	-11.1333
竪	-11.1334
岩	-11.1334
冠冕	-11.1334
舶	-11.1334
反舌無聲	-11.1334
洩	-11.1334
翰墨	-11.1335
射的	-11.1335
謝朓詩	-11.1335
迄	-11.1335
増遼史	-11.1335
原道經	-11.1335
奚	-11.1335
汐	-11.1335
誼	-11.1336
慚	-11.1336
琛	-11.1336
緩急	-11.1336
黜	-11.1336
閎	-11.1336
幢	-11.1336
蠡	-11.1337
叱	-11.1337
鴻鴈来	-11.1337
擎	-11.1337
増開天遺事	-11.1338
頸	-11.1338
泮	-11.1338
縠	-11.1338
託	-11.1338
逝	-11.1338
瞽	-11.1338
肌膚	-11.1339
唐書厯志	-11.1339
煌	-11.1339
刼	-11.134
夢華録	-11.134
粱	-11.134
盌	-11.134
霓	-11.134
蹙	-11.134
栁絮	-11.134
磯	-11.134
絞	-11.134
梭	-11.134
轝	-11.134
摹	-11.134
壞	-11.1341
婺	-11.1341
陕	-11.1341
禎	-11.1341
増事物紀原	-11.1342
詎	-11.1342
濫	-11.1342
如彈丸	-11.1342
訴	-11.1342
元嘉二十	-11.1343
禅	-11.1343
稗	-11.1343
械	-11.1344
宥	-11.1344
硃	-11.1344
増後漢書祭祀志	-11.1344
硬	-11.1344
瘤	-11.1344
彰	-11.1344
㝎	-11.1344
朽	-11.1344
渇	-11.1345
鉅	-11.1345
怡	-11.1345
訶	-11.1345
泰畤	-11.1345
常平倉	-11.1346
橡	-11.1346
偽	-11.1346
璇	-11.1346
葫蘆	-11.1346
宋之問	-11.1347
笠	-11.1347
匣	-11.1347
溲	-11.1347
罟	-11.1347
茨	-11.1347
莠	-11.1347
籖	-11.1347
三百六十五度	-11.1347
卭	-11.1347
伏羲	-11.1348
晏殊	-11.1348
穄	-11.1348
彗	-11.1349
增國語	-11.1349
天寶遺事	-11.1349
禀	-11.1349
陪位	-11.1349
増清異録	-11.1349
眩	-11.1349
壘	-11.1349
旨	-11.1349
鎗	-11.1349
三年一閏	-11.135
行秋令則	-11.135
邕	-11.135
貳	-11.135
俎	-11.135
滋味	-11.135
劭	-11.135
罏	-11.135
朒	-11.1351
潄	-11.1351
睦	-11.1351
招搖指	-11.1351
國子學	-11.1351
斾	-11.1351
番禺	-11.1351
菩	-11.1351
増廣志	-11.1351
媪	-11.1351
贍	-11.1352
蹟	-11.1352
璞	-11.1352
陋	-11.1353
増玉海淳化五年	-11.1353
筩	-11.1353
餔	-11.1353
祟	-11.1353
鶡	-11.1353
野蠶成繭	-11.1353
日月五星	-11.1354
椎	-11.1354
慢	-11.1354
魚鼈	-11.1355
沫	-11.1355
伽	-11.1355
檜	-11.1356
城隍	-11.1356
増唐會要開元	-11.1357
九成宫	-11.1357
纓	-11.1358
曦	-11.1358
餾	-11.1358
文獻通考	-11.1359
䘮	-11.1359
昳	-11.1359
顕	-11.1359
孚甲	-11.1359
暎	-11.136
甄	-11.136
輯	-11.1361
筯	-11.1361
飛白書	-11.1362
藩	-11.1362
喙	-11.1362
峙	-11.1364
囂	-11.1364
増楊升菴集	-11.1364
増玉海崇寧	-11.1364
綜	-11.1365
杜牧	-11.1365
逖	-11.1366
金木水火	-11.1366
徐鉉	-11.1367
杲	-11.1368
揆	-11.137
拙	-11.137
廓	-11.137
𠖇	-11.1371
夾鍾	-11.1371
杏仁	-11.1371
沆	-11.1371
甑	-11.1372
仇	-11.1372
吼	-11.1372
黿	-11.1374
飮	-11.1377
沴	-11.1377
醸酒	-11.1377
拖	-11.1381
望之如	-11.1381
雷電	-11.1381
月建焉而辰在	-11.1381
增水經注	-11.1382
農隙	-11.1384
稽首	-11.1384
冠帶	-11.1385
淮南子註	-11.1386
販	-11.1386
盝	-11.1386
澣	-11.1388
醎	-11.1388
磚	-11.139
計偕	-11.1391
玉璽	-11.1392
淸	-11.1396
禮部尚書	-11.14
日得壬	-11.14
元嘉十	-11.1401
鬭雞	-11.1402
郞	-11.1407
酋	-11.1429
斗杓	-11.1522
日晴主	-11.1938
酺宴	-11.2082
增宋書	-11.2139
爾雅翼	-11.2167
原禮孟	-11.2645
增史記天官書	-11.2656
本草綱目	-11.2694
姨	-11.2705
鼜	-11.2721
唐書禮樂志	-11.2725
㯽榔	-11.2727
盗賊	-11.2727
翃	-11.273
䖝	-11.2733
冡	-11.2733
醅	-11.2733
㯶	-11.2735
腫	-11.2735
桑椹	-11.2735
猜	-11.2736
採蘭雜志	-11.2736
罝	-11.2738
觜	-11.2739
兗	-11.2741
蜥	-11.2741
證	-11.2741
桐始華	-11.2743
婉	-11.2744
愕	-11.2744
資治通鑑	-11.2744
增後漢書明帝紀永平	-11.2745
娠	-11.2745
逵	-11.2745
檐	-11.2746
蒋	-11.2746
堯叟	-11.2748
傑	-11.2748
颺	-11.2748
紈	-11.2748
釋迦	-11.2749
雒	-11.2749
蕙	-11.275
翮	-11.275
餽	-11.275
孺	-11.275
辣	-11.275
冉冉	-11.2751
做	-11.2751
籞	-11.2751
増唐詩紀事	-11.2752
羯鼓	-11.2752
阡	-11.2753
制國用	-11.2753
籜	-11.2754
坂	-11.2754
原圖經本草	-11.2754
趾	-11.2755
悔	-11.2755
斵	-11.2755
襦	-11.2755
杼	-11.2755
柷	-11.2756
知制誥	-11.2756
箸	-11.2756
鵞	-11.2756
溶	-11.2757
瓤	-11.2757
網罟	-11.2757
筌	-11.2757
菲	-11.2757
裔	-11.2757
原北史	-11.2757
沔	-11.2757
睇	-11.2758
肢	-11.2758
荇	-11.2758
懶	-11.2758
入山修	-11.2759
唐書歴志	-11.2759
春秋元命苞	-11.2759
掇	-11.2759
纖	-11.276
續齊諧記	-11.276
虞世南	-11.276
娛	-11.276
澑	-11.276
熹	-11.276
増漢書武帝紀元封	-11.276
槁	-11.276
滻	-11.276
太平御覽	-11.276
攘	-11.276
彤	-11.2761
増周易集觧	-11.2761
増帝京景物略	-11.2761
店	-11.2761
剔	-11.2761
娟	-11.2761
菁	-11.2762
瑀	-11.2762
彎	-11.2762
措	-11.2762
芰	-11.2763
黛	-11.2763
張衡東京賦	-11.2763
湔	-11.2763
鹿角解	-11.2763
金華殿	-11.2763
嚥	-11.2763
旻	-11.2763
汎舟	-11.2763
増舊唐書百官志	-11.2763
遣中使	-11.2764
舟楫	-11.2764
鄴中記	-11.2764
貎	-11.2765
鎔	-11.2765
蹇	-11.2765
蒻	-11.2766
蕎	-11.2766
原雲仙雜記	-11.2766
増皇極經世	-11.2766
槍	-11.2766
槽	-11.2766
瀾	-11.2766
赭	-11.2766
何首烏	-11.2766
单	-11.2766
原史記天官書	-11.2766
奎婁	-11.2766
礙	-11.2766
笥	-11.2766
郭璞	-11.2766
増漢書五行志	-11.2766
青城山	-11.2766
錦袍	-11.2766
袂	-11.2767
飱	-11.2767
龍圖閣	-11.2767
苛	-11.2767
隂雲出	-11.2767
劵	-11.2767
醖	-11.2767
寀	-11.2767
淪	-11.2767
瑒	-11.2767
寮	-11.2768
霤	-11.2768
太僕寺	-11.2768
曛	-11.2768
壟	-11.2768
絙	-11.2768
謡	-11.2769
嵇	-11.2769
苫	-11.2769
盪	-11.2769
壚	-11.2769
挟	-11.2769
簧	-11.2769
裾	-11.2769
昌齡	-11.2769
朓	-11.2769
恃	-11.2769
恍	-11.277
跗	-11.277
遏	-11.277
彷	-11.277
槩	-11.277
嵗華紀麗	-11.2771
綸	-11.2771
藴	-11.2771
評	-11.2771
逋	-11.2771
肖	-11.2771
潑	-11.2771
開封府	-11.2771
蕭瑟	-11.2772
帟	-11.2772
家塾事親	-11.2772
禜	-11.2772
綂	-11.2772
曇	-11.2772
燦	-11.2772
濬	-11.2772
册	-11.2773
腴	-11.2773
靑	-11.2773
原事物紀原	-11.2773
籙	-11.2773
反舌	-11.2773
増唐㑹要開元二十	-11.2773
揀	-11.2773
謩	-11.2773
剡	-11.2773
耽	-11.2773
弭	-11.2774
晨出曰	-11.2774
陁	-11.2774
昶	-11.2774
氤氲	-11.2774
太常博士	-11.2774
氷泮	-11.2774
入小學	-11.2774
扆	-11.2774
轄	-11.2774
􁆸	-11.2774
逡	-11.2774
懈	-11.2775
蓬莱	-11.2775
灸	-11.2775
耨	-11.2775
鴻臚	-11.2775
冨	-11.2775
園囿	-11.2776
萱	-11.2776
玉宸殿	-11.2776
鄭康成	-11.2776
白日昇天	-11.2777
楨	-11.2777
白虎通徳論曰	-11.2777
噫	-11.2778
傅休奕	-11.2778
禋	-11.2778
譬	-11.2778
摸	-11.2778
鵙	-11.2778
僮	-11.2778
御崇政殿	-11.2778
琳	-11.2778
譏	-11.2778
隩	-11.2778
李商隐	-11.2779
產	-11.2779
丕	-11.2779
交趾	-11.278
熖	-11.278
大合樂	-11.278
忻	-11.278
増宋書禮志	-11.278
娵	-11.278
巍	-11.278
閻	-11.278
梁元帝	-11.2781
沍	-11.2781
増漢書天文志	-11.2781
楠	-11.2781
脊	-11.2781
武成王	-11.2781
昂	-11.2781
勵	-11.2782
蹈	-11.2782
鵲始巢	-11.2782
櫃	-11.2782
稭	-11.2782
麟徳殿	-11.2782
咒	-11.2783
関	-11.2783
方来主	-11.2783
觱	-11.2783
瑯	-11.2783
殃	-11.2783
孤寡	-11.2784
攬	-11.2784
瑛	-11.2784
繆	-11.2784
柞	-11.2784
奄	-11.2784
儂	-11.2784
睂	-11.2784
五嵗再閏	-11.2784
琢	-11.2784
錬	-11.2785
倐	-11.2785
陸璣詩疏	-11.2785
鍰	-11.2785
批	-11.2786
日月之行	-11.2786
陶潜	-11.2786
銖	-11.2786
𡨕	-11.2786
後漢書百官志	-11.2787
曈	-11.2787
増漢書文帝紀十	-11.2787
益部方物記	-11.2787
柹	-11.2787
増漢書郊祀志	-11.2789
杷	-11.2789
眄	-11.2789
律中無射	-11.279
佇	-11.2791
翰林院侍講	-11.2791
月令輯要	-11.2792
孩	-11.2792
付史館	-11.2793
毌	-11.2793
𣙜	-11.2793
閹	-11.2793
舄	-11.2794
麛	-11.2794
鵬	-11.2794
粉團	-11.2794
增洞冥記	-11.2795
桞	-11.2796
春明退朝録	-11.2797
薙	-11.2798
棒	-11.28
増周禮天官	-11.28
躡	-11.2801
月置或進在	-11.2801
鸞鳯	-11.2801
樞宻院	-11.2802
筭	-11.2802
掦	-11.2802
鰣	-11.2803
挈	-11.2803
疥	-11.2805
燋	-11.2807
彝	-11.2808
分寸之	-11.2809
煇	-11.2814
扁鵲	-11.2814
椿	-11.2815
蒲澗	-11.2816
翰林院編修加	-11.2817
絜	-11.2825
部侍郎	-11.2842
州常以五	-11.2896
増玉海建隆	-11.3526
増宋史禮志大中祥符	-11.3609
翰林院侍	-11.3915
漢宣帝	-11.3949
齊民要術	-11.4331
阿措	-11.4362
隋書禮儀志	-11.4374
瓮	-11.4377
魔	-11.4386
䭔	-11.4394
便民圗纂	-11.4396
郃	-11.4396
矯	-11.4397
法苑珠林	-11.4398
名醫别録	-11.4399
鴝鵒	-11.4399
増選擇歴書	-11.44
威靈仙	-11.4402
翊	-11.4404
熊羆	-11.4405
臛	-11.4405
鉞	-11.4405
皿	-11.4405
售	-11.4406
惻	-11.4407
䦨	-11.4409
荄	-11.4409
外臺秘要	-11.4409
擦	-11.441
増務本新書	-11.441
朝集使	-11.441
戀	-11.4411
歲時廣記	-11.4412
觶	-11.4412
茈	-11.4413
増路史	-11.4413
景靈宫	-11.4413
憩	-11.4413
増農桑通訣	-11.4414
㬌	-11.4414
列仙𫝊	-11.4414
萬五千	-11.4415
羌	-11.4415
日卯時月在	-11.4415
隄	-11.4416
鸚鵡	-11.4416
兩儀殿	-11.4416
増佛國記	-11.4416
菖	-11.4417
苽	-11.4417
喘	-11.4418
廣義注	-11.4419
坦	-11.4419
鮒	-11.4419
絨	-11.442
脈	-11.442
㤀	-11.442
涉	-11.442
䜿	-11.442
下田家志	-11.442
蟇	-11.442
齊東野語	-11.442
滇	-11.442
沮	-11.4421
虐	-11.4421
橘柚	-11.4421
葶	-11.4421
滉	-11.4421
澌	-11.4421
駁	-11.4421
鷹化為鳩	-11.4422
廳	-11.4422
蟠	-11.4422
演繁露	-11.4422
岳陽風土記岳州	-11.4422
芼	-11.4422
試詩賦	-11.4422
陸龜䝉	-11.4422
食療本草	-11.4422
髓	-11.4423
賭	-11.4423
月上寅采	-11.4423
鏗	-11.4423
蟄蟲坏户	-11.4423
増莊子	-11.4424
増瑯嬛記	-11.4424
蔓菁	-11.4424
増南方草木状	-11.4424
煗	-11.4424
妹	-11.4424
痺	-11.4424
增農桑輯要	-11.4424
駘蕩	-11.4424
碩	-11.4425
苟	-11.4425
踝	-11.4425
紞	-11.4425
日候之甲	-11.4426
瘟疫	-11.4426
琅邪	-11.4426
刮	-11.4426
穠	-11.4426
醵	-11.4426
厓	-11.4427
増便民圖纂	-11.4427
増雲笈七籤	-11.4427
圉	-11.4428
豉	-11.4428
淒淒	-11.4428
菠	-11.4428
慤	-11.4428
茇	-11.4428
餓	-11.4428
帕	-11.4428
彥	-11.4428
三品以上	-11.4428
井華水	-11.4428
旃	-11.4428
溟	-11.4428
分夜漏三十	-11.4429
􁰳	-11.4429
亳	-11.4429
牂	-11.4429
邜	-11.4429
畋	-11.443
觀刈麥	-11.443
鍜	-11.443
倡	-11.443
北方元武之宿	-11.4431
增田家雜占	-11.4431
太皇太后	-11.4432
員外郎	-11.4432
增北史	-11.4432
斟	-11.4432
蚖	-11.4432
涿	-11.4433
㺯	-11.4433
廸	-11.4433
悪	-11.4433
烘	-11.4433
曺	-11.4433
瘟	-11.4433
侑	-11.4434
秦始皇	-11.4434
捻	-11.4434
増西京雜記	-11.4434
鰥寡孤獨	-11.4434
蒨	-11.4435
孟浩然	-11.4435
觥	-11.4435
居家必用	-11.4435
周而復始	-11.4435
茰	-11.4435
烽	-11.4435
紉	-11.4435
紏	-11.4435
倅	-11.4436
窻	-11.4436
𣗳	-11.4436
毅	-11.4436
煌煌	-11.4436
愷	-11.4436
醢	-11.4436
鵙始鳴	-11.4436
鉉	-11.4436
李徳裕	-11.4436
恪	-11.4436
緜	-11.4436
鐃	-11.4436
増舊唐書憲宗紀	-11.4436
譲	-11.4436
僻	-11.4436
圖經夲草	-11.4436
峩	-11.4436
老杜詩云	-11.4436
椏	-11.4436
水始涸	-11.4437
棣	-11.4437
禍	-11.4437
琮	-11.4437
綽	-11.4437
换	-11.4437
􁃽	-11.4437
原越絶書	-11.4437
渤	-11.4437
瘦	-11.4437
軀	-11.4437
張九齡	-11.4437
待漏院	-11.4437
珉	-11.4437
俠	-11.4438
邃	-11.4438
原藏經	-11.4438
増異苑	-11.4438
錐	-11.4438
徭	-11.4438
鉏	-11.4438
堊	-11.4438
原後漢書律歴志	-11.4438
増周禮秋官	-11.4439
𤨏	-11.4439
宋書百官志	-11.4439
夙興夜寐	-11.4439
絕	-11.4439
刳	-11.4439
需	-11.444
易乾鑿度	-11.444
妍	-11.444
桃始華	-11.444
小白花	-11.444
眇	-11.444
托	-11.444
天監六年	-11.444
羗	-11.444
朏	-11.444
偕	-11.444
増舊唐書音樂志	-11.4441
蕡	-11.4441
控	-11.4441
睠	-11.4441
増博物志	-11.4441
洞元靈寳月十齋	-11.4442
春秋感精符	-11.4442
月上寅日	-11.4442
權徳輿	-11.4442
莒	-11.4442
紘	-11.4443
麥門冬	-11.4443
嗚	-11.4443
掐	-11.4443
荆楚歲時記	-11.4443
原晉書禮志	-11.4443
曹彬	-11.4443
宼	-11.4443
萸	-11.4443
樗	-11.4443
燼	-11.4443
巔	-11.4443
歙	-11.4443
㽞	-11.4444
撻	-11.4444
竽	-11.4444
瑑	-11.4444
地菩薩如十	-11.4444
溥	-11.4444
搭	-11.4444
憚	-11.4444
昕	-11.4444
湍	-11.4444
怖	-11.4444
列女𫝊	-11.4444
躑	-11.4444
闡	-11.4445
䖟	-11.4445
琪	-11.4445
憎	-11.4445
増玉海天禧	-11.4445
慈恩寺	-11.4445
恰	-11.4445
盒	-11.4445
夏令則國	-11.4445
翩	-11.4446
汙	-11.4446
慙	-11.4446
増百怪斷經	-11.4446
増玉海至道元年	-11.4447
乾元殿	-11.4447
秘書省	-11.4447
脣	-11.4447
汶	-11.4447
墟	-11.4447
夏枯草	-11.4448
滚	-11.4448
鑊	-11.4448
喝	-11.4448
剰	-11.4448
方寸匕	-11.4449
秘書監	-11.4449
増宋史樂志	-11.4449
墐	-11.4449
南越志	-11.445
貿	-11.445
缾	-11.445
風至四十五	-11.445
堕	-11.4451
趺	-11.4451
莆	-11.4451
彚	-11.4451
後漢書和帝紀永元	-11.4451
昭帝紀始元	-11.4451
珮	-11.4451
傭	-11.4452
周禮春官大宗伯	-11.4452
憇	-11.4452
閽	-11.4452
五加皮	-11.4452
増後漢書律歴志	-11.4452
右春坊右	-11.4452
辟寒金	-11.4452
傘	-11.4453
脇	-11.4453
抛	-11.4454
原内經	-11.4454
璋	-11.4454
係	-11.4455
耬	-11.4455
靄靄	-11.4455
壻	-11.4455
伸	-11.4455
瘴	-11.4455
姝	-11.4456
沂	-11.4456
罅	-11.4457
貍	-11.4457
肘	-11.4457
昊天上帝	-11.4457
祉	-11.4458
月莭晝	-11.4458
晋書樂志	-11.4458
蟋蟀居壁	-11.4458
祭司寒	-11.4459
原荘子	-11.4459
租税	-11.4459
欖	-11.4459
募	-11.446
溽	-11.4461
俞	-11.4461
糵	-11.4462
終而復始	-11.4462
淞	-11.4462
瑤	-11.4463
臊	-11.4465
簁	-11.4465
疉	-11.4465
藋	-11.4465
邈	-11.4466
磁	-11.4467
窈	-11.4467
天寳六載	-11.4467
藪	-11.4467
霰	-11.4467
或退在	-11.4467
㵼	-11.447
衾	-11.447
増湘山野録	-11.447
碓	-11.447
淫於内治以	-11.447
謂左右曰	-11.4471
酤	-11.4471
磑	-11.4472
廪	-11.4473
綰	-11.4474
肱	-11.4474
􁁿	-11.4474
王建宫詞	-11.4475
紡績	-11.4475
晞	-11.4477
澶	-11.448
正齒位	-11.4485
玻	-11.4497
増荘子	-11.4501
子受制	-11.4506
鏤雞子	-11.4506
禖	-11.4507
淫所勝平以	-11.4512
物畢成	-11.4728
増宋書符瑞志漢	-11.4945
増唐詩紀事景龍	-11.5162
大中祥符元年	-11.535
建隆二年	-11.5458
日一酘	-11.5496
棠梨	-11.56
増玉海紹興二十五年	-11.565
増舊唐書徳宗紀貞元	-11.5846
増山堂考索	-11.5914
農政全書	-11.6329
竺	-11.6365
増唐書地理志	-11.6382
聾	-11.6386
原獨㫁	-11.6387
􁒊	-11.639
幌	-11.6391
增清異録	-11.6391
鹵	-11.6392
嵗壹見其貢	-11.6397
増燕翼詒謀録	-11.6398
飣	-11.6399
嬌	-11.6401
巳日還位	-11.6402
葡	-11.6403
行御天子出令命	-11.6404
嬴	-11.6404
刁	-11.6405
揫	-11.6405
墅	-11.6407
迨	-11.6407
原論語	-11.6407
金櫻子	-11.6407
琥	-11.6408
靚	-11.6408
玳	-11.6408
恙	-11.6409
虺	-11.6409
蕷	-11.6409
怯	-11.6409
長二寸許	-11.6409
濮	-11.6409
篚	-11.6409
纂要秋曰	-11.6409
悚	-11.641
沓	-11.641
秪	-11.641
赬	-11.6411
炕	-11.6411
宋陳元靚撰	-11.6411
増北京嵗華記	-11.6411
穟	-11.6411
加卯順數至	-11.6411
時在午位故	-11.6411
冽	-11.6412
堵	-11.6412
窩	-11.6412
蕈	-11.6412
喫	-11.6412
中華古今註	-11.6413
増大戴禮	-11.6413
瀟	-11.6413
郗	-11.6413
厦	-11.6414
廱	-11.6414
膜	-11.6414
爱	-11.6414
瘁	-11.6414
原世説	-11.6414
屨	-11.6414
泫	-11.6414
増易通卦騐	-11.6415
隋書文帝紀開皇	-11.6415
瓏	-11.6416
赤靈符	-11.6416
原尸子	-11.6416
愬	-11.6416
麑	-11.6416
白頭翁	-11.6416
促織鳴	-11.6416
箬	-11.6417
后之井以	-11.6417
瘠	-11.6417
勣	-11.6417
胸	-11.6418
懋	-11.6418
磴	-11.6419
後漢書郎顗𫝊	-11.6419
璘	-11.6419
縞	-11.6419
畬	-11.6419
漢書魏相𫝊	-11.6419
原帝京景物略	-11.642
凜	-11.642
痢	-11.642
讙	-11.642
㐲	-11.642
顏	-11.6421
紆	-11.6421
翩翩	-11.6421
影堂常祭	-11.6421
莪	-11.6421
明堂右个	-11.6421
航	-11.6422
彄	-11.6422
塑	-11.6423
緱	-11.6423
荀爽曰	-11.6423
奸	-11.6423
飬老禮	-11.6423
笈	-11.6423
醿	-11.6424
癢	-11.6424
炯	-11.6424
叛	-11.6424
㢘	-11.6424
肪	-11.6424
周禮夏官校人	-11.6424
胭	-11.6424
鷹乃祭鳥	-11.6424
増後漢書章帝紀元和	-11.6425
蜚	-11.6425
翆	-11.6425
張道陵	-11.6425
䕫	-11.6425
赤光照室	-11.6425
泂	-11.6425
頺	-11.6425
緼	-11.6426
置律學	-11.6426
謝惠連	-11.6426
輻	-11.6426
劉邦彦十	-11.6426
貲	-11.6426
科掌印給	-11.6426
豢	-11.6426
原參同契	-11.6427
増參同契	-11.6427
右英夫人	-11.6427
塡	-11.6427
増紀歴撮要	-11.6427
讃	-11.6427
鐸	-11.6428
曄	-11.6428
謗	-11.6428
煦	-11.6428
鵑	-11.6428
萵苣	-11.6428
山林川澤	-11.6428
増荔枝譜	-11.6429
原博物志	-11.643
悅	-11.643
叨	-11.643
増子夜歌	-11.643
罍	-11.643
蛻	-11.643
䅖	-11.643
劾	-11.643
律中姑洗	-11.643
瞬	-11.6431
如車輪	-11.6431
鷓	-11.6431
忒	-11.6431
韉	-11.6431
轅	-11.6432
椽	-11.6432
稊	-11.6432
惆	-11.6432
耍	-11.6432
蹉	-11.6433
構	-11.6433
頰	-11.6433
晉書律歴志	-11.6433
薁	-11.6433
草木萌動	-11.6433
山家清供	-11.6433
檠	-11.6434
狭	-11.6434
鎭	-11.6434
對延英	-11.6434
菹	-11.6434
魏書靈徵志	-11.6434
糗	-11.6434
別	-11.6434
歟	-11.6435
狎	-11.6435
譚	-11.6435
扃	-11.6435
抗	-11.6435
讀五時令	-11.6435
盫	-11.6435
韓魏公	-11.6435
抃	-11.6435
春鶯囀	-11.6435
辟寒香	-11.6435
藷	-11.6435
楼	-11.6436
戻	-11.6436
紳	-11.6436
董仲舒雨雹對	-11.6436
罔	-11.6436
𢷬	-11.6436
敺	-11.6436
惶	-11.6436
荏	-11.6436
賀知章	-11.6436
凊	-11.6437
認	-11.6437
坏	-11.6437
罄	-11.6437
嚏	-11.6437
増楚通志	-11.6437
彿	-11.6437
綈	-11.6437
鸎	-11.6437
薐	-11.6437
攽	-11.6437
癡	-11.6437
粤	-11.6437
絢	-11.6438
翛	-11.6438
漪	-11.6438
璟	-11.6438
林邑國	-11.6438
蝱	-11.6438
芳林園	-11.6438
閃	-11.6438
闥	-11.6438
獃	-11.6438
螟	-11.6439
薦福寺	-11.6439
殿中侍御史	-11.6439
猥	-11.6439
原論衡	-11.6439
白虎通德論曰	-11.6439
豺	-11.6439
迸	-11.6439
䍷	-11.6439
一晝一夜	-11.6439
王建八月十	-11.6439
鄊	-11.644
齧	-11.644
僉	-11.644
蝠	-11.644
湓	-11.644
党	-11.644
曳	-11.644
二百三十五	-11.644
絛	-11.644
氾	-11.6441
胷	-11.6441
舉寃獄	-11.6441
增政和本草	-11.6441
靈威仰	-11.6441
原千金方	-11.6443
扶南國	-11.6443
唾	-11.6443
孝經論語	-11.6443
抹	-11.6443
韋應物	-11.6443
䏻	-11.6443
酉蔀七十六嵗凡三百四嵗	-11.6443
羯	-11.6443
凰	-11.6443
帝王世紀	-11.6444
増宋會要	-11.6444
正日臨朝	-11.6444
舉孝廉	-11.6444
纉	-11.6444
腓	-11.6444
諶	-11.6445
撞	-11.6445
増蕪史	-11.6445
搦	-11.6445
原初學記	-11.6445
堰	-11.6445
熨	-11.6445
羸	-11.6445
髄	-11.6446
折楊柳	-11.6446
䧺	-11.6446
煬	-11.6446
螭	-11.6446
二至二分	-11.6446
穡	-11.6446
拆	-11.6447
偈	-11.6447
窒	-11.6447
颼	-11.6447
稑	-11.6447
斥	-11.6448
嘘	-11.6448
庵	-11.6448
餤	-11.6448
墉	-11.6448
緊	-11.6448
葷	-11.6448
蜕	-11.6448
年不壊	-11.6449
先薦寢廟	-11.6449
畵	-11.6449
田䑕化為鴽	-11.6449
腐草為螢	-11.6449
月窮于紀	-11.6449
尚書大傳	-11.645
老學庵筆記	-11.645
賡	-11.645
撚	-11.645
裒	-11.645
晉書武帝紀泰	-11.645
堦	-11.6451
綌	-11.6451
埽	-11.6451
痘	-11.6451
苣	-11.6451
日窮于次	-11.6451
莱	-11.6452
粔	-11.6452
贅	-11.6452
擅	-11.6452
倭	-11.6452
時月仙星福徳星	-11.6452
毳	-11.6453
鞋	-11.6453
杉	-11.6454
涵	-11.6454
増𫝊燈録	-11.6454
鑽	-11.6454
律中應鍾	-11.6454
苒	-11.6454
時天徳星寳光星	-11.6454
豺祭獸	-11.6454
三公九卿	-11.6455
華林園	-11.6455
敖	-11.6455
罩	-11.6456
謂侍臣曰	-11.6456
星回于天	-11.6456
跌	-11.6456
黼	-11.6456
佚	-11.6456
欒	-11.6457
愔	-11.6457
黄庭堅	-11.6457
艶	-11.6457
増玉海景祐二年	-11.6457
捍	-11.6458
窕	-11.6458
丢	-11.6458
蹤	-11.6459
北南臣僚	-11.6459
賴	-11.6459
時天開星少微星	-11.6459
暵	-11.6459
謠	-11.646
鑼	-11.6461
盼	-11.6461
鄒	-11.6461
詵	-11.6462
襍	-11.6462
粘	-11.6462
朱子語録	-11.6463
九子糉	-11.6463
輦下嵗時記	-11.6464
嗽	-11.6464
峴	-11.6465
龎	-11.6465
東夷𫝊	-11.6465
鷁	-11.6466
饔	-11.6466
氲	-11.6466
栢梁體	-11.6466
嘶	-11.6466
泱	-11.6466
譙	-11.6466
増夲草綱目	-11.6467
月者間亦有之	-11.6467
閏當在此年	-11.6467
奭	-11.6469
凑	-11.647
燔	-11.647
踊	-11.6471
奩	-11.6471
鏃	-11.6472
陡	-11.6472
郫	-11.6472
皴	-11.6474
蹶	-11.6474
顗	-11.6475
烜	-11.6475
原范成大村田樂府序	-11.6476
楙	-11.6476
盥	-11.6478
挨	-11.6479
加元服	-11.648
燄	-11.6482
遒	-11.6482
噀	-11.6483
飡	-11.6485
掣	-11.6487
􁭤	-11.6487
蹴	-11.6491
饁	-11.6491
煨	-11.6492
刷	-11.6493
增清異錄	-11.6517
為虚甲	-11.6678
部右侍	-11.716
唐詩紀事景龍三年	-11.7243
原皇極經世	-11.812
増唐書太宗紀貞觀	-11.8713
増魏書靈徴志	-11.8836
皚	-11.8838
庮	-11.8855
黄褐侯	-11.8855
牛塘利	-11.8865
㰂	-11.8868
劈正斧	-11.8869
増桂海花志	-11.8876
榕	-11.8877
聶	-11.8881
䃡	-11.8881
鯁	-11.8884
楂	-11.8886
𤣥元皇帝	-11.8886
瀹	-11.8888
増野菜譜	-11.8891
媿	-11.8891
虀	-11.8891
諾	-11.8892
増閩部疏	-11.8892
蓘	-11.8892
漢書禮樂志	-11.8894
棧	-11.8894
沁	-11.8895
菔	-11.8895
増輝縣志	-11.8898
増物理論	-11.8898
洧	-11.8898
安樂窩	-11.8899
湯沐浴令人	-11.8899
用事火煙	-11.8899
畎	-11.8901
戞	-11.8901
瀰	-11.8901
燕翼貽謀録	-11.8901
繹	-11.8901
御試舉人	-11.8902
榨	-11.8902
邳	-11.8904
増元中記	-11.8904
若於夜則月	-11.8904
恱	-11.8905
鬐	-11.8905
增朝野僉載	-11.8905
􁘅	-11.8905
方故使為	-11.8905
酧	-11.8906
衿	-11.8906
増嬾真子錄	-11.8906
原開天遺事楊國忠	-11.8906
夀星之次	-11.8906
埒	-11.8908
鱓	-11.8909
淇	-11.8909
銳	-11.8909
堞	-11.8909
栱	-11.8909
帬	-11.8911
移春檻	-11.8911
増名醫别錄	-11.8911
子干丙子	-11.8911
子干庚子	-11.8911
柂	-11.8911
含譽星見	-11.8912
嘑	-11.8912
庌	-11.8912
羣鳥養羞	-11.8912
躁	-11.8913
靂	-11.8913
纘	-11.8913
郵	-11.8915
哥	-11.8915
増燕翼詒謀錄	-11.8915
後漢書張純	-11.8915
舉茂材	-11.8915
髠	-11.8915
琦	-11.8916
兾	-11.8916
增齊民要術崔寔	-11.8916
皆賤逆此者貴	-11.8916
前漢律厯志曰	-11.8916
拯	-11.8916
歳歳隂在	-11.8916
匭	-11.8916
江淹别賦	-11.8916
月禮記月令曰孟	-11.8917
原述異記	-11.8917
蘼	-11.8917
個	-11.8917
其數九其味辛其臭腥其祀門	-11.8917
詭	-11.8917
冝	-11.8917
曼陀羅	-11.8917
倘	-11.8919
原唐詩紀事	-11.8919
瀕	-11.8919
义	-11.8919
週	-11.8919
葬	-11.8919
儔	-11.8919
噪	-11.8919
殼	-11.8919
塤	-11.892
兆人本業	-11.892
獲玉印	-11.892
増一統志	-11.892
棊	-11.892
増圗經本草	-11.892
酴	-11.8921
㽔	-11.8921
焜	-11.8922
撓	-11.8922
椑	-11.8922
鵒	-11.8922
增燕翼貽謀錄	-11.8922
彧	-11.8922
禬	-11.8922
糝	-11.8922
増詩䟽廣要	-11.8922
擷	-11.8922
鳯皇集	-11.8922
號曰助天	-11.8923
卬	-11.8923
如弹丸	-11.8923
峡	-11.8923
箏	-11.8923
柚	-11.8924
以太牢祠	-11.8924
槊	-11.8924
榔	-11.8924
𬒮	-11.8924
赤熛怒	-11.8924
其失次有應見	-11.8924
涒	-11.8924
焕	-11.8924
魏書釋老志	-11.8924
乾淳歲時記冬至	-11.8924
泔	-11.8926
樸	-11.8926
嶼	-11.8926
慵	-11.8926
脽	-11.8926
侮	-11.8926
栻	-11.8926
薌	-11.8926
隈	-11.8926
渝	-11.8927
思蜀都賦	-11.8927
增宋史律歴志	-11.8927
隋書音樂志	-11.8927
鸕	-11.8927
壹	-11.8927
啻	-11.8927
袪	-11.8927
内閣大學	-11.8927
涖	-11.8928
蚓	-11.8928
搥	-11.8929
傚	-11.8929
増鶴慶府志	-11.8929
中尚署令	-11.8929
礪	-11.8929
躅	-11.8929
菉	-11.8929
開細白花	-11.893
溪蠻叢笑	-11.893
闋	-11.893
咫	-11.893
扐	-11.893
唐書選舉志	-11.893
祺	-11.893
耰	-11.893
譁	-11.8931
罘	-11.8931
蕓	-11.8931
成大上元呉中節物詩	-11.8931
芷	-11.8931
霂	-11.8931
掲	-11.8931
木也其牲以	-11.8931
櫸	-11.8931
湜	-11.8931
諯	-11.8931
髩	-11.8933
嬾	-11.8933
尺堂階	-11.8933
諦	-11.8933
罽	-11.8933
閔	-11.8933
敝	-11.8933
増録異記	-11.8933
山川形勢	-11.8933
䓁	-11.8933
䢴	-11.8933
増後漢書安帝紀延光	-11.8933
増玉海嘉祐四年	-11.8933
踞	-11.8933
九域志	-11.8933
名註中官為	-11.8933
禮部選士	-11.8933
鴂	-11.8933
嚙	-11.8934
讜	-11.8934
佾	-11.8934
鋸	-11.8934
霶	-11.8934
増遼史聖宗紀統和	-11.8934
聼訟觀	-11.8934
藶	-11.8934
西京雜記戚夫人侍兒賈佩蘭	-11.8934
煞	-11.8934
跣	-11.8934
悖	-11.8934
賖	-11.8934
駛	-11.8934
驤	-11.8934
春日載陽	-11.8935
崑	-11.8935
緻	-11.8935
戶	-11.8935
夏侯湛	-11.8935
隘	-11.8935
其味鹹其臭朽其祀行祭先腎	-11.8935
増漢書平帝紀元始	-11.8935
噬	-11.8936
檉	-11.8937
躋	-11.8937
御乾元門	-11.8937
汰	-11.8937
菅	-11.8937
天寳十載	-11.8937
􁘀	-11.8937
建隆四年	-11.8938
增春秋繁露	-11.8938
原南方草木状	-11.8938
瓚	-11.8938
闚	-11.8938
盧多遜	-11.8938
罌	-11.8938
蠕	-11.8938
溺	-11.8938
無逸篇	-11.8938
其數七其味苦其臭焦其	-11.8938
却鬼丸	-11.8938
樃	-11.8938
􁀺	-11.8938
原東京夢華録	-11.8939
蜀芥蕓薹	-11.894
脛	-11.894
吝	-11.894
緧	-11.894
五經通義	-11.894
閫	-11.894
増漢書武帝紀元鼎	-11.894
孝經援神契	-11.894
亶	-11.894
獻馴象	-11.894
聫	-11.894
薍	-11.894
蹋	-11.8941
靧	-11.8941
遑	-11.8941
些	-11.8941
俛	-11.8941
増後漢書光武紀建武	-11.8941
方春東作	-11.8941
緗	-11.8941
分夜漏五十	-11.8941
之道也逆之則傷	-11.8941
槖	-11.8941
阪	-11.8941
也萬物之所以	-11.8941
以滿為限	-11.8941
惕	-11.8941
閬	-11.8942
爬	-11.8942
滷	-11.8943
陲	-11.8944
鴛	-11.8944
茜	-11.8944
巘	-11.8944
鮫	-11.8944
覃	-11.8944
楣	-11.8944
酲	-11.8944
瀏	-11.8944
颸	-11.8944
熒	-11.8945
迓	-11.8945
冗	-11.8945
臠	-11.8945
橈	-11.8945
件	-11.8945
鯢	-11.8945
蹔	-11.8945
悴	-11.8945
袤	-11.8947
泚	-11.8947
縉	-11.8947
鱨	-11.8947
鵪	-11.8947
䪥	-11.8947
帀	-11.8947
蘀	-11.8947
歐	-11.8948
櫂	-11.8948
毗	-11.8948
驂	-11.8948
盬	-11.8948
稈	-11.8948
渺	-11.8949
蟁	-11.8949
浃	-11.8949
滸	-11.8949
樾	-11.8949
暹	-11.8949
踼	-11.8949
琅	-11.8951
翾	-11.8951
斃	-11.8951
䧟	-11.8951
壎	-11.8951
耩	-11.8952
歆	-11.8952
彬	-11.8952
朧	-11.8952
朞	-11.8952
駙	-11.8953
謐	-11.8953
􁀔	-11.8953
裡	-11.8955
韌	-11.8955
龔	-11.8955
笨	-11.8955
帙	-11.8955
儆	-11.8955
叠	-11.8956
擔	-11.8956
樝	-11.8956
濼	-11.8956
龡	-11.8956
汀	-11.8958
鍳	-11.8958
彛	-11.8958
卞	-11.8958
騫	-11.8958
拉	-11.8958
覓	-11.8958
莩	-11.8959
闘	-11.8959
蠏	-11.8959
矛	-11.8959
奬	-11.896
曨	-11.896
瑕	-11.896
厰	-11.896
鈍	-11.896
麽	-11.896
颶	-11.8961
炮	-11.8962
煜	-11.8962
噎	-11.8962
魅	-11.8962
蔈	-11.8962
疣	-11.8963
鶬	-11.8963
擭	-11.8963
㬉	-11.8965
鈺	-11.8965
蓑	-11.8965
汜	-11.8966
焯	-11.8966
苹	-11.8966
吠	-11.8967
盾	-11.8967
笞	-11.8967
蟒	-11.8967
䭾	-11.8968
炫	-11.8969
碗	-11.897
悄	-11.897
𡼏	-11.897
暾	-11.8973
盟	-11.8973
抒	-11.8974
韞	-11.8974
沖	-11.8974
份	-11.8974
禿	-11.8976
噶	-11.8976
劑	-11.8976
蘸	-11.8977
磻	-11.8977
簸	-11.898
灋	-11.898
涷	-11.8983
畮	-11.8987
眡	-11.8991
琨	-11.8994
鄕	-11.8996
圻	-11.902
挼	-11.9024
兖	-11.9155
虈	-12.2158
陘	-12.2164
晾	-12.2181
􁇪	-12.2181
悼	-12.2196
圯	-12.2196
蝤	-12.2208
蛑	-12.221
蟳	-12.221
揲	-12.2212
況	-12.2212
菒	-12.2212
蝏	-12.2212
庇	-12.2214
桲	-12.2216
溱	-12.2216
鶩	-12.2219
秕	-12.222
潼	-12.222
煼	-12.222
魦	-12.222
嗛	-12.2223
篁	-12.2223
汨	-12.2223
磅	-12.2227
汋	-12.2227
筝	-12.2227
荳	-12.2231
箙	-12.2231
篦	-12.2231
聯	-12.2231
臕	-12.2231
掀	-12.2233
𥘉	-12.2233
藐	-12.2233
煠	-12.2233
毣	-12.2233
佗	-12.2235
欬	-12.2235
陷	-12.2235
茘	-12.2237
禆	-12.2237
蜓	-12.2237
悸	-12.2237
撼	-12.2237
鵰	-12.2237
奐	-12.2237
蛆	-12.2239
媛	-12.2239
兀	-12.2239
崩	-12.2239
燖	-12.2239
簼	-12.2239
絪	-12.2241
攅	-12.2241
澈	-12.2241
貛	-12.2241
鮸	-12.2241
毆	-12.2242
洱	-12.2243
摯	-12.2243
娃	-12.2245
吃	-12.2245
姻	-12.2245
虱	-12.2245
劚	-12.2245
鑣	-12.2245
扛	-12.2245
鴆	-12.2245
㢠	-12.2245
鐺	-12.2246
妝	-12.2246
熯	-12.2247
駑	-12.2248
笻	-12.2248
篙	-12.2248
癰	-12.2248
屧	-12.2248
礫	-12.225
髯	-12.225
冄	-12.225
昒	-12.225
蘅	-12.2252
薩	-12.2252
蕖	-12.2252
㨿	-12.2252
鰕	-12.2252
債	-12.2252
檝	-12.2252
殽	-12.2252
轆	-12.2252
髭	-12.2252
薈	-12.2252
洶	-12.2252
塍	-12.2254
䜛	-12.2254
瑗	-12.2254
颷	-12.2254
啞	-12.2254
𥚑	-12.2254
㪷	-12.2254
慄	-12.2254
䜴	-12.2256
瓘	-12.2256
囓	-12.2256
頋	-12.2256
唳	-12.2256
贓	-12.2256
棕	-12.2256
爕	-12.2256
肚	-12.2256
嵓	-12.2256
藙	-12.2256
鍪	-12.2258
㕑	-12.2258
懾	-12.2258
仆	-12.2258
憾	-12.2258
舛	-12.2258
蹊	-12.2258
抬	-12.2258
菟	-12.2258
謿	-12.2258
犧	-12.2258
餕	-12.226
頽	-12.226
儡	-12.226
姊	-12.226
噏	-12.226
呬	-12.226
寎	-12.226
斸	-12.226
暌	-12.2261
籮	-12.2262
砍	-12.2262
遘	-12.2262
堋	-12.2262
沅	-12.2262
淥	-12.2262
讚	-12.2262
撿	-12.2262
垜	-12.2262
潢	-12.2262
羃	-12.2262
螘	-12.2262
灞	-12.2262
蔤	-12.2262
藺	-12.2262
𤦺	-12.2262
𦍑	-12.2262
綖	-12.2264
紬	-12.2264
姪	-12.2264
憬	-12.2264
懇	-12.2264
莅	-12.2264
鞾	-12.2264
湫	-12.2264
冔	-12.2264
鸚	-12.2266
鎧	-12.2266
凟	-12.2266
鱣	-12.2266
甆	-12.2266
􁮺	-12.2266
哺	-12.2266
箧	-12.2266
羝	-12.2266
鰽	-12.2266
仄	-12.2268
薟	-12.2268
豨	-12.2268
挫	-12.2268
斿	-12.2268
煤	-12.2268
啾	-12.2268
嶂	-12.2268
晼	-12.2268
棨	-12.2268
葫	-12.2269
簽	-12.2269
綻	-12.227
掉	-12.227
屆	-12.227
湊	-12.227
埀	-12.227
謾	-12.227
𠻳	-12.227
擂	-12.227
港	-12.227
炅	-12.227
犒	-12.227
倮	-12.227
兕	-12.227
机	-12.227
桔	-12.227
蠛	-12.227
啗	-12.2271
􁄾	-12.2272
佞	-12.2272
戢	-12.2272
腑	-12.2272
髹	-12.2272
盍	-12.2272
縂	-12.2272
壐	-12.2272
恂	-12.2272
愉	-12.2272
愴	-12.2272
稟	-12.2272
聿	-12.2272
薏	-12.2272
褢	-12.2272
跑	-12.2272
􁲖	-12.2272
覊	-12.2273
腒	-12.2273
灝	-12.2273
渌	-12.2273
韜	-12.2273
幬	-12.2274
毓	-12.2274
妬	-12.2275
鴦	-12.2275
輭	-12.2275
竄	-12.2275
汛	-12.2275
翡	-12.2275
駝	-12.2275
懔	-12.2275
倖	-12.2275
粹	-12.2275
鱧	-12.2275
䄠	-12.2275
匡	-12.2275
榞	-12.2275
㐮	-12.2277
侠	-12.2277
簣	-12.2277
㳂	-12.2277
系	-12.2277
肻	-12.2277
麩	-12.2277
惋	-12.2277
捫	-12.2277
瑰	-12.2277
罇	-12.2277
輜	-12.2277
柵	-12.2277
狨	-12.2277
瑱	-12.2277
郟	-12.2277
孶	-12.2279
酹	-12.2279
茆	-12.2279
碣	-12.2279
墠	-12.2279
溷	-12.2279
虬	-12.2279
攢	-12.2279
讞	-12.2279
醺	-12.2279
殳	-12.2279
絁	-12.2279
隷	-12.2279
匕	-12.2279
巻	-12.2279
帔	-12.2279
沌	-12.2279
群	-12.2279
蚳	-12.2279
蜑	-12.2279
讐	-12.2279
饅	-12.2279
鴳	-12.2279
鶗	-12.2279
􁂔	-12.2279
訥	-12.2281
断	-12.2281
寖	-12.2281
葑	-12.2281
湟	-12.2281
訝	-12.2281
褊	-12.2283
踵	-12.2283
匾	-12.2283
餒	-12.2283
緬	-12.2283
闉	-12.2283
鼗	-12.2283
柜	-12.2283
玘	-12.2283
逞	-12.2283
朮	-12.2283
骼	-12.2283
汚	-12.2285
椶	-12.2285
冉	-12.2285
雝	-12.2285
佯	-12.2285
慷	-12.2285
㕍	-12.2285
瑜	-12.2285
盱	-12.2285
蒹	-12.2285
兢	-12.2285
蘧	-12.2285
隧	-12.2285
驍	-12.2285
􁁬	-12.2285
聪	-12.2287
朂	-12.2287
穣	-12.2287
軋	-12.2287
璿	-12.2287
洵	-12.2289
忝	-12.2289
搬	-12.2289
禕	-12.2289
欹	-12.2289
翥	-12.2289
鑠	-12.2289
匙	-12.2289
濱	-12.2291
衘	-12.2291
霙	-12.2291
狸	-12.2291
茀	-12.2291
珂	-12.2291
睫	-12.2291
蕚	-12.2291
蒞	-12.2293
閟	-12.2293
鷟	-12.2293
涂	-12.2293
貓	-12.2293
餈	-12.2293
遴	-12.2293
氤	-12.2295
隗	-12.2295
駱	-12.2295
驥	-12.2295
絍	-12.2295
捷	-12.2295
殄	-12.2295
盎	-12.2295
貶	-12.2295
鼇	-12.2295
蝡	-12.2295
槀	-12.2295
襃	-12.2295
靴	-12.2295
􁉸	-12.2295
騂	-12.2297
爨	-12.2297
襯	-12.2297
䙝	-12.2297
諒	-12.2299
鼐	-12.2299
鎚	-12.2299
劬	-12.23
訃	-12.23
址	-12.23
継	-12.23
鬆	-12.23
扄	-12.2301
踆	-12.2301
幻	-12.2302
躭	-12.2302
畚	-12.2302
宓	-12.2302
鏁	-12.2302
葆	-12.2302
敉	-12.2302
朐	-12.2302
焞	-12.2302
趁	-12.2304
趋	-12.2304
祲	-12.2304
碕	-12.2304
嵎	-12.2306
晃	-12.2306
蔭	-12.2306
拈	-12.2308
冏	-12.2308
瘥	-12.2308
靉	-12.231
呻	-12.231
䕸	-12.231
蜼	-12.231
狥	-12.2312
裵	-12.2312
褓	-12.2312
嶷	-12.2314
佃	-12.2314
㬠	-12.2316
襁	-12.2316
臉	-12.2318
㓕	-12.2318
憊	-12.2318
劔	-12.2318
詡	-12.232
蝨	-12.2324
夌	-12.2326
牷	-12.2326
􁊥	-12.2326
搔	-12.2327
甓	-12.2327
櫛	-12.2333
鈐	-12.2333
彞	-12.2333
裀	-12.2335
飧	-12.2335
漱	-12.2368
􁥦	-12.7146
䃰	-12.7155
岀	-12.7171
摇	-12.7177
捐	-12.7183
葚	-12.7183
塒	-12.7183
猩	-12.7183
琤	-12.7183
惱	-12.7187
惹	-12.719
駸	-12.719
掬	-12.7193
芍	-12.7202
翬	-12.7202
甖	-12.7202
覬	-12.7202
鍮	-12.7205
蓱	-12.7205
鏜	-12.7209
橊	-12.7209
届	-12.7212
坫	-12.7212
淄	-12.7212
熛	-12.7212
騁	-12.7212
繰	-12.7215
㝷	-12.7215
罐	-12.7215
嶸	-12.7215
􁋜	-12.7215
徤	-12.7215
􁂺	-12.7215
鄠	-12.7218
嘴	-12.7218
鈸	-12.7221
蓉	-12.7221
仝	-12.7221
罹	-12.7221
鷕	-12.7221
芙	-12.7224
糁	-12.7224
𣺌	-12.7224
夥	-12.7224
蕺	-12.7224
摵	-12.7224
霹	-12.7227
鍤	-12.7227
瑄	-12.7227
磽	-12.7227
眚	-12.7227
邅	-12.7227
壄	-12.7228
渢	-12.7228
紃	-12.7228
虆	-12.7228
㗫	-12.7228
丐	-12.7228
轢	-12.7228
劃	-12.7231
癎	-12.7231
尻	-12.7231
斡	-12.7231
漑	-12.7231
斕	-12.7231
黴	-12.7231
捎	-12.7231
蓓	-12.7231
窨	-12.7231
翣	-12.7231
訩	-12.7231
餵	-12.7231
徨	-12.7234
塹	-12.7234
胙	-12.7234
箎	-12.7234
鐫	-12.7234
嘂	-12.7234
忡	-12.7234
慣	-12.7234
毿	-12.7234
蕑	-12.7234
􁀾	-12.7234
跼	-12.7237
哢	-12.7237
篠	-12.7237
賄	-12.7237
慝	-12.7237
撆	-12.7237
欎	-12.7237
艸	-12.7237
觽	-12.7237
謞	-12.7237
餧	-12.7237
癖	-12.724
螯	-12.724
騖	-12.724
㓗	-12.724
㬥	-12.724
勳	-12.724
呴	-12.724
哩	-12.724
崧	-12.724
弔	-12.724
杻	-12.724
椐	-12.724
籩	-12.724
箆	-12.7243
礱	-12.7243
泅	-12.7243
跛	-12.7243
廨	-12.7243
闞	-12.7246
棐	-12.7246
棋	-12.7246
羿	-12.7246
檣	-12.7246
矧	-12.7246
㮏	-12.7246
儕	-12.7246
婪	-12.7246
屐	-12.7246
檄	-12.7246
矠	-12.7246
硝	-12.7246
誑	-12.7246
謌	-12.7246
鈔	-12.7246
鏞	-12.7246
􁏦	-12.7246
􁰤	-12.7246
昺	-12.7249
鴝	-12.7249
餙	-12.7249
􁐟	-12.7249
諏	-12.725
昀	-12.725
朌	-12.725
肦	-12.725
踠	-12.725
𢃄	-12.7253
邴	-12.7253
灤	-12.7253
菼	-12.7253
締	-12.7253
摛	-12.7253
漣	-12.7253
霅	-12.7253
冇	-12.7253
􁨇	-12.7253
萩	-12.7253
滎	-12.7255
蚯	-12.7256
惨	-12.7256
膊	-12.7256
聮	-12.7256
从	-12.7256
冤	-12.7256
劄	-12.7256
妳	-12.7256
胞	-12.7256
賫	-12.7256
咄	-12.7256
玲	-12.7256
疽	-12.7256
澩	-12.7256
粽	-12.7256
鮨	-12.7256
鼬	-12.7256
􁕐	-12.7256
甀	-12.7259
岨	-12.7259
洹	-12.7259
逌	-12.7259
荃	-12.7259
覇	-12.7259
軼	-12.7259
暦	-12.7259
濺	-12.7259
䤅	-12.7259
巋	-12.7259
旴	-12.7259
曶	-12.7259
栩	-12.7259
虡	-12.7259
鷖	-12.7259
彂	-12.7262
嘔	-12.7262
湄	-12.7262
屹	-12.7262
曩	-12.7262
琖	-12.7262
矚	-12.7262
繅	-12.7262
拓	-12.7262
斨	-12.7262
沬	-12.7262
確	-12.7262
腋	-12.7262
苬	-12.7262
袚	-12.7262
迣	-12.7262
阯	-12.7262
頊	-12.7262
鰩	-12.7262
鸛	-12.7262
􁍩	-12.7262
羆	-12.7265
虗	-12.7265
擡	-12.7265
闊	-12.7265
愿	-12.7265
献	-12.7265
岷	-12.7265
椵	-12.7265
泓	-12.7265
獠	-12.7265
紿	-12.7265
輈	-12.7265
邠	-12.7265
唧	-12.7265
嗅	-12.7265
怱	-12.7265
恚	-12.7265
甎	-12.7265
菆	-12.7265
褭	-12.7265
邏	-12.7265
魘	-12.7265
鯥	-12.7265
鶿	-12.7265
􁀗	-12.7265
閶	-12.7268
幙	-12.7268
緞	-12.7268
僑	-12.7268
饍	-12.7268
琚	-12.7268
哮	-12.7268
戱	-12.7268
鬟	-12.7268
庀	-12.7268
槲	-12.7268
歘	-12.7268
瓌	-12.7268
隸	-12.7268
桀	-12.7271
眥	-12.7271
曖	-12.7272
桕	-12.7272
耙	-12.7272
侃	-12.7272
侔	-12.7272
軺	-12.7272
钁	-12.7272
頡	-12.7272
緍	-12.7272
匼	-12.7272
咤	-12.7272
戩	-12.7272
扑	-12.7272
扺	-12.7272
櫓	-12.7272
櫾	-12.7272
淖	-12.7272
溼	-12.7272
猝	-12.7272
珣	-12.7272
瑊	-12.7272
篃	-12.7272
芮	-12.7272
薕	-12.7272
諄	-12.7272
雰	-12.7272
靁	-12.7272
頑	-12.7272
駵	-12.7272
鷰	-12.7272
鳶	-12.7274
帑	-12.7274
榦	-12.7275
澮	-12.7275
􁄂	-12.7275
耄	-12.7275
蝉	-12.7275
㝢	-12.7275
䀋	-12.7275
勻	-12.7275
皦	-12.7275
祜	-12.7275
窗	-12.7275
轎	-12.7275
搢	-12.7275
瀦	-12.7275
矖	-12.7275
窪	-12.7275
艦	-12.7275
菡	-12.7275
鏦	-12.7275
楫	-12.7276
醸	-12.7276
惮	-12.7278
嗔	-12.7278
攫	-12.7278
吁	-12.7278
噣	-12.7278
祅	-12.7278
譎	-12.7278
剜	-12.7278
籤	-12.7278
蓆	-12.7278
串	-12.7278
嘒	-12.7278
孽	-12.7278
巙	-12.7278
稂	-12.7278
稉	-12.7278
綝	-12.7278
蹀	-12.7278
醞	-12.7278
錚	-12.7278
靶	-12.7278
鵾	-12.7278
簞	-12.7281
淆	-12.7281
砥	-12.7281
裛	-12.7281
枿	-12.7281
稳	-12.7281
藂	-12.7281
㩀	-12.7281
凢	-12.7281
斚	-12.7281
搶	-12.7281
沣	-12.7281
渹	-12.7281
瀁	-12.7281
窄	-12.7281
縝	-12.7281
羈	-12.7281
耎	-12.7281
臓	-12.7281
軷	-12.7281
靸	-12.7281
斝	-12.7284
腕	-12.7284
􁀫	-12.7284
濠	-12.7284
箠	-12.7284
䆊	-12.7284
佼	-12.7284
慟	-12.7284
棃	-12.7284
璹	-12.7284
皷	-12.7284
禈	-12.7284
粮	-12.7284
翽	-12.7284
蝎	-12.7284
譟	-12.7284
輥	-12.7284
髟	-12.7284
黻	-12.7284
﨑	-12.7284
􁆩	-12.7287
丰	-12.7287
恥	-12.7287
僭	-12.7287
鄽	-12.7287
圩	-12.7287
它	-12.7287
崟	-12.7287
廚	-12.7287
敻	-12.7287
櫨	-12.7287
溴	-12.7287
瀬	-12.7287
觚	-12.7287
迫	-12.7287
鶒	-12.7287
珊	-12.7287
遡	-12.7287
鉗	-12.7287
瞥	-12.729
萋	-12.729
踣	-12.729
喏	-12.729
跂	-12.729
鈕	-12.729
僎	-12.729
壖	-12.729
糅	-12.729
茁	-12.729
凭	-12.729
唅	-12.729
嘹	-12.729
粰	-12.729
繳	-12.729
騞	-12.729
𨼆	-12.729
喤	-12.729
奨	-12.729
屡	-12.729
峒	-12.729
揣	-12.729
癩	-12.729
胔	-12.729
紡	-12.7293
篥	-12.7293
悠	-12.7294
驩	-12.7294
剗	-12.7294
滍	-12.7294
迂	-12.7294
窘	-12.7294
㟁	-12.7294
哈	-12.7294
斁	-12.7294
穊	-12.7294
勰	-12.7294
厪	-12.7294
蕊	-12.7294
諴	-12.7294
謟	-12.7294
􁚐	-12.7294
鵷	-12.7297
纈	-12.7297
趫	-12.7297
掞	-12.7297
殫	-12.7297
淬	-12.7297
䜟	-12.7297
臬	-12.7297
蝀	-12.7297
豭	-12.7297
撇	-12.7297
潎	-12.7297
蓁	-12.7297
騭	-12.7297
枵	-12.7297
痒	-12.73
窅	-12.73
蒍	-12.73
亾	-12.73
潰	-12.73
綦	-12.73
菝	-12.73
葜	-12.73
黯	-12.73
异	-12.73
挿	-12.73
氓	-12.73
縶	-12.73
芾	-12.73
郇	-12.73
逗	-12.7303
釂	-12.7303
概	-12.7303
鄷	-12.7303
鸑	-12.7303
瀨	-12.7303
剙	-12.7303
孀	-12.7303
剌	-12.7303
喓	-12.7303
惺	-12.7303
遰	-12.7303
􁉩	-12.7303
扞	-12.7306
痊	-12.7306
薆	-12.7306
鞵	-12.7306
揩	-12.7306
墩	-12.7306
璜	-12.7306
耡	-12.7306
腃	-12.7306
袵	-12.7306
診	-12.7306
罥	-12.7309
鄗	-12.7309
吻	-12.7309
咋	-12.7309
楯	-12.7309
櫺	-12.7309
紓	-12.7309
羇	-12.7309
腆	-12.7309
薊	-12.7312
禴	-12.7313
捶	-12.7313
迦	-12.7314
㯽	-12.7316
㒺	-12.7316
樁	-12.7316
儛	-12.7316
扳	-12.7316
珦	-12.7316
璵	-12.7316
蚻	-12.7316
饙	-12.7316
鍋	-12.7318
剩	-12.7319
昵	-12.7319
娀	-12.7319
愼	-12.7319
拽	-12.7319
笴	-12.7319
閡	-12.7319
缶	-12.7322
癭	-12.7322
圮	-12.7322
慳	-12.7322
虸	-12.7322
蚄	-12.7322
𬎼	-12.7322
捽	-12.7325
簀	-12.7325
鬯	-12.7328
䌫	-12.7328
韝	-12.7328
㥄	-12.7328
繽	-12.7328
賙	-12.7328
咮	-12.7331
沗	-12.7335
笄	-12.7335
䳺	-12.7335
儥	-12.7335
彖	-12.7335
􁫃	-12.7335
澧	-12.7338
婣	-12.7338
媧	-12.7338
綇	-12.7338
􁰖	-12.7338
篾	-12.7341
䲭	-12.7344
揑	-12.735
晢	-12.735
瑲	-12.735
痟	-12.7357
撩	-12.736
㬰	-12.7363
麕	-12.7366
蒓	-12.7369
􁡓	-13.7001
􁙴	-13.7002
𦙍	-13.7003
鼽	-13.7004
鼯	-13.7005
鼊	-13.7006
黌	-13.7007
麢	-13.7008
鶪	-13.7009
鵓	-13.701
鰭	-13.7011
鰒	-13.7012
鯷	-13.7013
鯇	-13.7014
鮦	-13.7015
魑	-13.7016
魃	-13.7017
骭	-13.7018
驊	-13.7019
騸	-13.702
騮	-13.7021
駞	-13.7022
饘	-13.7023
饉	-13.7024
餚	-13.7025
飪	-13.7026
飜	-13.7027
韣	-13.7028
韙	-13.7029
鞉	-13.703
靃	-13.7031
霠	-13.7032
霎	-13.7033
闍	-13.7034
鏹	-13.7035
鏵	-13.7036
鎞	-13.7037
鉶	-13.7038
醁	-13.7039
酩	-13.704
酊	-13.7041
酈	-13.7042
酃	-13.7043
鄱	-13.7044
鄢	-13.7045
鄏	-13.7046
郍	-13.7047
轤	-13.7048
轟	-13.7049
輶	-13.705
踴	-13.7051
踦	-13.7052
踡	-13.7053
賾	-13.7054
諟	-13.7055
覯	-13.7056
褎	-13.7057
裟	-13.7058
袞	-13.7059
袈	-13.706
蠊	-13.7061
蟪	-13.7062
蟢	-13.7063
踶	-13.7063
螾	-13.7064
螫	-13.7065
螗	-13.7066
螈	-13.7067
螀	-13.7068
蝟	-13.7069
蝑	-13.707
蜮	-13.7071
硿	-13.7071
蜨	-13.7072
蛬	-13.7073
隍	-13.7073
蛉	-13.7074
蘽	-13.7075
蘹	-13.7076
蘞	-13.7077
蘄	-13.7078
藘	-13.7079
藊	-13.708
蕹	-13.7081
蕳	-13.7082
蔛	-13.7083
蒴	-13.7084
蒠	-13.7085
蒟	-13.7086
葈	-13.7087
萐	-13.7088
莣	-13.7089
莓	-13.709
茴	-13.7091
芧	-13.7092
艽	-13.7093
艫	-13.7094
艨	-13.7095
凸	-13.7095
艟	-13.7096
舳	-13.7097
臞	-13.7098
臙	-13.7099
膫	-13.71
膃	-13.7101
肭	-13.7102
聻	-13.7103
䄢	-13.7103
皜	-13.7103
耔	-13.7104
耉	-13.7105
罻	-13.7106
縲	-13.7107
縐	-13.7108
綢	-13.7109
紽	-13.711
紇	-13.7111
渼	-13.7111
萆	-13.7111
糰	-13.7112
糚	-13.7113
篲	-13.7114
箒	-13.7115
箐	-13.7116
笲	-13.7117
竣	-13.7118
穽	-13.7119
儘	-13.7119
哂	-13.7119
忭	-13.7119
蒳	-13.7119
諳	-13.7119
穋	-13.712
穇	-13.7121
稆	-13.7122
禇	-13.7123
礴	-13.7124
礜	-13.7125
磵	-13.7126
确	-13.7127
渗	-13.7127
漓	-13.7127
畛	-13.7127
穮	-13.7127
砰	-13.7128
瞰	-13.7129
瞋	-13.713
皝	-13.7131
瘐	-13.7132
瘃	-13.7133
畯	-13.7134
甬	-13.7135
佟	-13.7135
吰	-13.7135
噌	-13.7135
棱	-13.7135
瑪	-13.7136
瑙	-13.7137
琊	-13.7138
玠	-13.7139
獞	-13.714
猾	-13.7141
猊	-13.7142
麒	-13.7143
臚	-13.7143
狻	-13.7143
娜	-13.7143
婀	-13.7143
渰	-13.7143
滳	-13.7143
蚶	-13.7143
犍	-13.7144
牁	-13.7145
熰	-13.7146
灂	-13.7147
瀵	-13.7148
瀚	-13.7149
濊	-13.715
漭	-13.7151
佻	-13.7151
悶	-13.7151
洄	-13.7151
礓	-13.7151
滹	-13.7152
湋	-13.7153
涚	-13.7154
涇	-13.7155
洿	-13.7156
派	-13.7157
洼	-13.7158
洫	-13.7159
䣛	-13.7159
哆	-13.7159
惔	-13.7159
捄	-13.7159
瓔	-13.7159
癅	-13.7159
盻	-13.7159
蜇	-13.7159
洑	-13.716
泬	-13.7161
氅	-13.7162
毖	-13.7163
欓	-13.7164
欃	-13.7165
櫼	-13.7166
檽	-13.7167
妣	-13.7167
惙	-13.7167
榠	-13.7167
榲	-13.7167
溧	-13.7167
珞	-13.7167
趄	-13.7167
檳	-13.7168
樨	-13.7169
槳	-13.717
榧	-13.7171
榅	-13.7172
桷	-13.7173
栟	-13.7174
杠	-13.7175
䃭	-13.7175
估	-13.7175
兊	-13.7175
厔	-13.7175
崢	-13.7175
抉	-13.7175
桮	-13.7175
橚	-13.7175
猙	-13.7175
獰	-13.7175
盩	-13.7175
禛	-13.7175
罧	-13.7175
曏	-13.7176
晹	-13.7177
斐	-13.7178
擱	-13.7179
擪	-13.718
擐	-13.7181
撐	-13.7182
撈	-13.7183
䔩	-13.7183
劈	-13.7183
妒	-13.7183
昫	-13.7183
暏	-13.7183
杙	-13.7183
橑	-13.7183
湮	-13.7183
澳	-13.7183
眢	-13.7183
稾	-13.7183
褧	-13.7183
褫	-13.7183
豍	-13.7183
摻	-13.7184
揶	-13.7185
揄	-13.7186
掄	-13.7187
抓	-13.7188
懴	-13.7189
懦	-13.719
憯	-13.7191
㶚	-13.7191
㾭	-13.7191
傃	-13.7191
儁	-13.7191
勺	-13.7191
寗	-13.7191
汞	-13.7191
玗	-13.7191
璝	-13.7191
璩	-13.7191
瘈	-13.7191
瘲	-13.7191
祸	-13.7191
蠂	-13.7191
褪	-13.7191
觹	-13.7191
踟	-13.7191
蹰	-13.7191
憭	-13.7192
愠	-13.7193
愐	-13.7194
愍	-13.7195
悌	-13.7196
忉	-13.7197
很	-13.7198
駘	-13.7199
幞	-13.7199
剏	-13.7199
劋	-13.7199
墖	-13.7199
孌	-13.7199
忞	-13.7199
憀	-13.7199
憧	-13.7199
撏	-13.7199
枰	-13.7199
欷	-13.7199
矸	-13.7199
缷	-13.7199
腿	-13.7199
膓	-13.7199
蔫	-13.7199
藇	-13.7199
詄	-13.7199
蹲	-13.7199
嶲	-13.72
屣	-13.7201
尒	-13.7202
孥	-13.7203
嬙	-13.7204
嫏	-13.7205
婷	-13.7206
娉	-13.7207
䲅	-13.7207
䴠	-13.7207
俜	-13.7207
冣	-13.7207
勔	-13.7207
壷	-13.7207
嬃	-13.7207
屎	-13.7207
崦	-13.7207
嶒	-13.7207
帗	-13.7207
搯	-13.7207
旉	-13.7207
曯	-13.7207
梈	-13.7207
琬	-13.7207
瑾	-13.7207
磄	-13.7207
粃	-13.7207
緥	-13.7207
繦	-13.7207
脗	-13.7207
脤	-13.7207
艘	-13.7207
虻	-13.7207
詘	-13.7207
妥	-13.7208
奶	-13.7209
夤	-13.721
塌	-13.7211
埭	-13.7212
垎	-13.7213
坰	-13.7214
圞	-13.7215
㲈	-13.7215
䴢	-13.7215
佈	-13.7215
冂	-13.7215
劙	-13.7215
嘏	-13.7215
孑	-13.7215
崚	-13.7215
嵋	-13.7215
嵰	-13.7215
徕	-13.7215
挲	-13.7215
曀	-13.7215
栅	-13.7215
桄	-13.7215
梣	-13.7215
梹	-13.7215
泞	-13.7215
淀	-13.7215
濩	-13.7215
琠	-13.7215
眈	-13.7215
磷	-13.7215
絝	-13.7215
腯	-13.7215
舸	-13.7215
荈	-13.7215
萿	-13.7215
謼	-13.7215
貟	-13.7215
跽	-13.7215
喑	-13.7216
咱	-13.7217
咬	-13.7218
咡	-13.7219
呾	-13.722
吒	-13.7221
厴	-13.7222
傀	-13.7223
䓞	-13.7223
䔺	-13.7223
䕡	-13.7223
冑	-13.7223
墼	-13.7223
壌	-13.7223
崿	-13.7223
扦	-13.7223
扱	-13.7223
掊	-13.7223
枘	-13.7223
枻	-13.7223
楗	-13.7223
氳	-13.7223
汭	-13.7223
溏	-13.7223
猋	-13.7223
猺	-13.7223
珙	-13.7223
癤	-13.7223
窌	-13.7223
篳	-13.7223
糍	-13.7223
綉	-13.7223
緇	-13.7223
繾	-13.7223
胤	-13.7223
菞	-13.7223
蓰	-13.7223
蝌	-13.7223
衲	-13.7223
褶	-13.7223
謪	-13.7223
貰	-13.7223
賮	-13.7223
倕	-13.7224
俶	-13.7225
俙	-13.7226
伉	-13.7227
䴷	-13.7228
䱜	-13.7229
䭱	-13.723
䘖	-13.7231
鵡	-13.7231
㹠	-13.7231
䘏	-13.7231
冱	-13.7231
匽	-13.7231
呷	-13.7231
咳	-13.7231
唇	-13.7231
啜	-13.7231
坻	-13.7231
媯	-13.7231
嵕	-13.7231
巂	-13.7231
彍	-13.7231
惬	-13.7231
抜	-13.7231
擗	-13.7231
杫	-13.7231
枷	-13.7231
檍	-13.7231
淤	-13.7231
濇	-13.7231
瀲	-13.7231
灎	-13.7231
獼	-13.7231
玦	-13.7231
璡	-13.7231
瓿	-13.7231
畷	-13.7231
砭	-13.7231
碭	-13.7231
窣	-13.7231
篘	-13.7231
簋	-13.7231
簠	-13.7231
糙	-13.7231
綣	-13.7231
緌	-13.7231
罯	-13.7231
胹	-13.7231
脁	-13.7231
臡	-13.7231
苺	-13.7231
茋	-13.7231
菓	-13.7231
菥	-13.7231
葍	-13.7231
蚪	-13.7231
襜	-13.7231
觕	-13.7231
訂	-13.7231
諛	-13.7231
譫	-13.7231
䓻	-13.7232
翌	-13.7233
䍡	-13.7233
䉽	-13.7234
䇘	-13.7235
䆳	-13.7236
䂬	-13.7237
㵳	-13.7238
央	-13.7238
㲲	-13.7239
㕘	-13.7239
㢓	-13.7239
㨁	-13.7239
䴥	-13.7239
僱	-13.7239
僵	-13.7239
儻	-13.7239
凈	-13.7239
卸	-13.7239
啁	-13.7239
喣	-13.7239
嚳	-13.7239
媺	-13.7239
嵸	-13.7239
怳	-13.7239
愽	-13.7239
懃	-13.7239
摠	-13.7239
晻	-13.7239
暅	-13.7239
柈	-13.7239
桉	-13.7239
楪	-13.7239
櫜	-13.7239
櫬	-13.7239
氎	-13.7239
爝	-13.7239
瘂	-13.7239
睨	-13.7239
瞷	-13.7239
磐	-13.7239
磓	-13.7239
筥	-13.7239
簳	-13.7239
籧	-13.7239
芫	-13.7239
蕾	-13.7239
蚑	-13.7239
袗	-13.7239
賸	-13.7239
贑	-13.7239
贜	-13.7239
躃	-13.7239
鎌	-13.7239
㬻	-13.724
㡛	-13.7241
㡓	-13.7242
㖡	-13.7243
鸇	-13.7244
鷥	-13.7245
鷀	-13.7246
鶺	-13.7247
㵸	-13.7247
䱐	-13.7247
丱	-13.7247
傺	-13.7247
勷	-13.7247
圊	-13.7247
嶁	-13.7247
廕	-13.7247
扒	-13.7247
擺	-13.7247
晬	-13.7247
欿	-13.7247
毘	-13.7247
泪	-13.7247
焍	-13.7247
焬	-13.7247
犇	-13.7247
町	-13.7247
疃	-13.7247
礦	-13.7247
祕	-13.7247
籐	-13.7247
糭	-13.7247
綟	-13.7247
緘	-13.7247
罈	-13.7247
艇	-13.7247
芑	-13.7247
葳	-13.7247
蔻	-13.7247
螬	-13.7247
蠐	-13.7247
袷	-13.7247
襐	-13.7247
覘	-13.7247
諍	-13.7247
鵂	-13.7248
鴒	-13.7249
鱷	-13.725
餼	-13.7251
霡	-13.7252
稹	-13.7252
霈	-13.7253
鋏	-13.7254
踘	-13.7255
蔔	-13.7255
䑛	-13.7256
䚴	-13.7256
䦧	-13.7256
伋	-13.7256
勩	-13.7256
匍	-13.7256
唤	-13.7256
唫	-13.7256
喆	-13.7256
圴	-13.7256
塋	-13.7256
墢	-13.7256
徠	-13.7256
懵	-13.7256
摽	-13.7256
暠	-13.7256
枎	-13.7256
榝	-13.7256
樷	-13.7256
檞	-13.7256
欀	-13.7256
泳	-13.7256
濰	-13.7256
瀋	-13.7256
燂	-13.7256
狠	-13.7256
狢	-13.7256
獐	-13.7256
珤	-13.7256
璁	-13.7256
璨	-13.7256
疿	-13.7256
磊	-13.7256
秖	-13.7256
竞	-13.7256
笮	-13.7256
筲	-13.7256
繖	-13.7256
耻	-13.7256
脅	-13.7256
臆	-13.7256
薝	-13.7256
蚘	-13.7256
蛓	-13.7256
蟧	-13.7256
覼	-13.7256
觟	-13.7256
訇	-13.7256
踖	-13.7256
踧	-13.7256
跬	-13.7256
跎	-13.7257
豇	-13.7258
觝	-13.7259
蟛	-13.726
螵	-13.7261
蜞	-13.7262
蛸	-13.7263
蒺	-13.7263
㐫	-13.7264
㨾	-13.7264
㵎	-13.7264
㷬	-13.7264
䂓	-13.7264
䖵	-13.7264
丼	-13.7264
佔	-13.7264
倥	-13.7264
傯	-13.7264
刓	-13.7264
刖	-13.7264
匐	-13.7264
嚲	-13.7264
埻	-13.7264
墁	-13.7264
妤	-13.7264
媫	-13.7264
嫄	-13.7264
尘	-13.7264
幀	-13.7264
幈	-13.7264
悞	-13.7264
悰	-13.7264
慆	-13.7264
挐	-13.7264
撝	-13.7264
敳	-13.7264
朹	-13.7264
柢	-13.7264
榑	-13.7264
橐	-13.7264
氂	-13.7264
涪	-13.7264
湃	-13.7264
溘	-13.7264
澁	-13.7264
濚	-13.7264
熲	-13.7264
燌	-13.7264
燾	-13.7264
犂	-13.7264
猱	-13.7264
獒	-13.7264
玃	-13.7264
痰	-13.7264
癃	-13.7264
眘	-13.7264
瞞	-13.7264
砮	-13.7264
礎	-13.7264
礛	-13.7264
稿	-13.7264
筳	-13.7264
篿	-13.7264
纑	-13.7264
罦	-13.7264
羭	-13.7264
脹	-13.7264
舡	-13.7264
艋	-13.7264
虖	-13.7264
蛩	-13.7264
螄	-13.7264
蟮	-13.7264
蠓	-13.7264
詆	-13.7264
詼	-13.7264
誣	-13.7264
豋	-13.7264
貤	-13.7264
貮	-13.7264
賂	-13.7264
躓	-13.7264
躚	-13.7264
蛚	-13.7264
蚱	-13.7265
蕒	-13.7266
蕆	-13.7267
眹	-13.7268
蓺	-13.7268
蒡	-13.7269
萯	-13.727
苢	-13.7271
䐈	-13.7272
䙀	-13.7272
䙆	-13.7272
佶	-13.7272
僇	-13.7272
僨	-13.7272
勦	-13.7272
匃	-13.7272
呦	-13.7272
圌	-13.7272
型	-13.7272
埏	-13.7272
堡	-13.7272
塸	-13.7272
墄	-13.7272
奘	-13.7272
妷	-13.7272
姫	-13.7272
嫣	-13.7272
孃	-13.7272
孱	-13.7272
宷	-13.7272
崕	-13.7272
嶢	-13.7272
幰	-13.7272
徇	-13.7272
惓	-13.7272
惘	-13.7272
愒	-13.7272
愜	-13.7272
慍	-13.7272
抖	-13.7272
搽	-13.7272
斮	-13.7272
旐	-13.7272
棼	-13.7272
歧	-13.7272
殉	-13.7272
殞	-13.7272
毯	-13.7272
气	-13.7272
沚	-13.7272
洴	-13.7272
涬	-13.7272
溆	-13.7272
滈	-13.7272
潬	-13.7272
澂	-13.7272
澼	-13.7272
灃	-13.7272
煴	-13.7272
熭	-13.7272
琹	-13.7272
疚	-13.7272
疤	-13.7272
痌	-13.7272
瘝	-13.7272
癉	-13.7272
皪	-13.7272
眎	-13.7272
睒	-13.7272
睞	-13.7272
矟	-13.7272
砉	-13.7272
礶	-13.7272
祋	-13.7272
祤	-13.7272
窰	-13.7272
箁	-13.7272
籀	-13.7272
紥	-13.7272
絇	-13.7272
絖	-13.7272
綹	-13.7272
縀	-13.7272
繂	-13.7272
繯	-13.7272
罁	-13.7272
罛	-13.7272
羚	-13.7272
肓	-13.7272
胟	-13.7272
膂	-13.7272
舁	-13.7272
舴	-13.7272
苡	-13.7272
菂	-13.7272
蒫	-13.7272
蓞	-13.7272
蕂	-13.7272
蕣	-13.7272
蘡	-13.7272
蛱	-13.7272
蜈	-13.7272
蝝	-13.7272
蠣	-13.7272
衖	-13.7272
襆	-13.7272
訢	-13.7272
詫	-13.7272
詮	-13.7272
譖	-13.7272
釅	-13.7272
芣	-13.7272
翶	-13.7273
紝	-13.7274
稌	-13.7275
疰	-13.7276
甥	-13.7277
熠	-13.7278
灧	-13.7279
萵	-13.728
㐀	-13.728
䗶	-13.728
䥥	-13.728
亰	-13.728
仭	-13.728
倂	-13.728
呢	-13.728
咿	-13.728
喀	-13.728
喃	-13.728
喇	-13.728
噱	-13.728
囑	-13.728
埸	-13.728
壜	-13.728
壳	-13.728
姮	-13.728
宕	-13.728
屍	-13.728
崎	-13.728
嵒	-13.728
嶃	-13.728
嶇	-13.728
嶔	-13.728
庋	-13.728
徯	-13.728
怛	-13.728
怵	-13.728
恁	-13.728
扭	-13.728
捋	-13.728
描	-13.728
揠	-13.728
搨	-13.728
搪	-13.728
晰	-13.728
棻	-13.728
榼	-13.728
槭	-13.728
橫	-13.728
橵	-13.728
欻	-13.728
殢	-13.728
泖	-13.728
涔	-13.728
淛	-13.728
淩	-13.728
湿	-13.728
滙	-13.728
滾	-13.728
灩	-13.728
燮	-13.728
玥	-13.728
璪	-13.728
疴	-13.728
痔	-13.728
瘍	-13.728
矅	-13.728
硤	-13.728
硥	-13.728
礲	-13.728
穏	-13.728
笇	-13.728
篝	-13.728
簦	-13.728
絓	-13.728
縡	-13.728
胇	-13.728
脘	-13.728
脬	-13.728
膲	-13.728
艧	-13.728
茝	-13.728
萏	-13.728
蚣	-13.728
蠃	-13.728
訏	-13.728
贛	-13.728
蹌	-13.728
蹯	-13.728
澦	-13.728
潯	-13.7281
滁	-13.7282
涑	-13.7283
氄	-13.7284
樅	-13.7285
楛	-13.7286
楅	-13.7287
䰲	-13.7288
亵	-13.7288
刧	-13.7288
厮	-13.7288
嗇	-13.7288
噓	-13.7288
噩	-13.7288
堙	-13.7288
壝	-13.7288
娩	-13.7288
婿	-13.7288
媵	-13.7288
嫂	-13.7288
庳	-13.7288
慇	-13.7288
憺	-13.7288
戛	-13.7288
捺	-13.7288
摝	-13.7288
曮	-13.7288
枹	-13.7288
桁	-13.7288
欠	-13.7288
淗	-13.7288
渻	-13.7288
湲	-13.7288
潺	-13.7288
澷	-13.7288
琲	-13.7288
瑋	-13.7288
眂	-13.7288
睽	-13.7288
瞪	-13.7288
筞	-13.7288
筤	-13.7288
縰	-13.7288
縵	-13.7288
縻	-13.7288
纜	-13.7288
胖	-13.7288
茢	-13.7288
莾	-13.7288
萇	-13.7288
螮	-13.7288
觿	-13.7288
詐	-13.7288
詗	-13.7288
踪	-13.7288
蹵	-13.7288
躞	-13.7288
杝	-13.7288
拇	-13.7289
惇	-13.729
廙	-13.7291
嶰	-13.7292
嵬	-13.7293
寞	-13.7294
宙	-13.7295
㗖	-13.7296
䔫	-13.7296
䱉	-13.7296
么	-13.7296
凃	-13.7296
剋	-13.7296
咆	-13.7296
哄	-13.7296
唘	-13.7296
坷	-13.7296
墯	-13.7296
奫	-13.7296
崒	-13.7296
嵂	-13.7296
怙	-13.7296
悮	-13.7296
悳	-13.7296
懌	-13.7296
挍	-13.7296
摙	-13.7296
擒	-13.7296
攖	-13.7296
旡	-13.7296
晛	-13.7296
槮	-13.7296
槵	-13.7296
殯	-13.7296
瀼	-13.7296
燀	-13.7296
犄	-13.7296
狡	-13.7296
畀	-13.7296
疈	-13.7296
疹	-13.7296
痱	-13.7296
皵	-13.7296
篹	-13.7296
籛	-13.7296
籟	-13.7296
罳	-13.7296
翱	-13.7296
胏	-13.7296
萷	-13.7296
薅	-13.7296
蝮	-13.7296
詶	-13.7296
讎	-13.7296
讖	-13.7296
賃	-13.7296
踔	-13.7296
嬋	-13.7296
圄	-13.7297
囹	-13.7298
嗑	-13.7299
刊	-13.73
凓	-13.7301
儋	-13.7302
僂	-13.7303
㕓	-13.7304
㫤	-13.7304
㹀	-13.7304
䬼	-13.7304
佖	-13.7304
咲	-13.7304
囉	-13.7304
坪	-13.7304
堲	-13.7304
塏	-13.7304
塚	-13.7304
岔	-13.7304
戇	-13.7304
戹	-13.7304
旟	-13.7304
暐	-13.7304
构	-13.7304
梡	-13.7304
椓	-13.7304
櫪	-13.7304
歿	-13.7304
涘	-13.7304
濓	-13.7304
濘	-13.7304
炰	-13.7304
熅	-13.7304
环	-13.7304
珓	-13.7304
璅	-13.7304
畹	-13.7304
祡	-13.7304
禝	-13.7304
秸	-13.7304
竾	-13.7304
粞	-13.7304
紒	-13.7304
纇	-13.7304
羾	-13.7304
耋	-13.7304
腷	-13.7304
荐	-13.7304
莘	-13.7304
莵	-13.7304
蒒	-13.7304
蓲	-13.7304
薜	-13.7304
蛹	-13.7304
蠆	-13.7304
袥	-13.7304
褦	-13.7304
襶	-13.7304
讒	-13.7304
趯	-13.7304
傴	-13.7304
仔	-13.7305
䭅	-13.7306
䤵	-13.7307
䔉	-13.7308
䑲	-13.7309
􁋋	-13.731
鴣	-13.7311
㨂	-13.7312
㸐	-13.7312
僥	-13.7312
呫	-13.7312
喂	-13.7312
嗶	-13.7312
嚾	-13.7312
彀	-13.7312
悃	-13.7312
搰	-13.7312
撘	-13.7312
棁	-13.7312
楔	-13.7312
樛	-13.7312
樟	-13.7312
毹	-13.7312
氍	-13.7312
涙	-13.7312
犠	-13.7312
玨	-13.7312
瑳	-13.7312
璈	-13.7312
疵	-13.7312
穨	-13.7312
罨	-13.7312
胝	-13.7312
胼	-13.7312
膒	-13.7312
舖	-13.7312
茳	-13.7312
袠	-13.7312
蹛	-13.7312
鱖	-13.7312
鰍	-13.7313
鯖	-13.7314
驃	-13.7315
餡	-13.7316
阱	-13.7317
鄯	-13.7318
鄜	-13.7319
㡳	-13.732
偫	-13.732
埡	-13.732
宬	-13.732
宭	-13.732
屩	-13.732
廋	-13.732
愊	-13.732
懲	-13.732
抨	-13.732
拴	-13.732
挶	-13.732
搓	-13.732
楱	-13.732
榯	-13.732
橦	-13.732
檾	-13.732
烱	-13.732
熄	-13.732
玢	-13.732
眙	-13.732
矮	-13.732
筑	-13.732
簏	-13.732
紖	-13.732
羜	-13.732
蘚	-13.732
蝃	-13.732
蝘	-13.732
諠	-13.732
譔	-13.732
轔	-13.732
豌	-13.7321
諲	-13.7322
裊	-13.7323
螂	-13.7324
蝙	-13.7325
蜿	-13.7326
蛄	-13.7327
郅	-13.7328
㓊	-13.7328
㿂	-13.7328
䈛	-13.7328
䍦	-13.7328
伷	-13.7328
刄	-13.7328
匳	-13.7328
厝	-13.7328
嗾	-13.7328
堝	-13.7328
姙	-13.7328
枊	-13.7328
楢	-13.7328
歊	-13.7328
涊	-13.7328
淟	-13.7328
牏	-13.7328
牺	-13.7328
琁	-13.7328
球	-13.7328
璐	-13.7328
穩	-13.7328
簍	-13.7328
簴	-13.7328
耑	-13.7328
藳	-13.7328
蚰	-13.7328
蚨	-13.7329
菻	-13.733
翺	-13.7331
緲	-13.7332
紜	-13.7333
糒	-13.7334
籹	-13.7335
㫋	-13.7336
䚦	-13.7336
䣺	-13.7336
厎	-13.7336
啽	-13.7336
圬	-13.7336
廖	-13.7336
悁	-13.7336
拏	-13.7336
撙	-13.7336
澠	-13.7336
玕	-13.7336
琑	-13.7336
璆	-13.7336
畞	-13.7336
矗	-13.7336
祧	-13.7336
罵	-13.7336
肋	-13.7336
腵	-13.7336
葯	-13.7336
蠍	-13.7336
讁	-13.7336
籸	-13.7336
穜	-13.7337
璚	-13.7338
珀	-13.7339
爟	-13.734
澱	-13.7341
溓	-13.7342
洳	-13.7343
倏	-13.7344
咀	-13.7344
嘿	-13.7344
囈	-13.7344
囏	-13.7344
嵥	-13.7344
捩	-13.7344
斌	-13.7344
枣	-13.7344
毐	-13.7344
滲	-13.7344
烞	-13.7344
熇	-13.7344
熚	-13.7344
甿	-13.7344
皛	-13.7344
縿	-13.7344
莗	-13.7344
蓀	-13.7344
裼	-13.7344
誾	-13.7344
諮	-13.7344
譌	-13.7344
赩	-13.7344
扎	-13.7345
惚	-13.7346
宁	-13.7347
噲	-13.7348
嘻	-13.7349
喈	-13.735
勛	-13.7351
劫	-13.7352
㩗	-13.7352
㴻	-13.7352
儤	-13.7352
呿	-13.7352
嗤	-13.7352
嘱	-13.7352
幛	-13.7352
慬	-13.7352
慾	-13.7352
渟	-13.7352
烖	-13.7352
甽	-13.7352
聆	-13.7352
蒯	-13.7352
蟆	-13.7352
貔	-13.7352
趲	-13.7352
努	-13.7353
傞	-13.7354
侲	-13.7355
㸙	-13.7356
鸝	-13.7357
霿	-13.7358
醯	-13.7359
螣	-13.736
㡾	-13.736
䀜	-13.736
䒒	-13.736
倓	-13.736
咢	-13.736
壩	-13.736
屫	-13.736
彴	-13.736
撗	-13.736
枋	-13.736
泲	-13.736
秬	-13.736
羶	-13.736
袨	-13.736
賅	-13.736
蜍	-13.7361
蚺	-13.7362
蘺	-13.7363
薷	-13.7364
罡	-13.7365
秣	-13.7366
种	-13.7367
琵	-13.7368
嵪	-13.7368
梂	-13.7368
畸	-13.7368
硩	-13.7368
茒	-13.7368
虜	-13.7368
誹	-13.7368
赱	-13.7368
蹻	-13.7368
韲	-13.7368
獬	-13.7369
瀣	-13.737
廏	-13.7371
嫦	-13.7372
剃	-13.7373
㰖	-13.7374
鸜	-13.7375
颻	-13.7376
旓	-13.7376
殭	-13.7376
瓷	-13.7376
磉	-13.7376
綫	-13.7376
醐	-13.7377
醍	-13.7378
豸	-13.7379
襖	-13.738
蝴	-13.7381
蜴	-13.7382
蚩	-13.7383
藭	-13.7384
㳫	-13.7384
卻	-13.7384
哨	-13.7384
朦	-13.7384
綆	-13.7384
繙	-13.7384
纚	-13.7384
莞	-13.7384
蒱	-13.7384
蹏	-13.7384
蔲	-13.7385
芃	-13.7386
糺	-13.7387
礿	-13.7388
碌	-13.7389
瓈	-13.739
瑁	-13.7391
熳	-13.7392
冺	-13.7392
咷	-13.7392
噤	-13.7392
擯	-13.7392
椅	-13.7392
櫩	-13.7392
洓	-13.7392
糢	-13.7392
蓊	-13.7392
襞	-13.7392
煟	-13.7393
湼	-13.7394
湅	-13.7395
沽	-13.7396
檎	-13.7397
梏	-13.7398
桎	-13.7399
栳	-13.74
渫	-13.74
痍	-13.74
瘢	-13.74
秏	-13.74
栲	-13.7401
昱	-13.7402
敔	-13.7403
嘖	-13.7404
唶	-13.7405
匈	-13.7406
偓	-13.7407
亹	-13.7408
拄	-13.7408
簎	-13.7408
㬋	-13.7409
韆	-13.741
鞦	-13.7411
雈	-13.7412
鄲	-13.7413
邯	-13.7414
逶	-13.7415
覡	-13.7416
甍	-13.7416
蜘	-13.7417
蔯	-13.7418
穬	-13.7419
櫳	-13.742
枌	-13.7421
术	-13.7422
嫋	-13.7423
馗	-13.7424
䌮	-13.7425
丗	-13.7425
坩	-13.7425
虯	-13.7425
餛	-13.7425
飩	-13.7426
蟈	-13.7427
蜒	-13.7428
蚋	-13.7429
葽	-13.743
茯	-13.7431
芭	-13.7432
弚	-13.7433
灊	-13.7433
纛	-13.7433
滔	-13.7434
橄	-13.7435
詒	-13.7436
蝣	-13.7437
蘘	-13.7438
蓿	-13.7439
莉	-13.744
晌	-13.7441
茉	-13.7441
苜	-13.7442
桯	-13.7443
麈	-13.7444
頲	-13.7445
沱	-13.7446
徘	-13.7447
貙	-13.7448
螳	-13.7449
嬛	-13.745
鰥	-13.7451
荽	-13.7452
瞑	-13.7453
滂	-13.7454
徊	-13.7455
髀	-13.7456
薔	-13.7457
枇	-13.7458
佺	-13.7459
瑚	-13.746
娑	-13.7461
鱸	-13.7462
崙	-13.7463
璃	-13.7464
琉	-13.7465
逍	-13.7466
顓	-13.7467
茱	-13.7468
蟋	-13.7469
蟀	-13.747
頫	-13.7471
埤	-13.7472
窳	-13.7473
荔	-13.7473
