<unk>	0
<s>	0
</s>	0
。	-2.27326
,	-4.1916
者	-4.48106
也	-4.53985
故	-4.83856
之	-4.94151
為	-4.96253
▁	-5.12994
是	-5.16797
二	-5.18258
以	-5.18868
有	-5.26193
即	-5.29101
此	-5.34761
(	-5.35352
)	-5.37732
中	-5.4037
三	-5.41069
一	-5.44433
不	-5.45466
於	-5.46616
而	-5.51465
如	-5.51844
*	-5.52283
名	-5.52359
無	-5.55253
若	-5.5718
法	-5.58333
言	-5.60173
下	-5.63957
說	-5.6986
佛	-5.70434
心	-5.75843
等	-5.77494
人	-5.81741
。】「	-5.82608
明	-5.85229
云	-5.85554
行	-5.86631
四	-5.88599
生	-5.89836
非	-5.90139
則	-5.91085
其	-5.93045
得	-5.94115
大	-5.98867
、	-5.98921
見	-5.99494
。」【	-6.00163
菩薩	-6.02249
至	-6.02691
今	-6.03801
相	-6.05677
初	-6.05755
謂	-6.06221
又	-6.10173
」	-6.10927
觀	-6.13825
義	-6.15041
亦	-6.15181
時	-6.18478
自	-6.19971
從	-6.20591
所	-6.21126
次	-6.21809
皆	-6.24505
諸	-6.25296
問	-6.26011
因	-6.26311
經	-6.27078
後	-6.30448
身	-6.30691
與	-6.30823
上	-6.32286
通	-6.33591
前	-6.34506
本	-6.36191
在	-6.37277
教	-6.37621
能	-6.37909
事	-6.3908
文	-6.39995
入	-6.40095
釋	-6.42082
眾生	-6.42451
五	-6.43511
智	-6.44303
意	-6.45335
別	-6.45354
我	-6.45362
及	-6.45949
成	-6.46015
理	-6.46192
道	-6.4684
出	-6.47346
用	-6.48185
如來	-6.48264
巳	-6.48423
答	-6.48795
正	-6.5092
果	-6.51427
同	-6.51674
論	-6.52606
性	-6.53923
知	-6.5467
應	-6.57309
即是	-6.58456
「	-6.59014
解	-6.5902
空	-6.60717
作	-6.60951
聞	-6.61505
但	-6.62762
修	-6.64264
起	-6.6433
彼	-6.66228
一切	-6.66645
然	-6.66672
既	-6.67621
顯	-6.68391
體	-6.68559
多	-6.68934
破	-6.68989
地	-6.70393
實	-6.7045
具	-6.71618
令	-6.71798
由	-6.7182
眾	-6.74073
證	-6.74245
定	-6.74385
欲	-6.74638
分	-6.74756
或	-6.764
善	-6.76502
合	-6.76629
雖	-6.7752
緣	-6.78147
妙	-6.78356
:	-6.78603
當	-6.80158
處	-6.80435
難	-6.80567
約	-6.81875
喻	-6.82342
六	-6.82997
圓	-6.83248
譬	-6.83594
開	-6.85714
未	-6.85947
常	-6.86331
受	-6.86481
滅	-6.86549
位	-6.86855
先	-6.87241
耶	-6.87286
;	-6.87737
故云	-6.87889
依	-6.88573
住	-6.88626
對	-6.88677
門	-6.89209
可	-6.90089
如是	-6.90285
▁二	-6.90631
復	-6.91194
曰	-6.91997
小	-6.92635
示	-6.93016
方便	-6.9337
十	-6.94336
發	-6.94981
色	-6.95544
乃	-6.95806
現	-6.95982
七	-6.9748
何	-6.9868
王	-6.98857
苦	-6.99021
淨	-6.99866
來	-7.01863
真	-7.02114
取	-7.02178
俱	-7.02374
。△	-7.02895
離	-7.02903
境	-7.0368
記	-7.03785
立	-7.04276
涅槃	-7.04628
斷	-7.04738
化	-7.05741
唯	-7.06534
耳	-7.06863
隨	-7.07805
子	-7.08081
異	-7.08896
名為	-7.0907
等者	-7.09809
天	-7.10198
方	-7.12015
師	-7.12053
八	-7.12418
識	-7.12964
攝	-7.13317
重	-7.14412
求	-7.14551
餘	-7.15016
念	-7.15382
盡	-7.15658
會	-7.16056
諸佛	-7.16104
廣	-7.16638
二乘	-7.17498
不同	-7.19178
業	-7.19285
樂	-7.19555
信	-7.19591
無量	-7.20342
總	-7.20521
引	-7.224
乃至	-7.22867
外	-7.23146
惡	-7.23406
所以	-7.2342
功德	-7.25758
。「	-7.26177
指	-7.26368
勝	-7.27389
力	-7.2745
品	-7.27512
頌	-7.28058
疑	-7.28286
第二	-7.28498
慧	-7.28791
他	-7.29284
轉	-7.29296
權	-7.29978
法華	-7.30202
矣	-7.30714
大乘	-7.30984
略	-7.32755
結	-7.33032
兩	-7.33265
機	-7.33311
已	-7.33786
須	-7.33792
德	-7.34107
願	-7.35169
過	-7.35402
舉	-7.36958
深	-7.3718
戒	-7.38042
更	-7.38121
聲聞	-7.38349
內	-7.38435
乘	-7.38486
必	-7.38711
除	-7.38719
世	-7.39237
是故	-7.39289
持	-7.4093
字	-7.41031
數	-7.41283
說法	-7.41301
執	-7.41369
語	-7.41556
各	-7.41669
稱	-7.422
便	-7.42242
法身	-7.43936
無明	-7.43959
昔	-7.4404
》	-7.44231
因緣	-7.46968
?	-7.47323
請	-7.47634
分別	-7.48281
止	-7.48746
並	-7.49396
世尊	-7.50202
將	-7.50394
三昧	-7.50396
光	-7.50882
聖	-7.50934
《	-7.50958
去	-7.51998
宗	-7.52881
九	-7.53265
度	-7.53517
且	-7.53641
利	-7.53676
華	-7.53763
供養	-7.53934
汝	-7.54311
報	-7.54368
共	-7.5438
水	-7.5475
障	-7.55127
使	-7.55206
】	-7.5592
煩惱	-7.56062
聲	-7.56735
根	-7.57027
不可	-7.57119
第三	-7.58448
捨	-7.58603
疏	-7.58879
種	-7.59641
遠	-7.59642
種種	-7.60011
解脫	-7.60197
失	-7.60235
惑	-7.60536
▁初	-7.60562
具足	-7.60718
藏	-7.61591
照	-7.6169
屬	-7.61773
故名	-7.61844
益	-7.62181
物	-7.627
還	-7.63108
覺	-7.63421
乎	-7.63601
著	-7.64016
想	-7.64171
經云	-7.64893
不得	-7.65062
云何	-7.65384
山	-7.6604
表	-7.66232
故言	-7.66335
不知	-7.67375
土	-7.67794
清淨	-7.68166
般若	-7.68219
此經	-7.68361
日	-7.68542
安	-7.68593
足	-7.68593
辨	-7.69154
不能	-7.69265
施	-7.69291
禪	-7.69571
:「	-7.70566
實相	-7.70763
第一	-7.71188
食	-7.71687
近	-7.72179
歎	-7.72197
次第	-7.72286
國	-7.73304
爾時	-7.73535
假	-7.73633
斯	-7.73837
少	-7.74184
法界	-7.74517
諸法	-7.74588
向	-7.74753
三乘	-7.74973
直	-7.7506
病	-7.75243
智慧	-7.75247
云云	-7.75521
寶	-7.75607
凡	-7.75713
因果	-7.75993
要	-7.76271
迷	-7.76376
悉	-7.76437
劫	-7.7654
況	-7.76769
集	-7.77137
生死	-7.77185
動	-7.77318
世間	-7.77599
音	-7.77647
香	-7.77752
止觀	-7.78897
滿	-7.79526
學	-7.79596
始	-7.80025
忍	-7.80061
界	-7.80981
邪	-7.81302
愛	-7.81739
極	-7.81964
順	-7.8202
判	-7.82135
猶	-7.84093
豈	-7.84175
兼	-7.84268
就	-7.8436
遍	-7.84996
▁三	-7.85929
長	-7.86376
火	-7.87522
成就	-7.8755
迹	-7.88395
高	-7.88677
悟	-7.89132
故知	-7.89297
竟	-7.89424
例	-7.89453
坐	-7.897
思	-7.89817
全	-7.89969
尚	-7.90047
居	-7.90421
家	-7.91063
權實	-7.91426
歸	-7.91596
爾	-7.91629
類	-7.93197
小乘	-7.93298
漸	-7.93479
情	-7.935
一乘	-7.93925
偈	-7.94028
四句	-7.94114
流	-7.94739
普	-7.94938
菩提	-7.95363
我等	-7.95757
如此	-7.95789
父	-7.96167
三千	-7.96344
往	-7.96577
似	-7.96751
無有	-7.97059
命	-7.97981
成佛	-7.98338
形	-7.98639
句	-7.9887
徧	-7.98966
了	-7.99162
之法	-7.99323
莊嚴	-7.99372
述	-7.99517
眼	-7.99637
所謂	-7.9989
年	-7.99917
退	-8.00199
終	-8.00264
喜	-8.00405
究竟	-8.00654
之義	-8.01035
月	-8.01334
釋迦	-8.01585
白	-8.01985
夫	-8.02164
僧	-8.02199
傳	-8.02204
息	-8.02225
海	-8.02274
一心	-8.02412
世界	-8.02828
習	-8.0345
魔	-8.04496
部	-8.04765
中道	-8.04905
勸	-8.05048
雙	-8.05154
何故	-8.05173
計	-8.05728
久	-8.07132
法性	-8.0715
頓	-8.07285
偏	-8.07461
當知	-8.07654
加	-8.07818
序	-8.07866
自在	-8.08089
華嚴	-8.085
染	-8.08797
進	-8.08886
造	-8.09463
福	-8.09471
三界	-8.09487
比丘	-8.09675
主	-8.09948
獨	-8.10008
罪	-8.10664
城	-8.10834
趣	-8.10913
第四	-8.10947
衣	-8.11015
達	-8.11273
而不	-8.11409
卷	-8.11617
聽	-8.12027
皆是	-8.12235
治	-8.12396
伏	-8.12868
口	-8.12904
列	-8.13361
味	-8.13362
塵	-8.13368
被	-8.14411
二者	-8.14416
以為	-8.14454
。○	-8.15026
神	-8.1552
周	-8.16111
一者	-8.1691
又云	-8.16921
領	-8.17482
簡	-8.17494
神通	-8.17577
佛性	-8.17642
凡夫	-8.17741
此云	-8.18214
無漏	-8.18241
易	-8.18556
不生	-8.18597
死	-8.1863
歡喜	-8.18701
一一	-8.18941
密	-8.1919
章	-8.19387
於此	-8.19387
之人	-8.1941
目	-8.1965
變	-8.2002
十方	-8.20066
俗	-8.20185
亦不	-8.2034
車	-8.20925
標	-8.20973
風	-8.21219
弟子	-8.22456
千	-8.22735
金	-8.22773
望	-8.22804
宜	-8.22927
授	-8.23262
平等	-8.23286
據	-8.23405
故也	-8.24103
一念	-8.24737
四諦	-8.24741
絕	-8.24941
故曰	-8.24963
蓋	-8.24987
十二	-8.25033
陰	-8.25078
設	-8.25418
三藏	-8.25519
所說	-8.25681
無生	-8.25818
百	-8.26176
舍利弗	-8.26327
!	-8.26666
此是	-8.2713
許	-8.27451
感	-8.27486
」,	-8.27576
文殊	-8.2759
三諦	-8.27684
諦	-8.27885
佛法	-8.28057
別教	-8.28504
真如	-8.28734
長者	-8.28755
妄	-8.28959
到	-8.29094
橫	-8.29124
慈	-8.29399
支	-8.29592
是名	-8.30355
致	-8.30834
修行	-8.31004
法門	-8.31122
反	-8.31353
觀心	-8.3151
一切眾生	-8.31715
斥	-8.31725
讚	-8.31767
好	-8.32126
功	-8.32278
。」【△	-8.32371
覆	-8.32383
親	-8.3253
座	-8.3266
散	-8.32915
壞	-8.3302
科	-8.33244
法師	-8.33627
恐	-8.33633
頭	-8.33955
彌勒	-8.33999
下明	-8.34745
于	-8.34834
號	-8.34886
尊	-8.34969
藥	-8.35063
長行	-8.35334
此中	-8.35491
護	-8.35682
亦名	-8.35791
告	-8.35834
過去	-8.36382
真實	-8.36619
存	-8.36838
無所	-8.36928
之相	-8.37087
邊	-8.37095
切	-8.37608
歷	-8.37667
如何	-8.37737
像	-8.38169
只	-8.38252
以此	-8.38308
甚	-8.38473
無常	-8.38642
第五	-8.38905
敘	-8.3893
阿難	-8.39015
差別	-8.39509
女	-8.39714
禮	-8.39765
大小	-8.39976
末	-8.40248
增	-8.40335
莫	-8.40381
齊	-8.40593
一句	-8.41119
授記	-8.41206
慈悲	-8.41371
羅	-8.41494
迦葉	-8.41495
輪	-8.41867
玅	-8.41942
惟	-8.4195
不見	-8.42059
樹	-8.42418
人天	-8.42495
無上	-8.42562
有二	-8.42737
待	-8.43158
有三	-8.43329
書	-8.43743
半	-8.43828
可知	-8.44187
那	-8.4454
貪	-8.44696
發心	-8.44979
手	-8.45199
未來	-8.45234
舊	-8.4573
亦是	-8.45871
若有	-8.46021
仍	-8.46031
何者	-8.46071
出家	-8.46221
推	-8.46426
現在	-8.46567
遂	-8.46599
含	-8.46725
▁一	-8.46884
生滅	-8.46912
之中	-8.47406
諸天	-8.4795
雨	-8.48011
阿	-8.48172
助	-8.48238
尋	-8.48297
無相	-8.48303
敬	-8.48485
萬	-8.48933
汝等	-8.49035
流通	-8.49116
精進	-8.49189
鬼	-8.49291
墮	-8.49587
圓教	-8.49811
不思議	-8.49871
外道	-8.50125
脫	-8.50278
互	-8.50338
備	-8.50385
麤	-8.51117
最	-8.51153
三種	-8.51154
亦有	-8.5153
哉	-8.51594
不定	-8.51857
十六	-8.51881
壽	-8.52046
故名為	-8.52063
諸菩薩	-8.52217
本迹	-8.52439
之所	-8.52606
梵	-8.52611
思惟	-8.52765
無礙	-8.5282
玄	-8.52837
經文	-8.53101
吾	-8.53419
并	-8.5346
悲	-8.53595
珠	-8.53636
細	-8.53978
譬如	-8.54077
翻	-8.54395
雜	-8.54399
縱	-8.54679
國土	-8.54886
次明	-8.54903
蓮華	-8.55011
塔	-8.55055
四教	-8.55104
超	-8.55111
之心	-8.55381
微	-8.554
量	-8.55408
舍	-8.55677
不二	-8.55827
利益	-8.56212
害	-8.56482
興	-8.56508
觸	-8.56516
母	-8.56668
不出	-8.56827
亡	-8.5709
妙法	-8.57107
雲	-8.57384
廢	-8.57712
不退	-8.57727
四眾	-8.58064
大眾	-8.58116
輕	-8.58144
光明	-8.5838
旨	-8.58404
獲	-8.58412
今日	-8.58503
古	-8.58504
文云	-8.5868
善根	-8.58941
下釋	-8.59042
殊	-8.59045
之意	-8.5905
十地	-8.59669
接	-8.59862
眷屬	-8.59979
寂	-8.60027
通教	-8.60182
曾	-8.60362
各有	-8.60452
咸	-8.60729
不動	-8.60846
出世	-8.60999
.	-8.6123
收	-8.61307
一切法	-8.61452
談	-8.6172
龍	-8.62087
準	-8.62088
論云	-8.62215
是則	-8.62336
行者	-8.62547
頂	-8.62695
遇	-8.63013
地獄	-8.63241
身子	-8.64444
五百	-8.64467
冥	-8.65575
今文	-8.65714
今經	-8.65866
第六	-8.65876
根本	-8.659
內外	-8.66023
佛道	-8.66029
是也	-8.66255
婆	-8.66433
違	-8.66458
彰	-8.66476
欲界	-8.6652
焉	-8.66532
六度	-8.66635
毀	-8.66787
比	-8.6696
二種	-8.67108
志	-8.6782
器	-8.67923
融	-8.68279
自行	-8.68283
而為	-8.68463
如前	-8.6856
羅漢	-8.68723
諸子	-8.68966
甚深	-8.69036
二初	-8.69101
方等	-8.69115
首	-8.69397
中間	-8.69421
前後	-8.69452
提	-8.69621
相應	-8.69757
▁四	-8.6976
神力	-8.69781
正明	-8.70257
註	-8.70546
草	-8.70652
窮	-8.70741
乃是	-8.70795
自他	-8.71188
寂滅	-8.71318
夜	-8.71436
劣	-8.71549
元	-8.71553
若不	-8.71826
滅度	-8.71828
聞法	-8.72015
十界	-8.72102
宣	-8.72108
陳	-8.72578
亦無	-8.72631
謗	-8.72933
奉	-8.73083
遮	-8.73481
誰	-8.73504
三觀	-8.73715
中有	-8.742
大論	-8.74333
之事	-8.74363
隱	-8.74734
專	-8.74918
亦如是	-8.75006
救	-8.75052
大經	-8.75104
第十	-8.75131
摩	-8.75146
却	-8.75149
印	-8.75238
禪定	-8.75371
強	-8.75416
觀音	-8.75702
新	-8.75766
熏	-8.75783
不可思議	-8.75791
林	-8.75964
葢	-8.76044
始終	-8.76163
節	-8.76196
大師	-8.76441
虗	-8.76452
名之為	-8.76491
果報	-8.76817
譯	-8.77371
三世	-8.77575
對治	-8.7765
勿	-8.78244
永	-8.78425
三德	-8.78622
復有	-8.7908
諸眾生	-8.79416
調	-8.79425
木	-8.7977
)。】「	-8.7995
消	-8.8016
示現	-8.80246
為說	-8.80302
決定	-8.80463
運	-8.80501
化他	-8.8053
寄	-8.80533
作佛	-8.8065
二諦	-8.80665
和	-8.80697
無不	-8.80868
名字	-8.80958
之時	-8.81068
損	-8.81155
有漏	-8.81157
遣	-8.81373
亂	-8.81546
常住	-8.81582
事理	-8.8166
一時	-8.81666
受持	-8.81756
虗空	-8.81887
之文	-8.82191
之理	-8.82219
亦爾	-8.82236
境界	-8.8234
豈非	-8.82427
之言	-8.82488
承	-8.82744
自然	-8.82778
天台	-8.82857
老	-8.82876
懷	-8.82881
容	-8.82969
賢	-8.83022
面	-8.83142
經中	-8.83151
無作	-8.83154
隨喜	-8.83333
沙門	-8.8347
惱	-8.83571
陀	-8.83634
遊	-8.83842
金剛	-8.84007
癡	-8.84055
付	-8.84199
律	-8.84439
詮	-8.84506
不說	-8.84936
差	-8.85025
其義	-8.85035
第一義	-8.85038
大品	-8.85307
不應	-8.8545
今此	-8.85524
毒	-8.85539
不信	-8.85556
財	-8.85891
東	-8.86094
畢	-8.86122
而巳	-8.86134
一人	-8.86166
美	-8.86648
二義	-8.86719
濁	-8.86975
波	-8.86987
單	-8.86996
所有	-8.87121
脩	-8.87223
不淨	-8.87408
於中	-8.87408
初明	-8.87463
辯	-8.87512
乳	-8.87594
氣	-8.87596
疾	-8.87788
象	-8.87837
教化	-8.87875
四種	-8.87926
徒	-8.87959
有四	-8.88073
。」【○	-8.88178
陀羅尼	-8.88324
大悲	-8.88386
下結	-8.88576
所以者何	-8.88628
三者	-8.88684
亦復如是	-8.89021
決	-8.89066
熟	-8.8908
悔	-8.89116
路	-8.89126
供	-8.8949
夢	-8.90068
間	-8.90183
置	-8.90471
殺	-8.90498
〈	-8.90552
〉	-8.90553
○	-8.9064
五陰	-8.91086
誓	-8.91121
寺	-8.91191
故不	-8.91314
勤	-8.91352
帝	-8.9151
堂	-8.91881
聚	-8.92173
縛	-8.92186
諸經	-8.92321
穢	-8.92408
公	-8.92461
雖有	-8.92472
二頌	-8.92481
三法	-8.92526
輔行	-8.92535
能知	-8.92694
速	-8.92699
法華經	-8.92812
放	-8.92865
慢	-8.92914
清	-8.93107
但是	-8.93225
誡	-8.93347
資	-8.93472
犯	-8.93483
此文	-8.93503
瑞	-8.93509
弘	-8.93656
經言	-8.93678
是為	-8.93895
段	-8.9415
注	-8.94225
義也	-8.9438
邪見	-8.94463
得道	-8.94686
皆有	-8.94721
巧	-8.94757
固	-8.94812
善惡	-8.949
委	-8.94997
憂	-8.95012
及以	-8.95053
故以	-8.95074
疏云	-8.9512
靜	-8.95124
妙音	-8.95277
索	-8.9531
此即	-8.95515
嚴	-8.95667
無數	-8.95673
唱	-8.95674
導	-8.95728
種子	-8.95805
我今	-8.95868
河	-8.95976
正法	-8.95997
不可得	-8.96014
念處	-8.96048
通別	-8.96069
贊曰	-8.96225
室	-8.9628
恒	-8.96358
二十	-8.96359
第七	-8.96452
詳	-8.96573
智者	-8.96594
初心	-8.96836
猶如	-8.96891
誦	-8.96942
牛	-8.97276
帶	-8.97285
制	-8.97735
申	-8.97914
厭	-8.97941
所見	-8.98003
精	-8.98124
譬喻	-8.98135
文中	-8.9816
初地	-8.98256
繫	-8.98268
頌上	-8.98706
信解	-8.98796
平	-8.98842
謂之	-8.98914
見佛	-8.99014
此則	-8.99114
若爾	-8.99185
棄	-8.99224
具如	-8.9924
源	-8.99672
沒	-8.9974
亦應	-8.99769
宿	-8.9977
何以	-8.99825
忘	-8.9983
石	-9.00067
開顯	-9.00183
恩	-9.002
此二	-9.00216
藥王	-9.00284
文殊師利	-9.00293
壽命	-9.00427
垂	-9.00549
初住	-9.00561
次釋	-9.00572
能所	-9.00724
依正	-9.00746
故有	-9.00967
瓔珞	-9.00986
今謂	-9.00994
能生	-9.01346
燒	-9.01351
之名	-9.01467
文句	-9.01488
緣覺	-9.01571
講	-9.01626
真諦	-9.01697
西	-9.01831
天人	-9.02083
有情	-9.02175
應知	-9.02208
無學	-9.0227
是人	-9.02311
愚	-9.02311
怨	-9.02471
讀	-9.02478
純	-9.02543
淺	-9.02738
然後	-9.02784
。【	-9.02891
色心	-9.0321
見思	-9.03221
儀	-9.03252
問答	-9.03444
借	-9.03543
逆	-9.03696
契	-9.03795
誠	-9.0405
普賢	-9.04149
謬	-9.04156
南	-9.04281
改	-9.04325
聖人	-9.04337
增長	-9.04392
減	-9.0455
佛言	-9.04846
傍	-9.04897
瞋	-9.0513
十一	-9.05146
得名	-9.05215
道場	-9.05468
十八	-9.05608
六根	-9.05791
三業	-9.05856
點	-9.0589
堪	-9.05914
不受	-9.06065
空中	-9.06097
中云	-9.06145
答曰	-9.06237
亦可	-9.06259
為體	-9.06319
潤	-9.06357
交	-9.06427
何以故	-9.06578
竪	-9.06683
安隱	-9.06722
四門	-9.06738
淨土	-9.07051
際	-9.07221
特	-9.07241
阿羅漢	-9.07256
而說	-9.0731
知見	-9.074
無非	-9.07453
歲	-9.07661
盛	-9.07729
約教	-9.07741
准	-9.07798
服	-9.07873
現前	-9.08086
暗	-9.0828
麁	-9.08311
適	-9.08354
亦云	-9.08601
祖	-9.08606
者謂	-9.08761
成道	-9.0899
隔	-9.09003
堅	-9.09121
宅	-9.09714
都	-9.09734
恭敬	-9.10145
稟	-9.10215
背	-9.10285
淨名	-9.10419
解釋	-9.10592
放光	-9.10605
呪	-9.10648
胎	-9.10656
十五	-9.10846
二句	-9.1085
故須	-9.11055
」【	-9.11082
只是	-9.11501
倒	-9.11753
今明	-9.11816
闕	-9.11925
相似	-9.11981
三教	-9.12054
不離	-9.12064
責	-9.12084
患	-9.1214
法輪	-9.12145
佛所	-9.1215
善男子	-9.12175
所依	-9.12508
弘經	-9.12718
問曰	-9.12734
勢	-9.12807
此三	-9.12923
題	-9.12946
短	-9.12965
不可說	-9.12972
佛說	-9.134
四明	-9.13408
鏡	-9.13641
揀	-9.13763
下文	-9.13942
料簡	-9.1402
化城	-9.14048
亦然	-9.14169
番	-9.14487
寧	-9.14776
顛倒	-9.14805
不然	-9.14899
留	-9.15057
尼	-9.15086
自性	-9.15342
馬	-9.15404
法中	-9.15585
修習	-9.15694
於是	-9.15721
靈	-9.15728
曲	-9.15802
何得	-9.15805
皆悉	-9.15879
局	-9.16213
初文	-9.16216
所言	-9.16412
壽量	-9.16512
安樂	-9.16537
乖	-9.16596
濟	-9.16637
實智	-9.16664
二明	-9.16699
三寶	-9.16729
之道	-9.16824
而言	-9.16967
阿含	-9.16987
無為	-9.17271
則無	-9.17287
無邊	-9.17335
父母	-9.17367
肉	-9.1738
沙	-9.17413
此義	-9.17415
一切智	-9.17449
領解	-9.17528
則有	-9.17645
其心	-9.17933
若言	-9.17935
此品	-9.17986
鳥	-9.18053
分身	-9.18089
途	-9.18114
熱	-9.1849
誓願	-9.18587
蒙	-9.18676
所化	-9.18947
拔	-9.18984
【□	-9.19025
所生	-9.19047
為一	-9.19076
此土	-9.19128
迦	-9.19195
妨	-9.19198
持經	-9.19266
五濁	-9.19282
姓	-9.19375
不須	-9.1957
為人	-9.19653
一法	-9.19899
而有	-9.19976
此明	-9.20173
三身	-9.20253
讀誦	-9.20272
補	-9.20361
垢	-9.20456
行人	-9.20465
降	-9.20612
二智	-9.2069
但以	-9.20893
影	-9.20898
復次	-9.21059
和合	-9.21193
五品	-9.21382
漏	-9.2142
十種	-9.21834
菩薩摩訶薩	-9.2184
本無	-9.21875
黑	-9.21875
視	-9.21896
舌	-9.22131
法者	-9.22307
音聲	-9.22322
訖	-9.224
附	-9.22453
各各	-9.22516
落	-9.22938
言之	-9.2306
況復	-9.23178
何等	-9.23184
同異	-9.232
十二因緣	-9.23484
無畏	-9.23499
北	-9.23544
多寶	-9.23641
不起	-9.23669
不斷	-9.23788
若以	-9.23842
不異	-9.23981
等覺	-9.24445
而無	-9.24602
此法	-9.24739
礙	-9.24755
不滅	-9.24768
希有	-9.24784
為三	-9.24809
無量義	-9.24919
舍利	-9.24942
火宅	-9.25016
名曰	-9.25096
有無	-9.25097
根性	-9.25187
所得	-9.25201
此下	-9.25216
導師	-9.25238
道品	-9.25337
擬	-9.25474
所作	-9.25598
苦集	-9.25607
波羅蜜	-9.25688
有一	-9.25717
佛果	-9.25717
該	-9.25782
骨	-9.25909
未曾	-9.26035
觀行	-9.26521
十四	-9.26523
之處	-9.26727
巳上	-9.26847
茲	-9.26885
三句	-9.26955
之後	-9.26971
無量無邊	-9.27134
男	-9.27291
大法	-9.27324
無我	-9.27341
再	-9.27362
不住	-9.27538
今初	-9.27559
意者	-9.27651
未得	-9.27661
此乃	-9.27716
意也	-9.28047
)(	-9.28536
又復	-9.28538
總結	-9.28592
第八	-9.28667
由此	-9.28726
六道	-9.2874
士	-9.28838
演	-9.28882
初禪	-9.2893
有所	-9.28931
其人	-9.28934
懺	-9.28967
令得	-9.29066
百千	-9.29091
急	-9.29192
畢竟	-9.29304
十住	-9.29376
為二	-9.29442
怖	-9.29445
可見	-9.29451
三明	-9.29468
五欲	-9.29539
仰	-9.29629
守	-9.29751
但有	-9.29836
婆羅門	-9.30013
忽	-9.30215
是時	-9.30295
別圓	-9.30378
詣	-9.30427
而生	-9.30504
何況	-9.30697
不覺	-9.30946
結緣	-9.31072
▁初明	-9.31094
若人	-9.31273
幻	-9.31358
端	-9.31393
無異	-9.31571
彼佛	-9.31575
三義	-9.31645
慮	-9.31722
有二種	-9.31733
若無	-9.31831
辭	-9.31864
養	-9.31911
無情	-9.31924
可以	-9.31992
法說	-9.32041
如是等	-9.32052
隨緣	-9.32075
記云	-9.32159
之力	-9.3219
既云	-9.3236
之說	-9.32457
廣說	-9.32638
如來藏	-9.32718
不為	-9.32734
為因	-9.32783
應身	-9.32821
薄	-9.3285
分二	-9.32871
驚	-9.33018
四禪	-9.33089
以明	-9.33143
一切種智	-9.33368
者即	-9.33461
臣	-9.33612
覩	-9.33897
定慧	-9.33929
值	-9.33937
佛界	-9.33983
法也	-9.34005
鈍	-9.34011
質	-9.34039
演說	-9.34085
至於	-9.3413
方便品	-9.34218
揚	-9.34221
不聞	-9.34245
期	-9.34266
不虗	-9.34276
大士	-9.34293
三十	-9.3431
報身	-9.34381
毗	-9.34444
彌	-9.34529
遺	-9.34535
九界	-9.34635
感應	-9.3471
倍	-9.34718
親近	-9.349
妙覺	-9.35074
初二	-9.35167
十信	-9.35228
轉法輪	-9.35247
鼻	-9.35312
所詮	-9.35492
微妙	-9.35507
令其	-9.35528
本來	-9.35566
默	-9.35724
燈	-9.35762
師子	-9.35836
有人	-9.35934
顯實	-9.36026
其實	-9.36115
爾時世尊	-9.36203
慶	-9.36239
無別	-9.36309
十九	-9.36318
得記	-9.3653
應云	-9.3666
隨順	-9.3674
客	-9.36769
牒	-9.36817
亦非	-9.37021
預	-9.37037
二邊	-9.37061
青	-9.37086
七寶	-9.37166
布	-9.37169
有異	-9.372
移	-9.37302
自有	-9.37354
無復	-9.37387
不共	-9.37407
其中	-9.37432
佛告	-9.37445
四大	-9.3763
泥	-9.37717
不識	-9.3776
所證	-9.37781
種性	-9.37784
一行	-9.37793
任	-9.37931
入定	-9.37978
故得	-9.38369
無色	-9.38411
▁○	-9.38505
是經	-9.38509
其所	-9.38531
己	-9.38703
修道	-9.38713
經論	-9.38727
愍	-9.38742
廣大	-9.38871
但云	-9.38921
則不	-9.38929
載	-9.39066
蔽	-9.39078
亦復	-9.39184
此之	-9.39214
八萬	-9.39235
界外	-9.39348
代	-9.39475
持戒	-9.39534
登	-9.39583
在於	-9.39596
泯	-9.39627
佛子	-9.39721
否	-9.39798
宮	-9.39963
一實	-9.40155
一向	-9.40219
積	-9.40245
託	-9.40295
五味	-9.4032
利根	-9.4034
錄	-9.40519
闇	-9.40651
八萬四千	-9.4071
傷	-9.40711
何不	-9.40716
佛身	-9.4076
作是念	-9.40773
然此	-9.40787
不解	-9.40836
天子	-9.41052
王子	-9.41138
雖復	-9.41184
關	-9.41203
貴	-9.41503
祇	-9.41551
奪	-9.41644
如文	-9.41685
安樂行	-9.41718
又二	-9.41772
訓	-9.41909
唯有	-9.4191
性德	-9.41951
故今	-9.41989
仁	-9.42229
相續	-9.42373
億	-9.42528
色界	-9.4263
最後	-9.42776
懺悔	-9.42812
誤	-9.42817
圓滿	-9.42883
典	-9.42896
呼	-9.42908
五種	-9.42951
賜	-9.43013
日月	-9.43026
如彼	-9.43124
則為	-9.43134
若能	-9.43135
而得	-9.43164
無二	-9.43181
曉	-9.43231
有此	-9.4324
之體	-9.43351
應以	-9.4354
塵沙	-9.43559
妙法蓮華經	-9.43718
上下	-9.43761
池	-9.43764
之行	-9.43786
開權	-9.43905
,「	-9.44012
所行	-9.44033
佛眼	-9.4406
太	-9.44069
圓融	-9.4416
地前	-9.44191
塞	-9.44223
悉皆	-9.4425
無盡	-9.44265
無始	-9.44332
十法界	-9.44353
恒沙	-9.44368
見道	-9.44373
防	-9.4441
黃	-9.44513
軌	-9.44639
女人	-9.44773
即空	-9.44828
悅	-9.44834
涉	-9.4487
相即	-9.4489
緣起	-9.44967
旋	-9.45002
任運	-9.45047
畏	-9.45082
不取	-9.45123
而起	-9.45134
斷惑	-9.45198
得益	-9.4537
第九	-9.45398
法相	-9.45406
亦如	-9.45595
心性	-9.45596
觀法	-9.45878
假名	-9.45881
醍醐	-9.45938
於佛	-9.4594
處處	-9.46028
不失	-9.46045
滯	-9.46066
一往	-9.46303
信受	-9.46304
亦得	-9.46453
之教	-9.4659
有五	-9.46642
前三	-9.46676
發菩提心	-9.46734
群	-9.46786
大千	-9.46805
權智	-9.46981
入涅槃	-9.4702
福德	-9.47062
諸教	-9.47196
釋云	-9.47427
以顯	-9.47463
▁五	-9.47483
濫	-9.47521
三毒	-9.47526
圓頓	-9.47565
正是	-9.47738
大車	-9.47808
通達	-9.47986
一品	-9.48031
葉	-9.48084
得果	-9.48088
,《	-9.48232
召	-9.48284
分明	-9.48435
或云	-9.48471
念念	-9.48684
幽	-9.48786
十法	-9.48848
二字	-9.48922
不復	-9.48945
虛	-9.48989
鼓	-9.48994
幾	-9.49032
先明	-9.4912
?」	-9.49192
皆得	-9.49202
為本	-9.49223
增上慢	-9.49265
越	-9.49328
思議	-9.49361
久遠	-9.49455
鉢	-9.49543
配	-9.49579
四十	-9.49647
之本	-9.49676
既是	-9.49715
階	-9.49732
道理	-9.49736
梵王	-9.49775
十七	-9.49816
體用	-9.50063
若約	-9.50126
不相	-9.50171
賊	-9.50478
底	-9.5048
相對	-9.505
缺	-9.50588
故說	-9.50622
界內	-9.50632
四悉	-9.50756
最初	-9.50894
所明	-9.5103
鹿苑	-9.51081
能破	-9.51129
三周	-9.51139
梵行	-9.51188
一偈	-9.51348
唯識	-9.51633
不輕	-9.51698
東方	-9.51741
生身	-9.51804
堅固	-9.5182
招	-9.5212
寶塔	-9.52212
剎	-9.52237
無間	-9.52313
累	-9.52364
虛空	-9.52427
大意	-9.528
醫	-9.52827
不言	-9.52905
善法	-9.52925
州	-9.52933
是法	-9.52987
暫	-9.53001
四者	-9.53137
理性	-9.53369
驗	-9.53426
今言	-9.53479
析	-9.53483
此約	-9.53557
此意	-9.53563
不善	-9.53599
剎那	-9.53619
或有	-9.538
凡聖	-9.53934
折	-9.53944
怖畏	-9.5396
立名	-9.54039
布施	-9.54053
臨	-9.54067
此等	-9.54136
得入	-9.54137
變易	-9.5415
性相	-9.54364
稍	-9.54736
此人	-9.54801
四念處	-9.54838
淺深	-9.54852
淨心	-9.54853
鈍根	-9.54927
結成	-9.55087
昔日	-9.5511
別釋	-9.55157
智斷	-9.55223
般	-9.55242
檀	-9.55298
並是	-9.55299
合上	-9.55347
追	-9.55363
一家	-9.55506
無性	-9.55536
合掌	-9.55603
教門	-9.55674
不及	-9.55693
擊	-9.55707
為四	-9.5572
何所	-9.55745
觀世音	-9.55748
狀	-9.55869
得聞	-9.55884
偈頌	-9.55968
刀	-9.56012
其意	-9.5617
學者	-9.56304
欣	-9.56336
有大	-9.56364
皆名	-9.56439
本有	-9.56443
藉	-9.56499
十乘	-9.56612
付囑	-9.56706
住於	-9.56735
以下	-9.56748
威儀	-9.56754
窮子	-9.56789
開合	-9.56886
於諸	-9.56931
仙	-9.5698
威	-9.57033
修觀	-9.57103
正因	-9.57156
是菩薩	-9.57173
免	-9.5721
吉	-9.57227
狹	-9.57281
總別	-9.57431
發願	-9.57443
非是	-9.57445
玄文	-9.57455
住持	-9.57588
境智	-9.57636
因中	-9.57813
及諸	-9.58017
身心	-9.58021
大涅槃	-9.58024
多少	-9.58037
五時	-9.58053
娑婆	-9.58181
釋名	-9.58183
分段	-9.58212
唐	-9.58277
疏主	-9.5837
貪欲	-9.58435
若依	-9.58469
於彼	-9.58523
辟支佛	-9.58563
迴	-9.58793
苦行	-9.58807
彼經	-9.58822
懸	-9.5887
統	-9.5897
私	-9.59019
忍辱	-9.59137
稱歎	-9.59303
不成	-9.59376
豈可	-9.59489
有十	-9.59612
徹	-9.59667
。」【(	-9.59787
人也	-9.59806
。」【【■	-9.59816
今以	-9.59859
則是	-9.59908
八地	-9.59911
尊者	-9.60013
名義	-9.60057
正說	-9.6013
法王	-9.60135
網	-9.60189
的	-9.60202
有餘	-9.60227
之身	-9.60261
諍	-9.60268
滅後	-9.60305
露	-9.60336
無餘	-9.60349
利鈍	-9.60407
意在	-9.6049
白佛言	-9.60546
染淨	-9.60737
善知識	-9.60786
發起	-9.60951
佛慧	-9.60999
老死	-9.61042
田	-9.61243
五十	-9.61257
釋迦牟尼佛	-9.6129
朝	-9.61386
伽	-9.61504
安住	-9.61519
十如	-9.61822
而說偈言	-9.61878
應作	-9.62007
不了	-9.62072
他方	-9.62163
千二百	-9.62274
開權顯實	-9.62424
須知	-9.62536
不退轉	-9.62551
若論	-9.62621
初標	-9.62657
諸比丘	-9.62677
藏通	-9.6285
豎	-9.62964
富	-9.62998
此四	-9.63067
伹	-9.63123
之由	-9.63287
必須	-9.6331
別明	-9.63325
鳴	-9.63377
三車	-9.63427
貫	-9.6345
緣了	-9.63576
修性	-9.63596
大經云	-9.63907
殘	-9.6419
佛智	-9.64201
下根	-9.64249
七日	-9.64284
佛乘	-9.64319
支佛	-9.64365
無住	-9.64374
若干	-9.64385
每	-9.64691
▁二釋	-9.64708
文字	-9.64806
希	-9.64873
抑	-9.64898
:『	-9.64974
乾	-9.64991
六種	-9.65002
迹門	-9.6503
秦	-9.65082
良	-9.65087
婆沙	-9.65112
行相	-9.65221
則知	-9.65234
輔行云	-9.65239
本門	-9.65275
惡業	-9.65459
嗔	-9.65462
功能	-9.65495
謝	-9.65687
利他	-9.65759
尊特	-9.65767
男女	-9.65774
初中	-9.65821
原	-9.65876
星	-9.65877
諸文	-9.65897
如實	-9.65963
即以	-9.65979
如上	-9.66171
酪	-9.6618
以其	-9.66185
帝釋	-9.66207
良由	-9.66214
限	-9.66238
三根	-9.66419
必有	-9.66435
世人	-9.66568
二門	-9.66587
所知	-9.66595
當體	-9.6664
說者	-9.66837
說三乘	-9.66882
之機	-9.66935
最勝	-9.67022
之因	-9.67083
不盡	-9.67124
天下	-9.67217
之性	-9.67253
破無明	-9.67262
罵	-9.67353
連	-9.67389
右	-9.6743
龍女	-9.67478
人中	-9.67553
能持	-9.67706
是事	-9.67734
浮	-9.67747
為實	-9.67782
中說	-9.68003
化身	-9.68035
」「	-9.68054
凡有	-9.68083
正釋	-9.6821
民	-9.68212
戲	-9.68214
俱舍	-9.68325
若欲	-9.68334
獄	-9.68336
四行	-9.68371
嘆	-9.68409
虗妄	-9.68531
是佛	-9.68579
貧	-9.68579
毛	-9.68664
一行半	-9.68749
漸頓	-9.68791
天眼	-9.68819
相好	-9.68844
寒	-9.691
三十二	-9.69116
蓮	-9.69137
十三	-9.69184
弊	-9.69203
符	-9.69344
聽法	-9.69359
思之	-9.69373
故此	-9.69385
現身	-9.69389
惡道	-9.69527
氏	-9.69569
測	-9.69639
一切世間	-9.69645
饒益	-9.69766
自知	-9.69806
。】△	-9.69884
章安	-9.69894
不空	-9.69993
總持	-9.70038
能令	-9.70069
故稱	-9.70084
輩	-9.70085
既有	-9.70154
痛	-9.70173
扶	-9.70229
審	-9.70327
前文	-9.70328
一種	-9.70408
不名	-9.7044
大機	-9.70478
意識	-9.70496
讚歎	-9.70496
一切諸法	-9.70499
繁	-9.70548
義故	-9.70661
皆以	-9.70674
一生	-9.70745
張	-9.70778
一頌	-9.70787
飛	-9.70841
疎	-9.70995
宮殿	-9.71095
欲令	-9.71098
非一	-9.71101
之境	-9.71213
作此	-9.71256
何須	-9.7133
如經	-9.7143
豈不	-9.71563
有為	-9.7159
之用	-9.71608
擇	-9.71622
心不	-9.7163
餘經	-9.71708
遠離	-9.71722
偽	-9.71766
同一	-9.72038
其身	-9.72078
文義	-9.72177
今佛	-9.72222
按	-9.72282
開示	-9.72348
苦諦	-9.72425
侍	-9.72428
太子	-9.72457
又如	-9.72494
寂光	-9.72514
四方	-9.7256
盲	-9.72695
。』	-9.72974
返	-9.72998
釋籤	-9.73088
唯一	-9.7313
是以	-9.73213
兒	-9.73277
究	-9.73283
優	-9.7329
經典	-9.73327
七種	-9.73449
鹿	-9.73457
即得	-9.73512
上來	-9.73585
心中	-9.7359
十行	-9.73593
之旨	-9.73635
不與	-9.73765
二人	-9.73789
四法	-9.7382
以是	-9.73987
二乘人	-9.74067
苟	-9.74109
下約	-9.74119
詞	-9.74174
國王	-9.74178
釋疑	-9.74196
摩訶	-9.74202
草木	-9.74283
時節	-9.74308
停	-9.74386
敷	-9.74389
展轉	-9.74422
妙光	-9.74516
說一乘	-9.74661
無差別	-9.74677
兵	-9.74692
作是	-9.74711
說之	-9.74775
故能	-9.74779
住處	-9.74877
中根	-9.74926
夏	-9.7494
喚	-9.7501
煩	-9.75016
博	-9.75029
赤	-9.75109
二釋	-9.75174
觀察	-9.75193
大海	-9.75254
皆為	-9.75349
無量劫	-9.75361
二行	-9.7543
未盡	-9.75437
初釋	-9.75483
束	-9.75505
花	-9.75651
同時	-9.75686
今家	-9.75722
充	-9.7589
寬	-9.75907
走	-9.7591
珍寶	-9.75984
更有	-9.7604
訶	-9.76049
不如	-9.76053
說是	-9.76066
秖是	-9.76134
引證	-9.76181
而能	-9.76192
不可以	-9.76202
調伏	-9.76256
有二義	-9.76305
慕	-9.76372
長遠	-9.76434
由是	-9.76446
甘露	-9.7663
▁【	-9.76731
之功	-9.76756
無能	-9.76771
勞	-9.76814
昏	-9.76863
濕	-9.76889
三品	-9.76918
玄義	-9.77008
無差	-9.77039
髮	-9.77066
等也	-9.77086
萬行	-9.77277
險	-9.77283
閑	-9.77325
禮拜	-9.77326
佛為	-9.77415
故無	-9.77429
不爾	-9.77435
非真	-9.77437
安心	-9.77552
巳來	-9.77571
上根	-9.77601
度眾生	-9.77623
諸根	-9.77665
入於	-9.77675
生佛	-9.77832
變化	-9.77851
中有二	-9.77945
誘	-9.77968
正觀	-9.77993
異名	-9.78044
無知	-9.78101
前二	-9.78149
他人	-9.7821
有何	-9.78226
於一	-9.78232
飲	-9.78339
二十五	-9.78341
飲食	-9.78354
遙	-9.78355
延	-9.78483
逗	-9.78496
君	-9.78511
徵	-9.78563
佛土	-9.78565
義同	-9.78639
稱為	-9.7866
今云	-9.78733
赴	-9.78738
護持	-9.78753
魚	-9.78775
人法	-9.78785
酬	-9.78785
念佛	-9.78863
弱	-9.78868
內心	-9.78892
尺	-9.78922
中二	-9.78943
亦以	-9.79093
生起	-9.79164
一部	-9.79171
梵天	-9.79179
十善	-9.79238
輪王	-9.79306
終不	-9.79338
未有	-9.79405
明了	-9.79424
觀世音菩薩	-9.79577
三初	-9.79626
大論云	-9.79659
毫	-9.79696
阿耨多羅三藐三菩提	-9.79762
是實	-9.79804
不二門	-9.79889
逢	-9.79908
應當	-9.7994
次約	-9.7997
百千萬億	-9.80069
所成	-9.80127
說經	-9.80276
不許	-9.80314
畜生	-9.8033
論文	-9.8034
入空	-9.80416
既無	-9.80426
所緣	-9.8043
須彌	-9.80512
絕待	-9.80704
逐	-9.80758
懈怠	-9.80783
諸惡	-9.80871
遊戲	-9.80894
善哉	-9.81
惡世	-9.81003
俗諦	-9.81015
錢	-9.81091
厚	-9.81198
諸行	-9.81213
角	-9.81268
勅	-9.81279
非但	-9.81392
說此經	-9.81434
八十	-9.81462
此言	-9.81463
是諸	-9.81505
命終	-9.81517
廣明	-9.81523
篇	-9.81557
背捨	-9.81565
三頌	-9.81625
不明	-9.81658
竝	-9.81672
蘊	-9.81734
初後	-9.81734
能觀	-9.8186
為正	-9.81892
心所	-9.81934
心生	-9.81953
議	-9.82002
賢聖	-9.82045
語言	-9.82093
即有	-9.82111
頌合	-9.82132
五乘	-9.82282
教道	-9.82302
六即	-9.82315
玉	-9.82318
無記	-9.82506
術	-9.82527
上品	-9.8266
七地	-9.82688
古人	-9.82741
滅諦	-9.82762
長短	-9.82843
言說	-9.8301
圖	-9.83066
無上道	-9.83098
畜	-9.83175
諸法實相	-9.83214
而論	-9.83249
可得	-9.8328
觀者	-9.83301
善巧	-9.83304
道諦	-9.83358
跡	-9.83576
說也	-9.8362
血	-9.83765
依止	-9.83766
此翻	-9.83785
建立	-9.83788
問訊	-9.8382
拘	-9.83826
左	-9.83888
三道	-9.83914
續	-9.84018
也又	-9.84025
離諸	-9.84073
能見	-9.84118
朽	-9.84134
相者	-9.8416
行道	-9.84274
早	-9.84308
啟	-9.84416
漢	-9.84448
正宗	-9.84485
宛然	-9.8456
官	-9.84578
相待	-9.84595
此釋	-9.84641
雖無	-9.84644
通於	-9.8465
愈	-9.84699
建	-9.84764
如佛	-9.84848
既爾	-9.84926
恒河沙	-9.85174
清涼	-9.85253
深心	-9.85334
塗	-9.85382
成佛道	-9.85402
法體	-9.85421
入滅	-9.8548
他土	-9.85593
何處	-9.85594
不著	-9.85616
微塵	-9.85618
上文	-9.85642
教行	-9.85744
投	-9.85779
為名	-9.85867
位也	-9.85905
保	-9.85914
昧	-9.85935
論曰	-9.86046
貪著	-9.86146
受用	-9.86182
釋中	-9.86194
不具	-9.86212
打	-9.8627
洲	-9.86428
一性	-9.86466
錯	-9.86498
歌	-9.865
不求	-9.86504
一味	-9.86558
枝	-9.86605
唯在	-9.86631
光宅	-9.86702
一分	-9.86757
來意	-9.86802
總名	-9.86864
江	-9.86928
樓	-9.87085
▁二若	-9.87156
某	-9.87266
寶所	-9.87269
奇	-9.87346
楞嚴	-9.8735
藥草	-9.87371
能詮	-9.87378
彼此	-9.87391
不思議境	-9.87398
餓鬼	-9.87479
所攝	-9.8749
初果	-9.87568
應化	-9.87643
孤	-9.87765
不妨	-9.8779
辦	-9.87833
得見	-9.87862
果也	-9.88037
求佛道	-9.88107
出三界	-9.88117
初約	-9.88141
緣生	-9.88433
▁「	-9.88465
有三種	-9.88485
釋曰	-9.88486
摧	-9.88502
娑婆世界	-9.88589
陽	-9.88625
初句	-9.88637
自心	-9.88638
若作	-9.88744
衰	-9.88757
為大	-9.88803
闍	-9.88864
沙彌	-9.88979
相違	-9.89028
為緣	-9.89128
從此	-9.89175
鈔	-9.892
之德	-9.89221
非謂	-9.89233
之果	-9.8928
唯心	-9.89303
履	-9.89329
得解脫	-9.89337
看	-9.89407
相也	-9.89506
之眾	-9.89507
皆云	-9.89611
由旬	-9.89728
十方佛	-9.89748
唯佛	-9.8977
同居	-9.89962
軍	-9.90055
本願	-9.90129
令入	-9.90257
如意	-9.90278
尚不	-9.90374
我於	-9.90387
淨穢	-9.90451
普門	-9.90535
我見	-9.90545
佛之	-9.90565
苦惱	-9.90579
毘	-9.90633
通論	-9.90671
練	-9.9073
梁	-9.90787
幸	-9.90788
有六	-9.90859
蘇	-9.90949
臺	-9.91057
開佛知見	-9.91068
種智	-9.91074
通塞	-9.91093
未能	-9.91172
之智	-9.91236
非實	-9.91293
能通	-9.91364
此事	-9.91392
不以	-9.91398
大王	-9.91404
雙非	-9.91422
滿足	-9.91637
妙境	-9.91687
故非	-9.91704
尸	-9.91746
靈山	-9.91771
拂	-9.91834
不壞	-9.91849
阿僧祇	-9.91889
聞經	-9.91975
自謂	-9.91979
行也	-9.91984
行因	-9.92029
乞	-9.92041
法空	-9.92076
漸漸	-9.92077
偈云	-9.92135
又以	-9.92187
妄想	-9.92207
法藏	-9.92216
一體	-9.92264
了因	-9.92364
性惡	-9.92416
空寂	-9.92436
五行	-9.92443
得度	-9.92449
七方便	-9.92457
可解	-9.92502
然則	-9.92547
臥	-9.92549
說此	-9.92567
九十	-9.92572
童子	-9.92593
其數	-9.92721
釋者	-9.92741
出假	-9.92751
三人	-9.92757
目連	-9.92787
為難	-9.92903
不論	-9.92925
互相	-9.93033
眠	-9.93059
人間	-9.93103
下引	-9.93139
六根清淨	-9.93157
前明	-9.93206
三十二相	-9.93223
逼	-9.93324
釋之	-9.93372
五根	-9.93444
又見	-9.93449
噉	-9.93467
次引	-9.93503
守護	-9.93515
負	-9.93526
不捨	-9.93558
成正覺	-9.93679
無緣	-9.93687
西方	-9.93754
納	-9.93864
又曰	-9.9387
珍	-9.93873
生疑	-9.9418
佛地	-9.94246
【	-9.94299
更無	-9.94313
引經	-9.94384
植	-9.94389
唱滅	-9.94424
二子	-9.94649
里	-9.94771
愚癡	-9.94886
波若	-9.94911
不堪	-9.94916
酒	-9.94926
以釋	-9.94943
名色	-9.94965
不在	-9.94969
此方	-9.94976
蘭	-9.94987
不變	-9.95037
若從	-9.95052
十力	-9.95068
纏	-9.95077
一一皆	-9.9509
眾中	-9.95193
牽	-9.95212
威德	-9.95223
今當	-9.95264
四果	-9.95305
迴向	-9.95374
既不	-9.95391
寂靜	-9.95427
闡提	-9.95497
說法華	-9.95504
若是	-9.95518
而自	-9.95534
三智	-9.95769
無所有	-9.95777
天王	-9.95819
福慧	-9.95902
千萬億	-9.95921
雙照	-9.95984
豈有	-9.95996
升	-9.95999
於前	-9.96021
論中	-9.96065
此一	-9.9614
方名	-9.96169
受持讀誦	-9.96199
伊	-9.96209
不肯	-9.96231
敢	-9.96283
冠	-9.96356
於後	-9.96365
若得	-9.96398
古今	-9.96437
參	-9.96498
摩訶衍	-9.96572
橫竪	-9.96585
秖	-9.96604
所引	-9.96717
御	-9.96725
下引證	-9.96784
之與	-9.96832
譬說	-9.96841
退大	-9.96845
得此	-9.96862
隨機	-9.96887
步	-9.96917
雖不	-9.96962
加行	-9.96984
常在	-9.97084
心無	-9.9711
至此	-9.97136
須菩提	-9.97159
入道	-9.97202
一切皆	-9.97239
一處	-9.97309
枯	-9.97371
二禪	-9.97394
默然	-9.97394
鬼神	-9.97407
起塔	-9.97456
惜	-9.97506
而復	-9.97519
二空	-9.97636
晉	-9.97662
益物	-9.97681
二千	-9.97717
出入	-9.97786
無盡意	-9.9783
▁二頌	-9.97852
出於	-9.97902
燈明	-9.97925
與記	-9.97967
知其	-9.98039
無著	-9.98123
籤	-9.9815
哀	-9.98157
文也	-9.98184
三千大千世界	-9.98313
叉	-9.98328
不合	-9.98374
天竺	-9.98495
總明	-9.98495
此亦	-9.98515
若於	-9.98564
緣因	-9.98591
憶	-9.98643
明其	-9.98651
臂	-9.98704
初頌	-9.98712
沈	-9.9874
當作佛	-9.98778
有云	-9.98817
邑	-9.98852
即便	-9.98868
無所畏	-9.98882
佛意	-9.98923
而今	-9.98953
具三千	-9.99062
蟲	-9.99081
甞	-9.99109
於法	-9.99139
法故	-9.99159
繼	-9.99198
煖	-9.99208
榮	-9.99224
案	-9.99238
萬億	-9.99268
一代	-9.99284
道滅	-9.99295
等四	-9.9933
難解	-9.99361
比丘尼	-9.9941
祕密	-9.99454
生善	-9.99562
恨	-9.99581
得佛	-9.99599
一相	-9.99691
出生	-9.99697
大智	-9.99876
憑	-9.99892
力故	-9.99955
又三	-9.99968
一日	-9.99979
行處	-10.0004
二偈頌	-10.0005
多聞	-10.0021
餘三	-10.0023
狗	-10.003
掌	-10.004
離合	-10.0047
是一	-10.0052
▁初釋	-10.0052
巳得	-10.0052
五道	-10.0059
無垢	-10.006
秘	-10.0073
侍者	-10.0084
增上	-10.0089
菩提心	-10.0091
擬宜	-10.0097
房	-10.0098
智積	-10.0105
一切諸佛	-10.0112
盧	-10.0119
遭	-10.0124
價	-10.0133
席	-10.0141
本是	-10.0149
經曰	-10.0166
皮	-10.017
不用	-10.0179
遷	-10.0179
無機	-10.018
武	-10.0182
大聖	-10.0186
當機	-10.0191
五千	-10.0193
無分別	-10.0195
雷	-10.02
依報	-10.02
眾多	-10.0201
个	-10.0203
為五	-10.0206
無窮	-10.0209
說偈	-10.0211
聖道	-10.0226
明矣	-10.0226
為是	-10.0227
囑	-10.0231
結集	-10.0232
大慈	-10.0239
是知	-10.0241
條	-10.0245
我所	-10.0259
非想	-10.0267
顯示	-10.0272
之類	-10.0276
理觀	-10.0287
荊溪	-10.0293
獸	-10.0296
陵	-10.0299
衛	-10.0304
非不	-10.0314
智力	-10.0315
妙玄	-10.0317
偏圓	-10.0324
胡	-10.0335
解說	-10.0336
度脫	-10.0336
拜	-10.0342
我身	-10.0346
一切諸	-10.0347
一百	-10.0348
答言	-10.0358
本具	-10.0358
而非	-10.0361
避	-10.0364
佛知見	-10.037
釋成	-10.038
快	-10.038
之語	-10.0382
實報	-10.0383
中之	-10.0384
修多羅	-10.0386
受記	-10.0395
書寫	-10.0399
本覺	-10.0405
余	-10.0406
禁	-10.0422
四義	-10.0423
非有	-10.0433
諸人	-10.0444
之前	-10.0444
略明	-10.0449
略說	-10.0453
即此	-10.0458
若見	-10.0458
得菩提	-10.0463
身中	-10.0472
正見	-10.0474
何名	-10.0475
旁	-10.0476
不久	-10.0478
格量	-10.048
狂	-10.0483
即成	-10.0483
孔	-10.0494
慳	-10.0497
說是經	-10.0498
同體	-10.0506
分三	-10.0517
侵	-10.0518
猶未	-10.0528
所聞	-10.0529
之異	-10.0536
顧	-10.0537
貌	-10.0542
天上	-10.0552
無疑	-10.0557
師曰	-10.0557
回	-10.0558
柱	-10.0559
後一	-10.056
習氣	-10.0581
檢	-10.059
居士	-10.0602
四悉檀	-10.0605
輔	-10.0609
文意	-10.0617
暢	-10.0617
得解	-10.0623
沉	-10.0624
世諦	-10.063
涅槃經	-10.0642
敗	-10.0644
驚怖	-10.0644
夜叉	-10.0645
宋	-10.0646
隨其	-10.0648
十妙	-10.0649
空觀	-10.0653
六十	-10.0653
人民	-10.0654
大地	-10.0657
後世	-10.066
知識	-10.0661
祕	-10.0662
心者	-10.0664
油	-10.0676
龍樹	-10.0676
後二	-10.0679
庶	-10.0682
充滿	-10.0696
教相	-10.0701
眾人	-10.0702
巳後	-10.0711
理一	-10.0712
圍繞	-10.0716
今且	-10.0719
師云	-10.0719
之位	-10.073
修證	-10.073
集諦	-10.073
諸佛所	-10.0732
如人	-10.0737
菩薩行	-10.0738
涌出	-10.0738
真俗	-10.0739
未聞	-10.0751
懼	-10.0752
三行	-10.0753
十方諸佛	-10.0759
贊	-10.076
其名	-10.0763
初又二	-10.0766
秘密	-10.0767
磨	-10.0767
在此	-10.0767
半行	-10.077
無想	-10.0778
一佛乘	-10.0785
無色界	-10.0786
教中	-10.0786
慈心	-10.0787
攬	-10.0788
臭	-10.0788
野	-10.0788
法師品	-10.0789
三結	-10.0792
金色	-10.0794
八部	-10.0796
而言之	-10.0798
其文	-10.08
樂說	-10.0801
不行	-10.0803
羣	-10.0804
研	-10.0804
增減	-10.0808
實際	-10.081
慧命	-10.0819
因此	-10.0827
一音	-10.0829
觀之	-10.083
撿	-10.0831
不生不滅	-10.0835
約行	-10.0838
一門	-10.0842
當來	-10.0845
不虛	-10.0849
為欲	-10.0852
真性	-10.0861
緩	-10.0866
巳前	-10.0874
方法	-10.0877
孫	-10.088
義者	-10.088
迹中	-10.0881
送	-10.0882
盜	-10.0882
約理	-10.0882
了知	-10.0888
身口	-10.0893
夷	-10.0895
殿	-10.0902
澤	-10.0905
三事	-10.0914
楞伽	-10.0916
卒	-10.0919
補處	-10.0923
傾	-10.0926
笑	-10.0927
常不輕	-10.093
者即是	-10.0931
第二明	-10.0937
園	-10.0938
最上	-10.0939
皆具	-10.0941
撰	-10.0949
幢	-10.0951
或見	-10.0959
佛語	-10.0964
囑累	-10.0968
其相	-10.0971
不別	-10.0974
喪	-10.0975
爾時佛告	-10.0983
像法	-10.0988
真理	-10.0993
是方便	-10.0995
正為	-10.0995
此間	-10.1
問何故	-10.1022
少分	-10.1024
卑	-10.103
時眾	-10.1034
體性	-10.1041
阿僧祇劫	-10.1043
不實	-10.1048
聞者	-10.1051
不作	-10.1056
證得	-10.1057
開三顯一	-10.1059
鐵	-10.1063
得未曾有	-10.1072
未曾有	-10.1076
非無	-10.1092
般涅槃	-10.1092
衣食	-10.1098
詩	-10.1099
耶答	-10.1108
不敢	-10.1118
下品	-10.1122
)。△	-10.1122
洞	-10.1124
大歡喜	-10.1124
教也	-10.1129
諸聲聞	-10.1131
丈六	-10.1135
本末	-10.1135
色身	-10.1139
齒	-10.1151
梵語	-10.1151
從初	-10.1155
俱有	-10.1157
行成	-10.1162
常樂	-10.1165
勝鬘	-10.1169
乞食	-10.1171
。(△	-10.1174
婬	-10.1174
行菩薩道	-10.1177
釋論	-10.1178
三途	-10.1181
墜	-10.1183
五人	-10.1188
羅剎	-10.1192
述成	-10.1198
中論	-10.1198
即能	-10.1209
世世	-10.1212
攝一切	-10.1219
誑	-10.1226
佛滅後	-10.1231
助道	-10.1234
勝處	-10.1234
盈	-10.1244
便是	-10.1248
阿修羅	-10.1252
所破	-10.1257
若云	-10.1262
一千	-10.1266
不立	-10.127
小機	-10.1273
之妙	-10.1275
第	-10.1275
校	-10.1276
知此	-10.1279
自證	-10.1284
何法	-10.1285
兩教	-10.1286
夫人	-10.1287
眾苦	-10.129
性具	-10.1292
屈	-10.1293
所觀	-10.1297
章門	-10.1297
如止觀	-10.1301
戲論	-10.1306
生法	-10.1311
小果	-10.1312
給	-10.1314
大道	-10.1316
合譬	-10.1325
方能	-10.1327
是權	-10.1333
意謂	-10.1334
如幻	-10.1338
怪	-10.1338
呵	-10.1343
見者	-10.1346
南無	-10.1348
冷	-10.1349
教化眾生	-10.1353
光照	-10.1364
活	-10.1368
樹下	-10.1371
化生	-10.1374
察	-10.1384
心體	-10.1386
方得	-10.1394
融通	-10.1406
若就	-10.1407
施權	-10.1416
谷	-10.1417
耆	-10.142
迴心	-10.1423
之外	-10.1424
前之	-10.1424
一云	-10.1433
帖	-10.1433
坐道場	-10.1444
寫	-10.1454
不足	-10.1455
證道	-10.1461
能得	-10.1464
予	-10.1464
一身	-10.1468
金光明	-10.1471
下方	-10.1476
不入	-10.1484
無方	-10.1485
兩句	-10.1487
二十四	-10.1489
前來	-10.1493
竹	-10.1496
蛇	-10.1499
甘	-10.15
惠	-10.1503
諸有	-10.1505
其事	-10.1512
須臾	-10.1515
入實	-10.1517
聞佛	-10.1521
牙	-10.1521
心法	-10.1522
三因	-10.153
能證	-10.1534
嫉	-10.1535
萬德	-10.1536
未必	-10.1537
巳去	-10.1542
汝今	-10.1549
下是	-10.155
向上	-10.1559
務	-10.1561
六趣	-10.1561
仙人	-10.1562
定性	-10.1566
空假	-10.1569
▁六	-10.1569
為能	-10.1569
或言	-10.157
春	-10.1578
乃能	-10.1579
三百	-10.158
見聞	-10.158
為妙	-10.1582
依此	-10.1584
無量義經	-10.1588
生於	-10.1589
聚落	-10.1601
式	-10.1614
觀於	-10.1619
別有	-10.1621
信心	-10.1623
乾闥婆	-10.1627
初問	-10.163
其父	-10.1631
與佛	-10.1632
巳下	-10.1636
自利	-10.1638
危	-10.1657
有八	-10.1668
難信	-10.167
之門	-10.1672
三禪	-10.1678
於佛前	-10.1681
柔軟	-10.1683
陰入	-10.169
一劫	-10.1694
賤	-10.1697
廣釋	-10.1698
戰	-10.1698
二法	-10.17
現行	-10.171
餘人	-10.1715
四德	-10.1718
殊勝	-10.172
教理	-10.1726
性空	-10.1735
》,	-10.1745
即指	-10.1746
全體	-10.176
見此	-10.1764
衣服	-10.1764
瞻	-10.1764
等三	-10.1765
勝劣	-10.1766
初發心	-10.1767
嫌	-10.1769
放逸	-10.1774
處所	-10.1775
高下	-10.1777
智度論	-10.1778
雖未	-10.1782
父子	-10.1784
具有	-10.1787
為宗	-10.1787
佛滅度後	-10.1789
何別	-10.1789
宣說	-10.179
。【■	-10.1798
等事	-10.1802
何為	-10.1803
此心	-10.1807
稱名	-10.1808
曠	-10.1812
晝夜	-10.1817
騰	-10.1818
均	-10.182
醉	-10.1825
所起	-10.1828
位中	-10.1828
聞說	-10.183
體同	-10.1836
開發	-10.1836
大菩薩	-10.184
彼土	-10.1844
解云	-10.1846
正道	-10.1847
即為	-10.1847
繩	-10.1847
若聞	-10.1851
或說	-10.1855
蕩	-10.1856
今欲	-10.1863
三假	-10.1875
利物	-10.188
說法華經	-10.1884
會中	-10.1891
悟入	-10.1895
四生	-10.19
嚴飾	-10.1912
護法	-10.1916
閻浮提	-10.1917
飾	-10.1918
二身	-10.1923
又有	-10.1923
三意	-10.1923
品中	-10.1928
之上	-10.1929
不自	-10.1929
今從	-10.1934
觧	-10.1934
各具	-10.1936
若非	-10.1936
三障	-10.1939
秋	-10.1944
雅	-10.1946
令眾生	-10.1955
未見	-10.1957
商	-10.1959
龍王	-10.1962
眾寶	-10.1963
以方便	-10.1965
復以	-10.1968
有七	-10.197
名相	-10.1971
深遠	-10.1971
頗	-10.1978
裂	-10.1978
當得	-10.1978
此初也	-10.198
各異	-10.1983
荷	-10.1986
薩	-10.1998
隨宜	-10.2
伽耶	-10.2
其有	-10.2001
猛	-10.2006
其體	-10.2006
學無學	-10.2009
或以	-10.2012
莫不	-10.2024
尅	-10.2026
隣	-10.203
先釋	-10.2031
自身	-10.2033
具三	-10.2034
曇	-10.2041
吹	-10.2043
金銀	-10.2044
乏	-10.2046
所燒	-10.2047
謹	-10.2056
亦能	-10.2056
墨	-10.2061
孰	-10.2064
遠近	-10.2066
與前	-10.2066
閉	-10.2071
災	-10.2071
飯	-10.2074
之別	-10.2076
以成	-10.2079
震	-10.2081
獻	-10.2084
機緣	-10.2085
百界	-10.2092
妙也	-10.2095
乃以	-10.2096
俱是	-10.2099
寶藏	-10.2102
因也	-10.2103
其本	-10.2103
義通	-10.2105
體也	-10.2106
混	-10.2111
今但	-10.2111
院	-10.2115
開三	-10.2121
今者	-10.2137
問云	-10.2145
游	-10.2145
栴檀	-10.2145
優婆塞	-10.2151
大事	-10.2151
三惑	-10.2152
一切處	-10.2157
為所	-10.2162
前云	-10.2168
佗	-10.2173
二約	-10.2173
答疏言	-10.2174
竊	-10.2174
甚多	-10.2181
皷	-10.2196
八相	-10.2199
之權	-10.2207
是真	-10.2208
悉是	-10.2222
▁初標	-10.2226
所顯	-10.2228
此名	-10.2228
初正	-10.2232
通經	-10.2232
異故	-10.224
擔	-10.2243
釋義	-10.2244
能化	-10.2245
中先	-10.2245
如來滅後	-10.2252
是非	-10.2255
逮	-10.2261
應供	-10.2263
實無	-10.2263
䟦	-10.227
種種因緣	-10.2272
而後	-10.2275
唯是	-10.2279
咎	-10.2279
華香	-10.2279
下正	-10.2281
弘誓	-10.2286
勸信	-10.229
久住	-10.229
雖是	-10.2291
不過	-10.2291
用也	-10.2292
在後	-10.2301
梨	-10.2301
見惑	-10.2303
與之	-10.231
端正	-10.231
值佛	-10.2314
前四	-10.2317
文略	-10.2318
則非	-10.2324
得大	-10.2325
下正明	-10.2329
紀	-10.2331
疑悔	-10.2333
皆從	-10.2351
聖行	-10.2354
答中	-10.2362
等是	-10.2368
一念心	-10.2369
四智	-10.237
童	-10.237
斷常	-10.237
中明	-10.2373
同也	-10.2379
脚	-10.238
我當	-10.2381
即假	-10.2382
萬二千	-10.2383
異熟	-10.2386
憍	-10.239
上中下	-10.239
兩行	-10.2404
泰	-10.241
化眾生	-10.2419
下劣	-10.2422
仁王	-10.2427
初一行	-10.243
於理	-10.2431
各得	-10.2432
相貌	-10.2433
根鈍	-10.2436
難陀	-10.2437
體是	-10.2437
其國	-10.2442
為果	-10.2443
瑜伽	-10.2443
觀智	-10.2447
拔苦	-10.2452
所修	-10.2463
四天下	-10.2463
一塵	-10.2465
極果	-10.2469
皆由	-10.2477
但明	-10.2479
六波羅蜜	-10.2482
不云	-10.2487
而為說法	-10.2493
鑒	-10.2493
妙樂云	-10.2495
得失	-10.2503
克	-10.2504
五住	-10.2504
何異	-10.2505
諸禪	-10.2507
出世間	-10.2507
知是	-10.2507
是如來	-10.2511
而作	-10.2512
我以	-10.2514
流轉	-10.2514
真空	-10.2521
未知	-10.2524
今既	-10.2526
禪師	-10.2534
有相	-10.2541
各別	-10.2541
上上	-10.2543
能解	-10.2544
序品	-10.2545
何謂	-10.2546
聲聞緣覺	-10.2553
十境	-10.2554
三性	-10.2555
下正釋	-10.2555
通名	-10.256
諸佛如來	-10.2564
三請	-10.2567
是大	-10.2567
泉	-10.2568
而成	-10.2568
之實	-10.257
經卷	-10.257
床	-10.2571
婦	-10.2572
頓漸	-10.2572
惡人	-10.2592
問佛	-10.2594
通明	-10.2599
佛知	-10.2603
豈得	-10.2603
斷見	-10.2613
根塵	-10.2613
意云	-10.2614
門中	-10.2619
初總	-10.2623
二觀	-10.2625
▁二明	-10.2626
能發	-10.2631
功用	-10.2635
八百	-10.2636
修羅	-10.2638
緊那羅	-10.2639
於大	-10.2641
三十六	-10.2645
訛	-10.266
略舉	-10.2669
此理	-10.2674
得悟	-10.2676
則能	-10.2678
法爾	-10.2691
名號	-10.2698
無上菩提	-10.27
而行	-10.2704
索車	-10.2704
二十五有	-10.2708
獨覺	-10.2711
十方世界	-10.2713
此頌	-10.2716
促	-10.2717
佛智慧	-10.2718
令知	-10.2719
是我	-10.2721
謀	-10.2723
皇	-10.2723
吐	-10.2725
兩種	-10.2727
所造	-10.2731
教法	-10.2733
竭	-10.2741
二教	-10.2749
斷結	-10.2749
餘二	-10.2752
伴	-10.2754
等文	-10.2761
孝	-10.2766
能成	-10.2768
睡	-10.2772
疑惑	-10.2775
千萬	-10.2778
舍那	-10.2779
釋也	-10.2782
受苦	-10.2787
亦同	-10.2793
正顯	-10.2794
腹	-10.2798
得成	-10.2805
二別	-10.2809
首楞嚴	-10.2809
瞋恚	-10.281
大力	-10.2814
正覺	-10.2814
為我	-10.2818
妙行	-10.2819
能為	-10.282
所表	-10.2832
今昔	-10.2838
不必	-10.2845
法眼	-10.2853
朗	-10.2856
潔	-10.286
登地	-10.286
戒環曰	-10.2875
神變	-10.2876
諸師	-10.2877
五者	-10.2877
令他	-10.2882
岸	-10.2883
三四	-10.2883
得成佛	-10.2884
一地	-10.2888
不殊	-10.2889
勉	-10.2897
出現於世	-10.2898
須陀洹	-10.29
而來	-10.2903
弗	-10.2903
為他	-10.291
為證	-10.291
虛妄	-10.2914
妙音菩薩	-10.2916
故先	-10.292
苦樂	-10.292
無智	-10.2928
隨所	-10.2932
五支	-10.2932
道者	-10.2935
結前	-10.294
三門	-10.294
作意	-10.2942
頌云	-10.2943
全身	-10.2949
于時	-10.295
言我	-10.2952
有門	-10.2957
國名	-10.296
友	-10.2961
身業	-10.2962
頃	-10.2969
萬法	-10.2972
纔	-10.2976
他國	-10.2976
即前	-10.2986
齋	-10.2988
惡趣	-10.2991
三藏教	-10.2995
經意	-10.2996
品云	-10.2998
最為	-10.3004
絕言	-10.3004
覺知	-10.3005
八識	-10.3006
解者	-10.3007
儒	-10.3008
生信	-10.3016
恚	-10.3018
馳	-10.3019
覓	-10.3021
得涅槃	-10.3029
瓶	-10.303
佛之知見	-10.3032
遵	-10.3039
三慧	-10.3039
一期	-10.3046
洗	-10.3046
意言	-10.3052
十六王子	-10.3057
受生	-10.3058
覺觀	-10.3064
而去	-10.3065
史	-10.3066
良以	-10.3066
鄙	-10.3067
其餘	-10.3068
在家	-10.307
今依	-10.3071
火起	-10.3071
不待	-10.3075
大教	-10.3077
始從	-10.3077
筆	-10.3078
諸善男子	-10.3079
於一切	-10.308
有佛性	-10.3082
中觀	-10.3084
荊谿	-10.3089
說三	-10.3089
機感	-10.309
猶是	-10.3091
即無	-10.3091
若謂	-10.3091
可謂	-10.3094
三段	-10.3099
法華三昧	-10.3107
六句	-10.3113
與樂	-10.3116
之大	-10.3117
即理	-10.3121
化作	-10.3126
降伏	-10.313
能說	-10.3133
雖同	-10.3134
頻	-10.3136
但為	-10.3139
此十	-10.3143
以佛	-10.3144
中二先	-10.3149
即具	-10.315
人所	-10.3152
修善	-10.3154
息化	-10.3155
名同	-10.3156
沙門瞿曇	-10.3164
無因	-10.3176
一佛	-10.3191
注云	-10.3192
六塵	-10.3193
諸見	-10.3194
離欲	-10.3204
正報	-10.3205
圓人	-10.321
之一	-10.3211
相生	-10.3216
欲以	-10.3219
乃云	-10.3222
以證	-10.3229
虎	-10.323
廣略	-10.3232
那由他	-10.3236
說大乘	-10.3243
七覺	-10.3244
即現	-10.3246
試	-10.3247
)。」【【■	-10.3249
彌陀	-10.325
捉	-10.3251
正當	-10.3252
三一	-10.3253
尊重	-10.3256
爭	-10.3258
▁初正	-10.326
百年	-10.3262
三菩提	-10.3263
阿逸多	-10.3263
綱	-10.3264
昭	-10.327
其子	-10.3282
有人言	-10.3284
滋	-10.3285
神通力	-10.329
幡	-10.3291
且約	-10.3293
但言	-10.3298
果上	-10.3304
爾時世尊欲重宣此義而說偈言	-10.3306
所應	-10.3307
方便說	-10.3312
如云	-10.3314
為求	-10.3326
之子	-10.333
轉教	-10.3342
勸持	-10.3344
育	-10.3344
樂欲	-10.3347
別義	-10.3348
崇	-10.3349
顯一	-10.3365
諸苦	-10.3366
添	-10.3366
了達	-10.3371
觀境	-10.3372
門者	-10.3378
四弘	-10.3379
智照	-10.3381
深入	-10.3383
湯	-10.3389
九地	-10.3391
以上	-10.3391
內有	-10.3399
欲得	-10.34
律儀	-10.3401
名通	-10.3408
十義	-10.3408
其佛	-10.3415
圓妙	-10.3418
我為	-10.3419
機應	-10.3421
一名	-10.3425
所釋	-10.3426
在前	-10.3427
開示悟入	-10.3434
休	-10.3436
何意	-10.3441
率	-10.3442
競	-10.3444
實有	-10.3447
工	-10.345
家業	-10.345
而作是言	-10.3451
方乃	-10.3453
二萬	-10.346
譬上	-10.3468
九品	-10.3474
鶖子	-10.3476
一經	-10.3477
故使	-10.3481
▁三結	-10.3482
▁初約	-10.3486
即法身	-10.3489
同歸	-10.3492
見其	-10.35
皆當	-10.3505
總標	-10.3512
三軌	-10.3523
妙理	-10.3524
劫名	-10.3527
五章	-10.3529
義當	-10.3532
甲	-10.3534
遙見	-10.3534
事須	-10.3539
之辭	-10.3541
半滿	-10.3545
次文	-10.3546
亦通	-10.3554
若有眾生	-10.3554
逸	-10.356
潛	-10.3562
迷悟	-10.3567
為佛	-10.3568
佛教	-10.3569
若據	-10.3574
烏	-10.3593
穴	-10.3596
佛世	-10.3597
無人	-10.3598
之曰	-10.36
肉眼	-10.3603
或時	-10.361
成熟	-10.3612
次別	-10.3615
不達	-10.3621
願力	-10.3622
涌	-10.3632
即時	-10.3647
之失	-10.3649
僕	-10.3659
中初	-10.3665
歸一	-10.3666
所照	-10.3666
知之	-10.3668
勸發	-10.3676
將來	-10.3677
麤妙	-10.3682
修因	-10.3683
上慢	-10.3692
上明	-10.3696
▁初頌	-10.3698
以彼	-10.3698
生生	-10.3699
行位	-10.37
所立	-10.37
以一	-10.37
糞	-10.3701
封	-10.3713
黎	-10.3719
屬於	-10.372
答云	-10.3723
妙法華經	-10.3726
佛以	-10.3731
都無	-10.3735
正意	-10.3736
坐禪	-10.374
相望	-10.374
畫	-10.3743
自體	-10.3746
以喻	-10.376
止觀云	-10.3767
發明	-10.3773
不分	-10.3779
是苦	-10.378
教觀	-10.3782
自說	-10.3783
寂然	-10.3785
髻	-10.3785
下合	-10.3788
既言	-10.3799
十門	-10.38
用此	-10.3801
之地	-10.3803
引導	-10.3809
逾	-10.381
五百由旬	-10.3817
疏中	-10.3826
須彌山	-10.3837
成論	-10.3843
頓教	-10.3843
南方	-10.3846
菩薩道	-10.3846
貧窮	-10.3847
五塵	-10.3857
本事	-10.386
若不爾者	-10.3863
同前	-10.3864
銅	-10.3864
次位	-10.3869
劫數	-10.3869
行法	-10.3872
理具	-10.3875
所說法	-10.3876
除糞	-10.3883
假觀	-10.3889
化儀	-10.3892
出宅	-10.3894
寂滅相	-10.3895
不無	-10.3898
為門	-10.3898
響	-10.3908
難得	-10.3908
如斯	-10.391
習因	-10.3916
意業	-10.3917
以方便力	-10.3919
慧眼	-10.3922
佛出世	-10.3931
漏盡	-10.3932
則以	-10.3938
又問	-10.3938
不當	-10.3939
時有	-10.3939
大慈悲	-10.3941
▁二答	-10.3946
▁二又	-10.3951
正念	-10.3961
憎	-10.3961
二文	-10.3961
又此	-10.3962
四住	-10.3964
八千	-10.397
別相	-10.3976
別論	-10.3979
既知	-10.398
不依	-10.3982
空有	-10.3985
梵音	-10.3985
所感	-10.3985
敵	-10.3988
之樂	-10.3989
二初明	-10.3992
行行	-10.3993
梵志	-10.3993
當時	-10.3999
今取	-10.4004
至法華	-10.4006
自行化他	-10.4011
昇	-10.4011
相見	-10.4014
五戒	-10.4015
悉檀	-10.4018
手足	-10.402
皆名為	-10.4023
之要	-10.4027
不通	-10.4031
維	-10.4032
撮	-10.4035
賓	-10.4036
以是因緣	-10.4036
一卷	-10.4045
薀	-10.4047
愛見	-10.4049
昔所	-10.4052
自巳	-10.4053
二初頌	-10.4055
觀成	-10.4057
顯露	-10.4059
曾見	-10.4059
四分	-10.4065
眾生心	-10.4068
常為	-10.407
發大心	-10.4071
法施	-10.4074
隨情	-10.4076
我心	-10.4077
舊云	-10.4078
護念	-10.4079
無生滅	-10.4082
不是	-10.4082
紛	-10.4087
更不	-10.4088
亦具	-10.4089
牛車	-10.4091
歸依	-10.4091
遲	-10.4092
丈	-10.4093
大品云	-10.4096
其理	-10.4104
本性	-10.4108
聞之	-10.4108
覽	-10.411
聾	-10.4111
猶有	-10.4112
莖	-10.4113
考	-10.4113
經行	-10.4114
所住	-10.4114
事也	-10.4118
銷	-10.4118
白毫	-10.4119
優劣	-10.4119
可說	-10.4119
澄	-10.412
常行	-10.4123
而修	-10.4127
二十八	-10.4127
頓悟	-10.4136
此為	-10.4138
不次第	-10.4138
妻	-10.414
權教	-10.4142
理即	-10.4143
頓頓	-10.4144
為權	-10.4153
引文	-10.4155
說於	-10.4156
東西	-10.4157
應須	-10.4159
生老病死	-10.4159
等賜	-10.416
格	-10.4161
勇	-10.4162
與授記	-10.4165
何能	-10.4166
浪	-10.4169
財物	-10.4174
方等般若	-10.4177
一剎那	-10.4179
規	-10.4189
論之	-10.4191
空門	-10.4191
諸佛世尊	-10.4192
慚愧	-10.4197
淨名云	-10.42
如今	-10.4204
覺悟	-10.4208
宿王華	-10.421
有四種	-10.4211
攝取	-10.4216
往昔	-10.4216
深妙	-10.4217
得其	-10.422
振	-10.4223
名無	-10.4225
皆能	-10.4231
台	-10.4235
無心	-10.4236
難可	-10.424
提婆達多	-10.424
如前說	-10.4241
對於	-10.4243
巨	-10.4243
相攝	-10.4245
有學	-10.4251
號曰	-10.4253
不違	-10.4253
是別	-10.426
法華論	-10.4265
眾德	-10.4265
側	-10.4268
鷲	-10.427
問何名	-10.4272
能作	-10.4273
相狀	-10.428
觀門	-10.4294
祥	-10.4294
皆應	-10.4298
顯現	-10.43
僧祇	-10.4303
八苦	-10.4319
使人	-10.432
與今	-10.4331
於我	-10.4333
瑠璃	-10.4342
無生忍	-10.4344
三果	-10.4344
供養佛	-10.4347
疏文	-10.4348
舉一	-10.4355
過於	-10.4355
學人	-10.4358
化物	-10.4359
諸大眾	-10.436
四頌	-10.4364
見佛性	-10.4365
多羅	-10.4366
能斷	-10.4382
汝當	-10.4384
例如	-10.4384
異也	-10.4385
後三	-10.4388
才	-10.4398
▁初問	-10.4398
陀羅	-10.4404
能治	-10.4408
當得作佛	-10.4408
四十二	-10.4414
逆順	-10.4416
𦦨	-10.4418
華嚴經	-10.442
長夜	-10.4421
皆同	-10.4422
壽量品	-10.4423
華德	-10.4424
能以	-10.4424
之間	-10.4426
大德	-10.4429
於空	-10.4431
我聞	-10.4432
阿鼻	-10.4434
雖然	-10.4434
福田	-10.4435
我亦	-10.4439
終至	-10.4442
遊行	-10.4445
大通	-10.4447
見諦	-10.4453
不曉	-10.4454
循	-10.4457
一理	-10.4464
二意	-10.4473
苑	-10.4478
讓	-10.4481
乃成	-10.4483
不從	-10.449
六瑞	-10.4492
告舍利弗	-10.4493
禮佛	-10.4495
秪	-10.4496
障礙	-10.4502
但約	-10.4507
本意	-10.4515
顏	-10.4517
則成	-10.4517
經說	-10.4519
五眼	-10.4521
地持	-10.4526
恒河沙等	-10.4527
宿世	-10.4527
羊	-10.4532
勒	-10.4539
所以然者	-10.454
俱生	-10.4542
出離	-10.4542
全無	-10.4547
當分	-10.4552
空假中	-10.4561
碎	-10.4562
依於	-10.4562
本地	-10.4564
僻	-10.4567
莊	-10.4569
處也	-10.4571
口業	-10.4571
戶	-10.4572
五法	-10.4572
令人	-10.4573
佛種	-10.4579
戒定慧	-10.458
根利	-10.4581
真心	-10.4584
令彼	-10.4584
即知	-10.4586
觀照	-10.4587
度生	-10.4593
法譬	-10.4594
寸	-10.4604
為顯	-10.4605
喜見	-10.4605
百劫	-10.4606
二云	-10.4607
攝法	-10.4608
不能盡	-10.4609
峯	-10.4612
誹謗	-10.4615
二合	-10.4616
隆	-10.4622
陳如	-10.4627
藏教	-10.4631
現瑞	-10.4644
正智	-10.4646
初一	-10.4648
司	-10.4648
何由	-10.4654
五義	-10.4657
既以	-10.4658
如華嚴	-10.4664
正行	-10.4667
了了	-10.4675
二名	-10.4695
報佛	-10.4697
何必	-10.4703
困	-10.4704
白佛	-10.4704
快樂	-10.4708
出水	-10.4709
言其	-10.471
▁初正釋	-10.4713
初門	-10.4716
眾經	-10.4716
現世	-10.4717
之徒	-10.472
顯本	-10.4721
從本	-10.4725
意根	-10.4726
偈中	-10.4735
多有	-10.4738
為真	-10.4742
行六度	-10.4746
高廣	-10.4748
非有非無	-10.4752
所出	-10.476
外無	-10.4764
」。「	-10.4764
止息	-10.4767
六通	-10.4767
萬物	-10.4768
以由	-10.4777
燒香	-10.4781
禪門	-10.4783
刻	-10.4785
肩	-10.4785
倚	-10.4785
能感	-10.4786
橫豎	-10.479
三乘人	-10.4794
四意	-10.4795
艸	-10.4795
身土	-10.48
正以	-10.4801
飢	-10.4804
二死	-10.4811
將欲	-10.4815
盖	-10.4822
佛壽	-10.4827
與其	-10.4827
鑑	-10.483
無生智	-10.4831
懈	-10.4833
如我	-10.4835
位者	-10.4836
見之	-10.4836
灰	-10.4837
此教	-10.4841
受化	-10.4843
縱橫	-10.4846
隋	-10.4848
忽然	-10.4854
聞是經	-10.4855
等法	-10.4861
正助	-10.4866
聞慧	-10.4867
巳竟	-10.4871
具四	-10.4871
斷煩惱	-10.4876
佛自	-10.4877
天地	-10.488
一道	-10.4881
因緣故	-10.489
初二句	-10.4891
四面	-10.4891
辱	-10.4892
舉譬	-10.4894
能起	-10.4898
即空假中	-10.4903
之初	-10.4907
外凡	-10.491
一界	-10.4911
族	-10.4921
枝葉	-10.4921
豐	-10.4921
漸次	-10.4923
於世	-10.4928
觀此	-10.4933
心念	-10.4934
調達	-10.4935
能除	-10.4941
無益	-10.4941
不轉	-10.4942
地上	-10.4946
西域	-10.4947
假使	-10.4953
我常	-10.4954
紫	-10.4955
求法	-10.4961
穢土	-10.4964
世俗	-10.497
川	-10.4972
今問	-10.4972
粗	-10.4976
故成	-10.4981
四一	-10.4984
準此	-10.4989
異者	-10.4991
之始	-10.4994
畢竟空	-10.4996
今所	-10.4999
譬喻品	-10.5
十小劫	-10.5001
體相	-10.5003
割	-10.5011
大小乘	-10.5011
怒	-10.5015
述其	-10.5015
次結	-10.5018
今為	-10.5025
於諸法	-10.5027
拙	-10.5029
爪	-10.5032
今約	-10.5035
不令	-10.504
四十年前	-10.5049
本自	-10.5051
以對	-10.5056
薰	-10.5057
扣	-10.5058
複	-10.5064
能信	-10.5068
始自	-10.5072
摩尼	-10.5072
今說	-10.5073
所由	-10.5076
四聖	-10.5083
尚無	-10.5083
華光	-10.5087
若知	-10.5091
小大	-10.5092
龜	-10.5093
一雙	-10.5093
暇	-10.5094
之苦	-10.5099
法行	-10.5104
佛世尊	-10.5105
淨名疏	-10.5107
能受持	-10.511
安立	-10.5117
為方便	-10.5117
此解	-10.5126
為十	-10.5131
能顯	-10.5136
師子吼	-10.5139
但見	-10.5141
因行	-10.5143
示相	-10.5144
山林	-10.5144
事相	-10.5145
彼文	-10.5147
䇿	-10.5154
惱亂	-10.5158
就此	-10.5158
思惑	-10.5159
有三義	-10.516
迦樓羅	-10.5163
;「	-10.5165
亦即	-10.5169
善業	-10.5169
過患	-10.5171
憶念	-10.5173
知眾生	-10.5175
免難	-10.5176
焰	-10.5176
□	-10.5179
諸煩惱	-10.5191
境也	-10.5192
伎樂	-10.5194
)。○	-10.5197
之緣	-10.5197
勝妙	-10.5202
焚	-10.5207
▁初總	-10.5211
何以知	-10.5221
無失	-10.5221
多寶佛	-10.5223
家家	-10.5227
上界	-10.5227
云何名	-10.5235
總相	-10.5236
分別說	-10.5237
亦為	-10.5237
有所得	-10.5238
轍	-10.5241
而立	-10.5247
實法	-10.5248
丘	-10.5252
不但	-10.5254
所為	-10.5256
之殊	-10.5259
丹	-10.526
依他	-10.5261
用之	-10.5263
渴	-10.5263
妙樂	-10.5265
故經云	-10.5265
輒	-10.5271
為眾	-10.5275
未入	-10.5275
三轉	-10.5277
法忍	-10.5278
領上	-10.5292
施設	-10.5293
明之	-10.5299
十二部	-10.5299
者何	-10.5301
迹顯本	-10.531
但說	-10.5316
憂惱	-10.5325
通途	-10.5326
起於	-10.5326
不修	-10.5326
所在	-10.5328
門外	-10.534
何妨	-10.534
曜	-10.5351
有佛	-10.5354
圓觀	-10.5355
此身	-10.5356
不即	-10.5357
尾	-10.5358
同於	-10.5361
鄉	-10.5362
無殊	-10.5362
究盡	-10.5362
慈恩	-10.5365
佛所說	-10.5367
四倒	-10.537
俾	-10.5375
下判	-10.5376
修慧	-10.5378
欺	-10.5383
賴	-10.5384
初長行	-10.5386
伐	-10.5388
安忍	-10.5392
善知	-10.5393
身命	-10.5399
傳云	-10.5402
下文云	-10.5405
舒	-10.5406
南嶽	-10.541
供佛	-10.541
當教	-10.5414
佛出	-10.5415
不唯	-10.5419
得無生忍	-10.542
不樂	-10.5421
於他	-10.5422
讚佛	-10.5424
得阿耨多羅三藐三菩提	-10.5428
琉璃	-10.5434
始末	-10.5435
。」【(△	-10.5437
能於	-10.5437
阿那含	-10.5438
狼	-10.5446
又言	-10.545
彼岸	-10.545
喻說	-10.5451
但得	-10.5457
不能知	-10.5462
如水	-10.5464
聲聞人	-10.5466
此以	-10.5467
聽受	-10.5467
如來知見	-10.547
雨華	-10.5472
佛在	-10.5472
尤	-10.5473
基	-10.5474
多寶如來	-10.5481
虫	-10.5483
即入	-10.549
修惡	-10.5492
且從	-10.5493
去聲	-10.5494
箇	-10.5495
即名	-10.5495
逼迫	-10.5497
過失	-10.5498
或可	-10.5501
難思	-10.5507
文為二	-10.5509
列名	-10.5513
應有	-10.5516
所發	-10.5518
信行	-10.5519
二百	-10.5519
包	-10.5522
真應	-10.5523
來者	-10.5528
採	-10.553
冀	-10.5532
以譬	-10.5533
心王	-10.5534
墮落	-10.5536
無所得	-10.5538
耳根	-10.5547
三十七品	-10.5548
無實	-10.5548
分證	-10.5552
暴	-10.5553
大雲	-10.5556
披	-10.5559
不融	-10.5562
或現	-10.5563
之流	-10.5565
而已	-10.5576
義例	-10.5582
慎	-10.5583
之義也	-10.5589
修德	-10.559
菴	-10.5591
繫珠	-10.5593
井	-10.5594
當知是人	-10.5594
以示	-10.5601
為勝	-10.5606
寂照	-10.5611
四天王	-10.5612
五句	-10.5612
後心	-10.5614
破戒	-10.5615
受潤	-10.5623
垂迹	-10.5623
數息	-10.5624
二十一	-10.5629
生長	-10.563
能忍	-10.5635
轉輪聖王	-10.5641
二十七	-10.5641
翻為	-10.5643
中有三	-10.5646
併	-10.5648
別名	-10.5649
一字	-10.5649
破壞	-10.5653
信解品	-10.5655
雪山	-10.5656
住世	-10.5659
今則	-10.566
發真	-10.5661
大自在	-10.5663
評	-10.5663
說有	-10.5663
祭	-10.5668
迎	-10.568
解行	-10.5681
後明	-10.5681
初文者	-10.5682
貪愛	-10.5685
約法	-10.5689
法雨	-10.5689
各自	-10.5692
身見	-10.5696
恐怖	-10.5698
十六句	-10.5699
依教	-10.5699
文句云	-10.5707
休息	-10.5707
求佛	-10.572
罪福	-10.5725
聖教	-10.5725
此語	-10.5727
闡	-10.5731
所居	-10.5732
眼根	-10.5732
勤修	-10.5736
營	-10.5739
當以	-10.574
八種	-10.5741
宿命	-10.5749
而出	-10.5753
無極	-10.5754
開譬	-10.5755
一大事因緣	-10.5762
論師	-10.5763
諦觀	-10.5764
欲重宣此義	-10.5764
豪	-10.5764
為義	-10.5765
後文	-10.5767
謙	-10.5769
佛心	-10.577
楚	-10.5772
裏	-10.5774
應是	-10.5777
現見	-10.5784
所著	-10.5785
喜樂	-10.5789
百萬億	-10.579
怠	-10.579
亦名為	-10.5791
一義	-10.5793
優婆夷	-10.5794
約事	-10.5796
嘉	-10.5796
之益	-10.5802
瘡	-10.5805
來世	-10.5806
用觀	-10.5807
疑者	-10.5813
之所以	-10.5819
此皆	-10.5821
治病	-10.5832
大寶	-10.5841
萬八千	-10.5842
摩羅	-10.5843
茶	-10.5848
一諦	-10.5848
四教義	-10.585
法智	-10.5852
曼	-10.5855
淳	-10.5855
六地	-10.5859
苦果	-10.586
親友	-10.586
之極	-10.5863
顯於	-10.5871
聲聞眾	-10.5876
益也	-10.5878
排	-10.5885
小劫	-10.5887
一明	-10.5887
杖	-10.5894
薪	-10.5894
言語	-10.5895
能滅	-10.5897
方可	-10.5904
出現	-10.5907
不獨	-10.5912
軟	-10.5915
白佛言世尊	-10.5922
驚疑	-10.5922
上人	-10.5922
下去	-10.5922
擲	-10.5924
入假	-10.593
若在	-10.593
何耶	-10.5931
故不可	-10.5935
未到	-10.5935
輙	-10.5937
是同	-10.5937
初品	-10.5938
佛事	-10.5948
如向	-10.5949
米	-10.5952
亦乃	-10.5953
經家	-10.5953
憍慢	-10.5954
北方	-10.5955
五識	-10.5956
以何因緣	-10.5961
凝	-10.5961
教一	-10.5962
三番	-10.5964
已來	-10.5969
般若波羅蜜	-10.5976
我及	-10.598
為第一	-10.5985
抱	-10.5991
文雖	-10.5992
六識	-10.5995
微塵數	-10.5996
雖說	-10.601
縮	-10.601
其福	-10.6016
亦當	-10.6019
皆巳	-10.602
省	-10.6024
持經者	-10.6025
下重	-10.6027
刀杖	-10.6033
若觀	-10.6037
一心三觀	-10.6038
不現	-10.6039
常樂我淨	-10.6039
柔	-10.604
銀	-10.6043
楊	-10.6045
入佛慧	-10.6046
先列	-10.6048
法喻	-10.6053
欲求	-10.6053
頌中	-10.606
雖多	-10.6061
場	-10.6062
諸善	-10.6064
結示	-10.6064
理智	-10.6065
信力	-10.6066
殷勤	-10.6067
依經	-10.6068
開悟	-10.6069
三土	-10.607
諸功德	-10.6076
之內	-10.6077
眼見	-10.6077
信者	-10.6079
獲益	-10.6084
為性	-10.6087
但取	-10.6097
八教	-10.6098
彈指	-10.6099
初正明	-10.6099
師子座	-10.6099
較	-10.6106
離垢	-10.6107
理體	-10.6108
六年	-10.6114
能照	-10.6115
今意	-10.612
九想	-10.6121
不止	-10.6123
諸大菩薩	-10.6124
雖知	-10.6125
安穩	-10.6128
家之	-10.613
毛孔	-10.6134
劫濁	-10.6134
善心	-10.6136
一番	-10.6136
諸如來	-10.614
稟教	-10.6142
箭	-10.6144
雖云	-10.6147
奏	-10.6149
百億	-10.6149
色相	-10.6156
歸命	-10.6157
且如	-10.6158
聲聞辟支佛	-10.6158
結云	-10.6164
註云	-10.6169
如日	-10.6176
戒取	-10.6176
所執	-10.6176
二果	-10.6183
繞	-10.6185
理事	-10.6185
後方	-10.6187
經家敘	-10.6189
我滅度後	-10.619
既得	-10.619
記中	-10.6192
g	-10.6193
m	-10.6193
恣	-10.62
終日	-10.6201
十卷	-10.6207
或作	-10.6211
三世諸佛	-10.6215
為異	-10.6216
嚴淨	-10.6218
為其	-10.6225
i	-10.6225
顯理	-10.6227
邁	-10.6228
善財	-10.623
那得	-10.6239
去來	-10.6249
弟	-10.6249
能具	-10.625
見子	-10.625
若說	-10.6251
十號	-10.6252
唯取	-10.6253
末世	-10.6255
即當	-10.6257
<	-10.6257
樂著	-10.6262
船	-10.6264
之謂也	-10.6264
及餘	-10.6265
皆令	-10.6266
流布	-10.6271
之物	-10.6277
十二緣	-10.6278
已下	-10.6287
以論	-10.6288
亦未	-10.629
勇猛	-10.629
同入	-10.6291
今更	-10.6292
十二年	-10.6294
五逆	-10.6295
或是	-10.6295
善女人	-10.6296
果德	-10.6297
教主	-10.6297
括	-10.6297
前五	-10.6297
釋經	-10.6299
迦羅	-10.6302
同是	-10.6307
六入	-10.6312
雖殊	-10.6312
為汝	-10.6313
乃知	-10.6316
▁一標	-10.632
和尚	-10.6325
有二意	-10.6333
眉	-10.6334
諸部	-10.6336
釋上	-10.6336
生空	-10.6337
若有人	-10.6339
即中	-10.634
入佛知見	-10.634
大體	-10.6342
皆屬	-10.6343
示其	-10.6344
微細	-10.6347
白牛	-10.6347
妙莊嚴王	-10.635
迦旃延	-10.6353
第三句	-10.6359
異於	-10.636
妙法蓮華	-10.6365
斷德	-10.6369
阿耨菩提	-10.637
得自在	-10.6372
所現	-10.6374
能入	-10.6376
作佛事	-10.638
坑	-10.6383
悉知	-10.6388
初云	-10.639
維摩	-10.639
樂小	-10.6396
妙觀	-10.6397
虧	-10.64
十二部經	-10.6401
證理	-10.6402
穿	-10.6403
重頌	-10.6408
九部	-10.6408
掉	-10.6408
二十三	-10.6411
第四句	-10.6414
後得智	-10.6417
左右	-10.642
回向	-10.6423
共相	-10.6423
不來	-10.6431
穀	-10.6434
勝應	-10.6438
百千萬	-10.6444
其上	-10.6447
皆空	-10.6448
智德	-10.6452
所覆	-10.6453
以表	-10.6457
域	-10.6458
何獨	-10.6464
大集	-10.6466
諦理	-10.6468
便得	-10.6471
辟支	-10.6478
約此	-10.6479
如是之人	-10.648
富樓那	-10.6483
輕重	-10.6484
取著	-10.6485
辨異	-10.6495
男子	-10.6503
俱名	-10.6503
常念	-10.6503
生處	-10.6508
生時	-10.6512
不忘	-10.6513
此法華經	-10.6513
未至	-10.6515
生天	-10.6516
一行頌	-10.6517
分真	-10.6517
皆非	-10.6518
消文	-10.6519
復更	-10.6519
為喻	-10.6524
古佛	-10.6524
釋迦牟尼	-10.6525
倫	-10.6528
愁	-10.6532
紹	-10.6532
文相	-10.6533
全是	-10.6535
境觀	-10.6539
是何	-10.6541
天魔	-10.6544
初引	-10.6546
彈	-10.6546
五事	-10.6547
泛	-10.6548
既非	-10.6548
恭	-10.6554
正示	-10.6555
▁初引	-10.6558
正使	-10.656
天親	-10.6563
利生	-10.6567
淫	-10.6571
雖在	-10.6579
名異	-10.6588
一異	-10.6591
得阿羅漢	-10.6592
不定性	-10.6598
四初	-10.6598
素	-10.6601
引之	-10.661
華嚴云	-10.6611
四味	-10.6612
意趣	-10.6614
佛號	-10.6615
更加	-10.6616
嬰兒	-10.6618
今乃	-10.6621
炬	-10.6622
諸位	-10.6624
都不	-10.6624
非常	-10.6626
則曰	-10.6631
釋尊	-10.6633
能緣	-10.664
▁初列	-10.6646
良醫	-10.6653
於十方	-10.6658
大勢	-10.666
之首	-10.6665
以來	-10.6665
約位	-10.6667
四事	-10.6673
無量百千萬億	-10.6682
秉	-10.6682
王三昧	-10.6683
魔王	-10.6686
一化	-10.6688
令我	-10.6692
稽首	-10.6693
▁一正	-10.6695
難知	-10.6697
師弟	-10.6699
如來智慧	-10.6699
有緣	-10.6704
衍	-10.6706
五百人	-10.6711
几	-10.6712
思益	-10.6712
瓦石	-10.6714
未生	-10.6715
翻譯	-10.6718
如如	-10.672
陸	-10.6723
天人師	-10.6725
萬劫	-10.6732
權實二智	-10.6733
互融	-10.6734
無染	-10.6734
三約	-10.6737
探	-10.6741
散亂	-10.6743
時也	-10.6751
寶華	-10.6754
忻	-10.6758
溪	-10.6759
起行	-10.676
▁初分科	-10.6761
斯經	-10.6762
初略	-10.6763
管	-10.6763
欲顯	-10.6764
論釋	-10.6768
所乘	-10.6768
非道	-10.6769
古師	-10.6773
夢中	-10.6774
過去佛	-10.6775
熾	-10.6775
第一義諦	-10.6778
乃至云	-10.678
不破	-10.6782
伸	-10.6783
法合	-10.6785
引論	-10.6791
妄語	-10.6795
三七日	-10.6798
成實	-10.68
為眾生說	-10.6802
造作	-10.6808
初舉	-10.6812
據此	-10.6813
實理	-10.6817
數數	-10.6818
二經	-10.6818
猶在	-10.6826
萬善	-10.6829
聞巳	-10.6832
從佛聞	-10.684
△	-10.685
欲令眾生	-10.6851
有作	-10.6854
作念	-10.6855
擁護	-10.6857
不易	-10.6857
彼國	-10.6857
令生	-10.6858
離於	-10.6859
諸餘	-10.6868
無數劫	-10.6877
出定	-10.6878
方知	-10.6879
政	-10.6891
不可盡	-10.6895
茂	-10.6895
餘四	-10.69
普賢觀	-10.6901
邪正	-10.6904
女身	-10.6905
久近	-10.6909
南山	-10.6909
兩處	-10.691
八品	-10.6912
文旨	-10.6914
半頌	-10.6918
實非	-10.6923
警	-10.6925
往來	-10.6932
自念	-10.6933
四時	-10.6934
天龍	-10.6934
丈夫	-10.6934
今之	-10.6935
自覺	-10.6936
小教	-10.6939
身得度者	-10.6943
威神	-10.6943
一類	-10.6946
普賢菩薩	-10.6951
修得	-10.6951
嬉戲	-10.6952
計我	-10.6953
善友	-10.6954
第三明	-10.6955
而不知	-10.6961
指要	-10.6968
無量眾生	-10.6968
君子	-10.6974
最後身	-10.6979
六行	-10.698
大乘經	-10.6986
變為	-10.6988
是法華經	-10.6988
大樹	-10.699
化佛	-10.6994
螺	-10.6995
誨	-10.6996
雪	-10.6996
黨	-10.6997
歎德	-10.6997
冬	-10.6999
種類	-10.6999
壁	-10.7001
愧	-10.7004
天台云	-10.7004
能如是	-10.7007
分齊	-10.7009
大乘法	-10.701
實性	-10.7012
不一	-10.7015
善修	-10.7018
欲明	-10.7019
四十餘年	-10.702
不假	-10.7029
周徧	-10.703
進退	-10.7032
內凡	-10.7034
施化	-10.7037
妙智	-10.7041
我子	-10.7045
名聞	-10.7053
諸佛法	-10.7054
善哉善哉	-10.7054
諸國	-10.7054
未發	-10.7056
庫	-10.7058
鮮	-10.7065
如意珠	-10.7067
梵云	-10.7068
塔廟	-10.7069
末代	-10.707
爛	-10.707
魏	-10.7072
又二初	-10.7076
柔和	-10.7081
毗曇	-10.7085
大化	-10.7096
範	-10.7102
屋	-10.7104
什	-10.7106
四依	-10.7107
寶樹	-10.7112
展	-10.7125
有差別	-10.7126
其間	-10.713
略示	-10.7131
晚	-10.7131
三分	-10.7132
諸弟子	-10.7134
奢	-10.7134
所不能	-10.7141
頭陀	-10.7149
今聞	-10.7154
今略	-10.7154
持此經	-10.7156
鐘	-10.7156
本懷	-10.7161
敦	-10.7162
吳	-10.7164
彼彼	-10.7165
眉間	-10.7172
醜	-10.7172
七十	-10.7177
勸修	-10.718
正頌	-10.718
一乘之	-10.7181
所得功德	-10.7193
深著	-10.7194
了義	-10.7195
瑞相	-10.7195
約義	-10.7197
疊	-10.72
半偈	-10.72
大旨	-10.72
永無	-10.7201
冤	-10.7202
後學	-10.7204
道種智	-10.7206
佛弟子	-10.7209
王言	-10.7212
九種	-10.7213
外境	-10.7214
匠	-10.7215
日光	-10.7218
無過	-10.7218
轉輪王	-10.7222
以辨	-10.7222
神呪	-10.7224
力用	-10.7224
若望	-10.7226
如其	-10.7228
雄	-10.7231
南岳	-10.7239
淵	-10.7243
破惑	-10.7243
諂	-10.7246
與汝	-10.725
兔	-10.725
慚	-10.7255
義理	-10.7256
三止	-10.7257
▁初略	-10.7259
復次下	-10.7269
別立	-10.7271
分身諸佛	-10.728
理同	-10.7284
廣如	-10.729
相性	-10.7299
他心	-10.7299
歟	-10.7301
伽陀	-10.7309
溢	-10.7311
炎	-10.7313
不相違	-10.7313
二地	-10.7317
能造	-10.7318
攝受	-10.732
增一	-10.7327
百由旬	-10.7328
歸於	-10.7332
之一字	-10.7334
乃可	-10.7335
今世	-10.7336
深淺	-10.7339
定心	-10.7342
不死	-10.7345
特勝	-10.7346
逃	-10.7346
安得	-10.7347
隨自意	-10.7351
四百	-10.7351
二十年	-10.7353
圓通	-10.7355
乍	-10.7359
之主	-10.736
為首	-10.7364
寶塔品	-10.7368
近處	-10.7369
性善	-10.7372
指前	-10.7374
華果	-10.7379
金錍	-10.7382
陰界入	-10.7382
羅睺羅	-10.7383
賈	-10.7383
麻	-10.7389
何但	-10.739
大富	-10.7391
若準	-10.7401
彌勒菩薩	-10.7401
動地	-10.7402
麼	-10.7403
修禪	-10.7406
閻浮	-10.7406
無諦	-10.7407
妙經	-10.7409
付財	-10.7416
證果	-10.7417
飽	-10.742
起教	-10.7421
位次	-10.7425
方是	-10.743
樂小法	-10.7436
將此	-10.7436
意同	-10.7437
淨戒	-10.7446
兜率	-10.745
之意也	-10.7451
熟酥	-10.7455
旦	-10.7459
未來世	-10.7468
或曰	-10.747
得大勢	-10.7473
義兼	-10.7475
十方三世	-10.7481
色像	-10.7485
頸	-10.7489
兩字	-10.7492
李	-10.7492
壯	-10.7492
處中	-10.7494
鹽	-10.7497
今謂此	-10.75
孟	-10.7502
惟願	-10.7507
散心	-10.7508
何故不	-10.7513
標章	-10.7514
所問	-10.7516
耀	-10.7526
辛	-10.7528
種善根	-10.753
梵天王	-10.7535
性體	-10.7543
重釋	-10.7548
略釋	-10.7551
疲	-10.7557
熏習	-10.7565
法住	-10.7567
電	-10.7572
是故須	-10.7573
何有	-10.7579
從地涌出	-10.7591
正修	-10.76
擾	-10.76
三藏菩薩	-10.76
舍宅	-10.7602
塵勞	-10.7605
斷見思	-10.7606
枕	-10.761
空處	-10.7614
但舉	-10.7615
別序	-10.7618
四運	-10.7618
煗	-10.7619
隨意	-10.762
寶珠	-10.7625
威音王	-10.7626
世智	-10.7633
詔	-10.7633
開敷	-10.7634
賣	-10.7638
溺	-10.7641
產	-10.7643
不絕	-10.7646
第一明	-10.7646
具明	-10.7647
之相也	-10.7652
三藏中	-10.7653
長壽	-10.7657
哀愍	-10.7659
理實	-10.7666
未甞	-10.7666
法愛	-10.7669
如理	-10.7671
映	-10.7672
故稱為	-10.7674
可信	-10.7676
色香	-10.7678
縣	-10.7681
擇滅	-10.7686
不疑	-10.7687
四趣	-10.769
頌長行	-10.7692
周遍	-10.7692
此處	-10.7696
紙	-10.7698
持品	-10.77
徐	-10.7702
對前	-10.7702
跪	-10.7703
羯磨	-10.7705
所趣	-10.7711
康	-10.7711
千世界	-10.7716
相成	-10.7716
被接	-10.7726
能轉	-10.7727
化主	-10.7729
未熟	-10.7733
嘗	-10.7733
大臣	-10.7733
編	-10.7736
修學	-10.7738
籍	-10.7743
浴	-10.775
圍	-10.7751
歡喜踊躍	-10.7756
▁初正明	-10.7761
悉見	-10.7764
體法	-10.7764
復云	-10.7764
所持	-10.7767
論主	-10.7773
善能	-10.7775
藥王菩薩	-10.7782
壅	-10.7782
由前	-10.7783
卵	-10.7786
已上	-10.7791
大通智勝	-10.7792
與彼	-10.7793
頌曰	-10.7793
救護	-10.7796
別惑	-10.7805
所用	-10.7816
互具	-10.783
分為二	-10.7832
聰	-10.7833
例前	-10.7833
如海	-10.7842
所傳	-10.7844
見諸佛	-10.7846
在昔	-10.7847
身而為說法	-10.7852
皆爾	-10.7852
取證	-10.7854
常無常	-10.7861
扇	-10.7862
剋	-10.7862
十劫	-10.7862
當知此	-10.7867
不墮	-10.787
智慧力	-10.7874
十迴向	-10.7875
難值	-10.7879
六十二見	-10.788
一切佛法	-10.788
心境	-10.788
所得法	-10.7882
摩睺羅伽	-10.7882
神力品	-10.7882
過去世	-10.789
毗尼	-10.7891
於大眾中	-10.7893
饑	-10.7898
大乘教	-10.7899
娛樂	-10.7904
截	-10.7904
互用	-10.791
六千	-10.7912
我慢	-10.7913
節節	-10.7918
伽羅	-10.7919
出生死	-10.792
悶	-10.7931
瞿	-10.7933
得樂	-10.7934
於三界	-10.7938
百歲	-10.7942
聖位	-10.7946
劫國	-10.7947
如虗空	-10.7951
是經典	-10.7955
菩提樹下	-10.796
心數	-10.7967
閣	-10.7968
孤山	-10.797
今釋	-10.797
其旨	-10.797
約人	-10.7971
酥	-10.7972
還是	-10.7974
真珠	-10.7974
不相應	-10.7975
如上說	-10.7975
徑	-10.7976
緫	-10.7978
根熟	-10.7979
向下	-10.798
志願	-10.7981
如雲	-10.7981
道樹	-10.7982
下結成	-10.7992
惑盡	-10.7992
隱顯	-10.7998
歡	-10.8002
娑	-10.8002
不淨觀	-10.8003
某甲	-10.8004
窟	-10.8009
合成	-10.8009
舌根	-10.8011
秀	-10.8013
恃	-10.8014
疑念	-10.8018
說呪	-10.802
天女	-10.8021
聞此經	-10.8021
未免	-10.8021
正法華	-10.8038
玅玄	-10.8039
通釋	-10.804
利養	-10.8045
波旬	-10.8053
玅法	-10.8054
先標	-10.8054
教菩薩法	-10.8057
宛	-10.8058
總譬	-10.8065
邊際	-10.807
同類	-10.8079
尚未	-10.8082
深信	-10.8083
發迹	-10.8084
汙	-10.8086
景	-10.8087
神通之力	-10.8088
思量	-10.8091
近遠	-10.8092
大劫	-10.8092
無妨	-10.8094
奉行	-10.8101
未斷	-10.8103
踊躍	-10.8103
多劫	-10.8117
釋論云	-10.8117
焦	-10.812
准此	-10.812
昔教	-10.8123
剛	-10.8126
睡眠	-10.8133
心地	-10.8135
牒前	-10.8136
五蘊	-10.8138
那含	-10.8139
是無常	-10.8141
親近處	-10.8141
輪迴	-10.8148
奉持	-10.815
合前	-10.8152
煩惱障	-10.8154
發問	-10.8155
一切法趣	-10.8157
決疑	-10.8158
肇	-10.8162
而知	-10.8164
影響	-10.8165
生酥	-10.8168
溫	-10.817
鼠	-10.8173
轉變	-10.8175
氷	-10.8177
十里	-10.8179
如說修行	-10.8191
慇懃	-10.8193
是諸眾生	-10.8193
偏真	-10.8196
車體	-10.8196
堪任	-10.8198
善逝	-10.8207
隨義	-10.8207
於一切法	-10.8209
必當	-10.8214
廿	-10.8215
各三	-10.8221
子曰	-10.8222
有人云	-10.8223
法喜	-10.8225
一切煩惱	-10.8231
判教	-10.8234
易解	-10.8234
亦知	-10.8236
金剛三昧	-10.8239
京	-10.8241
寡	-10.8242
發誓	-10.8243
鄭	-10.8247
義便	-10.8252
六義	-10.8252
賢劫	-10.8259
四十年	-10.8268
心造	-10.8269
開方便門	-10.8271
乾慧	-10.8272
亦須	-10.8273
校量	-10.8276
雖非	-10.8283
江河	-10.8284
法寶	-10.8294
證成	-10.8296
滿慈	-10.8297
照明	-10.83
受報	-10.8303
大王當知	-10.8313
是諸人等	-10.8316
無二無別	-10.8321
陶	-10.8326
生死涅槃	-10.8327
伯	-10.833
聞是法	-10.8342
算	-10.8347
聲聞乘	-10.8348
先後	-10.8349
分別功德品	-10.8349
漸教	-10.8351
之罪	-10.8353
即其義也	-10.8355
誰能	-10.8356
雖異	-10.8356
嗣	-10.8358
八句	-10.836
豈能	-10.8366
它	-10.8367
跋	-10.8368
假實	-10.8373
府	-10.8376
通利	-10.8379
故下文云	-10.8382
班	-10.8391
涅	-10.8394
有邊	-10.8394
圓位	-10.8397
完	-10.8398
法執	-10.8407
他身	-10.8408
囊	-10.841
廟	-10.841
隨其所	-10.8412
三十三天	-10.8414
遍計	-10.8417
一頌半	-10.8418
或復	-10.8421
得清淨	-10.8432
一邊	-10.8432
旃檀	-10.8432
此句	-10.8436
眾會	-10.8436
破惡	-10.8438
所計	-10.8438
火所燒	-10.8439
所歸	-10.8446
既巳	-10.8452
兩意	-10.8452
有餘涅槃	-10.8465
靜慮	-10.8466
下句	-10.8469
魔事	-10.847
百千萬億那由他	-10.8473
日夜	-10.8474
》、《	-10.8482
雖通	-10.8483
高山	-10.8486
心大歡喜	-10.8494
聞持	-10.8495
修止觀	-10.8496
歷別	-10.8497
小智	-10.8499
不悟	-10.8501
已後	-10.8506
鬘	-10.8508
有頂	-10.851
漸悟	-10.8511
嫉妬	-10.8511
在其中	-10.8512
誘引	-10.8515
得脫	-10.8531
方廣	-10.8541
八方	-10.8543
未可	-10.8544
不縱不橫	-10.8546
初正釋	-10.8549
不息	-10.8551
正義	-10.8552
煞	-10.8557
▁三頌	-10.856
奚	-10.8561
倦	-10.8562
偶	-10.8563
侯	-10.8567
狐	-10.8569
然燈	-10.8578
能現	-10.8583
貼	-10.8591
一念三千	-10.8596
幼	-10.86
麗	-10.8606
次句	-10.8616
無數方便	-10.862
如前釋	-10.8624
漸圓	-10.8624
開近顯遠	-10.8627
增進	-10.863
煙	-10.8636
僮僕	-10.864
整	-10.864
薩婆若	-10.864
借別	-10.864
瑕	-10.8647
散華	-10.8647
天然	-10.8648
三十心	-10.8655
十八界	-10.8657
所治	-10.8659
說般若	-10.8659
序中	-10.866
開塔	-10.866
無量功德	-10.8662
便謂	-10.8665
千由旬	-10.8666
諸外道	-10.8678
業識	-10.8678
剃	-10.8679
比丘比丘尼	-10.8685
遮那	-10.8687
五薀	-10.8688
未證	-10.8689
染著	-10.8693
中亦有	-10.8708
念彼觀音力	-10.871
大覺	-10.8711
所被	-10.8713
經歷	-10.8718
無形	-10.8726
湛然	-10.8727
汝等當	-10.8731
佛成道	-10.8731
庸	-10.8733
邊見	-10.8733
進修	-10.8735
至于	-10.8735
次正釋	-10.8741
習果	-10.8746
惡口	-10.8748
敬禮	-10.8749
始得	-10.8751
勢力	-10.8754
褒	-10.8756
群生	-10.8757
薩埵	-10.8757
□□	-10.8758
無上士	-10.8764
至寶所	-10.8765
妙用	-10.8765
為麤	-10.877
發相	-10.8771
只一	-10.8773
四魔	-10.8774
俱時	-10.8791
土地	-10.8795
斯陀含	-10.8801
肯	-10.8801
不驚	-10.8804
貞	-10.8804
聞佛說	-10.8805
片	-10.8805
何殊	-10.8805
圓成	-10.8807
不專	-10.8809
前三教	-10.8811
干	-10.8811
他受用	-10.8812
掃	-10.8813
佛告諸比丘	-10.8815
決了	-10.8819
宗旨	-10.8822
無漏智	-10.8823
徧滿	-10.8823
妄心	-10.8825
法會	-10.8833
法座	-10.8837
槩	-10.8837
結會	-10.884
悞	-10.8842
為主	-10.8842
通序	-10.8842
甄	-10.8843
屍	-10.8845
絲	-10.8849
機宜	-10.8849
射	-10.8851
三世佛	-10.8853
譽	-10.8853
半字	-10.8858
普照	-10.8859
點示	-10.886
於此經	-10.8875
未了	-10.8875
國界	-10.8876
會通	-10.8879
辯才	-10.8883
中自有	-10.8885
未曾有法	-10.8885
肅	-10.8887
翳	-10.8887
抄	-10.8889
眾僧	-10.8897
秪是	-10.8901
十年	-10.8902
本國	-10.8905
日月燈明	-10.8907
餘國	-10.8909
俱舍云	-10.892
兩重	-10.892
掩	-10.8926
巍巍	-10.8926
章句	-10.893
十向	-10.8935
佛國	-10.8938
大樂說	-10.894
下二句	-10.894
相資	-10.8941
烈	-10.8947
四段	-10.8951
▁二偈頌	-10.8954
牀	-10.8958
仁者	-10.8968
芽	-10.897
派	-10.8972
領悟	-10.8975
今品	-10.8976
正憶念	-10.8978
前品	-10.8978
圓修	-10.8979
聞品	-10.8982
何義	-10.8991
真常	-10.8992
本淨	-10.8992
資生	-10.8992
劣應	-10.8993
陰境	-10.8996
法花	-10.9004
無生法忍	-10.9004
役	-10.9006
世出世	-10.9009
衡	-10.901
上首	-10.9011
逈	-10.9012
觀慧	-10.9014
諭	-10.9015
八正道	-10.902
得授記	-10.9022
能依	-10.9022
說大乘經	-10.9025
受請	-10.9025
易知	-10.9034
志求	-10.9038
無諍	-10.9045
囑累品	-10.9045
藍	-10.9048
覈	-10.905
王舍城	-10.9051
震動	-10.9053
猒	-10.9056
奔	-10.9057
共成	-10.9062
追頌	-10.9063
受戒	-10.9065
重重	-10.9065
妻子	-10.9071
三無差別	-10.9074
對辨	-10.908
取捨	-10.9081
偏小	-10.9086
覲	-10.9088
文為三	-10.9094
形聲	-10.9096
籠	-10.9097
大段	-10.9101
作是言	-10.9105
思慧	-10.9106
十惡	-10.9107
不廢	-10.9112
入於涅槃	-10.9114
非直	-10.9116
根本智	-10.9117
種姓	-10.9119
書云	-10.9127
莂	-10.9129
貶	-10.9129
平等大慧	-10.9131
迭	-10.9131
祀	-10.9135
四品	-10.9136
第一義空	-10.9138
踐	-10.914
殺人	-10.914
初總標	-10.9142
稱其	-10.9143
驢	-10.9148
受樂	-10.9151
下一行	-10.9152
時長	-10.9154
久修	-10.9159
假立	-10.9161
不能得	-10.9166
觀一切法	-10.9167
稱讚	-10.9169
慰	-10.9174
之甚	-10.9175
嗚呼	-10.9176
五趣	-10.9176
八子	-10.9176
而白佛言	-10.9177
不雜	-10.9178
尸棄	-10.918
熱惱	-10.9188
結使	-10.9196
結勸	-10.9199
合為一	-10.9202
為諸菩薩	-10.9217
。」【【	-10.9218
必先	-10.9222
澍	-10.9224
無漏法	-10.9229
往生	-10.9229
忉利	-10.9231
堪忍	-10.9235
增益	-10.9244
一段	-10.9247
一雨	-10.9255
利人	-10.9257
伏惑	-10.9258
四字	-10.9258
如虛空	-10.9259
伺	-10.9263
結歎	-10.9265
浩	-10.9266
釋籤云	-10.9266
寶雲	-10.9268
安慰	-10.9272
駕	-10.9273
長安	-10.9273
野干	-10.9274
祖師	-10.9277
諸菩薩摩訶薩	-10.9279
疑網	-10.9281
二十二	-10.929
遶	-10.9291
疏釋	-10.9293
亦不能	-10.9294
驗知	-10.9302
無有是處	-10.9304
開會	-10.9312
占	-10.9312
十二行	-10.9319
舟	-10.932
十萬	-10.9321
八解脫	-10.9324
能障	-10.9327
無功用	-10.9333
巳盡	-10.9334
羊鹿	-10.9337
搖	-10.9338
結會古今	-10.9339
空理	-10.9339
付家業	-10.9346
瞻仰	-10.935
結歸	-10.9351
方便力	-10.9367
妙宗	-10.9372
諸善根	-10.9373
如是展轉	-10.9373
盡智	-10.9374
思念	-10.9381
消釋	-10.9381
南北	-10.9385
即從座起	-10.9386
令住	-10.9386
僧坊	-10.9387
候	-10.9395
馳走	-10.9395
嗟	-10.9397
認	-10.94
鼻根	-10.9405
爾時舍利弗	-10.9407
悟解	-10.9407
有量	-10.9408
無罪	-10.941
爾乃	-10.9413
永盡	-10.9415
偈文	-10.9416
圓理	-10.9418
淨德	-10.9419
示教利喜	-10.9428
得無漏	-10.9429
刑	-10.9433
尚非	-10.9434
逮得	-10.9437
具一切法	-10.944
庭	-10.944
蓋是	-10.9442
牢	-10.9443
驅	-10.9443
津	-10.9445
惑業	-10.9448
軀	-10.9449
俟	-10.9455
兄	-10.9456
六品	-10.9463
遭苦	-10.9465
》「	-10.9471
先舉	-10.9472
。」《	-10.9474
三十三	-10.9475
更無餘	-10.9482
蜜	-10.9492
?「	-10.9492
第二句	-10.9493
物機	-10.9494
忘失	-10.95
化度	-10.9503
於其中	-10.9508
百八	-10.9519
上句	-10.9522
羅云	-10.9523
果滿	-10.9525
傭	-10.9525
麁妙	-10.9527
梵網	-10.9528
唱言	-10.9528
長文	-10.9529
諮	-10.9529
報恩	-10.953
躬	-10.953
何因緣	-10.9531
翼	-10.9533
慳貪	-10.9534
講說	-10.9537
三惡道	-10.9548
如來亦復如是	-10.9555
百界千如	-10.9559
果位	-10.9565
郡	-10.9567
晝	-10.9567
陋	-10.9572
所不能知	-10.9574
萌	-10.9574
污	-10.9575
所列	-10.9576
無量千萬億	-10.958
滅受想	-10.9581
斷疑	-10.9584
次二句	-10.9587
其形	-10.9589
可度	-10.9598
『	-10.9604
別示	-10.9606
誦經	-10.9608
在門外	-10.9608
鄰	-10.9613
會眾	-10.9614
二乘之人	-10.9615
永異	-10.9617
序分	-10.962
篤	-10.9622
質直	-10.9629
諸菩薩等	-10.9641
以神通力	-10.9642
輕慢	-10.9644
普門品	-10.9649
常寂光	-10.9653
而作是念	-10.9659
幼稚	-10.966
莫非	-10.9662
皆共	-10.9663
▁一頌	-10.9665
山川	-10.9666
盤	-10.9668
叵	-10.9669
超越	-10.9673
染淨二	-10.9677
千億	-10.9688
品題	-10.9688
入城	-10.969
未解	-10.9692
十歲	-10.9695
經旨	-10.9696
無所有處	-10.9699
先總	-10.9704
依他性	-10.9705
下總結	-10.9706
憐愍	-10.9706
海水	-10.9707
諸菩薩眾	-10.9709
必具	-10.9719
筋	-10.9724
破古	-10.9727
今就	-10.973
幻化	-10.9731
引大經	-10.9738
非權非實	-10.9739
等賜大車	-10.9743
我今當	-10.9745
一途	-10.9748
俯	-10.9752
板	-10.9754
宿世因緣	-10.9754
豆	-10.9758
各有所	-10.976
踊出	-10.9761
諦聽	-10.9762
感佛	-10.9763
事造	-10.9764
無減	-10.9767
上文云	-10.977
覆講	-10.978
申明	-10.9783
爐	-10.9792
圓極	-10.9792
不可量	-10.9807
三輪	-10.9808
設教	-10.9809
知一切法	-10.9809
呼為	-10.9809
未審	-10.9811
化導	-10.9813
莫能	-10.9817
非究竟	-10.9819
未嘗	-10.9819
有五種	-10.9821
如實知	-10.9822
先世	-10.9824
平聲	-10.9825
漂	-10.9834
職	-10.9836
百福	-10.9839
真妄	-10.9842
宰	-10.9844
無障礙	-10.9845
泣	-10.9848
圓覺	-10.9849
不可見	-10.9849
佛在世	-10.9852
達磨	-10.9856
所宜	-10.987
能令眾生	-10.9873
婆沙云	-10.9877
欲重宣此義而說偈言	-10.9878
師資	-10.9882
寢	-10.9883
於佛道	-10.9886
區	-10.9886
初列	-10.9889
忌	-10.9891
常寂	-10.9896
宇	-10.9896
赴機	-10.99
識處	-10.9908
龍神	-10.9908
能仁	-10.9913
無量壽	-10.9925
業報	-10.9929
提婆	-10.9931
怨賊	-10.9933
方丈	-10.994
旨歸	-10.9941
獲得	-10.9941
徧照	-10.9949
佛剎	-10.9949
主伴	-10.9952
剎利	-10.9958
此二句	-10.9961
三塗	-10.9965
未悟	-10.9966
長時	-10.997
世間解	-10.9972
世第一	-10.9973
隨類	-10.9974
膠	-10.9977
譏	-10.9983
渠	-10.9984
后	-10.9985
琴	-10.9985
杜	-10.9987
摩訶般若	-10.9989
遍滿	-10.999
止行	-10.9996
例餘	-11.0001
佛告阿難	-11.0003
頂禮	-11.0005
何關	-11.0012
耆闍崛山	-11.002
兆	-11.0025
渴仰	-11.0025
奇特	-11.0031
忠	-11.0033
倉	-11.0035
醯	-11.0036
把	-11.0036
領受	-11.0041
唯有一	-11.0043
異耳	-11.0054
勝解	-11.0056
阿脩羅	-11.0059
四大弟子	-11.0073
允	-11.0073
罔	-11.0075
辰	-11.0075
開為二	-11.0077
隨宜說法	-11.0078
偷	-11.008
深廣	-11.0086
總頌	-11.009
地涌	-11.0093
諸經論	-11.0093
來至此	-11.0095
盆	-11.011
舍利弗當知	-11.0116
從假入空	-11.012
安置	-11.0121
嘉祥	-11.0121
妄念	-11.0122
最為第一	-11.0124
此一行	-11.0124
通別圓	-11.0125
環	-11.0125
大綱	-11.0126
􂔹	-11.0126
爽	-11.0131
紅	-11.0133
四十八	-11.0142
尋常	-11.0143
降魔	-11.0144
重罪	-11.0147
怯弱	-11.0158
奧	-11.0163
旋陀羅尼	-11.0163
祈	-11.0165
募	-11.0167
選	-11.0171
秘藏	-11.0171
此娑婆世界	-11.0176
勤精進	-11.0176
知音	-11.0178
初如文	-11.018
設方便	-11.0183
佛所護念	-11.0192
水火	-11.0205
父王	-11.0215
限量	-11.0216
父見子	-11.0217
肥	-11.0219
希望	-11.0223
不容	-11.0225
供養諸佛	-11.0226
靡	-11.0228
分身佛	-11.0228
五度	-11.0228
五蓋	-11.0232
二行半	-11.0237
踊	-11.0241
卷第三	-11.025
六種震動	-11.0254
神足	-11.0257
亦得名	-11.0257
逝	-11.0258
卷第二	-11.0259
郭	-11.0261
洪	-11.0264
違順	-11.0267
起慈悲	-11.0268
資成	-11.0272
譬如有人	-11.0274
不隔	-11.0291
迷惑	-11.0293
相關	-11.0297
毒藥	-11.0302
自爾	-11.0309
寶物	-11.031
圍遶	-11.0313
次引證	-11.0313
殃	-11.0315
雙標	-11.0315
執著	-11.0316
泥洹	-11.0317
燃	-11.0318
恠	-11.0318
寶積	-11.033
大般涅槃	-11.0333
不畏	-11.0335
久成	-11.0336
羅什	-11.0337
悟道	-11.0345
經題	-11.0346
過去諸佛	-11.0347
古德	-11.0349
諸聲聞眾	-11.0349
百萬億那由他	-11.0351
弄	-11.0363
雲雨	-11.0364
隅	-11.0366
蔭	-11.0367
父母所生	-11.0367
更互	-11.0368
吞	-11.0371
胸	-11.0373
摩訶止觀	-11.0376
精勤	-11.0387
三祇	-11.0389
無生門	-11.0395
尚爾	-11.0395
無際	-11.0396
調御丈夫	-11.0396
兄弟	-11.0401
十六行	-11.0401
罵詈	-11.0402
料揀	-11.0404
險道	-11.0409
餘九	-11.0409
歸趣	-11.0411
悕	-11.0412
莊子	-11.0415
增上慢人	-11.0415
禪波羅蜜	-11.0424
言辭	-11.0426
達多	-11.0427
第十六	-11.0445
繒	-11.045
四番	-11.0452
菩提涅槃	-11.0452
曼陀羅	-11.0453
難解難入	-11.0454
詠	-11.0454
屠	-11.0456
灑	-11.0457
鎮	-11.0458
四無量心	-11.0458
奴	-11.0459
大城	-11.0461
惟忖	-11.0461
麥	-11.0463
吉祥	-11.0467
私謂	-11.0468
於未來世	-11.0481
五百弟子	-11.0483
明珠	-11.0485
作禮	-11.0487
函	-11.0491
所知障	-11.0492
普現色身	-11.0495
生歡喜	-11.0496
不改	-11.0497
艱	-11.0501
三十四心	-11.0501
契經	-11.0505
大威德	-11.0507
毘曇	-11.0509
菓	-11.0509
從初發心	-11.051
一實諦	-11.0513
夭	-11.0514
金輪	-11.0515
瑞應	-11.0523
豁	-11.0542
敬信	-11.0548
牖	-11.0548
次一行	-11.0549
鑽	-11.0552
無自性	-11.0553
買	-11.0556
無虗妄	-11.0557
膝	-11.0559
初文二	-11.0561
爾時釋迦牟尼佛	-11.0563
數量	-11.0575
兩番	-11.0592
光明照	-11.0594
永不	-11.0601
羅睺	-11.0601
漫	-11.0603
托	-11.0606
以是義故	-11.0608
鬱	-11.0609
互舉	-11.0611
滑	-11.0613
眾生濁	-11.0616
入生死	-11.0619
𥁞	-11.0624
瑜伽論	-11.0639
時諸梵天王	-11.064
湛	-11.064
得羅漢	-11.0643
恐誤	-11.0656
戀	-11.0656
卿	-11.0658
火燒	-11.0662
小樹	-11.0662
三乘共	-11.0665
所動	-11.0665
懃	-11.0668
長子	-11.0674
可爾	-11.0682
毗盧遮那	-11.0684
之異名	-11.0697
創	-11.0706
滴	-11.0706
洛	-11.0709
刃	-11.071
吒	-11.0713
大通智勝佛	-11.0716
無作四諦	-11.0717
頌第二	-11.0721
聖主	-11.0727
萬歲	-11.0728
衣裓	-11.0752
淨佛國土	-11.0753
夕	-11.0757
諸家	-11.0757
弘法	-11.0764
在座	-11.0766
丸	-11.0769
委悉	-11.0769
偏空	-11.0783
緒	-11.0798
龍宮	-11.0799
湖	-11.0803
不差	-11.0805
獵	-11.0807
厥	-11.0808
安樂行品	-11.0808
得滅度	-11.0808
翅	-11.0809
桃	-11.0813
外國	-11.0816
進否	-11.0818
彩	-11.082
臨終	-11.0825
萬里	-11.0832
集眾	-11.0838
人非人等	-11.0839
末後	-11.0843
祗	-11.0844
愛樂	-11.0846
荊	-11.0846
瞿曇	-11.0847
彈斥	-11.0848
顯密	-11.0849
僧伽	-11.0851
嶺	-11.0855
方始	-11.0856
覺了	-11.0856
丁	-11.0856
綺	-11.0857
承上	-11.0857
諱	-11.0858
膚	-11.0863
綿	-11.0865
二十五三昧	-11.0866
於中先	-11.0874
入初住	-11.0884
漏無漏	-11.0884
炷	-11.0886
皆歡喜	-11.0886
利益眾生	-11.0898
籌量	-11.0901
聊	-11.0905
斗	-11.0911
祕藏	-11.0913
尸羅	-11.0914
具十界	-11.0919
命濁	-11.0923
惡鬼	-11.093
三行半	-11.0931
色無色	-11.0933
變造	-11.0934
輸	-11.0942
所觀境	-11.0944
忖	-11.095
暮	-11.0954
悋	-11.0959
造業	-11.096
得作佛	-11.0964
頭面	-11.097
勸請	-11.0975
伏難	-11.0975
受命	-11.0976
第四禪	-11.0976
禁戒	-11.0978
陰入界	-11.0979
攝一切法	-11.0981
滿字	-11.0982
不復更	-11.0984
中有四	-11.0992
示真實相	-11.0997
墮地獄	-11.1002
踞	-11.1006
纖	-11.1008
利使	-11.1011
到彼岸	-11.1012
變土	-11.1016
波羅	-11.1021
所逼	-11.1025
初牒	-11.1028
個	-11.1032
方軌	-11.1035
不自知	-11.1035
忉利天	-11.1035
寂場	-11.1045
正像	-11.1046
級	-11.1051
一長行	-11.1052
明行足	-11.1053
枷	-11.1057
直至道場	-11.1058
以神力	-11.1058
淪	-11.1066
即此意也	-11.107
何曾	-11.1071
熾然	-11.1074
求索	-11.1081
遍照	-11.1085
機熟	-11.1085
迴轉	-11.1091
超頌	-11.1099
受持是經	-11.1103
一切法皆	-11.1105
燭	-11.1105
悟佛知見	-11.1106
殆	-11.1108
始覺	-11.111
療	-11.1113
灌頂	-11.1114
直指云	-11.1115
鴿	-11.1116
市	-11.112
壇	-11.1127
助宣	-11.1128
撥	-11.116
填	-11.1166
旛	-11.1168
作此說	-11.1171
判屬	-11.1173
準知	-11.1177
燒身	-11.1178
聖賢	-11.1195
能詮教	-11.1207
一相一味	-11.1211
值遇	-11.1218
渡	-11.1221
成菩提	-11.1223
空閑	-11.1224
滅盡定	-11.1225
灾	-11.1227
有為無為	-11.1229
弘通	-11.1236
天帝	-11.1241
十章	-11.125
論議	-11.1251
園林	-11.1264
若復有人	-11.1267
天主	-11.1268
誕	-11.1269
肆	-11.127
六十二	-11.127
脂	-11.1272
真實性	-11.1273
賢首	-11.1273
六道眾生	-11.1274
加被	-11.128
無緣慈	-11.128
千二百人	-11.128
記主	-11.1283
癈	-11.1287
將護	-11.1302
叵得	-11.1309
尊重讚歎	-11.1309
乃可為說	-11.131
六十二億	-11.1311
聰明	-11.1317
阿毗曇	-11.1317
貿	-11.1324
勵	-11.1326
四聖諦	-11.1343
隨宜所說	-11.1346
蒙佛	-11.1349
卷第一	-11.1357
罪報	-11.1362
衍門	-11.1364
親族	-11.1369
▁初敘	-11.1369
閱	-11.137
踰	-11.1371
熾盛	-11.1373
湧	-11.1378
日月燈明佛	-11.1379
置毒	-11.138
玉篇	-11.1382
與拔	-11.1387
不俟	-11.139
詣佛所	-11.1403
富貴	-11.1404
娑羅	-11.142
若得此意	-11.1422
飢渴	-11.1424
不測	-11.1425
荒	-11.143
稱機	-11.1433
所行道	-11.1434
煩惱濁	-11.1434
生死苦	-11.1452
成等正覺	-11.1456
不生不生	-11.1456
究竟涅槃	-11.1457
趣寂	-11.1465
中本有	-11.1471
樞	-11.1474
還歸	-11.1474
無等等	-11.1476
擯	-11.1478
諷誦	-11.148
儀式	-11.1482
師子奮迅	-11.1482
薩婆多	-11.1483
佉	-11.1484
額	-11.1487
天宮	-11.1488
團	-11.1488
五停心	-11.1491
寶樹下	-11.1515
謨云	-11.1517
盧舍那	-11.1523
妄執	-11.1526
千歲	-11.1528
岳	-11.153
棄捨	-11.153
譚	-11.1531
灼然	-11.1533
瓦	-11.1535
矜	-11.1541
說是法華經	-11.1548
三界火宅	-11.1553
鈍使	-11.1556
豁然	-11.1559
唯有一乘	-11.1566
請轉法輪	-11.1574
為實施權	-11.1578
稱之為	-11.1582
生死即涅槃	-11.1584
二百五十	-11.159
吼	-11.1592
彊	-11.1592
猶豫	-11.1594
哭	-11.1599
孔子	-11.1604
供給	-11.1605
奉命	-11.1611
白象	-11.1621
諸禪定	-11.1622
欣樂	-11.1622
卷第四	-11.163
三草二木	-11.1639
勤苦	-11.164
八十八使	-11.1646
灌	-11.1648
鶴	-11.1649
進趣	-11.1653
莫不皆	-11.1654
五悔	-11.1656
破見思	-11.1658
三災	-11.1674
荊溪云	-11.1677
又二先	-11.168
阿耨	-11.1683
鎧	-11.1684
墮惡道	-11.1691
藪	-11.1692
靈鷲山	-11.1694
一切眾生皆	-11.1695
遺教	-11.1696
敷演	-11.17
捐	-11.1702
鳩	-11.1705
阿闍世	-11.1705
樹王	-11.1708
策	-11.1715
忿	-11.1715
亦有亦無	-11.172
右手	-11.1725
十千	-11.1726
愍念	-11.1741
亘	-11.1748
涼	-11.1748
為他說	-11.1751
欽	-11.1751
非空非有	-11.1753
實報土	-11.1758
衢	-11.1758
摩訶迦葉	-11.1758
詺	-11.176
常精進	-11.1774
契理	-11.1782
菩提樹	-11.1784
所不及	-11.1788
韋陀	-11.1796
變現	-11.1804
蚖	-11.1807
〔	-11.1807
咄	-11.1809
儻	-11.1811
破法徧	-11.1812
汎	-11.1813
鑿	-11.1814
七支	-11.1815
維那	-11.1816
好醜	-11.1819
為眾生故	-11.182
生滅四諦	-11.1825
首座	-11.1837
籌	-11.1839
元年	-11.1856
作如是說	-11.1865
貝	-11.1867
夙	-11.1875
妄計	-11.1884
高原	-11.1885
出沒	-11.1889
魯	-11.1889
妙玄云	-11.1907
製	-11.1908
小兒	-11.1913
聲聞弟子	-11.1914
陣	-11.192
宏	-11.1923
一大事	-11.1924
不免	-11.1925
棲	-11.1926
十信位	-11.1926
厄	-11.1928
塗香	-11.1929
拒	-11.1931
啼	-11.1935
速疾	-11.1939
深達	-11.1939
爾時長者	-11.1946
徃	-11.1946
廣狹	-11.196
頞	-11.1967
駭	-11.1967
諸大乘經	-11.1979
仁王經	-11.1991
拳	-11.1992
等正覺	-11.1995
任持	-11.2005
受變易	-11.2011
法師功德品	-11.2022
牟尼	-11.2026
徵起	-11.2027
【△	-11.2032
入初地	-11.2035
斛	-11.2037
涯	-11.2039
唾	-11.204
良藥	-11.2044
評曰	-11.2045
兩段	-11.2048
辨才	-11.2049
十二句	-11.2058
廣宣	-11.2076
廣演	-11.2078
往詣	-11.208
幢幡	-11.2084
待絕	-11.2087
十億	-11.2088
軸	-11.209
不二而二	-11.209
龕	-11.2092
十八空	-11.2092
拾	-11.2093
大通佛	-11.2095
討	-11.2096
朱	-11.2097
革	-11.2098
窺	-11.2101
殷	-11.2103
象馬	-11.2105
因緣生法	-11.2106
天雨	-11.2116
第一卷	-11.2118
識陰	-11.2119
力無所畏	-11.2127
供養恭敬	-11.2128
空不空	-11.2134
玅法蓮華經	-11.2134
厭離	-11.2135
議曰	-11.2137
權巧	-11.2137
外護	-11.2138
無希取	-11.2141
具如止觀	-11.2144
又下文云	-11.2144
匝	-11.2146
隨喜品	-11.2155
那忽	-11.2158
得無生法忍	-11.2159
凶	-11.2162
狹小	-11.2192
無上慧	-11.2192
得免	-11.2199
貧里	-11.2202
言詞	-11.2203
幹	-11.2209
一心頂禮	-11.2211
鬪	-11.2213
禽獸	-11.2216
趨	-11.2221
善惡業	-11.2222
詐	-11.2228
脩羅	-11.2228
平正	-11.2229
推尋	-11.2229
遣使	-11.2234
探領	-11.2239
懷疑	-11.2244
授記品	-11.2248
新發意	-11.2255
趣向	-11.2257
卦	-11.2264
攻	-11.2265
瑩	-11.2268
叔	-11.2268
着	-11.2269
劇	-11.2271
蒼	-11.2275
約五味	-11.2277
誼	-11.228
六蔽	-11.2284
商人	-11.2287
展轉相	-11.2293
分段生死	-11.2309
徵釋	-11.2309
所潤	-11.231
眷	-11.2318
赤色	-11.2321
莊校	-11.2322
生疑惑	-11.2339
偈半	-11.2361
皆巳成佛道	-11.2362
變易生死	-11.2371
甚為希有	-11.2371
昔曾	-11.2373
子見父	-11.2378
其智慧門	-11.2379
粟	-11.2384
更無別	-11.2385
嗅	-11.2386
松	-11.2387
豫	-11.2387
風吹	-11.2388
諫	-11.2389
巖	-11.2389
栖	-11.2391
貢	-11.2391
義不成	-11.2391
第八識	-11.2393
五種法師	-11.2396
充足	-11.2403
初總明	-11.2404
1	-11.2412
9	-11.2412
婬欲	-11.2416
爾時彌勒菩薩	-11.2416
成阿耨多羅三藐三菩提	-11.2419
一切眾生喜見菩薩	-11.2427
憂悲苦惱	-11.2433
低頭	-11.2438
祝	-11.2439
劉	-11.2453
宿王	-11.2457
照了	-11.2472
正徧知	-11.2492
八十種好	-11.2492
可知矣	-11.2496
但說無上道	-11.2496
初文又二	-11.2499
自恣	-11.25
曠野	-11.25
稽	-11.2501
恥	-11.2501
層	-11.2503
撲	-11.2503
六根淨	-11.2521
傍正	-11.2536
三世益物	-11.2553
引古	-11.2554
英	-11.2558
欺誑	-11.2563
春秋	-11.2567
心得自在	-11.2574
三千界	-11.2592
有多種	-11.2593
增數	-11.2597
二頌合	-11.2601
』	-11.2605
牟云	-11.2606
煩惱即菩提	-11.2612
起大悲心	-11.2613
殖	-11.2614
心相體信	-11.2614
貴賤	-11.2616
趺	-11.262
爾雅云	-11.2621
啞	-11.2621
羸	-11.2625
隻	-11.2625
題目	-11.2625
算數	-11.2626
皎	-11.2626
沾	-11.2629
入無餘	-11.263
滅度之後	-11.263
聞香悉能知	-11.2635
推求	-11.2635
可畏	-11.2661
度脫眾生	-11.2661
鞞	-11.2669
然後乃	-11.2674
疲極	-11.2676
秊	-11.2677
玩好	-11.2678
得受記	-11.2679
輿	-11.2682
躭	-11.2683
通達無礙	-11.2684
臆	-11.2684
覔	-11.2685
訪	-11.2688
鐵輪	-11.2688
身口意	-11.2688
搜	-11.2692
舞	-11.2692
上二界	-11.2695
被機	-11.2702
唯一佛乘	-11.2705
2	-11.2712
大千界	-11.2735
三十子	-11.2737
財富無量	-11.2738
會三歸一	-11.2741
吟	-11.2742
村	-11.2743
從空入假	-11.2743
所說之法	-11.2743
晦	-11.2744
矛	-11.2747
埵	-11.2748
動靜	-11.2751
搆	-11.2753
教理行果	-11.2756
六十小劫	-11.2763
星宿	-11.2764
近代	-11.2764
五行半	-11.2766
讚嘆	-11.2768
八王子	-11.2782
樓閣	-11.2796
筌	-11.2797
瘂	-11.28
矩	-11.2802
稚	-11.2802
坦	-11.2803
瘦	-11.2805
仲	-11.2808
憐	-11.2809
詰	-11.2809
烟	-11.2816
躍	-11.2818
薦	-11.2818
積聚	-11.2821
告諸比丘	-11.2823
供養舍利	-11.2829
東南	-11.283
旬	-11.2848
動執生疑	-11.2853
匪	-11.2862
鬚	-11.2863
徧一切處	-11.2864
禍	-11.2866
雙樹	-11.2874
十番	-11.2877
作如是言	-11.2877
藥病	-11.2877
皆得解脫	-11.2878
陰陽	-11.288
抹	-11.2914
往古	-11.2918
第一義悉檀	-11.2922
炭	-11.2926
賞	-11.293
三行頌	-11.293
死屍	-11.2939
郎	-11.2939
檀越	-11.2939
乾慧地	-11.2942
刺	-11.2943
一念隨喜	-11.2953
佛之智慧	-11.2959
世第一法	-11.2966
六十劫	-11.2968
大事因緣	-11.2971
文可見	-11.2971
皃	-11.2975
當得阿耨多羅三藐三菩提	-11.2975
開示悟入佛之知見	-11.2982
雲集	-11.2988
姑	-11.299
自利利他	-11.299
六妙門	-11.2997
親疎	-11.2999
纂	-11.3
煑	-11.3
作是思惟	-11.3003
咽	-11.3006
億劫	-11.3008
牛頭	-11.3011
百萬	-11.3018
八背捨	-11.302
引例	-11.3028
無非法界	-11.3033
界內外	-11.3035
隨逐	-11.3038
靡不	-11.304
即空即假即中	-11.3048
蔗	-11.3049
四部眾	-11.3049
威猛	-11.3051
耐	-11.3053
世界悉檀	-11.3054
庫藏	-11.3059
拈	-11.3059
斫	-11.306
兮	-11.306
調熟	-11.3062
荼	-11.3064
演說諸法	-11.3068
救濟	-11.3071
熟蘇	-11.3077
比丘比丘尼優婆塞優婆夷	-11.3089
諍論	-11.3107
誡勸	-11.3111
午	-11.3113
及南曰	-11.3115
低	-11.3119
一百二十	-11.3122
厭患	-11.3128
憶想	-11.3129
婆娑	-11.3131
祕密藏	-11.3135
請觀音	-11.3141
大集經	-11.3142
二萬佛	-11.3158
求無上道	-11.3171
名稱普聞	-11.3172
如幻化	-11.3175
峰	-11.3177
輝	-11.3181
韻	-11.3182
一心合掌	-11.3183
身心不動	-11.3185
勇施	-11.3185
鐵圍山	-11.3186
援	-11.3187
就文為二	-11.3187
青蓮華	-11.3189
剌	-11.319
揮	-11.3194
猶如虗空	-11.3195
繫縛	-11.32
庵	-11.3233
玄籤	-11.3234
兩足尊	-11.3236
從三昧起	-11.3238
世雄	-11.324
卉木	-11.324
一心奉請	-11.3242
欄楯	-11.3242
怙	-11.3245
甚深微妙	-11.3245
受想行識	-11.3247
健	-11.3247
調停	-11.3251
毗沙門	-11.3258
耶輸	-11.3261
毀謗	-11.3267
體狀	-11.3276
宿習	-11.3285
聞佛所說	-11.3285
阿閦	-11.3292
淡	-11.3305
叡	-11.3309
無緣慈悲	-11.3311
心佛眾生	-11.3315
遍一切處	-11.3321
摩頂	-11.3329
調適	-11.3331
余曰	-11.3336
王宮	-11.3356
惡獸	-11.3357
波羅奈	-11.3362
入如來室	-11.3364
八相成道	-11.3371
和南	-11.3372
妬	-11.3376
模	-11.3377
呈	-11.3378
雞	-11.3382
摩竭	-11.3385
澁	-11.3387
初文又二初	-11.3387
操	-11.3389
資粮	-11.339
修菩薩行	-11.3392
照東方	-11.3396
前四時	-11.3399
我我所	-11.3409
形像	-11.3418
若有比丘	-11.3419
毒害	-11.3421
根未熟	-11.3422
憚	-11.3434
旃	-11.3434
谿	-11.3434
膳	-11.3438
僅	-11.3438
欠	-11.3438
費	-11.3442
戾	-11.3446
霑	-11.3449
針	-11.3458
奈	-11.3473
膿	-11.3507
勘	-11.3514
鎖	-11.3514
鄣	-11.3536
菩	-11.3554
刪	-11.3572
醒	-11.3573
侶	-11.3575
捕	-11.3575
蝮	-11.3575
霜	-11.358
漚	-11.3581
挍	-11.3581
淚	-11.3584
槃	-11.3635
勳	-11.3636
森	-11.364
怯	-11.3641
敕	-11.3704
餓	-11.3708
怕	-11.3711
頑	-11.3714
糠	-11.3717
賀	-11.3719
賦	-11.3775
曹	-11.3775
稠	-11.3776
戴	-11.3776
祿	-11.3777
激	-11.3783
陷	-11.3788
苗	-11.3789
肘	-11.3832
昆	-11.3839
脇	-11.384
喫	-11.3871
况	-11.3883
禱	-11.3908
蹈	-11.3909
纓	-11.3909
耽	-11.3909
社	-11.3914
攀	-11.397
飜	-11.3975
臍	-11.3979
揭	-11.3979
貨	-11.3984
洽	-11.3985
軒	-11.3989
削	-11.4039
洎	-11.4042
犍	-11.4044
裁	-11.4045
挫	-11.4045
犬	-11.4058
崩	-11.4059
鎻	-11.4113
愆	-11.4122
羽	-11.413
兇	-11.4176
庠	-11.4177
瓔	-11.4181
圭	-11.4184
鳳	-11.4192
痴	-11.4194
冰	-11.4254
佳	-11.4257
隷	-11.426
效	-11.4261
髓	-11.4271
袒	-11.4314
閒	-11.4326
脣	-11.4339
糟	-11.4339
絃	-11.4343
兜	-11.4398
揵	-11.4405
膩	-11.4405
屏	-11.4405
銘	-11.4406
季	-11.4417
瓜	-11.442
䟽	-11.4439
竺	-11.4461
瞑	-11.4472
罰	-11.4472
鈴	-11.4473
掘	-11.4476
輭	-11.4508
諷	-11.4544
廓	-11.4547
罷	-11.4548
鍊	-11.4549
蒲	-11.4551
糧	-11.4555
咨	-11.4557
技	-11.4562
邦	-11.4621
涕	-11.4621
姚	-11.4623
畔	-11.4624
砂	-11.4624
遽	-11.4627
邏	-11.4627
枉	-11.4627
輻	-11.4638
脈	-11.4648
箋	-11.4685
哲	-11.4693
珊	-11.4695
渚	-11.47
擅	-11.4705
嶽	-11.4705
吠	-11.4707
毋	-11.4757
勑	-11.4759
吏	-11.4768
輦	-11.477
猪	-11.4771
遞	-11.484
顛	-11.4841
炙	-11.4858
咀	-11.4862
肝	-11.4881
愕	-11.4909
誣	-11.4919
昌	-11.4923
仗	-11.4923
飄	-11.4926
鍾	-11.4936
剩	-11.4996
阻	-11.5008
農	-11.5013
掣	-11.5014
6	-11.5043
唇	-11.5074
乙	-11.5075
鋒	-11.5076
幰	-11.5086
呌	-11.5147
趙	-11.5151
線	-11.5153
禰	-11.5154
叫	-11.517
媚	-11.5177
恡	-11.5221
棘	-11.5221
𦘕	-11.5222
胝	-11.5229
詎	-11.5229
賃	-11.5229
囚	-11.5232
姨	-11.5233
喧	-11.5236
壓	-11.5237
卓	-11.5241
亭	-11.5294
吸	-11.531
羯	-11.531
坎	-11.5311
獎	-11.5314
羞	-11.5317
脹	-11.5325
訟	-11.5377
幔	-11.5383
屢	-11.5385
匿	-11.5387
耻	-11.5396
凖	-11.5453
雇	-11.5458
牧	-11.5469
妃	-11.5469
呂	-11.5476
嚼	-11.5493
噫	-11.5534
崖	-11.5549
緯	-11.5549
儼	-11.555
械	-11.555
絡	-11.5554
寮	-11.5623
漁	-11.5624
刊	-11.5626
伎	-11.563
煎	-11.5632
卜	-11.5642
陛	-11.5644
鷄	-11.5644
帙	-11.5704
羼	-11.5707
祐	-11.571
繇	-11.5712
儔	-11.5713
錫	-11.5714
巡	-11.5717
透	-11.5718
杵	-11.572
鬬	-11.572
雀	-11.5724
脉	-11.5738
筭	-11.5778
料	-11.5786
黠	-11.579
渧	-11.5793
璞	-11.5795
擣	-11.58
猗	-11.5804
凉	-11.5806
償	-11.5807
孚	-11.5809
饉	-11.587
桓	-11.5879
秤	-11.589
盾	-11.5891
晨	-11.5955
罣	-11.5959
憫	-11.5962
舜	-11.5969
替	-11.5975
膏	-11.5976
饒	-11.604
迂	-11.6042
藝	-11.6045
鹹	-11.6049
虞	-11.605
荅	-11.6091
㭊	-11.611
陁	-11.611
悠	-11.613
帛	-11.6136
汁	-11.6137
裔	-11.6138
逕	-11.6139
芥	-11.6205
饍	-11.6211
斬	-11.6212
緊	-11.6217
佐	-11.6222
柰	-11.6224
腐	-11.6225
項	-11.6231
肖	-11.6231
縷	-11.6233
姟	-11.6301
蠲	-11.6302
臘	-11.6303
癩	-11.6306
諳	-11.6307
匹	-11.6311
毱	-11.6314
搏	-11.6395
糓	-11.6396
〕	-11.6396
嚮	-11.6397
踏	-11.6414
藻	-11.6419
虵	-11.6433
禦	-11.6473
曆	-11.6477
淹	-11.6483
沓	-11.6487
剖	-11.6487
朋	-11.6488
嘿	-11.649
筵	-11.6492
喘	-11.6494
鉤	-11.6501
酌	-11.6562
溝	-11.6563
躃	-11.6563
崛	-11.6577
墻	-11.6587
䨱	-11.6606
牟	-11.6629
哆	-11.6655
攘	-11.6657
濃	-11.666
嶮	-11.666
淤	-11.6661
罄	-11.6661
橋	-11.6665
=	-11.6665
昨	-11.6677
韋	-11.6688
臻	-11.6745
銳	-11.675
㝹	-11.675
估	-11.6751
織	-11.6752
挾	-11.6756
洋	-11.6758
騎	-11.6763
怛	-11.6839
蔑	-11.684
贖	-11.6846
屎	-11.6854
漿	-11.6856
椽	-11.6865
燄	-11.6912
紺	-11.6936
措	-11.6936
揆	-11.6937
諄	-11.6938
魅	-11.6947
酉	-11.6947
係	-11.6948
虔	-11.6948
掛	-11.7024
畵	-11.7026
宴	-11.7031
寓	-11.7033
揖	-11.7034
構	-11.7037
押	-11.7046
𣗳	-11.7083
峻	-11.712
匱	-11.7121
迫	-11.7123
淮	-11.7127
躡	-11.7127
柳	-11.7136
䭾	-11.7215
欝	-11.7219
嗜	-11.7226
爰	-11.7229
暖	-11.7231
劍	-11.7237
尿	-11.724
稻	-11.7302
釆	-11.7308
閇	-11.7309
碑	-11.7311
潮	-11.7313
呰	-11.7313
監	-11.7315
蹙	-11.7317
芳	-11.7318
遑	-11.732
堯	-11.7324
瑟	-11.7332
吝	-11.7404
椎	-11.7406
巾	-11.7409
央	-11.7413
禹	-11.7413
零	-11.7415
汰	-11.7418
喉	-11.7419
梟	-11.742
翫	-11.7421
擎	-11.7423
耕	-11.7424
渾	-11.7431
肺	-11.7462
頹	-11.7514
遐	-11.7518
鵰	-11.7518
腦	-11.752
牕	-11.7602
裸	-11.7611
孕	-11.7615
惶	-11.7624
恬	-11.7624
矯	-11.7625
韓	-11.7689
猷	-11.7692
麵	-11.7709
眇	-11.7709
雌	-11.7712
脊	-11.7712
瘖	-11.7712
斜	-11.7714
弓	-11.7719
篋	-11.7719
机	-11.7721
勗	-11.7798
廁	-11.7807
燕	-11.7814
皈	-11.7815
朕	-11.7826
抗	-11.7905
囉	-11.7915
沫	-11.7917
捷	-11.7919
程	-11.7922
効	-11.7922
歇	-11.7924
梅	-11.793
蹄	-11.8003
貽	-11.8005
蕭	-11.8008
梓	-11.8013
萎	-11.8014
楹	-11.8016
赫	-11.8017
叢	-11.8019
丙	-11.8021
糅	-11.8024
腰	-11.8038
懶	-11.8116
碩	-11.8118
軫	-11.8118
寅	-11.8125
丑	-11.813
斤	-11.813
鵲	-11.8132
収	-11.8133
皰	-11.8207
茫	-11.8217
摸	-11.8227
猴	-11.8227
墳	-11.8228
膜	-11.8229
蹤	-11.823
倘	-11.8234
沐	-11.8236
弦	-11.8243
帳	-11.8297
杻	-11.8328
闢	-11.8328
嬈	-11.8331
抵	-11.8334
碧	-11.8337
霧	-11.834
徙	-11.8342
冶	-11.8347
棟	-11.8348
娛	-11.8408
属	-11.8411
銖	-11.8427
埋	-11.8436
墯	-11.8438
邃	-11.8441
婉	-11.8442
粥	-11.8446
齧	-11.8452
螢	-11.8534
窾	-11.8538
窓	-11.8549
疣	-11.855
曷	-11.8551
簫	-11.8552
贈	-11.8554
態	-11.8556
癰	-11.8558
泡	-11.857
罕	-11.8652
燋	-11.8656
敏	-11.8656
鏁	-11.8657
朔	-11.866
騁	-11.866
懇	-11.8662
仕	-11.8667
坤	-11.8675
拱	-11.876
寤	-11.8768
綜	-11.8772
撫	-11.8772
犁	-11.8773
胤	-11.8777
衝	-11.8792
酧	-11.8879
悚	-11.8879
愽	-11.8881
惰	-11.8889
跏	-11.8889
岐	-11.8894
怡	-11.8898
嵗	-11.8948
謨	-11.8966
航	-11.8987
庚	-11.8991
卯	-11.8993
衒	-11.8996
捧	-11.8997
播	-11.8998
疆	-11.8999
跛	-11.9001
葬	-11.9001
匡	-11.9003
鴟	-11.9004
鞭	-11.9005
凌	-11.9008
桑	-11.9011
婢	-11.9011
沸	-11.9013
猿	-11.9018
惛	-11.902
脾	-11.9039
腎	-11.9049
唄	-11.9094
瑤	-11.9094
貯	-11.9106
殞	-11.9109
隘	-11.9112
憒	-11.9114
捶	-11.9115
恕	-11.9117
膺	-11.9119
詢	-11.912
祠	-11.9125
蜋	-11.9129
杳	-11.9219
雕	-11.9228
劒	-11.9229
汲	-11.9232
倣	-11.9235
蹔	-11.9239
㵎	-11.924
錍	-11.9322
蔓	-11.9339
裕	-11.9339
謟	-11.9341
插	-11.9343
綵	-11.9343
煌	-11.9346
戚	-11.9348
翹	-11.935
袪	-11.9351
僊	-11.9352
嫁	-11.9356
騐	-11.9356
你	-11.937
矬	-11.9454
踈	-11.9459
欻	-11.946
彚	-11.9462
隴	-11.9464
啻	-11.9464
澡	-11.9467
鴻	-11.9475
征	-11.9478
茅	-11.948
沼	-11.9485
帀	-11.9567
肴	-11.9576
塊	-11.9578
煥	-11.9581
介	-11.9582
縫	-11.959
翁	-11.9593
斧	-11.9595
概	-11.9595
蓬	-11.9601
鼎	-11.9613
塲	-11.9674
訂	-11.9692
聯	-11.9692
讖	-11.9697
翠	-11.97
株	-11.9706
菜	-11.9709
廬	-11.9711
闊	-11.9713
奮	-11.9718
蜂	-11.972
遏	-11.9722
濤	-11.9822
閙	-11.9828
賖	-11.9829
饌	-11.9832
話	-11.9834
赦	-11.9835
麟	-11.9838
隤	-11.9839
材	-11.9841
梯	-11.9843
7	-11.9922
瞬	-11.9945
飡	-11.9945
稷	-11.9952
換	-11.9952
笛	-11.9955
洮	-11.9957
挺	-11.9959
鷹	-11.996
駝	-11.9962
捺	-11.9962
獅	-11.9964
妖	-11.9967
確	-11.9969
綖	-11.9974
禾	-11.9975
蔔	-12.0069
歘	-12.0073
玫	-12.0073
禽	-12.0075
楯	-12.0077
怱	-12.0082
昂	-12.0083
藕	-12.0084
紜	-12.0085
芬	-12.0086
頴	-12.009
鑄	-12.0092
轂	-12.01
牌	-12.0193
斟	-12.0196
諒	-12.0202
咳	-12.0205
鴦	-12.021
矧	-12.0211
抽	-12.0215
鈎	-12.0216
厲	-12.0218
瀉	-12.0219
欄	-12.0221
踴	-12.0221
棃	-12.0222
緇	-12.0224
瑰	-12.033
玩	-12.033
磬	-12.0332
揣	-12.0337
疫	-12.034
騃	-12.0341
汗	-12.0344
嵩	-12.0344
遜	-12.0345
剪	-12.0347
㲉	-12.0348
臟	-12.0365
齡	-12.0459
蟒	-12.0459
誌	-12.0463
鱗	-12.0466
員	-12.0471
皺	-12.0472
丞	-12.0472
筏	-12.0475
萇	-12.0475
誅	-12.0476
儐	-12.0476
暑	-12.0478
朴	-12.048
憤	-12.0487
庾	-12.059
湎	-12.0595
爆	-12.0607
憙	-12.0607
嘷	-12.061
鋪	-12.0613
慄	-12.0729
儉	-12.0731
贍	-12.0734
俄	-12.0738
戌	-12.0741
齎	-12.0741
芻	-12.0741
裹	-12.075
輟	-12.0751
决	-12.0855
唵	-12.0866
珞	-12.0867
洹	-12.0869
仞	-12.0874
翰	-12.0875
坌	-12.0879
蟻	-12.0881
債	-12.0884
挹	-12.0884
厨	-12.0893
滓	-12.0893
苫	-12.0919
褥	-12.1002
閡	-12.1005
頰	-12.1013
拯	-12.1021
縈	-12.1026
恰	-12.1027
妾	-12.1027
突	-12.1031
雍	-12.1039
臰	-12.1044
4	-12.1121
挂	-12.1142
徤	-12.1149
䆳	-12.1156
奠	-12.116
甫	-12.1161
絹	-12.1163
鑊	-12.1163
暉	-12.1165
壤	-12.1165
舅	-12.1171
梠	-12.1192
5	-12.1267
詶	-12.1291
鍵	-12.1293
販	-12.1296
偃	-12.13
礫	-12.13
叨	-12.1301
蝎	-12.1301
贅	-12.1302
顗	-12.131
叩	-12.1311
滌	-12.1313
义	-12.1424
妓	-12.1428
嬰	-12.1435
躄	-12.1441
紆	-12.1442
猜	-12.1443
苾	-12.1445
享	-12.1445
塚	-12.1445
陿	-12.1446
摶	-12.1448
浣	-12.1449
陌	-12.145
綸	-12.1454
姝	-12.1459
疵	-12.1459
羨	-12.1459
樣	-12.146
傅	-12.1461
螫	-12.1465
腸	-12.1469
拄	-12.1493
餚	-12.1583
穩	-12.1585
澆	-12.159
襲	-12.159
諾	-12.1592
稼	-12.1594
爵	-12.1594
兢	-12.1598
槌	-12.1598
迅	-12.1602
握	-12.1602
甜	-12.1602
劬	-12.1607
姊	-12.1609
卅	-12.1714
僉	-12.1727
疥	-12.1738
閻	-12.174
瞽	-12.1741
撓	-12.1741
膾	-12.1743
髣	-12.1746
妹	-12.1747
漆	-12.175
跨	-12.175
膽	-12.175
坼	-12.1756
魂	-12.1758
熈	-12.1882
堆	-12.1887
繕	-12.1894
靉	-12.1895
髴	-12.1896
嚬	-12.1897
燉	-12.1898
溥	-12.1899
腫	-12.1904
逍	-12.1904
婁	-12.1912
擁	-12.1952
畧	-12.2006
喝	-12.2042
盂	-12.2042
佩	-12.2044
歛	-12.2045
邇	-12.2049
妊	-12.2049
癸	-12.205
稀	-12.205
蹰	-12.2051
辜	-12.2051
颺	-12.2054
琳	-12.2054
彭	-12.2057
剝	-12.2059
潞	-12.2062
邀	-12.2077
菀	-12.2079
謁	-12.2195
憲	-12.2197
隙	-12.2198
炤	-12.2201
詛	-12.2201
巷	-12.2202
迸	-12.2202
楷	-12.2202
寇	-12.2205
茵	-12.2206
拏	-12.2209
頒	-12.2209
唼	-12.2214
浸	-12.2215
畋	-12.2341
缾	-12.2347
穰	-12.2348
磁	-12.2351
狄	-12.2354
莎	-12.2357
亥	-12.2358
駟	-12.2365
矢	-12.2366
駄	-12.2366
柯	-12.2369
肎	-12.237
裝	-12.2372
柄	-12.2373
糜	-12.2383
魎	-12.2386
鵝	-12.2386
葱	-12.2493
罽	-12.2505
戊	-12.2506
卻	-12.2507
謦	-12.2509
迄	-12.2511
沃	-12.2513
醎	-12.2515
耘	-12.2516
睢	-12.2517
惻	-12.2519
牆	-12.2522
餐	-12.2524
慜	-12.2527
襟	-12.2528
鴈	-12.253
掬	-12.253
姿	-12.253
蹲	-12.253
濡	-12.2531
裳	-12.2533
崙	-12.2535
喍	-12.2539
魍	-12.2547
挑	-12.2677
件	-12.2678
采	-12.2684
棺	-12.2689
淑	-12.2694
戮	-12.2696
餌	-12.2696
慙	-12.2698
闥	-12.2701
蹋	-12.2706
懿	-12.2845
尠	-12.285
巢	-12.2851
馱	-12.2854
偉	-12.2854
恢	-12.2855
壑	-12.2855
獘	-12.2857
摘	-12.2857
寔	-12.2858
寥	-12.2861
鵄	-12.2861
曩	-12.2862
挽	-12.2866
𡉏	-12.2866
夾	-12.2868
竅	-12.287
綠	-12.287
々	-12.2989
溼	-12.2994
炳	-12.3007
壬	-12.3018
酢	-12.3021
穆	-12.3021
顰	-12.3022
揩	-12.3029
雹	-12.303
攢	-12.3031
稅	-12.3034
禿	-12.3034
砧	-12.3035
輞	-12.3039
𨽻	-12.3041
摣	-12.3045
阜	-12.318
泠	-12.3188
憺	-12.3189
卉	-12.319
褰	-12.3198
翔	-12.3199
覿	-12.3203
桂	-12.3203
陪	-12.3204
顒	-12.321
骸	-12.3224
􂎴	-12.3332
3	-12.3338
隸	-12.3344
窻	-12.3352
禧	-12.336
槁	-12.3361
彫	-12.3364
楞	-12.3367
竄	-12.337
錦	-12.3379
戈	-12.3383
駈	-12.3384
耎	-12.3385
啀	-12.3385
尉	-12.3394
痒	-12.3395
璧	-12.3395
沮	-12.3532
范	-12.3534
醋	-12.3536
旅	-12.3537
柴	-12.3541
拓	-12.3547
珂	-12.355
繡	-12.3551
埃	-12.3551
栗	-12.3555
熙	-12.3555
睛	-12.3555
副	-12.3568
咲	-12.3568
霞	-12.3569
蓐	-12.3574
瞙	-12.3706
陟	-12.3718
蓏	-12.372
辟	-12.3721
貲	-12.3723
蜀	-12.3724
蠡	-12.3727
黧	-12.3728
踟	-12.373
抉	-12.3733
襄	-12.3734
酸	-12.3738
孩	-12.3748
屑	-12.3752
駁	-12.3755
惺	-12.3773
埀	-12.3894
譜	-12.3898
洒	-12.3899
癬	-12.3901
佞	-12.3903
篩	-12.3907
嬉	-12.3907
瀆	-12.3907
忝	-12.3913
杭	-12.3914
訥	-12.3915
遁	-12.3918
驟	-12.3919
騫	-12.3919
聳	-12.392
蠍	-12.392
蚊	-12.3923
臧	-12.3924
榜	-12.3929
嚌	-12.3937
鐸	-12.3941
覧	-12.4089
蔬	-12.4095
藤	-12.4099
課	-12.4099
齅	-12.4103
靆	-12.4103
帆	-12.4103
幟	-12.4104
坊	-12.4105
捍	-12.4105
懽	-12.4105
旱	-12.4106
碾	-12.4107
狎	-12.4108
拍	-12.4114
攸	-12.4116
懊	-12.4116
啖	-12.4119
諧	-12.4123
這	-12.4124
戎	-12.4126
媻	-12.4274
灼	-12.4279
蚩	-12.4285
黮	-12.4292
鑰	-12.4293
另	-12.4294
渺	-12.4295
潭	-12.4295
慞	-12.4295
葛	-12.4295
楗	-12.4298
燥	-12.4302
訣	-12.4302
傲	-12.4303
賾	-12.4305
紐	-12.4306
企	-12.4308
尹	-12.4309
慨	-12.4312
跳	-12.4315
銜	-12.4323
刦	-12.4442
舛	-12.4484
絺	-12.4489
滄	-12.4489
鐃	-12.4489
券	-12.449
慇	-12.4491
跟	-12.4491
蒭	-12.4494
矚	-12.4495
薗	-12.4495
廉	-12.4495
閭	-12.4495
郁	-12.4496
虬	-12.4496
靳	-12.4497
蹉	-12.4497
藂	-12.4499
泊	-12.45
抳	-12.4502
㲲	-12.4502
奄	-12.4504
艾	-12.4508
啄	-12.4508
貍	-12.4516
粒	-12.4675
崔	-12.4677
羶	-12.4679
𧂐	-12.468
藐	-12.4683
睹	-12.4686
苔	-12.4687
蔡	-12.4696
怜	-12.4699
釧	-12.4701
媒	-12.4702
蝕	-12.4703
霄	-12.4704
玷	-12.4711
餝	-12.4711
𡨋	-12.4865
柈	-12.4873
栴	-12.4881
亞	-12.4888
侈	-12.4889
晃	-12.489
寐	-12.489
闐	-12.4894
謚	-12.4894
拆	-12.4898
澹	-12.4899
敻	-12.4899
殑	-12.4901
頡	-12.4901
謾	-12.4905
叮	-12.4909
綩	-12.491
粉	-12.491
歒	-12.4912
瑜	-12.4917
𦗟	-12.507
頤	-12.5095
郊	-12.5097
惓	-12.51
斂	-12.51
廼	-12.5103
莚	-12.5108
綴	-12.5108
鵬	-12.5114
巽	-12.5118
做	-12.5127
冝	-12.5278
塘	-12.5303
窣	-12.5309
犢	-12.5311
晴	-12.5312
魁	-12.5313
陞	-12.5314
皓	-12.5316
奘	-12.5316
悴	-12.5318
廷	-12.5321
鵠	-12.5322
芝	-12.5325
姪	-12.5329
努	-12.533
玼	-12.5334
銓	-12.5336
蠅	-12.5347
拌	-12.5357
减	-12.5499
]	-12.5503
劵	-12.552
枳	-12.5521
琢	-12.5522
亮	-12.5529
鑪	-12.5531
捔	-12.5532
掖	-12.5535
腋	-12.5536
羮	-12.5538
𤦲	-12.5538
催	-12.5539
詭	-12.554
栢	-12.5543
恍	-12.5543
築	-12.5548
餅	-12.5554
棒	-12.5559
熊	-12.5565
0	-12.5725
廊	-12.5746
釐	-12.5751
簸	-12.5751
縵	-12.5751
煮	-12.5754
系	-12.5754
緻	-12.5755
捫	-12.5756
愜	-12.5758
駐	-12.576
鍮	-12.5761
痕	-12.5764
斵	-12.5768
袖	-12.5769
鬧	-12.577
蛆	-12.5773
裡	-12.5776
髑	-12.5781
粘	-12.5782
鼬	-12.5782
侮	-12.5972
獷	-12.5978
氎	-12.5979
溟	-12.5981
胗	-12.5982
誥	-12.5984
粳	-12.5987
粖	-12.5988
蒸	-12.5988
鴛	-12.5989
殄	-12.5992
轅	-12.5994
弁	-12.5994
稜	-12.5995
控	-12.6001
鼷	-12.6004
肌	-12.6005
鑛	-12.6005
枚	-12.6009
蠱	-12.6015
恱	-12.6186
𤛆	-12.6197
覇	-12.6204
鈸	-12.6204
瘀	-12.6205
裨	-12.6208
絓	-12.6209
街	-12.6217
榻	-12.6218
𧏙	-12.6225
羲	-12.6226
汩	-12.6227
晏	-12.6228
甥	-12.6228
鎔	-12.6228
疇	-12.6228
伍	-12.6229
扁	-12.6232
嫡	-12.6232
髏	-12.6237
核	-12.6238
疼	-12.6254
葦	-12.6443
澀	-12.6449
傴	-12.6449
躶	-12.6449
粹	-12.645
擘	-12.645
罸	-12.6455
菽	-12.6456
琰	-12.6456
繹	-12.6457
賒	-12.6457
踵	-12.6458
叱	-12.6462
沽	-12.6463
旌	-12.6464
庇	-12.6465
胃	-12.6465
墀	-12.6467
胞	-12.6467
萃	-12.6468
阤	-12.6468
爍	-12.647
釣	-12.6471
豬	-12.6478
週	-12.6479
囂	-12.6481
8	-12.6673
䏶	-12.668
扠	-12.6686
睫	-12.6689
碌	-12.6693
坡	-12.6694
梗	-12.6694
萄	-12.6695
瓊	-12.67
琵	-12.6703
滔	-12.6704
蠢	-12.6705
寰	-12.6706
燸	-12.6706
傑	-12.6708
墓	-12.6708
倐	-12.671
冊	-12.6716
垣	-12.6718
疋	-12.6718
狸	-12.6732
硨	-12.693
磲	-12.6933
軻	-12.6938
窄	-12.6943
砌	-12.6944
䞋	-12.6946
浙	-12.6948
訴	-12.6949
俊	-12.695
擴	-12.695
携	-12.6951
燼	-12.6952
剡	-12.6952
悖	-12.6952
誇	-12.6953
灸	-12.6953
閏	-12.6955
睿	-12.6956
荀	-12.6957
崑	-12.6957
鉛	-12.6959
呞	-12.6962
犀	-12.6971
殉	-12.6973
蜒	-12.698
痟	-12.7191
扼	-12.7193
繆	-12.7197
姬	-12.7203
琶	-12.7203
碯	-12.7204
堵	-12.7204
膊	-12.7204
鸚	-12.7206
刈	-12.7206
杲	-12.7207
寱	-12.7208
鄧	-12.7208
狙	-12.7214
踝	-12.7214
煉	-12.7214
拭	-12.7214
讒	-12.7217
綽	-12.7219
瘠	-12.7222
緘	-12.7224
孜	-12.7224
斑	-12.7224
衷	-12.7225
繚	-12.7457
廗	-12.7462
罹	-12.7464
簣	-12.7465
邈	-12.7467
鵡	-12.7468
剏	-12.7468
篆	-12.7469
勃	-12.747
慼	-12.7472
彷	-12.7472
稗	-12.7473
陜	-12.7475
竿	-12.7476
弼	-12.7477
瑙	-12.7477
鹵	-12.7477
杌	-12.7478
欵	-12.7481
抒	-12.7481
馮	-12.7482
蠻	-12.7483
𤏙	-12.7493
馭	-12.7494
釘	-12.7495
釜	-12.7502
漠	-12.7718
芿	-12.7722
翩	-12.7722
簿	-12.7726
宵	-12.7727
斆	-12.7728
燧	-12.7729
胥	-12.7731
僣	-12.7732
墟	-12.7732
檻	-12.7733
胷	-12.7735
侔	-12.7736
銕	-12.7737
痤	-12.7738
娠	-12.774
唧	-12.7741
韶	-12.7743
鸞	-12.7743
眩	-12.7743
笈	-12.7743
檐	-12.7744
巴	-12.7748
蠧	-12.775
兕	-12.775
妒	-12.7753
寵	-12.7753
褁	-12.7754
鍼	-12.7755
呬	-12.7756
冏	-12.7762
觚	-12.7762
沛	-12.7766
聘	-12.7766
梧	-12.799
暨	-12.7994
秭	-12.7998
磐	-12.8001
舫	-12.8003
濶	-12.8008
躁	-12.8009
魄	-12.8009
黜	-12.8011
窊	-12.8013
遼	-12.8015
徽	-12.8017
呻	-12.802
懌	-12.8021
叛	-12.8022
詈	-12.8022
嵐	-12.8023
蟬	-12.8028
拋	-12.8032
迊	-12.8037
儲	-12.8037
屣	-12.8038
髀	-12.8044
㓨	-12.805
苞	-12.8051
婚	-12.8053
􂐔	-12.8278
纊	-12.8282
漉	-12.8288
迨	-12.8291
禺	-12.8298
瀾	-12.83
蠆	-12.8305
粮	-12.8305
勣	-12.8307
窂	-12.831
妍	-12.8311
凋	-12.8318
呾	-12.8321
旗	-12.8323
冲	-12.8324
猥	-12.8325
芙	-12.8325
麄	-12.8559
c	-12.8565
f	-12.8565
摭	-12.8576
訊	-12.8583
垓	-12.8586
冐	-12.8589
凭	-12.8589
睞	-12.8589
誹	-12.859
迺	-12.8591
液	-12.8596
架	-12.8596
硬	-12.8598
䗍	-12.8598
碍	-12.8599
𠎝	-12.8601
衿	-12.8601
眴	-12.8601
巫	-12.8604
娶	-12.8604
皐	-12.8606
彿	-12.8607
鍛	-12.8608
棠	-12.8609
忙	-12.8609
樵	-12.8609
潰	-12.8609
顆	-12.861
駱	-12.8612
筒	-12.8613
竦	-12.8619
貂	-12.862
嚙	-12.8623
菟	-12.8628
廻	-12.8873
洄	-12.8877
箴	-12.8878
馨	-12.8882
犧	-12.8883
甎	-12.8884
寞	-12.8886
懲	-12.8889
萊	-12.8891
鏘	-12.8895
蚌	-12.8896
献	-12.8896
疽	-12.8897
亟	-12.8898
酷	-12.8898
𤼣	-12.8898
蚤	-12.8899
臼	-12.89
衲	-12.8901
㶿	-12.8904
仇	-12.8904
絞	-12.8904
猨	-12.8904
曳	-12.8909
艮	-12.8909
徇	-12.891
喟	-12.891
恤	-12.8913
濯	-12.8913
琅	-12.8915
漬	-12.8915
誚	-12.8916
㒵	-12.8918
闔	-12.8918
凹	-12.892
噓	-12.8924
軛	-12.8957
綮	-12.9184
勾	-12.9193
鏤	-12.9199
韜	-12.92
桐	-12.9204
浦	-12.9205
紊	-12.9207
㢡	-12.9209
郵	-12.9209
隥	-12.9209
需	-12.921
馥	-12.9211
柅	-12.9211
匾	-12.9211
疱	-12.9212
渭	-12.9212
盥	-12.9212
忒	-12.9213
肢	-12.9214
襵	-12.9215
娥	-12.9216
羗	-12.9217
歐	-12.9219
釰	-12.9219
忤	-12.9221
彥	-12.9222
兀	-12.9222
梏	-12.9223
頷	-12.9223
悼	-12.9225
胄	-12.923
孱	-12.9232
蛙	-12.9233
蚰	-12.9239
褫	-12.9254
弃	-12.9512
蕪	-12.9516
旻	-12.9517
煨	-12.9521
黍	-12.9521
𩑔	-12.9525
菊	-12.9526
濵	-12.9529
靖	-12.953
甕	-12.9532
亢	-12.9533
殫	-12.9534
碼	-12.9535
阡	-12.954
觜	-12.9541
鄔	-12.9541
簷	-12.9542
逵	-12.9542
敝	-12.9544
迮	-12.9545
蜣	-12.9546
芒	-12.9547
艶	-12.9559
吃	-12.9559
譎	-12.9561
脅	-12.9563
蝘	-12.9579
苻	-12.9583
竛	-12.9842
体	-12.9848
撻	-12.9853
鷸	-12.9857
帥	-12.9858
峨	-12.9858
畟	-12.986
裴	-12.9861
嚩	-12.9862
葩	-12.9862
峙	-12.9865
僚	-12.9866
栽	-12.9867
𤘽	-12.9867
腥	-12.9867
礪	-12.9868
𠁼	-12.987
樊	-12.987
距	-12.9872
揲	-12.9872
麞	-12.9873
禎	-12.9874
趾	-12.9874
溉	-12.9874
繽	-12.9875
阮	-12.9878
桎	-12.9878
秩	-12.9879
嬪	-12.9881
董	-12.9884
柏	-12.9885
暄	-12.9887
􂌞	-12.9887
愉	-12.9887
擒	-12.9894
鈞	-12.9896
袋	-12.9898
潑	-12.9899
竮	-13.0186
牓	-13.0197
睺	-13.0201
屆	-13.0206
蘆	-13.0208
祚	-13.0209
駢	-13.021
茯	-13.0211
唎	-13.0211
虺	-13.0211
吁	-13.0217
蓄	-13.0217
櫓	-13.0217
豹	-13.0218
禳	-13.0219
喃	-13.0221
吻	-13.0222
培	-13.0222
擗	-13.0224
挈	-13.0224
哺	-13.0225
伶	-13.0225
杯	-13.0226
舡	-13.0226
珮	-13.0229
蕖	-13.0229
僮	-13.0229
迤	-13.023
偪	-13.0231
筞	-13.0234
冢	-13.0235
馴	-13.0238
毳	-13.0238
宍	-13.0259
旭	-13.0547
掠	-13.0557
􂎶	-13.056
漓	-13.056
汪	-13.0561
腨	-13.0563
磋	-13.0564
闚	-13.0569
豕	-13.057
佇	-13.057
坏	-13.0572
惕	-13.0572
翦	-13.0574
歿	-13.0574
戟	-13.0578
壟	-13.0579
胛	-13.0579
𤚲	-13.0584
朦	-13.0584
籬	-13.0585
讎	-13.0591
股	-13.0591
聆	-13.0591
魑	-13.0594
悱	-13.0595
鍚	-13.0596
鄴	-13.0596
嬾	-13.0599
媿	-13.0913
郤	-13.0914
扉	-13.0917
雉	-13.0921
瑋	-13.0925
殻	-13.0926
嗢	-13.0928
兗	-13.0929
僭	-13.0932
姉	-13.0933
錠	-13.0934
䬸	-13.0935
迥	-13.0935
歧	-13.0935
慾	-13.0936
髼	-13.0937
奩	-13.0937
莽	-13.0938
箱	-13.0939
瞪	-13.0939
𢮎	-13.0941
揜	-13.0943
箕	-13.0944
匙	-13.0944
鞠	-13.0947
桶	-13.0948
嘻	-13.095
駛	-13.0952
瞳	-13.0953
霍	-13.0954
凸	-13.0957
鳶	-13.0958
璣	-13.096
劑	-13.0962
溷	-13.0962
帚	-13.0964
樸	-13.0969
蜓	-13.0972
襃	-13.128
靣	-13.1283
暹	-13.1294
棹	-13.1314
版	-13.1315
咒	-13.1316
涵	-13.1316
馲	-13.1319
袱	-13.1323
躋	-13.1324
腕	-13.1326
飴	-13.1327
盞	-13.1327
塑	-13.1328
嘲	-13.1329
攪	-13.1329
藩	-13.133
聃	-13.1331
噬	-13.1331
猫	-13.1335
晡	-13.1336
蹶	-13.1336
儴	-13.1337
苽	-13.1337
脆	-13.1338
黏	-13.134
燎	-13.134
潦	-13.1343
瞞	-13.1344
尖	-13.1345
廛	-13.1347
沿	-13.1349
描	-13.1354
督	-13.1354
縠	-13.1356
邵	-13.1369
罏	-13.1371
殤	-13.1381
􂋧	-13.1695
昱	-13.1695
羙	-13.1697
觕	-13.1699
霽	-13.1709
賷	-13.1713
綏	-13.1717
彗	-13.1717
蠕	-13.1717
駮	-13.1717
穫	-13.1717
倩	-13.1719
奕	-13.1722
蝶	-13.1723
驛	-13.1723
涇	-13.1724
冗	-13.1725
隳	-13.1725
署	-13.1726
嚝	-13.1727
慘	-13.1728
遘	-13.1729
顓	-13.173
犛	-13.1731
粲	-13.1731
盻	-13.1731
眸	-13.1732
釁	-13.1732
蜯	-13.1733
鉗	-13.1733
羈	-13.1733
蹊	-13.1734
兌	-13.1735
茆	-13.1736
毅	-13.1739
盪	-13.1741
涎	-13.1741
庖	-13.1742
紂	-13.1743
棗	-13.1744
膓	-13.1747
鶖	-13.1748
嘴	-13.1749
褚	-13.175
薜	-13.1751
彪	-13.1754
沌	-13.1766
郢	-13.1777
卄	-13.2099
纘	-13.2111
雎	-13.2113
罩	-13.2118
輯	-13.2119
宼	-13.2124
旹	-13.2125
澓	-13.213
蠟	-13.213
捒	-13.2131
蟄	-13.2134
撼	-13.2134
噵	-13.2138
跂	-13.2139
㸦	-13.214
􂕩	-13.214
丕	-13.2142
俶	-13.2143
齶	-13.2143
怗	-13.2144
蕃	-13.2145
烹	-13.2146
鼈	-13.2146
鞋	-13.2147
鳧	-13.2147
氈	-13.2151
嘔	-13.2152
苕	-13.2152
盟	-13.2152
瘳	-13.2153
邐	-13.2157
竇	-13.2157
瀑	-13.2159
瓠	-13.216
鴉	-13.2161
雁	-13.2161
粧	-13.2161
捲	-13.2162
弑	-13.2162
掀	-13.2163
襍	-13.2165
咏	-13.2167
凍	-13.2168
揄	-13.2168
搔	-13.217
瀝	-13.217
碁	-13.2173
剜	-13.2177
刼	-13.2532
樒	-13.2532
氛	-13.2546
瀁	-13.2552
鋸	-13.2554
趍	-13.2557
跢	-13.2558
闘	-13.256
鞮	-13.2562
哮	-13.2567
臯	-13.2568
觴	-13.2568
慣	-13.257
島	-13.2571
霔	-13.2572
霸	-13.2573
罥	-13.2574
硯	-13.2574
姒	-13.2574
舘	-13.2576
聿	-13.2577
泄	-13.2578
弩	-13.258
帷	-13.2582
浹	-13.2582
績	-13.2583
朧	-13.2583
姦	-13.2585
琦	-13.2586
湘	-13.2588
窳	-13.2588
廳	-13.2589
霹	-13.2591
嗚	-13.2593
靂	-13.2593
悵	-13.2594
喬	-13.2595
弔	-13.2604
桀	-13.2608
蜴	-13.2609
諺	-13.2621
杇	-13.2994
粵	-13.3
耨	-13.3003
聦	-13.3004
􂌤	-13.3004
跉	-13.3015
㖿	-13.3015
劂	-13.3015
皂	-13.3016
幕	-13.3018
搋	-13.3019
閔	-13.3022
笙	-13.3024
蟠	-13.3025
咼	-13.3025
穌	-13.3025
淆	-13.3025
憾	-13.3028
喀	-13.3029
衫	-13.3029
蹴	-13.3031
𤨏	-13.3032
鬻	-13.3032
貳	-13.3032
攷	-13.3035
虐	-13.3038
篾	-13.3039
蹇	-13.3039
墾	-13.304
爻	-13.3043
虢	-13.3044
驕	-13.3045
皤	-13.3047
叟	-13.3048
駿	-13.3049
釵	-13.305
湊	-13.305
羌	-13.3055
叶	-13.3056
痰	-13.3057
癭	-13.3058
咬	-13.3058
些	-13.3059
冕	-13.306
燦	-13.3061
貸	-13.3062
麴	-13.3064
蒿	-13.3068
狩	-13.3074
匏	-13.3093
椉	-13.3473
s	-13.3476
噐	-13.3479
穉	-13.3479
隍	-13.3487
嘇	-13.3492
靄	-13.3492
鬲	-13.3493
乱	-13.3494
讐	-13.3498
齓	-13.35
壺	-13.3503
帽	-13.3504
幅	-13.3505
忩	-13.3505
啾	-13.3506
牗	-13.3506
擡	-13.3507
港	-13.3509
爇	-13.3509
壹	-13.3509
瞎	-13.3509
袠	-13.351
轄	-13.3511
驪	-13.3511
瞥	-13.3511
嘯	-13.3512
孳	-13.3513
𦟛	-13.3514
䶩	-13.3514
薳	-13.3514
惔	-13.3515
痆	-13.3517
钁	-13.3517
罤	-13.3517
稔	-13.3518
柵	-13.3519
宙	-13.352
粕	-13.352
熨	-13.3522
鄞	-13.3523
釀	-13.3524
􂎫	-13.3526
綰	-13.3528
蝦	-13.3528
𨷂	-13.3529
璪	-13.3531
蹬	-13.3534
蜥	-13.3535
埿	-13.3535
戍	-13.3536
薑	-13.3542
樑	-13.3544
𤛾	-13.3547
剔	-13.3549
札	-13.355
溈	-13.357
􂐓	-13.358
詑	-13.3976
竢	-13.3976
椅	-13.3978
俛	-13.3984
煻	-13.3985
㳂	-13.3986
恊	-13.3991
暝	-13.3991
俵	-13.3991
牘	-13.3993
佑	-13.3996
羝	-13.3999
珪	-13.3999
皿	-13.4001
批	-13.4002
爝	-13.4003
耗	-13.4004
巍	-13.4005
轟	-13.4005
釗	-13.4007
擕	-13.4008
嗽	-13.4009
煬	-13.401
胮	-13.401
舶	-13.4011
弒	-13.4012
怳	-13.4012
聶	-13.4015
愴	-13.4016
翊	-13.4017
騷	-13.4017
窒	-13.4018
鷺	-13.4019
滲	-13.402
黛	-13.402
𢟋	-13.4022
崎	-13.4023
蘋	-13.4026
憩	-13.4027
孽	-13.4028
桷	-13.4029
佚	-13.4031
袟	-13.4032
涓	-13.4033
榦	-13.4033
膖	-13.4034
朵	-13.4035
詬	-13.4035
澣	-13.4041
𠒋	-13.405
􂔗	-13.4487
鬮	-13.449
蕅	-13.4501
凞	-13.4511
聵	-13.4516
穬	-13.4516
噏	-13.4516
懾	-13.4517
拇	-13.4517
懦	-13.4519
掦	-13.4519
豌	-13.4519
哢	-13.4521
訾	-13.4521
脛	-13.4521
宥	-13.4522
楔	-13.4524
嬌	-13.4525
欹	-13.4526
哳	-13.4526
壍	-13.4526
髦	-13.4527
袁	-13.4528
緜	-13.453
飼	-13.4531
宸	-13.4532
榴	-13.4532
㳷	-13.4534
萏	-13.4534
迢	-13.4535
鏗	-13.4536
晶	-13.4536
欬	-13.4537
狡	-13.4538
啐	-13.4538
閼	-13.454
璽	-13.4541
蓊	-13.4541
館	-13.4541
憨	-13.4544
麓	-13.4547
蹟	-13.4547
幃	-13.4548
蘩	-13.455
岡	-13.4551
莾	-13.4551
螳	-13.4558
岫	-13.4559
塹	-13.456
溜	-13.456
簾	-13.456
俞	-13.4566
綾	-13.457
囓	-13.4572
屯	-13.4574
咦	-13.4576
茹	-13.4583
牡	-13.5067
蛛	-13.5068
饗	-13.5071
孺	-13.5081
螟	-13.5082
𠥶	-13.5083
徊	-13.5084
灯	-13.5085
嚚	-13.5086
蚋	-13.5086
䖍	-13.5087
懱	-13.5089
簪	-13.5089
亹	-13.509
閹	-13.509
菡	-13.5092
裘	-13.5094
袍	-13.5094
緝	-13.5097
瑣	-13.5097
仿	-13.5097
瓚	-13.5097
偕	-13.5097
髭	-13.5098
鉅	-13.5098
拊	-13.5099
蘄	-13.5099
顙	-13.5099
鯁	-13.5101
昊	-13.5102
逶	-13.5102
燿	-13.5103
洩	-13.5104
哽	-13.5104
渟	-13.5104
峩	-13.5104
搗	-13.5104
腑	-13.5105
窈	-13.5105
彖	-13.5105
鐫	-13.5107
絮	-13.5108
涸	-13.5108
俚	-13.511
儛	-13.511
刷	-13.511
軋	-13.5113
螻	-13.5114
軼	-13.5115
砰	-13.5116
撙	-13.5116
柝	-13.5117
璨	-13.5117
熢	-13.5118
蛾	-13.5119
拗	-13.512
蔣	-13.512
娉	-13.5122
筮	-13.5124
橛	-13.5128
址	-13.5132
嵆	-13.5655
伇	-13.5656
詫	-13.5656
蚪	-13.5658
𩬊	-13.5658
睦	-13.5658
􂍧	-13.5661
啇	-13.5663
爼	-13.5664
祛	-13.5666
詒	-13.5666
欒	-13.5667
劃	-13.567
奸	-13.567
獠	-13.567
礦	-13.5671
扞	-13.5671
拉	-13.5675
斐	-13.5675
晞	-13.5676
𠍴	-13.5677
舂	-13.5677
霆	-13.5678
翱	-13.5678
躐	-13.5682
熒	-13.5684
隟	-13.5684
齟	-13.5685
蘖	-13.5686
翛	-13.5687
駃	-13.5689
諛	-13.5691
葡	-13.5692
敞	-13.5692
杏	-13.5692
槐	-13.5695
恙	-13.5696
謔	-13.5697
葺	-13.5698
虻	-13.5699
鱉	-13.5699
眚	-13.5703
瘥	-13.5704
蛤	-13.5704
坯	-13.5707
儞	-13.5709
炊	-13.5711
獦	-13.5716
蠶	-13.5718
臚	-13.5718
濮	-13.5718
觔	-13.5722
䥫	-13.5724
癥	-13.5784
泫	-13.6258
𩔗	-13.6272
轎	-13.6273
廈	-13.6276
敭	-13.6276
瞭	-13.6278
澗	-13.6278
邕	-13.628
忉	-13.6281
仆	-13.6283
卛	-13.6283
瑯	-13.6286
瑛	-13.6286
噪	-13.6288
閫	-13.6292
杉	-13.6293
躇	-13.6294
慍	-13.6295
􂔔	-13.6297
亶	-13.6297
𨤲	-13.6298
奐	-13.6298
堀	-13.6298
璃	-13.6299
迪	-13.6299
䑛	-13.6301
寘	-13.6301
獺	-13.6301
串	-13.6302
劈	-13.6302
姙	-13.6303
繪	-13.6303
祟	-13.6304
腳	-13.6304
稿	-13.6304
晷	-13.6305
漱	-13.6305
吊	-13.6308
㐫	-13.6308
瞢	-13.6308
椶	-13.6308
撤	-13.631
穭	-13.631
肪	-13.631
絆	-13.6311
暎	-13.6311
捻	-13.6314
頊	-13.6315
癃	-13.6315
嗤	-13.6315
笇	-13.6316
鎚	-13.6316
綫	-13.6317
檝	-13.6317
瑠	-13.6318
惚	-13.632
閩	-13.632
嵬	-13.632
熬	-13.632
刖	-13.6326
蝍	-13.6326
冉	-13.6327
賽	-13.6327
砥	-13.6327
輗	-13.6328
闌	-13.6331
窹	-13.6331
闠	-13.6336
癖	-13.6357
卍	-13.6942
𨽾	-13.6943
霅	-13.6946
佯	-13.6951
𠯗	-13.6951
咩	-13.6953
彎	-13.6955
搥	-13.6955
冑	-13.6956
逞	-13.6956
倨	-13.6956
厝	-13.6958
憀	-13.6959
黶	-13.6959
扃	-13.696
椿	-13.696
嚯	-13.6962
耄	-13.6962
曄	-13.6962
泗	-13.6962
槽	-13.6963
荏	-13.6963
崗	-13.6965
唬	-13.6966
颯	-13.6966
蔀	-13.6967
慵	-13.6969
傘	-13.6971
俜	-13.6971
裙	-13.6971
蛉	-13.6971
鞍	-13.6972
漕	-13.6972
慟	-13.6972
蛟	-13.6973
凜	-13.6974
瞰	-13.6974
鯨	-13.6976
淘	-13.6976
噍	-13.6976
轆	-13.6976
矇	-13.6976
莅	-13.6977
烝	-13.6979
凰	-13.698
𥇒	-13.6981
戢	-13.6981
惹	-13.6981
絳	-13.6983
鬢	-13.6983
協	-13.6985
臠	-13.6986
觝	-13.6986
鶻	-13.6988
錐	-13.6988
顇	-13.6988
宦	-13.6989
籥	-13.699
覷	-13.6991
葵	-13.6991
賚	-13.6992
肚	-13.6992
覃	-13.6992
劄	-13.6992
脯	-13.6993
蘂	-13.6994
磕	-13.6995
黿	-13.6996
拽	-13.6998
羹	-13.6998
皴	-13.7
卞	-13.7
弭	-13.7
痾	-13.7007
㝡	-13.7008
笞	-13.7012
羬	-13.7014
筐	-13.7028
僃	-13.7639
屐	-13.7641
佃	-13.7647
夸	-13.765
髫	-13.7653
a	-13.7653
渙	-13.7656
謫	-13.7657
毉	-13.7658
牲	-13.7662
嚕	-13.7662
驍	-13.7663
懵	-13.7663
畝	-13.7664
蜎	-13.7664
昃	-13.7667
擥	-13.767
倡	-13.7672
鈆	-13.7672
擐	-13.7673
蔚	-13.7674
幣	-13.7676
蓍	-13.7677
狽	-13.7678
唅	-13.7678
淅	-13.7681
蟾	-13.7681
亨	-13.7681
鑞	-13.7681
槨	-13.7683
憔	-13.7684
垛	-13.7685
岌	-13.7686
裓	-13.7686
喎	-13.7686
勛	-13.7687
縻	-13.7687
蛣	-13.769
詆	-13.7691
蘤	-13.7692
黯	-13.7693
盍	-13.7695
簧	-13.7695
慠	-13.7695
櫚	-13.7696
牸	-13.7696
銛	-13.7696
𡀗	-13.7697
黐	-13.7697
勁	-13.7697
紏	-13.7697
儕	-13.7698
趁	-13.7698
甯	-13.7698
跣	-13.77
醬	-13.77
蝗	-13.7701
弋	-13.7701
倪	-13.7702
訕	-13.7702
哨	-13.7702
泝	-13.7703
撾	-13.7703
飱	-13.7703
竈	-13.7704
隊	-13.7707
繳	-13.7708
譙	-13.7709
蠑	-13.7709
啜	-13.771
遄	-13.7712
狖	-13.7714
鴆	-13.7714
頺	-13.7716
癊	-13.7719
潘	-13.7721
塼	-13.7722
晤	-13.7722
苐	-13.7724
悷	-13.7726
羆	-13.7741
尻	-13.8414
尒	-13.8419
曝	-13.8423
譔	-13.8424
詁	-13.8424
弢	-13.8424
糯	-13.8426
覬	-13.8427
蕋	-13.8431
𢩁	-13.8434
辣	-13.8434
挐	-13.8435
𣆶	-13.8436
玻	-13.8437
褻	-13.8438
氳	-13.844
鍱	-13.844
𠝶	-13.844
癕	-13.844
曦	-13.844
孛	-13.8441
埽	-13.8442
咆	-13.8442
訝	-13.8446
刮	-13.8446
虱	-13.8446
蝠	-13.8446
齬	-13.8447
甑	-13.8447
堦	-13.8447
踠	-13.8449
剉	-13.845
蛻	-13.8452
蝙	-13.8452
甌	-13.8453
顦	-13.8453
抃	-13.8455
綬	-13.8457
廩	-13.8457
袈	-13.8457
檄	-13.8457
疹	-13.8457
霖	-13.8457
昴	-13.8458
很	-13.8459
蘚	-13.846
彬	-13.846
搬	-13.8463
傚	-13.8464
睒	-13.8465
瓫	-13.8465
晈	-13.8465
櫁	-13.8465
􂌦	-13.8465
愔	-13.8467
俠	-13.8467
撞	-13.8468
摹	-13.8469
臗	-13.847
氐	-13.8472
騖	-13.8472
攣	-13.8475
賄	-13.8476
丐	-13.8478
漾	-13.8479
墉	-13.848
癢	-13.8482
滂	-13.8482
麋	-13.8487
瓢	-13.8489
撝	-13.849
䓗	-13.8492
虹	-13.8493
窠	-13.8498
痺	-13.8505
懋	-13.8508
踧	-13.8508
𣗥	-13.9231
彝	-13.9234
醞	-13.9253
夥	-13.9255
姥	-13.9256
璋	-13.9256
頁	-13.926
宂	-13.926
謐	-13.9261
醍	-13.9264
躰	-13.9267
弛	-13.9267
𤛓	-13.9272
碓	-13.9272
嚧	-13.9273
霈	-13.9273
菔	-13.9273
灋	-13.9274
􂐴	-13.9274
韞	-13.9275
俻	-13.9277
宕	-13.9279
掇	-13.9279
湮	-13.9279
澈	-13.928
迃	-13.9281
轝	-13.9281
僥	-13.9283
巒	-13.9284
琮	-13.9284
叚	-13.9285
檠	-13.9286
餉	-13.9287
壘	-13.9287
褊	-13.9288
虜	-13.9288
悌	-13.9288
廂	-13.9288
喙	-13.9289
堤	-13.9289
槊	-13.9289
紳	-13.9289
穹	-13.9289
杼	-13.9289
勺	-13.9289
怏	-13.9289
曯	-13.929
繭	-13.9291
濬	-13.9291
膞	-13.9292
㔸	-13.9293
斃	-13.9293
駞	-13.9294
嗷	-13.9295
餒	-13.9296
紋	-13.9296
䆿	-13.9297
匣	-13.9297
𥪰	-13.9299
遡	-13.93
窗	-13.93
謄	-13.9302
蓆	-13.9302
診	-13.9302
鋤	-13.9302
迯	-13.9302
庿	-13.9303
妥	-13.9305
萍	-13.9305
倏	-13.9305
箏	-13.9306
擢	-13.9306
扈	-13.9307
醴	-13.9307
筯	-13.9307
豸	-13.9307
礡	-13.9307
痢	-13.9311
瓮	-13.9311
淋	-13.9311
沚	-13.9314
麈	-13.9315
壠	-13.9315
堊	-13.9315
揑	-13.9316
哩	-13.9319
軄	-13.9319
柁	-13.932
悛	-13.932
噦	-13.9323
愷	-13.9323
𢤱	-13.9323
茄	-13.9327
匐	-13.9327
蟹	-13.933
憋	-13.9333
苴	-13.9334
菉	-13.9334
盃	-13.9357
濾	-14.0142
𥠖	-14.0143
鵽	-14.0151
泳	-14.0153
悳	-14.0155
弉	-14.0161
双	-14.0164
攙	-14.0165
訐	-14.0166
壃	-14.017
裰	-14.0171
𦵔	-14.0171
鄮	-14.0171
犲	-14.0173
帋	-14.0174
歆	-14.0177
敲	-14.0178
饕	-14.0178
轤	-14.0178
鶚	-14.0179
檮	-14.0181
怫	-14.0182
匇	-14.0183
蘿	-14.0186
凳	-14.0186
錘	-14.0187
咤	-14.0187
覡	-14.0187
醇	-14.0188
刳	-14.0189
愀	-14.019
墩	-14.0191
搭	-14.0192
岩	-14.0192
窶	-14.0192
芟	-14.0194
餧	-14.0194
糖	-14.0194
綢	-14.0194
峽	-14.0195
薛	-14.0196
鉾	-14.0196
轡	-14.0197
毓	-14.0197
膂	-14.0197
巋	-14.0199
戕	-14.02
𤚼	-14.0201
湫	-14.0201
紗	-14.0201
峭	-14.0202
漩	-14.0203
糩	-14.0203
閤	-14.0204
型	-14.0204
猊	-14.0204
毆	-14.0206
甦	-14.0206
嘊	-14.0207
淛	-14.0207
桴	-14.0207
踪	-14.0207
齆	-14.0207
薙	-14.0208
縉	-14.0208
瘉	-14.0209
涘	-14.021
泮	-14.0211
譴	-14.0211
抅	-14.0212
羡	-14.0212
猾	-14.0213
翕	-14.0213
渤	-14.0214
悍	-14.0214
酖	-14.0215
𡁱	-14.0216
籓	-14.0216
藿	-14.0216
痊	-14.0217
售	-14.0218
扯	-14.022
迆	-14.022
畦	-14.022
𥧌	-14.0221
雋	-14.0222
逋	-14.0222
𢍉	-14.0223
驃	-14.0224
罟	-14.0224
駒	-14.0224
犂	-14.0225
蘗	-14.0227
掞	-14.0228
攫	-14.0232
檗	-14.0236
毬	-14.024
蜃	-14.0241
踖	-14.0244
噤	-14.0261
䱜	-14.1147
彙	-14.1152
􂌴	-14.1153
鉐	-14.1154
髖	-14.1163
岑	-14.1164
郛	-14.1166
軰	-14.1166
矝	-14.1169
粇	-14.1171
迁	-14.1171
戹	-14.1174
颰	-14.1175
玦	-14.1176
燔	-14.1177
抂	-14.118
俸	-14.118
烽	-14.118
錮	-14.1181
𨷖	-14.1181
蝨	-14.1184
躳	-14.1184
廡	-14.1185
盋	-14.1186
鳱	-14.1186
鉏	-14.1187
瓘	-14.1187
仝	-14.1188
􂐢	-14.1188
􂐺	-14.1188
𩯭	-14.1188
窪	-14.119
嗇	-14.119
肱	-14.119
翌	-14.119
窘	-14.119
鑠	-14.1192
䯗	-14.1193
癘	-14.1193
袞	-14.1194
坥	-14.1194
店	-14.1194
譌	-14.1194
濛	-14.1195
蜫	-14.1195
穽	-14.1196
笻	-14.1196
躅	-14.1196
眺	-14.1197
撩	-14.1197
籟	-14.1198
礴	-14.1199
倖	-14.1199
墡	-14.12
塤	-14.12
舁	-14.12
呿	-14.1201
餔	-14.1202
蓼	-14.1206
狥	-14.1206
橘	-14.1207
奎	-14.1208
浚	-14.1208
洿	-14.1209
摛	-14.1209
帑	-14.121
昉	-14.1211
捃	-14.1211
纜	-14.1212
覊	-14.1213
頵	-14.1213
惋	-14.1214
歪	-14.1214
賺	-14.1214
琉	-14.1214
袂	-14.1215
䐗	-14.1216
拼	-14.1216
徂	-14.1216
莠	-14.1216
貉	-14.1218
麾	-14.122
塠	-14.122
酣	-14.1221
殯	-14.1221
薏	-14.1221
嫂	-14.1222
褐	-14.1222
擋	-14.1222
繄	-14.1223
蚿	-14.1223
淄	-14.1224
臊	-14.1225
汾	-14.1226
瞀	-14.1226
姻	-14.1228
凑	-14.1231
埤	-14.1232
耿	-14.1233
茟	-14.1233
𨫼	-14.1235
撕	-14.1235
蝸	-14.1237
悒	-14.1238
潢	-14.1239
糗	-14.1242
驀	-14.1246
漣	-14.1248
呦	-14.1252
彤	-14.1252
梲	-14.1257
貁	-14.1259
囈	-14.1261
輊	-14.127
􂕴	-14.2225
泴	-14.2245
賔	-14.2254
嶂	-14.226
𦒿	-14.2261
橦	-14.2261
噞	-14.2269
喁	-14.227
𣈆	-14.227
跰	-14.2271
搩	-14.2271
佀	-14.2273
𪘨	-14.2274
匈	-14.2274
㘅	-14.2275
辤	-14.2279
齜	-14.228
酵	-14.2281
懟	-14.2282
哂	-14.2283
廐	-14.2286
齗	-14.2286
燠	-14.2287
僵	-14.2288
摺	-14.2288
醐	-14.2289
褺	-14.2291
勠	-14.2291
雰	-14.2291
貓	-14.2294
鱓	-14.2294
榛	-14.2294
鰥	-14.2294
舐	-14.2295
隹	-14.2296
跌	-14.2296
潺	-14.2296
畿	-14.2296
𢾗	-14.2297
圊	-14.2298
篪	-14.2298
𨳝	-14.2299
髂	-14.2299
磓	-14.2299
穗	-14.2299
􂓫	-14.2299
眄	-14.23
僶	-14.23
笥	-14.2301
崐	-14.2301
誷	-14.2304
遒	-14.2306
䟤	-14.2306
噴	-14.2306
廨	-14.2308
衾	-14.2309
殼	-14.231
拖	-14.231
翮	-14.2311
麂	-14.2311
喑	-14.2311
薨	-14.2312
翥	-14.2313
椀	-14.2313
遯	-14.2313
悽	-14.2314
廝	-14.2314
㯭	-14.2315
隕	-14.2315
杓	-14.2316
穡	-14.2317
羇	-14.2317
豺	-14.2317
徼	-14.2318
廕	-14.2318
閽	-14.2319
菌	-14.2319
醘	-14.2319
詡	-14.232
藹	-14.232
媛	-14.232
鐶	-14.2321
狷	-14.2321
㸌	-14.2323
菲	-14.2323
縹	-14.2324
邯	-14.2324
郝	-14.2324
卸	-14.2325
鄲	-14.2325
咫	-14.2326
賂	-14.2326
鯉	-14.2328
􂐡	-14.2329
粃	-14.2333
闤	-14.2333
㷿	-14.2334
憧	-14.2335
匃	-14.2335
鯤	-14.2336
蕀	-14.2336
缶	-14.2338
吽	-14.2338
勦	-14.2338
諡	-14.2342
劓	-14.2343
閃	-14.2343
窬	-14.2344
猖	-14.2344
狠	-14.2345
娘	-14.2346
𣫍	-14.2346
覘	-14.2348
刎	-14.2349
醨	-14.2351
栝	-14.2351
糺	-14.2351
槖	-14.2353
夔	-14.2358
䈥	-14.2359
邠	-14.236
覯	-14.236
楮	-14.2363
甃	-14.2371
婿	-14.2371
祴	-14.3486
瞗	-14.3499
𥨊	-14.3501
㨿	-14.3511
竚	-14.3511
􂎹	-14.3515
黔	-14.3515
蠹	-14.3515
堙	-14.3516
閦	-14.3517
搘	-14.3522
啝	-14.3525
沗	-14.3526
騾	-14.3527
仄	-14.3527
箸	-14.3527
唶	-14.3528
耦	-14.3529
餮	-14.353
牝	-14.3531
逭	-14.3531
厓	-14.3531
捴	-14.3532
蜚	-14.3532
恪	-14.3535
竣	-14.3535
衮	-14.3537
蒜	-14.3538
筍	-14.3539
苣	-14.3539
堋	-14.3539
瑪	-14.3539
瑘	-14.3541
惣	-14.3541
麪	-14.3541
諐	-14.3541
羂	-14.3543
龐	-14.3543
輨	-14.3543
驥	-14.3543
蜘	-14.3543
屨	-14.3544
噣	-14.3547
岱	-14.3547
魘	-14.3548
冒	-14.3549
无	-14.3549
輓	-14.3549
陂	-14.3552
婪	-14.3554
泓	-14.3554
懅	-14.3554
挊	-14.3556
苓	-14.3556
飭	-14.3558
捋	-14.3558
牋	-14.3559
𦙽	-14.3559
鼇	-14.3559
諤	-14.3559
陼	-14.356
輾	-14.3561
笠	-14.3561
瓨	-14.3562
跑	-14.3563
妣	-14.3563
晁	-14.3564
棱	-14.3565
縶	-14.3565
饋	-14.3566
喋	-14.3566
曛	-14.3566
磑	-14.3567
痍	-14.3568
鵶	-14.3569
円	-14.3569
勖	-14.357
軔	-14.357
崘	-14.3571
炫	-14.3571
萠	-14.3571
翾	-14.3571
矮	-14.3572
繢	-14.3572
㽵	-14.3572
瀚	-14.3572
佷	-14.3572
兖	-14.3572
穎	-14.3573
縟	-14.3573
昺	-14.3574
牯	-14.3574
豚	-14.3575
璿	-14.3576
瘸	-14.3576
嬴	-14.3577
症	-14.3578
姤	-14.3578
蒐	-14.3578
𣠵	-14.3578
篙	-14.3579
羺	-14.358
幖	-14.3581
媟	-14.3582
圉	-14.3582
諠	-14.3583
鑷	-14.3583
䎡	-14.3587
斲	-14.3589
鶩	-14.359
䏲	-14.3591
劭	-14.3591
煜	-14.3595
􂑒	-14.3595
黽	-14.3596
拷	-14.3596
簇	-14.3596
駑	-14.3596
㿇	-14.3596
薺	-14.3596
鐺	-14.3597
壙	-14.3599
輥	-14.3599
撒	-14.3599
瓞	-14.3599
樗	-14.36
耑	-14.36
螂	-14.36
紕	-14.36
愓	-14.3602
榆	-14.3603
貙	-14.3603
痼	-14.3603
圃	-14.3604
棋	-14.3604
衙	-14.3605
狺	-14.3615
磚	-14.3624
縊	-14.363
骯	-14.363
赳	-14.363
蠒	-14.3647
弈	-14.493
䘏	-14.4942
从	-14.4949
侹	-14.495
洼	-14.4951
掊	-14.4963
搪	-14.4966
儆	-14.4967
埒	-14.4971
慓	-14.4973
悸	-14.4973
叅	-14.4974
嘖	-14.4976
坂	-14.4978
橙	-14.4978
櫪	-14.4978
睇	-14.4978
侏	-14.4978
捿	-14.4979
幬	-14.4979
慴	-14.4979
戇	-14.4979
涿	-14.498
㩲	-14.4981
䫌	-14.4983
碣	-14.4983
眵	-14.4984
漲	-14.4985
皁	-14.4985
玕	-14.4986
㑦	-14.4987
抖	-14.4987
妮	-14.4987
燾	-14.4989
咂	-14.499
溯	-14.4991
漪	-14.4992
甬	-14.4993
䐇	-14.4993
侫	-14.4993
吮	-14.4993
夤	-14.4993
澇	-14.4994
爺	-14.4994
歉	-14.4996
摳	-14.5
屩	-14.5
玲	-14.5001
捩	-14.5002
㓟	-14.5002
巔	-14.5003
杆	-14.5005
渝	-14.5005
棊	-14.5006
殽	-14.5006
瘵	-14.5007
僖	-14.501
侚	-14.5011
搨	-14.5011
滬	-14.5012
璫	-14.5012
獐	-14.5013
瓣	-14.5013
曀	-14.5015
瀛	-14.5016
䐔	-14.5017
椒	-14.5019
埠	-14.502
圯	-14.5024
孾	-14.5027
桉	-14.5027
瓷	-14.5027
湕	-14.5027
溘	-14.5028
廌	-14.5036
佽	-14.5038
㹬	-14.5039
匍	-14.5059
㺃	-14.5059
恧	-14.5093
薝	-14.6636
蕉	-14.6644
篌	-14.8621
臾	-14.8624
-	-14.8637
擻	-15.1185
箜	-15.4474
芭	-15.4545
裟	-15.9453
獼	-15.9525
𧧌	-15.9554
恁	-15.9566
瓈	-16.9445
蹭	-16.9503
駙	-16.9503
蓉	-16.9505
暐	-16.9506
𠓆	-16.9506
蟇	-16.9508
沱	-16.9508
蟷	-16.951
窕	-16.951
俙	-16.9512
邲	-16.9513
惒	-16.9513
嶇	-16.9515
徘	-16.9515
圄	-16.9517
囹	-16.9517
剞	-16.9519
茘	-16.952
躊	-16.952
嚀	-16.9522
[	-16.9522
婇	-16.9524
+	-16.9524
琥	-16.9526
珀	-16.9527
瑚	-16.9527
o	-16.9529
N	-16.9529
>	-16.9531
—	-16.9531
|	-16.9533
■	-16.9534
蚣	-16.9534
蜈	-16.9534
