<unk>	0
<s>	0
</s>	0
,	-2.42803
。	-3.03493
、	-4.03126
:	-4.83904
▁*	-5.00353
者	-5.12924
的	-5.13542
之	-5.143
也	-5.14452
一	-5.20815
為	-5.22434
;	-5.29306
〕	-5.3128
有	-5.31318
二	-5.31746
「	-5.32906
故	-5.37324
》	-5.39737
《	-5.42224
▁〔	-5.42894
不	-5.43765
是	-5.5004
無	-5.54048
」	-5.58113
於	-5.59495
三	-5.59628
心	-5.59659
中	-5.65323
:「	-5.67624
明	-5.68038
以	-5.72278
。」	-5.72979
?	-5.73449
法	-5.74143
)	-5.79032
而	-5.81451
此	-5.82704
人	-5.84747
行	-5.85684
(	-5.86788
生	-5.9414
如	-5.95414
在	-5.96826
等	-5.9689
▁	-5.99222
相	-6.00812
大	-6.02783
與	-6.05351
佛	-6.08712
我	-6.1126
即	-6.13585
四	-6.1365
說	-6.14463
得	-6.14718
若	-6.15419
經	-6.15751
言	-6.16605
所	-6.16907
時	-6.18356
其	-6.19443
身	-6.21394
見	-6.22673
非	-6.23986
名	-6.28781
自	-6.34902
能	-6.36132
諸	-6.36264
上	-6.39445
道	-6.4483
因	-6.4488
五	-6.48183
彼	-6.4842
應	-6.49153
曰	-6.49352
及	-6.49364
本	-6.49773
從	-6.50611
菩薩	-6.50643
。】「	-6.52786
】	-6.53455
作	-6.54304
依	-6.54662
義	-6.55022
▁【	-6.568
了	-6.5835
處	-6.61156
眾生	-6.62422
如來	-6.63292
他	-6.63662
受	-6.63921
地	-6.65311
則	-6.65401
已	-6.68011
後	-6.69068
。」【	-6.6969
至	-6.7008
謂	-6.70599
成	-6.71353
問	-6.71457
空	-6.72531
常	-6.73521
苦	-6.73531
或	-6.74698
入	-6.74985
多	-6.75826
分二	-6.76344
天	-6.76633
亦	-6.78147
下	-6.78192
。(	-6.78247
事	-6.7863
前	-6.79355
觀	-6.79407
解	-6.79721
可	-6.7973
出	-6.80011
當	-6.81483
修	-6.81789
-	-6.82617
欲	-6.83106
善	-6.83385
由	-6.83562
一切	-6.838
起	-6.84023
子	-6.84066
果	-6.84224
又	-6.84227
如是	-6.84335
初	-6.85043
來	-6.85915
對	-6.85949
知	-6.87148
釋	-6.87774
文	-6.8867
王	-6.88763
緣	-6.89401
理	-6.90312
色	-6.90393
皆	-6.91105
云	-6.91416
住	-6.91986
意	-6.92671
同	-6.93929
體	-6.94297
卷	-6.94513
性	-6.94764
眾	-6.95361
未	-6.96256
智	-6.96574
但	-6.97904
難	-6.98083
正	-6.99519
願	-7.00626
定	-7.00758
論	-7.00845
念	-7.01756
號	-7.04002
分	-7.04523
門	-7.0517
六	-7.05871
真	-7.06464
!	-7.07528
答	-7.07835
今	-7.07992
盡	-7.08193
業	-7.09562
肇	-7.10295
現	-7.10793
教	-7.11571
離	-7.11797
何	-7.12584
淨	-7.12728
雖	-7.13053
八	-7.13078
用	-7.13125
。「	-7.15215
識	-7.16407
著	-7.18928
▁|	-7.19704
將	-7.20496
別	-7.207
斷	-7.2129
先	-7.21981
想	-7.22352
令	-7.225
破	-7.22561
滅	-7.22729
聞	-7.22957
七	-7.23022
求	-7.24251
界	-7.24886
取	-7.24982
隨	-7.25028
世尊	-7.25456
會	-7.25785
復	-7.25966
十	-7.26909
境	-7.27112
樂	-7.27253
和	-7.28563
過	-7.30136
唯	-7.31011
日	-7.32009
實	-7.3214
功德	-7.32459
內	-7.32861
外	-7.3299
戒	-7.33634
年	-7.33694
利	-7.35196
卯	-7.35257
結	-7.35584
證	-7.35659
光	-7.36106
力	-7.36312
持	-7.36317
除	-7.36339
化	-7.36726
罪	-7.37153
〔	-7.38054
學	-7.38297
然	-7.38309
方	-7.38449
耶	-7.38561
立	-7.39099
要	-7.39236
師	-7.3935
就	-7.39453
食	-7.3973
去	-7.41107
德	-7.41239
」。	-7.41334
重	-7.41422
部	-7.41681
通	-7.41863
次	-7.42126
語	-7.42385
水	-7.42411
施	-7.42625
」,	-7.42644
引	-7.42664
報	-7.43621
汝	-7.43774
根	-7.44249
煩惱	-7.44267
寅	-7.44342
那	-7.44388
開	-7.45349
世	-7.46233
都	-7.46254
既	-7.46278
信	-7.46352
辰	-7.46505
錄	-7.46938
。)	-7.46965
還	-7.47023
不能	-7.47278
己	-7.47706
解脫	-7.48011
深	-7.4854
丑	-7.48703
勝	-7.49349
並	-7.49369
慧	-7.49492
妙	-7.49743
稱	-7.49799
所以	-7.50288
巳	-7.51187
命	-7.51256
俱	-7.51651
主	-7.51806
供養	-7.5236
到	-7.52396
聖	-7.5242
藏	-7.52582
福	-7.52696
神	-7.52741
餘	-7.52787
具	-7.52797
愛	-7.52945
辛	-7.52957
云何	-7.53113
壬	-7.53134
父母	-7.53251
僧	-7.53364
名為	-7.54781
捨	-7.54822
分三	-7.55368
兩	-7.55407
清淨	-7.55452
集	-7.55575
物	-7.55645
顯	-7.55808
惡	-7.571
位	-7.57167
死	-7.57593
香	-7.57936
使	-7.58057
向	-7.58327
覺	-7.59168
品	-7.59686
度	-7.59915
約	-7.60242
真言	-7.6035
指	-7.61639
寶	-7.62334
異	-7.62774
涅槃	-7.62994
須	-7.63637
轉	-7.63882
親	-7.63997
阿	-7.64536
分別	-7.64567
國	-7.64955
請	-7.65144
廣	-7.65188
斯	-7.65296
這	-7.65333
攝	-7.65666
長	-7.66575
合	-7.66642
發	-7.66646
乃	-7.66783
標	-7.66924
月	-7.67144
癸	-7.67188
宗	-7.67254
聲	-7.67295
唵	-7.6845
照	-7.69013
生死	-7.69198
a	-7.69668
悟	-7.70503
傳	-7.70539
有情	-7.71433
即是	-7.71898
地獄	-7.72091
便	-7.72265
共	-7.72436
第二	-7.73079
須菩提	-7.73252
數	-7.74031
悉	-7.74712
九	-7.74715
.	-7.75111
你	-7.75302
被	-7.75325
好	-7.75737
法身	-7.75788
海	-7.75859
止	-7.7589
母	-7.76574
更	-7.7721
火	-7.77349
喻	-7.77599
執	-7.77862
菩提	-7.77929
》、《	-7.78355
家	-7.78714
大乘	-7.79117
總	-7.79263
世間	-7.79322
極	-7.79633
流	-7.81013
比丘	-7.8113
造	-7.81254
羅	-7.81482
。」「	-7.81642
遍	-7.81654
萬	-7.82235
必	-7.82622
類	-7.83088
不同	-7.83208
形	-7.83705
情	-7.84273
眼	-7.84829
世界	-7.85137
病	-7.85284
山	-7.85654
坐	-7.85891
目	-7.86203
小	-7.86668
諸佛	-7.86835
庚	-7.87276
丁	-7.87294
舉	-7.87484
金	-7.87534
思	-7.88265
白	-7.88295
字	-7.88373
南無	-7.88857
第一	-7.89033
無量	-7.89148
普	-7.90636
凡	-7.90643
種	-7.90875
花	-7.91026
劫	-7.91546
午	-7.92149
禮	-7.92418
貪	-7.92517
」【	-7.92522
各	-7.92653
略	-7.92717
爾時	-7.93899
滿	-7.94059
帝	-7.9497
方便	-7.95581
?」	-7.95917
乘	-7.95926
千	-7.96198
往	-7.96589
動	-7.97356
修行	-7.97764
蘊	-7.98133
記	-7.98156
7	-7.98171
註釋	-7.98274
惑	-7.98411
終	-7.98449
禪	-7.98471
不應	-7.98802
觸	-7.99687
3	-7.99703
無有	-7.99982
安	-8.00121
頭	-8.00185
恩	-8.00384
失	-8.00432
且	-8.00445
.)	-8.00467
口	-8.00584
耳	-8.00991
量	-8.01032
把	-8.01267
丙	-8.01392
可以	-8.01602
不可	-8.01796
遠	-8.01913
百	-8.02933
是故	-8.03453
存	-8.03601
護	-8.0409
自在	-8.04166
障	-8.04733
女	-8.0502
高	-8.05586
衣	-8.05979
達	-8.0612
佛教	-8.06233
不得	-8.07097
妄	-8.07378
書	-8.07567
許	-8.07918
金剛	-8.08126
□...□	-8.08213
尊	-8.0841
足	-8.08585
)。	-8.08818
迷	-8.09304
面	-8.09354
始	-8.09551
所有	-8.10384
一卷	-8.11383
疑	-8.11899
智慧	-8.1213
悲	-8.12184
聚	-8.13274
少	-8.14278
示	-8.14422
戊	-8.14743
差別	-8.14768
三界	-8.1491
第三	-8.15217
歸	-8.15454
他們	-8.15583
句	-8.16224
它	-8.1629
近	-8.16298
阿難	-8.16362
忍	-8.16805
成就	-8.16805
加持	-8.16917
歡喜	-8.17087
道場	-8.17336
無常	-8.17488
聽	-8.17638
順	-8.17908
最	-8.18048
手	-8.18063
6	-8.18222
現在	-8.18482
於彼	-8.18541
T	-8.1866
乃至	-8.18929
勸	-8.19258
十二	-8.19481
慈	-8.19725
味	-8.19731
風	-8.19761
誰	-8.19839
無相	-8.20059
莫	-8.20079
新	-8.2017
囉	-8.20467
8	-8.20564
如此	-8.20578
感	-8.21918
喜	-8.22127
首	-8.22447
疏	-8.22487
婆	-8.22682
如何	-8.22765
平等	-8.22819
這個	-8.23028
娑婆訶	-8.23058
久	-8.23209
以為	-8.2329
加	-8.2383
夫	-8.24019
偈	-8.24035
座	-8.24066
城	-8.24235
密	-8.24296
看	-8.24749
安樂	-8.24997
土	-8.2507
輪	-8.25117
乙	-8.25128
尋	-8.25531
邪	-8.25751
波	-8.25798
何以故	-8.26195
今初	-8.26373
塵	-8.26379
諸法	-8.26542
敬	-8.26579
部分	-8.26854
微	-8.26877
齋	-8.27086
像	-8.27235
啊	-8.27437
法界	-8.27543
個	-8.27871
益	-8.27921
無明	-8.27945
具足	-8.27949
因緣	-8.27985
害	-8.28028
居	-8.28184
全	-8.28347
遮	-8.28972
供	-8.29051
圓滿	-8.29052
列	-8.29222
奉	-8.29336
我們	-8.29423
象	-8.29474
直	-8.29748
莊嚴	-8.29756
寺	-8.29797
述	-8.29805
所說	-8.30236
r	-8.31088
一切眾生	-8.31229
勤	-8.31242
猶	-8.31513
沒有	-8.31606
豈	-8.31619
精進	-8.31784
凡夫	-8.31934
是名	-8.32006
該	-8.32022
孝	-8.32195
壞	-8.32745
印	-8.32818
說法	-8.32977
諸比丘	-8.33122
」(	-8.33148
中有	-8.3336
2	-8.3351
聲聞	-8.33556
告	-8.33597
1	-8.33996
清	-8.34013
雜	-8.34593
一個	-8.34721
誦	-8.34766
慈悲	-8.35151
散	-8.35194
獨	-8.35252
燈	-8.35699
5	-8.3574
變	-8.35987
息	-8.36167
分四	-8.36703
粗	-8.37116
魔	-8.37194
故論文言	-8.37298
肉	-8.37735
摩	-8.38018
假	-8.384
譯	-8.38838
國王	-8.3893
趣	-8.38997
某	-8.39058
所謂	-8.39204
i	-8.39289
樹	-8.39394
故言	-8.39533
自性	-8.39588
三念佛	-8.40215
表	-8.40319
陀	-8.40323
弟子	-8.40558
財	-8.40614
間	-8.40652
永	-8.41418
似	-8.41524
不見	-8.42128
亦無	-8.42282
爾	-8.42718
她	-8.43118
龍	-8.43229
父	-8.4342
研究	-8.438
增	-8.43961
第	-8.44131
圓	-8.4426
無邊	-8.44269
三寶	-8.44314
迦	-8.44358
蓋	-8.44473
第四	-8.44504
虛空	-8.44722
頌	-8.44923
尚	-8.44993
嚴	-8.45069
乎	-8.45143
十方	-8.45305
此二	-8.45439
之人	-8.45482
興	-8.45571
原	-8.45693
致	-8.45921
絕	-8.45985
周	-8.45996
亂	-8.46067
鼻	-8.46071
我今	-8.46274
不生	-8.46343
而不	-8.46585
伽	-8.46716
其中	-8.46734
夜	-8.46736
救	-8.47236
於此	-8.47335
曾	-8.47454
提	-8.4764
佛言	-8.47801
細	-8.48148
承	-8.4831
遇	-8.48863
藥	-8.49079
功	-8.49237
嚩	-8.49247
不知	-8.49317
t	-8.49417
計	-8.4945
種種	-8.49649
此經	-8.49751
般若	-8.49751
制	-8.49791
瞋	-8.49963
讚	-8.49998
福德	-8.50401
古	-8.50661
過去	-8.50726
虛	-8.51067
寧	-8.51186
邊	-8.51299
之中	-8.51483
哩	-8.51604
e	-8.51622
寂	-8.51643
故名	-8.51927
這些	-8.52181
積	-8.52527
齊	-8.52641
室	-8.52709
真如	-8.52717
紙	-8.52989
自然	-8.53004
比	-8.5312
卻	-8.53199
何故	-8.53594
序	-8.53679
出家	-8.53995
甲	-8.54036
雲	-8.54411
無漏	-8.54518
再	-8.54638
墮	-8.54785
進	-8.54982
放	-8.55003
之心	-8.55073
歎	-8.55182
□	-8.55694
二者	-8.55724
犯	-8.55795
猶如	-8.55949
究竟	-8.56186
支	-8.56459
河	-8.56559
容	-8.56999
靈	-8.57116
殘	-8.57495
白佛言	-8.57519
屬	-8.5757
無生	-8.57621
殺	-8.57798
祇	-8.57802
u	-8.58028
已經	-8.58175
收	-8.58282
上述	-8.58468
無為	-8.58626
摩訶	-8.58629
舌	-8.58633
僅	-8.5882
咒	-8.58946
續	-8.59003
治	-8.59093
給	-8.59168
任	-8.59178
尼	-8.59284
決定	-8.59324
禪藏	-8.5938
精	-8.5958
伏	-8.59595
哆	-8.59726
經曰	-8.59826
此初	-8.59978
尊者	-8.60273
經典	-8.60298
覆	-8.60328
解釋	-8.60343
ā	-8.60365
生起	-8.60413
習	-8.60434
佛如來	-8.60557
亡	-8.60728
養	-8.61092
甚	-8.61263
二乘	-8.61281
一一	-8.61405
不動	-8.61473
節	-8.61613
華	-8.61743
超	-8.61783
強	-8.61841
大眾	-8.62134
末	-8.622
亦不	-8.62279
光明	-8.62311
設	-8.62339
迴向	-8.62835
ya	-8.62925
他人	-8.63249
損	-8.63373
思維	-8.63722
竟	-8.64037
利益	-8.64081
底	-8.64192
沒	-8.64224
是以	-8.64247
之時	-8.64398
縛	-8.64437
然後	-8.64461
佛說	-8.64579
次第	-8.64733
由於	-8.64756
簡	-8.65055
回	-8.65133
老	-8.65549
舍利弗	-8.65605
機	-8.65623
相續	-8.65658
律	-8.66123
一時	-8.66138
推	-8.6618
音	-8.66263
燒	-8.66423
大悲	-8.66535
陰	-8.66662
0	-8.66961
不淨	-8.66975
輕	-8.67043
昔	-8.67642
之法	-8.67815
此中	-8.67845
仍	-8.67891
之理	-8.67895
故云	-8.67927
路	-8.68023
」、「	-8.68116
菩提心	-8.68271
經文	-8.68322
北	-8.68409
速	-8.68453
繫	-8.68483
宣	-8.68545
太子	-8.68653
裏	-8.68821
寫	-8.68884
人天	-8.68934
梵	-8.69095
正法	-8.6964
內容	-8.69855
一切法	-8.70026
尾	-8.70563
小乘	-8.70624
故知	-8.70745
勿	-8.70775
懷	-8.70823
輪迴	-8.7083
三昧	-8.70991
禪定	-8.70996
三乘	-8.71162
因果	-8.71235
外道	-8.71436
文字	-8.71606
聖人	-8.71666
俗	-8.71695
望	-8.7172
舍	-8.71741
代	-8.71922
矣	-8.71943
目錄	-8.72056
一念	-8.7209
觀察	-8.72126
官	-8.72348
端	-8.72418
含	-8.72504
雙	-8.72542
4	-8.72556
贊	-8.72586
之因	-8.72602
自己	-8.72676
我等	-8.72803
每	-8.73102
生滅	-8.73296
以此	-8.73304
毗	-8.7361
不住	-8.73662
脫	-8.73727
伯	-8.73801
大士	-8.73857
如論	-8.73933
染	-8.73946
貪著	-8.74063
群	-8.74082
釋曰	-8.74096
所作	-8.74185
10	-8.74249
期	-8.74261
婆羅門	-8.74369
分明	-8.74463
未來	-8.74485
講	-8.74605
反	-8.74694
林	-8.74765
傷	-8.74902
遂	-8.74995
半	-8.75016
君	-8.75426
無我	-8.75568
佛法	-8.75671
待	-8.75881
之所	-8.75972
三種	-8.75997
據	-8.76017
殊	-8.76051
帙	-8.76078
k	-8.76293
麼	-8.76423
這樣	-8.76596
特	-8.7671
ta	-8.76787
娑	-8.76795
顛倒	-8.7683
此是	-8.76908
倒	-8.77283
遊	-8.77453
平	-8.77682
s	-8.77831
南	-8.78162
漏	-8.78242
諦	-8.78281
濟	-8.78613
靜	-8.78619
維摩詰	-8.78622
淨土	-8.7881
諸天	-8.78894
堅	-8.78972
訶	-8.79108
善法	-8.79111
當時	-8.79158
對治	-8.79483
907	-8.79866
氣	-8.79951
佛性	-8.80049
。」】「	-8.80081
無上	-8.80258
編	-8.80275
。」(	-8.80389
所依	-8.80422
二釋	-8.80749
切	-8.80879
愚	-8.80879
因此	-8.80951
又問	-8.80955
沙門	-8.81202
智者	-8.81266
o	-8.81287
毒	-8.82058
若有	-8.82585
權	-8.82614
獲	-8.82639
刻	-8.82699
玄	-8.83149
成佛	-8.83226
諸眾生	-8.83251
法門	-8.83296
誓	-8.83766
臨	-8.838
宜	-8.83842
皈依	-8.83892
亦名	-8.83916
均	-8.8408
中國	-8.84319
蓮花	-8.8447
敦煌	-8.84493
備	-8.84531
骨	-8.84551
置	-8.84644
恭敬	-8.84813
實相	-8.84817
消	-8.84859
無所	-8.8506
沙	-8.8561
之後	-8.85632
辯	-8.85875
演	-8.8603
況	-8.8644
癡	-8.86511
d	-8.86574
志	-8.86658
石	-8.86804
獄	-8.8699
唐	-8.87183
忘	-8.87263
相應	-8.87545
初中分	-8.87674
能生	-8.87678
垢	-8.87751
陳	-8.87887
發心	-8.87993
談	-8.88021
詞	-8.8819
心中	-8.882
20	-8.88347
惟	-8.88409
冤	-8.88441
悉皆	-8.88472
徒	-8.88622
頂	-8.88638
有一	-8.88844
十四	-8.89001
恒	-8.89198
辨	-8.89302
降	-8.89384
遣	-8.89409
接	-8.8971
受苦	-8.89719
元	-8.89867
落	-8.89927
怖畏	-8.89971
辭	-8.89982
經錄	-8.90251
吽	-8.90406
西	-8.90552
垂	-8.90579
易	-8.90606
馬	-8.907
美	-8.9128
有三	-8.91289
中的	-8.91293
幾	-8.91364
漸	-8.91431
領	-8.91457
歲	-8.91525
礙	-8.91612
穢	-8.91909
守	-8.92115
頓	-8.92129
點	-8.92155
今日	-8.92306
此三	-8.92488
左	-8.92493
疾	-8.92507
彌	-8.92616
棄	-8.92753
鐵	-8.92818
儀	-8.92847
宮	-8.92872
ra	-8.92988
阿羅漢	-8.92994
m	-8.93053
違	-8.93133
關於	-8.93148
壽	-8.93524
牛	-8.93684
認為	-8.93971
源	-8.94104
無盡	-8.94118
十六	-8.94148
弘	-8.94218
境界	-8.94222
士	-8.94407
所緣	-8.94545
身心	-8.94571
憂	-8.9497
賢	-8.95035
寂滅	-8.95235
惱	-8.95332
受用	-8.95373
這一	-8.95559
依據	-8.95608
他的	-8.9564
哉	-8.95736
報恩	-8.95781
患	-8.95813
五百	-8.95931
殊勝	-8.95939
守護	-8.95947
資	-8.96191
懺	-8.96229
獻	-8.96232
注	-8.96324
關	-8.96393
祖	-8.96478
太	-8.96543
器	-8.96582
》(	-8.96675
典籍	-8.97062
鉢	-8.97234
懺悔	-8.97409
9	-8.97431
這種	-8.97462
頌曰	-8.97483
著錄	-8.975
載	-8.97579
由此	-8.97739
互	-8.97781
四種	-8.97865
圓珍	-8.97985
自身	-8.98012
葉	-8.98126
惡趣	-8.98704
就是	-8.98819
內外	-8.98831
盲	-8.98838
車	-8.98866
善根	-8.98955
亦非	-8.99054
善惡	-8.99351
免	-8.99399
野	-8.99436
19	-8.99444
青	-8.99546
第十	-8.99549
旨	-8.99555
留	-8.99675
申	-9.00111
良	-9.003
煞	-9.00405
眷屬	-9.00427
舊	-9.00432
際	-9.00592
的人	-9.00878
毀	-9.00936
作為	-9.00974
例	-9.01088
隱	-9.01181
做	-9.01255
園	-9.01267
g	-9.01289
本文獻	-9.01373
宗密	-9.01573
朝	-9.01785
2、	-9.01868
典	-9.02059
有何	-9.02172
改	-9.02282
產生	-9.02343
最後	-9.02364
15	-9.02556
長者	-9.02563
應該	-9.02639
補	-9.02739
大王	-9.02888
四大	-9.0295
12	-9.0296
走	-9.0349
差	-9.03499
可見	-9.03613
血	-9.0362
十八	-9.03679
?」【	-9.03747
3、	-9.03768
十一	-9.0394
薩	-9.03995
科	-9.04022
堪	-9.0429
皆是	-9.0442
飛	-9.04423
4、	-9.04741
已下	-9.04751
出現	-9.04759
受持	-9.04866
布	-9.04909
雖然	-9.04954
正念	-9.05082
熱	-9.05199
施捨	-9.05266
助	-9.05281
1、	-9.05442
窮	-9.05448
右	-9.05576
三世	-9.05589
復次	-9.05654
鬼	-9.05779
黃	-9.05942
吾	-9.06021
返	-9.06065
ḥ	-9.06096
視	-9.06104
日本	-9.06149
廣大	-9.06305
有二	-9.06626
無礙	-9.06771
冥	-9.06854
篇	-9.06884
娘	-9.06906
退	-9.06928
很	-9.06948
法師	-9.07001
王子	-9.07341
縱	-9.07553
正覺	-9.07597
藏經	-9.07604
抄	-9.07658
第五	-9.07892
諸菩薩	-9.08077
梨	-9.08371
文獻	-9.0845
東	-9.0849
毛	-9.08618
一樣	-9.08746
暫	-9.08861
幻	-9.08867
微塵	-9.0887
題	-9.08886
壇	-9.0911
迦葉	-9.09126
兒	-9.09293
什曰	-9.09411
6、	-9.09415
遭	-9.09418
泥	-9.09436
持戒	-9.09554
章	-9.09966
自他	-9.10003
意識	-9.10182
11	-9.10233
等也	-9.10244
憑	-9.10294
缺	-9.10349
常住	-9.10371
若能	-9.10393
名之為	-9.1041
瞋恚	-9.10456
)(	-9.1046
故曰	-9.10556
神通	-9.10571
應知	-9.1065
詳	-9.10701
怨	-9.11044
一部	-9.11123
運	-9.1114
專	-9.11171
～	-9.11213
飯	-9.11281
解結	-9.11348
,」【	-9.1164
我慢	-9.1165
現前	-9.11975
恐	-9.12014
......	-9.12089
露	-9.12106
百千	-9.12125
布施	-9.12391
得到	-9.12477
馱	-9.12538
▁《	-9.12562
錄文	-9.12668
本來	-9.12669
決	-9.12816
帶	-9.12825
公	-9.12833
善男子	-9.12862
三業	-9.12868
珠	-9.12991
法性	-9.13048
發現	-9.13342
說明	-9.13549
您	-9.13625
如下	-9.13642
蒙	-9.13769
交	-9.13847
之義	-9.14205
災	-9.14233
釋迦	-9.1429
5、	-9.14303
人們	-9.14604
網	-9.14677
宿	-9.14708
慮	-9.14843
大海	-9.15044
出世	-9.151
撰	-9.15386
逆	-9.15466
了知	-9.15545
呢	-9.15629
黑	-9.15665
惠	-9.15681
之道	-9.15681
可知	-9.15689
va	-9.15703
何以得知	-9.15761
有無	-9.16035
補特伽羅	-9.1604
該經	-9.16186
六根	-9.16237
禁	-9.1638
乞	-9.16391
納	-9.16421
咸	-9.16504
鳥	-9.16572
沉	-9.16605
登	-9.16611
打	-9.16632
金剛經	-9.16686
亦應	-9.1675
誠	-9.16951
六度	-9.17119
不離	-9.17303
考	-9.17385
無間	-9.17445
註	-9.17458
纏	-9.17463
星	-9.17524
祗	-9.17524
邪見	-9.18008
大藏經	-9.18134
賊	-9.18339
敘	-9.18391
玉	-9.18424
服	-9.18436
果報	-9.18468
頭陀	-9.18501
於我	-9.18559
建立	-9.18578
n	-9.18679
)「	-9.18679
耆那教	-9.18695
法相	-9.18771
嚕	-9.18951
聖者	-9.18957
喃	-9.19025
詣	-9.19125
完全	-9.19218
敵	-9.19355
圖	-9.19374
附	-9.19378
釐米	-9.19406
木	-9.19479
安立	-9.19483
真實	-9.19652
30	-9.19751
參	-9.19773
寶髻	-9.19823
總結	-9.19882
之事	-9.20037
一者	-9.20049
臣	-9.20066
揚	-9.20155
寒	-9.20292
痛	-9.20402
亦有	-9.20424
畫	-9.20437
乞食	-9.20479
出生	-9.20655
爾時世尊	-9.20691
較	-9.20708
仰	-9.21041
忍辱	-9.21125
厭	-9.21183
單	-9.21198
短	-9.21232
不受	-9.21243
稽首	-9.2127
滿足	-9.21377
論述	-9.21385
休	-9.21656
應當	-9.21681
9、	-9.21702
敷	-9.21719
背	-9.21891
延	-9.21962
任何	-9.22118
讀	-9.22213
適	-9.22226
眾多	-9.2229
三十	-9.22367
14	-9.225
五陰	-9.22555
所生	-9.22661
列名	-9.22771
生活	-9.23138
焰	-9.23147
早	-9.23205
史	-9.23226
盛	-9.23291
若干	-9.23293
哀	-9.2331
如是我聞	-9.23365
什麼	-9.23509
本節	-9.23566
而生	-9.23857
資料	-9.23874
亦是	-9.23888
各各	-9.23985
隸	-9.24105
步	-9.24122
翻	-9.24143
判	-9.24148
陀羅尼	-9.24158
實際	-9.24164
大正藏	-9.24205
」。「	-9.24283
居士	-9.24395
第六	-9.24442
若不	-9.24446
啟	-9.24855
導	-9.24898
吒	-9.24963
具有	-9.25156
刀	-9.25161
它們	-9.252
鑒	-9.25212
影	-9.25225
髮	-9.25343
不善	-9.25348
中間	-9.25355
於意云何	-9.25356
整理	-9.25535
增上	-9.25701
無知	-9.25852
ś	-9.26059
24	-9.26074
根本	-9.26118
謹	-9.26133
是非	-9.26275
看到	-9.26302
歸依	-9.26338
非是	-9.26411
一種	-9.26435
佛告	-9.26518
分五	-9.26532
群生	-9.26647
一乘	-9.26741
色界	-9.26757
十五	-9.27178
貧	-9.27209
na	-9.2726
七日	-9.27304
配	-9.27323
譬如	-9.27394
文三	-9.27408
寶藏	-9.27411
比較	-9.2747
察	-9.27871
不斷	-9.27967
校	-9.28106
闇	-9.28202
徵	-9.28225
睹	-9.2823
吧	-9.28248
如幻	-9.28271
思惟	-9.28449
若無	-9.28701
因為	-9.28706
一心	-9.28743
夢	-9.28806
16	-9.2887
二十	-9.29007
相同	-9.29028
若謂	-9.29138
勞	-9.29392
質	-9.29439
本無	-9.29582
之苦	-9.29733
答曰	-9.29739
威	-9.2985
娑婆	-9.29884
諍	-9.29888
為了	-9.29891
慢	-9.29901
大師	-9.29979
怛	-9.29987
跋	-9.30262
虎	-9.30292
唱	-9.30368
修道	-9.30423
羅漢	-9.30435
錄文完	-9.30448
文殊	-9.30536
種子	-9.30684
成辦	-9.30702
13	-9.30703
只	-9.30749
之處	-9.30774
帝釋	-9.30782
波羅蜜	-9.30791
各種	-9.30931
39	-9.30993
宋	-9.31025
經云	-9.31121
遠離	-9.31139
一標	-9.31205
六道	-9.31318
歷	-9.31435
審	-9.3146
彰	-9.31469
兼	-9.3147
流傳	-9.31609
十三	-9.31714
世俗	-9.31749
通達	-9.31763
苦行	-9.31871
思想	-9.31871
欲界	-9.32011
若爾	-9.32033
一般	-9.32087
雨	-9.3211
淨名	-9.32308
田	-9.3236
於是	-9.32392
唯有	-9.32398
之身	-9.32411
逐	-9.32456
僧祐	-9.3248
侍	-9.32506
不思議	-9.32547
洗	-9.3256
僧人	-9.32582
愚癡	-9.32601
秘密	-9.32632
善哉	-9.32727
17	-9.32849
密教	-9.32891
妄想	-9.32981
利他	-9.33114
恭	-9.33127
二種	-9.33325
地藏	-9.33379
奇	-9.33552
遺	-9.33582
調	-9.33595
崇	-9.33609
投	-9.33648
州	-9.33679
謗	-9.33702
敬福經	-9.33751
有關	-9.34006
痛苦	-9.34287
21	-9.34325
有四	-9.34381
何以	-9.34508
漢	-9.3452
所攝	-9.34638
摧	-9.3468
頗	-9.34694
琉璃	-9.34695
池	-9.34716
萬行	-9.34731
威儀	-9.34753
前後	-9.34946
民	-9.3501
一些	-9.35146
安住	-9.35223
我所	-9.35243
二明	-9.35299
能令	-9.35304
:『	-9.3535
日月	-9.35447
甘露	-9.35722
儀當演	-9.35729
乳	-9.35764
?】「	-9.35807
顏	-9.35818
跡	-9.35835
元年	-9.35849
編纂	-9.35877
所知	-9.35884
彼等	-9.36021
如來說	-9.3603
又解	-9.36054
底本	-9.36141
著作	-9.36144
不起	-9.36213
18	-9.36279
國土	-9.36575
蓮	-9.36679
爭	-9.36749
藥師	-9.36801
呼	-9.36835
飲	-9.36884
連	-9.36903
於諸	-9.36941
包括	-9.36993
不可思議	-9.37036
能成	-9.37047
飲食	-9.37064
鬼神	-9.37234
限	-9.37471
天上	-9.37533
七寶	-9.37667
自己的	-9.37751
負	-9.37926
劣	-9.37948
堂	-9.37961
累	-9.38007
互相	-9.3803
越	-9.38033
慶	-9.38068
固	-9.38074
笑	-9.38096
昏	-9.381
都是	-9.38124
所見	-9.38146
根據	-9.3818
神力	-9.38287
嘆	-9.3855
諸有情	-9.38719
文二	-9.38927
存在	-9.39006
則無	-9.39022
諦實	-9.39174
闕	-9.39182
那些	-9.39197
妻	-9.39219
按照	-9.39226
驚	-9.39266
禮拜	-9.39267
l	-9.39277
——	-9.39279
剎	-9.39285
狀	-9.39285
餓鬼	-9.3929
當知	-9.39431
若人	-9.3965
五種	-9.39734
□□	-9.39806
作用	-9.39874
契	-9.39972
生於	-9.40128
正見	-9.40298
建	-9.40302
佛土	-9.40339
不可得	-9.40354
伺	-9.4041
所得	-9.40457
此下	-9.40588
禪師	-9.40679
三明	-9.40817
一明	-9.4103
顯現	-9.41038
逢	-9.41212
其心	-9.41296
氏	-9.41415
熟	-9.4144
般	-9.41486
臥	-9.41585
兩種	-9.41637
叫	-9.41645
三藏	-9.41755
何處	-9.42147
拔	-9.42195
胎	-9.42502
色身	-9.42511
友	-9.42537
此身	-9.4257
灑	-9.42623
折	-9.42655
巧	-9.4269
拜	-9.42703
乾	-9.42732
富	-9.42745
草	-9.42806
訖	-9.42815
抄寫	-9.42873
同一	-9.42914
禪宗	-9.42989
ī	-9.42998
彼於	-9.43216
聖賢	-9.43311
天地	-9.43389
相好	-9.43586
可得	-9.43601
;「	-9.43695
授	-9.43747
王后	-9.43849
出三藏記集	-9.43894
融	-9.43956
暗	-9.43974
所以者何	-9.43984
五欲	-9.43993
開元錄	-9.43993
赤	-9.44001
無餘	-9.4414
問題	-9.44171
在此	-9.44337
不捨	-9.4447
願共	-9.44471
不異	-9.44665
苦樂	-9.44791
不成	-9.44838
瑟吒	-9.44881
905	-9.45081
清涼	-9.45102
闍	-9.45129
送	-9.45162
帕瑪瓦蒂	-9.45197
紅	-9.45202
終不	-9.45221
童子	-9.45236
抄本	-9.45241
成為	-9.45765
統	-9.45802
我身	-9.45946
自體	-9.46167
愈	-9.46396
皮	-9.46396
)。(	-9.46423
左右	-9.46428
問也	-9.46537
增長	-9.46597
非有	-9.46672
相違	-9.46813
的是	-9.46823
最勝	-9.46825
凡聖	-9.46899
25	-9.474
3.	-9.47437
亦復如是	-9.47723
禮請	-9.47903
1.	-9.48084
後世	-9.48142
而無	-9.48164
以後	-9.48314
汝等	-9.48445
產	-9.48731
;」【	-9.48889
怖	-9.48928
盜	-9.4893
徹	-9.48945
謝	-9.4895
酬	-9.48969
普賢	-9.48969
喪	-9.48991
▁ca	-9.49001
那麼	-9.49005
復有	-9.49006
稱為	-9.49029
活動	-9.49048
念佛	-9.4907
2.	-9.4912
分為	-9.4912
和合	-9.49312
!」	-9.49406
塔	-9.49539
否	-9.49598
而言	-9.49618
情況	-9.49696
無畏	-9.498
天神	-9.49932
盧	-9.4995
虛妄	-9.50041
發起	-9.50064
畢	-9.50105
潔	-9.50153
偏	-9.50244
掌	-9.50287
善女人	-9.50395
無色	-9.50414
收入	-9.50451
話	-9.50472
看著	-9.50499
條	-9.50518
40	-9.50677
其他	-9.50855
場	-9.50966
梵行	-9.51314
濁	-9.51331
劍	-9.51386
消災延壽藥師佛	-9.51391
ma	-9.5142
有漏	-9.5142
彌勒	-9.51463
浮	-9.51488
誤	-9.51503
吉祥	-9.51507
堅固	-9.51517
江	-9.5153
為人	-9.51615
時期	-9.51626
加行	-9.5166
化身	-9.51723
還有	-9.51743
所造	-9.51794
同時	-9.51877
非法	-9.51915
行者	-9.51996
天下	-9.52056
云云	-9.52308
進行	-9.52326
經論	-9.52344
住處	-9.5248
纔	-9.52525
於他	-9.52601
如前	-9.52735
伸	-9.52778
幽	-9.52779
魚	-9.52813
文殊師利	-9.52855
入藏錄	-9.52857
亦如是	-9.52871
層	-9.52907
佈施	-9.53031
先生	-9.53084
悔	-9.53133
ni	-9.53176
。』	-9.53319
是為	-9.53377
必須	-9.53399
v	-9.53576
途	-9.53803
張	-9.53925
勢	-9.53995
問答	-9.54029
軍	-9.54085
濕	-9.54108
怨敵	-9.54186
27	-9.54369
故不	-9.54387
仁	-9.54463
主要	-9.54553
偈頌	-9.54636
天人	-9.54637
『	-9.54665
為因	-9.54787
無不	-9.54822
22	-9.5496
所有的	-9.55082
發願	-9.55111
可能	-9.55303
以上	-9.55348
勇	-9.55478
導師	-9.55567
段	-9.55572
ṃ	-9.55573
屬於	-9.55587
題解	-9.55719
29	-9.55774
生曰	-9.56152
上下	-9.56193
vi	-9.56229
貴	-9.56285
印度	-9.56293
三者	-9.56304
為我	-9.56437
活	-9.56548
自心	-9.56652
幸	-9.56774
障礙	-9.56822
持齋	-9.56906
畢竟	-9.56908
心所	-9.5691
卷第	-9.56919
寂靜	-9.56933
華嚴	-9.56969
能仁	-9.5706
大臣	-9.57208
第八	-9.57335
一人	-9.57551
題記	-9.57553
不二	-9.57567
yā	-9.57658
修習	-9.5767
以及	-9.5768
志心	-9.57743
不是	-9.57781
體性	-9.57792
不為	-9.57887
及其	-9.57922
,1	-9.5793
自利	-9.5807
無記	-9.58073
值	-9.58107
籍	-9.58185
皇	-9.58242
甘	-9.58265
一切智	-9.58391
我當	-9.58415
但是	-9.58416
波羅	-9.58424
大德世尊	-9.58492
依止	-9.58544
有人	-9.58547
又云	-9.58815
sa	-9.58857
23	-9.5918
曩	-9.59274
吉	-9.59314
四諦	-9.59347
昇	-9.5941
悅	-9.59474
勤修	-9.595
擇	-9.59559
按	-9.59566
念念	-9.59602
招	-9.59617
經中	-9.59648
府	-9.59711
廢	-9.59715
不定	-9.59717
亦如	-9.59718
其身	-9.59722
借	-9.59752
懈怠	-9.59803
或有	-9.59911
流通	-9.60001
』	-9.60162
過失	-9.60237
欲求	-9.60269
空性	-9.60271
第七	-9.60331
行人	-9.60353
整理者	-9.60517
c	-9.60672
不如	-9.60845
如果	-9.60894
涉	-9.6098
有異	-9.60982
殃	-9.60996
司	-9.61021
之果	-9.61024
四句	-9.61026
頁	-9.61087
擔	-9.61093
校本	-9.61096
修多羅	-9.61103
索	-9.61143
疑偽經	-9.61152
哭	-9.61158
善巧	-9.61195
親友	-9.61238
學者	-9.61845
女人	-9.61861
三毒	-9.61933
基本	-9.61948
名稱	-9.62009
畏	-9.62126
解冤結菩薩	-9.62129
皆得	-9.62188
空中	-9.62238
無心	-9.62383
男	-9.62438
忽	-9.62474
派	-9.62479
十九	-9.62484
婦	-9.62502
陽	-9.62528
合掌	-9.62589
繞	-9.62599
廣說	-9.62601
顧	-9.62609
酒	-9.62622
如是見	-9.62655
▁D	-9.627
總標	-9.62902
十七	-9.62954
上來	-9.63048
)、「	-9.63054
無別	-9.63313
4.	-9.63473
p	-9.63484
心不	-9.63503
an	-9.63632
饒益	-9.63735
故應	-9.6383
驗	-9.63845
重要	-9.63873
經言	-9.63901
割	-9.63937
階	-9.63949
燃	-9.63965
案	-9.63967
淺	-9.63984
錯	-9.64001
橫	-9.64009
聽到	-9.64087
迹	-9.64091
義也	-9.6413
/	-9.64185
名相	-9.64211
讓	-9.64264
28	-9.64323
伏願	-9.64346
另	-9.64409
此四	-9.64558
引用	-9.64646
恨	-9.64847
法寶	-9.64878
偽	-9.64963
之相	-9.65097
多聞	-9.65223
緣起	-9.65275
殿	-9.65332
急	-9.6544
隔	-9.65449
瑜伽	-9.6549
移	-9.65492
焉	-9.65496
潤	-9.65503
倍	-9.65504
避	-9.65559
停	-9.65566
錢	-9.65598
福田	-9.65694
問疾	-9.65709
皆由	-9.65709
所收	-9.65747
看來	-9.65877
而成	-9.65888
三千	-9.65902
惡業	-9.65938
四生	-9.66009
不少	-9.66039
5.	-9.66152
希有	-9.66158
至於	-9.66188
雖有	-9.66243
即非	-9.66361
聖教	-9.66571
到了	-9.66673
圓明	-9.66712
之門	-9.66865
而起	-9.669
46	-9.66918
。10	-9.66934
賜	-9.6694
武	-9.66968
無分別	-9.67012
諸經	-9.67024
曹	-9.67024
懼	-9.67032
世親論	-9.67034
淚	-9.67043
里	-9.67046
須彌	-9.67054
祈	-9.67054
項	-9.67076
生命	-9.67093
的研究	-9.67108
saṃ	-9.67111
剎那	-9.67171
學處	-9.67208
之罪	-9.67338
於中	-9.67373
拏	-9.67384
亦能	-9.67443
辰三	-9.67451
何所	-9.67507
六塵	-9.6756
總持	-9.67587
遙	-9.67706
保	-9.67733
的內容	-9.6811
以來	-9.6814
過患	-9.6816
法事	-9.68282
檀	-9.68351
寶石	-9.68378
獲得	-9.68424
充	-9.68512
遵	-9.68597
曉	-9.68623
不識	-9.68657
諸根	-9.6869
而得	-9.6869
住於	-9.68802
一切有情	-9.68881
菩薩摩訶薩	-9.68902
同前	-9.68981
則為	-9.68992
y	-9.68998
十種	-9.69036
意義	-9.6929
寫本	-9.69339
āḥ	-9.69377
願我	-9.69467
文云	-9.69485
何時	-9.69499
師子	-9.69656
塗	-9.69733
若於	-9.69739
叉	-9.69763
天子	-9.69793
姓	-9.69795
儀軌	-9.69799
損惱	-9.69842
不了	-9.69874
55	-9.69953
。」《	-9.70005
召	-9.70044
知道	-9.70055
幡	-9.70073
×	-9.70139
圍	-9.70141
今時	-9.70151
兵	-9.70166
實有	-9.7017
蘭	-9.70175
卿	-9.70182
務	-9.70193
佛道	-9.70225
何況	-9.70277
比丘眾	-9.70288
認	-9.70295
此初也	-9.70337
觀音	-9.70426
法王	-9.70482
壽量	-9.70553
不著	-9.70837
法也	-9.70915
入藏	-9.70926
能知	-9.70937
未能	-9.71083
人民	-9.7111
翻譯	-9.71188
珍	-9.71233
賀	-9.71279
仙	-9.71443
別釋	-9.71446
能除	-9.71577
歡	-9.71611
純	-9.71612
解冤釋結	-9.71677
大慈大悲	-9.71778
冤家	-9.71779
阿吒力	-9.71779
賢聖	-9.71788
是人	-9.71813
能斷	-9.7189
註疏	-9.719
摩尼	-9.71907
參見	-9.72029
ka	-9.72067
如法	-9.72092
時間	-9.72197
消滅	-9.7224
之一	-9.72264
是否	-9.72422
有為	-9.72469
有二種	-9.72536
敦煌遺書中	-9.72606
希	-9.72661
詮	-9.72736
等者	-9.72753
澄	-9.73151
僧法	-9.73186
意樂	-9.73261
方面	-9.73281
禍	-9.73313
靜慮	-9.73314
擬	-9.73318
測	-9.73331
披	-9.73335
責	-9.73352
韻	-9.73454
二諦	-9.73462
西方	-9.73475
大小	-9.73526
齋日	-9.73585
薩婆	-9.73919
亦爾	-9.7397
年代	-9.74027
取捨	-9.74036
以下	-9.7404
文中	-9.74134
滅度	-9.7416
敢	-9.74198
色等	-9.742
佛身	-9.74207
26	-9.74249
大聖	-9.74301
無形	-9.74335
版	-9.74379
隨喜	-9.74418
世人	-9.74592
教主	-9.74656
其後	-9.74669
空寂	-9.74768
宗教	-9.74777
歌	-9.74805
而已	-9.7487
初中言	-9.74884
鄰	-9.7489
不信	-9.7489
名曰	-9.749
儒	-9.74918
當來	-9.74924
祥	-9.74932
楞嚴	-9.74968
欺	-9.74971
渡	-9.74987
謀	-9.74999
男女	-9.75033
東方	-9.75035
喜悅	-9.75041
萬法	-9.75067
耆那教認為	-9.75067
兩個	-9.75151
淨度經	-9.75232
已上	-9.75265
發菩提心	-9.75356
偉大的	-9.75359
最上	-9.75427
聞法	-9.75437
形成	-9.75469
之間	-9.75564
所欲	-9.75567
結合	-9.75573
得解脫	-9.76059
則是	-9.7612
弟	-9.76167
方法	-9.7618
這是	-9.76216
斷除	-9.76217
人身	-9.76239
變化	-9.76294
之外	-9.76296
答言	-9.7643
一向	-9.76523
圓成	-9.76553
私	-9.76572
906	-9.76603
奪	-9.76605
憶	-9.76609
片	-9.76627
大孝釋迦牟尼佛	-9.76627
薄	-9.76635
院	-9.76654
朗	-9.76656
有相	-9.76659
此即	-9.76661
春	-9.76663
寬	-9.76669
議	-9.76671
三千大千世界	-9.76696
恆	-9.76702
懸	-9.76707
侵	-9.76712
調伏	-9.76716
朋友	-9.76724
即興而說	-9.76804
文軌	-9.76811
甚深	-9.76826
大地	-9.76858
非常	-9.76935
。」「1	-9.76969
無異	-9.76977
在家	-9.76994
其所	-9.77033
億	-9.7716
士夫	-9.77173
大慈悲	-9.77389
正智	-9.77401
十地	-9.77476
即為	-9.77527
此時	-9.77691
如如	-9.77707
愍	-9.77831
無義	-9.77862
此外	-9.77957
相對	-9.77964
廣解	-9.77964
不作	-9.78006
自有	-9.78047
魯	-9.7813
禮佛	-9.78136
賤	-9.78214
無始	-9.78239
輸	-9.7827
憐憫	-9.78314
泣	-9.78321
默	-9.78331
淫	-9.78344
歌讚	-9.78349
封	-9.78358
發阿耨多羅三藐三菩提心	-9.7837
陀羅	-9.78395
憶念	-9.78455
以前	-9.78518
所言	-9.78537
修善	-9.7855
香花	-9.78661
達摩	-9.78697
所撰	-9.78749
科儀	-9.7875
其時	-9.78758
天眼	-9.78848
樹下	-9.78849
種智	-9.7899
作者	-9.79126
指出	-9.79369
成立	-9.7942
何謂	-9.7947
▁「	-9.79588
ti	-9.79616
如意	-9.79657
沒馱	-9.79715
吠	-9.79776
無數	-9.79887
能為	-9.799
彩	-9.79908
猛	-9.79916
暮	-9.79982
孤	-9.80005
優	-9.80021
理論	-9.80031
刊	-9.80036
更無	-9.80044
北新	-9.80057
讀誦	-9.80087
擊	-9.801
腳	-9.80111
覓	-9.80115
天台	-9.80116
夏	-9.80124
善知識	-9.80138
拉	-9.80144
本節意為	-9.80149
認識	-9.80179
精神	-9.80277
不須	-9.80291
授記	-9.80394
h	-9.80439
施主	-9.80714
不以	-9.80779
就中	-9.80803
敦煌遺書	-9.80917
佛陀	-9.80994
岸	-9.81184
在於	-9.81264
生天	-9.8127
快樂	-9.81307
多少	-9.81408
見佛	-9.81419
蘇	-9.81648
宅	-9.81739
言說	-9.81756
減	-9.81786
鼓	-9.81789
洲	-9.81803
術	-9.81824
殘片	-9.81824
尤	-9.81832
倫	-9.81836
庶	-9.81852
微妙	-9.81899
非真	-9.81989
無作	-9.82077
誓願	-9.82122
迴	-9.82161
失壞	-9.82202
47	-9.82237
法中	-9.82255
流轉	-9.82276
形態	-9.82291
現存	-9.82297
損害	-9.82541
天女	-9.82594
所求	-9.82723
不墮	-9.82824
第九	-9.82992
的經典	-9.83023
此事	-9.83116
此云	-9.83127
它的	-9.83179
佉	-9.83332
必有	-9.83336
衰	-9.8348
危	-9.83495
乖	-9.83548
才	-9.83548
奴	-9.83549
論文	-9.83559
省	-9.83577
舒	-9.83577
降伏	-9.83578
祭	-9.83584
輯	-9.83589
世上	-9.83594
戰	-9.83601
油	-9.83614
萬劫	-9.83634
異熟	-9.83644
床	-9.83699
度眾生	-9.837
客	-9.83725
中國佛教	-9.8373
此明	-9.83783
善業	-9.83789
地區	-9.83846
不然	-9.84164
而為	-9.84324
佛典	-9.84344
菩薩行	-9.84414
名字	-9.84448
完	-9.84658
信心	-9.84686
無垢	-9.84857
我於	-9.84883
名色	-9.85038
蓮華	-9.85058
即有	-9.85223
是經	-9.8528
32	-9.85313
商	-9.85342
維	-9.85385
需要	-9.85389
天台教典	-9.85418
S	-9.85419
迎	-9.85423
貫	-9.8543
驅	-9.85444
鏡	-9.85454
瞻	-9.85454
不可以	-9.85489
注意	-9.85583
智昇	-9.85604
們	-9.8562
佛告阿難	-9.85653
此法	-9.85746
之境	-9.85843
文四	-9.8592
原子	-9.85939
不退	-9.85946
眾等	-9.86324
。】「(	-9.86343
無人	-9.86351
時代	-9.86373
一段	-9.86416
薩嚩	-9.86528
分六	-9.86609
緣覺	-9.86642
成正覺	-9.86689
各有	-9.86694
族	-9.86965
恥	-9.87061
嘗	-9.87073
我見	-9.87096
故名為	-9.87114
不復	-9.8715
罵	-9.87164
怒	-9.87183
其它	-9.87211
追	-9.87228
拈	-9.87232
磨	-9.87239
蛇	-9.87249
鬼王	-9.87249
東域	-9.87273
此人	-9.87281
託	-9.87299
是我	-9.87301
臺	-9.87327
在空衣派的刊本中	-9.87347
偶	-9.87379
攝受	-9.87528
解冤結	-9.87714
知見	-9.87784
報身	-9.87818
提出	-9.88013
曾經	-9.88153
依處	-9.88209
8.	-9.88397
確	-9.88421
勵力	-9.88426
有五	-9.8853
摩耶	-9.88609
大體	-9.8864
事業	-9.88671
為說	-9.88694
A	-9.88852
困	-9.88879
奉行	-9.88954
處處	-9.89007
宣揚	-9.89096
資糧	-9.89097
隆	-9.89103
霑	-9.89126
一心頭面禮	-9.89142
不取	-9.89145
掃	-9.89152
防	-9.89167
系統	-9.89173
飾	-9.89191
拘	-9.89196
規	-9.89204
西夏	-9.89208
孔	-9.89217
不在	-9.89241
.)」「	-9.89242
喚	-9.89255
怪	-9.89256
婬	-9.89268
寄	-9.89296
畜生	-9.89392
金色	-9.89505
安然	-9.89515
並不	-9.89647
唯是	-9.89771
亦可	-9.89778
般若波羅蜜	-9.8978
之功德	-9.89903
苦惱	-9.89904
這部	-9.8992
目前	-9.90011
我要	-9.90015
見聞	-9.9003
無住	-9.90085
除罪	-9.90172
諸苦	-9.90224
功能	-9.90474
釋迦牟尼佛	-9.90559
儀文	-9.90596
或為	-9.90648
無窮	-9.90654
恚	-9.90751
難得	-9.90758
故說	-9.90765
履	-9.90915
得道	-9.90926
佛經	-9.90983
曲	-9.91009
充滿	-9.91028
究	-9.9106
實體	-9.91093
瓶	-9.91094
惜	-9.91101
即無	-9.91122
付	-9.91123
閉	-9.91153
泥犁	-9.91201
經藏	-9.91205
遮止	-9.91251
誐	-9.91313
作是念	-9.91339
心念	-9.91409
子二	-9.91434
得阿耨多羅三藐三菩提	-9.91499
另一	-9.91608
有所	-9.91609
pra	-9.91618
何不	-9.91702
非色	-9.91797
正是	-9.91974
具體	-9.92203
所述	-9.92229
嚩囉	-9.92241
不會	-9.92279
唯識	-9.92285
既無	-9.92384
若見	-9.92407
夫人	-9.92421
般若經	-9.92481
難行	-9.9254
又復	-9.92678
行道	-9.92682
恣	-9.9271
妙法	-9.92794
塞	-9.92925
快	-9.92927
正知	-9.92932
刺	-9.92945
雪	-9.92964
格	-9.92986
仗	-9.92995
憐	-9.93017
響	-9.93033
心歸命禮	-9.93041
如人	-9.93054
道理	-9.93058
敘述	-9.93067
厚	-9.93072
牽	-9.93089
碑	-9.9313
毫	-9.93131
彌勒頌曰	-9.93173
我國	-9.93173
如是知已	-9.93217
誰能	-9.9324
井	-9.93266
消除	-9.93309
見於	-9.93445
悲心	-9.93492
所引	-9.93556
記載	-9.93632
佛事	-9.9365
法華	-9.93656
則不	-9.93668
支分	-9.93822
之類	-9.93922
不樂	-9.94056
即以	-9.94059
大德	-9.94123
一相	-9.9424
(「	-9.94246
本經	-9.94434
六種	-9.94481
相似	-9.94512
之力	-9.94708
畜	-9.94781
台	-9.94866
素	-9.949
伴	-9.94933
狂	-9.94957
G	-9.94974
佛所	-9.94988
奉獻	-9.95
卒	-9.9503
憎	-9.95033
耀	-9.95034
准	-9.95036
需	-9.95049
弱	-9.95081
誑	-9.95082
努力	-9.95102
方式	-9.95105
抱	-9.95107
至今	-9.95111
壽命	-9.95139
同樣	-9.95155
茲	-9.9517
金棺	-9.95201
五識	-9.95268
pa	-9.95274
首題	-9.95332
作是	-9.95349
入於	-9.95476
何等為	-9.95526
寫作	-9.95537
你們	-9.95543
滅盡	-9.95562
一日	-9.95583
父王	-9.95594
謂之	-9.95601
何者	-9.95744
而有	-9.95776
śa	-9.95777
彼岸	-9.95939
之前	-9.96003
廣釋	-9.96145
佛果	-9.9616
所成	-9.96209
。6	-9.96233
三年	-9.96264
心生	-9.9634
性相	-9.96369
。9	-9.96388
應為	-9.9649
幻化	-9.96534
於身	-9.96615
出來	-9.96618
地藏王菩薩	-9.96982
景	-9.96986
虔	-9.96996
dh	-9.97005
御	-9.97013
爛	-9.97044
滯	-9.97077
當然	-9.97092
端嚴	-9.97111
考察	-9.97115
敦煌文獻	-9.97125
遲	-9.97126
酉	-9.97132
蔽	-9.97148
維摩經	-9.97159
教誡	-9.97163
枝	-9.9717
低	-9.97198
五根	-9.97215
散花	-9.97224
87	-9.9723
散亂	-9.97283
戒律	-9.9734
疑惑	-9.97381
不許	-9.97419
利養	-9.97499
難陀	-9.9752
完成	-9.97555
三時	-9.97663
35	-9.97699
命終	-9.97811
處所	-9.97819
大慈	-9.97904
唯一	-9.9791
的資料	-9.97914
極微	-9.97944
壽者	-9.98025
通過	-9.98033
毫無	-9.98094
無限	-9.98116
雖復	-9.98375
演說	-9.98416
是法	-9.98417
願力	-9.98539
法者	-9.98543
畔	-9.98915
大千	-9.98976
展	-9.99
焚	-9.99015
屍	-9.9903
臂	-9.99037
灌頂	-9.99047
雄	-9.99066
工	-9.99083
慾	-9.9909
身體	-9.99098
輩	-9.9916
希望	-9.99176
研	-9.99215
頂禮	-9.99228
穿	-9.9924
yo	-9.99246
人法	-9.99249
防護	-9.99267
練	-9.99286
捨身	-9.99288
慈心	-9.99289
眼等	-9.9937
北方	-9.99378
」)	-9.99485
古今	-9.99526
娑嚩	-9.99543
四者	-9.99545
全部	-9.99673
於法	-9.99695
對於	-9.99722
一百	-9.99972
證菩提	-10.0006
如其所	-10.0009
始終	-10.0043
還是	-10.0049
行也	-10.0049
其餘	-10.0056
如斯	-10.0061
亦即	-10.0069
下來	-10.0075
48	-10.0098
一點	-10.0099
軌	-10.0099
干	-10.0102
整	-10.0115
富貴	-10.0117
準	-10.0118
鉢囉	-10.0118
受生	-10.0119
繼	-10.0122
戴	-10.0122
浴	-10.0125
無學	-10.0125
薰	-10.0125
卑	-10.0127
蕩	-10.0129
鮮	-10.0131
饑	-10.0131
戶	-10.0134
概	-10.0134
蟲	-10.0134
須菩提言	-10.0134
鹿	-10.0137
喬答摩	-10.0137
線	-10.0137
十惡	-10.0139
有六	-10.014
板	-10.0141
人的	-10.0142
如理	-10.0143
表示	-10.0146
意為	-10.0153
聖道	-10.0154
殘卷	-10.0155
整理本	-10.0161
犢子	-10.0162
念誦	-10.0163
首先	-10.0173
開始	-10.0174
斷疑	-10.0182
偽經	-10.0187
苦海	-10.0189
證明	-10.0191
不依	-10.0209
〕「	-10.021
造作	-10.0218
誦經	-10.0238
有餘	-10.0247
五道	-10.0247
58	-10.0247
身中	-10.0255
不壞	-10.0271
勝解	-10.0279
不過	-10.0283
大種	-10.0285
不滅	-10.0286
亦然	-10.0287
敬禮	-10.0287
伽陀	-10.0294
許多	-10.0302
關係	-10.0302
無法	-10.0303
於佛	-10.0305
則有	-10.0306
空生	-10.0318
赴	-10.0326
義利	-10.0329
採	-10.0334
佈	-10.0335
實無	-10.0336
裝	-10.0337
冀	-10.0338
冰	-10.0341
創	-10.0341
謙	-10.0344
遵循	-10.0344
化生	-10.0344
△	-10.0345
束	-10.0346
吃	-10.0346
獸	-10.0347
疲	-10.0347
扶	-10.0348
區別	-10.0348
黎	-10.0349
心無	-10.0354
戀	-10.0354
眾苦	-10.0355
愚夫	-10.0355
奈	-10.0356
幸福	-10.0356
圍繞	-10.0358
sya	-10.036
就象	-10.0364
這裏	-10.0365
的著作	-10.0366
僧伽	-10.037
諦聽	-10.0371
顯示	-10.0372
未曾有	-10.038
寶積	-10.0392
隨順	-10.0401
三儀軌	-10.0429
44	-10.0433
kā	-10.0445
成道	-10.0455
孝行	-10.0457
分十	-10.0458
後有	-10.0459
41	-10.0468
勝義	-10.0474
實法	-10.0493
有大	-10.0495
人間	-10.0496
以不	-10.0498
放逸	-10.0504
冊	-10.0518
語言	-10.0522
法會	-10.0524
排	-10.0524
法華經	-10.0528
伊呬	-10.0532
49	-10.0546
說偈	-10.0556
竭	-10.0558
紫	-10.0559
彌陀	-10.0561
振	-10.0561
陷	-10.0562
讚揚	-10.0564
貞元	-10.0565
亡佚	-10.0567
杖	-10.0568
誡	-10.0568
銀	-10.0569
鄉	-10.0569
衛	-10.0569
域	-10.057
訓	-10.057
鉢羅	-10.057
截	-10.0571
月光	-10.0571
眉	-10.0571
慎	-10.0572
藝	-10.0574
湛然	-10.0577
傳統	-10.0579
津	-10.058
房	-10.058
溺	-10.058
也是	-10.0581
老死	-10.0581
往昔	-10.0584
二年	-10.0585
:】「	-10.059
積集	-10.0591
rā	-10.0599
三十二相	-10.0603
原因	-10.0603
令其	-10.0605
其義	-10.061
不與	-10.0611
衣食	-10.0617
尊重	-10.0618
請問	-10.0619
不實	-10.0619
三塗	-10.0624
所行	-10.0628
精勤	-10.0632
更有	-10.0634
三途	-10.0634
不足	-10.0638
故能	-10.0641
非我	-10.0658
八萬四千	-10.0659
不聽	-10.0663
其人	-10.0665
保存	-10.0667
祇有	-10.0668
眾經	-10.0677
神王	-10.0677
是其	-10.0678
略釋	-10.0679
38	-10.069
比丘尼	-10.0691
諸行	-10.0693
ha	-10.071
那個	-10.0713
的業	-10.0717
之名	-10.0718
不解	-10.0729
的情況	-10.0729
多種	-10.073
bh	-10.0732
現行	-10.0735
36	-10.0737
六識	-10.0741
皈	-10.0743
大悲心	-10.0751
未有	-10.0753
一分	-10.0769
缽	-10.0773
我之	-10.0774
薩婆訶	-10.0776
60	-10.0776
繁	-10.078
碎	-10.0785
三個	-10.0785
烏	-10.0786
大方便佛報恩經	-10.0786
角	-10.0788
忠	-10.0788
瘡	-10.0791
暴	-10.0792
戲	-10.0792
屈	-10.0792
馳	-10.0793
晚	-10.0795
凝	-10.0795
愧	-10.0797
價值	-10.0798
昭	-10.0799
二卷	-10.08
局	-10.0801
湯	-10.0802
騰	-10.0802
齒	-10.0803
禁誓	-10.0806
依於	-10.0809
證得	-10.0811
不也世尊	-10.0812
空無	-10.0814
聞佛	-10.0819
南方	-10.0822
龍王	-10.0824
三世諸佛	-10.0831
則非	-10.0832
有些	-10.0834
諸佛菩薩	-10.0843
甚多	-10.0844
依此	-10.0845
正文	-10.0849
觀之	-10.0871
契經	-10.0878
不違	-10.088
卷上	-10.0882
本願	-10.0889
無實	-10.0901
為虛妄	-10.0902
五蘊	-10.0936
為他	-10.094
法施	-10.094
若時	-10.0944
然而	-10.0948
化佛	-10.096
如上	-10.0967
斫	-10.097
問曰	-10.0983
既有	-10.0996
般若波羅蜜多	-10.0998
薩埵	-10.1006
旋	-10.1008
自二	-10.101
秘	-10.1011
千字文帙號	-10.1014
應如是	-10.1016
棺	-10.1018
積聚	-10.1024
胡	-10.1026
為本	-10.1027
式	-10.1028
自行	-10.103
阿彌陀佛	-10.1031
執持	-10.1032
趨	-10.1033
米	-10.1037
狀態	-10.1037
86	-10.1038
發展	-10.1038
—	-10.1038
夜叉	-10.1039
慧眼	-10.1039
縣	-10.1039
累劫	-10.104
雙親	-10.1045
妻子	-10.1049
而來	-10.1058
6.	-10.1063
起來	-10.1068
其事	-10.1069
梵王	-10.1075
若是	-10.1084
離諸	-10.1089
各自	-10.1098
無校本	-10.1101
發生	-10.1107
汝今	-10.1111
高下	-10.1112
此名	-10.1117
忍受	-10.1119
微細	-10.112
現世	-10.1133
經本	-10.1134
別餘	-10.1135
無色界	-10.1138
即使	-10.1144
若言	-10.1171
74	-10.1172
若為	-10.1188
此等	-10.1189
六類	-10.1193
我的	-10.12
佛語	-10.1203
若以	-10.1206
下至	-10.1214
無得	-10.1224
?」「	-10.1236
紀	-10.1253
不染	-10.1253
人中	-10.1254
45	-10.1254
基	-10.1255
博	-10.1255
要求	-10.1256
頻	-10.1258
持如是	-10.1259
童	-10.1259
有些沙門	-10.1262
慕	-10.1265
混	-10.1266
克	-10.1267
映	-10.1267
沈	-10.1267
檢	-10.1269
保護	-10.1271
呵	-10.1271
船	-10.1272
69	-10.1274
圓覺	-10.1275
雲南	-10.1277
另外	-10.128
受持讀誦	-10.1281
三身	-10.1285
藉	-10.1288
度脫	-10.1288
滅則	-10.1295
施設	-10.1299
滿月	-10.1305
萬物	-10.1321
今當	-10.1327
結集	-10.1353
是佛	-10.1357
無自性	-10.136
昧	-10.136
果頭	-10.1381
論云	-10.1392
辦	-10.1398
六通	-10.1401
根塵	-10.1402
不盡	-10.1406
故有	-10.1412
皆為	-10.1417
皆有	-10.1423
一處	-10.1426
vā	-10.1452
何等	-10.1456
若菩薩	-10.1464
缽囉	-10.1464
一致	-10.1466
怛囉	-10.1466
銘	-10.1476
不孝	-10.1481
52	-10.1482
今此	-10.1483
薩哩嚩	-10.1487
身之	-10.1488
無所得	-10.1489
醫	-10.1491
逃	-10.1491
這樣的	-10.1494
於己	-10.1495
是也	-10.1498
泉	-10.15
兄弟	-10.1504
率	-10.1506
開元入藏錄	-10.1506
樓	-10.1507
提綱	-10.1508
謬	-10.1512
業果	-10.1512
詩	-10.1515
依怙	-10.1515
這裡	-10.1516
空衣派刊本	-10.1516
無著論云	-10.1517
伽耶	-10.1525
主宰	-10.1526
仁王	-10.153
十齋日	-10.1531
名號	-10.1538
永遠	-10.154
如是等	-10.1542
變異	-10.1544
作如是	-10.1546
作佛	-10.1557
無上菩提	-10.156
尋求	-10.1563
最高	-10.1567
般涅槃	-10.1567
彼我	-10.1574
眼識	-10.1584
宣說	-10.1598
可愛	-10.1599
而是	-10.1601
彼諸	-10.1611
亦不能	-10.1616
甲本	-10.1618
生活中	-10.1621
並非	-10.1644
趣入	-10.1666
79	-10.167
亦得	-10.1671
教法	-10.1672
令我	-10.1682
此為	-10.1692
不覺	-10.1692
不可說	-10.1695
別人	-10.1704
無定	-10.1718
罪業	-10.1718
日常	-10.1722
享	-10.1739
持經	-10.1741
係	-10.1746
讚禮	-10.1747
tā	-10.1748
伊	-10.1751
勉	-10.1752
大眾志誠	-10.1754
卷四	-10.1755
捧	-10.1755
溫	-10.1755
赫	-10.1757
柱	-10.1758
燃燈	-10.1758
饒	-10.1759
鎮	-10.1759
須陀洹	-10.1759
毗盧	-10.176
環	-10.176
迦旃延	-10.1761
〉	-10.1761
獅子	-10.1761
系	-10.1762
稍	-10.1762
方廣錩	-10.1764
逸	-10.1764
分之	-10.1764
銅	-10.1766
聯	-10.1766
炎	-10.1767
相當	-10.1767
墜	-10.1767
穢濁	-10.1768
未得	-10.1768
決示三種悉地法	-10.1769
算	-10.1769
淵	-10.1769
組織	-10.177
訪	-10.177
益意經	-10.1773
曜	-10.1775
這兒	-10.1776
所講的	-10.1782
物質	-10.1784
〕《	-10.1789
喜樂	-10.179
難思	-10.1795
特別	-10.1796
不應貪著	-10.1801
▁A	-10.1802
不自	-10.1803
丑三	-10.1803
諸煩惱	-10.1806
一千	-10.1808
欲令	-10.181
假名	-10.1819
肉眼	-10.1834
華嚴經	-10.1834
得見	-10.1835
貪愛	-10.1835
一冊	-10.1839
所詮	-10.1841
論主	-10.1846
一句	-10.1851
出於	-10.1865
仁者	-10.1866
mā	-10.1867
故經云	-10.1868
相反	-10.187
孝子	-10.1871
音聲	-10.1871
此下二	-10.1871
種類	-10.1879
見到	-10.1889
緣生	-10.19
7.	-10.1901
愆	-10.1914
顯果	-10.1919
作業	-10.1921
或復	-10.1935
譯經	-10.194
為一	-10.1941
而作	-10.1957
三十二	-10.1957
是指	-10.1973
hā	-10.1978
輝	-10.1982
漢文	-10.1983
普與	-10.1987
二邊	-10.1988
威神	-10.1992
而去	-10.1995
da	-10.2
尾題	-10.2
。5	-10.2006
件	-10.2007
冠	-10.2007
了了分明	-10.2009
縫繢裝	-10.201
旁	-10.2013
番	-10.2014
勇猛	-10.2014
五戒	-10.2015
孰	-10.2017
洞	-10.2017
內典錄	-10.2018
熱惱	-10.2019
!】「	-10.2019
英	-10.2019
嫉妒	-10.2019
愁	-10.2021
不生不滅	-10.2022
鈔	-10.2023
寸	-10.2025
譽	-10.2025
的身體	-10.2026
秋	-10.2029
得名	-10.203
生歡喜	-10.2034
書寫	-10.2034
之言	-10.2035
」。)	-10.2038
工作	-10.2041
阿鼻	-10.2041
北圖	-10.2041
後來	-10.2043
而能	-10.2047
信仰	-10.205
直到	-10.2052
遍計	-10.2056
囑累經	-10.2057
國家	-10.2067
昔日	-10.2069
未見	-10.2072
八萬	-10.2078
無論	-10.2084
因而	-10.209
三卷	-10.2096
分析	-10.2098
貌	-10.2101
最初	-10.2103
等四	-10.2112
無病	-10.2113
不輕	-10.2119
染淨	-10.2121
罪垢	-10.2124
此乃	-10.2131
現生	-10.2138
囉拏	-10.2142
聖凡	-10.2145
影響	-10.2162
來到	-10.2172
依他	-10.2172
於一切	-10.2181
如佛	-10.219
不應理	-10.2199
b	-10.22
洪	-10.2214
第一義	-10.2221
43	-10.2222
的話	-10.2224
空界	-10.2233
不僅	-10.2238
均為	-10.2241
逼	-10.2245
涅槃經	-10.2248
無想	-10.2251
上品	-10.2256
但在	-10.2256
污	-10.2265
箭	-10.2271
于	-10.2273
巨	-10.2273
束縛	-10.2276
巴	-10.2278
衣服	-10.2279
渴	-10.2279
嫌	-10.2281
祝	-10.2281
傾	-10.2281
闡	-10.2282
不令	-10.2283
祛	-10.2283
侶	-10.2283
七種	-10.2284
完整	-10.2285
雕	-10.2285
的文字	-10.2286
P	-10.2286
楊	-10.2287
貪慾	-10.2288
夷	-10.2288
撰寫	-10.2289
透	-10.2289
玄奘	-10.229
羊	-10.2291
靈藥	-10.2292
提到	-10.2294
正觀	-10.2296
無用	-10.2296
救護	-10.2305
例餘	-10.2306
五濁	-10.2313
善友	-10.2315
異名	-10.2315
作禮	-10.2319
立因	-10.2328
次序	-10.2329
所受	-10.2341
難量	-10.2355
□□□	-10.2358
為真諦	-10.236
此五	-10.2362
不當	-10.2365
五趣	-10.2373
無方	-10.2382
既然	-10.2383
寫經	-10.2389
亦當	-10.2406
有其	-10.242
本文	-10.2429
是菩提	-10.2432
三品	-10.2432
73	-10.2437
顯然	-10.2444
愛樂	-10.2456
求解脫	-10.246
去來	-10.2461
八十	-10.2461
三門	-10.2464
地方	-10.2469
生死之	-10.2478
諸聖	-10.2479
諸善	-10.2481
年間	-10.2491
為二	-10.2501
五字	-10.2504
譬	-10.2509
是一	-10.251
重罪	-10.2523
而住	-10.2528
地位	-10.2529
梵音	-10.253
摩利支	-10.2532
反映	-10.254
籠	-10.2541
佛前	-10.2545
蹉	-10.2546
震	-10.2547
吟偈	-10.2548
豐	-10.2548
財富	-10.2548
丈夫	-10.2549
鉤	-10.2549
三階教	-10.2549
優波離	-10.255
優劣	-10.2552
僕	-10.2552
抑	-10.2554
役	-10.2554
牟尼	-10.2555
雅	-10.2555
仇	-10.2555
黑暗	-10.2556
側	-10.2557
晝夜	-10.2558
澤	-10.2558
條件	-10.2559
隨心	-10.2561
爪	-10.2562
徑	-10.2562
消災	-10.2562
眾人	-10.2562
雪山	-10.2562
憍	-10.2562
古代	-10.2562
煩	-10.2564
這就是	-10.2568
心王菩薩	-10.2568
傍生	-10.2569
貪瞋	-10.2581
寂然	-10.2594
不遠	-10.2595
若依	-10.2596
正行	-10.2598
相等	-10.2599
和尚	-10.26
斷滅	-10.2613
知識	-10.2617
你的	-10.2619
經題	-10.263
此第二	-10.2635
此處	-10.264
從何	-10.264
女子	-10.2644
作損惱	-10.2649
無比	-10.2651
應勵力	-10.2652
更有一	-10.2653
略答	-10.2658
真理	-10.2665
淨穢	-10.2672
得成	-10.2676
諸見	-10.2682
世世	-10.2684
方便智	-10.2707
我心	-10.2709
有三種	-10.271
頭上	-10.2714
一切諸佛	-10.2715
aḥ	-10.2717
三界外	-10.272
佛教文獻	-10.272
轉變	-10.2728
明白	-10.2732
從來	-10.2732
除了	-10.2748
人人	-10.2752
來看	-10.2753
入儀	-10.2755
行相	-10.2763
不久	-10.2767
所化	-10.2768
阿耨多羅三藐三菩提	-10.277
時候	-10.2773
何能	-10.2776
當作	-10.2785
願諸	-10.2787
卷數	-10.2792
B	-10.2794
殺生	-10.2799
罰	-10.2806
奢	-10.2807
餓	-10.281
鞞	-10.2817
六十	-10.2817
聞已	-10.2817
榮	-10.2819
電	-10.282
預	-10.2823
爐	-10.2823
懇	-10.2824
也就是說	-10.2824
競	-10.2824
試	-10.2825
輒	-10.2826
麻	-10.2827
肢	-10.2827
歇	-10.2828
嘉	-10.2828
介紹	-10.2829
開元釋教錄	-10.2829
俯降道場	-10.2829
京	-10.283
奮	-10.283
升	-10.283
阻	-10.2832
敗	-10.2832
宇	-10.2835
敕	-10.2835
瑩	-10.2835
俄	-10.2836
寺院	-10.2838
睡	-10.2838
選	-10.2838
感官智	-10.2838
dha	-10.2842
歸去來	-10.2843
沙彌	-10.2843
飲酒	-10.2844
nā	-10.2846
聰明	-10.2847
更加	-10.2848
享受	-10.2849
真如佛性	-10.285
孫	-10.2853
善行	-10.2856
何為	-10.286
76	-10.286
金口	-10.286
未嘗	-10.2864
離垢	-10.2866
之方便	-10.2867
號背	-10.2867
慈覺	-10.2868
行為	-10.2871
而自	-10.2874
號為	-10.2874
不堪	-10.2885
89	-10.2886
是道場	-10.2895
佛子	-10.2897
救苦	-10.2898
身相	-10.2902
極樂	-10.2904
及諸	-10.2914
不失	-10.2918
應以	-10.2925
初文分	-10.2927
相待	-10.2928
無由	-10.2929
入涅槃	-10.2932
諸惡	-10.2939
莫不	-10.2942
何用	-10.2949
天帝	-10.2954
此之	-10.2956
覺悟	-10.2959
如虛空	-10.2961
原文	-10.2966
一生	-10.2973
得菩提	-10.2975
有見	-10.2979
界中	-10.2982
無非	-10.299
之本	-10.2993
總攝	-10.2993
悉地	-10.2998
能破	-10.3007
長行	-10.3008
染著	-10.3009
故稱	-10.3012
信解	-10.3017
出入	-10.3018
為眾生	-10.302
的文獻	-10.3024
九種	-10.3025
禁戒	-10.3028
眾生相	-10.3039
梵天	-10.304
等諸	-10.3041
他心	-10.3043
而行	-10.3044
人相	-10.3057
意云	-10.3061
亦同	-10.3062
今言	-10.3064
瑟	-10.3065
出離	-10.3069
。7	-10.3069
𩕳	-10.307
真諦	-10.3074
枳	-10.3078
84	-10.3082
分身	-10.3091
是何	-10.3094
本身	-10.3097
煙	-10.31
稽首和南	-10.3106
聖諦	-10.3107
倚	-10.3108
瑞	-10.3109
飄	-10.311
鈍	-10.311
慧琳音義	-10.311
穀	-10.3111
忿	-10.3112
得知	-10.3113
華藏	-10.3116
段落	-10.3117
屋	-10.3118
隋	-10.3118
豎	-10.3119
豪	-10.312
三昧耶	-10.312
ū	-10.3121
尺	-10.3121
營	-10.3122
閒	-10.3124
拉雅納瓦蒂	-10.3125
匠	-10.3125
歷史	-10.3126
摧伏	-10.313
入般涅槃	-10.3136
自證	-10.3138
稱揚	-10.3141
收藏	-10.3146
現身	-10.3153
略說	-10.3156
苦因	-10.3157
心裏	-10.3173
苦受	-10.3178
故於	-10.3179
頌云	-10.318
形式	-10.3182
我為	-10.3186
妄語	-10.3187
51	-10.3189
應修	-10.3203
違背	-10.3203
白世尊	-10.3208
444	-10.3209
恒沙	-10.3214
本覺	-10.3222
四方	-10.3224
大迦葉	-10.3226
」。】「	-10.3226
妨	-10.3233
自性無	-10.3239
無緣	-10.3243
之過患	-10.3244
寶塔	-10.3244
不敢	-10.325
淨信	-10.3251
不出	-10.3251
從而	-10.3253
故事	-10.3255
亦為	-10.3256
明受	-10.3259
罪惡	-10.3262
五者	-10.3263
下品	-10.3272
答也	-10.3273
未曾	-10.3292
卷下	-10.3307
我想	-10.331
天宮	-10.3315
法眼	-10.3324
現見	-10.3324
無因	-10.3329
無著	-10.3336
入地獄	-10.3338
一身	-10.3352
譯本	-10.3353
離苦	-10.3357
護法	-10.337
醯	-10.3372
予	-10.338
為其	-10.3387
59	-10.3393
受戒	-10.3394
單元	-10.3394
探	-10.3396
真正	-10.3398
鬧	-10.34
李	-10.34
呈	-10.3404
綴	-10.3404
烈	-10.3404
弗	-10.3406
楚	-10.3406
歷代三寶記	-10.3407
梁	-10.3407
輔	-10.3407
刃	-10.3408
斗	-10.3408
竹	-10.3408
囑	-10.3408
瓦	-10.3408
竺法護	-10.3409
是則	-10.3409
川	-10.341
幢	-10.341
突	-10.3412
組成	-10.3412
胸	-10.3412
肩	-10.3412
奧	-10.3412
鋒	-10.3414
跪	-10.3415
憂惱	-10.3415
諫	-10.3416
直接	-10.3418
換	-10.3418
目連	-10.3419
荷	-10.342
四聲	-10.3424
丈六	-10.3425
願賜	-10.3427
參差	-10.3428
諦實成就	-10.3429
婆羅	-10.3431
運載	-10.3435
捨棄	-10.3439
作因	-10.3439
仍然	-10.344
正因	-10.3441
知其	-10.3453
把它	-10.3464
令得	-10.3465
並且	-10.3467
開示	-10.3469
不入	-10.3471
真經	-10.3473
甚至	-10.3475
sā	-10.3475
流行	-10.3479
終日	-10.3479
長壽	-10.3489
慈恩	-10.349
j	-10.3497
pā	-10.3507
不能得	-10.3508
相互	-10.351
此下三	-10.351
是菩薩行	-10.3518
一體	-10.3523
00	-10.3524
不及	-10.3525
往來	-10.3529
聽了	-10.353
二智	-10.3532
豈不	-10.3533
利根	-10.3536
密咒	-10.3539
使用	-10.3542
非實	-10.3557
大道	-10.3562
從此	-10.3571
五逆	-10.3573
令人	-10.3583
不具	-10.3587
念處	-10.3589
性質	-10.3591
正在	-10.3597
無染	-10.3604
一切諸	-10.3618
廣明	-10.3619
真性	-10.3622
199	-10.3622
失譯	-10.3629
我應	-10.3639
析	-10.364
先後	-10.3651
筆	-10.3651
之意	-10.3656
表現	-10.3659
一法	-10.3663
所應	-10.3665
羯	-10.3675
所逼	-10.3676
社	-10.3682
得生	-10.3685
不應瞋	-10.3687
菩提薩埵	-10.3689
的典籍	-10.369
已滅	-10.3695
牙	-10.3696
部經典	-10.3697
祐	-10.37
批	-10.3701
自性不成	-10.3702
維德赫國王	-10.3703
矛	-10.3704
是為入不二法門	-10.3704
溪	-10.3704
政	-10.3705
拙	-10.3705
慰	-10.3705
慚	-10.3706
療	-10.3706
瞿曇	-10.3706
告訴	-10.3706
圓融	-10.3707
巍巍	-10.3707
育	-10.3708
閻浮提	-10.3708
攀緣	-10.371
閑	-10.371
慧琳	-10.3711
獵	-10.3711
圖書館	-10.3711
蹤	-10.3712
十二部經	-10.3712
炷	-10.3712
冤債	-10.3713
來生	-10.3713
慚愧	-10.3714
曆	-10.3715
此法會中	-10.3715
無憂	-10.3717
舟	-10.3717
排列	-10.3718
譏	-10.3719
讚歎	-10.3719
狗	-10.3719
纖毫	-10.3719
西明寺	-10.372
須彌山	-10.3721
監	-10.3722
康	-10.3723
冷	-10.3724
醉	-10.3724
冬	-10.3726
而且	-10.3729
世紀	-10.3732
捉	-10.3735
珍寶	-10.3738
可參見	-10.3739
男根	-10.374
僧法誦出經	-10.375
地藏菩薩	-10.3756
大覺	-10.376
遍滿	-10.3762
的部分	-10.3763
所抄	-10.3763
造像	-10.3765
道言	-10.377
無上道	-10.3783
得聞	-10.3789
的關係	-10.3793
如同	-10.3799
法雨	-10.3806
人見	-10.3813
重重	-10.3822
肯定	-10.3822
有色	-10.3822
為彼	-10.3826
一節	-10.3833
無疑	-10.3834
總明	-10.3861
自知	-10.3864
道安	-10.3868
解說	-10.3871
惡人	-10.3876
品類	-10.3879
愚人	-10.3882
文化	-10.3891
為求	-10.3903
共相	-10.3914
如我	-10.3916
bha	-10.3918
所為	-10.3927
31	-10.3932
能得	-10.3936
為什麼	-10.3936
98	-10.3943
隨其	-10.3948
nām	-10.3958
真空	-10.3978
南無三滿多	-10.3985
罪人	-10.399
能發	-10.4003
陸	-10.4008
諸外道	-10.4009
后	-10.4009
而非	-10.4011
十八界	-10.4014
靠	-10.4016
瓔珞	-10.4017
冥陽	-10.4017
咎	-10.4018
灌	-10.4018
裡	-10.4018
妖	-10.4019
刑	-10.4019
實智	-10.4019
刀劍	-10.402
谷	-10.402
悲智	-10.4021
祇是	-10.4021
鳴	-10.4022
北宋	-10.4022
大聖地藏王菩薩	-10.4022
稿	-10.4023
漫	-10.4023
賴	-10.4023
靈藥智者	-10.4023
欣	-10.4024
月十五日	-10.4026
綿	-10.4027
嬰兒	-10.4028
海會佛菩薩	-10.4028
裴休	-10.4028
一合相	-10.4031
ṛ	-10.4031
村	-10.4032
婚	-10.4033
料簡	-10.4033
食肉	-10.4034
龕	-10.4034
稟	-10.4035
這一點	-10.4035
諱	-10.4035
寶珠	-10.4037
屠兒	-10.4037
阿修羅	-10.4041
佛告須菩提	-10.4041
南無大孝釋迦佛	-10.4043
四天王	-10.4056
靈山	-10.4056
重視	-10.4059
財物	-10.406
心者	-10.4062
有疾	-10.4063
奉請	-10.4065
亦云	-10.4068
都序	-10.4069
不可見	-10.4071
此問	-10.4071
正以	-10.4073
於世	-10.4077
值得	-10.4081
論師	-10.4082
也有	-10.4084
觀待	-10.4088
逼惱	-10.4092
壞滅	-10.4096
如實	-10.4101
護念	-10.4113
觀世音菩薩	-10.4116
諸如來	-10.413
大乘經	-10.4135
神我	-10.4137
自性成就	-10.4153
天王	-10.4157
42	-10.416
名聞	-10.4165
異也	-10.4165
十分	-10.4169
佛頂	-10.4169
俱生	-10.4184
相比	-10.4191
疑經	-10.4193
她的	-10.4206
無能	-10.4208
明代	-10.4218
在他	-10.422
既不	-10.422
大藏	-10.4221
一詞	-10.4221
85	-10.4231
前二	-10.4234
不從	-10.4235
何須	-10.4237
汝心	-10.424
有此	-10.4266
無智	-10.4273
及以	-10.4279
諸人	-10.4286
得此	-10.4288
波囉	-10.4288
不用	-10.43
護持	-10.4307
一切皆	-10.4308
利用	-10.4312
的兒子	-10.4317
樂受	-10.4319
又有	-10.4321
俱胝	-10.4327
著名	-10.4331
筵	-10.4333
哪	-10.4334
播	-10.4334
宰	-10.4335
嗟	-10.4337
等同	-10.4338
而修	-10.4339
唇	-10.434
嚩羅	-10.434
巴伐菩提	-10.434
增補	-10.4341
晉	-10.4341
丹	-10.4341
燭	-10.4343
訛	-10.4345
+	-10.4345
射	-10.4346
欄第	-10.4346
擁護	-10.4346
恃	-10.4347
債	-10.4347
厄	-10.4348
綱	-10.4348
為喻	-10.435
蔭	-10.4351
敦煌地區	-10.4351
遷	-10.4351
健	-10.4352
妨礙	-10.4352
增上慢	-10.4352
身上	-10.4352
在一起	-10.4353
賓	-10.4354
滴	-10.4354
牒	-10.4355
虔誠	-10.4356
不忍	-10.4356
世尊在舍衛城祇樹給孤獨	-10.4356
纖	-10.4356
eka	-10.4357
拾	-10.4358
tva	-10.436
anta	-10.4361
長短	-10.4361
秦言	-10.4362
放棄	-10.4363
鸚鵡	-10.4363
輕微	-10.4366
提供了	-10.4367
本科儀	-10.4371
無復	-10.4371
自相	-10.4372
upa	-10.4372
諸欲	-10.4376
誰為	-10.4376
經名	-10.4381
惟淨	-10.4383
而說	-10.4384
白衣	-10.4385
3)	-10.439
教化	-10.4392
感受	-10.4397
益物	-10.4402
理解	-10.4406
所藏	-10.4407
數量	-10.441
直心	-10.441
主張	-10.4413
明確	-10.4413
分齊	-10.4414
以成	-10.4415
金藏	-10.4421
慈尊	-10.4422
作饒益	-10.4422
放光	-10.4429
以明	-10.4435
。8	-10.444
僧寶	-10.4441
今天	-10.4444
發菩提	-10.4447
我認為	-10.4452
直至	-10.446
之路	-10.4462
捨離	-10.4464
經說	-10.4472
淨度	-10.4472
極大	-10.4477
但能	-10.4479
而產生	-10.4481
性空	-10.4483
汝當	-10.4488
有為法	-10.4492
恒常	-10.451
其母	-10.4511
三法	-10.4513
53	-10.4514
大約	-10.4516
稱念	-10.4523
施者	-10.4527
靡	-10.4544
法輪	-10.455
聞說	-10.4553
四禪	-10.4562
末世	-10.4563
禮懺	-10.457
深入	-10.457
歷代	-10.4581
?「	-10.4585
大智	-10.4588
的佛教	-10.4609
亦復	-10.4615
為善	-10.4622
是菩薩	-10.4623
觀點	-10.463
常樂	-10.4633
結界	-10.4635
九句	-10.4638
in	-10.4641
三根	-10.4643
修持	-10.4653
身子	-10.4655
窣	-10.4657
布佐	-10.4662
覽	-10.4665
十句	-10.4667
奴婢	-10.4668
曼怛囉	-10.4668
尸	-10.4669
險	-10.4669
雷	-10.4672
校勘	-10.4672
奏	-10.4673
死後	-10.4676
灰	-10.4677
的作者	-10.4677
兄	-10.4677
書籍	-10.4678
找	-10.4679
裂	-10.4682
惶	-10.4683
特徵	-10.4684
刪	-10.4684
壁	-10.4685
晝	-10.4685
他方	-10.4685
髓	-10.4686
貝	-10.4686
逾	-10.4686
捐	-10.4687
針	-10.4687
眾經目錄	-10.4687
唐代	-10.4687
本節論述	-10.4688
塵沙	-10.4689
有對	-10.4689
清楚	-10.4689
濫	-10.469
吸	-10.4691
受請供養	-10.4692
威德	-10.4693
的大藏經	-10.4693
是誰	-10.4695
純陀	-10.4696
▁2	-10.4699
色彩	-10.4699
微點	-10.4699
羅剎	-10.4704
迦羅	-10.4704
教誨	-10.4709
有十	-10.4715
一問	-10.4716
四十九	-10.4728
能作	-10.4733
正等	-10.4735
指示	-10.4736
感覺	-10.4737
往生	-10.4739
記錄	-10.4743
聞此	-10.4749
之善	-10.475
筆者	-10.4753
身根	-10.4758
示現	-10.4758
成佛道	-10.4759
身命	-10.4764
必要	-10.4766
眼根	-10.4769
百億	-10.4771
正道	-10.4785
刻經	-10.4785
性地	-10.4787
不能自	-10.4796
轉法輪	-10.4799
摩訶薩	-10.4801
譯者	-10.4804
不來	-10.4807
俱有	-10.4808
四明	-10.4808
方能	-10.4816
乙本	-10.4817
何者是	-10.4822
當為	-10.4822
心地	-10.4823
依教	-10.4824
一直	-10.4826
加威	-10.4827
我們可以	-10.483
作佛事	-10.4844
於內	-10.4853
流出	-10.4858
放生	-10.4861
以何	-10.4862
為體	-10.4865
一定	-10.4869
他們的	-10.4871
最為	-10.4876
所許	-10.4877
有力	-10.489
作損害	-10.4891
不欲	-10.4915
於十方	-10.4922
結成	-10.4924
斷煩惱	-10.4927
林中	-10.4928
多有	-10.4934
神變	-10.4935
ja	-10.494
宗密的	-10.4943
或謂	-10.4945
於生死	-10.4954
曼	-10.4963
何物	-10.4963
區	-10.4975
施等	-10.4978
長時	-10.4981
命的	-10.4982
刻本	-10.4985
收錄	-10.4985
秫	-10.4989
佛及	-10.4992
所用	-10.4996
逝	-10.4998
揭	-10.5003
離欲	-10.5007
馬立奇	-10.501
叭囉	-10.5011
其福	-10.5012
奉持	-10.5013
紛紛	-10.5014
忙	-10.5014
由常看守心	-10.5017
蜜	-10.5018
惟願慈悲常攝受	-10.5019
阿難言	-10.5019
訂	-10.5019
管	-10.5021
枉	-10.5022
諸罪	-10.5022
植	-10.5023
大家	-10.5024
軀	-10.5024
佚	-10.5026
祿	-10.5026
生信	-10.5026
程	-10.5027
苑	-10.5027
醜陋	-10.5028
旃檀	-10.5028
綴接	-10.5028
奔	-10.5028
醒	-10.5028
達麼	-10.503
他利	-10.5031
名真	-10.5031
茶供養	-10.5031
我今稱讚	-10.5032
I	-10.5032
崩	-10.5032
捕	-10.5033
男子	-10.5035
閻羅王	-10.5035
該文獻	-10.5036
糞	-10.5036
民間	-10.5037
歷劫	-10.5037
殘缺	-10.5038
草木	-10.5041
我執	-10.5042
詳細	-10.5043
托鉢	-10.5046
目犍連	-10.5047
刀山	-10.5049
這麼	-10.505
優婆塞	-10.505
佛告迦葉	-10.5055
太陽	-10.5056
我佛	-10.5057
思量	-10.5063
密語	-10.5064
到底	-10.5065
發表	-10.5071
科文	-10.5076
端正	-10.5078
□□□□	-10.5082
功用	-10.5083
彼此	-10.5084
若欲	-10.5085
注釋	-10.5087
所取	-10.5092
動搖	-10.51
戒定慧	-10.5101
兩者	-10.5105
壇場	-10.5109
雖不	-10.5122
有七	-10.5123
不安	-10.5124
的原因	-10.513
實執	-10.5133
釋迦牟尼	-10.5134
請你	-10.5137
不說	-10.5139
兩重	-10.5141
罪福	-10.5146
9.	-10.5148
萬億	-10.5152
神咒	-10.5153
ch	-10.5157
而後	-10.5165
修羅	-10.5167
成了	-10.5169
之性	-10.5171
可分為	-10.5171
常時	-10.5171
之教	-10.5175
分八	-10.5179
行孝	-10.5182
其實	-10.5183
不轉	-10.5186
從今	-10.5203
無過	-10.5208
各處	-10.5211
在我	-10.5224
如能	-10.5231
的一個	-10.5234
高尚	-10.5242
八種	-10.5246
將來	-10.5246
釋論	-10.5248
當生	-10.525
水中	-10.5257
第十一	-10.5261
此論	-10.527
結果	-10.5281
得失	-10.5283
悉能	-10.5294
真常	-10.5298
由斯	-10.5299
樣	-10.5299
耆那教的	-10.5301
受者	-10.5311
力量	-10.5313
夢中	-10.5318
心所法	-10.5318
觀想	-10.5323
其本	-10.5324
無益	-10.5326
的思想	-10.5331
頭頂	-10.5342
與此	-10.5344
之妙	-10.5345
苦痛	-10.5345
變成	-10.5348
普遍	-10.5349
唎	-10.5358
皆從	-10.5359
閃	-10.5361
包	-10.5362
薦	-10.5365
段食	-10.5366
杵	-10.5369
墮地獄	-10.537
陀囉	-10.5371
應作	-10.5373
狹	-10.5374
啖	-10.5375
施與	-10.5375
焦	-10.5375
宋代	-10.5376
剛	-10.5378
範	-10.5378
添	-10.5379
檀那	-10.5381
煉	-10.5381
潛	-10.5381
怯弱	-10.5382
慳	-10.5383
亮	-10.5383
驕	-10.5383
鈴	-10.5383
塵勞	-10.5383
若悟	-10.5384
汙	-10.5384
婆希	-10.5384
費長房	-10.5384
疊	-10.5385
鎖	-10.5386
龍樹	-10.5386
大唐內典錄	-10.5387
◇	-10.5387
整個	-10.5387
參考	-10.5389
複合體	-10.539
天台宗	-10.539
金銀	-10.5392
似乎	-10.5392
賞	-10.5392
無論如何	-10.5392
禪源諸詮集都序	-10.5392
南北朝	-10.5393
有一問答	-10.5393
斂	-10.5394
▁'	-10.5395
皇帝	-10.5395
尋伺	-10.5396
或觀察身內之	-10.5398
坐於一旁	-10.5402
(?)	-10.5402
灑淨	-10.5404
默然	-10.5405
舍利	-10.5406
忽然	-10.5411
行禮	-10.5415
帶來	-10.5417
輕重	-10.5418
佛母	-10.542
香積	-10.5424
寶座	-10.5425
今生	-10.5426
或者	-10.5429
之樂	-10.5429
並是	-10.5431
講的	-10.5433
引經	-10.5438
見諦	-10.5439
ava	-10.544
後際	-10.5446
應須	-10.5448
十方世界	-10.5449
何曾	-10.5449
欲望	-10.5454
97	-10.5463
是時	-10.5465
不爾	-10.5468
纔能	-10.5479
從前	-10.5481
此由	-10.5484
藍	-10.5488
現量	-10.5492
極為	-10.5494
62	-10.5494
原來	-10.5508
歸入	-10.5514
即得	-10.552
文章	-10.5522
罪過	-10.5523
88	-10.5523
金剛般若	-10.5524
道德	-10.5526
豈有	-10.5527
釋也	-10.5534
哆囉	-10.5535
分七	-10.5541
願為	-10.5541
十戒	-10.5542
六波羅蜜	-10.5544
大菩薩	-10.5552
午三	-10.5555
如來藏	-10.5563
六入	-10.5571
持誦	-10.5587
辟支	-10.5589
兩號	-10.5605
續藏	-10.5609
石刻	-10.5612
如似	-10.5618
入定	-10.5621
佛眼	-10.5627
相貌	-10.563
即時	-10.5638
見色	-10.5639
共同	-10.5642
來世	-10.5655
若此	-10.5659
若有人	-10.5661
我言	-10.5662
色處	-10.5664
得自在	-10.5668
日改為	-10.5669
餘處	-10.5672
等等	-10.5675
犯戒	-10.5677
暫時	-10.5679
口業	-10.5681
能力	-10.5682
皆悉	-10.5683
明其	-10.5693
於心	-10.5695
睇	-10.5705
不忘	-10.5707
淨想	-10.571
銜接	-10.5729
大義	-10.5737
孕	-10.5738
法供養	-10.5739
高山寺本	-10.5741
師子吼	-10.5741
欠	-10.5743
鮑善恢	-10.5744
委	-10.5744
庸	-10.5745
效	-10.5745
此偈	-10.5745
圭峰	-10.5746
周沙界	-10.5746
種性	-10.5746
晨	-10.5748
耆	-10.575
囚	-10.575
生時	-10.575
粘	-10.575
禪源諸詮集	-10.575
毒蛇	-10.575
已知	-10.5751
詔	-10.5751
襲	-10.5752
柔	-10.5752
吐	-10.5753
北敦	-10.5753
曇	-10.5753
即便	-10.5755
炬	-10.5755
F	-10.5755
駕	-10.5756
肅	-10.5756
三種悉地法	-10.5756
欄	-10.5756
耕	-10.5757
若論	-10.5757
劉	-10.5758
災害	-10.5759
朱	-10.5759
法空	-10.576
衝	-10.5761
嫉	-10.5761
斬	-10.5762
最澄	-10.5763
R	-10.5764
脈	-10.5765
從事	-10.5765
何事	-10.5766
若復有人	-10.5766
跟	-10.5767
金剛經讚	-10.5768
撰述	-10.577
十二因緣	-10.5772
90	-10.5774
判斷	-10.5778
無貪	-10.578
可謂	-10.5785
提到的	-10.5788
佛地	-10.579
下文云	-10.5792
在那裏	-10.5792
主人	-10.5793
蘇那	-10.5794
伏聞	-10.5795
假立	-10.5803
喜捨	-10.5803
體例	-10.5804
下劣	-10.5812
普照	-10.5815
勸修	-10.5816
悉達	-10.5821
著錄了	-10.5825
安忍	-10.5825
有的	-10.5827
所愛	-10.5832
後代	-10.5836
乃至成佛	-10.5836
譯為	-10.5838
佛剎	-10.5838
同誦	-10.5839
恒河沙	-10.5844
該號	-10.5846
孝順	-10.5847
如是如是	-10.5848
正明	-10.5851
它是	-10.5858
以下是	-10.5861
譯出	-10.5865
自覺	-10.5866
歷代大藏	-10.5877
諸部	-10.5878
何有	-10.588
由旬	-10.5888
五年	-10.5894
不可能	-10.5897
能燒	-10.59
住世	-10.59
因由	-10.5917
作了	-10.592
外化	-10.5921
相關	-10.5925
一切諸法	-10.5936
本人	-10.5939
別錄	-10.5945
豈可	-10.595
儀至	-10.5951
方得	-10.5953
苦集	-10.596
受記	-10.5971
毛孔	-10.5974
而白佛言	-10.5994
又名	-10.5995
修學	-10.6005
為主	-10.6008
回到	-10.6013
百由旬	-10.6023
攝義	-10.6027
符	-10.6033
搖	-10.605
唯願	-10.6056
07	-10.6056
光照	-10.6061
地上	-10.6063
受樂	-10.6077
均有	-10.6084
不再	-10.6088
豈非	-10.6094
𤙣	-10.6096
正確	-10.6097
略有	-10.6102
妙香	-10.6104
諾賀	-10.6105
大願	-10.6105
怛姪他	-10.6114
國中	-10.6116
閻羅	-10.6117
杜	-10.6119
勤精進	-10.612
所證	-10.612
浪	-10.6121
一心奉請	-10.6122
辱	-10.6124
鬥	-10.6126
(6	-10.6127
佐	-10.6127
時世尊	-10.6129
範疇	-10.6129
劇	-10.6129
飽	-10.6129
扇	-10.613
本師	-10.613
枯	-10.613
芽	-10.613
靈魂	-10.613
邦	-10.6131
夙	-10.6131
濃	-10.6131
禱	-10.6132
裝飾	-10.6134
攬	-10.6134
夕	-10.6134
模	-10.6136
。(「	-10.6136
革	-10.6136
熏	-10.6136
叡	-10.6137
羞	-10.6137
貞元入藏錄	-10.6138
經宣演	-10.6138
繩	-10.6139
冤讎	-10.6139
閱	-10.614
75	-10.6141
剪	-10.6141
盈	-10.6141
西域	-10.6141
辯才	-10.6142
翳	-10.6142
倦	-10.6142
這些話	-10.6143
奚	-10.6143
聚落	-10.6143
個如海量	-10.6143
署	-10.6144
直觀智	-10.6144
復有一解	-10.6144
竊	-10.6145
身口意	-10.6145
如前所述	-10.6146
奇哉	-10.6146
調御	-10.6146
磧砂藏	-10.6148
廣破邪	-10.6148
增減	-10.6151
激	-10.6151
化眾生	-10.6151
倒想	-10.6152
三摩地	-10.6154
著衣持鉢	-10.6155
初文	-10.6157
師為	-10.6157
首尾	-10.616
善逝	-10.616
信受	-10.616
討論	-10.6163
宿命	-10.6166
教導	-10.6166
之謂也	-10.6166
此則	-10.6168
祖師	-10.6169
不空	-10.617
之王	-10.6171
類似	-10.6174
佛弟子	-10.6175
暇滿	-10.6177
天堂	-10.6179
說完	-10.6181
何由	-10.6182
無念	-10.6184
體相	-10.6192
旋生	-10.6195
作是言	-10.6196
疾病	-10.6196
子三	-10.6196
回答	-10.6207
不求	-10.6207
慈愍	-10.621
為宗	-10.6211
黃金	-10.6226
之自性	-10.6226
之內	-10.6231
之功	-10.6235
力士	-10.6236
得度	-10.6237
在前	-10.6242
異體	-10.6244
不通	-10.625
本性	-10.6255
品經	-10.6255
色心	-10.6257
斷見	-10.626
四天下	-10.6263
依次	-10.6289
tad	-10.6289
不論	-10.6289
已來	-10.629
論曰	-10.6295
初地	-10.6295
佛寶	-10.6297
破戒	-10.63
本生	-10.6301
咒唵	-10.6304
二十八	-10.6308
生物	-10.6313
的基本	-10.6319
產生於	-10.6332
煩惱性	-10.6336
生生	-10.6337
不絕	-10.6337
千劫	-10.6352
罪障	-10.6352
嘆佛	-10.6353
兩卷	-10.6354
正信	-10.6361
日光	-10.6362
異本	-10.6371
感得	-10.6371
一面	-10.6382
□□□□□	-10.6383
攝持	-10.6387
粗重	-10.6387
4)	-10.639
孩子	-10.64
此品	-10.6411
不退轉	-10.6412
上面	-10.6416
法藏	-10.6418
隨所	-10.642
99	-10.642
修福	-10.6425
百萬	-10.6425
三昧經	-10.6434
無所有	-10.6456
於自身	-10.6458
八難	-10.6458
汝於	-10.6459
之下	-10.6461
明差別	-10.6467
作意	-10.6468
皆能	-10.6474
但有	-10.648
之結	-10.6485
之業	-10.6487
喻如	-10.6491
於此經	-10.6495
誠心	-10.6499
份	-10.6503
無著論	-10.6513
不救	-10.652
閻浮	-10.6526
魂	-10.6527
曳	-10.6527
儘管	-10.6527
寶髻的	-10.6528
進一步	-10.6528
麗	-10.653
庭	-10.653
堆	-10.653
彙	-10.653
幼	-10.6531
俾	-10.6531
允	-10.6532
料	-10.6533
裝幀	-10.6533
聾	-10.6534
梵授王	-10.6534
刊雕	-10.6535
眷	-10.6535
令彼	-10.6536
那樣	-10.6536
抵	-10.6536
凌	-10.6536
螺	-10.6536
彈指	-10.6536
摘	-10.6537
怎麼	-10.6538
季	-10.6538
彌凱耶	-10.6539
有執受	-10.6539
粗細	-10.6539
亦未	-10.6539
匝	-10.654
慈氏	-10.654
贍部洲	-10.654
篇幅	-10.6541
價	-10.6541
霜	-10.6541
拋	-10.6542
朝時	-10.6542
曠	-10.6543
膽	-10.6543
裟	-10.6543
峰	-10.6544
高僧傳	-10.6544
輾轉	-10.6544
pañca	-10.6544
如彼	-10.6544
豬	-10.6545
縱橫	-10.6546
貧窮	-10.6546
pari	-10.6547
淨度三昧經	-10.6548
忻	-10.6549
勢力	-10.655
艱苦	-10.6552
譬喻	-10.6552
骸	-10.6553
引導	-10.6554
琉璃光	-10.6557
損益	-10.6558
輕安	-10.6559
》。《	-10.6559
梵志	-10.656
然則	-10.6561
新譯	-10.6561
出版	-10.6563
開元	-10.6564
運動	-10.6564
▁C	-10.6564
大佛頂	-10.6565
能使	-10.6566
殺害	-10.6568
災難	-10.6568
生瞋恚	-10.6568
百五十	-10.6571
我愛執持	-10.6571
悅意	-10.6572
當時的	-10.6572
萬億那由他	-10.6579
疏文	-10.658
10.	-10.6586
的著錄	-10.6588
財寶	-10.6589
死時	-10.6592
舌根	-10.6592
自恣	-10.6592
人物	-10.6595
東西	-10.6596
坐禪	-10.6599
首部	-10.6605
是從	-10.6611
應身	-10.6618
經部	-10.6622
世尊告	-10.6627
其次	-10.6628
您的	-10.6632
胎生	-10.6635
全文	-10.6637
道宣	-10.6643
的主要	-10.6644
延壽	-10.6646
經常	-10.6658
有一個	-10.6663
禮世尊	-10.6666
但坐	-10.667
之物	-10.6672
讚曰	-10.668
不要	-10.6693
正義	-10.6697
陀那	-10.6707
一切煩惱	-10.671
些	-10.6712
不喜	-10.6716
也沒有	-10.6721
十力	-10.6728
二親	-10.6735
分位	-10.6738
大力	-10.6742
三賢	-10.6743
無見	-10.6748
不詳	-10.6756
悟解	-10.6762
明種子	-10.6764
師長	-10.6765
造論	-10.677
的痛苦	-10.6771
此亦	-10.6773
迷情	-10.6781
百年	-10.6784
大藏經的	-10.6787
誦出	-10.6789
心懷	-10.6792
諸大眾	-10.6801
結構	-10.6809
par	-10.6815
之補特伽羅	-10.6822
三摩	-10.6823
aṇa	-10.6834
隨意	-10.6846
如雲	-10.6847
既是	-10.6862
正說	-10.6869
的形式	-10.6869
的說法	-10.688
四年	-10.6882
請為	-10.6882
心王	-10.6884
首楞嚴經	-10.6885
的東西	-10.6903
六處	-10.6909
迦摩囉	-10.6911
所斷	-10.6919
無生忍	-10.692
摩囉	-10.6921
名義	-10.6924
善事	-10.6927
度人	-10.693
擁	-10.6934
候	-10.6934
湛	-10.6935
榮耀	-10.6937
後人	-10.6937
湧	-10.694
斧	-10.6942
警策	-10.6942
頃	-10.6945
今有解結	-10.6945
願罪消滅	-10.6945
倘	-10.6945
吞	-10.6946
初中引經	-10.6946
錯誤	-10.6947
涅	-10.6947
俯	-10.6947
耽	-10.6947
盜賊	-10.6948
荒	-10.6948
龍興寺	-10.6949
鬥爭	-10.695
雁	-10.695
盤	-10.695
諸種	-10.6951
薪	-10.6951
外凡	-10.6951
遶	-10.6951
瑜伽師地論	-10.6951
啼	-10.6952
級	-10.6953
拿	-10.6953
鳳	-10.6953
薄伽梵	-10.6953
咽	-10.6953
儀式	-10.6954
震動	-10.6954
腸	-10.6954
喧	-10.6955
員	-10.6956
賣	-10.6956
▁3	-10.6957
區分	-10.6957
縫	-10.6957
雞	-10.6957
昌	-10.6957
四聖諦	-10.6957
恐畏	-10.6957
大乘禪門	-10.6958
漿	-10.6958
猛烈	-10.6959
皈依三寶	-10.6959
tri	-10.696
醜	-10.696
魅	-10.6961
習氣	-10.6961
daśa	-10.6961
侯	-10.6961
依彼	-10.6962
梵授	-10.6962
庫	-10.6962
孩兒	-10.6962
天聖釋教	-10.6963
站	-10.6963
腦	-10.6964
dvi	-10.6965
威力	-10.6965
休息	-10.6967
劃	-10.6968
領納	-10.6969
軟	-10.6969
資財	-10.6971
行持	-10.6973
出定	-10.6974
所說的	-10.6975
心中了了分明	-10.6975
反映了	-10.6976
城中	-10.6976
染污	-10.6979
順序	-10.6979
消失	-10.698
過程中	-10.6982
教授	-10.6982
棄捨	-10.6982
安置	-10.6983
由是	-10.6983
分割	-10.6986
無量無邊	-10.6993
所斫	-10.6993
燒香	-10.6995
所緣境	-10.6998
千萬	-10.6998
ād	-10.6998
更相	-10.7003
禮敬	-10.7006
亦不見	-10.7006
懷著	-10.7008
成熟	-10.7011
字母	-10.7016
已畢	-10.7018
壽者相	-10.702
長者子	-10.702
法王身	-10.7021
種姓	-10.7028
息滅	-10.7031
實語	-10.7033
利害	-10.7034
仙人	-10.7038
yoga	-10.704
善趣	-10.7043
藥王	-10.7045
六界	-10.7047
94	-10.7051
王宮	-10.7055
音義	-10.7061
食肉者	-10.7062
四智	-10.7062
應成	-10.7076
法珍	-10.7076
前述	-10.7078
欲明	-10.7083
觀見	-10.7086
恒時	-10.7087
不放逸	-10.7089
資生	-10.7091
遍十方	-10.7094
未知	-10.7103
法樂	-10.7104
足下	-10.7108
貪欲	-10.7114
慈父	-10.7114
生善趣	-10.7116
這樣說	-10.7121
六情	-10.7122
額	-10.713
上來所	-10.7132
此土	-10.7134
道路	-10.7142
妙用	-10.715
使我	-10.715
異門	-10.7152
出世間	-10.7162
未生	-10.7162
甚大	-10.7165
的五種	-10.7168
妄心	-10.7171
日夜	-10.7176
無動	-10.7176
恩德	-10.7176
總問	-10.7184
業力	-10.7191
存在於	-10.7197
想著	-10.72
亦須	-10.7208
悉應	-10.7214
十善	-10.7219
來此	-10.7222
煩惱障	-10.7228
ana	-10.7229
女身	-10.7233
的一種	-10.7233
今將	-10.7236
何因	-10.7241
斯則	-10.7246
明三種	-10.7253
的地方	-10.7253
來至	-10.7257
非唯	-10.7265
不殊	-10.7268
寶蓋	-10.7272
如是思維	-10.7274
各有所	-10.7276
顯了	-10.7279
實行	-10.728
曾無	-10.7282
八百	-10.7291
經疏	-10.7296
相符	-10.73
是妄	-10.7302
五眼	-10.731
聽法	-10.7329
香水	-10.7332
白毫	-10.7337
令諸	-10.734
極難	-10.734
取相	-10.7345
旦	-10.7347
惹	-10.7358
摸	-10.7364
L	-10.7365
宣演	-10.7366
恐怖	-10.7369
不達	-10.7371
詐	-10.7373
擾	-10.7374
鴻	-10.7376
秦	-10.7377
滌	-10.7378
天上人間	-10.7379
儀宣演	-10.738
勵	-10.7381
伐	-10.7381
惡心	-10.7381
牢	-10.7381
降臨	-10.7381
坦	-10.7382
餐	-10.7382
令人喜悅適意	-10.7383
結跏趺坐	-10.7383
弊	-10.7383
誹謗	-10.7384
仰啟	-10.7384
跛	-10.7384
耽著	-10.7384
廻	-10.7384
凶	-10.7385
誇	-10.7385
戈	-10.7385
埋	-10.7385
養育	-10.7386
嶽	-10.7386
副	-10.7386
包含	-10.7387
這個偉大的人	-10.7388
驕慢	-10.7388
熾	-10.7388
adhi	-10.739
握	-10.739
如前所說	-10.7391
軸	-10.7391
迫	-10.7391
臭	-10.7391
再再	-10.7391
覺性	-10.7391
募	-10.7392
超越	-10.7392
孟	-10.7393
生死苦	-10.7393
遵守	-10.7393
恰	-10.7393
懈	-10.7393
臣民	-10.7393
混合	-10.7394
程度	-10.7394
猛火	-10.7395
珍貴	-10.7395
模式	-10.7395
割肉	-10.7395
ṭ	-10.7396
這個問題	-10.7396
常樂我淨	-10.7397
舉揚	-10.7399
仁師	-10.74
以此之故	-10.74
除罪一千	-10.74
律儀	-10.74
逝世	-10.7401
最上乘	-10.7401
啟白	-10.7403
威光	-10.7404
德行	-10.7405
貪嗔	-10.7405
優婆夷	-10.7406
隨逐	-10.7407
無著論曰	-10.7408
降道場	-10.7409
僧團	-10.741
火宅	-10.7413
衰損	-10.7414
山林	-10.742
差異	-10.7421
不敬	-10.7421
寫經造像	-10.7423
《〈	-10.7426
美德	-10.7427
七年	-10.7427
無差別	-10.7427
周遍	-10.7428
六賊	-10.7429
兩節	-10.7431
姑	-10.7434
圓覺經	-10.7435
於境	-10.7436
惟願	-10.7437
之差別	-10.7443
慈母	-10.7446
不合	-10.7448
聞經	-10.745
斷盡	-10.745
漏盡	-10.7454
長安	-10.7457
佛國	-10.7458
十方諸佛	-10.7465
排除	-10.7466
很高興	-10.747
取境	-10.7471
止觀	-10.7477
辦法	-10.748
到經本	-10.7491
的時候	-10.7492
手執	-10.7497
取得	-10.7498
中尊	-10.7505
信香	-10.7509
貪求	-10.7509
句子	-10.7523
善不善	-10.7529
論應知	-10.7532
有智者	-10.754
食物	-10.7545
三重	-10.7547
乃是	-10.7551
之情	-10.7551
事物	-10.7552
所說法	-10.7553
明珠	-10.7558
無諍	-10.756
91	-10.756
勝利	-10.7563
所謂的	-10.7572
向他	-10.7577
大小乘	-10.7582
mi	-10.7597
瞋恨	-10.7598
的記載	-10.7599
得益	-10.7601
證真	-10.7601
經過	-10.7606
堅持	-10.761
九十	-10.7613
的重要	-10.7619
一劫	-10.7628
抄經	-10.7645
是一種	-10.7645
只有	-10.7645
造罪	-10.7645
意根	-10.7646
要須	-10.7658
計人	-10.7664
天聖	-10.7678
放在	-10.7678
5)	-10.7679
波羅蜜多	-10.7693
手持	-10.7693
證果	-10.7708
【	-10.7709
無為法	-10.7711
時節	-10.7714
由彼	-10.772
上文	-10.7726
真智	-10.7726
苦滅	-10.7737
達到	-10.7743
顯真	-10.7748
改為	-10.7768
應物	-10.778
以此為	-10.7782
如是世尊	-10.7782
應供	-10.7782
此第三	-10.7786
今世	-10.779
十六種	-10.78
捺	-10.7803
傍	-10.7822
茶	-10.7823
永樂大典	-10.7823
是菩薩淨土	-10.7824
沐	-10.7825
毗婆沙師	-10.7825
斥	-10.7826
彈	-10.7828
謨	-10.783
禽	-10.7831
涼	-10.7831
莊	-10.7832
的問題	-10.7832
堅牢	-10.7832
鷲	-10.7834
滋	-10.7835
慾望於此	-10.7835
菜	-10.7836
括	-10.7836
費	-10.7837
幫助	-10.7839
涯	-10.7839
廟	-10.7839
拂	-10.7839
趙城金藏	-10.784
三惡道	-10.784
M	-10.784
怛羅	-10.7841
狼	-10.7841
津梁	-10.7842
湖	-10.7842
以體收相	-10.7843
階段	-10.7844
安慰	-10.7844
咬	-10.7844
作者不詳	-10.7845
陣	-10.7845
實踐	-10.7846
殖	-10.7846
天竺	-10.7847
勘	-10.7847
忉利天	-10.7847
製	-10.7848
H	-10.7848
慳貪	-10.7848
延昌	-10.7848
併	-10.7848
智度論	-10.7849
巾	-10.7849
稻	-10.7849
立彼宗	-10.785
無執受	-10.785
地藏菩薩十齋日	-10.7851
傲	-10.7851
迄	-10.7852
姊	-10.7852
妹	-10.7852
闡提	-10.7853
安隱	-10.7854
剃	-10.7854
鈍根	-10.7856
泡	-10.7857
壯	-10.7858
tra	-10.786
繫縛	-10.786
應了了分明	-10.7861
皈命	-10.7862
女兒	-10.7862
阿那含經	-10.7863
毒藥	-10.7864
其光	-10.7869
化導	-10.7869
若有善男子	-10.7871
善吉	-10.7873
主治	-10.7875
美女	-10.7877
日日不	-10.7878
四攝	-10.7882
世諦	-10.7882
大量	-10.7886
四蘊	-10.7888
微塵數	-10.789
宮殿	-10.7892
一毫	-10.7893
親近	-10.7896
來源	-10.7897
造業	-10.7898
身份	-10.7898
心肝	-10.7901
不能救	-10.7906
三摩耶	-10.791
愛見	-10.7913
假使	-10.7915
道品	-10.7916
的寶石	-10.7916
手等	-10.7916
法無我	-10.7918
婆伽	-10.792
論述了	-10.7921
西天	-10.7922
歸命	-10.7927
五官	-10.7932
君子	-10.7933
兒子	-10.7936
著述	-10.7938
完全智	-10.7948
兩字	-10.7949
定慧	-10.7953
標題	-10.7958
四大種	-10.7976
凡人	-10.7979
今朝	-10.7982
安心	-10.7985
慧命	-10.7986
滿願	-10.7995
異生	-10.8
可能是	-10.8001
□□□□□□□	-10.8005
知足	-10.801
罪愆	-10.8016
vy	-10.8018
我此身	-10.8023
請世尊	-10.8024
正好	-10.8033
總答	-10.8033
正破	-10.8034
總體	-10.8046
統一	-10.8046
地獄中	-10.8051
為孝	-10.8055
各地	-10.806
以何為	-10.8062
一切世間	-10.8067
的影響	-10.8074
81	-10.8076
翻譯的	-10.8082
婆囉	-10.8084
尚有	-10.8099
分離	-10.8113
離去	-10.8114
夢見	-10.8115
大孝	-10.8117
無非是	-10.8125
有八萬四千	-10.8144
品行	-10.8146
方知	-10.8162
若許	-10.8187
華嚴宗	-10.8193
事實	-10.8208
多羅	-10.822
孝道	-10.8223
自性成就之	-10.8234
叢	-10.8247
千生	-10.8253
7、「	-10.8254
阿伽	-10.8257
怛他伽哆	-10.8271
中有三	-10.8276
普為	-10.8284
右半葉	-10.8288
諾	-10.8294
莎	-10.8297
戌	-10.8298
報應	-10.83
的時間	-10.8305
泯	-10.8305
艱辛	-10.8306
唱題	-10.8306
般若得經	-10.8307
隊	-10.8308
躬	-10.8308
āni	-10.8308
拯	-10.8309
囊	-10.8309
策	-10.831
不假	-10.8311
團	-10.8311
絲	-10.8312
蔓	-10.8313
邏	-10.8313
欽	-10.8313
徐	-10.8313
未知法中	-10.8313
證入	-10.8314
敦煌禪籍	-10.8314
鬘	-10.8314
同體	-10.8314
付囑	-10.8315
躍	-10.8316
絕無	-10.8316
阿含經	-10.8316
泛	-10.8317
保留	-10.8318
懂	-10.8319
串習	-10.8319
粟	-10.832
芒	-10.832
敬拜	-10.832
陵	-10.832
無違	-10.8321
瞋心	-10.8321
為養	-10.8321
依持	-10.8322
速疾	-10.8322
膝	-10.8322
隋代	-10.8323
遼	-10.8323
布露	-10.8324
茂	-10.8324
報恩會上	-10.8324
bhāva	-10.8325
聖典智	-10.8326
誠心仰請	-10.8326
這批	-10.8327
焚香	-10.8328
龜	-10.8328
逐漸	-10.8328
寢	-10.8329
無情	-10.8329
召請	-10.8329
婆耶	-10.8329
暖	-10.833
於世間一切事物也無所執取	-10.833
頸	-10.833
由於專心繫念而認清	-10.8331
勝鬘	-10.8332
揀	-10.8334
醫王	-10.8335
蓬	-10.8336
重擔	-10.8338
香壇	-10.834
夭	-10.8341
這說明	-10.8344
加持誦	-10.8347
冤結	-10.8347
歡樂	-10.8349
恢復	-10.8351
抄錄	-10.8353
本源	-10.8353
普光	-10.8358
心王經	-10.8358
勢至	-10.8365
修菩薩行	-10.8365
澄觀	-10.8366
的確	-10.8371
同嘆	-10.8372
具備	-10.8372
他自己	-10.8373
涉及	-10.8375
一旦	-10.8377
雖殊	-10.8381
周錄	-10.8397
河沙	-10.8399
但由於	-10.8403
普使	-10.8404
否則	-10.8406
十卷	-10.8411
體現	-10.8411
聞聲	-10.8412
永離	-10.8414
恩愛	-10.8416
女神	-10.8418
大門第	-10.8419
時年十	-10.842
眼目	-10.842
聖眾	-10.8421
迦葉菩薩	-10.8428
摩訶般若波羅蜜	-10.8437
使他	-10.844
四海	-10.8442
作沙門	-10.8446
魔王	-10.8448
個性	-10.845
形像	-10.8452
前際	-10.8461
聞思	-10.8464
難忍	-10.8467
相應法	-10.8472
的觀點	-10.8476
陀耶	-10.8485
祇能	-10.8492
的結構	-10.8498
講說	-10.8501
為說法	-10.8502
破壞	-10.8504
昔時	-10.8506
以智慧	-10.8526
二十五	-10.8529
所樂	-10.8532
不免	-10.8535
萬善	-10.8545
昧於	-10.8546
編號	-10.855
共住	-10.8554
手足	-10.8554
此陀羅尼	-10.8561
淨戒	-10.8566
妙善	-10.8576
妙理	-10.8577
於諸有情	-10.8582
大致	-10.8584
大弟子	-10.8598
月一日	-10.8599
斷絕	-10.8604
便能	-10.8617
須依	-10.8625
105	-10.8633
其父	-10.8648
眾聖	-10.8648
妙音	-10.8668
最大	-10.8674
諸佛子	-10.8677
香雲	-10.8678
的形態	-10.8683
雜染	-10.8692
覺知	-10.8692
舍衛城	-10.8699
美妙	-10.8709
六師	-10.8713
不如法	-10.8713
部著作	-10.8718
能忍	-10.8746
居住	-10.8755
自在轉	-10.8758
彌勒菩薩	-10.8766
恢	-10.8774
虛名	-10.8776
是研究	-10.8777
拖	-10.8778
冒	-10.8782
D	-10.8786
子孫	-10.8789
賧	-10.8792
樓閣	-10.8793
蒭	-10.8793
C	-10.8794
滿馱	-10.8795
塊	-10.8796
出品名	-10.8804
趙	-10.8805
楞	-10.8805
觀世音	-10.8806
控制	-10.8806
乏	-10.8807
竺	-10.8808
渴仰	-10.8809
虧	-10.8809
讎	-10.8811
嶺	-10.8812
塞那克	-10.8812
折磨	-10.8812
三十七品	-10.8813
江河	-10.8813
劬勞	-10.8813
緒	-10.8814
(1)	-10.8814
婆伽婆	-10.8815
為斷此疑	-10.8816
掉	-10.8816
雙手合十	-10.8816
難知	-10.8818
熾盛	-10.8818
一由旬純黃金色	-10.8818
迅速	-10.8818
橋	-10.8819
泰	-10.8819
爰	-10.882
寡	-10.882
(2)	-10.882
托	-10.8821
某些	-10.8821
藏經洞	-10.8821
衡	-10.8822
王舍城	-10.8822
董	-10.8822
十二支法	-10.8823
睡眠	-10.8823
態度	-10.8823
查	-10.8823
嗚呼	-10.8823
皎	-10.8824
貪瞋癡	-10.8824
聽到這些話	-10.8825
自性空	-10.8825
願消滅	-10.8825
砂	-10.8826
掌握	-10.8826
如夢	-10.8827
灼	-10.8828
三輪	-10.8828
專注	-10.8828
煮	-10.8828
飢渴	-10.8828
近代抄本	-10.8828
纂	-10.8828
尊貴	-10.8828
早期	-10.8829
佛為心王菩薩說頭陀經	-10.8829
液	-10.8829
三皈	-10.8829
麥	-10.883
電光	-10.8831
廣博	-10.8833
感官	-10.8835
愚昧	-10.8837
森林	-10.8837
毛端	-10.8837
繫屬	-10.8837
相關的	-10.8837
每個	-10.8838
降魔	-10.8839
捨衛城	-10.884
濡	-10.884
啟請	-10.8841
享樂	-10.8841
石窟	-10.8842
百千劫	-10.8842
精舍	-10.8843
作福	-10.8844
境界有對	-10.8846
戲論	-10.8848
臥具	-10.8851
曷為	-10.8852
天授	-10.8854
念彌陀	-10.8854
復原	-10.8862
讚頌	-10.8862
拔苦	-10.8864
根源	-10.8865
較多	-10.8865
大梵天	-10.8867
長老	-10.887
那耶	-10.8871
▁B	-10.8873
火燒	-10.8876
能斫	-10.8876
還同	-10.8879
懷疑	-10.8887
釋迦如來	-10.8888
未來世	-10.8891
不易	-10.8895
宗旨	-10.8896
凡情	-10.8896
屍林	-10.8898
亦應如是	-10.89
實際上	-10.8903
各異	-10.8905
神足	-10.8906
的藏經	-10.8916
相當於	-10.8919
妙藥	-10.8925
世界海	-10.8927
六趣	-10.8927
弘道	-10.8938
之際	-10.8946
對研究	-10.895
接受	-10.8959
妄識	-10.8964
修淨土	-10.8966
像前	-10.8969
疏釋	-10.8969
請師	-10.8969
原本	-10.898
證涅槃	-10.8984
面前	-10.8994
譯作	-10.8995
何謂為	-10.9
利物	-10.9003
至少	-10.9004
懺儀	-10.9008
引證	-10.9017
集會	-10.9021
亦不應	-10.9026
結勸	-10.9035
乃能	-10.9046
永無	-10.9052
本尊	-10.907
止息	-10.907
應該是	-10.9091
空海	-10.9108
萬歲	-10.9111
盡力	-10.9117
諸大菩薩	-10.9128
悔過	-10.9129
不虛	-10.9142
眾德	-10.9143
同類	-10.9159
所有的人	-10.916
轉化	-10.9161
錄校	-10.9163
告阿難	-10.9164
如來所說	-10.9168
92	-10.9176
眾會	-10.9187
置於	-10.9188
一條	-10.9215
偉大	-10.9218
得授記	-10.922
七住	-10.9225
sam	-10.9254
所致	-10.9272
羝	-10.9294
諸蘊	-10.9299
戌涅	-10.9302
行布施	-10.9305
苦滅道	-10.9311
達磨	-10.9324
家祕	-10.9325
902	-10.9325
十億	-10.9326
黨	-10.9328
循	-10.9329
八住以上	-10.9333
浩浩	-10.9337
其他經錄	-10.9339
縮	-10.9339
地水火風	-10.9339
捲	-10.9339
實無有法	-10.934
墨	-10.934
刊刻	-10.934
眠	-10.9341
助伴	-10.9341
吏	-10.9341
穩	-10.9341
郎	-10.9342
壓	-10.9342
吹	-10.9343
窟	-10.9343
偷	-10.9343
席	-10.9343
完全相同	-10.9344
掩	-10.9345
崔法珍	-10.9345
涼土	-10.9345
匹	-10.9345
誠心禮別	-10.9346
陶	-10.9346
洋	-10.9346
北京圖書館藏	-10.9347
勒	-10.9348
貞	-10.9348
能與眾生	-10.9348
能壞	-10.9349
帛	-10.9349
臻	-10.9349
漸漸	-10.935
心要法門	-10.935
K	-10.9351
複雜	-10.9351
乍	-10.9351
尸羅	-10.9351
鞭	-10.9351
塚間	-10.9351
若不爾者	-10.9351
發無上正真道意	-10.9352
廣品歷章	-10.9352
羅網	-10.9352
明立論因	-10.9352
金剛經纂	-10.9353
疆	-10.9353
編撰	-10.9353
§8.1	-10.9353
J	-10.9353
瑪特維	-10.9353
摧毀	-10.9354
魔旬	-10.9354
中央	-10.9354
吳	-10.9354
幹	-10.9355
刀杖	-10.9355
仁宗	-10.9355
十世紀	-10.9355
增加	-10.9356
經律論	-10.9356
parā	-10.9357
擲	-10.9357
調查	-10.9357
逮	-10.9357
材	-10.9358
應諾	-10.9359
五戒十善	-10.936
黑城本	-10.936
ādi	-10.936
譬如有人	-10.936
劍樹	-10.936
一件	-10.9361
採用	-10.9364
南宋	-10.9366
以此驗	-10.9366
最早	-10.9367
邪正	-10.9367
四句偈	-10.9367
技	-10.9368
眾生的利益	-10.9368
看看	-10.9368
教團	-10.9369
遺書	-10.9369
宗派	-10.937
國王啊	-10.937
不肯	-10.9371
斷臂	-10.9371
皆消滅	-10.9373
生疑	-10.9377
甚多世尊	-10.9377
覆障	-10.938
遠近	-10.9382
啟問	-10.9382
將軍	-10.9382
信士	-10.9383
這篇	-10.9383
師資	-10.9384
民眾	-10.9384
慈風	-10.9385
作惡	-10.9386
首殘	-10.9387
濟度	-10.939
爾許	-10.9392
梵語	-10.9392
長養	-10.9395
阿彌	-10.9399
五識身	-10.94
二卷本	-10.9405
妄計	-10.9405
十八界中	-10.9407
好象	-10.9411
圓通	-10.9411
愛河	-10.9412
學習	-10.9412
全國	-10.9416
得無生忍	-10.9416
正確的	-10.9417
100	-10.9419
題名	-10.942
題目	-10.9422
叢林	-10.9423
往往	-10.9426
護國	-10.943
的行為	-10.9432
喻比丘	-10.9435
一切善法	-10.9436
獨立	-10.9438
青色	-10.9441
甚難	-10.9446
特點	-10.9454
焚燒	-10.9456
變現	-10.9457
十八種	-10.9457
個別	-10.9458
數數	-10.9461
若有眾生	-10.9467
萬德	-10.948
若善男子	-10.9483
這部經	-10.9497
論疏	-10.9501
密意	-10.951
九品	-10.9515
病苦	-10.9528
非虛	-10.9533
dharma	-10.9539
據說	-10.9542
七月	-10.9548
請求	-10.955
知恩	-10.9552
頂上	-10.9566
辟支佛	-10.9567
(10	-10.9572
三災	-10.9581
滅罪	-10.9586
惡念	-10.9597
造下	-10.9603
事情	-10.9605
觸處	-10.9609
沙數	-10.9611
父子	-10.9613
申三	-10.9617
陀羅尼經	-10.9628
藏外	-10.963
傳入	-10.9648
印度佛教	-10.9652
嚩日囉	-10.9657
的願望	-10.9696
伽藍	-10.971
了達	-10.9711
可以肯定	-10.9713
進入	-10.9719
章疏	-10.9733
福慧	-10.9736
降生	-10.9736
佛如來手	-10.9737
六個	-10.9748
的名稱	-10.9755
達囉	-10.977
後不久	-10.9773
十二種	-10.9789
可能性	-10.9799
恒河	-10.9807
獲福	-10.9814
高興地	-10.9816
am	-10.9846
從無始	-10.9851
九歲	-10.9852
三曼	-10.9856
囉吽	-10.9868
得人身	-10.9874
你要	-10.9876
宴	-10.9876
祭祀	-10.9877
什	-10.988
瑕	-10.9884
警覺	-10.9887
在僧法誦出經中著錄	-10.9887
毗盧遮那	-10.9887
森林裏	-10.9888
三階佛法	-10.989
阿耨多	-10.9891
忌	-10.9892
阿那含	-10.9893
協	-10.9893
漂	-10.9894
北京圖書館	-10.9894
警策大眾	-10.9895
羯磨	-10.9895
蒂	-10.9895
綜	-10.9896
憫	-10.9896
馨	-10.9896
追悔	-10.9896
紛	-10.9896
喝	-10.9897
朵	-10.9897
俱盧	-10.9898
廓	-10.9898
誘	-10.9898
市	-10.9899
大孝釋迦佛	-10.99
剩	-10.99
坑	-10.99
甘地瑪蒂	-10.99
愉快	-10.99
規範	-10.99
貧乏	-10.99
萬二千	-10.99
騎	-10.9901
汲	-10.9902
緊	-10.9902
苟	-10.9902
檀越	-10.9903
北京	-10.9903
閻	-10.9903
三藐三菩提	-10.9903
款	-10.9903
矜	-10.9903
渾	-10.9903
職	-10.9903
以是義故	-10.9904
傾向	-10.9904
朽	-10.9905
霞	-10.9905
豆	-10.9905
長行及偈	-10.9905
簡單	-10.9905
優曇	-10.9906
筏	-10.9906
淳	-10.9907
拳	-10.9907
膿	-10.9907
§9.2	-10.9907
遍法界中	-10.9907
型	-10.9908
的對象	-10.9908
挫	-10.9908
哲學	-10.9908
法律	-10.9909
無量劫來	-10.9909
高興	-10.991
星宿	-10.991
枕	-10.991
暢	-10.9912
降臨道場	-10.9912
盆	-10.9913
瑪	-10.9913
背景	-10.9913
然燈佛	-10.9913
章句	-10.9914
諧	-10.9915
典據	-10.9915
以下簡稱	-10.9915
叉手	-10.9915
即從座起	-10.9915
創始	-10.9916
為他人說	-10.9916
適悅	-10.9917
有限	-10.9917
攝受報恩	-10.9917
無所畏	-10.9917
景德	-10.9918
無生法忍	-10.9918
死入地獄	-10.9919
紫金	-10.9919
辭彙	-10.9919
莫作是念	-10.992
權威	-10.9921
墮落	-10.9921
淺深	-10.9927
空無所有	-10.9928
具足色身	-10.9929
寶頂山	-10.993
方按	-10.9935
保持	-10.9936
有一定的	-10.9936
教化眾生	-10.9942
細微	-10.9943
美惡	-10.9945
志公	-10.9946
無盡藏	-10.9946
256	-10.9947
難測	-10.9947
形容	-10.9948
險道	-10.9953
無所染	-10.9955
父親	-10.9961
無量劫	-10.9963
奉親	-10.9963
摩羅	-10.9964
作如是言	-10.9967
第二部分	-10.9967
惡魔	-10.9969
予以	-10.997
五百年	-10.997
會啟	-10.9972
羅神王來護法	-10.9976
香味	-10.9978
任持	-10.9979
分段	-10.998
▁5	-10.9981
感到	-10.9984
空故無	-10.9988
能詮	-10.9989
的淨修林	-10.9994
段文字	-11
發現了	-11.0002
耳根	-11.0007
母親	-11.0007
嚴淨	-11.0011
菩薩成佛	-11.0011
不可具	-11.002
阿利	-11.0026
眾生佛性	-11.0026
末後	-11.0029
十月	-11.003
理趣	-11.0037
?』	-11.0038
漢譯	-11.0044
中亦有	-11.0051
總錄	-11.0054
事物的	-11.0058
土地	-11.0058
尚未	-11.0063
不善業	-11.007
象王	-11.0078
懺法	-11.0081
妄念	-11.0084
而安立	-11.0087
執著	-11.0087
聖位	-11.0089
是因為	-11.009
一毛孔	-11.0148
禪觀	-11.0151
願望	-11.0168
至誠	-11.017
令諸眾生	-11.0171
不畏	-11.0195
塵塵	-11.0211
ram	-11.026
誐誐	-11.0272
聽受	-11.0275
捨壽	-11.0284
咒南無	-11.03
惡口	-11.0304
花開	-11.0311
有四種	-11.0341
三十年	-11.0349
顯然是	-11.0364
情況如	-11.037
的特點	-11.0371
下面	-11.0376
淨壇	-11.0383
讓我	-11.039
rī	-11.0407
〈	-11.0438
跋折	-11.0442
薩訶	-11.0456
麼囉	-11.0457
爍	-11.0457
偉	-11.0461
左半葉	-11.0461
卜	-11.0465
盤陀	-11.0466
宛	-11.0468
鳩	-11.0468
大王莫	-11.0472
無生無滅	-11.0472
佛教經典	-11.0473
但均未著錄見	-11.0473
其餘部分未收	-11.0474
藥師琉璃光王佛	-11.0475
析津志	-11.0476
趙渢碑	-11.0476
討	-11.0478
航	-11.0479
芬芳	-11.0479
髏	-11.0481
霧	-11.0482
佳	-11.0482
呬	-11.0482
評	-11.0483
高麗	-11.0484
叔	-11.0484
盞	-11.0487
衷	-11.0487
難敵王	-11.0487
衍	-11.0487
伏願特垂	-11.0487
姆	-11.0488
距	-11.0488
郡	-11.0489
宴坐	-11.0489
準備	-11.0489
詰	-11.0489
舞	-11.0489
擬題	-11.049
促	-11.0492
武周	-11.0492
羸	-11.0492
遞	-11.0493
君臣	-11.0493
sthit	-11.0493
有尋有伺	-11.0494
豁	-11.0494
疲厭	-11.0495
的重要資料	-11.0495
祇陀林	-11.0495
苦薦福利生道場	-11.0495
流浪	-11.0495
詠	-11.0496
詎	-11.0496
強調	-11.0496
沿	-11.0497
諮	-11.0497
清信士	-11.0497
醫藥	-11.0498
乾坤	-11.0498
轉輪聖王	-11.0498
瞬間	-11.0498
花雨	-11.0499
沾	-11.05
踏	-11.05
§7.1	-11.05
淨飯王	-11.0501
嘿	-11.0501
登壇	-11.0501
空衣派	-11.0502
摩細	-11.0502
這部經在	-11.0502
鬚	-11.0502
祇樹給孤獨園	-11.0502
省察	-11.0503
奇妙稀有之法	-11.0503
展轉	-11.0503
號背面	-11.0504
敦	-11.0504
良醫	-11.0504
姚	-11.0505
充滿著	-11.0505
剖	-11.0505
當知是人	-11.0506
歸真	-11.0506
占	-11.0507
補刊	-11.0507
負財	-11.0507
預流	-11.0507
偽妄	-11.051
發揮	-11.0511
潮	-11.0511
團圓	-11.0511
前面	-11.0512
恐懼	-11.0513
藥師尊	-11.0513
構成	-11.0513
到彼岸	-11.0513
代表	-11.0514
通塞	-11.0515
武帝	-11.0515
傷害	-11.0516
這些經典	-11.0516
端直	-11.0518
改變	-11.0518
永超	-11.0519
真偽	-11.0525
美好	-11.0528
金色光	-11.0528
8)	-11.053
初靜慮	-11.0531
永絕	-11.0532
來驗	-11.0533
百劫	-11.0534
縱使	-11.0534
存在著	-11.0534
腹中	-11.0536
至佛所	-11.0539
十六行	-11.0544
作如是說	-11.0547
厭離	-11.0549
很難	-11.0552
五代	-11.0554
此答也	-11.0556
法音	-11.0558
版本	-11.0559
虛假	-11.0559
勿令	-11.0562
入壇	-11.0566
吾今	-11.0567
光輝	-11.0567
結縛	-11.0567
百二十	-11.057
超過	-11.0572
帙號	-11.0573
很多	-11.058
壽者見	-11.0581
並沒有	-11.0587
聚集	-11.0588
致力	-11.0591
於何處	-11.0594
高僧	-11.0609
真正的	-11.0614
的性質	-11.0619
較大	-11.0632
願垂	-11.0636
明緣起	-11.0641
合為一	-11.0642
版心	-11.0643
無暇	-11.0645
必然	-11.0649
洪名	-11.065
承事	-11.0654
有二義	-11.0654
道俗	-11.0656
行詣	-11.0662
人無我	-11.0664
脫離	-11.0666
50、	-11.0674
出息	-11.0682
女孩	-11.0682
妙覺	-11.0686
文句	-11.0686
拔除	-11.071
美麗	-11.0714
得到了	-11.0721
很快	-11.0724
分為二	-11.0809
釋迦佛	-11.0834
何妨	-11.0836
8、「	-11.0842
收集	-11.087
塵剎	-11.0881
美麗的	-11.0892
情塵	-11.0901
虛空界	-11.0908
序分	-11.0921
實物	-11.0949
dā	-11.0957
因為他	-11.0962
āṇi	-11.0995
之所能	-11.1021
癹吒	-11.1054
到佛所	-11.106
髻	-11.1092
洛	-11.1092
賀囉	-11.1094
無罣礙	-11.11
了了分明已生起之	-11.11
槍	-11.1102
嗜	-11.1102
篤	-11.1103
傑	-11.1103
祠	-11.1104
para	-11.1104
隙	-11.1105
誕	-11.1105
罔	-11.1105
紹	-11.1106
摩耶夫人	-11.1106
不堪任	-11.1107
E	-11.1107
裹	-11.1109
悖逆	-11.1109
甜	-11.1109
另一方面	-11.1109
蜂	-11.1109
饌	-11.1109
忉	-11.111
憂愁	-11.111
旗	-11.111
薩婆怛他伽哆	-11.1111
瑜	-11.1111
耐	-11.1111
雪帝	-11.1111
燄	-11.1113
翠	-11.1113
缺乏	-11.1114
行住坐臥	-11.1114
茫	-11.1114
娛	-11.1114
八十種好	-11.1115
鞠躬	-11.1115
波囉密	-11.1115
娑訶	-11.1115
諭	-11.1115
材料	-11.1115
達摩一宗	-11.1115
追求	-11.1116
房山石經	-11.1116
少欲知足	-11.1116
為於父母	-11.1116
那裏	-11.1116
芳	-11.1117
赦	-11.1117
藪	-11.1117
哪些	-11.1117
毗耶離	-11.1117
零	-11.1117
涕	-11.1117
公元	-11.1117
踐	-11.1118
尖	-11.1118
給予	-11.1118
嚴飾	-11.1119
插	-11.1119
禪悅	-11.1119
統治	-11.112
布薩	-11.112
graha	-11.1121
堂堂	-11.1121
間錯	-11.1121
喉	-11.1121
二空理	-11.1122
閣	-11.1122
八王日	-11.1122
傅大士	-11.1122
汁	-11.1123
十二月禮佛	-11.1123
三十三天	-11.1123
尊敬的	-11.1123
維德赫	-11.1123
一個巴利堯巴姆	-11.1125
毗尼	-11.1125
熾然	-11.1126
稠	-11.1127
擇滅	-11.1127
者願施	-11.1127
獨覺佛	-11.1128
僧法尼	-11.1128
中國僧人	-11.113
眉間	-11.113
斯陀含	-11.1132
家庭	-11.1132
以三十二相觀如來	-11.1132
通達空性	-11.1133
水陸	-11.1133
三千界	-11.1134
該詞	-11.1135
陰陽	-11.1136
社會	-11.1136
照明菩薩	-11.1138
宣疏	-11.1139
塔寺	-11.1139
消亡	-11.1139
修自他平等	-11.114
下賤	-11.1142
→	-11.1142
參禮	-11.1143
拘利耶王女蘇波婆沙	-11.1145
唾	-11.1146
鐵城	-11.1147
興趣	-11.1147
頓悟	-11.1147
千里	-11.1148
怨親	-11.1149
猶如虛空	-11.115
敦煌佛教	-11.115
平安	-11.115
來至佛所	-11.1151
變易	-11.1154
十二年	-11.1157
制止	-11.1158
作此觀	-11.1161
回向	-11.1166
造經像	-11.1168
迦耶	-11.1169
爭論	-11.1169
12.	-11.117
立刻	-11.1171
安居	-11.1173
比量	-11.1179
他心智	-11.1181
母氏	-11.1183
咒水	-11.1186
大威力	-11.1187
何由得	-11.1188
不可量	-11.1188
迷惑	-11.119
第一部分	-11.1191
兩舌	-11.1193
jīva	-11.1194
良緣	-11.1201
音樂	-11.1201
藥師如來	-11.1203
若能如是	-11.1203
輪轉	-11.1206
諦觀	-11.121
以之為	-11.1212
至今生	-11.1222
初發心	-11.1223
機根	-11.1226
很可能	-11.1229
官屬	-11.1231
始覺	-11.1232
彼於自身注意觀察其	-11.1233
應如是注意觀察其	-11.1233
彼於自身他身兼顧注意觀察其	-11.1236
遙見	-11.124
相逢	-11.1273
āś	-11.1277
□□□□□□□□□□	-11.128
普施	-11.1332
下經云	-11.136
妙伽陀	-11.1374
高貴	-11.1404
另一個	-11.141
毫光	-11.1419
開敷	-11.144
種異本	-11.1449
罪消滅	-11.1525
68、	-11.1556
失譯經	-11.1561
般若波羅密	-11.1589
誐囉	-11.1609
永斷	-11.1612
淨修林	-11.1673
般若部	-11.1721
叉欲	-11.1727
皤	-11.173
奢摩他	-11.174
鍐	-11.1743
卵	-11.1744
姪	-11.1745
戍涅	-11.1755
怙	-11.1757
蒲	-11.1759
教示兩部祕要義	-11.1759
閱讀	-11.1763
裸	-11.1763
生其國	-11.1763
揮	-11.1763
囑累	-11.1764
組	-11.1766
永元元年	-11.1766
叭	-11.1768
柴	-11.1768
蠢	-11.1769
毋	-11.177
城市	-11.177
佩	-11.177
貴賤	-11.1771
的基礎上	-11.1771
肌	-11.1771
投誠	-11.1771
安惠	-11.1772
瘟疫	-11.1772
紺	-11.1773
艱	-11.1773
釘	-11.1774
芥子	-11.1775
無去無來	-11.1775
歎佛偈	-11.1775
异	-11.1775
天請問經疏	-11.1775
偷盜	-11.1776
狩	-11.1777
謹慎	-11.1777
鸞宿本	-11.1777
哀憫	-11.1778
籌	-11.1778
海會聖賢	-11.1778
肉團	-11.1778
飢	-11.1779
沸	-11.1779
槃陀	-11.1779
貨	-11.178
葬	-11.178
猴	-11.178
怕	-11.1781
第一義諦	-11.1781
遐	-11.1782
屠	-11.1782
規模	-11.1782
孝養父母	-11.1782
介	-11.1782
尊卑	-11.1782
純潔	-11.1782
柳	-11.1782
這兩部	-11.1782
證盟	-11.1783
歷代經錄	-11.1783
擎	-11.1783
批評	-11.1784
脅	-11.1784
掛	-11.1784
沉淪	-11.1784
月八日	-11.1785
亦猶如是	-11.1785
若如是者	-11.1785
訟	-11.1785
稱之為	-11.1785
傭	-11.1786
§9.4	-11.1786
罕	-11.1786
撮	-11.1786
仿	-11.1786
廷	-11.1786
嗅	-11.1786
農	-11.1786
迥	-11.1786
安排	-11.1787
諸經要集	-11.1787
巴利堯巴姆	-11.1787
如來廣孝十種報恩道場儀	-11.1787
厭患	-11.1787
龜毛	-11.1787
的最短壽命	-11.1788
catur	-11.1788
āyu	-11.1788
§9.1	-11.1788
戟	-11.1788
錦	-11.1789
一日一夜	-11.1789
首尾完整	-11.1789
意向性	-11.179
閏	-11.179
絕望	-11.179
亦喻比丘身	-11.179
綵	-11.1791
莖	-11.1791
虛偽	-11.1791
灣	-11.1791
噉	-11.1791
巖	-11.1791
儘是	-11.1792
龍宮	-11.1792
傲慢	-11.1793
摧折	-11.1793
無數劫	-11.1793
阿吒力經典	-11.1793
佛告諸比丘	-11.1793
閑靜	-11.1795
朔	-11.1796
僕使	-11.1796
人法兩俱	-11.1796
園林	-11.1796
罔極	-11.1796
游	-11.1796
金剛般若波羅蜜經	-11.1796
摩哩	-11.1796
末尾	-11.1797
描	-11.1797
勝義諦	-11.1802
平靜	-11.1802
婦女	-11.1802
講堂	-11.1803
存亡	-11.1803
無處不	-11.1803
坐臥具	-11.1804
設供	-11.1804
烈火	-11.1805
接觸	-11.1805
摧壞	-11.1805
此下第二	-11.1805
八哥	-11.1805
所知障	-11.1806
賢首	-11.1806
割截	-11.1807
逕	-11.1807
該目錄	-11.1808
髮際	-11.1808
消息	-11.1809
把它們	-11.181
堅毅	-11.1814
幾許	-11.1819
負命	-11.182
考證	-11.1822
負力	-11.1823
賀多	-11.1823
jñāna	-11.1825
確定	-11.1825
瑜伽論	-11.1826
公主	-11.1828
增益	-11.1828
頭骨	-11.1832
位置	-11.1833
迷亂	-11.1835
修忍辱	-11.1841
生淨土	-11.1841
獨覺	-11.1843
金輪	-11.1843
舍利弗尊者	-11.1844
死亡	-11.1851
證據	-11.1851
圓照	-11.1853
該書	-11.1856
祇要	-11.1859
現疾	-11.1863
居家	-11.1864
上昇	-11.1865
七諦	-11.1875
大般若經	-11.1876
財施	-11.1878
志誠	-11.188
再次	-11.188
正士	-11.1884
知無我	-11.1893
縱令	-11.1894
有我相	-11.1899
有暇	-11.1917
走向	-11.1919
種族	-11.192
覺察	-11.1934
持五戒	-11.1939
隨其所	-11.1994
佛教典籍	-11.2026
三卷本	-11.2044
大藏佛	-11.2052
兜率天	-11.2092
37、	-11.2119
符合	-11.212
今日今	-11.2136
珠寶	-11.2139
兜率	-11.2163
□□□□□□□□□	-11.2165
ur	-11.2229
有情義利	-11.224
難逃	-11.2241
0、「	-11.2273
迴光	-11.2304
娑伽	-11.2381
腹	-11.2416
竅隙	-11.2438
迦囉	-11.2439
肝	-11.244
邐	-11.2442
立足生根	-11.2445
得暇滿	-11.2446
十方三世	-11.2449
琴	-11.245
聰	-11.2452
林間	-11.2454
祕	-11.2458
弭	-11.2458
衢	-11.2459
尾秫	-11.246
鐵圍山	-11.2462
嚕畔	-11.2464
錫	-11.2465
菩	-11.2467
57、	-11.2468
如其次第	-11.247
孩	-11.2474
三滿哆	-11.2474
南都本	-11.2476
隧	-11.2477
旬	-11.2478
戍	-11.2478
諂	-11.248
棲	-11.248
鱗	-11.2481
眾等志誠	-11.2481
態	-11.2481
跳	-11.2481
燦	-11.2482
我今為報	-11.2482
信仰性佛教	-11.2483
沐浴	-11.2484
如上所	-11.2484
趕快	-11.2485
吼	-11.2485
中找到	-11.2485
經文可參見	-11.2485
燋	-11.2486
繼續	-11.2486
凡情上達大圓鏡	-11.2488
維摩	-11.2488
驚訝	-11.2488
無厭足	-11.2488
揭諦	-11.2488
翼	-11.2488
災殃	-11.2488
緇	-11.2489
援	-11.2489
賈	-11.249
倉	-11.249
甄	-11.249
臉	-11.249
躁	-11.249
妒	-11.249
七心界	-11.249
朋	-11.249
吟	-11.2491
幽冥	-11.2491
娑囉	-11.2491
剝	-11.2491
偽撰	-11.2492
悴	-11.2492
七竅	-11.2492
佛性觀修善法	-11.2493
水月觀音	-11.2493
成實論	-11.2493
弘教大師	-11.2493
鬼趣	-11.2494
奈良	-11.2494
疫	-11.2494
豐富	-11.2494
呂	-11.2494
戮	-11.2495
金剛五禮	-11.2495
墮惡道	-11.2495
框	-11.2496
趺	-11.2496
戚	-11.2497
阿闍梨	-11.2497
離開了	-11.2497
尊勝破地獄法	-11.2497
替	-11.2497
遇善知識	-11.2497
窗	-11.2498
兆	-11.2499
漂亮	-11.2499
中國人所撰	-11.2499
危險	-11.2499
西方極樂	-11.2499
正遍知	-11.25
晃	-11.25
禳	-11.2501
回壇	-11.2501
胞胎	-11.2501
贖	-11.2501
的意思	-11.2501
darśana	-11.2501
作是思維	-11.2501
渠	-11.2501
買	-11.2502
俱舍論	-11.2502
塔廟	-11.2502
q	-11.2502
瀆	-11.2502
碧琉璃	-11.2502
污濁	-11.2502
§4.4	-11.2502
萌	-11.2503
叩	-11.2503
kaṣāya	-11.2503
鷹	-11.2503
洩	-11.2503
bandha	-11.2504
五分法身	-11.2504
鋸	-11.2504
牧	-11.2504
舍宅	-11.2504
江泌	-11.2504
翅	-11.2504
寧為多不	-11.2504
拒	-11.2504
諦義證得經	-11.2504
酸	-11.2504
仁壽	-11.2505
穎脫	-11.2505
幾乎	-11.2505
百千萬億	-11.2505
避免	-11.2505
柔軟	-11.2505
世出世間	-11.2505
真言歌讚	-11.2505
yoḥ	-11.2505
溢	-11.2506
房舍	-11.2506
綺語	-11.2506
幸運	-11.2507
通達空性之般若	-11.2508
千輻輪相	-11.2508
斑	-11.2509
1002	-11.2509
毅	-11.2509
楊枝	-11.251
這一問題	-11.251
美味	-11.251
拱	-11.251
質礙	-11.2511
優波	-11.2511
或兼察身內之生起與壞滅	-11.2511
眼睛	-11.2512
V	-11.2512
曹宗壽	-11.2512
華蓋	-11.2512
右旋	-11.2513
盡讚揚	-11.2513
縛脫	-11.2515
34、	-11.2515
波斯匿	-11.2515
欺誑	-11.2517
蕭	-11.2517
生老病死	-11.2518
提供	-11.2518
所喜愛	-11.2519
風格	-11.2519
原註	-11.2521
強弱	-11.2521
由此可知	-11.2522
譯場	-11.2522
盧舍那佛	-11.2524
依心轉起	-11.2524
王捨城	-11.2525
持戒比丘	-11.2526
花園	-11.2526
卵生	-11.2527
邪魔	-11.2531
饒益有情	-11.2531
捨身命	-11.2531
神奇	-11.2532
衣鉢	-11.2532
純淨	-11.2532
提婆	-11.2533
輪回	-11.2533
流注	-11.2533
亦有二種	-11.2533
司命	-11.2533
進趣	-11.2537
可得福	-11.2537
祖傳	-11.2537
三十二分	-11.2537
小兒	-11.2538
請您	-11.2539
汝所許	-11.2539
資具	-11.254
堪忍	-11.2541
表述	-11.2542
得為乘	-11.2542
所得功德	-11.2544
充分	-11.2545
13.	-11.2546
某種	-11.2551
縱廣	-11.2557
聲音	-11.2563
接引	-11.2564
沒有任何	-11.2568
33、	-11.2592
彼於他人注意觀察其	-11.2602
ty	-11.2603
無始以來	-11.2618
個方面	-11.262
80、	-11.2685
是為最	-11.2696
種善根	-11.2719
70、	-11.2725
墮惡趣	-11.2768
寶髻王	-11.2863
78、	-11.2879
右手	-11.2946
śeṣā	-11.3013
十個	-11.3033
anu	-11.309
67、	-11.3101
微劣	-11.3176
勃馱喃	-11.318
誨	-11.3202
埵	-11.3217
界應如實知見	-11.3224
冤業罪消滅	-11.3228
伴侶	-11.3232
囉夜耶	-11.3236
爾時佛母	-11.3237
攻擊	-11.3239
大明咒	-11.3242
勃陀	-11.3243
藥草	-11.3243
905/1	-11.3244
慌	-11.3245
樊	-11.3246
可任意	-11.3247
矢吹	-11.3248
廳	-11.3248
妃	-11.325
憤	-11.325
盟修奉	-11.325
努	-11.3251
擾亂	-11.3251
鑄	-11.3251
僻	-11.3252
珊	-11.3252
尅	-11.3253
道場清淨眾	-11.3253
夾	-11.3254
陞	-11.3255
自從曠劫	-11.3256
如法應和	-11.3256
發大心	-11.3257
齡	-11.3258
藥師寺本	-11.3258
邀	-11.3258
勳	-11.3259
弄	-11.3259
鑊	-11.3259
怎樣	-11.3259
未為我國歷代經錄所	-11.3259
漚	-11.326
糧	-11.326
擾擾	-11.326
窺	-11.326
藥叉大將	-11.326
猶豫	-11.326
值得注意的是	-11.326
慘	-11.3261
漁	-11.3261
兮	-11.3261
庇	-11.3261
孽	-11.3262
原件	-11.3262
白衣派刊本	-11.3262
燥	-11.3262
糊	-11.3262
人間天上	-11.3263
阿闍黎	-11.3263
如來悉知	-11.3263
濤	-11.3263
怨賊	-11.3263
稽	-11.3264
陋	-11.3264
隻	-11.3264
嬉	-11.3264
聊	-11.3265
882	-11.3265
入菩薩行論	-11.3265
趙氏	-11.3265
父母恩難報	-11.3265
呵責	-11.3265
沖	-11.3266
聯係	-11.3266
又一解	-11.3266
奴僕	-11.3266
澡	-11.3266
詢	-11.3267
隨文說明	-11.3267
蕩滌	-11.3267
具體情況	-11.3267
岩	-11.3268
狐疑	-11.3268
松	-11.3268
廚	-11.3268
見聞覺知	-11.3268
倏	-11.3269
為基礎	-11.3269
嗣	-11.3269
阿那律	-11.3269
廻向	-11.3269
§9.3	-11.3269
給孤獨	-11.3269
三十五佛	-11.3269
以是因緣	-11.327
抗	-11.327
pūrva	-11.327
荷負	-11.327
據作者原註	-11.3271
恐怕	-11.3271
一切時中	-11.3271
四十二字母	-11.3271
§1.1	-11.3271
eṣu	-11.3271
§2.4	-11.3271
苗	-11.3272
頑	-11.3272
浮圖	-11.3272
送給	-11.3272
玄奘法師	-11.3273
誌	-11.3273
偃	-11.3273
异熟	-11.3273
寶髻本緣	-11.3273
微笑	-11.3274
徒勞	-11.3274
物質性的	-11.3274
所有的人都	-11.3274
吻	-11.3274
奏樂	-11.3274
寬狹	-11.3274
英俊	-11.3274
豁然	-11.3274
sth	-11.3276
稀	-11.3276
§1.3	-11.3276
應了了分明彼心	-11.3276
馬鳴	-11.3276
償	-11.3277
浩	-11.3277
人空法亦	-11.3277
三藐三佛陀	-11.3277
悶絕	-11.3278
壇前教誡	-11.3278
報恩德真言	-11.3278
慣	-11.3279
不覺不知	-11.3279
熙	-11.3279
風雨	-11.328
筋	-11.328
角度	-11.3281
山脈	-11.3282
綰	-11.3282
獲得正覺	-11.3282
紙張	-11.3283
輕蔑	-11.3283
不盡有為	-11.3283
因明入正理論	-11.3283
性質相同	-11.3284
坐在一旁	-11.3284
含靈	-11.3284
細滑	-11.3284
勉力	-11.3285
翻譯經典	-11.3285
le	-11.3285
雇	-11.3285
持用布施	-11.3285
狂妄	-11.3286
頰	-11.3286
障礙有對	-11.3286
首尾題	-11.3287
寇	-11.3288
注心要法門	-11.3288
諦下有	-11.3288
正法輪	-11.3288
增加了	-11.3289
何待言	-11.3289
爾時摩耶夫人	-11.329
丈	-11.3291
四十齒	-11.3293
印咒	-11.3293
懷胎	-11.3293
毗舍	-11.3295
有大神通	-11.3295
文繁	-11.3296
法句經	-11.3297
衰退消失	-11.3297
所緣有對	-11.3298
掉舉	-11.3298
今日道場	-11.3299
貞觀	-11.3299
坊	-11.33
上中下	-11.33
昏沉	-11.3301
影像	-11.3301
一一光明	-11.3305
即興說	-11.3306
認真	-11.3308
利益安樂	-11.331
不住無為	-11.331
執為我	-11.3311
悲傷	-11.3311
第一波羅蜜	-11.3311
志心皈命禮	-11.3312
愍念	-11.3314
單位	-11.3315
殘存	-11.3316
毗捨佉	-11.3323
和其他	-11.3329
解乘義	-11.3331
怛他誐多	-11.3349
悲愍故	-11.336
困難	-11.3385
代抄本	-11.34
除煩惱障	-11.3402
左手	-11.3519
寶蓮華	-11.3574
0.	-11.3575
是身如	-11.3705
百歲	-11.3729
五逆罪	-11.3744
ddh	-11.3774
相違品	-11.3868
火焚	-11.3932
的姑娘	-11.401
殷	-11.4016
僧法誦出	-11.4017
曷	-11.4018
垂慈	-11.4032
娜	-11.4047
大法對受	-11.4048
𠷑吒	-11.4053
藐	-11.4055
虞	-11.4063
怛你也他	-11.4065
過程	-11.4066
繆	-11.4068
潞州	-11.4068
酬罔極	-11.4072
睛	-11.4074
挺	-11.4075
歿	-11.4075
郁	-11.4076
成書於	-11.4077
姜	-11.4077
佑	-11.4078
忿怒	-11.4078
已在我國地	-11.4078
行事鈔	-11.4079
銜	-11.4079
個半葉	-11.4079
泊	-11.4081
枲	-11.4082
辜	-11.4082
煥	-11.4084
不增不減	-11.4084
唅	-11.4084
忉利天宮	-11.4084
芬馥	-11.4084
笞	-11.4085
攀	-11.4085
時維摩詰來	-11.4086
應了了分明彼無	-11.4086
轂	-11.4087
怡	-11.4087
阿僧祗劫	-11.4087
膚	-11.4087
閡	-11.4087
城邑	-11.4087
耗	-11.4087
攜	-11.4088
室羅筏	-11.4088
敲	-11.4088
曠野	-11.4088
淩	-11.4089
兇	-11.4089
操	-11.4089
羹	-11.4089
云何降伏其心	-11.4089
因緣心論頌	-11.409
今日已往去	-11.409
心口身	-11.4091
作何業	-11.4091
魏	-11.4091
趕	-11.4091
自作自成	-11.4091
無量壽佛	-11.4092
剜	-11.4092
荷擔	-11.4092
蠲除	-11.4092
鬻	-11.4092
鉀	-11.4093
永不復退轉	-11.4093
開受供養	-11.4093
繁榮	-11.4093
光臨法會	-11.4093
踴	-11.4093
眼等五根	-11.4094
無垢淨光佛	-11.4094
貯	-11.4094
金錫	-11.4094
諸家雜述	-11.4094
應如是布施	-11.4095
圈	-11.4095
朕	-11.4095
哲	-11.4095
措	-11.4095
應了了分明尚未生起之	-11.4095
厲	-11.4096
的出處	-11.4096
盂	-11.4096
馴	-11.4096
會昌廢佛	-11.4096
宏	-11.4097
淪	-11.4097
法界一分	-11.4097
旅	-11.4097
秀	-11.4098
搜	-11.4098
戾	-11.4098
楞嚴會上	-11.4098
天龍八部	-11.4098
結跏趺	-11.4099
步步	-11.4099
首殘尾全	-11.4099
卡	-11.41
鐘	-11.41
裁	-11.41
無尋唯伺	-11.41
瞻仰	-11.41
亥	-11.41
天請問經	-11.41
撥	-11.41
自無主宰	-11.41
deśa	-11.4101
剛強	-11.4101
假使有人	-11.4101
廣泛	-11.4101
涵	-11.4101
贅	-11.4101
的結論	-11.4101
khyā	-11.4102
膜	-11.4102
婉	-11.4102
重複	-11.4102
本節論述的是對	-11.4102
鐫	-11.4102
貢	-11.4103
俊	-11.4103
隅	-11.4103
咽喉	-11.4103
觸之受	-11.4103
哈	-11.4103
cāritr	-11.4103
ḍ	-11.4103
炙	-11.4104
粘葉裝	-11.4104
楷	-11.4104
佛頂心觀世音	-11.4104
兜	-11.4104
時向東方禮佛	-11.4105
光亮身	-11.4105
鐸	-11.4105
割註	-11.4105
勤奮	-11.4105
大藏經史	-11.4105
你為什麼	-11.4105
dravy	-11.4105
乃可取食	-11.4105
脩	-11.4105
§4.2	-11.4106
鞭撻	-11.4106
瞬	-11.4106
薦取	-11.4106
rtha	-11.4107
1254	-11.4107
範圍	-11.4108
晚唐	-11.4108
殆	-11.4108
煙雲	-11.4109
藥叉	-11.4109
嫁	-11.4109
達摩系	-11.4109
-'	-11.4109
訊	-11.411
疲勞	-11.411
擺脫	-11.411
ayaḥ	-11.411
魔軍	-11.411
復有一人	-11.411
名號品	-11.4111
祀	-11.4111
本性清淨	-11.4111
普禮聖眾真言	-11.4111
鑿	-11.4111
趙智鳳	-11.4111
踴躍	-11.4111
是則名為	-11.4112
盡其所有	-11.4113
阿須倫	-11.4113
唯成有漏	-11.4113
虐	-11.4113
無實無虛	-11.4113
敬白清淨	-11.4113
五宗錄	-11.4113
該經軌	-11.4113
其福勝彼	-11.4113
腔	-11.4113
聲聞緣覺	-11.4114
完備	-11.4114
性自空	-11.4115
怠	-11.4115
恐人生	-11.4115
黠	-11.4116
不可愛樂	-11.4116
嚼	-11.4116
金翅鳥	-11.4117
侵欺	-11.4119
乃至四句偈等	-11.4119
已經亡佚	-11.4119
這樣做	-11.412
屏	-11.412
662	-11.412
縵	-11.4121
課	-11.4121
弘揚	-11.4122
糠	-11.4123
三世冤	-11.4123
關節	-11.4125
仰告	-11.4127
快哉	-11.4142
憂悔	-11.4148
踴出	-11.4148
悅耳	-11.4148
故先說	-11.416
不名菩薩	-11.4162
牧牛人	-11.417
殷勤	-11.418
敬仰	-11.4184
乞叉	-11.4187
種行願	-11.4221
波羅密多	-11.433
惡知識	-11.4349
karaṇa	-11.4361
誐哩	-11.4415
毀禁	-11.4431
暇	-11.4556
yāḥ	-11.4687
nam	-11.4737
大悲觀世音	-11.4783
如此處言	-11.4935
胎藏界	-11.4947
jñā	-11.4961
構	-11.4962
庾	-11.4969
摩訶薩埵	-11.4971
娑嚩婆嚩	-11.4973
羅睺羅	-11.4975
右兩個半葉	-11.4982
梯	-11.4987
溥	-11.4988
論自釋云	-11.4989
報復必更激	-11.4989
蘆	-11.499
大理國	-11.4992
雷音	-11.4992
圭峰禪師	-11.4992
我滅度後	-11.4994
大方廣佛華嚴經	-11.4994
婆沙師	-11.4994
報佛恩	-11.4995
嬈	-11.4995
所節抄	-11.4995
義理性佛教	-11.4995
收歸入藏	-11.4996
廣引彈事	-11.4996
蚊	-11.4997
故致斯	-11.4997
羯摩	-11.4997
玩	-11.4998
袒	-11.4998
癹	-11.4998
梅	-11.4998
捶	-11.4998
無價寶	-11.4998
酌	-11.4999
英雄	-11.5
扣	-11.5
楞伽經	-11.5
牢獄	-11.5
驢	-11.5
傾虔	-11.5001
480	-11.5001
碧	-11.5001
穴	-11.5002
羽	-11.5002
繪	-11.5002
紅瑪瑙	-11.5002
警	-11.5002
墳	-11.5002
謹當宣	-11.5002
天監四年	-11.5002
疣	-11.5003
昊	-11.5003
昏衢	-11.5003
顫	-11.5003
瀝	-11.5004
興高采烈	-11.5004
不可保信	-11.5004
調柔	-11.5005
秤	-11.5005
毀辱	-11.5005
巡	-11.5006
旃	-11.5006
澀	-11.5006
願我等所求如意	-11.5006
唄	-11.5006
大周刊定眾經目錄	-11.5006
酥	-11.5007
優秀	-11.5007
丸	-11.5007
梵夾裝	-11.5007
聞經眾等罪消滅	-11.5007
N	-11.5007
靖	-11.5007
愿	-11.5007
壤	-11.5007
猶若虛空	-11.5008
龐	-11.5008
琅	-11.5008
忖	-11.5008
吝	-11.5009
樣態	-11.5009
珍珠	-11.5009
蠡	-11.5009
山川	-11.5009
非常高興	-11.5009
淮	-11.5009
儻	-11.5009
博物館	-11.5009
無著無縛無脫	-11.501
勾	-11.501
夾註	-11.501
如我解佛所說義	-11.501
大勢至菩薩	-11.5011
堯	-11.5011
擯	-11.5011
阿毗達磨	-11.5011
脂	-11.5011
特定的	-11.5012
若了依他	-11.5012
śruta	-11.5012
亞	-11.5012
週	-11.5012
集中在	-11.5013
枯竭	-11.5013
欣喜	-11.5013
謹畏	-11.5013
遼代	-11.5013
寞	-11.5013
古今譯經圖紀	-11.5013
礫	-11.5013
此日齋者	-11.5013
(§4.3	-11.5013
滾	-11.5014
的最長壽命	-11.5014
悶	-11.5014
增福壽	-11.5014
迦爾巴住神	-11.5014
字樣	-11.5014
星光神	-11.5014
東晉	-11.5015
清淨法身毗盧遮那佛	-11.5015
guṇa	-11.5015
四部弟子	-11.5015
龍興寺經藏	-11.5015
枷	-11.5015
舁	-11.5015
每月十齋日	-11.5016
曲折	-11.5016
儲	-11.5016
魄	-11.5017
如說修行	-11.5017
(§3.2	-11.5017
ānta	-11.5017
伎	-11.5017
信受奉行	-11.5018
喫	-11.5018
雀	-11.5018
筍	-11.5018
粉	-11.5018
赤真珠	-11.5018
稷	-11.5018
寶髻故事	-11.5018
感格	-11.5019
探討	-11.5019
寥	-11.5019
風吹	-11.5019
二相本來	-11.5019
漠	-11.5019
白衣派	-11.5019
頭腦	-11.5019
世尊在捨衛城	-11.5019
伏願慈悲憐	-11.502
禰	-11.502
波浪	-11.5021
波吒離村	-11.5021
銷	-11.5021
貧富	-11.5021
綜合	-11.5022
療治	-11.5022
佛頂心陀羅尼經	-11.5022
兔	-11.5024
美貌	-11.5024
島	-11.5025
遊戲	-11.5026
曠劫	-11.5026
逞	-11.5027
瞋怒	-11.5027
床座	-11.5027
恤	-11.5028
恆沙	-11.5028
適當的	-11.5028
癩病患者善覺	-11.5029
廢棄	-11.5029
更何待言	-11.5029
頂禮佛足	-11.5029
品第二十	-11.5031
肘	-11.5031
藥師佛解	-11.5031
族姓	-11.5032
臃	-11.5033
巨大的	-11.5033
內凡惑	-11.5034
十餘卷	-11.5034
悉皆消滅	-11.5034
鳥獸	-11.5035
舊抄本	-11.5036
花巾	-11.5037
大日經	-11.5038
毀譽	-11.5047
什物	-11.5054
的意見	-11.5238
參校	-11.533
宗章疏	-11.5353
逃脫	-11.5396
當來末	-11.5492
08、	-11.5506
dharm	-11.5666
皤囉	-11.5948
悉陀夜	-11.595
莎婆	-11.596
歡悅	-11.5965
穆	-11.5973
世間出世間兩階人發菩提心同異法	-11.5975
而不知者	-11.5977
磣	-11.5979
舍利卜怛囉	-11.598
莽	-11.598
莎嚩	-11.598
加持發菩提心真言	-11.5981
沮喪	-11.5983
順天府志	-11.5983
嘍	-11.5986
真俗混融	-11.5987
光目女	-11.5987
戍涅馱	-11.5987
法處所攝	-11.5987
五供養真言	-11.5988
墓	-11.5988
桃	-11.5988
第三時中	-11.5989
罹	-11.5991
鮑善恢題記	-11.5991
瞿	-11.5991
悖	-11.5991
般若得道經	-11.5992
督	-11.5993
以果收因	-11.5993
入菩薩行論廣解卷	-11.5994
滑	-11.5994
范	-11.5994
謾	-11.5995
妾	-11.5995
增一阿含經	-11.5995
秉	-11.5995
鏘	-11.5996
略為一聚	-11.5996
沉溺	-11.5996
阿羅訶	-11.5996
麟	-11.5996
捫	-11.5996
殄	-11.5996
撲	-11.5997
藥師護教	-11.5997
遁	-11.5998
祭則致其嚴	-11.5998
或怨家為	-11.5998
傳世文獻	-11.5999
道品等行	-11.5999
王中之王	-11.6
惟願聖慈	-11.6
樑	-11.6
帖	-11.6
炭	-11.6
膩	-11.6
七寺本	-11.6001
豫	-11.6001
藥師海會佛菩薩	-11.6001
一切經音義	-11.6001
無來無去	-11.6001
隋唐	-11.6001
躭	-11.6002
矩	-11.6002
啞	-11.6002
憶念我昔	-11.6002
艷	-11.6002
挂	-11.6002
無退轉	-11.6003
四無量心	-11.6003
鼎	-11.6003
燦爛	-11.6003
今為舉揚	-11.6003
街	-11.6003
窺基	-11.6004
拭	-11.6004
錯謬	-11.6004
簸	-11.6005
螺髻	-11.6005
三觀澄明	-11.6005
可以看出	-11.6005
匿	-11.6006
嗎	-11.6006
臘	-11.6006
或觀察諸法之	-11.6006
過現未來	-11.6006
庵	-11.6006
函	-11.6006
無尋無伺	-11.6006
圍遶	-11.6007
掣	-11.6007
諷誦	-11.6007
佛教全書	-11.6007
萇	-11.6007
饑渴	-11.6007
琳	-11.6007
蒼	-11.6007
鋪	-11.6008
田中良昭	-11.6008
杯	-11.6008
煌	-11.6009
澆	-11.601
二十三年	-11.601
揣	-11.601
具諸功德	-11.601
東域傳燈目錄	-11.601
匱	-11.601
的標準	-11.601
苗芽	-11.601
亦未為歷代大藏經所收	-11.6011
發無上菩提心	-11.6011
婉轉下垂	-11.6011
散入諸髮	-11.6011
柔軟可愛	-11.6011
粒	-11.6011
看者見佛在	-11.6012
肆	-11.6012
那伽薩瑪拉	-11.6012
壹	-11.6012
勅	-11.6012
寐	-11.6012
邊看者見佛在	-11.6012
svā	-11.6012
已沐雲臨	-11.6012
gati	-11.6013
根本拔除	-11.6013
撫	-11.6013
是微塵眾	-11.6013
兔角	-11.6013
香花一心奉請	-11.6013
bhāg	-11.6013
潭	-11.6014
牲	-11.6014
明教興意	-11.6014
f	-11.6014
(513)	-11.6014
bhoga	-11.6014
nirjarā	-11.6014
梁武帝	-11.6014
睿	-11.6014
儀範	-11.6014
峻	-11.6015
新唐書	-11.6015
腰	-11.6015
rūp	-11.6015
首尾均殘	-11.6015
牆	-11.6015
所感之土	-11.6015
串	-11.6015
端肅	-11.6016
明來處	-11.6016
嬰	-11.6016
.)】「	-11.6017
一心奉請藥師護教	-11.6017
brahm	-11.6017
當於何	-11.6017
整理本的底	-11.6017
明受苦樂	-11.6018
綰疊	-11.6018
起信論	-11.6018
十方三世一切諸佛	-11.6018
織	-11.6018
天竺國菩提達摩禪師論	-11.6018
耳遙聞	-11.6019
世尊如是說	-11.6019
歟	-11.6019
熱鐵輪	-11.602
皆向上靡	-11.602
腑	-11.602
首殘尾存	-11.6021
舍婆提	-11.6021
淫慾	-11.6021
腋	-11.6021
般若心經	-11.6022
陪	-11.6022
蕉	-11.6022
佛祖統記	-11.6023
倚臥	-11.6023
以恒河沙等身布施	-11.6023
北魏	-11.6024
恒河中所有沙	-11.6025
廣長舌相	-11.6025
樂小法者	-11.6026
數過百卷	-11.6026
邑	-11.6027
品第三十	-11.6027
九十八使	-11.6028
婉轉相著	-11.6028
蟠龍	-11.6029
几	-11.6029
流出二光	-11.603
狐狸	-11.603
銷釋金剛經科儀	-11.603
啄	-11.6032
如千日	-11.6032
緣聚會	-11.6032
腭	-11.6032
悉見是	-11.6033
的主體	-11.6035
唸	-11.6036
說是語	-11.6036
鹽官	-11.6037
求正覺的	-11.604
受其大苦	-11.604
得聞是經	-11.6043
作緣也	-11.6048
(50	-11.6049
長一丈	-11.605
如槁木	-11.6051
想要的	-11.6067
鳩摩羅什譯	-11.6073
清淨慧菩薩	-11.6143
楞嚴解冤釋結道場儀	-11.6195
天眼遙	-11.6468
551	-11.6616
krama	-11.6728
vidh	-11.6831
楞嚴解冤釋結道場	-11.6894
dhika	-11.6937
象狀如	-11.7051
森	-11.7059
一盲人摸觸象	-11.7059
鄭	-11.7063
得四沙門果	-11.7063
冤家債主	-11.7075
開元舊錄部分	-11.7077
颯	-11.7083
雪嚕畔	-11.7085
蹈	-11.7086
訥	-11.7086
獅	-11.7086
鸞宿	-11.7087
那波那	-11.7088
尾虔娘	-11.7091
三藐三菩陀	-11.7091
燼	-11.7091
縒	-11.7092
老病死	-11.7093
弘法寺	-11.7093
裴	-11.7094
誐誐曩	-11.7094
弓	-11.7095
痕	-11.7096
饞	-11.7096
嘌	-11.7097
耨	-11.7097
梵文原文	-11.7098
催	-11.7098
顛	-11.71
入菩薩行論廣解佛子津梁釋	-11.71
大毗盧遮那成道經	-11.71
行至同欄第	-11.7101
緣起緣性	-11.7101
意味著	-11.7102
日至心進念	-11.7102
達摩禪師論	-11.7103
如來滅後	-11.7103
金剛界大法對受	-11.7105
糜	-11.7105
蹇	-11.7106
漢代失譯	-11.7106
不垢不淨	-11.7106
脾	-11.7107
阿耨菩提	-11.7107
帥	-11.7107
郭	-11.7107
浮囊	-11.7108
答第三問	-11.7108
銳	-11.7108
又乃或為	-11.7108
暑	-11.7108
忤	-11.7108
孫陀利	-11.7108
豎宗立教	-11.7108
鑽	-11.7108
鶴	-11.7109
穹	-11.711
的責任	-11.711
顛狂	-11.711
牖	-11.711
眸	-11.711
彼無用故	-11.711
甯	-11.7111
轉輪王	-11.7111
傳入雲南	-11.7112
迅	-11.7112
鄙	-11.7113
贈	-11.7113
劬	-11.7113
咄	-11.7113
釀	-11.7113
篆	-11.7113
胸臆	-11.7113
再生族	-11.7113
喜馬拉雅山	-11.7113
沼	-11.7114
加持獻花寶座真言	-11.7114
翹	-11.7114
因緣心論釋	-11.7114
手腳耳	-11.7114
鍾	-11.7114
諷	-11.7114
馥	-11.7114
藥師求解結	-11.7114
無上佛菩提	-11.7114
吽泮	-11.7115
恕	-11.7115
華嚴瓔珞經	-11.7115
娶	-11.7116
皮膚	-11.7116
帕摩達拉	-11.7116
可怕的	-11.7116
霄	-11.7116
千字文	-11.7116
幅	-11.7116
抽	-11.7116
丘陵	-11.7116
四分律	-11.7116
汗	-11.7116
犬	-11.7117
蟾	-11.7117
自他互換	-11.7117
完美的	-11.7117
下部殘缺	-11.7117
日下舊聞考	-11.7117
斤	-11.7118
侯沖	-11.7118
随	-11.7118
邏輯	-11.7119
稚	-11.7119
昂	-11.7119
富樓那	-11.7119
入城乞食	-11.7119
譜系	-11.7119
阿闍梨眾賢	-11.7119
厘米	-11.7119
孟列夫	-11.7119
排斥	-11.7119
渺	-11.712
鳳儀北湯天	-11.712
姿	-11.712
三十五佛名禮懺	-11.712
廣百論疏	-11.712
逼迫	-11.712
sparśa	-11.712
Ф	-11.712
行了禮	-11.7121
未為我國歷代大藏經所收	-11.7121
謁	-11.7121
畢陵迦婆蹉	-11.7121
vṛtt	-11.7121
如來有所說法	-11.7122
所具有的	-11.7122
洽	-11.7122
榜	-11.7122
慳吝	-11.7122
菩提妙心	-11.7122
東西南北	-11.7123
軒	-11.7123
不能見如來	-11.7123
難報志心皈命禮	-11.7123
夜已過	-11.7124
站起來	-11.7124
sūkṣma	-11.7124
bheda	-11.7124
ṅga	-11.7124
瀾	-11.7124
值得注意	-11.7124
bhedā	-11.7124
孝順設供拔苦報恩道場儀	-11.7124
淋	-11.7124
moha	-11.7124
▁我受持不	-11.7125
太山府君下	-11.7125
▁Hahn	-11.7125
▁二十三日	-11.7125
▁二十九日	-11.7125
▁二十八日	-11.7125
應作如是觀	-11.7125
▁十八日	-11.7125
被人輕賤	-11.7125
南無日月光	-11.7125
最上之寶	-11.7125
藏文本	-11.7125
的兩倍	-11.7126
正加法	-11.7126
緊那羅	-11.7126
▁八日	-11.7126
百歲光陰	-11.7126
§2.3	-11.7126
拍	-11.7127
vrat	-11.7127
荊	-11.7127
瘥	-11.7127
匱乏	-11.7127
宵	-11.7127
非有非無	-11.7127
palyopama	-11.7127
考訂	-11.7127
入不二法門	-11.7128
堅定不移	-11.7128
八十隨形好	-11.7128
舌二根	-11.7129
ghāt	-11.7129
粥	-11.7129
慨	-11.713
滔滔	-11.713
辱罵	-11.713
媒	-11.713
訴	-11.7131
hari	-11.7131
猿猴	-11.7131
金剛已還	-11.7131
視之如	-11.7132
奮迅	-11.7132
有五百色	-11.7133
存文相當於	-11.7133
從定起	-11.7133
菴	-11.7133
燸	-11.7133
頂上旋	-11.7133
絡	-11.7133
息諍論	-11.7134
瞞	-11.7134
受想行識	-11.7134
爐炭	-11.7134
從本以來	-11.7135
削	-11.7135
自知正感覺	-11.7135
乾闥婆	-11.7135
所不能及	-11.7135
梵釋寺	-11.7136
掉悔	-11.7136
觀見腐屍	-11.7136
我得阿羅漢道	-11.7137
墓地觀	-11.7137
危脆	-11.7138
唯求自利	-11.7138
興福禪師	-11.714
起大邪見	-11.714
孜	-11.7141
棉	-11.7142
暇滿難得	-11.7143
晦	-11.7145
如紺琉璃	-11.7145
崛	-11.7145
酥油	-11.7147
補特伽羅及蘊	-11.7147
謫	-11.7147
誰言得	-11.715
金剛以還	-11.7152
的命令	-11.7153
相即是非相	-11.7156
六類冤債	-11.7158
奶	-11.7162
心猶未	-11.7199
觀自在菩薩	-11.722
dāna	-11.7272
八中第	-11.7441
大門分	-11.7752
/□□□□□□□□	-11.8013
年十歲	-11.819
億那由他	-11.8224
兢兢誐	-11.8268
娑隸哩	-11.8274
勃	-11.8277
lok	-11.8302
墀	-11.8302
怛他誐哆	-11.8302
播抳	-11.8308
驃	-11.8315
而彼處言	-11.8318
)+《	-11.8318
肯	-11.8319
獻水妖	-11.8321
蠲	-11.8322
吾今為汝	-11.8323
遏阿暗惡	-11.8323
薜	-11.8326
雍	-11.8327
不相干	-11.8329
那微涅	-11.8334
永元二年	-11.8334
色等五境	-11.8335
伍	-11.8336
陛	-11.8338
薩怛嚩	-11.834
饈	-11.8342
刺刀扎	-11.8342
嗔	-11.8343
涓	-11.8344
邁	-11.8345
憑此結成	-11.8345
幾時休	-11.8345
複	-11.8347
版片號	-11.8347
商迦羯	-11.8348
芻	-11.8349
坤	-11.835
敏	-11.835
年正月一日改為	-11.835
怨憎會苦	-11.835
汩	-11.8351
即興自說	-11.8351
攔	-11.8351
蘭膏發	-11.8351
亨	-11.8351
賁	-11.8352
酷	-11.8352
胞	-11.8352
牟	-11.8352
濟濟皆	-11.8353
廬	-11.8353
歧	-11.8353
儒釋兼濟	-11.8353
頁上第	-11.8353
晶	-11.8354
騁	-11.8354
凍	-11.8354
大千沙界	-11.8354
>	-11.8354
蝶	-11.8355
当	-11.8355
柰	-11.8355
十八不共	-11.8355
煎	-11.8355
嘆德宣疏	-11.8355
日月星辰	-11.8355
清信女	-11.8356
仰告諸佛諸菩薩	-11.8357
為一小殘片	-11.8357
胥	-11.8358
複印件	-11.8358
翔	-11.8358
余	-11.8358
縷	-11.8358
不起法忍	-11.8358
阿囉訶	-11.8359
壇場內外悉清淨	-11.8359
覿	-11.8359
嘴	-11.8359
倒在地上	-11.836
心中充滿了	-11.836
故論答云	-11.836
烏鴉	-11.836
厥	-11.836
志心勤禮拜	-11.836
憐愍	-11.8361
企	-11.8361
晏	-11.8361
綠	-11.8361
樂音樹下	-11.8362
去後留恩	-11.8362
臟	-11.8362
在那兒	-11.8362
堵	-11.8362
袋	-11.8362
無上瑜伽派	-11.8363
到這裏來	-11.8363
來詣佛所	-11.8364
喪則致其哀	-11.8364
痛癢思想生死識	-11.8364
謗方等經	-11.8364
塵不染塵	-11.8364
爇	-11.8364
明教大師	-11.8365
推乾就濕	-11.8365
圓滿報身盧舍那佛	-11.8365
般若波羅蜜多心經	-11.8365
無有少法	-11.8365
歎佛宣疏	-11.8366
童瑋先生	-11.8366
如是降伏其心	-11.8366
住相布施	-11.8366
皺	-11.8366
舅	-11.8366
釋法尼	-11.8366
抹	-11.8366
事本末	-11.8366
萬九千	-11.8367
崖	-11.8367
我和世界既	-11.8367
天監元年出	-11.8367
摶	-11.8367
如來設教	-11.8367
繒	-11.8368
鼠	-11.8368
褒	-11.8368
醮	-11.8368
犁	-11.8368
得福多不	-11.8368
顆	-11.8368
挽	-11.8368
之所由生	-11.8368
陀羅尼藏無邊	-11.8368
善無畏所譯	-11.8368
掠	-11.8368
頗有眾生	-11.8369
皆共成佛道	-11.8369
培	-11.8369
開壇門部陀羅尼	-11.837
狐	-11.837
善護念諸菩薩	-11.837
販	-11.837
芒果林	-11.837
矢吹慶輝	-11.837
評價	-11.8371
剎帝利	-11.8371
聞經佛子罪消滅	-11.8371
kāla	-11.8371
藻	-11.8371
啻	-11.8372
蕃	-11.8372
譜	-11.8372
這件事	-11.8372
經律異相	-11.8372
婁	-11.8372
膳	-11.8372
波羅提木叉	-11.8372
蓄	-11.8372
是人行邪道	-11.8372
跏趺坐	-11.8373
裳	-11.8373
得法眼淨	-11.8373
貞元新定釋教目錄	-11.8373
帕	-11.8373
扉	-11.8373
是一致的	-11.8374
藥師海會	-11.8374
征	-11.8374
思益經	-11.8374
屎尿	-11.8374
韋	-11.8374
karma	-11.8374
方塔本	-11.8374
偉大的聖者啊	-11.8375
▁二十四日	-11.8375
無盡意菩薩	-11.8375
認識對象	-11.8375
天大將軍下	-11.8375
▁三十日	-11.8375
śubha	-11.8375
viṃśati	-11.8375
bah	-11.8375
▁十四日	-11.8375
這個數字	-11.8375
大概是	-11.8375
傳到敦煌	-11.8375
ṅ	-11.8376
應無所住	-11.8376
倡	-11.8376
可變身	-11.8376
若以色見我	-11.8376
肺	-11.8377
粹	-11.8377
如夢幻泡影	-11.8377
endr	-11.8377
抓	-11.8377
皆大歡喜	-11.8377
鈐	-11.8377
誰有復誰無	-11.8377
願此善力	-11.8378
栽	-11.8378
陳明光	-11.8378
閈	-11.8378
集禪源諸論關要	-11.8378
珊瑚	-11.8378
ānu	-11.8378
笈	-11.8379
肋	-11.8379
一百三十卷	-11.8379
珀	-11.838
棘	-11.838
善財童子	-11.8381
尤其是	-11.8381
坦然平	-11.8381
雪山不得為譬	-11.8381
時眾得益	-11.8381
殼	-11.8381
棍	-11.8381
杳	-11.8382
尊勝破地獄儀軌	-11.8382
猊	-11.8383
結尾部分	-11.8383
墮於地獄	-11.8383
筌	-11.8383
掘	-11.8384
桑	-11.8384
當為汝說	-11.8384
搏	-11.8384
大莊嚴寺	-11.8385
欲達無生	-11.8386
不應住色生心	-11.8386
䂮	-11.8387
眾生如來度者	-11.8387
目前尚無法	-11.8387
實如聖教	-11.8388
對病應	-11.8388
紫磨黃金	-11.8388
迷情見有	-11.8389
膺	-11.839
睒	-11.8391
珂	-11.8393
蝦	-11.8393
儉	-11.8394
有較大的	-11.8396
佛在世時	-11.8396
是緣覺人	-11.8396
離一切諸相	-11.8397
佛如來手十指	-11.8401
退失菩提心	-11.8403
站立一旁	-11.8404
飯食已	-11.8405
大足石刻	-11.8405
去世後	-11.8406
始終無變	-11.8407
壬寅年	-11.8408
雙行小字	-11.8414
敷座而坐	-11.8425
佛在舍衛	-11.8812
斛	-11.9273
jīv	-11.9634
喝囉怛那	-11.9723
伽伽那	-11.9737
一切冤家離	-11.9742
鳩摩羅什	-11.9746
丞	-11.9748
㗚	-11.975
蟣	-11.9758
生起之束縛	-11.9766
奄	-11.9767
(1026)	-11.9767
虱	-11.9768
互為配紙	-11.9769
六波羅密	-11.9769
筭	-11.977
紜	-11.9772
大黑天神	-11.9773
異口同音	-11.9773
提婆達多	-11.9773
雌	-11.9773
心滿意足	-11.9774
芝	-11.9775
提謂波利	-11.9775
續群書類	-11.9775
亦必被割	-11.9775
沫	-11.9775
順天府	-11.9775
辟	-11.9776
誦密言	-11.9776
耿	-11.9776
八家秘錄	-11.9777
柏	-11.9777
燃燒著	-11.9777
績	-11.9778
故有斯問	-11.9778
簇	-11.9779
忱	-11.9779
海會眾聖賢	-11.978
地藏菩薩本願經	-11.9781
現法樂住	-11.9781
迪	-11.9782
大明神咒經	-11.9782
叮嚀	-11.9782
閩越金身太平寺沙門若愚述	-11.9782
憲	-11.9782
象馬車步	-11.9782
住不可思議解脫菩薩	-11.9782
栂	-11.9782
民俗佛教	-11.9785
然後乃消	-11.9785
釐	-11.9785
証	-11.9785
迷頭認影	-11.9785
噓	-11.9785
聖賢降真言	-11.9785
目真鄰陀	-11.9786
錐	-11.9786
香花燈塗	-11.9787
梁朝傅大士頌金剛經	-11.9787
詈	-11.9787
唐高宗	-11.9788
溝	-11.9788
渚	-11.9788
梭	-11.9788
瘖啞	-11.9788
蠅	-11.9788
耐他怨害忍	-11.9788
踰	-11.9788
丘	-11.9788
痰	-11.9788
一心皈命禮常住三寶	-11.9789
押	-11.9789
侄	-11.9789
爽	-11.979
拼	-11.979
此燈伏為	-11.979
肥	-11.979
怯	-11.979
這段話	-11.979
痊	-11.9791
5699	-11.9791
頭面禮足	-11.9791
除蓋障	-11.9791
吐蕃統治時期	-11.9791
雪山童子大菩薩	-11.9791
牛王目	-11.9791
鏤	-11.9791
8386	-11.9792
虛空可思量不	-11.9792
控	-11.9792
阱	-11.9793
三業六根悉清淨	-11.9793
攫	-11.9793
揵	-11.9793
一百四十	-11.9794
攢	-11.9794
擋	-11.9794
昨	-11.9794
萊	-11.9794
郊	-11.9794
膏	-11.9794
玲	-11.9794
生慰勞	-11.9794
衲	-11.9794
西夏方塔	-11.9794
現藏雲南省	-11.9794
道場合用	-11.9794
煎熬	-11.9795
寶曇花菩薩	-11.9795
搗	-11.9795
刷	-11.9795
賷	-11.9795
達摩所傳	-11.9795
那羅延	-11.9795
攪	-11.9796
漢傳佛教	-11.9796
趙文煥	-11.9796
迭	-11.9797
各運志誠	-11.9797
屆	-11.9797
來世當得作佛	-11.9797
剋	-11.9797
疏記部	-11.9797
荼	-11.9798
涼土異經	-11.9798
坎	-11.9798
殯	-11.98
儼	-11.9801
覩	-11.9801
悽	-11.9801
妥	-11.9802
滲	-11.9802
賦	-11.9802
仲	-11.9803
喊	-11.9803
芬	-11.9803
株	-11.9803
餉	-11.9803
仏	-11.9804
磚	-11.9805
廉	-11.9806
歐	-11.9806
嘔	-11.9806
儔	-11.9806
孃	-11.9807
踞	-11.9807
諒	-11.9807
悕	-11.9807
猜	-11.9807
噫	-11.9808
餝	-11.9808
悼	-11.9809
爨	-11.9809
悠	-11.9809
𡒌	-11.9809
翫	-11.9811
潰	-11.9811
淹	-11.9812
凋	-11.9812
彎	-11.9813
梳	-11.9814
柄	-11.9815
茅	-11.9815
菀	-11.9815
昆	-11.9816
填	-11.9818
膊	-11.9819
愉	-11.9822
侮	-11.9822
瑣	-11.9822
遜	-11.9824
碓	-11.9828
濩	-11.9833
紇	-12.142
冉	-12.1423
𤚥	-12.1425
兢	-12.1426
靄	-12.1429
儘	-12.1429
遑	-12.1432
'	-12.1432
套	-12.1433
埃	-12.1434
􅶻	-12.1435
棒	-12.1437
詵	-12.1439
毘	-12.1439
却	-12.1442
硬	-12.1442
屢	-12.1443
紋	-12.1446
貶	-12.1446
閭	-12.1447
臼	-12.1447
械	-12.1448
殞	-12.1448
綸	-12.1448
攻	-12.1448
挑	-12.1449
栴	-12.1449
跢	-12.1449
擴	-12.1449
祁	-12.1449
鷺	-12.145
佇	-12.145
舜	-12.1451
頤	-12.1451
誥	-12.1451
経	-12.1451
嬌	-12.1452
藤	-12.1452
凜	-12.1454
棋	-12.1454
瀉	-12.1455
奸	-12.1455
扎	-12.1455
淡	-12.1456
皰	-12.1456
侈	-12.1456
瘟	-12.1457
駭	-12.1457
恪	-12.1457
烤	-12.1457
蟻	-12.1457
遽	-12.1458
旱	-12.1458
溟	-12.1458
腮	-12.1458
胃	-12.1458
鹽	-12.1459
鈸	-12.1459
輿	-12.1459
奠	-12.1459
榖	-12.146
譴	-12.146
翁	-12.146
霏	-12.146
狸	-12.1461
粳	-12.1461
傘	-12.1461
罄	-12.1462
跨	-12.1462
匪	-12.1463
坡	-12.1464
狎	-12.1464
殍	-12.1464
亙	-12.1464
腎	-12.1464
縈	-12.1465
班	-12.1465
邃	-12.1465
礦	-12.1465
并	-12.1466
葛	-12.1466
轍	-12.1466
疱	-12.1466
築	-12.1466
裕	-12.1466
浸	-12.1466
遨	-12.1466
卍	-12.1466
徽	-12.1466
栖	-12.1466
糾	-12.1468
蝕	-12.1468
韓	-12.1469
紗	-12.147
踊	-12.147
厘	-12.1471
豹	-12.1471
沌	-12.1471
餚	-12.1472
睫	-12.1472
酪	-12.1472
詛	-12.1472
餌	-12.1472
箕	-12.1474
館	-12.1474
拶	-12.1475
樞	-12.1476
嗚	-12.1476
貓	-12.1478
輦	-12.1478
沽	-12.1479
涎	-12.1481
鴿	-12.1482
叨	-12.1482
絹	-12.1482
姨	-12.1483
揖	-12.1484
犢	-12.1485
慄	-12.1485
馭	-12.1485
鞠	-12.1486
貸	-12.1486
購	-12.1488
喘	-12.1488
瀑	-12.1488
蹄	-12.1489
壘	-12.1491
罷	-12.1491
囂	-12.1492
擒	-12.1492
咦	-12.1492
撒	-12.1494
廂	-12.1495
鉅	-12.1495
戳	-12.1496
搶	-12.1499
簿	-12.1503
鼈	-12.1509
鉗	-12.3411
巫	-12.3426
肚	-12.343
疎	-12.343
謎	-12.3431
岳	-12.3432
喇	-12.3434
兀	-12.3434
􅶧	-12.3436
錘	-12.3436
槃	-12.3437
砍	-12.3438
潞	-12.3438
穰	-12.3439
橘	-12.344
癘	-12.3441
恁	-12.3441
庥	-12.3441
硃	-12.3441
嚮	-12.3442
緘	-12.3442
臍	-12.3443
仞	-12.3443
繡	-12.3443
釜	-12.3443
嵒	-12.3443
聳	-12.3444
杲	-12.3444
㫊	-12.3444
犍	-12.3445
嵌	-12.3446
蒸	-12.3446
彥	-12.3447
腿	-12.3447
雋	-12.3447
󵔯	-12.3447
哽	-12.3448
瓊	-12.3448
遏	-12.3449
罩	-12.3449
䠒	-12.3449
蚋	-12.3449
箱	-12.345
熠	-12.3451
蔔	-12.3452
袖	-12.3452
蕪	-12.3453
采	-12.3454
騷	-12.3454
疥	-12.3454
僚	-12.3455
嚧	-12.3455
揆	-12.3455
獎	-12.3455
潦	-12.3455
曀	-12.3455
騾	-12.3456
鵝	-12.3456
撓	-12.3456
夥	-12.3457
樸	-12.3457
癢	-12.3457
闊	-12.3457
惻	-12.3458
捷	-12.3458
剔	-12.3459
悰	-12.3459
梟	-12.3459
涸	-12.3459
寵	-12.3459
寤	-12.3459
輞	-12.3459
蔡	-12.346
巷	-12.3461
襟	-12.3462
罐	-12.3462
鎧	-12.3462
丟	-12.3463
豔	-12.3463
胝	-12.3464
挖	-12.3465
癰	-12.3465
臆	-12.3465
巢	-12.3466
耍	-12.3466
嬪	-12.3466
匯	-12.3466
弁	-12.3466
球	-12.3466
脛	-12.3467
飼	-12.3467
幫	-12.3468
屎	-12.3468
咨	-12.3468
玷	-12.3468
腨	-12.3468
裨	-12.3469
蛾	-12.3469
<	-12.347
嚇	-12.347
杌	-12.347
鬱	-12.347
齎	-12.347
汰	-12.347
猿	-12.3471
釣	-12.3471
擺	-12.3472
竅	-12.3472
卅	-12.3472
核	-12.3472
眶	-12.3472
叵	-12.3473
搭	-12.3473
瀚	-12.3473
断	-12.3473
誼	-12.3473
哞	-12.3473
廿	-12.3473
慊	-12.3474
吮	-12.3474
頹	-12.3474
鹹	-12.3474
釵	-12.3475
籐	-12.3475
爵	-12.3475
鑑	-12.3476
碩	-12.3476
讖	-12.3478
髭	-12.3478
邇	-12.3479
糙	-12.3479
璇	-12.3479
股	-12.3479
煬	-12.3479
嘻	-12.348
獷	-12.348
腐	-12.348
楯	-12.3481
禾	-12.3482
蠻	-12.3483
糅	-12.3483
撞	-12.3484
諛	-12.3485
哂	-12.3485
劈	-12.3486
惰	-12.3486
挨	-12.3486
貳	-12.3487
韈	-12.3488
漶	-12.3488
叛	-12.3488
泄	-12.3489
烹	-12.3492
窒	-12.3494
変	-12.3494
潑	-12.3495
皉	-12.3499
䴬	-12.3505
憩	-12.3508
癙	-12.5884
嬭	-12.5896
咩	-12.5909
峙	-12.5912
嘇	-12.5912
=	-12.5913
倮	-12.5917
醺	-12.592
熄	-12.5923
縊	-12.5923
蚖	-12.5923
攘	-12.5924
覚	-12.5924
鑁	-12.5926
喑	-12.5927
崔	-12.5928
卉	-12.5928
瓢	-12.5929
跑	-12.5933
蠱	-12.5934
忒	-12.5935
劑	-12.5935
贓	-12.5937
琦	-12.5938
唧	-12.5939
弩	-12.594
扭	-12.5941
ォ	-12.5942
賅	-12.5944
麓	-12.5944
磬	-12.5945
淌	-12.5945
唏	-12.5945
膾	-12.5945
腥	-12.5946
鄧	-12.5948
繚	-12.5948
嫡	-12.5948
皚	-12.5948
芥	-12.5948
舛	-12.5949
晴	-12.5949
訣	-12.5949
饜	-12.5951
頒	-12.5951
蛆	-12.5952
銖	-12.5952
懃	-12.5952
狄	-12.5952
掙	-12.5953
襯	-12.5953
甦	-12.5953
繕	-12.5953
驟	-12.5954
勁	-12.5955
緩	-12.5955
膻	-12.5955
窈	-12.5955
鴉	-12.5956
絙	-12.5956
仕	-12.5956
擷	-12.5956
徧	-12.5958
蜀	-12.5958
桂	-12.5958
藩	-12.5959
磋	-12.5959
謊	-12.5959
闘	-12.5959
鑲	-12.596
数	-12.596
瘋	-12.5961
弦	-12.5962
痾	-12.5962
漓	-12.5962
矯	-12.5962
詫	-12.5962
濛	-12.5963
炫	-12.5963
沮	-12.5964
撑	-12.5964
攣	-12.5964
樁	-12.5964
礿	-12.5964
挈	-12.5964
褥	-12.5965
隳	-12.5965
戛	-12.5966
掬	-12.5967
朦	-12.5967
軛	-12.5967
鑰	-12.5967
咀	-12.5967
撿	-12.5967
憙	-12.5967
瘦	-12.5967
蔑	-12.5968
雉	-12.5969
颺	-12.5969
洎	-12.5969
趍	-12.5969
轄	-12.597
据	-12.597
貼	-12.597
醘	-12.597
祚	-12.597
霖	-12.597
鼕	-12.597
閤	-12.597
岫	-12.5971
懶	-12.5971
擠	-12.5971
旭	-12.5971
葷	-12.5971
汪	-12.5971
撩	-12.5973
睦	-12.5973
軻	-12.5973
炮	-12.5973
仆	-12.5974
牀	-12.5974
彬	-12.5975
沃	-12.5975
鵠	-12.5975
慟	-12.5976
褓	-12.5976
蟠	-12.5976
簽	-12.5976
沓	-12.5977
茗	-12.5977
讒	-12.5978
闔	-12.5978
豺	-12.5978
傅	-12.5979
畝	-12.598
橛	-12.598
袁	-12.5981
萐	-12.5981
澈	-12.5982
捩	-12.5984
鏗	-12.5985
扳	-12.5985
氈	-12.5985
漲	-12.5985
憾	-12.5985
綾	-12.5987
縠	-12.5988
将	-12.5988
嗡	-12.5988
伶	-12.5989
趐	-12.5991
叱	-12.5991
券	-12.5991
挾	-12.5992
賽	-12.5995
誹	-12.5995
㝹	-12.5998
詭	-12.5999
嚙	-12.5999
蔬	-12.6
蟒	-12.6003
尉	-12.6005
牡	-12.6005
脊	-12.6006
犒	-12.6009
惛	-12.6012
泮	-12.9186
苫	-12.9228
恬	-12.9228
丕	-12.9228
蘗	-12.923
闥	-12.9234
豸	-12.9236
𠷑	-12.9241
荅	-12.9244
琉	-12.9245
翱	-12.9249
閫	-12.9251
鐺	-12.9253
苛	-12.9253
盟	-12.9254
雑	-12.9255
逈	-12.9255
攙	-12.9257
捏	-12.9259
嚲	-12.9261
皓	-12.9261
熔	-12.9262
呆	-12.9263
誣	-12.9263
襴	-12.9265
瓜	-12.9265
稈	-12.9267
呀	-12.9267
眛	-12.9267
旌	-12.9267
貰	-12.9268
翰	-12.9269
瓣	-12.927
絃	-12.9271
罅	-12.9271
佞	-12.9271
枚	-12.9271
顒	-12.9271
榨	-12.9271
逄	-12.9272
盼	-12.9272
罽	-12.9273
攞	-12.9274
蹬	-12.9274
駢	-12.9276
􅶫	-12.9276
繳	-12.9276
誅	-12.9276
嗒	-12.9276
癃	-12.9276
属	-12.9276
迍	-12.9276
妊	-12.9276
臈	-12.9278
􅶷	-12.9278
搔	-12.9278
殲	-12.9278
盥	-12.9278
陌	-12.9278
壅	-12.9278
燕	-12.928
窄	-12.928
姐	-12.928
紂	-12.928
宥	-12.928
圭	-12.9282
迺	-12.9282
瞥	-12.9282
惘	-12.9282
熊	-12.9282
猝	-12.9282
哄	-12.9282
懵	-12.9282
舐	-12.9282
璧	-12.9284
薑	-12.9284
毆	-12.9284
悚	-12.9284
ゥ	-12.9284
垓	-12.9286
諳	-12.9286
薝	-12.9286
髒	-12.9286
亘	-12.9286
戎	-12.9286
癊	-12.9286
羨	-12.9288
藕	-12.9288
騫	-12.9288
懊	-12.9288
簾	-12.9288
絢	-12.929
迂	-12.929
鎔	-12.929
秣	-12.929
皏	-12.929
瞽	-12.929
虀	-12.929
冶	-12.929
垣	-12.929
髀	-12.929
奘	-12.929
訝	-12.9291
聘	-12.9292
涌	-12.9292
郢	-12.9292
暈	-12.9292
盪	-12.9292
膂	-12.9292
淑	-12.9294
崎	-12.9294
勺	-12.9294
擦	-12.9294
椅	-12.9294
賑	-12.9294
釧	-12.9294
羈	-12.9294
篡	-12.9296
竈	-12.9296
搬	-12.9296
𩰖	-12.9296
鶻	-12.9297
璃	-12.9298
O	-12.9298
灘	-12.9298
莂	-12.9298
裔	-12.9298
鏹	-12.9298
哎	-12.9299
浦	-12.9299
塚	-12.9299
肓	-12.9299
脖	-12.9299
岡	-12.9299
賒	-12.9299
謠	-12.9299
躺	-12.9299
炊	-12.93
寓	-12.9301
罟	-12.9301
搞	-12.9301
佰	-12.9301
浣	-12.9301
箇	-12.9301
鞅	-12.9301
肴	-12.9303
灶	-12.9303
芙	-12.9303
􅶛	-12.9303
僭	-12.9303
扃	-12.9303
訃	-12.9303
禿	-12.9304
螭	-12.9305
鬢	-12.9305
塑	-12.9305
忝	-12.9305
濾	-12.9305
􂂈	-12.9305
攏	-12.9305
魁	-12.9305
憚	-12.9305
唆	-12.9306
亭	-12.9307
幣	-12.9307
偕	-12.9307
腕	-12.9307
闢	-12.9307
呻	-12.9307
裊	-12.9307
鏈	-12.9309
簫	-12.9309
窪	-12.9309
薗	-12.9309
輻	-12.9309
坼	-12.9309
槌	-12.9309
歪	-12.9311
嵩	-12.9311
倆	-12.9313
娠	-12.9313
迮	-12.9313
卓	-12.9313
嶮	-12.9313
鵬	-12.9313
摻	-12.9313
嘶	-12.9315
迢	-12.9315
鎚	-12.9315
惺	-12.9315
尿	-12.9315
徇	-12.9317
澗	-12.9317
梓	-12.9317
紐	-12.9317
莆	-12.9317
脆	-12.9318
氛	-12.9319
敞	-12.9319
衹	-12.9319
孑	-12.9319
輟	-12.9319
𦡈	-12.9319
竿	-12.9321
謳	-12.9321
侽	-12.9323
悒	-12.9323
桌	-12.9325
觚	-12.9325
眩	-12.9326
廁	-12.9326
蔥	-12.933
妝	-12.933
眇	-12.9332
繭	-12.9332
槽	-12.9332
愕	-12.9334
鈎	-12.9336
郵	-12.9338
鏃	-12.934
迨	-12.9342
陟	-12.9344
峽	-12.9346
禹	-12.9348
拌	-12.9352
璽	-12.9404
央	-13.4114
𠾏	-13.4193
竚	-13.4212
婢	-13.4215
侐	-13.4215
顓	-13.4215
􅶸	-13.4215
票	-13.4218
俁	-13.4221
脯	-13.4228
􂂊	-13.4231
抳	-13.4234
捍	-13.4234
籬	-13.4234
羶	-13.4237
蘖	-13.4237
𤙖	-13.4237
掀	-13.424
躄	-13.425
頷	-13.425
翂	-13.4253
󷘃	-13.4253
泗	-13.4256
桓	-13.4256
獍	-13.4256
碰	-13.4256
捻	-13.4256
綢	-13.4256
餒	-13.4259
弔	-13.4259
撈	-13.4259
磕	-13.4259
U	-13.4259
坵	-13.4259
漉	-13.4259
衾	-13.4262
貲	-13.4262
愔	-13.4262
懦	-13.4262
瀅	-13.4266
鹵	-13.4266
憨	-13.4266
楹	-13.4266
蹴	-13.4266
驤	-13.4266
竄	-13.4268
学	-13.4269
擅	-13.4269
觝	-13.4269
港	-13.4272
抒	-13.4272
旺	-13.4272
亟	-13.4272
挍	-13.4272
槐	-13.4272
砧	-13.4272
蹌	-13.4272
齁	-13.4272
屯	-13.4275
暄	-13.4275
膠	-13.4275
鈞	-13.4275
駐	-13.4275
仄	-13.4275
佃	-13.4275
俞	-13.4275
柂	-13.4275
猖	-13.4275
矮	-13.4275
禦	-13.4275
覬	-13.4275
趁	-13.4275
闚	-13.4275
帚	-13.4278
歘	-13.4278
瞑	-13.4278
鵰	-13.4278
嚐	-13.4278
槁	-13.4278
𦿔	-13.4278
怎	-13.4279
哥	-13.428
貽	-13.428
挹	-13.428
鐮	-13.4281
􅶟	-13.4281
咆	-13.4281
妍	-13.4281
沭	-13.4281
霽	-13.4281
衫	-13.4284
硈	-13.4284
奎	-13.4284
萃	-13.4284
漱	-13.4284
蒞	-13.4284
迓	-13.4284
邱	-13.4284
韶	-13.4284
澌	-13.4284
臠	-13.4284
粵	-13.4286
瘖	-13.4287
彚	-13.4288
愴	-13.4288
酡	-13.4288
嗯	-13.4288
剌	-13.4288
嗄	-13.4288
塘	-13.4288
岐	-13.4288
暝	-13.4288
猷	-13.4288
辣	-13.4288
鵲	-13.4288
湩	-13.4288
舡	-13.4288
穎	-13.4289
熒	-13.4291
勛	-13.4291
篋	-13.4291
鯨	-13.4291
鋼	-13.4291
墟	-13.4291
甫	-13.4291
盓	-13.4291
禘	-13.4291
羌	-13.4291
耑	-13.4291
覯	-13.4291
貊	-13.4291
擰	-13.4294
霍	-13.4294
訐	-13.4294
譚	-13.4294
悷	-13.4294
輛	-13.4294
晡	-13.4294
独	-13.4294
剥	-13.4294
檻	-13.4294
獃	-13.4294
趾	-13.4294
頞	-13.4294
𦍙	-13.4294
􅶞	-13.4294
隘	-13.4297
􂏩	-13.4297
裙	-13.4297
狠	-13.4297
臡	-13.4297
俟	-13.4297
匆	-13.4297
墊	-13.4297
斌	-13.4297
湊	-13.4297
琢	-13.4297
睜	-13.4297
砮	-13.4297
粲	-13.4297
躋	-13.4297
酢	-13.4297
涃	-13.4299
薨	-13.43
嫦	-13.43
煖	-13.43
蔣	-13.43
陡	-13.43
圜	-13.43
蛉	-13.43
螟	-13.43
鋻	-13.43
炳	-13.43
綽	-13.43
繹	-13.43
踈	-13.43
仡	-13.43
婿	-13.43
弋	-13.43
棗	-13.43
簋	-13.43
簠	-13.43
鯉	-13.43
倖	-13.4301
○	-13.4302
伙	-13.4303
娟	-13.4303
彝	-13.4303
鞋	-13.4303
㮈	-13.4303
丳	-13.4303
刳	-13.4303
剏	-13.4303
劓	-13.4303
叮	-13.4303
呷	-13.4303
彜	-13.4303
潺	-13.4303
禎	-13.4303
絞	-13.4303
諠	-13.4303
轅	-13.4303
郝	-13.4303
z	-13.4304
泌	-13.4306
疇	-13.4306
懿	-13.4306
牘	-13.4306
倪	-13.4306
咅	-13.4306
囿	-13.4306
鋩	-13.4306
咱	-13.4306
砥	-13.4306
蛟	-13.4306
躡	-13.4306
軋	-13.4306
懌	-13.431
檄	-13.431
􅶥	-13.431
饗	-13.431
扁	-13.431
攆	-13.431
簷	-13.431
逭	-13.431
闌	-13.431
秒	-13.431
鸞	-13.4312
肪	-13.4313
寮	-13.4313
裘	-13.4313
醴	-13.4313
􅶚	-13.4313
唉	-13.4313
洫	-13.4313
菟	-13.4313
蠕	-13.4313
顎	-13.4313
駒	-13.4313
􅶕	-13.4313
暉	-13.4314
架	-13.4316
熬	-13.4316
嬗	-13.4316
􅶜	-13.4316
拷	-13.4316
冢	-13.4316
刖	-13.4316
曄	-13.4316
稔	-13.4316
蕓	-13.4316
馮	-13.4316
朴	-13.4319
魑	-13.4319
堤	-13.4319
幔	-13.4319
店	-13.4319
竣	-13.4319
踩	-13.4319
叼	-13.4321
茨	-13.4321
騖	-13.4321
疴	-13.4322
樵	-13.4322
詬	-13.4322
悃	-13.4322
搥	-13.4322
帳	-13.4322
杆	-13.4322
繈	-13.4322
"	-13.4322
媚	-13.4322
杻	-13.4322
駟	-13.4322
与	-13.4324
矢	-13.4325
尠	-13.4325
宦	-13.4325
覲	-13.4325
堡	-13.4325
貿	-13.4325
牌	-13.4325
蚤	-13.4328
鑛	-13.4328
篩	-13.4329
渧	-13.4329
捌	-13.4329
舂	-13.4329
騃	-13.433
袍	-13.4332
緬	-13.4332
桶	-13.4332
綺	-13.4332
ア	-13.4333
媳	-13.4335
硨	-13.4335
羔	-13.4335
嫻	-13.4335
浙	-13.4335
窠	-13.4335
乂	-13.4335
煒	-13.4335
纍	-13.4335
と	-13.4336
矧	-13.4338
淒	-13.4341
彖	-13.4341
拇	-13.4341
胒	-13.4344
猥	-13.4344
蠶	-13.4344
縹	-13.4344
尹	-13.4344
鎸	-13.4344
仃	-13.4347
嘲	-13.4347
􅶭	-13.4347
壑	-13.4354
餯	-13.4354
賂	-13.4357
妁	-13.4357
柯	-13.4357
緡	-13.436
笥	-13.436
菓	-13.436
逗	-13.436
皊	-13.436
愷	-13.4363
皴	-13.4363
旛	-13.4366
捔	-13.4366
賄	-13.4369
橐	-13.4369
蛗	-13.4382
勻	-13.4385
紡	-13.4392
妲	-13.4448
􅶽	-14.412
􂣃	-14.4121
𥞩	-14.4122
𣧾	-14.4123
齶	-14.4124
鼙	-14.4125
黔	-14.4126
麴	-14.4127
麒	-14.4128
鷗	-14.4129
鷖	-14.413
鴟	-14.4131
驍	-14.4132
駿	-14.4133
駁	-14.4134
飡	-14.4135
顰	-14.4136
顙	-14.4137
鞏	-14.4138
鞍	-14.4139
雹	-14.414
闖	-14.4141
閼	-14.4142
咏	-14.4143
鐐	-14.4143
鍪	-14.4144
錍	-14.4145
鉞	-14.4146
鉛	-14.4147
酤	-14.4148
酣	-14.4149
邙	-14.415
辺	-14.4151
轡	-14.4152
躑	-14.4153
蹙	-14.4154
豢	-14.4155
譭	-14.4156
謄	-14.4157
覷	-14.4158
襁	-14.4159
褻	-14.416
藹	-14.4161
薛	-14.4162
薙	-14.4163
蓉	-14.4164
葩	-14.4165
苕	-14.4166
舶	-14.4167
膨	-14.4168
脹	-14.4169
缸	-14.417
纓	-14.4171
緋	-14.4172
綫	-14.4173
綩	-14.4174
綖	-14.4175
窕	-14.4176
禛	-14.4177
祑	-14.4178
碗	-14.4179
瞙	-14.418
睚	-14.4181
癭	-14.4182
癥	-14.4183
瘢	-14.4184
痢	-14.4185
璉	-14.4186
琮	-14.4187
犧	-14.4188
濠	-14.4189
澥	-14.419
潢	-14.4191
滂	-14.4192
渤	-14.4193
淆	-14.4194
淅	-14.4195
洶	-14.4196
洱	-14.4197
洟	-14.4198
沱	-14.4199
欻	-14.42
楫	-14.4201
棟	-14.4202
梗	-14.4203
暱	-14.4204
揩	-14.4205
拆	-14.4206
勍	-14.4207
慞	-14.4207
愜	-14.4208
惕	-14.4209
惋	-14.421
悸	-14.4211
恍	-14.4212
徨	-14.4213
徘	-14.4214
瑚	-14.4215
咫	-14.4215
徊	-14.4215
彿	-14.4216
彷	-14.4217
彪	-14.4218
弈	-14.4219
嶇	-14.422
崗	-14.4221
嫩	-14.4222
虻	-14.4223
吁	-14.4223
姉	-14.4223
声	-14.4224
堙	-14.4225
埽	-14.4226
坷	-14.4227
嚾	-14.4228
嘹	-14.4229
嗤	-14.423
嚀	-14.4231
亶	-14.4231
唻	-14.4231
鮑	-14.4231
咯	-14.4231
双	-14.4232
卞	-14.4233
匐	-14.4234
匍	-14.4235
刎	-14.4236
冕	-14.4237
儴	-14.4238
划	-14.4239
僵	-14.4239
估	-14.424
会	-14.4241
黽	-14.4242
鶹	-14.4243
鵂	-14.4244
顗	-14.4245
靂	-14.4246
瓔	-14.4247
偵	-14.4247
僥	-14.4247
刂	-14.4247
勣	-14.4247
咋	-14.4247
哮	-14.4247
喬	-14.4247
霹	-14.4247
雛	-14.4248
闐	-14.4249
釭	-14.425
轟	-14.4251
躃	-14.4252
賬	-14.4253
襪	-14.4254
巍	-14.4255
倩	-14.4255
沛	-14.4255
蝮	-14.4255
蜒	-14.4256
蚰	-14.4257
葫	-14.4258
腱	-14.4259
聃	-14.426
紊	-14.4261
篌	-14.4262
仵	-14.4263
冗	-14.4263
効	-14.4263
箜	-14.4263
盔	-14.4264
瘳	-14.4265
畆	-14.4266
輾	-14.4267
琥	-14.4267
煻	-14.4268
煨	-14.4269
瀟	-14.427
倭	-14.4271
兌	-14.4271
卸	-14.4271
参	-14.4271
嘎	-14.4271
湎	-14.4271
洴	-14.4272
汜	-14.4273
殑	-14.4274
楔	-14.4275
曦	-14.4276
撐	-14.4277
摒	-14.4278
傚	-14.4279
僑	-14.4279
呰	-14.4279
哦	-14.4279
峨	-14.4279
珞	-14.4279
罡	-14.4279
揄	-14.4279
慷	-14.428
嶼	-14.4281
媾	-14.4282
婇	-14.4283
垠	-14.4284
嘯	-14.4285
嗽	-14.4286
幀	-14.4287
佺	-14.4287
侘	-14.4287
剞	-14.4287
劂	-14.4287
喀	-14.4287
喙	-14.4287
嗢	-14.4287
磑	-14.4287
芾	-14.4287
鴦	-14.4287
咐	-14.4287
吩	-14.4288
匡	-14.4289
匙	-14.429
丐	-14.4291
x	-14.4292
鶖	-14.4293
魎	-14.4294
俛	-14.4295
倐	-14.4295
厝	-14.4295
喏	-14.4295
嗓	-14.4295
魍	-14.4295
*	-14.4296
酆	-14.4296
觴	-14.4297
蠍	-14.4298
㮦	-14.4299
翛	-14.4299
羂	-14.43
{	-14.4301
緯	-14.4301
穗	-14.4302
䗈	-14.4303
}	-14.4303
俠	-14.4303
凸	-14.4303
勑	-14.4303
勖	-14.4303
匕	-14.4303
咂	-14.4303
咭	-14.4303
哳	-14.4303
啕	-14.4303
嗇	-14.4303
璣	-14.4303
煢	-14.4304
~	-14.4305
炅	-14.4305
瀏	-14.4306
濱	-14.4307
漾	-14.4308
侖	-14.4308
溯	-14.4309
泳	-14.431
杙	-14.4311
鵡	-14.4311
Φ	-14.4311
〇	-14.4311
㬋	-14.4311
㽱	-14.4311
儁	-14.4311
剁	-14.4311
剿	-14.4311
札	-14.4312
斟	-14.4313
揉	-14.4314
徬	-14.4315
庖	-14.4316
幟	-14.4317
嵯	-14.4318
屑	-14.4319
㤶	-14.4319
孥	-14.432
埸	-14.4321
嚂	-14.4322
噴	-14.4323
噁	-14.4324
咷	-14.4325
凰	-14.4326
僱	-14.4327
僉	-14.4327
佼	-14.4328
乩	-14.4329
麝	-14.433
髑	-14.4331
醞	-14.4332
賾	-14.4333
螢	-14.4334
蘩	-14.4335
㶿	-14.4335
两	-14.4335
藺	-14.4336
萏	-14.4337
菡	-14.4338
繽	-14.4339
眥	-14.434
瓏	-14.4341
琰	-14.4342
猙	-14.4343
ジ	-14.4344
乱	-14.4344
剉	-14.4344
斜	-14.4344
憊	-14.4345
姻	-14.4346
妓	-14.4347
䏶	-14.4348
鳧	-14.4349
靉	-14.435
靆	-14.4351
に	-14.4352
の	-14.4352
グ	-14.4352
ソ	-14.4352
ド	-14.4352
邕	-14.4352
鸚	-14.4352
陝	-14.4352
鍵	-14.4353
袞	-14.4354
荔	-14.4355
い	-14.4356
づ	-14.4356
て	-14.4356
肖	-14.4356
羼	-14.4357
柘	-14.4358
晰	-14.4359
呿	-14.436
梢	-14.436
擗	-14.436
扮	-14.4361
岌	-14.4362
婪	-14.4363
嚨	-14.4364
嚥	-14.4365
僮	-14.4366
麈	-14.4367
䳓	-14.4368
乇	-14.4368
侔	-14.4368
隍	-14.4368
閩	-14.4369
蟆	-14.437
蝠	-14.4371
蝙	-14.4372
葦	-14.4373
荃	-14.4374
翟	-14.4375
偌	-14.4376
唬	-14.4376
磐	-14.4376
烊	-14.4377
澂	-14.4378
滄	-14.4379
榻	-14.438
擻	-14.4381
弧	-14.4382
婻	-14.4383
䫂	-14.4384
奕	-14.4384
饉	-14.4385
顱	-14.4386
菪	-14.4387
莨	-14.4388
芯	-14.4389
聆	-14.439
瑋	-14.4391
滔	-14.4392
獼	-14.4392
獰	-14.4393
牝	-14.4394
撕	-14.4395
鳶	-14.4396
踝	-14.4397
芭	-14.4398
濯	-14.4399
撻	-14.44
䘀	-14.44
齦	-14.44
淤	-14.44
棠	-14.4401
嶸	-14.4402
崢	-14.4403
寰	-14.4404
緻	-14.4405
癒	-14.4406
湮	-14.4407
氳	-14.4408
槨	-14.4409
棵	-14.441
拓	-14.4411
恙	-14.4412
嘩	-14.4413
х	-14.4414
Д	-14.4415
儜	-14.4416
骷	-14.4416
稼	-14.4417
氤	-14.4418
憔	-14.4419
吵	-14.442
珈	-14.4421
蘋	-14.4422
杭	-14.4423
閦	-14.4424
爺	-14.4425
醐	-14.4426
醍	-14.4427
苾	-14.4428
碼	-14.4429
瑙	-14.443
罣	-14.4431
筒	-14.4432
癩	-14.4433
疼	-14.4434
逍	-14.4435
憒	-14.4436
佔	-14.4437
盾	-14.4438
冑	-14.4439
袈	-14.444
抖	-14.4441
宙	-14.4442
睺	-14.4443
贍	-14.4444
瞭	-14.4445
哺	-14.4446
渢	-14.4447
抉	-14.4448
慇	-14.4449
凱	-14.445
仔	-14.4451
臾	-14.4452
磧	-14.4453
錩	-14.4454
夠	-14.4455
卦	-14.4456
跏	-14.4456
繢	-14.4457
礎	-14.4458
ñ	-14.4459
洹	-14.446
ṇ	-14.4461
ṣ	-14.4462
§	-14.4463
|	-14.4464
勱	-14.4464
