<unk>	0
<s>	0
</s>	0
。	-2.14258
,	-3.62924
者	-4.48252
、	-4.93577
若	-4.94404
也	-5.02877
故	-5.07493
不	-5.09146
為	-5.25891
:「	-5.29827
之	-5.34158
(	-5.35311
有	-5.3781
法	-5.39308
二	-5.4061
一	-5.4353
是	-5.44767
以	-5.48095
人	-5.4961
中	-5.5002
此	-5.59428
三	-5.60486
得	-5.61362
無	-5.61481
時	-5.62083
即	-5.65274
。」	-5.66622
言	-5.67259
作	-5.69003
)	-5.76249
心	-5.76289
謂	-5.79123
於	-5.81214
如	-5.82756
等	-5.87654
比丘	-5.89568
非	-5.89602
行	-5.92263
四	-5.94554
戒	-5.94993
說	-5.96215
佛	-6.00686
我	-6.00691
生	-6.01425
與	-6.01813
受	-6.01994
云	-6.03635
▁*	-6.04616
而	-6.04775
應	-6.07193
事	-6.07343
下	-6.08208
相	-6.09068
大	-6.09301
其	-6.12325
食	-6.1581
名	-6.16318
自	-6.1683
所	-6.17541
彼	-6.17616
上	-6.188
衣	-6.19599
僧	-6.20559
後	-6.20725
問	-6.21648
見	-6.24169
五	-6.24543
當	-6.25159
至	-6.25965
今	-6.26905
或	-6.27905
▁	-6.30068
不得	-6.30356
處	-6.31305
前	-6.32864
犯	-6.33678
身	-6.34365
諸	-6.34527
在	-6.37344
已	-6.37397
及	-6.39717
巳	-6.40987
知	-6.41843
同	-6.42222
罪	-6.45388
分	-6.4588
欲	-6.46063
明	-6.46131
義	-6.47621
出	-6.48121
從	-6.4817
入	-6.48209
亦	-6.49381
令	-6.49663
多	-6.51149
隨	-6.52634
成	-6.52778
用	-6.53641
皆	-6.5487
教	-6.55117
來	-6.55127
取	-6.55311
能	-6.55878
!	-6.56545
通	-6.57503
眾	-6.57533
初	-6.57871
語	-6.58151
)。	-6.58323
緣	-6.58425
又	-6.59191
則	-6.59383
;	-6.59898
?」	-6.59923
道	-6.61255
汝	-6.63305
文	-6.64716
可	-6.66927
過	-6.67263
餘	-6.68116
本	-6.68717
物	-6.68833
別	-6.69239
解	-6.70299
重	-6.71783
正	-6.72234
答	-6.72429
一切	-6.72686
王	-6.72718
先	-6.73475
:『	-6.73527
意	-6.74685
便	-6.74686
羯磨	-6.75335
經	-6.75626
起	-6.75778
師	-6.76835
持	-6.76914
善	-6.77932
如是	-6.79558
乃至	-6.79842
觀	-6.80059
捨	-6.80321
佛言	-6.80475
未	-6.81523
六	-6.82892
因	-6.83486
次	-6.83961
具	-6.86186
開	-6.87794
曰	-6.87868
復	-6.87982
須	-6.88373
尼	-6.88561
結	-6.89821
?	-6.90288
舉	-6.91124
淨	-6.91234
釋	-6.91549
住	-6.91821
地	-6.92586
菩薩	-6.9374
但	-6.93961
聽	-6.94148
。」【	-6.94529
著	-6.95182
還	-6.9587
難	-6.96278
七	-6.97261
坐	-6.97432
然	-6.97507
共	-6.98849
他	-6.99061
制	-6.99704
去	-7.001
請	-7.00308
由	-7.01302
依	-7.01779
常	-7.02062
定	-7.02072
十	-7.02312
業	-7.02627
聞	-7.02995
求	-7.03618
惡	-7.04566
。】「	-7.05417
色	-7.06195
日	-7.07157
門	-7.07977
雖	-7.08441
。』	-7.08541
白	-7.09128
除	-7.09611
八	-7.1062
論	-7.10837
施	-7.1178
既	-7.11984
立	-7.12233
耶	-7.12429
體	-7.1302
水	-7.13505
異	-7.15023
世尊	-7.16034
約	-7.16377
使	-7.16831
離	-7.17567
斷	-7.17617
對	-7.18046
第二	-7.18327
俱	-7.1856
失	-7.2014
盡	-7.20415
果	-7.20626
子	-7.20702
滅	-7.20794
想	-7.21026
竟	-7.21742
方	-7.22395
破	-7.22414
何	-7.22535
向	-7.22665
理	-7.24599
不應	-7.24687
往	-7.2496
內	-7.25012
律	-7.25056
外	-7.25211
鉢	-7.2557
小	-7.25721
更	-7.25822
實	-7.27124
家	-7.27536
長	-7.27631
合	-7.29497
苦	-7.29733
乃	-7.30711
念	-7.30897
學	-7.31629
兩	-7.32096
出家	-7.32124
比丘尼	-7.32276
女	-7.32367
樂	-7.32926
界	-7.34723
若比丘	-7.35669
智	-7.36107
攝	-7.36124
利	-7.36757
修	-7.37191
空	-7.37211
引	-7.37626
諸比丘	-7.37705
顯	-7.37799
天	-7.38165
眾生	-7.38742
足	-7.38844
國	-7.38902
答言	-7.38972
境	-7.39072
願	-7.391
不犯	-7.39655
並	-7.39692
發	-7.40329
苾芻	-7.40434
數	-7.40648
報	-7.40837
方便	-7.41877
疑	-7.42048
集	-7.42722
藥	-7.43018
:	-7.43292
證	-7.4379
如來	-7.43874
主	-7.4392
第三	-7.44111
將	-7.44187
世	-7.44283
死	-7.44458
清淨	-7.44699
廣	-7.44833
覆	-7.45131
】	-7.46486
唯	-7.46957
乞	-7.47132
識	-7.47268
性	-7.47324
勝	-7.47782
輕	-7.47824
。「	-7.48874
口	-7.49713
疏	-7.50083
位	-7.50675
必	-7.51013
各	-7.51221
突吉羅	-7.51258
示	-7.51704
度	-7.52794
云何	-7.54141
波逸提	-7.54348
病	-7.54357
護	-7.54396
好	-7.55082
不可	-7.55929
安	-7.56408
畜	-7.57138
殺	-7.57498
現	-7.57571
供養	-7.58591
是名	-7.59154
指	-7.59167
略	-7.59396
沙彌	-7.59752
就	-7.59807
寶	-7.60979
要	-7.61175
故云	-7.61249
止	-7.61309
少	-7.61886
壞	-7.63303
九	-7.64611
不知	-7.64884
邊	-7.65328
名為	-7.65435
不同	-7.66202
誦	-7.67273
頭	-7.67948
某甲	-7.68944
命	-7.6918
德	-7.69237
品	-7.69277
總	-7.693
不能	-7.6946
力	-7.69474
直	-7.69877
爾時	-7.70327
遮	-7.72077
▁二	-7.726
斯	-7.72773
治	-7.7332
宗	-7.74631
量	-7.74701
手	-7.74996
轉	-7.75182
化	-7.75618
盜	-7.76048
俗	-7.76128
滿	-7.76599
稱	-7.7674
聖	-7.77018
根	-7.77368
禮	-7.77562
凡	-7.7765
即是	-7.77854
差	-7.77861
種	-7.78765
形	-7.78839
覺	-7.79075
信	-7.79289
弟子	-7.79409
自恣	-7.79895
藏	-7.80942
如法	-7.81029
情	-7.81125
深	-7.81734
耳	-7.82172
觸	-7.82387
歸	-7.82404
違	-7.82881
若不	-7.82905
光	-7.83022
羅	-7.84505
懺	-7.84521
莫	-7.85113
屬	-7.85537
外道	-7.85906
說法	-7.85935
聲	-7.85943
真	-7.86181
說戒	-7.86282
被	-7.87016
受戒	-7.87202
極	-7.87613
恐	-7.87669
字	-7.87712
房	-7.87748
第一	-7.88199
所以	-7.88848
宿	-7.89138
器	-7.89372
妄	-7.89873
墮	-7.9007
樹	-7.90312
非法	-7.90765
反	-7.90854
會	-7.90883
大德	-7.91134
障	-7.91348
造	-7.91776
辨	-7.92038
音	-7.92265
夜	-7.9249
不淨	-7.92573
故曰	-7.92591
慧	-7.92714
部	-7.93137
若有	-7.93316
列	-7.93742
懺悔	-7.94771
賊	-7.94821
加	-7.94866
悔	-7.95245
財	-7.96105
和	-7.96404
染	-7.97204
此是	-7.97397
女人	-7.97442
告	-7.97468
謗	-7.97645
一人	-7.97657
因緣	-7.97723
遂	-7.98118
沙門	-7.98252
眾僧	-7.98372
提	-7.98621
猶	-7.98993
句	-7.99285
種種	-7.99358
執	-7.9966
服	-8.00094
類	-8.003
望	-8.00349
功德	-8.00878
福	-8.00974
山	-8.01242
▁初	-8.018
增	-8.01838
第四	-8.01969
卷	-8.02158
流	-8.02492
年	-8.03236
摩	-8.03284
雜	-8.03436
香	-8.04056
高	-8.04149
捉	-8.04243
母	-8.04313
是故	-8.04343
許	-8.04673
等者	-8.04676
到	-8.04728
舍	-8.05217
親	-8.06089
順	-8.06258
爾	-8.06394
勸	-8.06692
獨	-8.06724
火	-8.06864
准	-8.0733
神	-8.07509
據	-8.07944
設	-8.08232
愛	-8.08659
我今	-8.08775
四分	-8.08791
不成	-8.08863
我等	-8.08994
妙	-8.091
次第	-8.09126
無量	-8.09251
思	-8.09368
易	-8.09384
涅槃	-8.09403
月	-8.09488
上座	-8.09517
篇	-8.09651
趣	-8.0981
打	-8.1049
父母	-8.10587
汝等	-8.10712
寺	-8.10723
敬	-8.10944
半	-8.1102
且	-8.11073
如上	-8.11557
悉	-8.11882
經云	-8.11894
圓	-8.12292
授	-8.12608
煩惱	-8.13362
諍	-8.13473
一一	-8.14051
諫	-8.14597
遠	-8.15453
貪	-8.1573
看	-8.16073
安居	-8.16248
那	-8.17599
標	-8.17793
喻	-8.1784
了	-8.17887
草	-8.18741
損	-8.19542
簡	-8.19702
記	-8.20747
居士	-8.21519
近	-8.21667
根本	-8.21786
三寶	-8.2181
長者	-8.22245
假	-8.22595
齊	-8.22824
僧祇	-8.2342
傳	-8.23461
置	-8.23525
某	-8.23561
金	-8.23621
塔	-8.23759
吉	-8.23788
十二	-8.23803
無罪	-8.23908
宜	-8.24056
劫	-8.24583
無犯	-8.24726
波羅夷	-8.24907
解脫	-8.25761
居	-8.25784
棄	-8.26139
準	-8.26723
如前	-8.26729
忍	-8.26744
矣	-8.26857
計	-8.26883
分別	-8.26992
息	-8.27009
并	-8.27054
例	-8.27197
亦如是	-8.27254
夏	-8.28042
眼	-8.28044
索	-8.28237
作法	-8.28253
儀	-8.28313
阿	-8.28352
具足	-8.2839
城	-8.28514
始	-8.28615
阿難	-8.2921
住處	-8.29358
佛法	-8.29586
呵	-8.29705
動	-8.2995
聚	-8.30038
和合	-8.30218
新	-8.30862
邪	-8.30889
陀	-8.31241
大乘	-8.31649
而不	-8.31772
不受	-8.31794
尊	-8.32271
十誦	-8.32355
容	-8.32374
害	-8.32456
婆	-8.32533
終	-8.32729
華	-8.33028
書	-8.33247
百	-8.33262
表	-8.33288
答曰	-8.33444
飲	-8.33449
惱	-8.33494
迷	-8.33517
習	-8.33585
受持	-8.33724
迦	-8.33828
木	-8.34074
飲食	-8.34621
威儀	-8.34682
土	-8.34688
婆羅門	-8.34749
互	-8.34813
益	-8.34994
?』	-8.35122
現前	-8.35438
座	-8.35742
達	-8.36104
夫	-8.3623
收	-8.36367
成就	-8.36747
遣	-8.36829
。」「	-8.37024
持戒	-8.37082
目	-8.37172
。○	-8.37217
無有	-8.37799
千	-8.37967
僧中	-8.37998
禪	-8.38123
故名	-8.38219
大眾	-8.3846
似	-8.38634
誰	-8.39052
酒	-8.39372
可知	-8.40222
第五	-8.40375
世間	-8.40404
乘	-8.40419
和尚	-8.40821
瞋	-8.41092
蘭	-8.41278
於此	-8.41966
豈	-8.42012
長老	-8.42035
致	-8.42108
然後	-8.42245
有二	-8.42501
支	-8.42623
飯	-8.42624
覆藏	-8.42643
古	-8.42919
毗尼	-8.4294
遍	-8.43077
波夜提	-8.43123
若比丘尼	-8.43223
。】「【	-8.4328
照	-8.43302
十八	-8.43381
一者	-8.43492
路	-8.43551
慈	-8.43735
全	-8.43761
二者	-8.43951
喜	-8.43991
尋	-8.44129
三衣	-8.44301
尊者	-8.44313
供	-8.44314
決	-8.44474
龍	-8.45008
懷	-8.45177
亂	-8.45182
唱	-8.45222
石	-8.45247
機	-8.45401
堂	-8.45466
奉	-8.46376
諸佛	-8.46568
七日	-8.46712
非時	-8.46903
依止	-8.46947
輕重	-8.47018
婬	-8.47234
兼	-8.47399
五分	-8.47699
久	-8.47747
脚	-8.48061
不見	-8.4818
限	-8.48203
此戒	-8.48263
萬	-8.48348
待	-8.4838
乞食	-8.48467
應當學	-8.48585
奪	-8.48631
詣	-8.48736
譯	-8.48949
翻	-8.49021
錢	-8.49283
聲聞	-8.49345
獲	-8.49519
妄語	-8.49787
強	-8.49833
尚	-8.49867
像	-8.50016
塵	-8.50112
衣鉢	-8.50229
何故	-8.50528
風	-8.50673
白衣	-8.50716
首	-8.50787
殘	-8.50796
!」	-8.50986
村	-8.51072
味	-8.5124
放	-8.51495
惑	-8.51527
進	-8.5154
肉	-8.51561
大德僧聽	-8.51628
海	-8.51648
毀	-8.52463
讚	-8.52609
一切眾生	-8.52732
末	-8.53236
布薩	-8.53422
序	-8.53522
聚落	-8.53531
此云	-8.53798
戒本	-8.53823
臥	-8.53881
巳下	-8.54431
有三	-8.55001
興	-8.55106
比	-8.55997
男	-8.56055
五百	-8.56335
若無	-8.56618
患	-8.57218
曾	-8.57361
間	-8.57499
不聽	-8.57768
生死	-8.57909
法者	-8.58099
無作	-8.58198
減	-8.58547
雙	-8.586
又云	-8.58655
以此	-8.58793
存	-8.59085
留	-8.59132
是比丘	-8.59272
▁三	-8.59344
拜	-8.59537
四句	-8.596
伹	-8.59716
毛	-8.59794
有一	-8.59959
是也	-8.60259
判	-8.60356
床	-8.60374
之人	-8.60795
所有	-8.60805
喚	-8.60957
畜生	-8.60979
乎	-8.60997
十六	-8.61028
象	-8.61042
敷	-8.61114
甚	-8.61135
細	-8.61256
洗	-8.61371
不犯者	-8.61508
不定	-8.61845
檀越	-8.61849
僧伽	-8.62092
呪	-8.62225
局	-8.62371
正法	-8.62551
闕	-8.62615
況	-8.62958
變	-8.63006
和上	-8.63219
亦不	-8.63251
所說	-8.63309
歡喜	-8.63794
施主	-8.63828
梵	-8.63862
不須	-8.64068
訶	-8.64253
號	-8.64275
脫	-8.64334
越	-8.6436
復有	-8.64547
牛	-8.64627
馬	-8.64642
刀	-8.64711
問言	-8.64863
昔	-8.64911
語言	-8.64959
否	-8.65149
輪	-8.65237
父	-8.65371
彰	-8.65935
述	-8.66136
十三	-8.66402
癡	-8.6677
周	-8.66945
應與	-8.67333
縱	-8.67338
或有	-8.67534
婦	-8.67607
乖	-8.67842
作是念	-8.68017
散	-8.68022
夷	-8.68484
勿	-8.68539
車	-8.68666
偈	-8.68693
○	-8.68717
沙彌尼	-8.68759
河	-8.69153
鈔	-8.69431
何以故	-8.69557
防	-8.69606
期	-8.69806
三昧	-8.69817
隨意	-8.69831
擯	-8.69968
亦爾	-8.69971
南	-8.69974
偷蘭遮	-8.70125
面	-8.70194
林	-8.70878
守	-8.70968
私	-8.71029
如此	-8.71189
迦葉	-8.714
切	-8.71593
智慧	-8.71601
葉	-8.71645
男子	-8.71648
兒	-8.71986
却	-8.72151
文中	-8.72268
燒	-8.7297
臥具	-8.73015
大小	-8.73105
黑	-8.73223
論云	-8.73461
。【	-8.73463
咸	-8.73488
屋	-8.73547
盛	-8.73559
同前	-8.73623
齋	-8.73731
皮	-8.73773
自言	-8.73979
資	-8.74085
地獄	-8.74137
僧伽婆尸沙	-8.7451
白佛	-8.7454
不與	-8.74635
節	-8.74654
菩提	-8.74706
園	-8.74771
一心	-8.75122
急	-8.75165
此中	-8.75241
永	-8.75422
而去	-8.75644
舊	-8.75708
不作	-8.75715
逆	-8.76032
段	-8.76418
濟	-8.76605
蓋	-8.76882
毘尼	-8.77117
非人	-8.77419
陳	-8.77511
何以	-8.77582
莊嚴	-8.77913
忘	-8.78256
繫	-8.78292
三種	-8.78323
感	-8.7856
條	-8.78665
恒	-8.78922
以為	-8.78969
章	-8.78988
牒	-8.79047
調	-8.79103
二人	-8.79222
亡	-8.79243
金剛	-8.79755
得罪	-8.79893
悟	-8.80157
「	-8.80317
二十	-8.80416
我當	-8.80427
虗	-8.80463
助	-8.80572
十方	-8.80606
多少	-8.80648
無所	-8.80776
清	-8.80932
所謂	-8.8109
不善	-8.81099
即便	-8.81157
律云	-8.81312
第六	-8.81695
法界	-8.81967
波	-8.82051
平	-8.82172
泥	-8.82222
含	-8.82322
中間	-8.82364
魔	-8.82373
改	-8.82515
之法	-8.82628
雨	-8.82833
寧	-8.8291
鳥	-8.8292
任	-8.83022
迴	-8.83026
是為	-8.83088
多論	-8.83275
注	-8.833
伽	-8.83337
舍利弗	-8.83366
背	-8.83575
當知	-8.83668
惟	-8.83762
濫	-8.83781
三十	-8.83829
十一	-8.84044
伴	-8.8408
受用	-8.84083
教授	-8.84139
故知	-8.84258
四人	-8.84508
自然	-8.84861
眾中	-8.84872
怖	-8.8492
普	-8.84952
慢	-8.84978
吉羅	-8.85351
微	-8.85444
送	-8.85531
客	-8.85658
田	-8.85934
單	-8.85934
老	-8.86062
精	-8.86098
歲	-8.86116
亦名	-8.86165
愚	-8.86171
相應	-8.86488
尺	-8.86562
不捨	-8.86681
怨	-8.86685
破戒	-8.87064
諦	-8.87352
絕	-8.87409
三者	-8.87508
徧	-8.87516
西	-8.87718
若言	-8.87873
塗	-8.88175
辦	-8.88261
沙	-8.88594
時有	-8.88777
自在	-8.88808
恩	-8.88854
貴	-8.88856
第十	-8.88862
之時	-8.88929
訖	-8.88929
殊	-8.89065
五種	-8.89212
憶	-8.8942
如何	-8.89428
前後	-8.89449
法師	-8.89458
隔	-8.8953
律中	-8.89673
寄	-8.89816
亦有	-8.89903
養	-8.90013
漸	-8.90054
辭	-8.90076
露	-8.90364
思惟	-8.90414
科	-8.90543
毒	-8.9055
問曰	-8.90713
污	-8.90769
角	-8.9077
苾芻尼	-8.90911
第七	-8.90916
宮	-8.91221
功	-8.91241
彼比丘	-8.91296
救	-8.91405
呵責	-8.91657
專	-8.9185
二種	-8.91856
東	-8.92026
中有	-8.92099
默然	-8.92161
白言	-8.92498
不許	-8.92531
.	-8.92589
于	-8.92624
作羯磨	-8.92628
付	-8.92892
最	-8.93293
結罪	-8.93297
破僧	-8.93468
視	-8.9351
隨順	-8.93592
恭敬	-8.93895
得戒	-8.939
利益	-8.94131
十五	-8.9437
備	-8.94541
應作	-8.94896
故須	-8.9499
禁	-8.95053
鬼	-8.9506
報言	-8.95187
交	-8.95343
與我	-8.95398
是時	-8.957
下明	-8.9574
亦得	-8.95945
廣說	-8.9608
勤	-8.96325
元	-8.96348
法中	-8.96549
故言	-8.96581
隱	-8.96621
常住	-8.96657
過去	-8.97016
落	-8.97085
之中	-8.97114
堪	-8.97221
釋迦	-8.97311
詳	-8.97313
有人	-8.97546
善法	-8.97662
熟	-8.97706
呼	-8.97867
諸苾芻	-8.97878
遇	-8.9797
爾時世尊	-8.98067
伏	-8.98115
花	-8.98224
十四	-8.98369
犯者	-8.98427
偏	-8.98448
有四	-8.98457
三藏	-8.98509
教人	-8.98699
帝	-8.98708
淨人	-8.98877
杖	-8.98909
犯罪	-8.99045
是事	-8.99223
犯重	-8.99288
邪見	-8.99318
別眾	-8.99431
布	-8.99434
作衣	-8.99453
律儀	-8.99503
究竟	-8.99846
承	-8.99918
今日	-9.00037
大臣	-9.00105
云云	-9.00152
退	-9.00391
煞	-9.00445
祇	-9.00595
憂	-9.00616
沒	-9.00635
故制	-9.00702
己	-9.00924
歎	-9.01174
前人	-9.0128
一時	-9.01457
軍	-9.01656
畏	-9.0174
佛在	-9.01967
傷	-9.01972
頂	-9.02048
志	-9.02126
是以	-9.02146
敘	-9.02188
秉	-9.02235
穢	-9.02731
頌	-9.02756
勞	-9.02816
嚴	-9.03002
身口	-9.03016
罵	-9.03226
差別	-9.0338
聖者	-9.03545
熱	-9.03551
徒	-9.03679
師子	-9.03728
不生	-9.03747
優婆塞	-9.03759
猶如	-9.03906
官	-9.04004
》	-9.04062
《	-9.04063
男女	-9.04263
悔過	-9.0429
浴	-9.04414
噉	-9.04467
美	-9.04514
賢	-9.04754
諸天	-9.04793
賣	-9.04819
結戒	-9.04853
油	-9.04872
是中	-9.04901
不敢	-9.04963
一月	-9.05056
蟲	-9.05087
白如是	-9.05283
遊	-9.0547
布施	-9.05569
張	-9.05732
俗人	-9.05854
諸比丘尼	-9.05889
所作	-9.05932
妨	-9.05941
縛	-9.06393
僧殘	-9.06412
之義	-9.06446
狂	-9.065
世界	-9.06504
雲	-9.06598
具壽	-9.06673
推	-9.06728
麤	-9.06836
廢	-9.06865
行者	-9.06874
眾多	-9.06938
心念	-9.07081
目連	-9.07188
結界	-9.07199
有比丘	-9.07495
氣	-9.07541
合掌	-9.07585
誠	-9.07657
池	-9.07757
觀同上	-9.07812
嫌	-9.07884
白佛言	-9.07905
室	-9.0807
臨	-9.08118
別住	-9.0827
一比丘	-9.0843
疾	-9.08688
步	-9.0874
發露	-9.08777
若作	-9.08811
半月	-9.08852
不為	-9.09077
無常	-9.09221
是人	-9.09261
餘人	-9.0927
珠	-9.09505
食者	-9.09507
此人	-9.09512
房舍	-9.09718
三說	-9.09835
招	-9.10056
命終	-9.10382
代	-9.10408
受食	-9.1073
平等	-9.10799
髮	-9.11042
修行	-9.11051
初明	-9.11201
之所	-9.11243
第八	-9.11272
巳上	-9.11274
漏	-9.11471
現在	-9.11551
青	-9.11575
補	-9.11725
戶	-9.12041
羅漢	-9.12094
黃	-9.12113
戲	-9.12166
不識	-9.12234
光明	-9.12248
十日	-9.12295
文云	-9.12385
三界	-9.12493
皆是	-9.12572
譏	-9.12696
應知	-9.12883
消	-9.12897
截	-9.12975
之心	-9.13011
於中	-9.13028
法身	-9.13039
病人	-9.13105
問訊	-9.1311
十七	-9.13288
何等	-9.13444
船	-9.13454
悲	-9.13472
一日	-9.13477
國王	-9.1348
士	-9.13973
錄	-9.14102
暫	-9.1415
脩	-9.14211
因果	-9.14311
五戒	-9.14466
靜	-9.14544
三人	-9.14777
律文	-9.14959
在家	-9.14995
難陀	-9.15014
讚歎	-9.15185
偷	-9.15249
有五	-9.15293
曲	-9.15302
遺	-9.15442
四者	-9.15468
答云	-9.15482
竝	-9.15604
眠	-9.15735
印	-9.15773
瓶	-9.15982
繁	-9.16248
律師	-9.1637
薄	-9.16443
陰	-9.16542
不失	-9.16569
亦應	-9.1669
礙	-9.16861
仰	-9.1689
九十	-9.16942
宣	-9.16984
受者	-9.17033
善根	-9.17086
速	-9.17109
仁	-9.17152
有情	-9.1723
憶念	-9.173
良	-9.17759
梵行	-9.17776
弘	-9.17886
或云	-9.17913
持犯	-9.18186
厭	-9.18219
名曰	-9.18321
價	-9.18445
佛告	-9.18457
凡夫	-9.18588
吾	-9.1864
堅	-9.18675
燈	-9.18729
缺	-9.18746
各有	-9.18756
故也	-9.18759
發心	-9.18824
壽	-9.18847
諸人	-9.19077
錯	-9.19168
」	-9.19216
福田	-9.19491
預	-9.19576
註	-9.19648
籌	-9.19796
衣服	-9.19909
不合	-9.20016
都	-9.2017
仍	-9.20176
北	-9.20214
幾	-9.20255
鐵	-9.20289
若佛子	-9.2031
制戒	-9.20335
姓	-9.20429
捨墮	-9.20607
作是言	-9.2083
屏處	-9.20904
寂	-9.20942
垢	-9.21017
六群比丘	-9.21111
無明	-9.21312
畢	-9.21435
四種	-9.21454
此二	-9.21631
披	-9.21696
利養	-9.21815
壇	-9.21906
無漏	-9.21928
精進	-9.22026
佛南無	-9.22083
審	-9.22159
式叉摩那	-9.22484
活	-9.22687
悉皆	-9.2269
人天	-9.22771
餘比丘	-9.22784
接	-9.22822
界內	-9.22925
默	-9.22962
不足	-9.2309
未來	-9.23095
迎	-9.23102
唐	-9.23255
委	-9.23328
肘	-9.23378
僧物	-9.23391
移	-9.23442
右	-9.23701
繩	-9.23716
佛說	-9.23716
說淨	-9.2381
拘	-9.24033
詞	-9.24058
緣起	-9.24072
營	-9.24077
擬	-9.24107
誤	-9.24346
增長	-9.24372
中初	-9.24515
一心奉請	-9.24609
有二種	-9.24667
避	-9.24707
是非	-9.2478
是事如是持	-9.24871
遣使	-9.24883
今時	-9.249
報曰	-9.24904
胎	-9.24957
斥	-9.24993
教誡	-9.25166
告諸比丘	-9.25172
何處	-9.254
若以	-9.254
骨	-9.25448
網	-9.25461
頓	-9.2547
偷蘭	-9.25813
阿羅漢	-9.25912
祖	-9.25931
知是	-9.26024
展轉	-9.2606
停	-9.26158
無上	-9.26379
務	-9.2644
鬼神	-9.26857
此事	-9.27036
大王	-9.27045
納	-9.27074
不問	-9.27116
誡	-9.27118
善惡	-9.27305
▁|	-9.27427
買	-9.27439
若欲	-9.27579
神通	-9.27683
此比丘	-9.27722
覓	-9.28214
囑	-9.28216
為說	-9.28239
十九	-9.28275
譬如	-9.28403
十戒	-9.28408
真實	-9.28448
有所	-9.28604
毘	-9.28645
密	-9.28751
分齊	-9.28895
亦是	-9.289
勅	-9.29082
而為	-9.29195
諸大德	-9.29245
信心	-9.29318
牀	-9.29372
安樂	-9.29411
彌	-9.29445
梨	-9.29655
大師	-9.29862
果報	-9.29865
五法	-9.29921
倒	-9.29921
佛教	-9.29985
若為	-9.29987
歷	-9.301
捨戒	-9.30241
一處	-9.30259
之處	-9.30381
佛性	-9.30414
降	-9.30515
諸法	-9.3078
作如是	-9.30829
短	-9.3091
亦無	-9.30987
橫	-9.30989
時彼	-9.3099
今此	-9.31008
牽	-9.31037
受具足戒	-9.31077
出界	-9.31244
積	-9.31408
連	-9.31475
若爾	-9.31562
驅	-9.31671
法門	-9.31712
犯戒	-9.3177
不相	-9.31801
鹿	-9.31911
疏云	-9.31922
金銀	-9.31925
投	-9.31935
小乘	-9.32037
太	-9.3204
希	-9.32109
織	-9.32146
誓	-9.32167
瞋恚	-9.32181
遊行	-9.32398
講	-9.32421
領	-9.32466
不解	-9.32819
鳴	-9.32822
太子	-9.32923
汝今	-9.32968
眷屬	-9.32979
超	-9.33152
曉	-9.33156
十五日	-9.33329
寒	-9.33385
夫人	-9.33407
戒者	-9.33434
附	-9.33456
有犯	-9.33525
樹下	-9.33595
財物	-9.33617
慈悲	-9.33694
成佛	-9.33803
。△	-9.33881
院	-9.33887
與欲	-9.34036
擲	-9.34101
共相	-9.34142
四月	-9.34329
亦可	-9.3439
由此	-9.3445
底	-9.34458
笑	-9.34465
續	-9.34478
坐具	-9.34527
出世	-9.34555
上下	-9.34577
貧	-9.3463
淨地	-9.34693
五人	-9.35165
有罪	-9.35191
守護	-9.35229
善來	-9.35268
白四羯磨	-9.35297
免	-9.35369
。』」	-9.3537
若人	-9.3546
受具	-9.355
如文	-9.35603
若自	-9.3576
於彼	-9.35817
途	-9.35856
聞已	-9.35972
逼	-9.3598
身心	-9.35981
權	-9.35989
乳	-9.36033
拔	-9.3632
善男子	-9.36581
旨	-9.36645
問答	-9.36685
每	-9.36932
輒	-9.36978
責	-9.37182
仙	-9.37197
蘇	-9.37208
端	-9.37255
毗	-9.3727
下至	-9.37384
忽	-9.37568
下釋	-9.37592
闍	-9.37774
童子	-9.37831
浣	-9.38042
止持	-9.38133
負	-9.38138
▁四	-9.38149
若干	-9.38167
而住	-9.38219
心地	-9.38223
三句	-9.3824
逐	-9.38331
議	-9.38462
導	-9.38548
慚愧	-9.38703
衣食	-9.38744
二部	-9.38841
又復	-9.38841
若過	-9.39263
借	-9.39307
兵	-9.39607
走	-9.39674
若僧時到僧忍聽	-9.39711
臣	-9.39815
為我	-9.39893
阿闍梨	-9.39953
有無	-9.40077
悅	-9.40102
赤	-9.4038
上品	-9.40408
相似	-9.40438
作淨	-9.40453
靈	-9.40522
必須	-9.4064
垂	-9.40691
尼薩耆波逸提	-9.40739
不出	-9.40786
一是	-9.40966
按	-9.4097
實爾	-9.41182
大小便	-9.41313
孔	-9.41376
乾	-9.41426
共住	-9.41565
瘡	-9.4159
見聞	-9.41594
誑	-9.41639
供給	-9.41773
處分	-9.4182
不以	-9.41826
野	-9.41894
善見	-9.41945
無異	-9.41956
生疑	-9.41967
慈心	-9.41973
此律	-9.42142
關	-9.42329
次明	-9.42399
內外	-9.42483
出罪	-9.42527
妻	-9.42591
沙門釋子	-9.42644
六群	-9.42651
蜜	-9.42653
袈裟	-9.42706
州	-9.42769
經律	-9.4279
種子	-9.42824
以是白佛	-9.42839
某甲比丘	-9.4299
亦云	-9.43046
婬欲	-9.43108
縫	-9.43325
夢	-9.43339
銅	-9.43398
勢	-9.43399
餘處	-9.43433
長衣	-9.43564
囊	-9.43591
相續	-9.43603
瓔珞	-9.43636
特	-9.43762
抄	-9.43774
之相	-9.43793
虛	-9.43812
三世	-9.43866
三業	-9.43929
知識	-9.43992
纏	-9.44045
載	-9.4408
粥	-9.44208
大界	-9.44336
不起	-9.44411
戒體	-9.44457
禮拜	-9.44534
作持	-9.44555
觀察	-9.44602
漿	-9.44603
與人	-9.44744
點	-9.44783
戒場	-9.44864
惡心	-9.44883
不滿	-9.45071
劣	-9.45129
不復	-9.45178
之事	-9.4529
百千	-9.45326
際	-9.45332
帶	-9.45363
影	-9.45372
他人	-9.45677
亦同	-9.45714
熏	-9.45726
哉	-9.45742
二乘	-9.45788
五者	-9.45896
焉	-9.45982
無過	-9.46042
過量	-9.46066
君	-9.46087
見已	-9.46179
窮	-9.4629
教化	-9.46298
僧伽藍	-9.46349
戒法	-9.4636
魚	-9.46484
佛子	-9.4657
累	-9.4658
謝	-9.46651
大僧	-9.46767
穀	-9.4678
僧坊	-9.4679
菩薩戒	-9.46878
再	-9.46961
法也	-9.47034
淨施	-9.47065
訶責	-9.47069
學處	-9.47115
惡作	-9.47188
無相	-9.47235
登	-9.47239
恐怖	-9.47248
善哉	-9.47252
樓	-9.47473
調達	-9.47561
不爾	-9.47571
不名	-9.47586
恚	-9.47593
第九	-9.48014
訓	-9.4803
僧尼	-9.4804
一切法	-9.48228
不說	-9.48388
非是	-9.48389
蓮華	-9.48539
此之	-9.48576
波逸底迦	-9.48582
集僧	-9.48683
可得	-9.4869
闇	-9.4874
比丘言	-9.48794
自手	-9.48821
公	-9.49015
尸	-9.49114
如下	-9.49146
六十	-9.49394
申	-9.4967
割	-9.49695
痛	-9.49773
調伏	-9.49794
懸	-9.49911
無病	-9.49917
酥	-9.49945
受大戒	-9.50001
華嚴	-9.50022
聖人	-9.50119
鼻	-9.50175
受法	-9.50506
謂是	-9.50539
無生	-9.50667
對首	-9.50685
住持	-9.50706
所為	-9.50708
名字	-9.50725
五十	-9.50745
精舍	-9.5085
案	-9.51061
參	-9.51146
無人	-9.51164
無知	-9.51325
談	-9.51375
獄	-9.51567
各各	-9.51587
王舍城	-9.51823
為僧	-9.5184
何不	-9.5207
受具足	-9.5214
愚癡	-9.52284
涉	-9.5251
惡業	-9.52522
讀	-9.52522
彼此	-9.52544
圓滿	-9.52555
而言	-9.52567
迴向	-9.52714
延	-9.52749
擔	-9.52825
運	-9.52902
左	-9.53098
二句	-9.53301
婆沙	-9.53375
及以	-9.53389
欲令	-9.53542
如上說	-9.53702
明日	-9.53715
南無	-9.53893
犯捨墮	-9.53951
義也	-9.54034
不信	-9.54166
不樂	-9.54331
食時	-9.54527
有主	-9.54683
蘭若	-9.54684
嗔	-9.54691
掌	-9.54804
下次	-9.54869
文言	-9.55064
五錢	-9.55324
醫	-9.55334
譏嫌	-9.55486
鬪諍	-9.5549
此即	-9.55497
遙	-9.55528
血	-9.55619
可解	-9.55627
告曰	-9.55662
召	-9.55665
五眾	-9.55829
病比丘	-9.55843
何得	-9.5586
鬪	-9.55863
僧祇云	-9.55937
頗	-9.55938
有大	-9.55972
彼人	-9.56131
亦復如是	-9.56208
同上	-9.56217
一句	-9.56236
決定	-9.56463
犯輕垢罪	-9.56518
富	-9.56535
令其	-9.56616
睡	-9.56674
之類	-9.56769
不學	-9.56874
虫	-9.5691
之意	-9.56995
麁	-9.57044
三月	-9.57066
一念	-9.57192
亦不得	-9.57218
壁	-9.57363
倍	-9.57368
源	-9.57377
而生	-9.57381
解云	-9.57411
波羅	-9.57436
里	-9.57519
從此	-9.57523
是我	-9.5756
虗空	-9.57586
梵語	-9.57694
准此	-9.57773
五德	-9.57798
應當	-9.57855
得衣	-9.57944
給	-9.57979
道行	-9.58029
彼云	-9.58181
席	-9.58229
無礙	-9.58255
說者	-9.58289
止犯	-9.58329
無別	-9.5838
迦留陀夷	-9.58432
白二	-9.58501
即以	-9.58515
立謂	-9.58521
下文	-9.58643
謂此	-9.58753
孝	-9.58776
剃髮	-9.5881
時諸比丘	-9.58877
名之為	-9.58955
多聞	-9.58956
茲	-9.58969
十誦云	-9.5897
皆悉	-9.59007
者謂	-9.59014
三歸	-9.59101
上來	-9.59135
親里	-9.59501
自身	-9.59513
朝	-9.59541
迹	-9.59552
白四	-9.59612
豈非	-9.59645
典	-9.59753
不如法	-9.59823
吒	-9.59852
磨	-9.59931
傍	-9.59965
餓鬼	-9.59985
使人	-9.60093
行法	-9.6012
如是等	-9.60131
渡	-9.60203
語諸比丘	-9.60204
褥	-9.60228
時諸苾芻	-9.60289
飛	-9.60318
純	-9.60401
而行	-9.60464
題	-9.60474
自作	-9.60505
有三種	-9.6057
有何	-9.60575
行事	-9.60772
遵	-9.60775
此三	-9.60795
屏	-9.6095
綱	-9.61023
作如是語	-9.61045
圖	-9.61049
經中	-9.61137
若得	-9.61165
所須	-9.61294
不了	-9.61418
不然	-9.61435
下示	-9.61465
冬	-9.61471
同一	-9.61505
輙	-9.61594
坐禪	-9.61614
白二羯磨	-9.61627
不如	-9.61705
衣物	-9.61887
人間	-9.61927
所得	-9.61946
修道	-9.62157
受請	-9.6222
囉	-9.62273
我某甲	-9.62275
。」【【	-9.6231
擇	-9.62388
僧伽梨	-9.62448
水中	-9.62455
餅	-9.62531
令彼	-9.62566
撿	-9.62605
軌	-9.62626
諸部	-9.62696
除病	-9.62719
有異	-9.62747
單白	-9.62761
佛制	-9.62781
藍	-9.62889
為他	-9.62893
佛語	-9.62951
若見	-9.62992
狀	-9.63025
薩	-9.63067
託	-9.63072
此衣	-9.63081
初句	-9.63199
不還	-9.63215
不來	-9.63224
賤	-9.63236
博	-9.63359
皆得	-9.63374
惡人	-9.63468
諍事	-9.6351
自他	-9.63528
安隱	-9.63568
默然故	-9.63716
對治	-9.63808
正明	-9.63939
及諸	-9.63941
多人	-9.63963
犯波羅夷	-9.63965
慳	-9.64031
此法	-9.64093
不聞	-9.64109
億	-9.64271
者默然	-9.64294
又問	-9.64428
浮	-9.64435
有五種	-9.6452
得食	-9.64544
我所	-9.64745
若能	-9.64746
道場	-9.6481
犍度	-9.65014
黃門	-9.65139
適	-9.65147
淨戒	-9.6521
諸菩薩	-9.65236
揚	-9.65327
禪定	-9.65411
境界	-9.65415
至於	-9.65435
其事	-9.65483
舌	-9.65495
卑	-9.65543
界外	-9.65656
一分	-9.65849
只	-9.65855
發起	-9.65858
塞	-9.65863
賢聖	-9.65916
更有	-9.66091
又如	-9.66155
教他	-9.66168
是比丘尼	-9.66285
復次	-9.66343
在前	-9.66445
腹	-9.66447
統	-9.66505
仙人	-9.66615
侍	-9.6664
僧與	-9.66682
告言	-9.66693
以其	-9.66723
固	-9.66748
不用	-9.66761
大士	-9.66816
下引	-9.66826
客比丘	-9.66854
飲酒	-9.66912
為體	-9.66993
此等	-9.67135
遠離	-9.67135
出家人	-9.673
狹	-9.67327
恣	-9.67352
受日	-9.67395
洗浴	-9.67524
鏡	-9.67606
臂	-9.67657
值	-9.67666
舍利	-9.67711
汁	-9.67717
而得	-9.6787
故不	-9.67908
臘	-9.67934
眾法	-9.68084
八十	-9.68144
歸依	-9.68248
不及	-9.68409
十地	-9.68436
應受	-9.6846
玄	-9.6848
為一	-9.68526
應語	-9.68608
制意	-9.68703
烏	-9.68761
驗	-9.68788
羊	-9.68849
洲	-9.68904
體性	-9.68988
四大	-9.69023
國土	-9.69108
所犯	-9.69119
乏	-9.69137
有餘	-9.69228
三乘	-9.69285
扇	-9.69306
不離	-9.69319
比丘僧	-9.69371
跋	-9.69612
辯	-9.69615
宅	-9.69752
中初科	-9.6981
無主	-9.69874
群	-9.69908
無邊	-9.69985
竹	-9.7004
雖有	-9.7005
福德	-9.70147
廁	-9.70186
故名為	-9.70191
多有	-9.70212
麥	-9.70251
阿難陀	-9.70424
四分律	-9.70459
冥	-9.70474
人所	-9.70518
而作	-9.7052
諸眾生	-9.70643
尼薩耆波夜提	-9.707
從今是戒應如是說	-9.707
無間	-9.70743
湯	-9.70763
有十	-9.70867
於我	-9.70898
病者	-9.70955
恨	-9.71059
中道	-9.71117
從今	-9.71182
善心	-9.71204
畫	-9.71231
有漏	-9.71296
王子	-9.71339
作如是言	-9.71486
能令	-9.7153
無記	-9.71544
作此	-9.71576
謬	-9.7167
蛇	-9.71816
米	-9.71922
寬	-9.71927
若是	-9.71935
瓦	-9.71948
不堪	-9.72107
十種	-9.72261
來至	-9.72421
從僧乞	-9.72426
作白	-9.72541
四方	-9.72599
為說法	-9.72661
二眾	-9.72726
隨所	-9.728
心生	-9.72813
葢	-9.72817
優婆夷	-9.72831
此文	-9.72884
檀	-9.73059
之罪	-9.73069
戒也	-9.73071
大悲	-9.73077
喪	-9.73084
御	-9.73164
聖教	-9.73188
若先	-9.73242
天子	-9.73291
漢	-9.7338
我是	-9.73428
􂌞	-9.73438
坑	-9.73453
原	-9.73461
波羅蜜	-9.73606
弱	-9.73639
自性	-9.73688
草木	-9.73749
徵	-9.73818
膝	-9.73919
當與	-9.73919
六夜	-9.73953
於是	-9.74073
心不	-9.74073
行婬	-9.74145
折	-9.74459
規	-9.74513
滿足	-9.74526
縷	-9.74547
奴	-9.74561
心亂	-9.74602
其所	-9.74603
但有	-9.74745
令他	-9.74836
受具戒	-9.74891
佛塔	-9.74894
不肯	-9.75027
重罪	-9.75032
律攝云	-9.75048
醉	-9.7505
牆	-9.75054
早	-9.75076
作是語	-9.75091
而食	-9.75131
閉	-9.7515
波羅提木叉	-9.75392
勢分	-9.75398
僧今	-9.75572
欺	-9.75634
有緣	-9.75668
鼓	-9.75795
難得	-9.75802
不斷	-9.75803
不開	-9.7593
誦經	-9.75955
盡形壽	-9.76043
:「『	-9.76141
未得	-9.76232
自知	-9.76241
肩	-9.76302
撰	-9.76306
智者	-9.76357
滅諍	-9.76412
牙	-9.76533
道俗	-9.76533
貿	-9.76538
應問	-9.7655
與之	-9.76554
足食	-9.76739
不具	-9.76746
汙	-9.76755
見佛	-9.76937
增上	-9.76943
日月	-9.76992
其中	-9.77028
岸	-9.77033
場	-9.77102
伐	-9.77209
真言	-9.77291
無盡	-9.77305
以是	-9.77401
持律	-9.77408
為作	-9.7742
佛在舍衛國	-9.7747
作是	-9.77474
佛所	-9.77484
親近	-9.77504
狗	-9.77588
戒中	-9.77606
共行	-9.77624
此方	-9.77625
入聚落	-9.77632
摩訶	-9.77663
慎	-9.77714
更無	-9.77738
顧	-9.77843
中說	-9.78013
數數	-9.78189
赴	-9.78217
刺	-9.78233
稟	-9.78269
鄔波難陀	-9.78289
驚	-9.78344
行道	-9.78391
販賣	-9.78458
修習	-9.78468
若僧	-9.78503
不自	-9.78522
二俱	-9.78523
優波離	-9.78523
能持	-9.78609
釋曰	-9.78611
)「	-9.78612
若彼	-9.78839
大海	-9.78841
欲界	-9.78849
及餘	-9.7885
之物	-9.78919
南山	-9.79004
終不	-9.79011
俱舍	-9.79119
階	-9.79205
結犯	-9.79245
濁	-9.79302
若苾芻	-9.79304
殺生	-9.7931
不動	-9.79426
殿	-9.79495
夏安居	-9.7954
其義	-9.79791
不壞	-9.79884
春	-9.79913
所言	-9.79972
輩	-9.80001
盜心	-9.80064
繇	-9.80176
讀誦	-9.80178
何況	-9.80221
我不	-9.80271
我於	-9.80282
友	-9.80307
久住	-9.80314
具戒	-9.80396
者即	-9.80401
得名	-9.80415
經行	-9.8042
八種	-9.80448
露地	-9.80467
成犯	-9.80473
便犯	-9.80512
漫	-9.80582
以是因緣	-9.80626
分二	-9.80633
菓	-9.80673
皆有	-9.80677
充	-9.807
吐	-9.8085
巧	-9.80879
提婆達多	-9.80955
是事白佛	-9.81051
菜	-9.81173
此謂	-9.8121
若在	-9.81305
【	-9.81359
返	-9.81501
此則	-9.81534
佛告諸比丘	-9.81576
經論	-9.81646
宋	-9.81695
以手	-9.81811
作如是念	-9.81825
得成	-9.81836
四重	-9.81859
瑜伽	-9.81876
令人	-9.8195
配	-9.82001
尊重	-9.82055
處所	-9.82157
三時	-9.82228
箋	-9.82316
應如是	-9.82335
六道	-9.82353
何所	-9.82378
所依	-9.82386
神力	-9.8243
屈	-9.82438
結集	-9.82455
卒	-9.82485
佛為	-9.82585
】【	-9.82596
並是	-9.82621
五分云	-9.82652
下座	-9.82782
放逸	-9.82891
相違	-9.82893
則無	-9.83052
汝可	-9.83056
)。(	-9.83083
僧忍	-9.83183
蒙	-9.83188
不共	-9.83303
比尼	-9.83314
閏	-9.83483
二法	-9.83486
而坐	-9.83505
威	-9.83517
或可	-9.83523
貯	-9.8358
)。」【	-9.83632
死者	-9.83734
奇	-9.8377
井	-9.83857
五句	-9.84024
學戒	-9.84065
餘者	-9.84074
過失	-9.84167
得惡作罪	-9.8429
拭	-9.84333
衣者	-9.84422
!』	-9.84485
弊	-9.845
著衣	-9.84522
陀羅	-9.84531
般若	-9.84592
壞色	-9.84609
逢	-9.84644
不應爾	-9.84667
故得	-9.84715
遙見	-9.84738
勿令	-9.8476
三法	-9.84769
龍王	-9.84805
履	-9.84851
不依	-9.84879
盡形	-9.84923
諸惡	-9.84925
要須	-9.84954
天竺	-9.84971
市	-9.84981
齒	-9.84995
有如是	-9.85051
此處	-9.85088
心故	-9.85164
奉行	-9.85169
下品	-9.85312
穿	-9.85396
是法	-9.85397
犯墮	-9.85436
看病	-9.85562
三品	-9.85749
別請	-9.85844
術	-9.85873
即名	-9.85956
為三	-9.85967
梁	-9.86034
豐	-9.86039
之言	-9.86088
二明	-9.86168
得突吉羅	-9.86185
誦戒	-9.86186
若依	-9.86216
得受	-9.86227
有疑	-9.86242
寂靜	-9.86356
無學	-9.86493
懼	-9.8662
業道	-9.86699
疊	-9.86742
因此	-9.86825
煮	-9.86835
四眾	-9.87022
有病	-9.87058
採	-9.87139
梵志	-9.8724
得波羅夷	-9.87337
遭	-9.87346
出入	-9.87412
心中	-9.87463
八戒	-9.87478
餘三	-9.87499
聞法	-9.87504
質	-9.87514
誰不忍者說	-9.87537
契	-9.8761
眾人	-9.87634
盧	-9.87637
疎	-9.8767
可見	-9.87757
族	-9.87875
四十	-9.87933
革屣	-9.87937
自說	-9.87942
別人	-9.88108
皆名	-9.88175
剃	-9.88197
貫	-9.88203
與比丘	-9.88235
不著	-9.88259
啟	-9.88323
禮佛	-9.88384
有四種	-9.88459
受樂	-9.88498
慮	-9.88521
汝當	-9.88642
綿	-9.88697
斗	-9.88847
舊比丘	-9.8885
與他	-9.89049
障道	-9.89141
持衣	-9.89246
然此	-9.89273
該	-9.89301
石蜜	-9.89349
惜	-9.89398
三毒	-9.8944
覩	-9.89514
次科	-9.89528
掃	-9.89554
即得	-9.89555
▁初標	-9.89556
察	-9.89588
汝非	-9.89617
究	-9.89681
發隱	-9.89696
唯識	-9.89724
故作	-9.89724
勒	-9.89755
非謂	-9.89772
得道	-9.89805
而無	-9.89859
婬女	-9.89874
娑	-9.89888
三聚	-9.89952
或復	-9.90089
須臾	-9.90128
無心	-9.90132
瞻	-9.90178
臺	-9.90236
以上	-9.90243
天人	-9.90354
古人	-9.90402
五篇	-9.90537
聖道	-9.90552
灰	-9.90669
稅	-9.90745
時諸	-9.90765
咽	-9.90778
此明	-9.90783
式	-9.9083
之文	-9.90947
一向	-9.91026
枝	-9.91056
爛	-9.91095
城中	-9.91131
知而故問	-9.91167
左右	-9.91329
折伏	-9.91331
故有	-9.91333
必有	-9.91338
五事	-9.91426
廣如	-9.9144
由旬	-9.91498
竭	-9.91665
鄔陀夷	-9.91696
陵	-9.91779
成道	-9.91781
有六	-9.91807
佛法僧	-9.91866
番	-9.92061
羣	-9.92194
僧事	-9.92215
此翻	-9.92365
便作是念	-9.9238
真如	-9.92447
處處	-9.92478
頂禮	-9.92487
苦惱	-9.92511
四事	-9.92528
摩那埵	-9.92591
義故	-9.92666
詐	-9.92774
寸	-9.92979
日日	-9.92986
與汝	-9.93011
巾	-9.93078
別釋	-9.93137
下次明	-9.9316
不憶	-9.93192
我欲	-9.93244
跋難陀	-9.93275
與僧	-9.93348
爪	-9.93391
六句	-9.93418
應言	-9.93479
廣大	-9.93483
往彼	-9.93501
七種	-9.93508
羊毛	-9.9359
而菩薩	-9.93597
佛問	-9.93619
閑	-9.93649
)(	-9.93684
囑授	-9.93726
人民	-9.93728
房中	-9.93773
滅擯	-9.93778
王曰	-9.93804
阿含	-9.9386
謂之	-9.93955
〔	-9.9396
法故	-9.94082
我已	-9.94137
暗	-9.94256
前二	-9.94325
詮	-9.94371
若於	-9.9441
追	-9.94471
聽法	-9.94584
線	-9.9463
長短	-9.94694
本無	-9.94719
頭陀	-9.9481
如律	-9.94966
薩婆多	-9.94999
弟	-9.95037
戲笑	-9.95059
入白衣舍	-9.95092
可以	-9.95166
亦非	-9.95167
羯磨竟	-9.952
重輕	-9.95319
▁○	-9.95347
三事	-9.95356
不取	-9.95378
戒相	-9.95493
同犯	-9.95516
此言	-9.95541
飾	-9.95551
護持	-9.95572
天上	-9.95573
斫	-9.95608
星	-9.95645
主人	-9.95691
多羅	-9.95704
是則	-9.95721
盲	-9.9575
厚	-9.958
昏	-9.95878
作禮	-9.95892
重物	-9.95913
癡狂	-9.96042
顛倒	-9.96139
罰	-9.96173
無餘	-9.96259
最勝	-9.96272
淺	-9.96279
倚	-9.96313
掘	-9.96339
不共住	-9.96342
出離	-9.96363
驅出	-9.96493
秉法	-9.96498
抱	-9.96542
釋子	-9.96552
不退	-9.96582
林中	-9.96631
作犯	-9.96643
應先	-9.96654
求寂	-9.96677
修梵行	-9.96734
蘊	-9.96764
分之	-9.96947
擊	-9.96955
發願	-9.97068
諸比丘白佛	-9.97109
二三	-9.97125
長養	-9.97134
不通	-9.97169
最初	-9.97189
之後	-9.97237
偷羅遮	-9.97334
姊妹	-9.974
七眾	-9.97454
崇	-9.97515
尼眾	-9.9756
非威儀	-9.97572
愍	-9.97683
境想	-9.97712
小兒	-9.97725
應量	-9.97754
世人	-9.97758
其人	-9.97797
有此	-9.97846
此物	-9.97851
唯有	-9.9794
糞	-9.98036
十六日	-9.98046
道中	-9.98126
始終	-9.98131
于時	-9.98244
出家者	-9.98266
作者	-9.98306
三諫	-9.98325
隨事	-9.9834
聽受	-9.98389
流通	-9.98391
兩舌	-9.98412
鹽	-9.98429
四諦	-9.98433
束	-9.98451
彌勒	-9.98462
丈夫	-9.98499
有一比丘	-9.98513
下二句	-9.98636
一百	-9.98695
七日藥	-9.98717
胡	-9.98855
前三	-9.98869
諸根	-9.98873
共語	-9.98907
心者	-9.98945
重犯	-9.99037
發菩提心	-9.99092
繞	-9.99111
初至	-9.99119
不止	-9.99371
濕	-9.99535
下三	-9.99541
堅固	-9.99583
衰	-9.99589
若據	-9.99605
建	-9.99672
知足	-9.99749
素	-9.99798
自有	-9.998
便得	-9.9988
▁五	-9.99941
明相出	-9.99959
糞掃衣	-9.99987
民	-10
懈怠	-10.0009
最後	-10.001
不論	-10.0015
弄	-10.0015
誘	-10.0019
定慧	-10.0024
為人	-10.0026
或以	-10.0038
愧	-10.0039
施與	-10.0041
升	-10.0046
饒益	-10.0047
帝釋	-10.0049
試	-10.0051
端正	-10.0062
生天	-10.0067
非親里	-10.0078
耆	-10.0085
」【	-10.009
旋	-10.0094
於諸	-10.0094
潔	-10.0097
若復苾芻	-10.0098
旦	-10.0102
償	-10.0114
憑	-10.0116
不言	-10.0119
三明	-10.0123
度人	-10.0124
扶	-10.0125
揀	-10.0128
隨喜	-10.0129
頭面禮足	-10.0135
麻	-10.0137
所明	-10.0137
慶	-10.0159
不應與	-10.016
分三	-10.0161
六眾	-10.0161
不行	-10.0162
戰	-10.017
丈	-10.0178
能生	-10.0179
▁「	-10.0182
得解脫	-10.019
見論	-10.0191
一部	-10.0191
五陰	-10.0199
未成	-10.0202
不忍	-10.0202
哀	-10.0206
但是	-10.0208
又解	-10.021
唵	-10.0214
舍那	-10.0216
不喜	-10.0221
惡見	-10.0234
滯	-10.0235
聾	-10.0237
無畏	-10.0263
道路	-10.0269
七寶	-10.028
不應作	-10.0291
以明	-10.0292
欲心	-10.0306
正釋	-10.0313
寺中	-10.0321
衣界	-10.0331
安置	-10.0339
婦女	-10.0344
其身	-10.0356
江	-10.036
且如	-10.0364
當來	-10.0369
而說	-10.037
暮	-10.0373
䟦	-10.0378
師云	-10.0379
敷具	-10.038
弓	-10.0381
在此	-10.0392
十四日	-10.0397
亦復	-10.0399
離衣	-10.0401
行之	-10.0407
今詳	-10.041
之本	-10.0413
舒	-10.0413
或時	-10.0414
五部	-10.0425
幸	-10.0425
從今日	-10.0425
替	-10.0427
如實	-10.0428
側	-10.0429
六種	-10.044
手捉	-10.0456
天下	-10.0461
其心	-10.0464
煩	-10.0465
般	-10.0466
衛	-10.047
衣價	-10.0475
障礙	-10.0476
文殊	-10.0491
佛聽	-10.0493
亦然	-10.0495
有七	-10.0501
織師	-10.0501
剋	-10.0502
乃是	-10.0504
以下	-10.0505
今解	-10.0508
裏	-10.051
可學	-10.0512
前文	-10.0515
不在	-10.0518
鈔云	-10.0522
二十一	-10.0549
二師	-10.0551
若與	-10.0551
慚	-10.0558
諸弟子	-10.0559
律本	-10.056
釋名	-10.0563
由是	-10.0565
等事	-10.0569
天眼	-10.0571
他物	-10.0571
碎	-10.0575
此約	-10.0576
酬	-10.0576
即成	-10.0582
昇	-10.0586
一說	-10.0587
巳後	-10.0589
竪	-10.0591
自取	-10.0593
二十八	-10.06
徹	-10.0601
憐愍	-10.0601
人中	-10.0605
智論	-10.0606
下二	-10.061
揩	-10.0616
斷事	-10.0621
『	-10.0623
或言	-10.0623
而起	-10.063
余	-10.0633
料簡	-10.0635
在後	-10.0647
四方僧	-10.0647
不異	-10.0649
不白	-10.0656
無我	-10.0659
銀	-10.0665
自受	-10.0683
出界外	-10.069
應捨	-10.0693
不欲	-10.0696
白衣家	-10.0699
賞	-10.0703
漉	-10.071
總結	-10.0711
癡人	-10.0714
餘二	-10.0734
婢	-10.0736
身業	-10.0736
淨行	-10.0737
一種	-10.0741
則不	-10.0748
梵天	-10.0749
恃	-10.0752
腰	-10.0754
釋義	-10.076
十善	-10.0761
法輪	-10.0764
空中	-10.0765
:)	-10.0767
受菩薩戒	-10.0768
少欲	-10.0768
自餘	-10.0772
片	-10.0775
維	-10.0781
兄	-10.0782
諦聽	-10.0783
?」「	-10.0784
心無	-10.0788
是衣	-10.0788
鉢中	-10.0789
受苦	-10.0792
染心	-10.0797
善見云	-10.08
加法	-10.0803
庶	-10.0808
寂滅	-10.0809
生善	-10.0813
須陀洹	-10.0823
佛以是事集比丘僧	-10.0826
別眾食	-10.0829
摩觸	-10.0831
優	-10.0842
針	-10.0844
不入	-10.0848
何者	-10.0857
廣說如上	-10.0864
解釋	-10.0865
滿二十	-10.0866
方得	-10.0876
其罪	-10.0878
獼猴	-10.0888
正見	-10.089
同異	-10.089
不清淨	-10.0895
文也	-10.09
幢	-10.09
伺	-10.09
寫	-10.0904
演	-10.0905
敗	-10.0907
陀羅尼	-10.0911
謹	-10.0914
不盡	-10.0915
鈍	-10.0921
說欲	-10.0925
某處	-10.0925
爾許	-10.0925
諸戒	-10.0926
著衣持鉢	-10.093
王言	-10.0932
不隨	-10.0938
違教	-10.094
不令	-10.094
怖畏	-10.0945
述曰	-10.0948
無根	-10.095
此義	-10.0953
應可	-10.0954
淨法	-10.0959
冷	-10.0961
睡眠	-10.0964
九句	-10.0964
來者	-10.0965
四禪	-10.0968
既無	-10.0969
競	-10.0971
迦絺那衣	-10.0991
有難	-10.0994
六年	-10.0998
一戒	-10.1
尾	-10.1001
自今已去	-10.101
三日	-10.1011
亦如	-10.1014
四依	-10.1017
聽作	-10.1017
法事	-10.1027
若知	-10.1028
貌	-10.1029
昧	-10.1032
評	-10.1035
說此	-10.104
羹	-10.1043
茶	-10.1043
唱言	-10.1043
維那	-10.1047
譽	-10.1054
初中	-10.1057
飯食	-10.1062
受之	-10.1068
文義	-10.1086
八事	-10.11
百一	-10.111
真諦	-10.1123
毀呰	-10.1124
亦須	-10.113
攝頌曰	-10.1131
意也	-10.1136
正念	-10.114
自行	-10.1152
氏	-10.1167
煑	-10.1169
歡	-10.118
甲	-10.1182
均	-10.1186
所生	-10.1186
整	-10.1186
惡行	-10.1193
相對	-10.1195
授與	-10.1196
槃	-10.1197
潤	-10.1207
一名	-10.1209
建立	-10.1213
窟	-10.1216
廣明	-10.1216
或作	-10.1218
信樂	-10.1222
應以	-10.1231
戒師	-10.1232
不可學	-10.1233
未滿	-10.1235
奢	-10.1235
晝夜	-10.124
侵	-10.1241
盤	-10.1242
除滅	-10.1244
則有	-10.1247
未竟	-10.1249
豈不	-10.1251
誨	-10.1253
誹謗	-10.1258
從他	-10.1261
如是三說	-10.1268
比丘比丘尼	-10.1268
兄弟	-10.1276
闡陀	-10.1281
鐘	-10.1283
入道	-10.1287
即於	-10.1307
無緣	-10.1309
六夜摩那埵	-10.1311
時節	-10.1312
二合	-10.1316
凡聖	-10.1326
摧	-10.133
念言	-10.133
裁	-10.1331
學者	-10.1334
親友	-10.1339
應如是說	-10.1346
非道	-10.1347
搖	-10.1348
所行	-10.1353
若復苾芻尼	-10.1353
基	-10.1354
若僧時到	-10.1355
通塞	-10.1357
渴	-10.1373
妙法	-10.1379
口業	-10.138
所攝	-10.1391
二事	-10.1392
波羅提提舍尼	-10.1394
能持不	-10.1402
魏	-10.1409
不得與	-10.1416
藉	-10.1421
犯提	-10.1422
命過	-10.1422
式叉摩尼	-10.1429
我亦	-10.143
遶	-10.1431
舍衛城	-10.1433
呪願	-10.1434
食已	-10.1442
解者	-10.1454
受戒者	-10.1456
二戒	-10.1459
增減	-10.1459
音聲	-10.1464
人法	-10.1465
伽陀	-10.1472
破壞	-10.1472
八敬	-10.1477
稍	-10.1478
自下	-10.1478
商人	-10.1478
不敬	-10.148
初篇	-10.148
竊	-10.1485
小界	-10.1486
所受	-10.1486
雖復	-10.1488
十重	-10.1489
後時	-10.1497
令知	-10.1503
是中犯者	-10.1503
柱	-10.1509
司	-10.151
甘露	-10.1512
為因	-10.1514
與作	-10.1519
非時食	-10.152
是誰	-10.1523
為欲	-10.1524
中品	-10.1532
敢	-10.1535
十人	-10.1544
次釋	-10.1544
先作	-10.1545
獸	-10.1557
行摩那埵	-10.1559
不覺	-10.1559
肆	-10.1563
未曾	-10.1572
自為	-10.1573
豈可	-10.1574
往來	-10.1577
不差	-10.1585
孤	-10.1591
與女人	-10.1593
隨時	-10.1593
為汝	-10.1594
若犯	-10.1597
釋云	-10.1598
五月	-10.1601
時藥	-10.1601
有八	-10.1604
應更	-10.1604
飽	-10.1609
失衣	-10.1611
是佛	-10.1623
入定	-10.1641
不可得	-10.1647
拒	-10.1649
慈愍故	-10.1651
明相	-10.1654
或為	-10.1657
為本	-10.1658
語者	-10.1664
非親	-10.1664
口中	-10.1669
灑	-10.1669
任運	-10.1672
不語	-10.1672
故開	-10.1674
何須	-10.1677
生滅	-10.1685
盡壽	-10.169
將來	-10.1698
此罪	-10.1699
應取	-10.17
立云	-10.1702
比丘尼僧	-10.1704
都無	-10.1713
若論	-10.1716
憍慢	-10.1728
我某甲比丘	-10.1751
事者	-10.1753
若至	-10.1756
百年	-10.1765
與彼	-10.1769
澡	-10.1769
猛	-10.1779
罪者	-10.1784
憍	-10.1787
跡	-10.1804
須知	-10.1805
翻為	-10.1806
古師	-10.1808
隨機	-10.181
六羣	-10.1818
大衣	-10.1821
律藏	-10.1821
禮敬	-10.1823
醜	-10.1829
掩	-10.183
五條	-10.1834
二十四	-10.1839
豆	-10.1841
僧差	-10.1842
持去	-10.1848
信施	-10.1864
鄙	-10.1868
暴	-10.1869
䇿	-10.1874
恭	-10.1876
恥	-10.1878
威德	-10.1881
能所	-10.1885
剎	-10.1887
未有	-10.1888
三語	-10.189
若未	-10.19
。』」「	-10.19
而反	-10.1901
園中	-10.1905
闍梨	-10.1906
說偈	-10.1907
虛空	-10.1915
黨	-10.1919
此住處	-10.1923
枯	-10.1926
八萬四千	-10.1926
時有比丘	-10.1929
我為	-10.1943
爾時有	-10.1944
佛弟子	-10.1946
如法治	-10.1946
先明	-10.1947
曇	-10.1948
而巳	-10.1951
城邑	-10.1957
施僧	-10.1957
侍者	-10.1964
廟	-10.1965
更受	-10.1967
意云	-10.1967
不妨	-10.197
汝是	-10.1978
戒疏云	-10.1978
戒律	-10.1981
。』『	-10.1992
我見	-10.1993
當作	-10.1994
考	-10.1996
依此	-10.1997
賢首	-10.1998
若下	-10.2005
臭	-10.2007
吹	-10.2009
即往	-10.2013
之名	-10.2017
爭	-10.2018
無疑	-10.2019
緩	-10.2026
抑	-10.2035
行籌	-10.204
一法	-10.2046
準此	-10.2048
於佛	-10.2055
反上	-10.2055
展	-10.2062
沈	-10.2065
文殊師利	-10.2073
墜	-10.2079
裹	-10.208
實相	-10.2081
既不	-10.2099
斬	-10.2099
諸居士	-10.2108
僧次	-10.2108
攝受	-10.2112
咎	-10.2115
微塵	-10.2119
秦	-10.212
無不	-10.2122
灌	-10.2126
上二句	-10.213
今師	-10.2131
自稱	-10.2133
突	-10.2136
此乃	-10.2139
閣	-10.2148
練	-10.2157
融	-10.2157
若病	-10.2158
伽論	-10.2158
割截	-10.2158
二日	-10.2163
死屍	-10.2164
緣中	-10.2165
羯磨者	-10.2172
封	-10.2173
互相	-10.2174
若復	-10.2174
有其	-10.2175
無犯者	-10.2182
名也	-10.2183
此四	-10.2187
終身	-10.2188
了知	-10.2195
是謂	-10.2203
大地	-10.2216
言諍	-10.2221
諸師	-10.2233
纔	-10.2236
共作	-10.2243
違犯	-10.2249
淨心	-10.2254
此亦	-10.2255
人說法	-10.2255
即為	-10.226
歌	-10.226
後安居	-10.2266
射	-10.227
甘	-10.2271
伽藍	-10.2289
看病人	-10.2292
為二	-10.2297
畢竟	-10.2301
範	-10.2302
犯緣	-10.231
怪	-10.2314
緣處同前	-10.2324
聞佛	-10.2326
如意	-10.2329
爾所	-10.2335
受衣	-10.2338
怒	-10.2341
師僧	-10.2341
拂	-10.2342
惡口	-10.2355
居士婦	-10.236
五欲	-10.236
渠	-10.2361
痛惱所纏	-10.2361
力故	-10.2364
身命	-10.2366
未至	-10.2368
是謂為犯	-10.2368
犯相	-10.237
下正	-10.2376
無始	-10.2381
一夜	-10.2382
戒經	-10.2388
一切菩薩	-10.2389
第	-10.24
險	-10.24
天王	-10.2402
若受	-10.2403
不必	-10.2404
思之	-10.2404
非犯	-10.2423
妹	-10.2428
不癡	-10.243
門中	-10.2435
一劫	-10.2435
▁二就下	-10.2438
頻	-10.2439
圍	-10.2448
依教	-10.2453
諸比丘聞	-10.2455
但云	-10.2457
心境	-10.2461
文二	-10.2464
汝莫	-10.2465
不久	-10.2469
作惡	-10.2474
可爾	-10.2474
應云	-10.2478
注云	-10.2481
比丘某甲	-10.2483
猪	-10.2486
近圓	-10.2491
有過	-10.2493
何為	-10.2498
僧殘罪	-10.2502
脂	-10.2505
離本處	-10.2506
縵	-10.2507
佛所說	-10.2508
頃	-10.2514
為異	-10.2516
利他	-10.2519
舍衛國	-10.2523
佛住舍衛城	-10.2525
薪	-10.253
我身	-10.2533
僧應	-10.2536
辱	-10.2546
犯吉	-10.2548
曠野	-10.2551
因緣故	-10.2551
若准	-10.2555
偽	-10.2566
手足	-10.257
依法	-10.257
分明	-10.2571
閻浮提	-10.2579
班	-10.2579
修多羅	-10.2582
初夜	-10.259
四法	-10.259
人也	-10.2591
一拜	-10.2593
受他	-10.2605
八難	-10.2611
快	-10.2614
所見	-10.262
〕	-10.262
行人	-10.2621
白王	-10.2627
和合僧	-10.2627
輪王	-10.2633
氈	-10.264
足數	-10.2646
大愛道	-10.2652
復問	-10.2656
至心	-10.266
念念	-10.266
磔手	-10.2666
欲作	-10.2669
大比丘	-10.2669
虎	-10.2669
諸比丘言	-10.2671
迦羅	-10.2679
屍	-10.2699
佛世尊	-10.2702
邪命	-10.2707
□	-10.2712
往昔	-10.2714
禁戒	-10.2715
尼薩耆	-10.2719
今言	-10.2728
鼠	-10.273
保	-10.2739
即日	-10.274
洗手	-10.274
功德衣	-10.2743
惡法	-10.2744
綴	-10.275
二十五	-10.2759
▁初明	-10.276
便生	-10.2763
殘食	-10.2768
不從	-10.2771
羸	-10.2778
聽畜	-10.2782
初標	-10.2784
一切智	-10.2787
人作	-10.2792
知其	-10.2799
僧法	-10.2801
想疑	-10.2806
變化	-10.2807
本源	-10.2813
西方	-10.2815
貧窮	-10.2817
如彼	-10.2824
說戒時	-10.2829
幽	-10.2829
一食	-10.2836
悞	-10.2836
回	-10.2844
本日治	-10.2844
叉	-10.2847
具緣	-10.2852
如佛	-10.2853
着	-10.2854
神足	-10.2855
造作	-10.2857
不食	-10.2867
既是	-10.2867
意者	-10.2871
不遠	-10.2875
作聲	-10.2878
坐處	-10.2884
聖制	-10.2884
我先	-10.2888
童女	-10.2904
今從僧乞	-10.2907
六度	-10.2908
大德一心念	-10.2916
罪也	-10.2917
泉	-10.2917
現身	-10.292
箭	-10.2922
振	-10.2926
者善	-10.2926
教法	-10.2927
欲得	-10.2934
筆	-10.2937
如人	-10.2938
不明	-10.2938
戒疏	-10.2948
乞求	-10.2953
隨行	-10.2956
等正覺	-10.2958
所不應為	-10.2961
明了	-10.2964
苦行	-10.2967
可信	-10.2967
今以	-10.2968
了了	-10.2969
略說	-10.2971
六法	-10.2975
二根	-10.2978
即犯	-10.2983
不滅	-10.2984
省	-10.2986
受戒人	-10.2988
善知識	-10.2988
澆	-10.2989
尸羅	-10.3014
便成	-10.3018
後來	-10.3027
賓	-10.3028
無非	-10.3036
此下	-10.3039
修善	-10.3041
一心奉請佛說	-10.3048
但以	-10.3048
勤修	-10.3051
更不	-10.3051
比丘應	-10.3062
行相	-10.3074
無厭	-10.3084
淨土	-10.3086
瞋心	-10.3092
文句	-10.3094
邑	-10.3101
剎那	-10.3104
謂於	-10.3105
膩	-10.3108
一衣	-10.3113
倫	-10.3114
先有	-10.3117
王宮	-10.3125
今既	-10.3127
應為	-10.3129
釜	-10.313
取衣	-10.3133
名利	-10.3135
虧	-10.3136
雖是	-10.3137
佛令	-10.3138
與食	-10.3145
莫不	-10.3146
貨	-10.3149
其家	-10.315
迦攝波	-10.3151
警	-10.3152
𠎝	-10.3154
逸	-10.3156
增一	-10.3157
阿蘭若	-10.3157
理應	-10.3158
愆	-10.3159
知之	-10.3162
未知	-10.3169
庫	-10.3169
裙	-10.317
於一	-10.3173
羯	-10.3173
六根	-10.3176
至彼	-10.3177
不制	-10.3179
孝順	-10.3186
來入	-10.319
釋種	-10.3195
年少	-10.3202
𨷂	-10.3206
未必	-10.3207
作如是白	-10.3208
取食	-10.3212
食之	-10.3212
獨覺	-10.3215
奴婢	-10.3227
揵	-10.323
東方	-10.323
不正	-10.3232
傾	-10.3232
三學	-10.3234
問佛	-10.3245
世尊告曰	-10.3248
不能得	-10.3252
不得受	-10.3254
彼比丘尼	-10.3259
命難	-10.3271
於其	-10.3272
不去	-10.3277
安陀會	-10.3278
頗有	-10.3282
祇律	-10.3285
為師	-10.3294
此經	-10.3294
殊勝	-10.3295
唯願	-10.3303
何事	-10.3306
隨其	-10.3308
是其	-10.3308
紙	-10.3313
壽命	-10.3314
怛	-10.3314
云何為	-10.3316
大戒	-10.3316
三位	-10.3317
三中	-10.3325
不實	-10.3325
一罪	-10.3328
事法	-10.3333
護法	-10.3334
見有	-10.3336
見聞疑	-10.3337
莖	-10.3344
憎	-10.3344
非沙門法	-10.3346
初果	-10.3349
孫	-10.3349
記云	-10.3349
二字	-10.3349
散亂	-10.3357
羞	-10.336
犯重罪	-10.336
守持	-10.3361
坐臥	-10.3367
馳	-10.3373
說言	-10.3374
自利	-10.3375
微妙	-10.3376
應用	-10.3378
梵網	-10.3381
玉	-10.3385
無二	-10.3386
學法	-10.3386
羯磨疏云	-10.3399
僧房	-10.3402
已來	-10.3403
作是說	-10.3406
苾芻白佛	-10.3406
制斯學處	-10.3408
無數	-10.3414
色心	-10.3416
身體	-10.3425
如常	-10.3425
既有	-10.3429
時到	-10.3432
彼言	-10.3433
得作	-10.3438
而有	-10.3439
經宿	-10.3459
聽諸比丘	-10.3462
母論	-10.3462
捨者	-10.3466
希有	-10.3469
後夜	-10.347
顏	-10.347
欲求	-10.3478
此土	-10.3478
第三句	-10.3481
月十五日	-10.3485
僧祗	-10.3486
無難	-10.3487
明知	-10.3492
即應	-10.3504
圍繞	-10.3506
晝	-10.351
是名為	-10.3516
王所	-10.3517
日中	-10.3518
毫	-10.3521
有兩	-10.3522
等也	-10.3523
通達	-10.3526
二處	-10.353
藥叉	-10.3532
尅	-10.3534
媒嫁	-10.3534
胸	-10.3535
不住	-10.3536
佛道	-10.3544
雖不	-10.3545
作房	-10.355
應語言	-10.3565
我巳	-10.3566
而受	-10.357
】「	-10.3571
指授	-10.3576
唾	-10.3579
阿闍黎	-10.3581
)。】「	-10.3583
無上菩提	-10.3585
應分	-10.3586
使者	-10.3602
薩婆多云	-10.3619
法華	-10.3644
問云	-10.3648
並皆	-10.365
輕慢	-10.3655
創	-10.3658
見者	-10.3663
高聲	-10.3665
應教	-10.3667
彼苾芻	-10.367
世俗	-10.3672
方可	-10.3675
亦犯	-10.3678
揲	-10.3679
同學	-10.368
無色	-10.3682
尼師壇	-10.3683
疲	-10.3688
貝	-10.3701
以法	-10.3709
得偷蘭遮	-10.371
皆應	-10.3711
受迦絺那衣	-10.372
施衣	-10.3721
至誠	-10.3725
漂	-10.3727
棄捨	-10.3728
行頭陀	-10.3733
復更	-10.3735
二十九	-10.3735
道理	-10.3741
▁初釋	-10.3742
珍	-10.3742
三根	-10.3747
義同	-10.3747
過限	-10.3751
嫉	-10.3752
成實	-10.3753
後世	-10.3769
諮	-10.3772
諸長老	-10.3776
引證	-10.3778
將去	-10.3789
作業	-10.3789
為法	-10.3791
自心	-10.3792
上坐	-10.3795
伸	-10.3796
此一	-10.3797
忿	-10.3799
商主	-10.3802
汝實爾不	-10.3803
諸尼	-10.3807
午	-10.3807
休	-10.381
戒行	-10.3816
不應受	-10.3818
非情	-10.3818
共宿	-10.3819
初二	-10.3821
板	-10.3822
驢	-10.3824
心也	-10.3828
五日	-10.383
行時	-10.3841
安居竟	-10.3841
卿	-10.3842
䟦難陀	-10.3842
鉤	-10.3852
此某甲比丘	-10.3854
所引	-10.3856
是何	-10.3856
獻	-10.3857
下顯	-10.386
唯除	-10.3864
至此	-10.3865
非沙門	-10.3869
後二	-10.3871
七十	-10.3874
大姊	-10.3877
弗	-10.388
贊	-10.3888
蒲	-10.389
此名	-10.3896
眾多比丘	-10.3901
吉祥	-10.3902
遠行	-10.3905
佛在王舍城	-10.3906
惡道	-10.3907
雨浴衣	-10.3909
教授師	-10.3912
往詣	-10.3914
還報	-10.3925
稱為	-10.3927
何謂	-10.3932
約勅	-10.3934
緣覺	-10.3936
料理	-10.3941
掘地	-10.3942
能為	-10.3945
老病	-10.3952
火燒	-10.3955
惡趣	-10.3957
幻	-10.3963
下結	-10.3965
八萬	-10.3968
嚼	-10.3969
初禪	-10.3973
以自	-10.3973
刑	-10.3975
重者	-10.3978
無為	-10.398
於後	-10.3989
染著	-10.3994
授戒	-10.3998
剎利	-10.3998
去時	-10.4
即入	-10.4003
知事	-10.4005
種類	-10.4007
殺人	-10.4008
符	-10.4009
愛樂	-10.4011
个	-10.4012
澄	-10.4013
天神	-10.4014
千佛	-10.4017
沉	-10.4019
入僧	-10.4019
墮落	-10.4022
受七日	-10.4022
經文	-10.4028
越毘尼罪	-10.4031
念佛	-10.4032
糞掃	-10.4045
之理	-10.4045
殘宿	-10.4047
得生	-10.4053
學人	-10.4062
長壽	-10.4064
體是	-10.4065
欲使	-10.4066
此釋	-10.4066
各別	-10.407
於他	-10.4071
開緣	-10.4072
四邊	-10.4073
淫	-10.4076
不修	-10.4078
二十二	-10.4078
小罪	-10.4082
冠	-10.4083
有事	-10.4089
惱他	-10.4096
見諦	-10.4096
心所	-10.4098
立明	-10.4104
如斯	-10.411
絹	-10.4113
漏盡	-10.4116
四果	-10.4116
彼便	-10.4118
惡事	-10.4122
所制	-10.4123
貿易	-10.4126
受教	-10.4127
二罪	-10.4127
籬	-10.4128
訛	-10.413
二十三	-10.4132
身口意	-10.4133
本處	-10.4137
羅剎	-10.4137
飢	-10.4137
難處	-10.4138
時王	-10.4139
理須	-10.414
辟支佛	-10.4141
二界	-10.4141
正是	-10.4141
二十七	-10.4142
式叉	-10.4144
不分	-10.4144
困	-10.4144
雖無	-10.4145
為利	-10.4147
上句	-10.4155
△	-10.4156
亦當	-10.4156
揵度	-10.4165
處者	-10.4176
中國	-10.4178
令得	-10.4188
不過	-10.4193
懺法	-10.4193
得大	-10.4195
法寶	-10.4196
方法	-10.4197
貪著	-10.4201
檢	-10.4203
欣	-10.4205
商	-10.4207
死人	-10.4207
羮	-10.4209
其餘	-10.4209
異處	-10.421
一家	-10.4212
惠	-10.4213
說波羅提木叉	-10.4214
往至	-10.4215
樂學戒	-10.4224
輸	-10.4226
不疑	-10.4238
之過	-10.4238
三處	-10.424
清淨比丘	-10.4247
此某甲	-10.425
隨處	-10.4253
僧忍默然故	-10.4258
四緣	-10.4261
材	-10.4267
枕	-10.4273
應還	-10.4278
從坐起	-10.4281
貪欲	-10.4286
之道	-10.4287
薩婆多論云	-10.4292
洗足	-10.4296
高座	-10.43
是罪	-10.4302
坊	-10.4304
以何	-10.4304
色界	-10.4308
晉	-10.4313
聖法	-10.4317
何用	-10.4317
注中	-10.432
巳去	-10.4324
善知	-10.4329
今欲	-10.4329
法律	-10.4331
澤	-10.4332
最初未制戒	-10.4335
木叉	-10.4335
十住	-10.4339
擎	-10.4343
寺內	-10.4343
犍	-10.4347
不得作	-10.4352
齊整	-10.4356
衣時	-10.4357
無由	-10.4357
勇	-10.4357
放光	-10.4362
陽	-10.4365
▁六	-10.4371
以無	-10.4372
誓願	-10.4381
知而	-10.4382
此非	-10.4386
則是	-10.4386
離欲	-10.439
汝不	-10.4392
皆由	-10.4399
團	-10.4406
有五事	-10.4413
儒	-10.4414
故今	-10.4414
所詮	-10.4415
仁等	-10.4416
發戒	-10.4417
比丘所	-10.4418
在於	-10.4418
若約	-10.4425
當以	-10.4426
一偈	-10.4426
百歲	-10.4428
救護	-10.4429
三十二	-10.4431
菩提心	-10.4437
親厚	-10.4437
下指	-10.4441
無違	-10.445
為眾	-10.4456
豫	-10.4456
初文	-10.446
非理	-10.4465
蕩	-10.4466
法藏	-10.4469
一事	-10.4471
輔	-10.4472
伎	-10.4472
與某甲比丘	-10.4474
隨身	-10.4474
盜戒	-10.4475
武	-10.4476
請僧	-10.4476
多論云	-10.4481
當為	-10.4483
不得食	-10.4483
人物	-10.4484
大會	-10.4485
制教	-10.4486
此五	-10.4486
去者	-10.4488
聚落中	-10.4493
佛像	-10.4495
阿羅漢果	-10.4496
為言	-10.4496
當於	-10.4497
二諦	-10.4498
未能	-10.4501
知者	-10.4501
前安居	-10.4508
五緣	-10.4509
得一	-10.451
非一	-10.451
七條	-10.4514
白僧	-10.4524
舍利子	-10.4527
以此因緣	-10.453
僧祇律云	-10.4538
後更	-10.4539
天龍	-10.4539
於一切	-10.4541
療	-10.4543
若說	-10.4549
殺盜	-10.4556
不容	-10.4557
相者	-10.4558
增益	-10.4563
巳來	-10.4564
繼	-10.4565
紹	-10.4568
八日	-10.457
革	-10.4575
今當	-10.4576
撥	-10.4576
未盡	-10.4582
少分	-10.4587
若教人	-10.4592
降伏	-10.4594
象馬	-10.4595
占	-10.4596
鈔文	-10.4597
入城	-10.4597
轉法輪	-10.4598
紐	-10.4602
佛在舍衛	-10.4604
離處	-10.4607
一邊	-10.4609
百億	-10.461
泥洹	-10.4613
教者	-10.4617
十歲	-10.4617
手受	-10.4618
無益	-10.4618
雞	-10.4619
彈指	-10.4626
右手	-10.4627
墮罪	-10.463
知他	-10.4634
僧寶	-10.4634
戒是	-10.4634
校	-10.464
分衣	-10.4642
請佛	-10.4643
上中下	-10.4643
初二句	-10.4643
僧和合	-10.4645
災	-10.4655
故下	-10.4656
下引證	-10.4657
逃	-10.4658
不殺	-10.4662
貪心	-10.4662
堪能	-10.4668
令僧	-10.4669
用者	-10.467
餘如	-10.4671
第二句	-10.4672
巳成	-10.4677
集眾	-10.4677
論中	-10.468
浣染	-10.4681
知法	-10.4683
豈得	-10.4688
多種	-10.4691
僧得	-10.4695
卷第十	-10.4696
意業	-10.4696
而取	-10.4698
寡	-10.4703
晨朝	-10.4704
與尼	-10.4705
眾學	-10.4705
騰	-10.4729
界者	-10.473
作念	-10.4733
佛前	-10.474
等法	-10.4749
常行	-10.475
有智	-10.4753
引文	-10.4758
蓮花	-10.4759
非也	-10.4763
如前說	-10.4764
佛物	-10.4765
止作	-10.4766
捨去	-10.4771
但得	-10.4774
北方	-10.4774
而來	-10.4775
具足戒	-10.4777
初門	-10.4779
柔	-10.4784
梵音	-10.4785
什	-10.4785
滅度	-10.4789
種種呵責	-10.4791
爾時諸比丘	-10.4793
諸善	-10.4795
西域	-10.4796
時中	-10.4798
當還	-10.4798
僧眾	-10.4799
示現	-10.4803
下句	-10.4805
故爾	-10.4805
結大界	-10.4806
牒釋	-10.4808
必當	-10.4808
刻	-10.4809
僧忍聽	-10.4812
非淨行	-10.4813
祖師	-10.4814
過人法	-10.4816
七逆	-10.482
惡觸	-10.4821
六者	-10.4821
某甲比丘尼	-10.4825
往語	-10.4826
事鈔	-10.4828
祠	-10.483
遠近	-10.4832
逆罪	-10.4834
夢中	-10.4838
受體	-10.4839
工	-10.4863
捨離	-10.4864
教令	-10.4865
如大	-10.4868
嘉	-10.4872
少欲知足	-10.4876
自巳	-10.488
謂以	-10.4887
媒	-10.4887
上文	-10.4888
▁二若下	-10.4892
報恩	-10.4894
食肉	-10.4895
作是念已	-10.4905
千歲	-10.4906
瞿	-10.4908
不假	-10.4908
與此	-10.491
又言	-10.4915
犯突吉羅	-10.4922
物者	-10.4922
給孤獨	-10.4924
本是	-10.4927
前事	-10.4929
躡	-10.4929
美食	-10.4929
勢力	-10.4932
受近圓	-10.4933
宜應	-10.4934
毒蛇	-10.4935
共為	-10.4937
隨相	-10.4945
以成	-10.4949
不失衣	-10.495
在世	-10.4953
如後	-10.4958
槌	-10.4958
無數方便	-10.4962
不覆藏	-10.4963
覆鉢	-10.4964
地中	-10.4967
佛法中	-10.4968
即前	-10.4968
戒品	-10.4971
門外	-10.4978
過十日	-10.4981
無表	-10.4986
雨衣	-10.4987
內宿	-10.5
蔽	-10.5005
難緣	-10.5013
應供	-10.5017
無窮	-10.5018
產	-10.5022
若取	-10.5023
安樂住	-10.5027
育	-10.5028
偷蘭罪	-10.5029
出家受具足戒	-10.5032
陷	-10.5034
行覆藏	-10.5036
十誦律云	-10.504
詰	-10.5045
作布薩	-10.5045
針筒	-10.5049
之緣	-10.505
一切佛	-10.5051
僧今與	-10.5055
故律云	-10.5061
二部僧	-10.5061
幡	-10.5063
粗	-10.5064
次句	-10.5064
哀愍	-10.5066
違諫	-10.5075
立名	-10.5077
浴室	-10.5081
犯不犯	-10.5082
篇聚	-10.5083
珍寶	-10.5086
令我	-10.5087
聖諦	-10.509
㲲	-10.5094
他部	-10.51
蟻	-10.5104
甚深	-10.5108
一日一夜	-10.5108
不稱	-10.5109
以衣	-10.5121
脫革屣	-10.5123
五百問	-10.5126
皆犯	-10.513
軟	-10.5135
唄	-10.5139
五分律云	-10.5139
鬬	-10.5139
於前	-10.5139
畔	-10.5141
彼即	-10.5145
嚩	-10.5154
後生	-10.5154
聽我	-10.5156
難事	-10.5156
前明	-10.5157
請食	-10.5159
第四句	-10.5163
漸漸	-10.5165
辨相	-10.5165
不可思議	-10.5167
時世尊	-10.5168
鄔波馱耶	-10.5168
假名	-10.5177
說也	-10.5183
剌	-10.5184
哩	-10.5185
墮地獄	-10.5187
得墮罪	-10.5189
觀行	-10.519
賴	-10.5197
方成	-10.5197
津	-10.5197
夜叉	-10.5198
無事	-10.5201
入村	-10.5201
明其	-10.5203
再三	-10.5206
受生	-10.5212
有人言	-10.5212
將此	-10.5213
捨衣	-10.5213
我聞	-10.5213
時六群比丘	-10.5219
此身	-10.522
諸外道	-10.5221
搩手	-10.5249
一宿	-10.5249
金色	-10.525
本律	-10.5252
耶舍	-10.5257
而非	-10.5257
破夏	-10.5262
從彼	-10.5264
而出	-10.5265
疏中	-10.5276
學家	-10.5278
正道	-10.5279
翅	-10.5279
歸依佛	-10.5279
裂	-10.528
殄	-10.5285
欲說戒者當如是說	-10.5286
萬行	-10.529
言說	-10.5293
一年	-10.53
更作	-10.5306
百二十	-10.5307
破和合僧	-10.5309
為大	-10.5311
括	-10.5312
與諸比丘	-10.5312
今依	-10.5314
非隨順行	-10.5316
客比丘來	-10.5316
絲	-10.5319
三性	-10.5321
前四	-10.5323
饑	-10.5325
通於	-10.5329
敷座	-10.5332
中前	-10.5333
大迦葉	-10.5335
儉	-10.5339
日暮	-10.5341
右膝著地	-10.5343
加行	-10.5345
結重	-10.5348
應須	-10.5357
可悔	-10.5357
慈愍	-10.5362
諸佛子	-10.5363
朋	-10.5364
匿	-10.5367
能斷	-10.5367
復言	-10.5368
種性	-10.5381
爐	-10.5382
越比尼罪	-10.5386
三千	-10.5386
是菩薩	-10.5387
晚	-10.5389
還至	-10.5391
溫	-10.5393
得惡作	-10.5396
禪師	-10.54
所造	-10.5407
之語	-10.5413
當時	-10.5414
二名	-10.5415
而成	-10.5417
楊枝	-10.542
宜可	-10.5433
道果	-10.5435
伊	-10.5437
有五法	-10.5439
揭	-10.544
說十	-10.5441
信敬	-10.5442
差人	-10.5444
依律	-10.5445
四戒	-10.5446
結使	-10.5448
一鉢	-10.5454
頌曰	-10.5458
僻	-10.5459
佛果	-10.547
盈	-10.5473
等是	-10.5474
不作淨	-10.5479
非正	-10.5485
健	-10.5496
絡	-10.5496
不和合	-10.5498
病時	-10.5501
灌頂	-10.5504
其相	-10.5513
殺者	-10.5515
尤	-10.5519
與某甲	-10.5521
行處	-10.5521
麤惡	-10.5524
獵師	-10.5527
寶物	-10.553
盆	-10.5531
棄之	-10.5533
拾	-10.5537
斧	-10.5539
把	-10.554
至佛所	-10.5542
制也	-10.5544
旁	-10.5547
▁初標名	-10.5548
別有	-10.555
或是	-10.5552
為名	-10.5554
聞之	-10.5554
五六	-10.5557
一面	-10.5558
墻	-10.5558
通局	-10.5559
稽首	-10.5561
劍	-10.5563
大姊僧聽	-10.5573
二教	-10.5583
先後	-10.5587
癩	-10.5588
慰	-10.5591
秋	-10.5595
餘皆	-10.5595
六日	-10.5595
三重	-10.5596
天台	-10.5597
大聖	-10.5598
偈云	-10.5604
無因緣	-10.5606
故曰也	-10.5606
汝所為非	-10.5606
摩羅	-10.5607
當云何	-10.5608
估客	-10.5608
植	-10.5609
六塵	-10.5618
施者	-10.5619
應差	-10.562
十惡	-10.5623
甞	-10.5623
童	-10.5624
了論	-10.5625
置地	-10.5627
換	-10.5629
聞此	-10.5631
染衣	-10.5632
混	-10.5633
紫	-10.5636
廣說如前	-10.564
知見	-10.564
語已	-10.5642
的	-10.5642
俱有	-10.5648
入重	-10.5648
不捨者	-10.5648
同一說戒	-10.5652
肩上	-10.5658
具白世尊	-10.5659
集十句義乃至正法久住	-10.5663
不絕	-10.5666
名稱	-10.5672
籌量	-10.5673
遂便	-10.5674
僧者	-10.5684
所應	-10.5695
彼論	-10.5697
凡有	-10.5697
我有	-10.5698
不忘	-10.5706
下別釋	-10.5707
皆共	-10.5708
此據	-10.5709
新衣	-10.5709
冀	-10.5712
行惡行	-10.5715
將欲	-10.5722
與比丘尼	-10.5723
但言	-10.5723
知慚愧者	-10.5724
聰明	-10.5726
取者	-10.5732
亦成	-10.5734
)。「	-10.5734
便即	-10.5737
侶	-10.5741
分為二	-10.5748
約義	-10.5752
更加	-10.5754
論文	-10.5756
地了時	-10.5757
前行	-10.5757
佛告諸苾芻	-10.5759
闕緣	-10.5762
西國	-10.5766
憙	-10.5767
過者	-10.5767
莊	-10.5769
邊地	-10.5769
況復	-10.5772
不至	-10.5774
呪術	-10.5777
包	-10.5784
當願眾生	-10.5786
更得	-10.5787
禍	-10.5792
實語	-10.5794
三十九	-10.5795
施物	-10.5797
憂惱	-10.5797
瘂	-10.5798
隨緣	-10.58
靜慮	-10.5803
若聞	-10.5806
釋文	-10.5808
日夜	-10.5811
▁【	-10.5813
出外	-10.5816
見其	-10.5819
諸文	-10.5819
以緣白佛	-10.582
初約	-10.582
住者	-10.5824
在一處	-10.5829
同住	-10.5832
譬	-10.5833
與出家	-10.5835
往白世尊	-10.584
苟	-10.5842
入涅槃	-10.5844
有因緣	-10.5845
為王	-10.585
遣人	-10.5851
於人	-10.5852
最上	-10.5852
而能	-10.5856
蹲	-10.5856
善戒	-10.5858
所證	-10.5858
內有	-10.5862
勵	-10.5867
為緣	-10.5867
何有	-10.5868
尚不	-10.5869
能除	-10.5871
見之	-10.5871
食竟	-10.5872
佛戒	-10.5873
製	-10.5874
捨者善	-10.5874
重故	-10.5881
酪	-10.5884
善能	-10.5888
妻子	-10.5888
事竟	-10.5889
麤罪	-10.5891
本意	-10.5891
來已	-10.5894
佉	-10.5895
罪名	-10.5897
律制	-10.5899
陶	-10.59
成重	-10.5902
若使人	-10.5904
収	-10.5906
癈	-10.5908
▁初引	-10.5908
最初犯戒	-10.5909
禮足	-10.5914
室羅伐城	-10.5915
微細	-10.5915
輿	-10.5916
對僧	-10.5918
不知云何	-10.5918
厨	-10.592
排	-10.5921
餘事	-10.5923
善業	-10.5925
亦不應	-10.5925
為宗	-10.5928
滿五	-10.593
金錢	-10.5936
忍辱	-10.5936
𦦨	-10.5936
懺者	-10.5937
食處	-10.5937
受懺	-10.5942
無能	-10.5942
止宿	-10.5945
三拜	-10.5946
緣成	-10.5949
悶	-10.5951
裸形	-10.5951
共期	-10.5963
先受	-10.5966
使淨人	-10.5966
獵	-10.5966
婬戒	-10.5967
諸煩惱	-10.5968
要期	-10.5971
更相	-10.5978
犯何事	-10.598
咽咽	-10.5982
則為	-10.5983
總舉	-10.5984
出生	-10.5987
一云	-10.5989
知事人	-10.5989
又下	-10.5991
促	-10.5992
玄云	-10.5992
明之	-10.5994
好心	-10.5996
雪	-10.6
跪	-10.6006
賜	-10.6009
聽許	-10.6014
智論云	-10.6014
遲	-10.6017
制其學處	-10.6019
故出精	-10.6019
溺	-10.602
俱是	-10.6021
共同	-10.6023
入眾	-10.6024
不違	-10.6026
京	-10.6027
床上	-10.6031
善生	-10.6034
業報	-10.6039
之行	-10.6039
被舉	-10.6041
一千	-10.6041
信者	-10.6042
犯僧伽婆尸沙	-10.6043
為是	-10.6043
二形	-10.6043
梵云	-10.6045
波斯匿王	-10.6048
債	-10.6048
捕	-10.6049
丸	-10.6051
二年	-10.6051
比丘尼言	-10.6051
左手	-10.606
繩床	-10.606
著地	-10.6061
活命	-10.6067
施食	-10.6069
正行	-10.6076
犯輕	-10.6078
陣	-10.6078
結前	-10.608
醫藥	-10.6084
覺知	-10.6089
汎	-10.609
五逆	-10.6091
婦人	-10.6096
僧界	-10.6097
香華	-10.6105
同意	-10.6108
率	-10.6111
娑婆	-10.6114
初示	-10.6115
有愛	-10.6116
繫縛	-10.6117
作佛	-10.6119
能破	-10.612
梵網經	-10.6124
和僧	-10.6133
拍	-10.6136
入寺	-10.6139
自殺	-10.614
大慈	-10.614
違制	-10.6141
有幾	-10.6142
風吹	-10.6142
靜處	-10.6143
不得戒	-10.6145
往世尊所	-10.6148
既至	-10.6152
蒜	-10.6156
祇桓	-10.6157
中初明	-10.6158
還來	-10.6162
持此	-10.6165
注文	-10.6166
修學	-10.6166
四天王	-10.6171
即須	-10.6173
響	-10.6174
三塗	-10.6176
法性	-10.6176
座上	-10.6177
各自	-10.6183
受三歸	-10.6186
刪	-10.6186
急施衣	-10.6197
重受	-10.6199
何時	-10.6199
一切諸佛	-10.6202
受五戒	-10.6202
費	-10.6203
十誦律	-10.6206
苦樂	-10.6206
人間遊行	-10.621
向佛廣說	-10.6211
生起	-10.6215
四五	-10.6216
意欲	-10.6217
阿那律	-10.622
一心念	-10.6229
形像	-10.623
現相	-10.6231
更增	-10.6234
1	-10.6235
意在	-10.6237
言語	-10.6239
者無犯	-10.6251
不現	-10.6251
此句	-10.6251
若苾芻尼	-10.6253
頰	-10.6258
巷	-10.6259
三戒	-10.626
耕	-10.6261
嫌責	-10.6262
得果	-10.6264
十律	-10.6264
挽	-10.6265
戾	-10.6267
語比丘言	-10.6272
舊云	-10.6276
僧已忍	-10.628
一品	-10.6285
髻	-10.6288
釋中	-10.6291
王聞	-10.6292
作意	-10.6292
所持	-10.6294
身分	-10.6294
此比丘尼	-10.6298
摘	-10.6298
如是白	-10.6303
舊住	-10.6305
本宗	-10.6309
亦通	-10.6317
梵王	-10.6319
受欲	-10.6322
綺	-10.6324
治之	-10.6324
上明	-10.6328
空無	-10.6332
不往	-10.6333
僧數	-10.6335
摩尼	-10.6337
一界	-10.634
羅睺羅	-10.6342
違逆	-10.6345
不與取	-10.6345
之境	-10.6347
應往	-10.6347
祗	-10.6348
云何名	-10.6361
覆頭	-10.6364
初緣	-10.6368
二歲學戒	-10.6368
無垢	-10.6373
刀杖	-10.6376
持鉢	-10.6383
若非	-10.6386
一字	-10.6388
化身	-10.6388
椎	-10.639
次下	-10.6391
麁罪	-10.6394
一卷	-10.6395
輕垢	-10.6395
吐羅難陀	-10.6397
無文	-10.6398
以此因緣具白世尊	-10.6399
不求	-10.6401
授具足戒	-10.6402
理無	-10.6402
雅	-10.6404
圍遶	-10.6405
優劣	-10.6406
歸命	-10.6408
徒眾	-10.6414
奉持	-10.6417
作非法	-10.6418
彼岸	-10.642
捺	-10.6424
剝	-10.6425
焚	-10.6427
懺罪	-10.643
沙彌戒	-10.6433
帛	-10.6435
污他家	-10.6435
舍羅	-10.6437
誕	-10.6438
遮難	-10.644
殺心	-10.6445
故無	-10.6446
隣	-10.645
誰諸長老忍	-10.6452
在地	-10.6456
佛告阿難	-10.6457
提罪	-10.6462
即當	-10.6462
如世尊說	-10.6462
殃	-10.6463
慈悲心	-10.6466
自誓	-10.6466
但為	-10.6467
有諸比丘	-10.6469
賊住	-10.6469
逕	-10.6471
二持	-10.6476
惟願	-10.6482
未曾有	-10.6484
舉罪	-10.6488
捨迦絺那衣	-10.6489
經說	-10.6495
頗有比丘	-10.6496
決斷	-10.6496
良由	-10.6497
娶	-10.6498
皈	-10.6498
對境	-10.6502
●	-10.6503
十三難	-10.6508
取其	-10.6512
去聲	-10.6513
甘蔗	-10.6514
長夜	-10.6517
域	-10.6517
史	-10.6521
示教利喜	-10.6522
湯藥	-10.6523
慕	-10.6526
愈	-10.6527
盡集	-10.6527
法師曰	-10.6528
次科初	-10.653
善行	-10.653
嫁	-10.6531
惱亂	-10.6532
得法	-10.6534
之功	-10.6534
餘四	-10.6537
僧食	-10.6537
瘦	-10.654
高下	-10.6541
成正覺	-10.6544
鞞	-10.6546
架	-10.6546
染汙	-10.6548
淚	-10.6549
罪過	-10.6549
財寶	-10.6549
中初示	-10.6551
乃至已聞者當重	-10.6556
皇	-10.6557
初釋	-10.6565
便言	-10.6567
三十六	-10.6568
大沙門	-10.6574
山林	-10.658
第一義諦	-10.658
思念	-10.6582
所出	-10.6585
所防	-10.6585
明了論	-10.6593
不處分	-10.6603
現前僧應分	-10.6612
後於異時	-10.6614
般涅槃	-10.6615
戒壇	-10.662
身中	-10.6621
授記	-10.6624
四分云	-10.6628
餘衣	-10.6635
有德	-10.6637
糧	-10.6639
佗	-10.6639
准前	-10.6639
種姓	-10.6641
今從	-10.6643
立法	-10.6647
苑	-10.6649
候	-10.6653
開遮	-10.6653
好惡	-10.6655
遷	-10.6656
智度論	-10.6657
然火	-10.6657
得物	-10.6659
廣說乃至	-10.6661
與衣	-10.6663
釋相	-10.6663
一切皆	-10.6664
轉想	-10.6666
阿那含	-10.6671
為求	-10.6674
資身	-10.6676
脇	-10.6679
共分	-10.668
燒香	-10.6684
之間	-10.6686
普賢	-10.6691
不立	-10.6692
對人	-10.6693
駈	-10.6698
是知	-10.6701
作如是說	-10.6702
自持	-10.6703
在下	-10.6703
一切僧	-10.6706
命根	-10.6708
躬	-10.6713
三結	-10.6717
怨家	-10.6718
夏中	-10.672
有心	-10.6721
罪報	-10.6722
之體	-10.6725
堅持不捨	-10.6726
僧已與	-10.6727
唯一	-10.6736
引禮	-10.6736
釋名者	-10.6737
即此	-10.6739
皆須	-10.6742
奔	-10.6743
腋	-10.6749
仗	-10.675
方丈	-10.675
提舍	-10.6751
能作	-10.6753
長大	-10.6754
有蟲	-10.6758
行來	-10.6761
總示	-10.6765
方能	-10.6769
非親里比丘尼	-10.6772
能詮	-10.6778
屠	-10.6778
四位	-10.6779
籠	-10.678
紛	-10.6783
苗	-10.6787
暢	-10.6787
出家菩薩	-10.6788
疾病	-10.6791
汝云何	-10.6792
二十六	-10.6799
取物	-10.6802
如佛所說	-10.6804
梵行難	-10.6806
但使	-10.6806
烟	-10.6808
且約	-10.6813
危	-10.6814
三十七	-10.6814
煖	-10.6815
不別	-10.6815
洛	-10.6816
麼	-10.6817
有云	-10.6818
生草	-10.6821
墨	-10.6823
突吉羅罪	-10.6823
正受	-10.6827
六親	-10.6827
律儀戒	-10.683
有九	-10.683
成業	-10.6832
復作是念	-10.6836
此心	-10.6838
等物	-10.6841
屎	-10.6849
八月	-10.685
犯殘	-10.6851
祈	-10.6852
治罰	-10.6854
名義	-10.6857
種種因緣呵已	-10.6859
一切諸	-10.6863
受我	-10.6865
兩句	-10.6872
現前僧	-10.6883
汝等苾芻	-10.6886
中初文	-10.689
殺害	-10.6894
事理	-10.6903
大願	-10.6904
以水	-10.6906
倦	-10.6907
婆羅	-10.6909
則知	-10.6912
正覺	-10.6915
七聚	-10.692
謙	-10.6924
鄣	-10.6925
安住	-10.6925
而立	-10.693
宣說	-10.6933
又以	-10.6939
且據	-10.6939
饒	-10.6942
講堂	-10.6943
▁七	-10.6949
受取	-10.695
界相	-10.6955
招譏	-10.6955
小者	-10.6959
▁初列	-10.6968
祇云	-10.697
意謂	-10.697
手執	-10.6975
彈	-10.6978
並同	-10.698
受已	-10.6981
由彼	-10.6986
著袈裟	-10.6986
開導	-10.6987
失受	-10.6993
閻浮	-10.7009
辛	-10.7009
儀軌	-10.701
竺	-10.7015
同宿	-10.7016
巳竟	-10.7016
日數	-10.7017
剪	-10.7017
他勝	-10.7018
優婆塞戒	-10.7027
便是	-10.7036
見道	-10.7039
惡說	-10.704
善友	-10.7047
泣	-10.7049
作方便	-10.7052
越毗尼罪	-10.7059
乃至佛言	-10.7059
。』「	-10.706
師曰	-10.7062
僧集	-10.7064
偏袒右肩	-10.7066
往白佛	-10.7073
之內	-10.7076
熾盛	-10.7079
o	-10.7085
樹葉	-10.7086
不答	-10.7087
難提	-10.7087
異境	-10.7088
五根	-10.7089
火淨	-10.7091
成論	-10.7092
既爾	-10.7096
雜事	-10.7097
罪福	-10.7099
惡獸	-10.7105
眾多人	-10.7107
諸有情	-10.7108
飡	-10.7111
總標	-10.7112
所以者何	-10.7113
頭面	-10.7116
東西	-10.7117
十二年	-10.7122
役	-10.7123
實作	-10.7125
三世諸佛	-10.7125
所用	-10.7131
與前	-10.7135
曬	-10.7137
次辨	-10.7141
化眾生	-10.7144
閱	-10.7151
如鈔	-10.7153
祭	-10.7153
我比丘某甲	-10.7154
為最	-10.7157
毘舍佉	-10.7157
結小界	-10.7157
具說	-10.7161
瞻病	-10.7162
八法	-10.7167
遣信	-10.7176
摶	-10.7176
性罪	-10.7179
義通	-10.7179
四部	-10.718
梯	-10.7181
年滿二十	-10.7182
▁初問	-10.7182
毒藥	-10.7185
瑞	-10.7193
不了了	-10.7196
十夜	-10.7199
巡	-10.7208
埋	-10.7218
至僧中	-10.7223
詣佛所	-10.7224
粟	-10.7226
入於	-10.7226
出去	-10.7227
不待	-10.7228
捨心	-10.7229
慧命	-10.7232
以無根	-10.7233
契經	-10.7233
月一日	-10.7233
若有人	-10.7235
能滅	-10.7238
波利婆沙	-10.7239
不輕	-10.7239
敬信	-10.7243
浣衣	-10.7244
頂戴	-10.725
或因	-10.726
佛身	-10.726
因制	-10.7264
汝能	-10.7265
歸依法	-10.7271
有二義	-10.7274
波離	-10.7276
已下	-10.7279
五利	-10.7279
荼	-10.7286
得脫	-10.7287
諸有	-10.7293
帖	-10.7296
所起	-10.7296
境差	-10.7297
然燈	-10.73
七支	-10.7303
諸經	-10.7307
半月半月	-10.7315
菩薩摩訶薩	-10.7316
皆為	-10.7317
篇中	-10.7317
不思議	-10.7326
掉	-10.7329
肅	-10.733
喜樂	-10.7331
正理	-10.7338
四波羅夷	-10.7342
現行	-10.7345
中夜	-10.7352
地上	-10.7355
擾	-10.7355
相好	-10.736
多種有漏處	-10.7373
還家	-10.7376
據此	-10.7391
之外	-10.7391
徐	-10.7392
可食	-10.7393
便往	-10.7396
既云	-10.7396
文意	-10.7401
靡	-10.7401
皷	-10.7403
此解	-10.7404
敬重	-10.7408
諸佛菩薩	-10.7408
小便	-10.741
捨與僧	-10.7419
同時	-10.7419
餓	-10.7423
能治	-10.7424
王臣	-10.7429
儀式	-10.743
曼	-10.7433
轉輪王	-10.7435
鞭	-10.7436
毘舍離	-10.7437
風雨	-10.7441
夫婦	-10.7442
所以爾者	-10.7443
意樂	-10.7446
色身	-10.7455
苦痛	-10.7457
四明	-10.7458
雖非	-10.7458
蚊	-10.7459
聖賢	-10.7461
本師	-10.7462
前境	-10.7465
略舉	-10.7466
算	-10.7466
楚	-10.747
先解	-10.7474
毀犯	-10.7474
聞是語已	-10.7476
無量無邊	-10.7479
豎	-10.7483
所對	-10.749
四十二	-10.749
五蘊	-10.749
見他	-10.7491
端嚴	-10.7492
之因	-10.7493
本罪	-10.7493
燃	-10.7494
進趣	-10.7496
若檀越	-10.7498
作諸	-10.7501
拏	-10.7502
崩	-10.7502
福業	-10.7504
隆	-10.7507
龜	-10.7511
衣財	-10.7511
自恣竟	-10.7521
瓶沙王	-10.7522
八句	-10.7523
所緣	-10.7535
滅盡	-10.7545
上座前	-10.7547
曳	-10.7548
羯磨師	-10.7554
托	-10.7555
華言	-10.7557
無慚愧	-10.7559
式叉迦羅尼	-10.7564
偷盜	-10.7567
大姉	-10.7569
稻	-10.7574
求覓	-10.7579
邪正	-10.7595
十年	-10.7599
於佛法中	-10.7603
▁二初下	-10.7604
根本說一切有部毘奈耶	-10.7606
由斯	-10.7608
分物	-10.7609
非畜	-10.7613
若少	-10.7613
覽	-10.7613
匠	-10.7614
顏色	-10.7618
八部	-10.7622
往觀	-10.7623
更求	-10.7625
一重	-10.7633
屐	-10.7638
喬答摩	-10.7644
事諍	-10.7644
測	-10.7645
罸	-10.7646
今則	-10.7649
倉	-10.765
何因	-10.7653
盧舍那	-10.7656
隨心	-10.7663
三年	-10.7663
何名	-10.7664
為我作	-10.7665
玅	-10.7667
本心	-10.767
所成	-10.7671
嬰	-10.7673
何意	-10.7677
一體	-10.768
結成	-10.7683
▁二釋	-10.7684
新學	-10.7686
和上尼某甲	-10.769
總別	-10.7692
持食	-10.7695
染污	-10.7695
諸臣	-10.7697
俗家	-10.7698
斯陀含	-10.7703
干	-10.7704
聖眾	-10.7705
同行	-10.7706
其意	-10.7709
遊戲	-10.7711
功能	-10.7712
立制	-10.7712
若不爾者	-10.7717
本境	-10.7718
吳	-10.7722
諱	-10.7723
傳云	-10.7731
飲水	-10.7735
發言	-10.7737
犯僧殘	-10.7739
闡	-10.7739
根本律云	-10.7746
鬘	-10.7748
作婬	-10.775
入輕	-10.7751
隅	-10.7751
父王	-10.7752
加持	-10.7753
鳩	-10.7755
不放逸	-10.776
夫主	-10.7762
修羅	-10.7766
不息	-10.7766
別緣具	-10.7768
無妨	-10.777
後方	-10.7771
伎樂	-10.7778
無有是處	-10.778
錢寶	-10.7785
相貌	-10.7786
價直	-10.7787
悲心	-10.7794
九品	-10.7795
欲殺	-10.7795
有殘	-10.7797
所修	-10.7798
持刀	-10.78
罷	-10.7806
」「	-10.7814
求利	-10.7814
不染	-10.7815
二篇	-10.7822
誰諸長老忍僧	-10.7823
販	-10.7825
不現前	-10.7826
同一住處	-10.7834
出罪羯磨	-10.7835
地持	-10.7835
敕	-10.7837
鉢羅	-10.7844
十力	-10.785
彩	-10.7853
人女	-10.7859
醯	-10.7859
攬	-10.786
內心	-10.7863
戀	-10.7863
未詳	-10.7865
責心	-10.7866
雷	-10.7866
罔	-10.7867
舟	-10.7868
虗妄	-10.7876
同類	-10.788
行乞食	-10.7884
野干	-10.7889
不淨觀	-10.789
瞋恨	-10.7894
今且	-10.7899
編	-10.7899
稽	-10.7905
三百	-10.7906
意識	-10.791
一乘	-10.7913
欝	-10.7914
行別住	-10.7918
三由旬	-10.7923
丘	-10.7925
殺戒	-10.7926
所求	-10.7934
宿命	-10.7934
豪	-10.7936
本迷	-10.7937
有力	-10.7937
爾時世尊在	-10.7938
相攝	-10.7939
何物	-10.7941
無著	-10.7944
襵	-10.7945
說恣	-10.7947
濾	-10.7948
已還	-10.7949
作餘食法	-10.795
流轉	-10.7951
答中初	-10.7965
通名	-10.797
除去	-10.7973
阿修羅	-10.7977
未見	-10.7977
才	-10.798
身語	-10.798
長淨	-10.7983
罷道	-10.7985
怠	-10.7985
還復	-10.7992
則成	-10.7998
以辨	-10.8
殷	-10.8005
勇猛	-10.8009
白云	-10.801
初地	-10.8015
過患	-10.8018
鈍根	-10.8027
從座起	-10.8033
總名	-10.8036
受施	-10.8038
法式	-10.8039
佛答	-10.804
二百	-10.8047
律論	-10.8048
日得衣	-10.8049
猒	-10.8053
此是共戒	-10.8055
勸令	-10.8055
釋上	-10.8069
祇洹	-10.8074
萬歲	-10.8074
損害	-10.8076
杙	-10.8076
賈	-10.8076
肥	-10.8082
付囑	-10.8085
勉	-10.8086
逝多林	-10.8087
煎	-10.8088
雪山	-10.809
貞	-10.8091
嘆	-10.8091
第三亦如是說	-10.8096
生信	-10.8099
展轉相	-10.8099
佛及僧	-10.81
種種因緣	-10.8101
天女	-10.8102
餘物	-10.8103
拘睒彌	-10.8103
一切處	-10.8104
對面	-10.8104
隨覆藏日	-10.8113
三途	-10.8123
順教	-10.8125
孝順心	-10.8126
為首	-10.8127
阿練若	-10.8128
忌	-10.8129
離衣宿	-10.813
彼律	-10.813
取水	-10.8137
具儀	-10.8139
立義	-10.8141
園林	-10.8142
器中	-10.8147
瞿曇	-10.8149
傍生	-10.8153
略教	-10.8153
中有二	-10.8154
亦如上說	-10.8155
不集	-10.8156
得提	-10.8159
洗鉢	-10.816
男根	-10.8162
礪云	-10.8164
謀	-10.8167
求出家	-10.8172
其中有少欲知足	-10.8178
指示	-10.818
外相	-10.8181
方成本	-10.8188
涕唾	-10.819
告諸苾芻	-10.8191
得安樂	-10.8195
不成就	-10.8196
餘一切	-10.8198
鎮	-10.8205
自恣時	-10.8206
蠶	-10.8207
楞嚴	-10.821
於此處	-10.8212
三宿	-10.8215
得越法罪	-10.8216
入城乞食	-10.8217
淨水	-10.8219
達多	-10.822
受歲	-10.8223
別行	-10.8225
胡跪合掌	-10.8225
曹	-10.8226
受十戒	-10.8226
如是語	-10.8229
無住處	-10.8233
露形	-10.8233
皆突吉羅	-10.8234
別相	-10.8239
入地獄	-10.8242
重病	-10.8243
鬱	-10.8251
箇	-10.8251
疑惑	-10.8252
墮惡道	-10.8256
捨財	-10.8256
捐	-10.8262
無染	-10.8266
大歡喜	-10.8267
盡未來際	-10.8269
所列	-10.8283
是名五	-10.8285
開解	-10.8288
故妄語	-10.8289
亦如上	-10.829
頭上	-10.8293
不成受	-10.8293
四十九	-10.8296
爾時六群比丘	-10.8299
諸苾芻尼	-10.8302
未起	-10.8303
所居	-10.8304
啼	-10.8306
無想	-10.8309
將至	-10.8313
著用	-10.8316
悋	-10.8317
宇	-10.8319
空處	-10.8319
▁初敘	-10.8321
堅持	-10.8322
不能自	-10.8325
吞	-10.8325
佛出世	-10.8328
十門	-10.8331
軍中	-10.8333
十里	-10.8334
誰能	-10.8338
功用	-10.8342
古今	-10.8346
敵	-10.8348
柔軟	-10.8349
互用	-10.8352
號為	-10.8362
在何處	-10.8372
正義	-10.8372
則能	-10.8374
阿耨多羅三藐三菩提	-10.8378
之益	-10.838
修治	-10.8381
即指	-10.8384
常生	-10.8387
豈有	-10.8389
不應畜	-10.8389
第一義	-10.8391
陸	-10.8393
全無	-10.8395
文略	-10.8397
得阿羅漢	-10.8399
阿梨耶	-10.84
五年	-10.8402
作憶念	-10.8407
汝實作是事不	-10.8408
應畜	-10.841
琉璃	-10.8411
制限	-10.8423
白衣舍	-10.8428
云何名比丘	-10.8429
制令	-10.843
撮	-10.8434
自念	-10.8437
念處	-10.8439
不宜	-10.844
戒德	-10.8442
僧巳忍	-10.8448
文字	-10.8448
慇懃	-10.8449
妙覺	-10.8451
鈔中	-10.8455
業疏	-10.8456
初敘	-10.846
晨	-10.8462
既非	-10.8463
明相未出	-10.8465
穴	-10.8467
須提那	-10.8468
聖種	-10.8468
執事人	-10.8471
何者是	-10.8478
業障	-10.8482
聞是事心不喜	-10.8488
秊	-10.8491
初科	-10.8491
貴價	-10.8502
離過	-10.8503
千百億	-10.8509
昌	-10.8511
有益	-10.8521
領受	-10.8523
性空	-10.8529
愁	-10.8531
別解	-10.8531
栗	-10.8538
下文云	-10.8541
信受	-10.8543
比丘舉過	-10.8547
酤酒	-10.8548
優陀夷	-10.8555
受佛戒	-10.8557
唯局	-10.8561
笈多	-10.8561
得吉	-10.8563
偏露右肩	-10.8567
居士言	-10.8574
策	-10.8574
罵詈	-10.8577
欺誑	-10.8588
十一日	-10.8589
增上慢	-10.859
克	-10.8591
大德僧伽聽	-10.8593
環	-10.8595
勝妙	-10.8596
動身	-10.8605
三十日	-10.8605
有十種	-10.8606
然則	-10.8611
古來	-10.8614
聰	-10.8617
稀	-10.8623
拳	-10.863
化作	-10.8631
本來	-10.8632
譬喻	-10.8636
初總標	-10.8638
不學無知	-10.8639
惡性	-10.8643
受戒時	-10.8644
僧臥具	-10.865
蟲水	-10.8653
嚴飾	-10.8653
中初科初	-10.8654
耆婆	-10.8657
叫	-10.8661
橋	-10.8663
軸	-10.8668
四指	-10.8669
籍	-10.867
捧	-10.867
壓	-10.8673
在界內	-10.8674
利根	-10.8681
神變	-10.8682
成佛道	-10.8684
損壞	-10.8687
露處	-10.8692
白羯磨	-10.8695
漏失	-10.8705
八指	-10.8709
孔雀	-10.8713
偶	-10.8716
輕物	-10.8716
盜心取	-10.8723
王位	-10.8723
此篇	-10.8723
本性	-10.8725
轉根	-10.8726
回向	-10.8728
焰	-10.8728
大慈悲	-10.8733
通別	-10.8734
疲極	-10.8741
踞	-10.8742
麁惡	-10.8744
集會	-10.8748
正信	-10.8752
正解	-10.8753
上妙	-10.8753
偈曰	-10.8753
隨情	-10.876
縱廣	-10.8761
所被	-10.8764
稚	-10.8768
亡人	-10.877
歌舞	-10.8772
栴檀	-10.8772
長者子	-10.8773
炎	-10.8779
見罪	-10.878
為僧作	-10.8781
疾疾	-10.8781
樹上	-10.8784
府	-10.8785
以是事	-10.8785
死後	-10.8786
別解脫	-10.8787
證明	-10.8787
耻	-10.8789
巨	-10.879
教誡比丘尼	-10.8797
得突吉羅罪	-10.8803
過七日	-10.8804
毘奈耶	-10.8805
心懷	-10.8806
情過	-10.8808
濟云	-10.881
眾苦	-10.8811
無力	-10.8812
反此	-10.8823
從今日後	-10.8824
跳	-10.8824
出息	-10.8825
塚間	-10.8828
得窣吐羅底也	-10.8834
合成	-10.8838
異熟	-10.884
卜	-10.8842
「『	-10.8844
不免	-10.8845
盧舍那佛	-10.8845
管	-10.8846
習學	-10.8852
涅槃云	-10.8852
起過	-10.8854
進修	-10.8857
筒	-10.8858
容有	-10.8858
解界	-10.8859
殺母	-10.8866
身相觸	-10.8866
燭	-10.8871
鞋	-10.8872
不周	-10.8878
精勤	-10.8882
刃	-10.8883
無色界	-10.8884
表白	-10.8886
敬禮	-10.8887
既知	-10.8892
耆闍崛山	-10.8892
▁初標示	-10.8893
不見罪	-10.8897
負債	-10.8898
憶持	-10.89
有住處	-10.89
頸	-10.8901
不恭敬	-10.8903
理合	-10.8904
彼比丘應	-10.8907
願我	-10.8908
贖	-10.8909
禽獸	-10.891
韋	-10.8915
白諸比丘	-10.8918
下正明	-10.8922
噉食	-10.8922
十方諸佛	-10.8924
二禪	-10.8928
應學	-10.8929
是故說	-10.8931
開示	-10.8932
相傳	-10.8932
□□□	-10.8933
直五錢	-10.894
瞻視	-10.8944
匝	-10.8944
暇	-10.8944
共諍	-10.8946
世尊制戒	-10.8947
心地法門	-10.8953
允	-10.8954
鮮	-10.8957
巖	-10.896
何謂為	-10.896
枝葉	-10.8963
始從	-10.8964
作三衣	-10.8972
到彼	-10.8975
六聚	-10.898
並須	-10.8981
真俗	-10.8984
上聲	-10.8987
業疏云	-10.8989
錫杖	-10.8997
滴	-10.9008
婚	-10.901
為和尚	-10.9011
十二因緣	-10.9011
大小乘	-10.9012
著革屣	-10.9014
沙門婆羅門	-10.9019
滅罪	-10.9023
受功德衣	-10.9026
駕	-10.9028
浣染打	-10.903
搏	-10.9032
強力	-10.9032
師資	-10.9033
荷	-10.9034
縱有	-10.9034
獲得	-10.9037
曇無德	-10.904
欲往	-10.9042
兩邊	-10.9044
別房	-10.9047
小小	-10.9048
來求	-10.9052
唱相	-10.9053
嫉妬	-10.9057
蹈	-10.9061
十利	-10.9069
鑒	-10.9076
兩頭	-10.9076
榮	-10.9081
床座	-10.9084
何能	-10.9086
快樂	-10.9086
月八日	-10.9088
親族	-10.9088
奪取	-10.9089
僧伽伐尸沙	-10.9092
他家	-10.9093
朱	-10.9096
邪婬	-10.9097
綺語	-10.9099
層	-10.9113
不飲酒	-10.9117
俾	-10.9121
辛苦	-10.9121
九月	-10.9124
凡所	-10.9135
▁初正明	-10.9139
鄔波離	-10.9143
輪迴	-10.9143
別列	-10.9144
此間	-10.9149
禮佛足	-10.9149
為己	-10.9154
永斷	-10.9155
菴	-10.9157
相承	-10.9158
額	-10.9159
床褥	-10.9159
威力	-10.916
炙	-10.916
滋	-10.9167
如法懺悔	-10.9178
捨懺	-10.9178
淨飯王	-10.9178
罪處所	-10.9179
六念	-10.9181
章中	-10.9185
涅槃經	-10.9187
不妄語	-10.919
之儀	-10.9191
兩手	-10.9193
奏	-10.9193
杵	-10.9194
牒名	-10.9195
僕	-10.9197
荒	-10.92
洪	-10.9205
不作餘食法	-10.9205
研	-10.9207
反前	-10.9209
緣境	-10.921
得福	-10.9214
時婆羅門	-10.9216
頭面禮足在一面坐	-10.9218
一脚	-10.9223
變為	-10.9225
覔	-10.9228
下隨釋	-10.923
水洗	-10.9234
諸比丘不知云何	-10.9239
添	-10.924
娠	-10.9259
廣長	-10.9259
優波	-10.926
隨逐	-10.9264
白衣舍坐	-10.9264
諸白衣	-10.9266
斷除	-10.9271
飢渴	-10.9273
力士	-10.9275
礪	-10.9281
七月	-10.9285
庫藏	-10.9285
懈	-10.9285
趨	-10.9292
造房	-10.9292
寶藏	-10.9292
柰	-10.9293
熾然	-10.9293
五百人	-10.9297
諸比丘以是因緣往白世尊	-10.9299
譏呵	-10.9302
入室	-10.9308
昨	-10.9315
無慚	-10.9317
流出	-10.9324
但取	-10.9328
牢	-10.9328
易得	-10.9329
完	-10.933
喻如	-10.9333
罪業	-10.9333
污家	-10.9335
以此事	-10.9335
是中清淨	-10.9336
自稱言	-10.9339
䨱	-10.9342
嘿	-10.9342
眉	-10.9343
布薩時	-10.9357
阿難言	-10.936
廣釋	-10.9365
清涼	-10.9367
宰	-10.9376
菩提樹	-10.9384
水火	-10.9385
我今欲	-10.9391
所宜	-10.9396
禿	-10.9399
其母	-10.94
阿蘭若處	-10.9401
娛樂	-10.9403
淨信	-10.9408
他方	-10.9412
云何名比丘尼	-10.9414
腐	-10.9414
討	-10.9416
正宗	-10.9416
雄	-10.9416
是中清淨不	-10.9417
朗	-10.9417
年歲	-10.9418
粒	-10.9427
隋	-10.9432
羅閱城	-10.944
蓮	-10.9444
唯願世尊	-10.9445
犯諍	-10.9446
愛念	-10.9447
對眾	-10.9447
恕	-10.9447
祀	-10.9455
懃	-10.9456
缽	-10.9464
集一處	-10.9467
有五百	-10.9468
戒定慧	-10.9472
六識	-10.9483
達摩	-10.9484
正業	-10.9488
香花	-10.9489
得上人法	-10.949
一住處	-10.9492
涼	-10.9497
茂	-10.9501
映	-10.9504
有人云	-10.9507
承事	-10.9507
斷命	-10.9507
希望	-10.9508
修證	-10.9509
如佛所教	-10.9516
歸依僧	-10.9516
跋難陀釋子	-10.9516
更互	-10.9519
何等為	-10.9521
水陸	-10.9521
自然界	-10.9522
雜心	-10.9522
妬	-10.9533
離合	-10.9539
在一面坐	-10.9554
少年	-10.9554
更有餘	-10.9566
昔有	-10.957
村外	-10.9576
薑	-10.9588
誣	-10.9589
事訖	-10.959
者得越法罪	-10.9595
說悔	-10.9596
羅云	-10.9598
止惡	-10.9601
南方	-10.9601
除餘時	-10.9602
善見律云	-10.9604
須彌山	-10.9605
文可知	-10.9609
衢	-10.9614
極重	-10.9616
乞食比丘	-10.9617
莫令	-10.9622
庭	-10.9627
。」【○	-10.9628
奈	-10.9631
忍可	-10.9632
徑	-10.9636
▁初約	-10.9638
四面	-10.9639
詩	-10.9641
之詞	-10.9643
百官	-10.9644
廣略	-10.9644
尼寺	-10.9646
依文	-10.9649
思量	-10.9655
溢	-10.9663
菩提樹下	-10.9666
鎖	-10.967
挑	-10.9672
伽他	-10.9683
提舍尼	-10.9683
古云	-10.9685
=	-10.9695
所立戒	-10.9698
泥薩祇波逸底迦	-10.9703
善巧	-10.9705
低	-10.9707
好相	-10.9707
滅惡	-10.9718
染污心	-10.9718
尖	-10.9723
為伴	-10.9725
淪	-10.9728
至也者	-10.9729
防護	-10.9733
痴	-10.9735
非梵行	-10.9738
損減	-10.9741
二歲	-10.9745
偷羅難陀	-10.9746
經營	-10.9752
虫水	-10.976
醫人	-10.9761
中央	-10.9763
昭	-10.9765
稱量	-10.9766
七夜	-10.9767
浪	-10.977
防非	-10.9783
狂癡	-10.9783
七歲	-10.9784
此是我	-10.9785
淨穢	-10.9796
門徒	-10.9797
不殺生	-10.9801
求索	-10.9803
級	-10.9803
諂	-10.9805
等是也	-10.9807
竹林	-10.9811
在家菩薩	-10.9816
欲樂	-10.9821
嘗	-10.9822
谷	-10.9825
薩婆	-10.9826
楊	-10.9826
億耳	-10.9845
棃	-10.9847
震	-10.9848
諸篇	-10.9852
苦海	-10.9853
緒	-10.9855
一肘	-10.9858
阿毗曇	-10.9861
糖	-10.9861
竹園	-10.9868
桃	-10.9869
所執	-10.9877
違理	-10.988
殺父	-10.9883
四百	-10.9886
辯才	-10.9891
少許	-10.9895
三十三天	-10.9896
往看	-10.9896
厄	-10.9898
何異	-10.9899
繒	-10.9901
多人語	-10.9912
標相	-10.9912
諸居士見	-10.9912
天地	-10.9917
天雨	-10.9925
第四十	-10.9928
初發心	-10.9932
奪衣	-10.9943
監	-10.9944
二三人	-10.995
無差別	-10.9962
佛陀	-10.9964
執持	-10.9965
一切突吉羅	-10.9976
潛	-10.9988
低頭	-10.9988
禮三拜	-10.9989
今鈔	-10.9997
詰問	-11.0006
設供	-11.0006
百劫	-11.0011
破僧事	-11.0023
翻譯	-11.0029
百四十	-11.003
生歡喜	-11.0034
提婆達	-11.0049
塵沙	-11.0051
十方佛	-11.0052
空地	-11.0053
是初羯磨	-11.0059
秦言	-11.0063
請佛及僧	-11.0064
逝	-11.0064
送食	-11.0072
良以	-11.0072
眼見	-11.0072
虔	-11.0078
隱沒	-11.0084
熱鐵	-11.0086
懺主	-11.0086
相接	-11.0088
黑白	-11.0093
住世	-11.0093
疑悔	-11.0093
止息	-11.0102
若如是者	-11.0103
淨潔	-11.0103
准律	-11.0109
犯夷	-11.0112
出血	-11.0113
九日	-11.0115
頂上	-11.0116
大目連	-11.0119
襯	-11.0124
木蘭	-11.0127
政	-11.0129
軍陣	-11.013
汝實	-11.0131
僧祗律云	-11.0136
夏坐	-11.014
經行處	-11.0148
論議	-11.015
都不	-11.0153
第十一	-11.016
愁憂	-11.0161
畜長衣	-11.0163
酥油	-11.0163
漬	-11.0165
王大臣	-11.0168
讖	-11.0173
三寶物	-11.0173
銜	-11.0178
父母兄弟	-11.0181
乃至三諫	-11.0182
其婦	-11.0194
時有一	-11.0195
聖果	-11.0204
理實	-11.0209
刮	-11.0217
淳	-11.0217
墮三惡道	-11.022
杜	-11.0233
下三眾	-11.0234
手印	-11.024
病苦	-11.0242
與五百	-11.0243
世世	-11.0244
內凡	-11.0253
賈客	-11.0253
止觀	-11.0253
三惡道	-11.0254
四天下	-11.0254
最為	-11.0256
姑	-11.0256
摩那	-11.0259
房內	-11.0262
姉	-11.0264
選	-11.0268
瑕	-11.027
種種因緣呵責	-11.027
康	-11.0271
軀	-11.0273
煙	-11.0273
二十人	-11.0276
佛語諸比丘	-11.0278
昔解	-11.0287
白色	-11.0289
大界內	-11.0294
沙門瞿曇	-11.0299
倒地	-11.0308
虎狼	-11.031
本主	-11.0312
忉利天	-11.0313
破威儀	-11.0315
三十五	-11.0317
搆	-11.0319
一切有情	-11.032
空慧	-11.0322
觸惱	-11.0322
持此衣	-11.0325
富羅	-11.0329
善生經	-11.0329
還歸	-11.0334
呵責羯磨	-11.0341
入手	-11.0345
盂	-11.0354
壯	-11.0356
婆提	-11.0357
娑羅	-11.0359
縣	-11.0363
模	-11.0364
化教	-11.0364
三摩地	-11.0365
華果	-11.0365
牽出	-11.0368
說伽他曰	-11.0369
洗淨	-11.0369
應滅擯	-11.0382
城門	-11.0383
千年	-11.0383
起塔	-11.0388
店	-11.0388
反抄衣	-11.0389
賀	-11.0391
摩竭	-11.0391
能持否	-11.0391
學悔	-11.0404
大乘同學	-11.0406
貸	-11.0409
二百五十	-11.0409
諸比丘不知	-11.0412
荊	-11.0412
削	-11.0413
不應為說法	-11.0419
物主	-11.042
簡異	-11.0427
鬬諍	-11.0428
千里	-11.0429
阿浮呵那	-11.043
見好相	-11.0441
中有三	-11.0441
一切諸法	-11.0442
佛未聽	-11.0447
妨難	-11.0448
何等五	-11.0449
循	-11.0451
旃陀羅	-11.0454
嗣	-11.0455
中初句	-11.0456
准上	-11.0461
舉手	-11.0463
指廣	-11.0465
具壽阿難陀	-11.0477
女根	-11.0478
戒羸	-11.048
持衣鉢	-11.0484
邊方	-11.0484
圓具	-11.0488
尼師檀	-11.049
七眾同犯	-11.0495
色聲	-11.0499
不勞	-11.0499
不足數	-11.0501
牛羊	-11.0505
犯盜	-11.0506
中文二	-11.0506
遮罪	-11.0511
輭	-11.0514
繫念	-11.0514
食噉	-11.0516
何由	-11.0518
阿鼻	-11.0525
未足	-11.0525
以是事白佛	-11.0528
僧伽胝	-11.053
迦提	-11.0535
各異	-11.0539
年少比丘	-11.055
力勢	-11.055
儻	-11.0552
賓云	-11.0578
我今當	-11.058
軌則	-11.058
鑊	-11.0597
度眾生	-11.0603
那羅	-11.0607
錫	-11.0609
若不捨者	-11.061
話	-11.0611
通收	-11.0615
領納	-11.0619
頂禮佛足	-11.0621
華光	-11.0623
破安居	-11.0631
得越比尼罪	-11.0632
成熟	-11.0633
資具	-11.0636
鵝	-11.0636
摩訶羅	-11.0636
寮	-11.0638
憍薩羅國	-11.0639
熱時	-11.0639
朽	-11.0641
祿	-11.0642
踏	-11.0642
五夏	-11.0643
踰	-11.0645
哭	-11.0647
隨覆藏	-11.0647
互跪	-11.0648
舞	-11.0648
狐	-11.0648
厥	-11.0653
陀那	-11.0656
第十三	-11.0658
聚落界	-11.066
劫比羅	-11.0662
不憶數	-11.0664
涅槃經云	-11.0667
苦報	-11.0669
欽	-11.0672
章云	-11.0676
以事白佛	-11.0677
未受具戒人	-11.0677
堅牢	-11.0695
惰	-11.0698
黎	-11.0699
蔭	-11.0699
嗅	-11.0699
讓	-11.07
長跪	-11.0701
毘羅	-11.0702
邏	-11.0702
泥犁	-11.0703
秤	-11.0708
川	-11.0709
愛道	-11.0709
歟	-11.0711
敷臥具	-11.0712
晡	-11.0718
圓教	-11.0728
嚼楊枝	-11.0738
不受諫	-11.0738
赫	-11.074
千百億釋迦	-11.0743
枉	-11.0743
勸化	-11.0744
時諸苾芻以緣白佛	-11.075
垣	-11.0754
孰	-11.0755
不與欲	-11.0758
萬億	-11.0765
犯輕垢	-11.0777
重閣	-11.0777
。」』	-11.0789
釋迦牟尼	-11.079
賢善	-11.0791
三十二相	-11.0792
在界外	-11.08
我慢	-11.0802
日沒	-11.0805
業力	-11.0805
顯示	-11.0808
彌陀	-11.0808
膠	-11.0808
虵	-11.0819
正等覺	-11.0823
助成	-11.0824
阿姨	-11.0825
咸皆	-11.0827
往詣佛所	-11.0828
到佛所	-11.083
嫌恨	-11.0838
富貴	-11.0846
謗三寶	-11.0846
飽滿	-11.0848
態	-11.0851
品第十	-11.0855
迦攝	-11.0861
緣起處	-11.0862
說文云	-11.0864
厭離	-11.0865
結勸	-11.0866
有慚愧	-11.0867
直爾	-11.0869
舍衛國祇樹給孤獨園	-11.0871
治罸	-11.0872
往到	-11.0872
西土	-11.0875
阿毘曇	-11.0881
病壞心	-11.0885
制止	-11.0889
蜂	-11.0896
二人共	-11.0902
汗	-11.0904
臭穢	-11.0904
旬	-11.0907
鬱多羅僧	-11.0917
在道行	-11.0925
莫作是語	-11.093
聲聞弟子	-11.0932
燥	-11.0934
汝諸苾芻	-11.0935
染淨	-11.0937
屑	-11.0941
宏	-11.0956
析	-11.0957
且止	-11.0967
能防	-11.0971
優波難陀	-11.0972
三十一	-11.0981
漸次	-11.0981
三十四	-11.0985
徐徐	-11.0986
倩	-11.099
劇	-11.0994
華鬘	-11.0998
併	-11.0999
兜	-11.0999
匙	-11.0999
摸	-11.1001
異界	-11.1007
浮囊	-11.1009
逾	-11.1009
方軌	-11.1011
尊敬	-11.1012
隨愛	-11.1018
十信	-11.1024
劫貝	-11.103
慳貪	-11.1031
騎	-11.104
盜賊	-11.1041
霑	-11.1042
且舉	-11.1042
欠	-11.1049
惠施	-11.1051
倣	-11.1055
瑟	-11.1057
忽然	-11.1061
非釋種女	-11.1064
自念言	-11.107
早起	-11.1073
貪愛	-11.1073
靈山	-11.1078
澡豆	-11.1089
出家之人	-11.1089
激	-11.1094
阿羅	-11.1094
訪	-11.1095
鄉	-11.1096
泛	-11.1096
銅鐵	-11.1096
沸	-11.1098
踐	-11.1102
跛	-11.1104
若不悔過	-11.1107
阿練若處	-11.1109
資持	-11.1109
象王	-11.1112
鷄	-11.1112
4	-11.1115
波羅市迦	-11.1116
聖凡	-11.1119
布薩日	-11.112
比丘尼波逸提	-11.1122
偷蘭難陀比丘尼	-11.1124
禮僧足	-11.1129
離宿	-11.113
斷惑	-11.113
癰	-11.1132
假使	-11.1138
治病	-11.114
螺	-11.1143
棺	-11.1145
起緣人	-11.1149
▁二四下	-11.115
麗	-11.1152
嘿然	-11.1156
▁二今下	-11.1162
根性	-11.1162
得波羅市迦	-11.1177
河邊	-11.118
塹	-11.1184
施衣時	-11.1184
筋	-11.1186
斷絕	-11.1186
有一長者	-11.119
胡麻	-11.1193
心念口言	-11.1193
顛狂	-11.1194
寬狹	-11.1199
曜	-11.1204
軌範	-11.1205
妄想	-11.1206
生厭離	-11.1209
紅	-11.1213
向人說	-11.1214
佛以種種因緣呵責	-11.1229
覆瘡衣	-11.1231
自今巳去	-11.124
未來世	-11.1242
犯蘭	-11.1242
啼哭	-11.1243
嗟	-11.1247
胝	-11.1248
逮	-11.1251
得本罪	-11.1252
致敬	-11.1258
五歲	-11.1262
俗諦	-11.1262
懺謝	-11.127
▁初標章	-11.1274
勿使	-11.128
猶未	-11.1287
中初敘	-11.1288
項	-11.1291
樹皮	-11.1295
倡	-11.1296
旃	-11.1297
應如是作	-11.1298
覓諍	-11.1304
大乘經律	-11.1308
塵垢	-11.1312
聞聲	-11.1313
妨處	-11.1315
格	-11.1318
如是展轉	-11.132
經典	-11.1322
漸頓	-11.1323
軟語	-11.1329
掃地	-11.133
同室宿	-11.1336
池水	-11.1341
雇	-11.1343
花果	-11.1349
長貪	-11.1349
開緣不犯者	-11.1356
耀	-11.1358
雜碎	-11.1359
充滿	-11.1359
七百	-11.1361
兆	-11.1362
圓融	-11.1362
乞縷	-11.1367
枝條	-11.1367
蓬	-11.1384
常所行	-11.1384
咄	-11.1391
嗢	-11.1391
瀉	-11.1395
夕	-11.1397
福慧	-11.1397
抖擻	-11.14
遇緣	-11.1401
振鈴	-11.1404
半月半月說	-11.1407
輦	-11.1408
覺悟	-11.141
劉	-11.1414
沓婆	-11.1414
遺教	-11.1416
末世	-11.1417
晝日	-11.1419
矛	-11.1421
驚怖	-11.1436
具四緣	-11.1438
漱	-11.1444
百八	-11.1444
初標人	-11.1447
居士家	-11.1447
綵	-11.1448
職	-11.1448
欝多羅僧	-11.1449
迦蘭陀	-11.1449
吼	-11.1453
裝	-11.146
洞	-11.1467
須彌	-11.1484
正遍知	-11.1489
予	-11.15
擘	-11.1505
摩得勒伽	-11.1513
非法別眾	-11.1517
拈	-11.1518
十句	-11.152
入海	-11.1522
實力子	-11.1525
被賊	-11.1529
設諫	-11.1537
却坐一面	-11.1538
清旦	-11.1547
炬	-11.1558
叛	-11.156
㝹	-11.1561
拘盧舍	-11.1564
遠去	-11.1567
銷	-11.1568
李	-11.157
莎訶	-11.1572
認	-11.1574
呵責六群比丘	-11.1574
致使	-11.1581
深信	-11.1585
身口業	-11.1587
下賤	-11.1589
休道	-11.1589
臨終	-11.1595
水瓶	-11.1598
得何罪	-11.1601
制此戒	-11.1603
胡跪	-11.1612
呈	-11.1616
理宜	-11.1619
無淨人	-11.1621
禱	-11.1621
割截衣	-11.1624
窣吐羅	-11.1628
如法僧事	-11.1629
喉	-11.1631
教興	-11.1637
入家內	-11.1638
十萬	-11.1639
又二初	-11.1653
草覆地	-11.1657
街	-11.1668
和上尼	-11.1668
被擯	-11.1669
坌	-11.1671
葬	-11.1672
逈	-11.1673
袋	-11.1673
冐	-11.1674
還本處	-11.1676
無記心	-11.1677
盡形藥	-11.1679
欽婆羅	-11.168
匡	-11.1684
母論云	-11.1688
相狀	-11.1694
是中盡形壽不得犯	-11.1695
別緣有	-11.1696
亦見亦聞	-11.1708
從僧乞六夜摩那埵	-11.171
鸚鵡	-11.1712
佐	-11.1715
擯出	-11.1716
濯	-11.1719
鬚髮	-11.1719
奉施	-11.1719
作是語已	-11.1721
嶮	-11.1723
出佛身血	-11.1725
樓閣	-11.1727
復有五事	-11.1732
葱	-11.1734
嗔恚	-11.1734
羅怙羅	-11.1735
一犯人	-11.174
在露地	-11.1747
𡰱	-11.1753
時有苾芻	-11.1754
却住一面	-11.1754
能障礙道	-11.1757
中分二	-11.1772
脊	-11.1772
四念處	-11.1774
▁二問答	-11.1776
毀他	-11.1776
未了	-11.1777
餘殘	-11.1778
結戒場	-11.1782
帳	-11.1787
闡提	-11.1788
吉凶	-11.1788
乘車	-11.179
鈎	-11.1791
十夏	-11.1792
弑	-11.1792
號曰	-11.18
犯此僧伽婆尸沙罪	-11.1804
中初引	-11.181
□□	-11.1815
鑰	-11.1818
技	-11.1818
賣買	-11.1818
填	-11.1829
翹	-11.1829
箱	-11.1829
耽	-11.183
四寸	-11.183
告諸苾芻曰	-11.1831
釋迦牟尼佛	-11.1832
般若波羅蜜	-11.1832
淨厨	-11.1835
湛	-11.1839
埵	-11.1839
曠	-11.1841
瑠璃	-11.1846
甄	-11.1848
忘失	-11.185
百千萬	-11.1854
文列	-11.1861
苦諦	-11.1861
此中犯相其事	-11.1863
自言治	-11.187
天宮	-11.1875
利鈍	-11.1877
伽羅	-11.188
來世	-11.1883
妃	-11.1884
勘	-11.1888
遞	-11.1892
阿耨	-11.1893
兩種	-11.1895
殯	-11.1898
忠	-11.1902
賢愚	-11.191
自恃	-11.1911
流布	-11.1915
懺悔主	-11.1926
隙	-11.1933
對首心念	-11.1934
齒木	-11.1934
□□□□□□□□□□□	-11.1935
族姓	-11.1944
祥	-11.1945
十二部經	-11.195
臆	-11.1955
喫	-11.1955
第四禪	-11.1966
一罪不覆藏	-11.1969
捨此事故	-11.1971
瞿曇彌	-11.1977
闡陀比丘	-11.1978
乳酪	-11.1978
檀越家	-11.199
是菩薩波羅夷罪	-11.1991
釘	-11.1993
莊飾	-11.1993
艸	-11.1995
牟尼	-11.1995
征	-11.2002
庸	-11.2003
舒手	-11.2006
怯	-11.2006
爽	-11.2009
制底	-11.2011
衍	-11.2014
冤	-11.2014
伏藏	-11.2014
婆羅門居士	-11.2027
除村	-11.2029
雖殊	-11.2029
陀驃	-11.2031
以十利故與諸比丘	-11.2032
演說	-11.204
習近住	-11.2045
如法如律	-11.2045
斂	-11.2046
爾時諸比丘尼	-11.2054
無妨處	-11.2064
紀	-11.2065
純黑	-11.2065
醋	-11.2071
積聚	-11.2072
舍衛	-11.2082
威神	-11.2082
妊	-11.2104
嗜	-11.2107
趺	-11.2108
無所知	-11.2111
十二月	-11.2116
狼	-11.2116
炭	-11.2117
幾許	-11.2117
頑	-11.2118
焚燒	-11.2118
覈	-11.2119
盖	-11.213
自煑	-11.2133
立誓	-11.2136
▁二初下隨釋	-11.2137
五分法身	-11.2145
優婆	-11.2146
六群比丘尼	-11.2155
比丘義如上	-11.2162
諳	-11.2168
是中有	-11.2178
所以然者	-11.2182
登壇	-11.2185
以戒為	-11.2185
䭾	-11.2188
有一住處	-11.2189
居士譏嫌	-11.2201
餘時者	-11.2208
堪忍	-11.221
景	-11.2211
牧牛	-11.2213
甎	-11.222
辰	-11.222
當與汝	-11.2221
和尚阿闍梨	-11.2221
及最初未制戒等	-11.2223
勝鬘	-11.2224
鑿	-11.2227
應作白	-11.2228
鬪亂	-11.2236
滌	-11.2241
錦	-11.2242
十七群比丘	-11.2242
法師想	-11.2253
授人具足戒	-11.2259
道士	-11.2262
舅	-11.2263
佛以是事集二部僧	-11.2264
專精	-11.2265
木石	-11.2268
弓箭	-11.2268
滅諦	-11.2272
可畏	-11.2275
於我法中	-11.2275
讀經	-11.2278
鷲	-11.2279
氣力	-11.2279
迦旃延	-11.2281
戴	-11.2283
宮殿	-11.2285
複	-11.2289
三歸五戒	-11.2291
酤	-11.2294
犯不可悔	-11.2296
倒說	-11.2302
〕-【	-11.2314
道諦	-11.2317
阿遮利耶	-11.2318
合為一	-11.2327
婬盜	-11.233
除僧羯磨	-11.2331
榻	-11.2339
工巧	-11.2339
受八戒	-11.2343
懇	-11.2343
集比丘僧	-11.2347
楷	-11.2348
倘	-11.2355
香爐	-11.2362
毗尼藏	-11.2364
如法諫	-11.2365
詞句	-11.237
世尊爾時以此因緣集比丘僧	-11.2373
周遍	-11.2374
如幻	-11.2375
未受大戒人	-11.2388
熊	-11.2389
膳	-11.2392
瞻波	-11.2396
魚肉	-11.2403
祐	-11.2403
瑜	-11.2406
勤求	-11.2409
青色	-11.2423
自今已去與比丘結戒	-11.2432
復作是願	-11.244
詔	-11.245
作不淨行	-11.2452
喧	-11.2452
嚙	-11.2455
塔寺	-11.2455
善逝	-11.2458
俟	-11.246
襍	-11.246
緻	-11.2461
蓐	-11.2465
賢劫	-11.247
莫放逸	-11.247
九種	-11.2474
犬	-11.2478
勸學	-11.248
淺深	-11.2481
汝以何心	-11.2487
如是諫時	-11.249
迷忘	-11.2493
芻	-11.2499
薜	-11.2502
机	-11.2512
宛	-11.252
棘	-11.2566
琴	-11.2575
杌	-11.2579
季	-11.2585
凝	-11.2637
搜	-11.2646
淡	-11.2646
猫	-11.2689
嬈	-11.2692
蹋	-11.2693
佩	-11.2701
屣	-11.2703
鍼	-11.2703
棲	-11.2705
牌	-11.2753
搭	-11.2754
拄	-11.2759
曩	-11.2783
乍	-11.281
抽	-11.2813
洒	-11.282
蔓	-11.2829
俯	-11.287
叩	-11.2874
閙	-11.2929
謨	-11.2937
枳	-11.2938
郭	-11.295
憐	-11.2981
雌	-11.2995
焦	-11.3004
姊	-11.3015
瞎	-11.3053
涕	-11.3058
卵	-11.306
勑	-11.3062
醒	-11.3063
陛	-11.3069
閒	-11.3076
踊	-11.3104
壅	-11.3123
幼	-11.3124
妓	-11.313
叔	-11.3172
滓	-11.3178
剛	-11.3187
係	-11.319
芽	-11.319
膏	-11.3194
枚	-11.3197
鋪	-11.3224
疥	-11.3233
隻	-11.3248
薰	-11.3249
縮	-11.325
斛	-11.3254
峰	-11.3264
綖	-11.3291
鄰	-11.3329
鋒	-11.3332
吽	-11.3339
幟	-11.3363
函	-11.3371
膚	-11.3372
曆	-11.3374
嚕	-11.3403
叢	-11.3429
諾	-11.3431
椀	-11.3434
磬	-11.3442
塼	-11.3482
你	-11.3485
髀	-11.3489
杓	-11.3496
轍	-11.3502
莎	-11.3506
輝	-11.3506
翼	-11.3514
挂	-11.3549
贍	-11.3549
藝	-11.3564
炷	-11.3617
陋	-11.3628
峯	-11.3629
凶	-11.3629
呾	-11.3633
兇	-11.3633
揣	-11.3634
寔	-11.3646
龕	-11.3689
闊	-11.3697
筭	-11.3698
暑	-11.3705
課	-11.3705
帀	-11.3709
柳	-11.3713
甜	-11.3714
駄	-11.3725
揖	-11.3753
帽	-11.3754
鍵	-11.3759
僅	-11.3767
溝	-11.3771
伯	-11.3772
丹	-11.3782
譌	-11.3795
搥	-11.3827
臍	-11.3837
棗	-11.3839
腫	-11.384
窓	-11.3873
覲	-11.3889
毳	-11.3892
囚	-11.3892
柵	-11.3897
嗚	-11.3901
踝	-11.3904
侯	-11.3905
毋	-11.3905
農	-11.3908
躭	-11.3913
孩	-11.3931
眷	-11.3942
惶	-11.3953
橛	-11.3965
燋	-11.397
讎	-11.4019
躑	-11.4031
柄	-11.4032
髓	-11.4037
訟	-11.4091
褰	-11.4096
欄	-11.4096
羽	-11.4118
紺	-11.4157
仲	-11.4177
氷	-11.4178
嶽	-11.4181
阻	-11.4187
丁	-11.419
熾	-11.4222
裸	-11.4237
裘	-11.4244
螫	-11.4245
藕	-11.4245
顛	-11.4247
鴿	-11.4253
哆	-11.4253
郡	-11.4309
掛	-11.4313
携	-11.4363
電	-11.4378
撫	-11.4381
祝	-11.4384
鎧	-11.4393
旅	-11.4436
絺	-11.4441
央	-11.4447
詠	-11.4449
鼈	-11.4451
渧	-11.4452
擅	-11.4458
涯	-11.4464
泄	-11.4507
柴	-11.4515
贈	-11.4525
斤	-11.4526
虱	-11.4529
芥	-11.4542
戮	-11.4587
捫	-11.4592
慇	-11.4593
砂	-11.4595
攀	-11.4602
諷	-11.462
魯	-11.4625
誥	-11.4662
鈴	-11.4665
寢	-11.4668
迫	-11.4669
蒼	-11.4685
緂	-11.4695
擁	-11.4713
擗	-11.4725
悴	-11.4727
靴	-11.4734
湖	-11.4736
珊	-11.4742
淵	-11.4747
絃	-11.4806
躁	-11.4807
築	-11.4808
涌	-11.481
嚫	-11.481
糓	-11.4823
霜	-11.4824
旛	-11.4825
鐸	-11.4863
杭	-11.4877
猴	-11.4887
姨	-11.4888
尿	-11.4888
g	-11.4889
酌	-11.489
迮	-11.4891
粉	-11.4897
疫	-11.4898
悕	-11.4901
鷹	-11.4901
讐	-11.491
牟	-11.4937
歇	-11.4962
』	-11.4963
貼	-11.4963
<	-11.4963
瓜	-11.4978
◎	-11.4998
耄	-11.5037
溪	-11.5038
滑	-11.5045
飄	-11.5045
沾	-11.5046
酸	-11.5048
矜	-11.506
蔔	-11.5108
楗	-11.5118
牧	-11.512
剩	-11.5128
岳	-11.5128
沐	-11.5183
核	-11.5186
巢	-11.5197
鑽	-11.5197
簷	-11.5251
扣	-11.5254
效	-11.5273
劒	-11.5274
㮈	-11.5315
弶	-11.5324
后	-11.533
怙	-11.5334
炤	-11.5336
牖	-11.5337
祕	-11.5339
鍾	-11.535
躍	-11.5407
霧	-11.5425
慊	-11.5427
翳	-11.5428
汲	-11.544
衫	-11.5442
瓮	-11.5475
插	-11.5484
跟	-11.5501
腦	-11.5501
區	-11.5506
泯	-11.5508
瘥	-11.5524
舂	-11.5574
柯	-11.5583
操	-11.5593
較	-11.5593
─	-11.5628
旗	-11.564
挍	-11.5655
芳	-11.5656
獷	-11.5657
葦	-11.5657
筏	-11.5659
狎	-11.5659
乙	-11.5662
酢	-11.5666
慙	-11.5668
麴	-11.5674
薦	-11.5736
掠	-11.5744
嚮	-11.5747
疋	-11.5764
宴	-11.5807
迭	-11.5814
瓫	-11.5817
氍	-11.5828
忻	-11.5829
萄	-11.5835
緇	-11.5837
褋	-11.5841
梳	-11.5884
駝	-11.5893
腸	-11.5902
糜	-11.5903
攻	-11.5907
竄	-11.5911
麵	-11.5919
鴦	-11.5985
繡	-11.599
吸	-11.5995
閇	-11.6001
躄	-11.6056
齎	-11.6058
澁	-11.6063
憫	-11.6067
釧	-11.6067
晦	-11.6071
撩	-11.6072
秘	-11.6081
塊	-11.6084
個	-11.6103
蹤	-11.6145
脣	-11.6148
傲	-11.6151
松	-11.6152
耎	-11.616
儲	-11.616
株	-11.6164
曝	-11.622
絛	-11.6222
矩	-11.6238
矯	-11.6238
竿	-11.624
嶺	-11.6243
匪	-11.6245
航	-11.6247
羂	-11.6307
踈	-11.6308
艱	-11.6308
奧	-11.631
䠒	-11.6312
擣	-11.6322
烈	-11.633
纖	-11.6337
帒	-11.6385
援	-11.6406
驛	-11.6408
夾	-11.6413
脈	-11.6421
効	-11.6425
誌	-11.6426
姬	-11.6447
崛	-11.6486
誅	-11.6493
塚	-11.6493
芝	-11.6494
罽	-11.6495
稠	-11.6498
濃	-11.6499
袖	-11.6507
屢	-11.6508
抵	-11.6512
吠	-11.6512
蜀	-11.6519
潮	-11.6588
憚	-11.6597
舡	-11.6645
雁	-11.6646
遐	-11.6667
緯	-11.6671
聊	-11.6672
努	-11.6681
夭	-11.6698
萎	-11.6766
游	-11.677
廼	-11.6772
桓	-11.6772
𦘕	-11.6775
婿	-11.6829
郎	-11.6848
押	-11.6853
魂	-11.6853
脹	-11.6854
慨	-11.6862
敏	-11.6862
咨	-11.6862
輻	-11.6869
衲	-11.6871
㝡	-11.6874
料	-11.6929
奮	-11.694
繭	-11.6953
拱	-11.6958
奚	-11.6959
恠	-11.6959
噫	-11.6963
蠅	-11.7026
熙	-11.7028
暖	-11.703
兔	-11.7032
鑞	-11.7034
皎	-11.7043
樞	-11.7046
凌	-11.7048
蠲	-11.7049
槩	-11.7122
撲	-11.7127
篋	-11.7129
粮	-11.713
翁	-11.7131
泰	-11.7134
臈	-11.7135
樣	-11.7144
漆	-11.7147
諭	-11.7209
肯	-11.7211
叵	-11.7212
賦	-11.7216
零	-11.7222
陞	-11.7224
䥫	-11.723
羈	-11.7234
秪	-11.7243
𢦶	-11.7292
瓨	-11.7298
豹	-11.7311
儼	-11.7313
齧	-11.7313
篤	-11.7314
耐	-11.7316
啞	-11.7316
紵	-11.7318
傘	-11.732
狸	-11.7327
蒱	-11.7336
雹	-11.7394
罐	-11.74
醎	-11.7405
雀	-11.7414
絮	-11.7423
舐	-11.7483
拯	-11.7498
懶	-11.7505
睒	-11.7506
睺	-11.7512
茅	-11.7513
鈸	-11.7515
鬧	-11.7585
饌	-11.7594
蹉	-11.7595
犁	-11.7595
匹	-11.7596
鶴	-11.7603
探	-11.7608
嘖	-11.7611
英	-11.7615
肇	-11.7618
鹹	-11.7619
馱	-11.7655
閡	-11.7707
壍	-11.771
夙	-11.7711
衡	-11.7715
揮	-11.7715
穆	-11.7722
趙	-11.7723
7	-11.7772
鴈	-11.7788
仇	-11.7788
糠	-11.7793
膿	-11.7799
藪	-11.7801
楯	-11.7806
遜	-11.7811
徃	-11.7813
戚	-11.7818
呂	-11.782
棊	-11.7861
舁	-11.7878
啄	-11.7899
閻	-11.7908
韻	-11.7911
甥	-11.7972
醍	-11.7995
筩	-11.7997
鬚	-11.7997
闢	-11.8
䞋	-11.8006
窺	-11.8008
孟	-11.8008
弃	-11.8009
栖	-11.8015
件	-11.8017
罕	-11.8098
甕	-11.8103
紡	-11.8105
蕭	-11.8105
刊	-11.8106
蔗	-11.8203
儐	-11.8206
鄭	-11.8206
膾	-11.821
餐	-11.821
羺	-11.8213
妾	-11.8216
几	-11.8229
筵	-11.8298
椒	-11.8304
袒	-11.8309
績	-11.8315
凍	-11.8318
寅	-11.8329
│	-11.834
9	-11.8384
8	-11.8385
刷	-11.8391
廊	-11.8404
娛	-11.841
讒	-11.8414
憒	-11.8415
媿	-11.8415
捷	-11.8416
薀	-11.8416
腕	-11.8419
鑑	-11.8426
邁	-11.8513
骸	-11.8514
幹	-11.8516
懊	-11.8518
崖	-11.8521
遘	-11.8521
壺	-11.8528
享	-11.853
氀	-11.8531
惛	-11.8538
娜	-11.8555
2	-11.8596
漁	-11.8615
蘿	-11.862
鑷	-11.8623
匱	-11.8624
漲	-11.8627
械	-11.8635
溉	-11.8637
凉	-11.8639
挾	-11.8639
嬾	-11.8735
鏤	-11.8737
殆	-11.8738
枷	-11.8739
銘	-11.8741
灾	-11.8742
愽	-11.8745
桑	-11.8748
灼	-11.875
皂	-11.8752
獅	-11.876
哥	-11.8839
瓔	-11.8843
曷	-11.8864
舛	-11.8864
樵	-11.8954
瀆	-11.8959
冊	-11.896
悠	-11.8963
饍	-11.8963
吏	-11.8968
褁	-11.8969
禦	-11.8976
鎡	-11.9047
副	-11.9058
淹	-11.9063
儔	-11.9069
墓	-11.907
盞	-11.9072
怡	-11.9076
迅	-11.9078
蠱	-11.9081
佳	-11.9085
褒	-11.9089
𢷤	-11.9175
怱	-11.9176
擿	-11.9179
刳	-11.9181
鉾	-11.9181
惻	-11.9186
辜	-11.919
亭	-11.919
獎	-11.9192
侮	-11.9194
秀	-11.9194
裔	-11.92
䑛	-11.9205
帔	-11.9284
廬	-11.9296
珂	-11.9296
串	-11.9298
襆	-11.93
謁	-11.93
脉	-11.9302
斜	-11.9303
蹔	-11.9318
犢	-11.9398
襞	-11.9406
卓	-11.9411
旱	-11.9413
錐	-11.9416
程	-11.9416
猷	-11.942
缾	-11.9421
痔	-11.9423
盥	-11.9429
逗	-11.9434
痰	-11.9441
0	-11.9501
餉	-11.9515
舶	-11.9517
宵	-11.9517
偃	-11.952
熈	-11.9528
慼	-11.9531
紊	-11.9541
廓	-11.9543
綾	-11.9551
饉	-11.9553
埿	-11.9642
紜	-11.9655
飜	-11.9656
圭	-11.9662
措	-11.9664
喝	-11.9666
膊	-11.9668
└	-11.9677
弭	-11.9696
梐	-11.9769
剏	-11.9772
蕪	-11.9775
唼	-11.9775
鼎	-11.9778
企	-11.978
鴻	-11.9781
玩	-11.9783
殞	-11.9785
筮	-11.9802
姚	-11.9802
畵	-11.9803
庠	-11.9886
涅	-11.9888
浸	-11.9888
勳	-11.9894
疆	-11.99
吟	-11.9901
迸	-11.9904
弁	-11.9934
瘖	-12.0009
闌	-12.0014
徙	-12.0016
尨	-12.0019
爰	-12.0022
慾	-12.0023
忉	-12.0026
妖	-12.0028
糟	-12.0032
啖	-12.0033
慘	-12.0033
釆	-12.004
敦	-12.004
劬	-12.0137
穌	-12.0146
派	-12.0146
棒	-12.0148
貽	-12.0151
捻	-12.0153
淮	-12.0155
奘	-12.0156
洋	-12.0159
彫	-12.0165
詺	-12.0165
禾	-12.0168
匁	-12.0239
帥	-12.025
庵	-12.0257
歛	-12.0266
斑	-12.0269
寤	-12.027
邦	-12.0276
亘	-12.0282
壘	-12.0387
牻	-12.0397
恡	-12.04
廉	-12.04
訃	-12.0401
碧	-12.0405
概	-12.0406
褻	-12.041
播	-12.0419
㥲	-12.0512
臼	-12.0525
巍	-12.0529
遽	-12.053
倖	-12.0536
苫	-12.0537
估	-12.0539
魅	-12.0545
礫	-12.0548
釀	-12.0548
㒵	-12.0556
搩	-12.0654
帚	-12.0658
鍛	-12.066
蔑	-12.0663
頞	-12.0665
癊	-12.0668
賃	-12.067
哲	-12.0677
奕	-12.0677
駮	-12.0699
奄	-12.0782
𣰽	-12.0783
憔	-12.0784
𨩲	-12.0789
銳	-12.0799
藤	-12.0799
股	-12.0806
詢	-12.0806
詎	-12.0808
蔬	-12.0811
┐	-12.0815
簾	-12.0817
胤	-12.0914
搦	-12.0915
捔	-12.092
蘆	-12.0922
咳	-12.0926
酷	-12.0927
浩	-12.0928
跨	-12.0929
豁	-12.0932
蝦	-12.0935
瘀	-12.0936
邀	-12.0938
畦	-12.0945
决	-12.0956
娉	-12.1039
兮	-12.1039
傭	-12.1045
版	-12.1054
堤	-12.1068
禽	-12.1072
葷	-12.108
萌	-12.1081
癹	-12.1088
呬	-12.1093
溼	-12.1094
隸	-12.1097
盾	-12.1101
3	-12.1174
䩭	-12.1193
癬	-12.1193
罄	-12.1195
虻	-12.1195
迄	-12.1196
怕	-12.1203
忙	-12.1204
黜	-12.1211
卯	-12.1224
轄	-12.1224
誇	-12.1224
唇	-12.1227
堯	-12.1233
陌	-12.1327
挫	-12.1339
台	-12.1341
閾	-12.1344
篌	-12.1345
闐	-12.1345
崎	-12.1346
堀	-12.1346
尠	-12.1348
磔	-12.135
帙	-12.1352
忤	-12.1352
辟	-12.1356
咤	-12.136
綠	-12.1366
籤	-12.1374
賒	-12.1462
羖	-12.147
墼	-12.1475
瑙	-12.1482
㓨	-12.1483
坻	-12.1483
媚	-12.1487
餚	-12.1487
褊	-12.1491
黠	-12.1492
岐	-12.1493
箸	-12.1497
纂	-12.1497
鑪	-12.1498
蒸	-12.1499
羝	-12.1501
銖	-12.1511
亮	-12.1514
栴	-12.1631
箜	-12.1632
蕉	-12.1642
笛	-12.165
彝	-12.1651
衝	-12.1654
肝	-12.1656
呌	-12.1662
蓽	-12.1773
纓	-12.1774
社	-12.1776
殖	-12.1779
捶	-12.1781
構	-12.1783
茫	-12.1783
峻	-12.1784
懲	-12.1785
抒	-12.1786
洽	-12.1787
葛	-12.1793
棟	-12.1794
鏁	-12.1797
俳	-12.1798
戟	-12.1802
誐	-12.1828
貳	-12.1909
轝	-12.1918
鐶	-12.192
旭	-12.1925
詭	-12.1925
筌	-12.1928
森	-12.1931
昆	-12.1932
抗	-12.1934
猥	-12.1936
賭	-12.194
杏	-12.194
戈	-12.1941
麟	-12.1948
a	-12.205
姻	-12.2064
誹	-12.2066
脯	-12.2068
痒	-12.207
餮	-12.207
雕	-12.2073
忖	-12.2073
幔	-12.2076
拙	-12.208
姿	-12.2082
攪	-12.2083
雉	-12.2085
驕	-12.2086
魁	-12.2086
矟	-12.209
孕	-12.2095
菁	-12.2096
鐃	-12.2097
剖	-12.2104
菩	-12.2227
盟	-12.2228
羆	-12.2231
憲	-12.2232
闥	-12.2234
燕	-12.2234
灒	-12.2235
芬	-12.2237
員	-12.224
噏	-12.2241
賖	-12.2243
傅	-12.2243
鋸	-12.2248
謫	-12.225
諒	-12.225
覧	-12.2253
顙	-12.2257
┌	-12.2265
摴	-12.2277
窣	-12.2293
諠	-12.2375
鵄	-12.2376
扂	-12.238
渚	-12.2382
扉	-12.2384
挃	-12.2384
瞥	-12.2387
叱	-12.239
蚕	-12.2394
咀	-12.2394
赦	-12.2403
壤	-12.2404
窂	-12.2404
鍮	-12.2405
瑩	-12.2411
禹	-12.2423
瀑	-12.2541
秖	-12.2543
做	-12.2546
遏	-12.2549
臰	-12.2551
轅	-12.2552
榴	-12.2556
瓠	-12.2557
堈	-12.2557
睛	-12.2561
朔	-12.2578
幅	-12.2578
舜	-12.2588
蓏	-12.2699
絞	-12.2706
妒	-12.2712
膽	-12.2715
尉	-12.2716
扠	-12.2717
僥	-12.2717
圊	-12.2719
樗	-12.2721
暉	-12.2721
萃	-12.2722
厲	-12.2723
㭊	-12.2726
掬	-12.2727
聯	-12.2727
襪	-12.273
俄	-12.2733
噎	-12.2861
歿	-12.2864
蹄	-12.2868
陪	-12.287
𧂐	-12.2871
鑛	-12.2871
蛾	-12.2874
膺	-12.2876
瞬	-12.2878
儭	-12.2879
竈	-12.2879
刈	-12.2881
貶	-12.2882
窄	-12.2883
獺	-12.2888
握	-12.289
巴	-12.2891
氎	-12.2892
肖	-12.2896
濶	-12.2914
閫	-12.302
檐	-12.3023
騾	-12.3027
蹴	-12.3031
偕	-12.3031
掖	-12.3037
碁	-12.3042
眄	-12.3043
䖍	-12.3046
鎔	-12.3047
確	-12.3056
賄	-12.3057
碩	-12.3058
醬	-12.3058
陁	-12.306
鑄	-12.3061
戊	-12.3063
呻	-12.3063
攞	-12.3065
胃	-12.3069
喘	-12.3194
綜	-12.3211
簿	-12.3214
翫	-12.3215
馥	-12.3215
詛	-12.3218
諄	-12.322
彊	-12.3221
冶	-12.3223
双	-12.3225
鋤	-12.3243
這	-12.3246
棋	-12.3267
6	-12.3351
隍	-12.3363
駛	-12.3368
鄔	-12.3373
坎	-12.3376
鞕	-12.3376
槽	-12.3377
墾	-12.3379
泊	-12.3383
冰	-12.3386
鍊	-12.3387
矢	-12.3388
豺	-12.339
嗤	-12.3391
┘	-12.3394
胞	-12.3398
漠	-12.3398
炊	-12.3399
沃	-12.3402
沿	-12.3402
鞠	-12.3405
勃	-12.3412
瑣	-12.3414
碗	-12.3417
弦	-12.3421
荅	-12.3541
牸	-12.3541
邇	-12.3549
拽	-12.3551
晃	-12.3552
餌	-12.3558
稼	-12.3558
猿	-12.3559
騫	-12.3562
殑	-12.3562
庚	-12.3568
雍	-12.3583
芒	-12.3583
壬	-12.3587
献	-12.3721
筐	-12.3725
咲	-12.3729
撓	-12.3738
熨	-12.3739
䔉	-12.3742
需	-12.3744
湧	-12.3744
邨	-12.3745
懿	-12.3747
纜	-12.3748
杯	-12.3751
憤	-12.3753
汪	-12.3755
豬	-12.3755
嵩	-12.3761
􂌦	-12.3764
趁	-12.3886
貲	-12.39
誚	-12.3908
茇	-12.3916
頹	-12.3917
輯	-12.3917
麞	-12.3918
塲	-12.3919
梗	-12.3921
篦	-12.3922
腨	-12.3923
捲	-12.3924
慜	-12.3927
諧	-12.3928
榜	-12.3929
剔	-12.3931
轂	-12.3933
葡	-12.3935
咬	-12.3936
疵	-12.3937
紗	-12.3938
劵	-12.3939
齅	-12.3941
勗	-12.408
竇	-12.4092
批	-12.4094
訂	-12.4098
頡	-12.4105
撤	-12.4109
鬻	-12.4111
濡	-12.4112
嘴	-12.4113
緊	-12.4114
沫	-12.4118
肢	-12.4119
捍	-12.4128
䏶	-12.4131
蝕	-12.4132
搗	-12.4144
蠍	-12.4284
├	-12.4298
罣	-12.43
迊	-12.43
猗	-12.43
飼	-12.4305
渾	-12.4305
萍	-12.4311
乱	-12.4314
蓼	-12.4332
裳	-12.441
5	-12.4456
拼	-12.4468
姦	-12.4471
杻	-12.4477
钁	-12.4479
鹵	-12.4484
介	-12.4489
催	-12.4489
劈	-12.4491
涎	-12.4491
鬲	-12.4492
剗	-12.4499
癸	-12.4504
棱	-12.4507
螢	-12.4511
潄	-12.4517
嚏	-12.4528
惹	-12.4529
幖	-12.4648
叟	-12.4673
棚	-12.4678
謟	-12.4684
譚	-12.4686
疼	-12.4687
幞	-12.4689
炒	-12.4689
蚤	-12.4692
嘔	-12.4693
拋	-12.4694
脛	-12.4695
桄	-12.4697
况	-12.4699
耗	-12.4704
藐	-12.4704
澀	-12.471
疱	-12.4856
佞	-12.486
栽	-12.4868
募	-12.4872
鍱	-12.4872
遑	-12.4874
翰	-12.4875
璧	-12.4878
摽	-12.4881
儛	-12.4881
跣	-12.4883
芭	-12.4883
彚	-12.4884
墳	-12.4885
寓	-12.4887
婁	-12.4889
坏	-12.4892
爵	-12.4893
踵	-12.4896
液	-12.4902
髭	-12.4931
听	-12.5061
鵽	-12.5074
璫	-12.5074
蟇	-12.5081
挺	-12.5084
券	-12.5088
聳	-12.5088
椉	-12.5095
悚	-12.5097
洹	-12.5098
寐	-12.51
脾	-12.5101
鳳	-12.5102
虞	-12.5103
亞	-12.5103
弩	-12.5107
剡	-12.5108
仞	-12.5285
𤙖	-12.5289
轡	-12.529
砌	-12.5292
坦	-12.5297
絣	-12.5297
袴	-12.5299
箕	-12.5302
珀	-12.5305
彷	-12.5305
弒	-12.5305
恰	-12.5306
犂	-12.5308
煗	-12.5309
牡	-12.531
姪	-12.5314
另	-12.5314
艶	-12.5315
薤	-12.5319
貢	-12.5321
梟	-12.5325
豕	-12.5325
㟧	-12.5326
𠗦	-12.5328
溈	-12.533
禰	-12.5339
唎	-12.5339
嗽	-12.5489
姝	-12.5503
穬	-12.5508
霹	-12.5509
壑	-12.5509
箴	-12.5514
蛆	-12.5514
慣	-12.5516
冒	-12.5518
緘	-12.5519
𨽻	-12.5522
谿	-12.5523
蓍	-12.5523
蠟	-12.5523
吻	-12.5523
攘	-12.5525
塑	-12.5526
椽	-12.5526
筞	-12.5527
蔡	-12.5528
釐	-12.553
噴	-12.5533
粧	-12.5535
售	-12.5711
穩	-12.5714
閃	-12.5716
㗱	-12.5717
儞	-12.5718
皺	-12.572
駃	-12.5721
沼	-12.5722
癢	-12.5722
陟	-12.5722
盋	-12.5725
揉	-12.5729
㵎	-12.573
絆	-12.5731
糅	-12.5733
控	-12.5733
廚	-12.5734
孽	-12.5738
冢	-12.5739
狄	-12.5741
拆	-12.5746
駭	-12.5748
簧	-12.5752
艾	-12.5754
煉	-12.5755
恁	-12.5765
笈	-12.5906
佇	-12.592
眇	-12.5921
撚	-12.5927
簪	-12.593
𨳝	-12.5932
蝎	-12.5936
睇	-12.5936
篅	-12.5936
嘯	-12.5943
哺	-12.5947
虐	-12.5948
鉛	-12.595
裨	-12.5951
斟	-12.5956
啻	-12.5956
摺	-12.5956
茹	-12.5956
尻	-12.5958
慠	-12.5965
簸	-12.5965
丑	-12.5966
吝	-12.5968
韁	-12.597
晏	-12.5973
桌	-12.5975
臟	-12.5978
輅	-12.6147
𨚗	-12.6154
梓	-12.6156
旹	-12.6158
鎚	-12.6163
蚣	-12.6165
𣯫	-12.6165
蜈	-12.6167
頒	-12.6168
糴	-12.6169
楞	-12.6171
敞	-12.6172
呰	-12.6175
凸	-12.6176
稗	-12.6176
鞾	-12.6181
酉	-12.6184
堵	-12.6186
剉	-12.6188
翔	-12.619
鍚	-12.6192
裕	-12.6193
汰	-12.6194
濺	-12.6198
簫	-12.6199
鯨	-12.6202
㗚	-12.621
脅	-12.6219
撾	-12.6395
鴛	-12.6395
僣	-12.64
湊	-12.6401
僉	-12.6402
炳	-12.6403
硨	-12.6403
糺	-12.6403
蛤	-12.641
鱗	-12.6413
蕅	-12.6413
擡	-12.6413
緝	-12.6419
┤	-12.642
緋	-12.6423
郊	-12.6424
巫	-12.6425
𠄎	-12.6429
蹙	-12.6432
茜	-12.6433
瘧	-12.6433
袱	-12.6618
啑	-12.6618
彪	-12.6623
駒	-12.663
捩	-12.6638
椰	-12.6641
綸	-12.6642
箏	-12.6644
𤏙	-12.6646
盪	-12.6647
郁	-12.6647
犛	-12.6648
抓	-12.6648
斐	-12.6649
沽	-12.6651
跌	-12.6652
蟒	-12.6654
咃	-12.6655
紬	-12.6656
培	-12.6658
寵	-12.6662
渺	-12.6664
狩	-12.6665
采	-12.6669
肌	-12.6672
璞	-12.6673
翠	-12.6677
𤦲	-12.6867
荔	-12.6869
館	-12.6869
癭	-12.6873
琶	-12.6876
嵐	-12.6883
沓	-12.6885
廂	-12.6886
戌	-12.6887
臧	-12.689
肴	-12.6892
玷	-12.6893
拓	-12.6893
硬	-12.6894
陂	-12.6896
縳	-12.6901
饕	-12.6903
紉	-12.6905
逞	-12.691
躰	-12.6916
瓊	-12.6927
暎	-12.6928
愕	-12.7123
糒	-12.7128
甫	-12.7139
呞	-12.7139
牝	-12.714
穽	-12.7142
牓	-12.7143
矚	-12.7143
趍	-12.7146
瞞	-12.7146
繀	-12.7151
􂌴	-12.7153
繹	-12.7153
狠	-12.716
梅	-12.7162
蠢	-12.7163
悖	-12.7164
透	-12.7165
黏	-12.7173
囂	-12.7178
涸	-12.7385
姙	-12.7389
屆	-12.739
謦	-12.7391
毱	-12.7392
泮	-12.7393
肋	-12.7398
橙	-12.74
伍	-12.7402
勺	-12.7405
銓	-12.7405
僮	-12.7406
釁	-12.7407
訴	-12.7409
莂	-12.7414
黍	-12.7416
桶	-12.7417
廻	-12.7417
皿	-12.7421
􂬎	-12.743
抳	-12.7447
詶	-12.7644
閤	-12.7648
坂	-12.7648
戍	-12.7651
膜	-12.7656
侈	-12.7657
鵬	-12.7658
庖	-12.7658
碯	-12.7661
掣	-12.7665
恬	-12.7667
馮	-12.767
蕃	-12.7672
磐	-12.7672
肺	-12.7675
瑪	-12.7675
攸	-12.7675
餧	-12.7676
揬	-12.7677
槨	-12.7678
輞	-12.7679
夅	-12.7679
戎	-12.7679
撻	-12.768
坼	-12.7681
㰤	-12.7686
霞	-12.7686
釣	-12.7691
拇	-12.7691
藂	-12.7693
笙	-12.7693
鑵	-12.7699
碑	-12.7706
煬	-12.7709
􂠜	-12.7909
佯	-12.7911
搔	-12.7912
衒	-12.7916
擒	-12.7917
軒	-12.7917
墯	-12.7918
贅	-12.7923
痟	-12.7927
琢	-12.793
袍	-12.7932
倨	-12.7933
􂏬	-12.7933
揆	-12.7936
罹	-12.7937
寥	-12.7937
怜	-12.7937
蹊	-12.7938
蓄	-12.7945
賷	-12.7946
顆	-12.7951
淋	-12.7957
烊	-12.7961
檗	-12.7967
撝	-12.8177
裾	-12.8197
寇	-12.8198
舫	-12.8199
騃	-12.82
熬	-12.8201
臻	-12.8202
兀	-12.8205
藻	-12.8205
䓗	-12.8206
匕	-12.8207
絳	-12.8207
灯	-12.8208
隥	-12.8209
鉗	-12.821
膞	-12.8212
沮	-12.8212
駁	-12.8212
莢	-12.8213
淤	-12.8213
魄	-12.8214
晴	-12.8217
烹	-12.8218
虜	-12.8218
亥	-12.8221
桁	-12.8223
諺	-12.8223
卦	-12.8226
盌	-12.8226
麝	-12.8226
碾	-12.8227
泆	-12.8233
嫂	-12.8457
痤	-12.847
徽	-12.8474
讟	-12.8479
疇	-12.8481
恤	-12.8484
僂	-12.8485
澇	-12.8486
崔	-12.849
齗	-12.8491
諛	-12.8492
𦆠	-12.8493
燧	-12.8493
旌	-12.8493
鬀	-12.8493
漚	-12.8494
韈	-12.8494
迯	-12.8495
塘	-12.8497
胄	-12.8498
恪	-12.8498
襲	-12.8498
儜	-12.8499
磲	-12.8501
傚	-12.8503
欵	-12.8505
傑	-12.8506
輟	-12.8507
螘	-12.8508
篆	-12.8508
霍	-12.851
屨	-12.8513
竅	-12.8513
馨	-12.8513
屯	-12.8514
燸	-12.8514
痢	-12.8516
隴	-12.8518
涵	-12.8521
逍	-12.8522
𢍉	-12.8522
喃	-12.8539
褐	-12.854
c	-12.8754
苾	-12.877
畋	-12.8775
奠	-12.8778
碓	-12.8778
哽	-12.8778
鬢	-12.8783
畝	-12.8788
粖	-12.8788
茖	-12.8789
􂎫	-12.879
幕	-12.8791
觝	-12.8792
媟	-12.8793
毹	-12.8795
歒	-12.8796
疣	-12.8797
瓷	-12.8797
溷	-12.8798
潦	-12.88
洩	-12.8805
燄	-12.8806
縠	-12.8807
墖	-12.8808
蒿	-12.8808
醞	-12.8809
些	-12.8809
殻	-12.881
从	-12.8812
牲	-12.8815
桂	-12.8815
壹	-12.8817
奸	-12.8817
癘	-12.8818
謚	-12.8832
惺	-12.8841
匃	-12.9067
洎	-12.9078
邃	-12.9078
嘲	-12.908
叨	-12.9081
㳂	-12.9083
襟	-12.9085
莠	-12.9085
凹	-12.909
臚	-12.9091
蟣	-12.9093
聿	-12.9093
羨	-12.9094
輾	-12.9094
恢	-12.9095
聦	-12.9096
矧	-12.9097
帷	-12.9102
痕	-12.9102
訕	-12.9104
霄	-12.9106
𨤲	-12.9108
滔	-12.9108
腎	-12.911
朴	-12.9112
菽	-12.9113
磚	-12.9114
泠	-12.9115
玦	-12.9126
昵	-12.913
紂	-12.9142
弋	-12.9146
睞	-12.938
鞍	-12.9389
眩	-12.9393
拖	-12.9394
瘙	-12.9394
樊	-12.9397
叡	-12.9399
鎻	-12.94
蚩	-12.9401
址	-12.9401
稊	-12.9403
襖	-12.9404
衷	-12.9404
赭	-12.9405
窠	-12.9412
攢	-12.9412
窻	-12.9413
姤	-12.9416
黷	-12.9417
掐	-12.9417
悛	-12.9418
迂	-12.942
韮	-12.9422
餝	-12.9424
躐	-12.9425
𩍓	-12.9426
敝	-12.9428
仕	-12.9431
詁	-12.9431
庾	-12.9436
邈	-12.9437
]	-12.9687
毺	-12.969
无	-12.9696
䗍	-12.9708
督	-12.9709
蠕	-12.9711
脆	-12.9715
囓	-12.9718
瓣	-12.9719
謾	-12.972
鞮	-12.9724
碼	-12.9726
蝨	-12.9727
翮	-12.9729
栰	-12.9732
澱	-12.9733
查	-12.9736
薗	-12.9736
堆	-12.9738
瞽	-12.974
顒	-12.974
擪	-12.974
靖	-12.9742
韓	-12.9745
廿	-12.9745
皤	-12.9747
縈	-12.9748
蓆	-12.9748
徤	-12.975
奩	-12.9751
骰	-12.9789
嬉	-12.9981
▲	-13.003
抆	-13.0032
𥨊	-13.0033
瘳	-13.0036
𥯤	-13.0039
窶	-13.0043
筯	-13.0045
义	-13.0047
俵	-13.005
歠	-13.0055
闚	-13.0057
泔	-13.0057
橝	-13.0057
袪	-13.0057
叚	-13.0059
紋	-13.0059
荻	-13.0059
鞘	-13.006
趂	-13.0063
愜	-13.0064
蚋	-13.0064
礦	-13.0065
㿈	-13.0066
搪	-13.0066
騁	-13.0067
繳	-13.0068
丞	-13.0068
訥	-13.0072
炮	-13.0073
掍	-13.0073
彥	-13.0074
孚	-13.0075
体	-13.0076
釰	-13.0078
凋	-13.0082
腥	-13.0089
拉	-13.0094
酖	-13.0103
笞	-13.0105
跏	-13.0362
f	-13.0371
貰	-13.0373
媾	-13.0375
㲉	-13.0386
婉	-13.0388
嚀	-13.0393
悼	-13.0395
隷	-13.0395
慞	-13.0399
羼	-13.0401
譜	-13.0402
吊	-13.0402
鈕	-13.0405
襻	-13.0406
拊	-13.0408
抖	-13.0408
拷	-13.0409
丙	-13.0411
淘	-13.0412
豌	-13.0413
懦	-13.0413
棧	-13.0415
鬮	-13.0418
䩛	-13.0419
宦	-13.0419
繕	-13.0419
减	-13.042
斵	-13.0423
裰	-13.0423
檻	-13.044
䩙	-13.0444
萇	-13.0445
綫	-13.0446
𡖦	-13.071
箄	-13.074
膖	-13.0746
痿	-13.0748
槊	-13.075
袈	-13.075
榰	-13.075
嚧	-13.0752
鵞	-13.0754
鼾	-13.0755
邠	-13.0756
柁	-13.0756
齡	-13.0761
泡	-13.0764
蜎	-13.0764
襄	-13.0767
鞔	-13.0769
疽	-13.0772
埀	-13.0773
柏	-13.0777
妷	-13.0777
鷗	-13.0781
懾	-13.0786
煨	-13.0789
翦	-13.0794
羲	-13.0803
蹬	-13.1108
襦	-13.1109
篲	-13.1112
蹇	-13.1116
妍	-13.112
叮	-13.1123
堦	-13.1126
觴	-13.1126
隘	-13.1126
瞑	-13.1127
屩	-13.1128
煥	-13.1128
忩	-13.1129
䟽	-13.1129
兢	-13.1134
躓	-13.1134
簏	-13.1135
蝠	-13.1136
躃	-13.1136
蝙	-13.1136
嘷	-13.1141
驟	-13.1144
匣	-13.1145
鵲	-13.1145
湔	-13.1145
扈	-13.1146
粘	-13.1148
肚	-13.1149
軫	-13.115
晈	-13.1153
哮	-13.1167
坯	-13.1175
距	-13.1181
悒	-13.1478
厩	-13.148
俛	-13.1484
鵂	-13.149
𠲿	-13.1491
麈	-13.1493
窒	-13.1495
丐	-13.1497
懅	-13.15
胥	-13.1502
窖	-13.1505
祚	-13.1505
敲	-13.1513
瘢	-13.1513
霆	-13.1514
褶	-13.1515
膓	-13.1519
悵	-13.152
擕	-13.152
薝	-13.1522
墡	-13.1523
欹	-13.1524
閦	-13.1526
蛹	-13.1527
租	-13.1528
訝	-13.1529
繪	-13.1529
猩	-13.1529
剜	-13.153
迥	-13.153
榆	-13.1534
㝵	-13.1536
潑	-13.1537
𦮽	-13.1539
𣫍	-13.1539
軼	-13.1541
袁	-13.1544
蜋	-13.1547
噬	-13.1552
邸	-13.1558
秫	-13.1569
抧	-13.1873
蔥	-13.1883
闑	-13.189
燼	-13.1902
隄	-13.1905
猜	-13.1905
罅	-13.1906
鏗	-13.1908
鎗	-13.1911
癖	-13.1912
蒺	-13.1916
亢	-13.1917
喇	-13.1919
擺	-13.1919
撈	-13.192
曀	-13.1921
皰	-13.1921
爇	-13.1922
琳	-13.1922
倏	-13.1924
晒	-13.1924
槐	-13.1925
褺	-13.1925
毅	-13.1928
盃	-13.1928
駐	-13.1929
芋	-13.193
鍬	-13.1933
憾	-13.1933
毬	-13.1935
苽	-13.1935
鴨	-13.1939
仆	-13.1944
訣	-13.1948
菌	-13.1948
甦	-13.1953
遁	-13.1954
跢	-13.1955
罟	-13.1956
蘖	-13.196
隤	-13.2304
圃	-13.2311
潰	-13.2311
摭	-13.2318
𤛆	-13.2318
枮	-13.2319
吃	-13.2321
緜	-13.2322
櫨	-13.2323
惓	-13.2324
怗	-13.2326
訊	-13.2328
撞	-13.2328
鄴	-13.2328
縟	-13.233
寰	-13.233
橘	-13.2331
嫡	-13.2338
僚	-13.2338
蠒	-13.2339
穫	-13.2339
窬	-13.2341
軻	-13.2341
閹	-13.2343
壻	-13.2343
爨	-13.2347
讁	-13.2348
冑	-13.2348
稜	-13.2349
竦	-13.235
􂌶	-13.2352
鄧	-13.2356
嗗	-13.2356
苓	-13.2357
䬸	-13.2357
洟	-13.2359
猨	-13.2359
稔	-13.2359
鏢	-13.2366
淑	-13.238
砒	-13.2405
鴆	-13.2409
蜇	-13.2727
嗌	-13.2729
𣣋	-13.2731
翊	-13.274
粵	-13.2744
忝	-13.2746
惒	-13.2746
畟	-13.2747
憩	-13.2751
歐	-13.2754
帋	-13.2757
署	-13.2757
徘	-13.2759
躶	-13.2761
霤	-13.2764
徊	-13.2764
俊	-13.2764
滄	-13.2767
蹂	-13.2769
嵓	-13.2769
䞈	-13.2769
噓	-13.277
紳	-13.277
踴	-13.2771
潭	-13.2773
捃	-13.2774
范	-13.2774
徉	-13.2775
啜	-13.2775
咒	-13.2776
廠	-13.2779
崙	-13.278
汾	-13.278
堰	-13.2783
麋	-13.2784
匏	-13.2784
洮	-13.2785
卛	-13.2785
贓	-13.2787
漓	-13.2787
蝅	-13.2792
𠹀	-13.2793
歆	-13.2794
冲	-13.2796
鈷	-13.2797
𣽈	-13.2797
廗	-13.2798
勾	-13.2802
劑	-13.2804
灸	-13.2807
𧜟	-13.2808
秔	-13.2808
喑	-13.3182
溥	-13.319
𡂠	-13.3197
癲	-13.3197
䘢	-13.3199
爬	-13.3204
晷	-13.3206
𡱁	-13.3207
𤘽	-13.321
葺	-13.3211
廩	-13.3218
釿	-13.322
癕	-13.3224
銚	-13.3225
抂	-13.3227
衾	-13.3227
芿	-13.3227
菟	-13.3229
迨	-13.3229
𨷲	-13.323
彭	-13.3231
桎	-13.3231
糾	-13.3231
欬	-13.3231
弉	-13.3232
釵	-13.3233
禳	-13.3235
喟	-13.3236
觚	-13.3238
轢	-13.3239
朕	-13.3239
豉	-13.3241
薙	-13.3242
缸	-13.3245
玻	-13.3247
狽	-13.3251
盎	-13.3253
𤨏	-13.3255
啗	-13.3256
𠻳	-13.3258
蹶	-13.3258
縊	-13.326
頴	-13.326
筴	-13.3262
蕤	-13.3264
閭	-13.3273
弼	-13.3277
驃	-13.3665
𨄔	-13.3672
傴	-13.3676
碍	-13.368
𢌞	-13.3682
霅	-13.3683
噤	-13.3683
胯	-13.3684
庇	-13.3686
㵱	-13.3689
簁	-13.3691
苔	-13.3692
篙	-13.3693
絁	-13.3695
芸	-13.3695
偉	-13.3696
挈	-13.3699
鵒	-13.3699
甌	-13.3699
咏	-13.37
犀	-13.3702
浙	-13.3703
縹	-13.3703
董	-13.3704
佑	-13.3705
㓟	-13.3706
皃	-13.3706
痊	-13.3707
系	-13.3707
𥢶	-13.3707
荽	-13.3708
壃	-13.3711
琰	-13.3713
祟	-13.3714
弔	-13.3717
宍	-13.3717
埃	-13.3717
捋	-13.3718
誼	-13.3719
樸	-13.3721
協	-13.3721
帊	-13.3723
詈	-13.3724
臊	-13.373
玲	-13.3731
㸑	-13.3733
醪	-13.3744
􂎾	-13.3747
睫	-13.3754
轎	-13.4167
篸	-13.4173
异	-13.4173
廐	-13.4176
罥	-13.4177
燎	-13.4177
僭	-13.418
垛	-13.4183
紕	-13.4187
笮	-13.4189
軛	-13.419
稕	-13.419
喬	-13.4192
溜	-13.4194
劖	-13.4196
巔	-13.4197
㖒	-13.4197
鐺	-13.4199
暄	-13.4199
裟	-13.4199
卍	-13.4201
濵	-13.4201
繆	-13.4201
厝	-13.4202
韜	-13.4204
徼	-13.4205
鷺	-13.4205
瑤	-13.4206
櫃	-13.4206
灘	-13.4208
牕	-13.4208
饗	-13.421
冕	-13.4211
蟄	-13.4211
瀝	-13.4213
苕	-13.4214
耨	-13.4214
𢂁	-13.4214
昴	-13.4216
苧	-13.4218
搘	-13.4221
廷	-13.4222
笠	-13.4222
鷂	-13.4223
眴	-13.4224
賽	-13.4227
晁	-13.4227
誷	-13.423
彗	-13.423
苞	-13.4232
詫	-13.4237
鴟	-13.4239
㘓	-13.4657
􂪮	-13.4698
啇	-13.4705
悽	-13.4706
臛	-13.4707
摒	-13.4709
黿	-13.4709
埒	-13.4711
嚬	-13.4716
驎	-13.4719
耘	-13.4719
鎌	-13.4721
侏	-13.4723
菔	-13.4723
溟	-13.4724
吁	-13.4724
皴	-13.4725
𥱼	-13.4725
糸	-13.4727
蝗	-13.4728
鼉	-13.4729
𢆯	-13.473
唆	-13.4732
濤	-13.4732
㘕	-13.4732
宙	-13.4733
鏂	-13.4734
荳	-13.4735
鉄	-13.4736
椅	-13.4737
擂	-13.4738
笋	-13.4738
皓	-13.4739
糶	-13.474
𦟛	-13.4744
豚	-13.4745
緞	-13.4745
昂	-13.4746
扴	-13.4746
䆳	-13.4746
桐	-13.4749
腑	-13.475
滲	-13.4752
珮	-13.4754
𢹂	-13.4755
慝	-13.4755
屧	-13.4756
槁	-13.4758
盼	-13.4771
榔	-13.4771
𠾱	-13.478
𧹞	-13.5242
㪷	-13.525
捼	-13.5255
刖	-13.5262
恊	-13.5262
扼	-13.5262
莛	-13.5263
𤬪	-13.5264
羔	-13.5264
蒭	-13.5265
俠	-13.5266
鋌	-13.527
爼	-13.5272
禎	-13.5273
痍	-13.5277
詆	-13.5278
玔	-13.528
靠	-13.528
柈	-13.5281
湏	-13.5282
柿	-13.5283
霖	-13.5283
隊	-13.5284
罩	-13.5284
荏	-13.5284
幃	-13.5286
俞	-13.5287
砧	-13.5287
亟	-13.5288
爍	-13.5291
磋	-13.5291
沖	-13.5292
楮	-13.5293
肱	-13.5294
咩	-13.5296
潘	-13.5297
㗘	-13.5298
羇	-13.5299
喙	-13.5301
袂	-13.5303
韭	-13.5303
湻	-13.5305
刎	-13.5305
咷	-13.5305
睦	-13.531
迬	-13.5311
惕	-13.5312
杳	-13.5314
桀	-13.5315
挨	-13.5315
𨲙	-13.5315
蹹	-13.5318
邕	-13.532
倪	-13.5323
裴	-13.5326
裿	-13.5784
h	-13.5835
髆	-13.5838
廛	-13.5839
嬭	-13.5842
賾	-13.5842
匇	-13.5845
勁	-13.5849
扟	-13.5851
笐	-13.5854
􂍨	-13.5856
勦	-13.5857
匐	-13.5858
卉	-13.5859
讌	-13.586
萠	-13.5863
呿	-13.5863
恍	-13.5864
倮	-13.5865
愴	-13.5866
伇	-13.5866
嬌	-13.5866
圈	-13.5866
繚	-13.5868
趾	-13.5868
卅	-13.5869
侘	-13.5869
鵰	-13.5869
醘	-13.587
迺	-13.5871
寞	-13.5872
哯	-13.5873
崑	-13.5873
栓	-13.5874
咫	-13.5874
嫗	-13.5874
閨	-13.5877
劓	-13.5877
丕	-13.5877
稷	-13.5878
掇	-13.5881
悌	-13.5881
顰	-13.5881
栢	-13.5882
蚌	-13.5882
馭	-13.5884
酣	-13.5884
站	-13.5885
蜫	-13.5885
覿	-13.5885
巵	-13.5885
悳	-13.5886
辮	-13.5888
墟	-13.5889
娘	-13.5892
臠	-13.5895
棉	-13.5895
籾	-13.5896
椑	-13.5898
蘂	-13.5899
鱉	-13.5901
㯹	-13.6451
s	-13.646
鍋	-13.6466
票	-13.647
疹	-13.6472
柘	-13.6476
㖿	-13.6477
慟	-13.6478
醇	-13.6479
驀	-13.6481
鸜	-13.6483
􂫷	-13.6484
􂖂	-13.6486
磽	-13.6486
廕	-13.6486
蝶	-13.6487
帆	-13.6487
窨	-13.6487
匍	-13.6488
偪	-13.6488
蝡	-13.6488
靳	-13.6489
㐫	-13.649
懵	-13.6492
嚝	-13.6492
旻	-13.6493
䊩	-13.6493
頤	-13.6494
弈	-13.6494
暨	-13.6495
錍	-13.6495
軄	-13.6496
芟	-13.6497
甑	-13.6498
鉏	-13.6498
􂎔	-13.6499
蟆	-13.6499
篾	-13.65
虹	-13.6502
魍	-13.6502
魎	-13.6502
塍	-13.6504
陜	-13.6505
蠧	-13.6506
葫	-13.6506
抹	-13.6508
殮	-13.6508
菖	-13.6509
枲	-13.651
淆	-13.6511
舘	-13.6512
鴝	-13.6512
坡	-13.6512
覊	-13.6514
烘	-13.6514
銕	-13.6518
擴	-13.6519
鏃	-13.652
茯	-13.652
蛟	-13.6524
竽	-13.6528
宥	-13.6531
牘	-13.6531
煻	-13.6532
觜	-13.6535
涓	-13.6539
穄	-13.6543
艷	-13.6543
𡂡	-13.6544
餒	-13.6545
逋	-13.7122
撅	-13.7127
蛭	-13.7128
瑳	-13.7129
佷	-13.7133
烝	-13.714
澍	-13.7141
週	-13.7142
暈	-13.7145
磧	-13.7146
紏	-13.7147
琅	-13.7147
貍	-13.7148
貓	-13.715
𢤱	-13.7153
裒	-13.7153
樁	-13.7156
黤	-13.7159
聟	-13.7159
蚖	-13.7159
剽	-13.716
亶	-13.7162
譁	-13.7162
岩	-13.7162
叶	-13.7163
鯉	-13.7163
鳧	-13.7164
謄	-13.7166
癃	-13.7166
窳	-13.7167
躅	-13.7167
櫚	-13.7168
爆	-13.7172
瘞	-13.7173
懽	-13.7174
甯	-13.7175
頷	-13.7176
㲪	-13.7178
渭	-13.7179
顗	-13.7179
杲	-13.7179
渝	-13.7179
滾	-13.7179
捒	-13.7179
𩬊	-13.718
磕	-13.718
酧	-13.7181
葵	-13.7184
𥼆	-13.7184
謔	-13.7184
咋	-13.7185
佃	-13.7187
晶	-13.7187
挵	-13.7188
麪	-13.7193
𣚦	-13.7196
蔴	-13.7197
靿	-13.7199
絨	-13.7199
仿	-13.72
𩕳	-13.72
踦	-13.7201
雒	-13.7203
茆	-13.7203
𡞞	-13.7205
騐	-13.7206
墎	-13.7208
菀	-13.7208
籥	-13.7208
錠	-13.7209
蝮	-13.7213
檳	-13.7218
􂞅	-13.7831
昳	-13.7836
ā	-13.7842
敧	-13.7846
覘	-13.785
軆	-13.7853
鏇	-13.7853
臾	-13.7859
卻	-13.786
蹻	-13.7861
躋	-13.7864
祁	-13.7867
熒	-13.7868
􂪷	-13.7869
齩	-13.7869
攣	-13.787
𧿟	-13.787
湮	-13.7871
瞢	-13.7871
濱	-13.7875
榛	-13.7876
𪾼	-13.7876
廈	-13.7876
髦	-13.7877
惣	-13.7877
梏	-13.7877
蔚	-13.7879
俚	-13.7879
罾	-13.788
詹	-13.788
螻	-13.788
裩	-13.7884
猖	-13.7885
澹	-13.7888
吮	-13.7889
芹	-13.7891
褲	-13.7892
髴	-13.7892
燦	-13.7892
舋	-13.7893
愔	-13.7893
埽	-13.7902
烙	-13.7903
撒	-13.7903
抨	-13.7904
𢯱	-13.7908
黔	-13.791
綰	-13.7914
纊	-13.7917
万	-13.7918
捄	-13.7919
􂏨	-13.792
焙	-13.7922
坤	-13.7925
穰	-13.7925
羗	-13.793
孺	-13.7944
𢷡	-13.7948
驪	-13.7954
坫	-13.8609
n	-13.861
櫺	-13.861
㗨	-13.8614
璺	-13.8614
𨵗	-13.8619
蒠	-13.8621
憺	-13.8624
擋	-13.8626
狡	-13.8628
疿	-13.8629
𧙕	-13.863
盔	-13.863
𦀟	-13.8631
樔	-13.8631
摙	-13.8634
鵠	-13.8634
癤	-13.8636
𨫼	-13.8636
皁	-13.8636
粱	-13.8636
凾	-13.8637
噵	-13.8637
轤	-13.8638
肪	-13.8639
鉞	-13.8639
囕	-13.8639
顇	-13.864
楣	-13.8642
鐼	-13.8642
黛	-13.8645
朦	-13.8645
鑠	-13.8646
袾	-13.8647
璽	-13.8647
縢	-13.8649
琮	-13.865
悷	-13.8651
􂪳	-13.8651
踪	-13.8652
擢	-13.8653
郤	-13.8654
獘	-13.8654
它	-13.8654
硎	-13.8655
蛙	-13.8655
髣	-13.8655
饋	-13.8655
姧	-13.8656
柚	-13.8658
佚	-13.8658
磑	-13.8659
港	-13.866
塜	-13.8662
硯	-13.8662
賂	-13.8663
僱	-13.8663
蠻	-13.8663
毉	-13.8663
謎	-13.8664
謠	-13.8664
薛	-13.8666
甖	-13.8667
慄	-13.8667
蒟	-13.867
宼	-13.867
墀	-13.867
苣	-13.8671
鵅	-13.8673
冗	-13.8673
秕	-13.8675
擻	-13.8676
扁	-13.8678
𠍴	-13.868
莽	-13.868
雛	-13.8681
椹	-13.8682
氐	-13.8683
戕	-13.8683
鶉	-13.8686
幣	-13.8691
㺲	-13.8694
𦚾	-13.8694
薨	-13.8701
鐏	-13.8705
䍲	-13.8713
鴞	-13.8737
昶	-13.8738
𤛓	-13.9438
謐	-13.944
靨	-13.9442
瀾	-13.9445
櫪	-13.9448
杅	-13.9449
劂	-13.9453
檝	-13.9455
筥	-13.9456
跽	-13.9458
徇	-13.9458
菊	-13.9461
賕	-13.9462
痺	-13.9462
黮	-13.9463
硃	-13.9464
眸	-13.9464
獦	-13.9464
袜	-13.9465
絓	-13.9465
梢	-13.9465
闘	-13.9466
棹	-13.9467
簞	-13.9469
驍	-13.9469
蟠	-13.947
抉	-13.947
蠡	-13.947
孃	-13.9472
綣	-13.9472
碣	-13.9473
坋	-13.9473
揜	-13.9476
搯	-13.9476
寘	-13.9477
韛	-13.9477
𠬧	-13.9479
侗	-13.9479
很	-13.9479
虬	-13.948
孑	-13.948
䖟	-13.9481
疴	-13.9482
紆	-13.9482
篩	-13.9484
駿	-13.9485
澗	-13.9485
幬	-13.9485
拕	-13.9486
餞	-13.9487
聆	-13.9488
儗	-13.9488
綽	-13.9488
忒	-13.9488
庿	-13.9489
綃	-13.949
㮏	-13.9491
欓	-13.9491
樺	-13.9491
􂱁	-13.9491
􂪵	-13.9492
鐫	-13.9494
汩	-13.9494
攜	-13.9496
遼	-13.9497
藺	-13.9498
𢇲	-13.9498
洄	-13.9498
磁	-13.9499
杷	-13.9499
倐	-13.95
聘	-13.95
嬪	-13.9501
迤	-13.9502
柂	-13.9502
瘟	-13.9505
餔	-13.9506
瞰	-13.9507
爺	-13.9507
凳	-13.9508
飴	-13.9508
隈	-13.9511
笏	-13.9512
殂	-13.9514
頺	-13.9515
耑	-13.9516
駟	-13.9518
幰	-13.952
朵	-13.9525
櫓	-13.9527
扑	-13.9529
𨃥	-13.9529
狙	-13.9541
樟	-13.9545
𠺕	-13.9561
崐	-14.0328
穉	-14.0337
覃	-14.0342
鉸	-14.0355
爴	-14.0357
鋡	-14.0359
䆿	-14.0361
絫	-14.0364
𩰖	-14.0365
􂌯	-14.0366
痏	-14.0368
踉	-14.0369
沛	-14.037
粤	-14.037
髠	-14.037
薹	-14.0372
𣛰	-14.0373
璿	-14.0373
挊	-14.0374
衦	-14.0374
淩	-14.0375
杼	-14.0375
昉	-14.0375
埳	-14.0376
瘓	-14.0376
挹	-14.0377
蕀	-14.0378
衙	-14.0378
鏘	-14.038
犲	-14.0381
毯	-14.0384
泌	-14.0384
蚓	-14.0386
烋	-14.0387
苻	-14.0388
綊	-14.039
伶	-14.0391
駱	-14.0391
彳	-14.0392
殫	-14.0393
枇	-14.0394
犧	-14.0395
蔣	-14.0397
璃	-14.0397
𨒬	-14.0398
𣰆	-14.0399
劄	-14.0399
簣	-14.04
颺	-14.04
軔	-14.0401
煅	-14.0402
苛	-14.0404
贄	-14.0405
軾	-14.0405
廳	-14.0405
型	-14.0406
㲩	-14.0407
匾	-14.0408
騷	-14.0408
凑	-14.041
龐	-14.041
婀	-14.0411
騖	-14.0412
柝	-14.0413
毾	-14.0413
𤍜	-14.0413
鋧	-14.0414
穹	-14.0414
羶	-14.0414
吧	-14.0414
茨	-14.0416
磓	-14.0417
札	-14.0417
浦	-14.0418
蝱	-14.0418
珪	-14.0418
淄	-14.0418
搋	-14.0419
兌	-14.0419
魘	-14.0419
秸	-14.0419
禺	-14.0422
鞚	-14.0422
裡	-14.0425
黐	-14.0425
砥	-14.0427
㹀	-14.0428
厓	-14.0429
􂚒	-14.0432
儈	-14.0435
蘸	-14.0443
邯	-14.0445
稭	-14.0449
黯	-14.0477
瘠	-14.1335
㲖	-14.1343
𤴲	-14.1345
孀	-14.1346
崘	-14.135
i	-14.1353
k	-14.1353
睿	-14.1357
噠	-14.1358
峙	-14.136
芉	-14.1362
莾	-14.1363
瞖	-14.1364
浹	-14.1366
􂏆	-14.1367
拌	-14.1372
侫	-14.1373
𤚲	-14.1374
􂪃	-14.1374
蔫	-14.1374
殼	-14.1375
逭	-14.1375
簟	-14.1376
虺	-14.1377
痶	-14.1379
勛	-14.1379
𣏾	-14.1379
嘻	-14.138
凖	-14.138
恙	-14.138
鏟	-14.138
扞	-14.1381
倆	-14.1382
晤	-14.1383
醻	-14.1383
瞼	-14.1384
蠆	-14.1384
飫	-14.1385
聶	-14.1385
噦	-14.1385
喡	-14.1386
亨	-14.1387
􂎹	-14.1387
蜣	-14.1387
窈	-14.1387
忓	-14.1388
皐	-14.1388
稿	-14.1388
杴	-14.1389
孳	-14.1389
鞏	-14.1389
抅	-14.139
瀘	-14.139
睢	-14.139
狚	-14.139
秩	-14.139
阜	-14.139
爻	-14.1392
軃	-14.1392
締	-14.1393
獐	-14.1393
𧏙	-14.1395
粆	-14.1397
婪	-14.1397
痾	-14.1398
顓	-14.1398
菲	-14.1398
蟬	-14.1399
購	-14.1399
䩸	-14.1399
盻	-14.14
岡	-14.1402
劾	-14.1402
俸	-14.1402
瓢	-14.1403
瓈	-14.1403
縶	-14.1403
魑	-14.1404
眵	-14.1404
穡	-14.1405
㡘	-14.1405
麌	-14.1406
􂬴	-14.1407
緉	-14.1407
套	-14.1408
謳	-14.1408
祛	-14.1409
匈	-14.1409
􂒀	-14.141
匳	-14.141
藹	-14.1411
霓	-14.1411
櫰	-14.1412
堓	-14.1412
棬	-14.1413
鈆	-14.1413
𣏌	-14.1413
尹	-14.1413
咥	-14.1414
稈	-14.1415
薯	-14.1416
姜	-14.1416
扙	-14.1417
蹟	-14.1418
𨓍	-14.142
飤	-14.1421
颯	-14.1422
紇	-14.1423
餳	-14.1423
鋋	-14.1425
媵	-14.1427
黻	-14.1428
萊	-14.1428
逶	-14.1431
拗	-14.1441
墊	-14.1442
鄲	-14.1442
摡	-14.1469
蠓	-14.2457
聒	-14.2458
撢	-14.2458
琛	-14.246
燾	-14.2461
凭	-14.2462
倰	-14.2463
壟	-14.2464
鱣	-14.2465
鋟	-14.2465
粲	-14.2467
瘤	-14.2468
跬	-14.247
島	-14.2472
秏	-14.2479
墁	-14.2479
仄	-14.248
仝	-14.2482
麾	-14.2483
㵪	-14.2484
栱	-14.2485
郗	-14.2485
詃	-14.2485
餻	-14.2487
㢡	-14.2487
媱	-14.2488
渙	-14.2489
臉	-14.2489
懱	-14.249
泗	-14.2491
襜	-14.2492
髼	-14.2493
荀	-14.2494
覼	-14.2495
歉	-14.2495
褌	-14.2495
滇	-14.2495
号	-14.2496
煌	-14.2496
妣	-14.2496
醴	-14.2496
鸞	-14.2499
錘	-14.2499
儱	-14.2499
斆	-14.2499
擐	-14.2499
宬	-14.2499
䐡	-14.25
嘶	-14.25
㧺	-14.2501
蟾	-14.2501
𦶇	-14.2503
殉	-14.2503
蘧	-14.2503
幮	-14.2504
𥪰	-14.2504
訾	-14.2506
梭	-14.2506
歧	-14.2507
繖	-14.2507
槍	-14.2508
鱠	-14.251
彛	-14.251
跎	-14.251
霏	-14.251
忪	-14.2511
粹	-14.2511
孛	-14.2511
涇	-14.2511
昞	-14.2511
摾	-14.2511
馴	-14.2512
圜	-14.2512
凜	-14.2512
廡	-14.2512
辞	-14.2513
箔	-14.2513
𢪛	-14.2514
𤥭	-14.2514
翎	-14.2514
譴	-14.2515
辣	-14.2515
蕷	-14.2515
侃	-14.2516
艮	-14.2517
嬻	-14.2517
徂	-14.2517
靸	-14.2518
薶	-14.2518
劃	-14.2519
胷	-14.252
瑯	-14.252
昊	-14.252
餽	-14.2521
枓	-14.2522
頵	-14.2522
􂔾	-14.2523
綩	-14.2524
脬	-14.2524
㡿	-14.2524
刼	-14.2525
𤚥	-14.2526
閔	-14.2527
峨	-14.2527
􂏓	-14.2528
榖	-14.2528
闠	-14.2528
矬	-14.253
謌	-14.253
楔	-14.2531
瀨	-14.2532
桷	-14.2533
璅	-14.2533
䘖	-14.2534
錞	-14.2534
僵	-14.2535
憨	-14.2535
𨍮	-14.2536
歘	-14.2538
紃	-14.2538
塟	-14.2539
􂱈	-14.2539
蜆	-14.2543
矃	-14.2548
啾	-14.2552
褚	-14.2555
殳	-14.256
亷	-14.2574
蕂	-14.258
柹	-14.2609
辤	-14.2615
姒	-14.2626
摋	-14.3677
筈	-14.3694
䴬	-14.3701
喰	-14.3703
聃	-14.3703
􂫖	-14.3707
邵	-14.3709
𢩁	-14.3714
𣑽	-14.3714
t	-14.3714
珞	-14.3715
獰	-14.3716
虅	-14.3716
𣝕	-14.3717
躊	-14.3718
鷰	-14.3719
礓	-14.3721
䗈	-14.3722
喎	-14.3722
靄	-14.3723
栿	-14.3724
噪	-14.3725
彎	-14.3725
捿	-14.3726
璣	-14.3727
檛	-14.3728
𣐍	-14.3728
􂭛	-14.3729
綆	-14.3729
𠃔	-14.373
襌	-14.3732
毆	-14.3732
唧	-14.3732
褓	-14.3734
渥	-14.3734
挐	-14.3734
貺	-14.3735
𥧌	-14.3736
蚰	-14.3736
揄	-14.3736
瞷	-14.3736
曦	-14.3736
闔	-14.3738
䩕	-14.3738
楹	-14.3739
矴	-14.3739
攉	-14.374
耿	-14.374
覬	-14.374
迪	-14.3743
瘕	-14.3743
慍	-14.3744
迁	-14.3744
聻	-14.3745
惋	-14.3746
籢	-14.3746
撗	-14.3748
滂	-14.3749
塢	-14.3749
鏵	-14.3749
賑	-14.3749
懌	-14.375
臀	-14.375
閩	-14.375
鍤	-14.3751
瘨	-14.3751
惙	-14.3752
窰	-14.3752
漩	-14.3753
笇	-14.3753
眤	-14.3753
鋺	-14.3753
駢	-14.3754
㬉	-14.3754
癎	-14.3754
攊	-14.3755
駞	-14.3755
遴	-14.3756
忱	-14.3758
慓	-14.3759
顫	-14.3759
蟹	-14.3759
悍	-14.376
獃	-14.376
矗	-14.376
蛛	-14.3761
菱	-14.3762
摑	-14.3762
瘁	-14.3762
糝	-14.3762
梆	-14.3762
榱	-14.3763
𥇒	-14.3766
糩	-14.3766
迢	-14.3766
樑	-14.3767
腿	-14.3767
昱	-14.3768
椿	-14.3771
䐗	-14.3772
膀	-14.3773
繅	-14.3773
韶	-14.3775
衽	-14.3775
𦬔	-14.3776
㗛	-14.3777
翱	-14.3778
渄	-14.3779
扸	-14.3779
楝	-14.378
揃	-14.3781
閼	-14.3782
藟	-14.3783
賻	-14.3783
鬥	-14.3783
綢	-14.3784
豸	-14.3785
曯	-14.3786
燔	-14.3787
麒	-14.3787
琉	-14.3788
暠	-14.3788
羌	-14.3794
盒	-14.3794
鯀	-14.3794
棠	-14.3795
湎	-14.3796
㗖	-14.3797
黲	-14.3798
蘗	-14.3799
𨰭	-14.3803
槹	-14.3804
敖	-14.3805
拶	-14.3805
譎	-14.381
賠	-14.3813
綏	-14.382
蓊	-14.3821
棍	-14.3835
朞	-14.3843
傎	-14.386
囇	-14.507
簀	-14.5124
籃	-14.5134
苃	-14.5136
蘋	-14.5136
ī	-14.5143
l	-14.5143
煤	-14.5143
浟	-14.5147
炯	-14.5148
惲	-14.5149
躇	-14.5149
-	-14.515
瞪	-14.515
煏	-14.5152
攫	-14.5152
擭	-14.5153
牗	-14.5155
㝢	-14.5155
緬	-14.5155
衿	-14.5156
鋼	-14.5156
畸	-14.5156
謇	-14.5156
翟	-14.5156
詬	-14.5156
蚑	-14.5157
稸	-14.516
弛	-14.5161
醭	-14.5161
笱	-14.5162
遨	-14.5162
袞	-14.5162
岫	-14.5164
暝	-14.5168
啐	-14.5168
贒	-14.5168
摳	-14.517
嚇	-14.5171
睹	-14.5171
蜒	-14.5171
踔	-14.5172
澓	-14.5174
摓	-14.5176
菉	-14.5177
茸	-14.5177
欻	-14.5178
茵	-14.5179
瓌	-14.5179
扛	-14.518
淼	-14.518
籴	-14.518
欶	-14.5181
悃	-14.5181
惽	-14.5181
牃	-14.5182
柞	-14.5183
跂	-14.5184
覡	-14.5186
蕖	-14.5186
腭	-14.5186
噆	-14.5186
諡	-14.5186
仔	-14.5186
鉅	-14.5186
篡	-14.5187
踟	-14.5189
朧	-14.5189
嚟	-14.5189
莚	-14.5189
劭	-14.519
搶	-14.5191
奎	-14.5191
纑	-14.5191
縧	-14.5192
胱	-14.5193
儸	-14.5195
肎	-14.5197
圿	-14.5198
醮	-14.5198
璟	-14.52
粳	-14.52
搨	-14.5201
竣	-14.5201
瑗	-14.5203
僊	-14.5203
揑	-14.5207
寱	-14.5208
劊	-14.5208
訐	-14.5208
㨗	-14.5208
箅	-14.5209
嵬	-14.521
迃	-14.521
秧	-14.5213
湘	-14.5215
橿	-14.5216
舀	-14.5218
蹏	-14.522
塤	-14.5221
嘵	-14.5221
耒	-14.5223
撑	-14.5224
翩	-14.5225
傀	-14.5225
宕	-14.5226
筠	-14.5228
塠	-14.5228
盍	-14.5229
戞	-14.5231
纘	-14.5231
呫	-14.5233
慵	-14.5233
睚	-14.5234
蒨	-14.5237
檽	-14.5239
窗	-14.5239
䘏	-14.524
䰂	-14.5242
蒂	-14.5245
螳	-14.5255
渣	-14.5273
妳	-14.5279
鈞	-14.5287
痆	-14.6853
瑠	-14.6864
髏	-14.6888
m	-14.8809
婇	-14.8811
獼	-14.8866
鸚	-15.1345
髑	-15.4687
哂	-15.9686
渒	-16.9676
㚲	-16.9677
P	-16.9678
蚯	-16.9679
蕾	-16.968
蓓	-16.9681
惚	-16.9682
䔧	-16.9683
譺	-16.9684
裓	-16.9685
啁	-16.9686
㒓	-16.9687
泝	-16.9688
蛺	-16.9689
茘	-16.969
确	-16.9691
玼	-16.9692
剞	-16.9693
邂	-16.9694
逅	-16.9695
轆	-16.9696
彿	-16.9697
椶	-16.9698
祩	-16.9699
靉	-16.97
靆	-16.9701
蘡	-16.9702
藶	-16.9703
葶	-16.9704
圄	-16.9705
囹	-16.9706
薁	-16.9707
槵	-16.9708
瓏	-16.9709
肨	-16.971
𩦾	-16.9711
鶹	-16.9712
孜	-16.9713
琥	-16.9714
[	-16.9715
苷	-16.9716
洴	-16.9717
琵	-16.9718
犴	-16.9719
鶖	-16.972
靂	-16.9721
—	-16.9722
犙	-16.9723
瑚	-16.9724
醐	-16.9725
+	-16.9726
>	-16.9727
邱	-16.9728
N	-16.9729
|	-16.973
*	-16.9731
鵡	-16.9731
