<unk>	0
<s>	0
</s>	0
。	-1.85407
故	-4.20396
者	-4.4236
名	-5.09179
有	-5.13063
等	-5.17757
此	-5.20387
謂	-5.21355
是	-5.21827
為	-5.26767
也	-5.28277
中	-5.31102
二	-5.3343
無	-5.37439
即	-5.39983
若	-5.41228
以	-5.47412
非	-5.47714
於	-5.48316
一	-5.54045
心	-5.56714
如	-5.58066
說	-5.58544
法	-5.59338
不	-5.61571
生	-5.62657
三	-5.62714
義	-5.68223
相	-5.68912
至	-5.70878
及	-5.71264
(	-5.74103
彼	-5.74228
)	-5.74528
之	-5.7861
得	-5.78777
依	-5.80553
言	-5.82286
由	-5.88231
論	-5.92085
緣	-5.94835
四	-5.95141
起	-5.99079
行	-5.9923
因	-6.01776
時	-6.02452
.	-6.05571
▁	-6.07955
下	-6.082
。】「	-6.08661
亦	-6.12598
。」【	-6.1307
與	-6.14827
識	-6.17547
而	-6.17673
或	-6.17852
唯	-6.21165
又	-6.21205
性	-6.23018
見	-6.23511
定	-6.25404
所	-6.25631
後	-6.27419
云	-6.28517
明	-6.28951
攝	-6.2972
智	-6.30234
問	-6.30536
果	-6.30575
五	-6.30854
答	-6.34652
初	-6.40474
能	-6.40496
一切	-6.41944
其	-6.44527
通	-6.44996
分別	-6.45113
諸	-6.45175
斷	-6.45344
色	-6.45397
菩薩	-6.46151
如是	-6.46328
境	-6.46426
受	-6.46465
體	-6.46557
事	-6.46859
自	-6.46929
觀	-6.49267
業	-6.4951
前	-6.50062
皆	-6.50918
釋	-6.51609
善	-6.52174
別	-6.52603
修	-6.52733
餘	-6.53634
種	-6.54159
身	-6.54211
人	-6.56051
處	-6.56792
住	-6.57242
應	-6.58638
名為	-6.58719
解	-6.58798
上	-6.59844
然	-6.60477
成	-6.61102
大	-6.63939
種子	-6.64346
雖	-6.64503
意	-6.64572
滅	-6.65121
隨	-6.66038
我	-6.66318
苦	-6.67142
俱	-6.68512
同	-6.71068
疏	-6.71133
佛	-6.71922
煩惱	-6.7263
六	-6.74546
離	-6.74849
作	-6.75047
即是	-6.75829
差別	-6.76286
現	-6.77713
知	-6.78607
已	-6.78633
根	-6.7885
空	-6.79466
分	-6.79496
顯	-6.80263
乃至	-6.80451
立	-6.80525
正	-6.80733
道	-6.82622
地	-6.83685
八	-6.84464
位	-6.85461
今	-6.8671
取	-6.87185
在	-6.87311
云何	-6.87313
入	-6.87865
相應	-6.88254
七	-6.88944
捨	-6.8986
轉	-6.90638
多	-6.91144
令	-6.91465
樂	-6.91635
則	-6.92523
勝	-6.92873
淨	-6.93135
文	-6.93464
門	-6.93587
從	-6.94106
用	-6.94499
難	-6.9474
無漏	-6.955
障	-6.96033
執	-6.96782
欲	-6.97438
證	-6.97527
十	-6.98662
異	-7.0088
次	-7.01671
第二	-7.03617
慧	-7.04487
理	-7.04781
先	-7.04914
但	-7.06128
除	-7.07469
具	-7.07813
常	-7.08107
實	-7.08252
何	-7.08541
既	-7.08549
】	-7.09157
自性	-7.09597
他	-7.11574
方便	-7.12522
清淨	-7.1283
耶	-7.12908
戒	-7.131
思	-7.13801
故名	-7.15052
破	-7.15613
外	-7.16322
述曰	-7.17872
此中	-7.19084
涅槃	-7.19268
。【	-7.20001
解脫	-7.20023
第三	-7.20462
約	-7.21031
力	-7.21082
未	-7.21099
想	-7.21119
界	-7.21294
引	-7.21301
現行	-7.22057
教	-7.2211
愛	-7.24784
巳	-7.24953
可	-7.25201
真如	-7.2539
眾生	-7.26141
*	-7.2622
復	-7.27146
總	-7.28209
不同	-7.29404
合	-7.29911
經	-7.3025
聲	-7.30725
所緣	-7.31444
有情	-7.31588
本	-7.323
內	-7.32747
第八	-7.3278
觸	-7.33024
由此	-7.33362
所依	-7.33859
當	-7.34552
大乘	-7.35794
有漏	-7.36039
等者	-7.3661
念	-7.36672
,	-7.37743
出	-7.38229
分二	-7.39747
過	-7.39914
因緣	-7.4112
無明	-7.41159
染	-7.41949
品	-7.42298
數	-7.42682
諸法	-7.42855
世間	-7.4306
假	-7.43504
真	-7.43608
作意	-7.43767
如來	-7.44301
方	-7.44772
五識	-7.45411
類	-7.46899
不能	-7.4735
施	-7.47751
求	-7.47786
惑	-7.48416
九	-7.49258
意識	-7.49316
對	-7.49693
信	-7.50697
第四	-7.51767
惡	-7.53202
似	-7.53607
所有	-7.5365
第七	-7.54658
是故	-7.54737
決定	-7.55034
喻	-7.55159
異熟	-7.55234
加行	-7.55267
盡	-7.55411
覺	-7.55685
唯識	-7.57209
辨	-7.57446
變	-7.5772
計	-7.59297
德	-7.59316
何故	-7.59472
發	-7.59555
所攝	-7.59641
論曰	-7.59989
結	-7.60718
功德	-7.612
心所	-7.62084
成就	-7.62187
重	-7.63193
是名	-7.63241
順	-7.63335
次第	-7.63512
相續	-7.6364
語	-7.64071
便	-7.64081
宗	-7.64091
貪	-7.64371
共	-7.64457
欲界	-7.64525
種種	-7.64852
第六	-7.65287
第一	-7.66161
建立	-7.66576
天	-7.67239
無有	-7.67289
釋曰	-7.67812
如何	-7.68157
眾	-7.68395
應知	-7.69172
無量	-7.70192
相分	-7.70951
二種	-7.71022
許	-7.71204
師	-7.71257
忍	-7.71418
聞	-7.71524
持	-7.72737
無為	-7.73187
自在	-7.73423
亦有	-7.73471
世	-7.73911
就	-7.74474
對治	-7.75021
因果	-7.75138
極	-7.75569
量	-7.75686
一者	-7.75756
生死	-7.76993
遍	-7.77071
頌	-7.77564
據	-7.77892
句	-7.7822
簡	-7.7911
物	-7.79476
趣	-7.79581
無記	-7.79766
必	-7.79805
當知	-7.80062
略	-7.80551
各	-7.80586
二者	-7.80864
行相	-7.81305
更	-7.81484
報	-7.82216
疑	-7.82459
三種	-7.82598
不得	-7.82719
字	-7.8289
學	-7.83499
能生	-7.83744
增	-7.8386
廣	-7.84029
不定	-7.84056
舉	-7.84274
化	-7.84519
屬	-7.84916
二乘	-7.85234
境界	-7.86082
望	-7.86112
所以	-7.86297
究竟	-7.86889
」	-7.89043
圓滿	-7.89312
極微	-7.89522
瑜伽	-7.89586
增上	-7.89624
失	-7.912
無常	-7.91234
現在	-7.91323
亦名	-7.91788
支	-7.91958
蘊	-7.92584
有二	-7.92623
不可	-7.92701
集	-7.93055
一分	-7.93445
依止	-7.9354
根本	-7.93543
眼	-7.93614
汝	-7.94075
真實	-7.94336
遠離	-7.95389
二明	-7.9628
亦爾	-7.96862
乃	-7.97389
少	-7.97425
復次	-7.98197
修習	-7.98372
違	-7.98679
故云	-7.99096
精進	-7.99168
所作	-7.99481
和合	-7.99738
所生	-8.00707
為因	-8.00753
恒	-8.00794
見分	-8.01165
食	-8.01348
章	-8.01511
伏	-8.01702
願	-8.02058
無間	-8.02221
六識	-8.02342
分三	-8.02698
要	-8.02805
平等	-8.02918
一明	-8.03085
見道	-8.03266
三界	-8.04472
諦	-8.04925
俱生	-8.05585
為體	-8.05708
第五	-8.0602
故知	-8.06183
不說	-8.06428
並	-8.06437
論云	-8.06446
小	-8.0654
解云	-8.06818
。△	-8.06893
十一	-8.06935
喜	-8.07009
依他	-8.07446
不生	-8.0768
第八識	-8.07761
四種	-8.07772
自體	-8.0795
以為	-8.08238
王	-8.08351
。「	-8.0841
聲聞	-8.0892
三性	-8.09188
皆是	-8.09262
壞	-8.09397
於此	-8.09819
迷	-8.09829
思惟	-8.09912
造	-8.09958
色等	-8.10116
觀察	-8.10255
二釋	-8.1028
慢	-8.10387
菩提	-8.1058
死	-8.10651
聖	-8.10843
雜染	-8.1242
不善	-8.12547
邪	-8.1279
未來	-8.12865
相違	-8.13141
小乘	-8.14104
受用	-8.1423
細	-8.14407
具足	-8.14749
度	-8.14988
會	-8.15282
藏	-8.15584
謂於	-8.15737
道理	-8.15979
無相	-8.16267
疏云	-8.16552
之中	-8.16763
熏	-8.17535
辯	-8.17712
勝解	-8.17727
所說	-8.17731
問曰	-8.18066
親	-8.18234
不成	-8.18532
水	-8.1855
隨眠	-8.18911
於彼	-8.19051
亦是	-8.19386
縛	-8.20222
何以故	-8.20355
唯有	-8.20356
有三	-8.20481
功能	-8.20731
不應	-8.20802
妙	-8.20989
法身	-8.21208
來	-8.21212
前後	-8.21488
為性	-8.21529
過去	-8.21668
中有	-8.21773
習	-8.22135
外道	-8.22178
將	-8.22355
不爾	-8.22713
如前	-8.22949
相似	-8.22978
可知	-8.23409
隨順	-8.23595
亦不	-8.23739
且	-8.23779
利	-8.24075
此二	-8.24317
麁	-8.24484
火	-8.24641
曰	-8.24688
三者	-8.24766
遮	-8.25
還	-8.25004
自相	-8.25103
生起	-8.25154
退	-8.25423
我見	-8.25513
善根	-8.25619
無我	-8.25685
遠	-8.25913
依處	-8.26118
諸行	-8.26609
設	-8.26642
尋伺	-8.26871
五根	-8.26963
有義	-8.2701
劫	-8.27645
現前	-8.27697
勝義	-8.28548
熏習	-8.28585
一標	-8.29846
稱	-8.29914
了	-8.30101
色界	-8.3044
十二	-8.30568
邪見	-8.30727
深	-8.31444
寂靜	-8.31493
本識	-8.31738
此識	-8.32029
聚	-8.3224
非是	-8.3278
一切法	-8.32821
靜慮	-8.3283
滿	-8.33261
說為	-8.33723
家	-8.33901
兩	-8.34155
實有	-8.34284
無色	-8.34378
證得	-8.34483
緣起	-8.35461
安立	-8.35794
八識	-8.35829
卷	-8.35835
犯	-8.36007
亦無	-8.36348
動	-8.36364
乘	-8.36468
愚	-8.36834
所謂	-8.36882
所引	-8.36974
准	-8.37137
故名為	-8.37459
所得	-8.37462
亦得	-8.37591
能緣	-8.38012
尋	-8.38994
若有	-8.39052
出離	-8.3916
非有	-8.39289
之義	-8.39296
塵	-8.39318
雜	-8.3938
故言	-8.4019
劣	-8.40545
增長	-8.40566
罪	-8.40685
善法	-8.41068
向	-8.41404
所知	-8.41624
開	-8.41815
同時	-8.41831
而不	-8.4236
各別	-8.42585
福	-8.42701
無別	-8.42782
妄	-8.42787
若無	-8.42854
最勝	-8.43211
近	-8.4323
尋思	-8.43412
無學	-8.43496
習氣	-8.43597
若爾	-8.43608
法界	-8.43769
癡	-8.43791
染淨	-8.43914
過失	-8.44271
瞋	-8.44658
若言	-8.44737
全	-8.44738
助	-8.44939
諸佛	-8.45079
三明	-8.45244
攝受	-8.45807
對法	-8.45986
故說	-8.4604
并	-8.46407
心心所	-8.46546
子	-8.46757
亦應	-8.47007
了知	-8.47473
皆有	-8.47583
獨	-8.47701
而生	-8.47977
表	-8.47996
眼識	-8.48016
言說	-8.48154
不起	-8.4868
之所	-8.48789
感	-8.49152
厭	-8.49296
等流	-8.49319
成熟	-8.49428
不共	-8.49465
、	-8.49476
或有	-8.49522
一向	-8.49722
無性	-8.49997
轉依	-8.50045
流	-8.50049
竟	-8.50053
亦非	-8.50071
生故	-8.50256
現量	-8.50839
三乘	-8.50845
為緣	-8.51094
即此	-8.51451
作用	-8.51731
標	-8.51972
是其	-8.5225
部	-8.52341
例	-8.52441
意樂	-8.525
安住	-8.52524
治	-8.52685
有四	-8.52706
所起	-8.53118
猶	-8.53164
悔	-8.53188
害	-8.53241
止	-8.53519
須	-8.53652
於中	-8.53669
顯示	-8.53811
耳	-8.54108
染污	-8.5412
名之為	-8.54152
記	-8.54235
五種	-8.54403
命	-8.54633
修行	-8.54709
形	-8.54974
使	-8.54983
此即	-8.55162
唯是	-8.55294
豈	-8.55319
纏	-8.55884
宣說	-8.55982
出世	-8.5599
者謂	-8.56039
補特伽羅	-8.5616
斯	-8.56598
一問	-8.56602
假立	-8.56705
所知障	-8.57004
所執	-8.5713
義故	-8.57404
無分別	-8.57405
能引	-8.57464
著	-8.57558
者即	-8.57998
世尊	-8.58538
變異	-8.58624
修道	-8.58688
雖有	-8.58782
十地	-8.59014
凡	-8.59208
猶如	-8.59216
邊	-8.59254
此初也	-8.59595
有為	-8.59649
律儀	-8.60054
性故	-8.60247
所變	-8.60495
顛倒	-8.60547
異生	-8.60591
供養	-8.60776
復有	-8.60822
無分別智	-8.6097
剎那	-8.61136
共相	-8.61159
說名	-8.61214
質	-8.61237
離欲	-8.61283
凡夫	-8.62008
法執	-8.62189
安	-8.62384
善巧	-8.62409
翻	-8.62541
悉	-8.62629
長	-8.62784
阿羅漢	-8.62926
善惡	-8.6339
三世	-8.63578
不淨	-8.63608
阿賴耶識	-8.63944
爾	-8.64051
麁重	-8.64467
通達	-8.6485
不言	-8.64896
五蘊	-8.64912
土	-8.6505
種姓	-8.65096
主	-8.65404
往	-8.6554
一云	-8.65797
第六識	-8.6589
初禪	-8.65997
影像	-8.66045
潤	-8.66103
正法	-8.66182
禪	-8.66258
殊勝	-8.66441
指	-8.66452
第七識	-8.66629
十種	-8.66747
僧	-8.66761
示	-8.6684
三結	-8.66945
詮	-8.6721
自他	-8.67248
三摩地	-8.67316
光	-8.67365
本質	-8.6743
施設	-8.67438
四者	-8.67489
現觀	-8.67655
少分	-8.67703
世俗	-8.67729
漏	-8.67939
任運	-8.67955
息	-8.68011
風	-8.68175
六種	-8.68297
憂	-8.68304
我法	-8.68412
未得	-8.68686
微	-8.68907
無礙	-8.69312
互	-8.69334
病	-8.69335
不然	-8.69344
影	-8.69448
初地	-8.69904
地中	-8.69944
有二種	-8.70391
此論	-8.70537
俗	-8.70549
體性	-8.70576
於諸	-8.70772
覆	-8.70811
四諦	-8.70831
展轉	-8.7094
彰	-8.71207
聖教	-8.71288
轉識	-8.71317
可得	-8.71498
我執	-8.71721
流轉	-8.71733
廣大	-8.71817
二依	-8.72036
而有	-8.72713
所行	-8.72922
神通	-8.7295
今此	-8.7327
十八	-8.73619
一一	-8.73769
譬如	-8.74107
此文	-8.7424
財	-8.74339
位中	-8.74746
兼	-8.74775
顯現	-8.74867
雙	-8.7492
味	-8.75
如此	-8.75301
出家	-8.75515
之法	-8.75553
不離	-8.75864
益	-8.76153
法性	-8.76217
易	-8.76235
一依	-8.76345
所餘	-8.76356
前三	-8.76364
種性	-8.76733
資	-8.76776
照	-8.7694
末	-8.77058
歸	-8.77162
段	-8.77348
如實	-8.77657
相故	-8.7783
聖道	-8.77951
能取	-8.77965
偏	-8.78008
發心	-8.78039
所取	-8.78252
為業	-8.78363
日	-8.78447
麤	-8.7849
熟	-8.78517
十四	-8.78545
分位	-8.78568
無上	-8.7876
比量	-8.79199
變化	-8.79259
若依	-8.79293
滅定	-8.79296
能令	-8.79344
列	-8.79439
散	-8.80005
遂	-8.80104
漸	-8.80276
護	-8.80364
不相應	-8.80443
甚深	-8.80504
香	-8.80556
微細	-8.8059
十六	-8.80593
能熏	-8.80778
說法	-8.80845
假說	-8.80871
齊	-8.81113
末那	-8.81413
分四	-8.81652
有無	-8.81653
情	-8.82012
遍計	-8.82034
名色	-8.82189
所成	-8.82278
不緣	-8.82416
發起	-8.8249
而得	-8.82579
此義	-8.82818
第九	-8.82961
徧	-8.83011
收	-8.83028
而起	-8.83062
基云	-8.83099
資糧	-8.83217
貪等	-8.83877
皆名	-8.8402
足	-8.84093
不與	-8.84216
大悲	-8.84232
心王	-8.84258
種類	-8.84502
生滅	-8.84534
強	-8.84605
此三	-8.85097
各有	-8.85161
諸菩薩	-8.85474
散亂	-8.85513
不見	-8.8552
隨煩惱	-8.85547
智慧	-8.85645
由彼	-8.85766
別有	-8.85828
異熟果	-8.85909
倒	-8.85999
一切種	-8.86088
誰	-8.861
內外	-8.8619
牒	-8.8654
損	-8.86872
勤	-8.8689
者意云	-8.86981
本有	-8.87004
第十	-8.87442
悲	-8.87461
成立	-8.87532
謂由	-8.87558
加	-8.87659
遣	-8.87664
去	-8.87952
繫	-8.87962
以此	-8.88134
寶	-8.88165
惱	-8.88568
礙	-8.88777
不動	-8.88827
矣	-8.88864
法故	-8.89299
利益	-8.89485
命根	-8.8978
諸識	-8.90052
十五	-8.90228
悟	-8.90276
了別	-8.90334
上品	-8.90531
頓	-8.90671
諸根	-8.90896
但說	-8.90897
正智	-8.90977
不許	-8.91021
圓	-8.91321
輕	-8.9135
般若	-8.92021
百	-8.92282
曾	-8.9234
喜樂	-8.92539
相者	-8.92589
二十	-8.92599
不名	-8.92671
容	-8.9279
四大	-8.92877
亂	-8.92911
永斷	-8.93008
俱起	-8.9309
佛性	-8.93457
待	-8.93527
被	-8.93656
間	-8.93947
地獄	-8.94014
所緣緣	-8.94061
墮	-8.94143
上地	-8.94167
又云	-8.94185
敬	-8.94215
徵	-8.94313
受生	-8.94573
後得智	-8.94679
殊	-8.94728
意云	-8.94828
諸有情	-8.94865
此是	-8.94939
超	-8.9513
下地	-8.95157
若不	-8.95352
達	-8.95691
不知	-8.95739
轉變	-8.95802
好	-8.95872
決擇	-8.95894
為一	-8.96181
不斷	-8.96358
終	-8.96395
波羅蜜多	-8.96478
無色界	-8.96481
之時	-8.96717
問答	-8.96817
所以者何	-8.97014
四句	-8.97072
闕	-8.97084
居	-8.97176
依此	-8.97193
千	-8.97396
惠	-8.97454
俱有	-8.97599
正行	-8.97655
同分	-8.97843
有五	-8.979
音義	-8.97942
能詮	-8.97973
始	-8.9825
器	-8.98294
自證分	-8.98317
論說	-8.98324
直	-8.98411
但是	-8.98607
耶答	-8.9862
沒	-8.98853
遍計所執	-8.98886
諸煩惱	-8.9894
一立因	-8.9916
既無	-8.99315
演曰二	-8.99386
能障	-8.99443
經中	-8.99469
苦諦	-8.99477
為依	-8.995
山	-8.99656
不依	-8.99821
一種	-9.0006
無想	-9.00088
有別	-9.00161
二障	-9.00201
幾	-9.00254
不為	-9.00432
▁初	-9.00478
攝論	-9.00519
釋云	-9.00625
現起	-9.00662
解釋	-9.0087
行者	-9.00904
不取	-9.00945
最	-9.01186
二分	-9.01471
二法	-9.01694
前二	-9.0172
相攝	-9.01863
放逸	-9.02062
反	-9.02065
能變	-9.02478
執受	-9.02577
令心	-9.02625
已得	-9.02894
新	-9.02983
論文	-9.02993
羅	-9.03008
俱時	-9.0313
謂此	-9.03459
眼等	-9.03481
量云	-9.03533
有三種	-9.03559
雖無	-9.03633
半	-9.03779
一切眾生	-9.03783
不退	-9.03955
惡趣	-9.04007
因中	-9.04032
上界	-9.0438
法中	-9.04423
畢竟	-9.04784
善心	-9.0483
思量	-9.04836
無心	-9.04919
寬	-9.04929
燈	-9.05034
不應道理	-9.05111
為欲	-9.05337
進	-9.05611
十三	-9.05727
應非	-9.05733
有異	-9.05973
蓋	-9.06206
後二	-9.06233
救	-9.0625
論主	-9.06379
尚	-9.064
釋言	-9.06473
故曰	-9.06511
人天	-9.06646
白	-9.06752
苦樂	-9.06779
者意說	-9.07093
勢力	-9.07326
所言	-9.07371
依他起	-9.07408
多分	-9.07515
經說	-9.07521
▁次	-9.07556
恐	-9.07589
調伏	-9.07643
亦然	-9.07752
無邊	-9.07763
難云	-9.07857
三昧	-9.07859
非實	-9.0799
但有	-9.08108
中間	-9.08138
判	-9.08158
三業	-9.08192
緣生	-9.08202
自然	-9.08338
六處	-9.08542
答曰	-9.08591
遍知	-9.08678
此說	-9.08691
二顯果	-9.0873
虛空	-9.08928
當來	-9.09062
自類	-9.09087
而為	-9.091
得生	-9.09152
月	-9.09196
無倒	-9.09258
非無	-9.09264
煩惱障	-9.09293
目	-9.09332
皆得	-9.09366
自身	-9.09369
顯揚	-9.09569
純	-9.09598
二取	-9.09671
初二	-9.0972
謗	-9.0992
亦通	-9.10135
應無	-9.1048
威儀	-9.10493
輪	-9.10505
不信	-9.10677
與彼	-9.10769
自證	-9.10805
舊	-9.10827
隱	-9.10987
別釋	-9.11007
必有	-9.11173
頌曰	-9.11193
能斷	-9.11241
次明	-9.11452
引生	-9.11624
爾時	-9.11707
又解	-9.1185
別故	-9.11869
即名	-9.11874
亦能	-9.11939
比	-9.11971
何等	-9.12002
又復	-9.12108
攝故	-9.12189
所證	-9.12256
生時	-9.12306
無表	-9.1236
景云	-9.124
波羅蜜	-9.12401
如是等	-9.12441
外境	-9.12524
速	-9.12922
四明	-9.13056
大種	-9.13068
後得	-9.13132
捨受	-9.13142
所治	-9.13228
堅	-9.13247
護法	-9.13293
之相	-9.13305
初明	-9.13332
尋求	-9.13442
佛法	-9.13458
上來	-9.13478
之心	-9.13721
名言	-9.13812
金	-9.13935
音	-9.13937
然此	-9.13965
睡眠	-9.14112
正見	-9.1418
增上緣	-9.14247
有學	-9.14323
起故	-9.14455
後三	-9.14466
不捨	-9.14727
殺	-9.14905
此云	-9.14909
或復	-9.15015
不作	-9.1502
薩婆多	-9.15075
此等	-9.15115
無所	-9.15196
三藏	-9.1534
五塵	-9.15595
光明	-9.15659
永	-9.15686
能持	-9.15693
能起	-9.15961
陰	-9.1618
互相	-9.16451
解脫道	-9.16513
二答	-9.16744
身中	-9.16785
力故	-9.1681
無餘	-9.16844
總結	-9.16853
尸羅	-9.16889
遍行	-9.16935
方得	-9.16983
壽	-9.17106
有法	-9.17595
輕安	-9.17685
勝利	-9.17692
作業	-9.17701
常住	-9.17829
彼論	-9.17844
略說	-9.17935
己	-9.18145
過患	-9.18153
一切煩惱	-9.18171
假名	-9.18324
意說	-9.18368
義者	-9.18374
能治	-9.18384
正理	-9.18561
於一切	-9.18602
不放逸	-9.18662
生因	-9.18899
國	-9.1901
偈	-9.19063
正義	-9.19417
無間道	-9.19418
但言	-9.19423
生者	-9.19431
因故	-9.1976
七識	-9.20436
帶	-9.20665
不可得	-9.20722
心法	-9.20782
即有	-9.20812
修慧	-9.2096
後明	-9.20991
地前	-9.2108
命終	-9.21561
託	-9.21567
不可說	-9.21705
利他	-9.2185
為我	-9.21914
得名	-9.21914
色心	-9.2193
初句	-9.22013
佛果	-9.2203
頂	-9.2225
頌中	-9.22266
老死	-9.22318
五者	-9.22461
及與	-9.22475
其心	-9.22478
嗔	-9.22572
慳	-9.22598
又此	-9.22656
坐	-9.22727
垢	-9.22754
一類	-9.22796
訖	-9.22805
能得	-9.22905
招	-9.23012
門中	-9.23103
魔	-9.23119
脫	-9.23145
諍	-9.23165
減	-9.23203
前五	-9.2321
為境	-9.23277
返	-9.23485
准此	-9.23513
況	-9.23623
通三性	-9.23661
說有	-9.23686
一念	-9.23739
此四	-9.23858
且如	-9.24032
阿	-9.24057
總名	-9.24245
何者	-9.24392
而非	-9.24395
闇	-9.24501
伹	-9.24624
靜	-9.24644
中說	-9.24676
同類	-9.24767
惡作	-9.2482
如彼	-9.24995
變易	-9.25031
示現	-9.25084
所熏	-9.25109
為勝	-9.25125
八種	-9.25303
一切有情	-9.25358
法者	-9.25556
本性	-9.25607
所詮	-9.25659
寂	-9.25809
莊嚴	-9.25842
藏識	-9.25988
引發	-9.25992
論中	-9.26171
夢	-9.26175
所緣境	-9.26176
脩	-9.26219
有人	-9.26244
不異	-9.2652
世界	-9.26597
障礙	-9.26736
久	-9.26926
說言	-9.27029
敘	-9.27039
七種	-9.27081
處所	-9.27235
一時	-9.27306
決	-9.27378
若於	-9.27403
樂受	-9.27621
唯說	-9.27686
身心	-9.27795
亦可	-9.27859
懈怠	-9.27898
別相	-9.28189
般涅槃	-9.2833
毀	-9.28408
審	-9.28435
三依	-9.28591
羅漢	-9.28594
仍	-9.2871
苦受	-9.28813
有色	-9.28833
執我	-9.28911
以彼	-9.28978
老	-9.28983
高	-9.28986
故不	-9.29006
能為	-9.29216
惡行	-9.29283
無差別	-9.29319
最後	-9.2947
廣說	-9.29635
由斯	-9.29721
體相	-9.29753
掉舉	-9.29771
等無間緣	-9.29834
論云何	-9.30017
下品	-9.30379
經云	-9.30481
異熟識	-9.30594
而無	-9.30836
後有	-9.30848
年	-9.30923
次釋	-9.30969
能作	-9.30983
此意	-9.31163
衣	-9.31197
伺	-9.31617
智者	-9.31643
唯一	-9.31723
果故	-9.3174
心等	-9.31906
三釋	-9.3209
果報	-9.32177
述	-9.32291
一法	-9.32416
有四種	-9.32485
縱	-9.3259
者是	-9.32645
又如	-9.3271
故非	-9.32754
意根	-9.32857
戲論	-9.32964
歡喜	-9.32992
執著	-9.33042
唯取	-9.33081
獨覺	-9.33122
獲得	-9.33124
長時	-9.33163
四法	-9.33316
於他	-9.33352
父母	-9.33401
行支	-9.33403
業道	-9.33488
擇滅	-9.33543
即以	-9.33621
圓成實	-9.33687
上下	-9.3371
安樂	-9.33723
起時	-9.33817
此釋	-9.33826
無因	-9.33832
最初	-9.33872
悟入	-9.33904
造作	-9.33915
不行	-9.33917
此言	-9.33974
聖者	-9.34254
所顯	-9.34367
而轉	-9.34407
和	-9.34447
所受	-9.34572
後時	-9.34662
防	-9.34746
饒益	-9.3477
惡業	-9.34802
二義	-9.34932
增益	-9.35036
聖人	-9.35047
此定	-9.35057
詞	-9.35079
三寶	-9.35151
皆悉	-9.35174
我所	-9.35665
怨	-9.35743
有體	-9.35959
讚	-9.36058
俱行	-9.36119
眠	-9.3614
道諦	-9.36256
任持	-9.36293
經部	-9.36509
乎	-9.36603
出世間	-9.36609
長養	-9.36612
勝進	-9.36792
無異	-9.36839
自心	-9.36844
今言	-9.36869
領受	-9.36939
六度	-9.37016
相望	-9.37046
賴耶	-9.37119
四相	-9.37221
普	-9.37285
其相	-9.37301
即前	-9.37403
印	-9.37457
化身	-9.3754
調	-9.37596
趣入	-9.37669
而言	-9.377
不違	-9.378
青	-9.38129
依他性	-9.38185
狹	-9.38217
十七	-9.38398
法空	-9.38417
現法	-9.3844
文中	-9.38646
念住	-9.38737
都無	-9.38825
三品	-9.38831
偈曰	-9.38994
怖畏	-9.39057
所斷	-9.39061
所見	-9.39158
如次	-9.3923
契經	-9.39253
斷惑	-9.39393
迦	-9.39412
機	-9.39458
品類	-9.39486
方能	-9.39643
能依	-9.39698
能發	-9.39739
信等	-9.39765
其義	-9.39767
邊際	-9.39787
無體	-9.39971
種生	-9.39975
法爾	-9.39988
非如	-9.40255
沙門	-9.40288
藥	-9.40541
眼根	-9.40546
皆無	-9.4064
三句	-9.40715
制	-9.40828
即無	-9.41004
八地	-9.41042
愚癡	-9.41047
有餘	-9.41113
無想定	-9.41154
謂諸	-9.41164
二云	-9.412
定中	-9.41277
此之	-9.41431
麤重	-9.41506
得果	-9.41508
下文	-9.41551
成實	-9.41632
潤生	-9.41883
非實有	-9.41942
總別	-9.41948
者即是	-9.41984
迴向	-9.4208
欣	-9.42153
樹	-9.42295
三法	-9.42451
徧計	-9.42506
寧	-9.42531
斷煩惱	-9.42534
差別者	-9.42552
有支	-9.42597
性者	-9.42618
非一	-9.42849
此解	-9.42892
于	-9.42917
四緣	-9.43031
諸眾生	-9.43053
思擇	-9.43065
色根	-9.43077
隨逐	-9.43098
》	-9.43139
數數	-9.4322
有其	-9.43374
演曰後	-9.43386
定有	-9.4342
令其	-9.43441
一心	-9.43493
無始	-9.43515
即彼	-9.43529
已生	-9.43533
色蘊	-9.43573
正釋	-9.4369
邪行	-9.43691
色法	-9.43852
慈	-9.4389
像	-9.43964
請	-9.43965
唯在	-9.43975
弟子	-9.44005
金剛	-9.44092
我慢	-9.44213
一總標	-9.4434
十九	-9.44346
配	-9.4444
定心	-9.44447
有六	-9.44521
九品	-9.44583
一處	-9.44734
能證	-9.44818
業果	-9.44823
異熟生	-9.44896
明知	-9.4491
四禪	-9.4504
無知	-9.45084
能感	-9.452
所造	-9.45511
得成	-9.45578
極成	-9.45712
勸	-9.45725
波	-9.45956
為正	-9.46099
無畏	-9.46264
大小	-9.46264
得有	-9.46299
自利	-9.4631
聞思	-9.46389
摩	-9.46426
之人	-9.46476
集諦	-9.46488
尊	-9.46648
而說	-9.46753
二性	-9.46792
計我	-9.46862
業用	-9.46864
昔	-9.46913
寂滅	-9.47038
法體	-9.47057
後念	-9.47072
演曰三	-9.47097
廣釋	-9.47149
暫	-9.47186
問何故	-9.47212
如前說	-9.47278
遇	-9.47443
律	-9.47454
自地	-9.47515
依於	-9.47527
勢	-9.47555
布施	-9.47651
穢	-9.47717
神	-9.47755
滅故	-9.4776
所立	-9.47774
却	-9.4781
不由	-9.47891
一切皆	-9.47931
如文	-9.48017
不是	-9.48018
無染	-9.48062
他心	-9.48166
別境	-9.48227
三受	-9.4828
成佛	-9.48594
積集	-9.48611
身語	-9.48632
此約	-9.48807
隨其所應	-9.48863
謂諸菩薩	-9.48916
實無	-9.49007
熱	-9.49125
體是	-9.49157
佛說	-9.49218
現見	-9.49258
有性	-9.49296
女	-9.49321
所修	-9.49406
有相	-9.4948
受者	-9.49492
怖	-9.49743
轉故	-9.49927
同前	-9.49952
二空	-9.50023
之因	-9.50046
真諦	-9.50198
此名	-9.50253
又於	-9.50265
何得	-9.50289
妄想	-9.50296
是有法	-9.50334
教授	-9.50463
存	-9.50469
故得	-9.50484
身見	-9.50671
別解	-9.50903
是假	-9.50926
如是名為	-9.50935
令彼	-9.50963
圓成	-9.50974
三相	-9.51082
隨轉	-9.51197
九地	-9.51233
若謂	-9.51237
不立	-9.51242
為先	-9.51279
謬	-9.51333
於境	-9.51391
此亦	-9.51445
實性	-9.51462
念念	-9.51463
大菩提	-9.51514
二智	-9.5156
論又	-9.51583
心外	-9.51621
眷屬	-9.51651
如理	-9.51782
續	-9.51806
善業	-9.51819
異故	-9.51824
學處	-9.51868
唯依	-9.51919
耳識	-9.51953
根境	-9.51974
多少	-9.52045
境故	-9.5208
虛妄	-9.52118
未生	-9.52182
出體	-9.52287
首	-9.52359
瑜伽論	-9.52381
此智	-9.52383
功用	-9.52432
前六	-9.52617
前念	-9.5271
藉	-9.52732
棄捨	-9.52779
已下	-9.52814
口	-9.5288
善等	-9.52908
眾苦	-9.52961
那	-9.53024
更不	-9.53081
等持	-9.53181
堅固	-9.5327
二諦	-9.53439
若約	-9.53461
緣境	-9.53505
有一	-9.53554
餘三	-9.53557
一總問	-9.53643
名等	-9.53734
申	-9.53738
體用	-9.53822
法處	-9.53842
簡擇	-9.53937
聽	-9.53947
滅諦	-9.54016
後釋	-9.54048
漸次	-9.54147
與前	-9.54288
妄執	-9.54403
譬	-9.54585
手	-9.5464
荅	-9.54757
終不	-9.54822
領	-9.54908
彼說	-9.54942
既有	-9.54963
淨心	-9.54965
於其	-9.5504
鬼	-9.55061
勝故	-9.55074
海	-9.55233
為令	-9.55238
有十	-9.55239
異類	-9.55263
無盡	-9.55332
二相	-9.55358
傳	-9.55394
明了	-9.55399
夫	-9.55489
是有	-9.55511
見取	-9.55549
二因	-9.55675
見諦	-9.55954
令他	-9.55984
梵	-9.56058
差別故	-9.56065
如下	-9.56067
五明	-9.5607
乃至廣說	-9.56137
不住	-9.56168
憍	-9.5622
此五	-9.56238
長行	-9.56298
如實知	-9.56353
等事	-9.5636
安慧	-9.56469
下劣	-9.565
天眼	-9.56766
及彼	-9.56935
無所有	-9.56941
第一義	-9.57064
謂有	-9.57074
既是	-9.57157
測云	-9.57182
飲食	-9.57227
比丘	-9.57239
授	-9.57244
諸色	-9.57262
有多	-9.57363
有所	-9.57428
導	-9.57797
我今	-9.57823
四依	-9.57907
如來藏	-9.57933
中品	-9.5795
是實	-9.58056
禪定	-9.58165
梵行	-9.58169
何名	-9.58283
慚	-9.58377
推	-9.58391
不了	-9.58395
前七	-9.58666
華	-9.58728
各各	-9.58783
增上果	-9.58795
施等	-9.58937
已說	-9.59085
婆	-9.59107
俱轉	-9.59128
雖復	-9.59145
路	-9.59149
□	-9.59185
說名為	-9.59237
若離	-9.59296
五法	-9.59298
之境	-9.59341
一剎那	-9.59363
獲	-9.59368
法師	-9.59511
如說	-9.59603
不壞	-9.5971
無二	-9.59725
之言	-9.59741
中有二	-9.59802
名曰	-9.59919
疎	-9.59958
從此	-9.60108
為果	-9.60139
乖	-9.60139
六根	-9.60228
宜	-9.60304
止觀	-9.60479
談	-9.60499
假實	-9.60558
貪欲	-9.60595
有對	-9.6072
揔	-9.60823
等至	-9.6093
即於	-9.61036
若以	-9.61153
依彼	-9.61259
懷	-9.61299
恭敬	-9.61312
虗空	-9.61325
隔	-9.6137
名義	-9.61461
四智	-9.61573
更無	-9.61611
悅	-9.61694
亦如	-9.61732
謂依	-9.61738
受持	-9.61758
萬	-9.61781
下明	-9.61791
不攝	-9.61831
此初	-9.62233
別立	-9.62387
事業	-9.62416
七地	-9.62436
可愛	-9.62742
緣故	-9.62835
因者	-9.62882
若是	-9.62966
立名	-9.62969
苾芻	-9.62976
應說	-9.62998
虛	-9.63041
亦如是	-9.63048
漏盡	-9.63078
前說	-9.63155
菩薩摩訶薩	-9.63264
業者	-9.63408
古	-9.63464
已上	-9.63466
分段	-9.63508
或時	-9.63542
生等	-9.63571
於前	-9.63578
分五	-9.63656
有此	-9.63687
初靜慮	-9.63695
煖	-9.63793
周	-9.63861
何不	-9.63887
興	-9.63978
能所	-9.63991
受想	-9.63994
燒	-9.64193
如上	-9.64202
餘識	-9.64316
頭	-9.64364
能成	-9.64469
佛地	-9.64514
斷故	-9.64682
相對	-9.647
信解	-9.64723
業種	-9.64729
奢摩他	-9.6477
前四	-9.64832
斷滅	-9.6493
善趣	-9.64954
是彼	-9.65014
真見道	-9.65143
上二界	-9.65188
意趣	-9.65228
發業	-9.65298
初釋	-9.65421
染汙	-9.65547
為名	-9.65552
姓	-9.65578
又若	-9.65609
一句	-9.65656
引證	-9.65735
是則	-9.65742
置	-9.65747
又說	-9.65862
甚	-9.65895
問云	-9.65914
演曰二釋	-9.65915
觸等	-9.65917
婆羅門	-9.65946
絕	-9.66106
譬喻	-9.66196
勿	-9.66207
嫉	-9.66308
二緣	-9.66337
尼	-9.66367
相見	-9.6643
緣彼	-9.66451
貪瞋癡	-9.66608
染心	-9.66611
憶	-9.66711
有心	-9.66734
有覆	-9.66826
。」【△	-9.66849
忿	-9.6694
到	-9.66953
為二	-9.66971
不通	-9.67085
此依	-9.67109
眾多	-9.67256
十八界	-9.67276
恩	-9.67291
顯了	-9.67321
二禪	-9.67393
而住	-9.67414
心故	-9.67551
當言	-9.67646
皆通	-9.6771
此位	-9.6775
同一	-9.67839
以無	-9.68029
未能	-9.68092
非想	-9.681
有說	-9.68107
皆能	-9.68169
有漏無漏	-9.68202
非餘	-9.68266
善不善	-9.68275
能造	-9.683
▁二	-9.68444
無漏心	-9.68454
如是一切	-9.68477
離繫	-9.68496
為彼	-9.68508
窮	-9.68518
有為法	-9.68564
未斷	-9.6857
後一	-9.68615
不相應行	-9.6869
四義	-9.68796
前師	-9.68897
外人	-9.68903
前中	-9.69062
不害	-9.69085
名字	-9.69115
淨土	-9.6915
隨一	-9.69196
云何為	-9.69199
賢	-9.69225
染法	-9.69231
夜	-9.6935
等流果	-9.69363
無功用	-9.69495
母	-9.69526
俱非	-9.69728
陳	-9.69783
號	-9.6981
斥	-9.69876
識等	-9.6994
親近	-9.70036
憶念	-9.7007
行苦	-9.7013
瓶	-9.70278
間斷	-9.703
滅道	-9.70374
相應故	-9.70375
密	-9.70391
餘處	-9.70501
生長	-9.70604
有五種	-9.70693
無故	-9.70707
總相	-9.70759
掉	-9.70807
善友	-9.70874
非彼	-9.7095
彼宗	-9.70977
養	-9.71038
變壞	-9.71155
心不	-9.71192
云何菩薩	-9.71213
自下	-9.71217
是常	-9.71347
受苦	-9.71348
無生	-9.7137
諸蘊	-9.71461
應有	-9.71478
希望	-9.71555
謂即	-9.71708
實我	-9.71728
一切時	-9.7174
處中	-9.71986
五趣	-9.72008
不受	-9.7208
則無	-9.72085
幻	-9.72159
皆不	-9.72181
無所有處	-9.72342
串習	-9.72466
理實	-9.72519
成滿	-9.72597
演曰二明	-9.72618
及以	-9.72646
法無我	-9.72689
持戒	-9.72693
能入	-9.7271
俱舍	-9.72739
正念	-9.72805
前解	-9.72812
異門	-9.72813
後結	-9.72852
亦名為	-9.72911
廣分別	-9.72933
損害	-9.72965
畏	-9.72968
隨應	-9.72978
一乘	-9.73024
身業	-9.73075
不相離	-9.73101
有分別	-9.73101
雖不	-9.73173
應言	-9.73213
得解脫	-9.73236
雲	-9.73285
等三	-9.7331
猛利	-9.73475
泰云	-9.73482
備	-9.73487
瞋恚	-9.73514
三地	-9.73541
三身	-9.73544
除遣	-9.73561
愛樂	-9.73592
助伴	-9.73616
所發	-9.73661
等法	-9.73825
三學	-9.73875
大師	-9.74023
事故	-9.74053
初解	-9.74195
亦復如是	-9.74222
受等	-9.74275
濁	-9.74348
苦集	-9.74369
愛味	-9.74431
散動	-9.74461
逆	-9.74492
他人	-9.74557
河	-9.7456
於法	-9.74693
無漏種	-9.74895
十力	-9.74955
妨	-9.75016
不變	-9.75047
由有	-9.75209
故今	-9.753
?	-9.75351
謂如有一	-9.75417
阿賴耶	-9.75429
禮	-9.75516
九種	-9.75541
牛	-9.7564
菩薩地	-9.7577
無罪	-9.75833
損減	-9.75867
之識	-9.75878
於一	-9.75953
生得	-9.75955
般	-9.7597
釋中	-9.75992
四蘊	-9.76014
清	-9.76027
必不	-9.76117
諸天	-9.7614
相見道	-9.76163
論師	-9.76181
際	-9.76182
喻如	-9.76222
無作	-9.76242
同異	-9.76309
秘	-9.7638
愛語	-9.76418
隨所	-9.76462
執持	-9.76563
之體	-9.76604
六者	-9.76613
執有	-9.76643
亦緣	-9.76712
謂彼	-9.76716
異相	-9.76736
唯緣	-9.76757
是何	-9.76793
按	-9.76839
此明	-9.76869
勤修	-9.76881
二答分二	-9.76945
何別	-9.76993
士用	-9.77042
為相	-9.77057
而能	-9.7715
守	-9.77205
修多羅	-9.77269
應不	-9.77329
樂欲	-9.77385
於自	-9.77416
今者	-9.77475
當生	-9.77514
能知	-9.77578
許有	-9.77578
等無間	-9.77704
二地	-9.7785
伴	-9.78282
攝者	-9.78347
後際	-9.78415
誑	-9.78436
利根	-9.7854
亦同	-9.7859
分別者	-9.78661
責	-9.78754
據實	-9.78877
即說	-9.78944
他心智	-9.78953
菩提分法	-9.79157
淨信	-9.7917
背	-9.79178
既不	-9.79199
花	-9.79202
傍	-9.79358
若許	-9.79423
眼等識	-9.79495
亦說	-9.79595
方名	-9.79634
二果	-9.79801
思慧	-9.7984
摽	-9.79873
非唯	-9.79908
揀	-9.79939
不染	-9.79996
無貪	-9.80041
五位	-9.80067
體即	-9.80086
不還	-9.80113
一切諸法	-9.80121
生得善	-9.80137
此人	-9.80144
壞苦	-9.80152
意業	-9.80152
有何	-9.80168
住處	-9.80196
入見道	-9.80212
貪愛	-9.80241
功	-9.80282
五地	-9.80429
用故	-9.80473
堪能	-9.80476
專	-9.80477
決擇分	-9.80557
若諸菩薩	-9.80588
有為無為	-9.8061
又彼	-9.80675
無著	-9.80851
不以	-9.80925
初標	-9.80928
別說	-9.81044
可解	-9.81094
含	-9.81117
在家	-9.81152
《	-9.81197
豈不	-9.81227
故不說	-9.81239
答云	-9.8124
又諸菩薩	-9.81261
廣解	-9.81341
滅盡定	-9.81411
下釋	-9.81453
世親	-9.8154
五陰	-9.81577
相分二	-9.81578
得定	-9.81598
率爾	-9.81709
或說	-9.81818
偈言	-9.81829
無願	-9.81859
盛	-9.81952
無用	-9.81954
果者	-9.81975
無記性	-9.82003
無癡	-9.82064
慈悲	-9.82071
義分二	-9.82115
唯除	-9.82125
聞慧	-9.82155
教法	-9.82292
南	-9.82488
真俗	-9.82495
作者	-9.82571
善染	-9.82622
諸地	-9.82887
也言	-9.82963
故說為	-9.83007
論復次	-9.83194
餘二	-9.83198
是名菩薩	-9.8325
後解	-9.83294
有二義	-9.83351
不相違	-9.83431
先明	-9.83442
都	-9.83517
諸欲	-9.83538
慚愧	-9.83545
准知	-9.83625
殺生	-9.83675
不失	-9.83677
智力	-9.8368
中初	-9.83783
諸論	-9.8383
面	-9.83836
雨	-9.83838
留	-9.83889
體非	-9.83963
離識	-9.83996
雜集	-9.83997
修學	-9.84011
失念	-9.84047
三慧	-9.84102
人中	-9.84106
諸業	-9.84182
全無	-9.84187
▁【	-9.84251
為證	-9.84314
三事	-9.84385
或由	-9.84404
鼻	-9.84467
非常	-9.84478
斷除	-9.84517
睡	-9.84542
捨離	-9.84563
衰	-9.84576
舍	-9.84684
一切智	-9.84944
第四禪	-9.85035
識所變	-9.85127
此據	-9.85178
所明	-9.85184
心心所法	-9.85268
段食	-9.85438
發生	-9.85448
有差別	-9.85483
十方	-9.85487
三門	-9.85583
相狀	-9.85596
持種	-9.85607
變似	-9.85617
非擇滅	-9.85633
變化身	-9.85643
虗	-9.85657
無法	-9.85701
苦苦	-9.85872
利樂	-9.86015
之果	-9.86056
焰	-9.86095
若在	-9.86104
三位	-9.86153
此顯	-9.86154
非理	-9.86336
苦根	-9.86346
義也	-9.86394
▁三	-9.86403
所依止	-9.86427
心生	-9.8649
別名	-9.86502
猛	-9.86506
本來	-9.86548
從彼	-9.86591
痴	-9.86698
是實有	-9.86749
林	-9.86762
鈍	-9.86785
即約	-9.86812
勇猛	-9.86835
法相	-9.86895
个	-9.86963
希	-9.87003
生處	-9.87041
彼彼	-9.87045
如實了知	-9.87072
經言	-9.87185
勝處	-9.87198
供	-9.87278
心中	-9.87291
又有	-9.87296
下界	-9.87331
所現	-9.87372
因云	-9.87458
行蘊	-9.87498
或於	-9.87519
慮	-9.87538
現在前	-9.87574
無上菩提	-9.87594
修惑	-9.87658
一切行	-9.87712
為顯	-9.87765
同體	-9.87774
百法	-9.87848
生老死	-9.87935
致	-9.87968
旨	-9.87981
記別	-9.88117
見所斷	-9.88151
善男子	-9.88237
無瞋	-9.88313
即得	-9.88318
三心	-9.88361
大地	-9.88408
等四	-9.88423
根塵	-9.88457
等起	-9.88487
說之為	-9.88533
十因	-9.88575
城	-9.88589
憂苦	-9.88617
運	-9.88684
此下	-9.88711
不思議	-9.88718
十六心	-9.88826
實等	-9.88907
無為法	-9.88934
執為	-9.88999
皆同	-9.89063
十二支	-9.8921
準	-9.89253
於餘	-9.89267
如法	-9.89268
工巧	-9.89289
不俱	-9.8935
云何名為	-9.8936
性相	-9.89406
計度	-9.89423
在於	-9.89426
梵王	-9.89476
語言	-9.89562
集論	-9.89699
以明	-9.89887
雖是	-9.89915
無覆無記	-9.89928
疾	-9.89954
行故	-9.8997
後起	-9.89986
短	-9.9002
提	-9.90024
第六意識	-9.90056
最極	-9.90068
聲聞乘	-9.90077
密意	-9.90142
未至	-9.90296
二解	-9.90301
後後	-9.90309
毒	-9.90325
餘四	-9.90374
勞	-9.90432
色身	-9.90439
詳曰	-9.90501
何義	-9.90588
意地	-9.90597
不正知	-9.90737
得起	-9.90821
地等	-9.90843
論言	-9.90856
異生性	-9.90899
了義	-9.90904
諸有	-9.90956
局	-9.90971
無想天	-9.90978
一味	-9.91027
愧	-9.91061
諸惡	-9.91116
勝義諦	-9.9114
為三	-9.91143
憂根	-9.91172
於所	-9.91298
不可思議	-9.91307
種現	-9.91397
身根	-9.91406
二執	-9.9141
新熏	-9.91521
所觀	-9.91522
然後	-9.91522
非色	-9.91531
四分	-9.91579
迴心	-9.91634
法門	-9.91696
入定	-9.91742
只	-9.91824
徧行	-9.91892
皆依	-9.91952
開導	-9.92059
抄	-9.92072
患	-9.92106
黑	-9.92111
既言	-9.92131
二句	-9.92166
此地	-9.92241
越	-9.92306
增上力故	-9.92352
鏡	-9.92378
諸相	-9.92403
四十	-9.92411
於現法中	-9.9247
餘法	-9.92481
正思惟	-9.92518
滅盡	-9.92528
頌云	-9.92691
無礙解	-9.92722
法智	-9.92729
是無漏	-9.92806
前際	-9.92845
諸佛菩薩	-9.92959
及餘	-9.93073
□□	-9.93137
得自在	-9.93199
薩迦耶見	-9.93214
無實	-9.93219
退失	-9.93229
異名	-9.9328
五色根	-9.9331
根本智	-9.93389
單	-9.93435
不如	-9.93441
不正	-9.93657
以是	-9.937
楞伽	-9.93721
由前	-9.93772
棄	-9.93789
陀	-9.93803
正知	-9.93812
初問	-9.93843
經論	-9.93852
但名	-9.93899
芽	-9.93973
共許	-9.93982
何故不	-9.94011
引起	-9.94079
令不	-9.9421
奪	-9.94244
希求	-9.94317
隨念	-9.94336
分齊	-9.94426
太	-9.94432
毘曇	-9.9447
次說	-9.94524
當知亦爾	-9.94565
不復	-9.94574
說彼	-9.9459
石	-9.94616
巳上	-9.94711
逼	-9.94715
離諸	-9.94812
應名	-9.94823
勘	-9.94951
若菩薩	-9.95017
恚	-9.95026
以上	-9.95029
以有	-9.95115
不待	-9.95139
二識	-9.9521
別報	-9.95248
勝劣	-9.95258
若說	-9.95267
盡故	-9.95449
如餘	-9.95456
之處	-9.9556
有頂	-9.95617
引經	-9.95656
不應理	-9.95667
猒	-9.95676
能伏	-9.95709
次辨	-9.95842
體故	-9.95847
其體	-9.95871
拔	-9.95872
謂若	-9.9588
三義	-9.95972
是善	-9.96159
恨	-9.96344
是我	-9.96359
為主	-9.96366
更有	-9.9642
方起	-9.9648
當知此	-9.96501
依持	-9.96547
田	-9.9655
端	-9.96565
凡聖	-9.96698
當知此中	-9.96751
亡	-9.96851
有七	-9.9688
生空	-9.96934
其實	-9.96948
等是	-9.96971
准前	-9.97115
愛取	-9.97175
一境	-9.97195
如實智	-9.97203
此法	-9.97246
第二解	-9.97355
諸見	-9.97404
五果	-9.97507
世諦	-9.97575
能除	-9.97579
何須	-9.97641
一釋	-9.9767
言無	-9.97704
第四靜慮	-9.97707
等說	-9.97709
非謂	-9.97721
等取	-9.97723
破云	-9.97808
有我	-9.97877
聚集	-9.98013
哉	-9.98018
又由	-9.98045
結前	-9.98057
即能	-9.98065
歸依	-9.98093
如人	-9.98229
改	-9.98386
任	-9.98386
類智	-9.98415
大論	-9.98432
猶未	-9.9848
有實	-9.9851
實法	-9.9855
二略答	-9.98569
演曰四	-9.98576
淺	-9.98609
界地	-9.98627
男	-9.98684
一切處	-9.98684
義利	-9.98707
邊見	-9.98801
為他	-9.98806
推求	-9.98813
不盡	-9.98819
名身	-9.98841
可說	-9.98909
無顛倒	-9.99077
成唯識	-9.99087
列名	-9.99087
別義	-9.99122
則是	-9.99135
二別釋	-9.99137
二別	-9.99317
中有三	-9.99319
不遍	-9.99338
演曰	-9.99424
亦不相違	-9.99482
分明	-9.99553
無漏種子	-9.99632
如其次第	-9.99641
為所緣	-9.99653
所化	-9.99663
此則	-9.99748
滿足	-9.99823
擇	-10
十地菩薩	-10.0002
修集	-10.0002
文義	-10.0016
則不	-10.0016
舌	-10.0022
能了	-10.0028
防護	-10.0032
近分	-10.0037
三分	-10.0039
差	-10.0042
受熏	-10.0052
菩薩於	-10.0052
士用果	-10.0056
有兩	-10.0057
佛身	-10.0057
廣明	-10.0062
名無	-10.0064
非真	-10.0065
本無	-10.0068
定慧	-10.007
毘鉢舍那	-10.0074
眼耳	-10.0078
欲令	-10.0087
相貌	-10.0087
由是	-10.0093
非量	-10.0097
涅槃經	-10.0102
士夫	-10.0106
俗諦	-10.0133
色處	-10.0138
得入	-10.014
契	-10.0142
基	-10.0149
復說	-10.0151
既爾	-10.0153
父	-10.0157
精	-10.016
分別性	-10.0161
平等性智	-10.0168
最上	-10.0174
於中有二	-10.0176
初果	-10.0181
今初	-10.0182
解了	-10.0185
障故	-10.0188
那落迦	-10.0189
見斷	-10.0191
體者	-10.0202
應如	-10.0203
不善業	-10.0205
二邊	-10.0207
此十	-10.0208
何以	-10.0218
何等為	-10.0218
唯有識	-10.0224
沙	-10.0228
七八	-10.0232
何處	-10.0236
難行	-10.0244
現識	-10.0258
所計	-10.0268
大眾	-10.0271
總說	-10.0271
欲等	-10.0277
修斷	-10.0285
相縛	-10.0286
以辨	-10.0286
識體	-10.0294
是一	-10.0299
之上	-10.0301
內身	-10.0302
不還果	-10.0306
黃	-10.0307
愚夫	-10.0308
但以	-10.0313
一由	-10.0314
未至定	-10.0315
此師	-10.0319
唯識性	-10.032
後生	-10.0327
誠	-10.0332
問若	-10.0337
有八	-10.0338
不相	-10.0338
依何	-10.0346
如是等類	-10.0351
從他	-10.0363
我我所	-10.0365
惡道	-10.0369
受戒	-10.0377
說此	-10.038
修所斷	-10.0381
謂從	-10.0382
莫	-10.0391
何所	-10.0392
六地	-10.0397
不成就	-10.04
頓斷	-10.0403
智障	-10.041
譯	-10.041
即便	-10.0413
二門	-10.0418
一立	-10.0421
等相	-10.0423
悔眠	-10.0423
他身	-10.0424
三禪	-10.0426
因位	-10.0439
戒取	-10.044
因相	-10.044
識支	-10.0453
不滅	-10.0461
倍	-10.0461
遍滿	-10.0463
為所依	-10.0471
所應	-10.0473
俱是	-10.0474
義別	-10.0474
能正	-10.0478
為難	-10.0489
四釋	-10.0492
百千	-10.0494
六七	-10.0495
不約	-10.0499
出定	-10.0499
內識	-10.0506
識變	-10.0508
瑜伽云	-10.0511
取境	-10.0514
唯無記	-10.0514
伽	-10.0519
開示	-10.0526
是無	-10.0526
增上慢	-10.0531
受俱	-10.0531
積	-10.0533
不具	-10.0537
加行道	-10.0547
聞熏習	-10.0549
方生	-10.055
等諸	-10.055
境相	-10.0552
總標	-10.0553
財物	-10.0554
義中	-10.0559
非法	-10.0566
毀犯	-10.057
羯磨	-10.0574
二十二	-10.0576
根本定	-10.058
偏說	-10.0585
欲貪	-10.059
散心	-10.0594
隨義	-10.0597
大乘中	-10.0605
六波羅蜜	-10.0611
堪	-10.0612
初起	-10.0612
利行	-10.0614
平	-10.0624
多聞	-10.0625
昧	-10.0629
宮	-10.063
音聲	-10.0635
得清淨	-10.0643
然彼	-10.0644
變為	-10.0652
無垢	-10.0655
亦復	-10.066
領納	-10.066
或可	-10.067
中無	-10.0672
麁細	-10.0677
合為	-10.068
之理	-10.0683
繁	-10.0684
如是如是	-10.0702
為因緣	-10.0709
忿等	-10.0709
辭	-10.0717
夢中	-10.0723
一人	-10.0724
識中	-10.0726
立為	-10.073
聽聞	-10.0731
錯	-10.0743
或依	-10.0747
正因	-10.0757
內心	-10.0763
二定	-10.0766
若據	-10.0768
呪	-10.0775
一異	-10.0778
之智	-10.0787
攝大乘	-10.0788
一識	-10.0796
不可言	-10.0798
無失	-10.0804
葉	-10.0809
如對法	-10.081
初中	-10.0818
止息	-10.0821
熏種	-10.0824
名有	-10.0825
是有漏	-10.0826
一體	-10.083
有執	-10.0855
薰	-10.0855
更互	-10.0857
菩薩藏	-10.0858
諸外道	-10.0868
毘奈耶	-10.0869
不可得故	-10.0875
俱有依	-10.0875
此難	-10.0881
前五識	-10.0886
故立	-10.0887
龍	-10.0892
災	-10.0893
去來	-10.0894
後方	-10.0904
實義	-10.0907
過未	-10.0908
可見	-10.0912
四地	-10.0915
測	-10.0917
第二明	-10.0927
超越	-10.0931
未有	-10.0932
初總	-10.0938
十二處	-10.0942
能見	-10.0954
婆沙	-10.0959
憎	-10.0962
受用身	-10.0962
作如是	-10.0962
意言	-10.0966
事者	-10.0967
金剛心	-10.0969
釋成	-10.0975
同緣	-10.0977
二位	-10.098
珠	-10.0992
欲界繫	-10.0997
苦行	-10.0999
即顯	-10.1002
即通	-10.1003
雜亂	-10.1007
於欲界	-10.1012
何法	-10.1019
離染	-10.1021
嚴	-10.1024
無義	-10.103
阿梨耶識	-10.1032
起者	-10.1036
五十五	-10.1038
厭離	-10.1043
具有	-10.1045
為說	-10.1048
有漏心	-10.1051
迹	-10.1052
濫	-10.1066
定異	-10.1069
第四句	-10.1073
外緣	-10.108
故須	-10.1081
煩	-10.1084
疏中	-10.1088
以其	-10.1092
所由	-10.1099
一頌	-10.1104
既非	-10.1118
臣	-10.1118
不別	-10.1127
與果	-10.1131
士	-10.1133
種子生	-10.1134
趣向	-10.1136
隨其	-10.1155
今說	-10.116
離言	-10.1164
心所法	-10.1165
眾同分	-10.1165
第二師	-10.1183
言論	-10.1186
清涼	-10.1189
由此因緣	-10.1194
生彼	-10.1209
所繫	-10.1211
後之	-10.1216
善品	-10.1218
中道	-10.1218
蘊等	-10.1218
智故	-10.1225
五取蘊	-10.1228
色心等	-10.1228
宿	-10.1229
不離識	-10.1231
世第一法	-10.1232
第三明	-10.1234
破壞	-10.1239
不障	-10.1244
緣縛	-10.1244
增減	-10.1246
五相	-10.1247
事中	-10.1249
二釋分二	-10.1252
即應	-10.1255
造色	-10.126
若緣	-10.1261
演曰後釋	-10.1262
今解	-10.1263
分二如論	-10.1272
於內	-10.1283
巳後	-10.1285
無慚	-10.1286
緣覺	-10.1289
及諸	-10.1292
若唯	-10.1298
斷障	-10.1301
身等	-10.1312
妄語	-10.1316
一切種子	-10.1322
其名	-10.1327
作是說	-10.1333
初三	-10.1336
天親	-10.134
無餘依	-10.1341
假法	-10.1343
」【	-10.1344
氣	-10.1348
科	-10.1349
已斷	-10.1349
繫屬	-10.135
論如是	-10.135
未盡	-10.1353
觀行	-10.1356
前六識	-10.1356
其餘	-10.1371
毘	-10.1372
同事	-10.1378
通名	-10.138
西方	-10.1387
肉	-10.1391
二字	-10.1392
為四	-10.1396
色無色	-10.1399
正勤	-10.14
趣生	-10.141
攝持	-10.1411
五事	-10.1415
見者	-10.142
唯有漏	-10.142
眾緣	-10.1426
之業	-10.1431
語業	-10.1435
毛	-10.1436
若生	-10.1441
難陀	-10.1441
二俱	-10.145
無違	-10.1455
方成	-10.1459
共有	-10.146
玄	-10.1465
臥	-10.1466
立量云	-10.1471
骨	-10.1471
滅相	-10.1474
皆具	-10.1478
中所有	-10.148
果位	-10.1488
通前	-10.1492
出生	-10.1493
攝論云	-10.1493
妄計	-10.1494
無漏法	-10.1495
暗	-10.1502
補遺	-10.1502
以前	-10.1503
未知	-10.1504
但由	-10.1511
依他起性	-10.1512
由如	-10.1514
業力	-10.1515
未必	-10.1526
應是	-10.1535
隨彼	-10.1537
為對治	-10.1538
之事	-10.1538
欲界中	-10.154
善性	-10.1545
有漏善	-10.1549
限	-10.1552
不須	-10.1553
識種	-10.1554
法也	-10.1556
惟	-10.1557
種故	-10.1561
有力	-10.1565
法華	-10.1565
覺支	-10.1573
即為	-10.1575
即如	-10.1575
之名	-10.1578
總是	-10.1582
欲樂	-10.1582
死生	-10.1591
故成	-10.1591
詳	-10.1595
佛菩薩	-10.1596
於諸有情	-10.1598
染著	-10.1601
非定	-10.1608
淨戒	-10.1608
無常等	-10.1614
是因緣	-10.1615
四行	-10.1615
結成	-10.1616
前文	-10.162
男女	-10.1621
或為	-10.1626
番	-10.1627
是菩薩	-10.1628
自性身	-10.1629
勝行	-10.163
如幻	-10.1635
後別	-10.1637
曲	-10.1638
非不	-10.164
有云	-10.1641
為喻	-10.1652
二見	-10.1664
奉	-10.1665
五門	-10.1666
善知	-10.1666
地持	-10.1677
因也	-10.1678
大等	-10.1687
一義	-10.1688
演曰十	-10.1691
七日	-10.1695
毗	-10.1699
詰	-10.1701
以下	-10.1705
漏無漏	-10.1714
生已	-10.1724
胎	-10.1724
彼經	-10.1726
恃	-10.1729
象	-10.1732
初一	-10.174
義曰	-10.1754
定力	-10.1759
於佛	-10.1759
已後	-10.1771
三緣	-10.1775
;	-10.1777
世出世	-10.1778
鈍根	-10.1781
合響	-10.1784
薄	-10.1804
常見	-10.1804
作此	-10.1805
何緣	-10.1806
乳	-10.1809
正明	-10.181
果相	-10.181
濕	-10.1814
見等	-10.1815
化生	-10.1817
非福	-10.1818
身土	-10.182
諸善	-10.182
又問	-10.1826
造業	-10.1827
器世間	-10.1829
徒	-10.1831
是無常	-10.1831
應成	-10.1835
不律儀	-10.1836
車	-10.1836
巧	-10.1842
缺	-10.1847
無覆	-10.1848
色無色界	-10.1849
一期	-10.1855
為斷	-10.1856
謂能	-10.1856
於後	-10.1859
隨惑	-10.1859
因緣故	-10.1861
歷	-10.1862
亦云	-10.1863
所依處	-10.1866
相好	-10.187
方便善巧	-10.1871
五見	-10.1872
即於此	-10.1872
勇	-10.1872
果也	-10.1881
無記法	-10.1885
經中說	-10.1888
繫縛	-10.1891
為其	-10.1891
迴	-10.1892
此事	-10.1892
持業釋	-10.1893
連	-10.19
入滅定	-10.1901
威德	-10.1905
守護	-10.1906
隨緣	-10.1906
六明	-10.1907
定無	-10.1913
正受	-10.1914
義說	-10.1914
俱故	-10.1919
一身	-10.192
第二句	-10.1924
損惱	-10.1927
受樂	-10.1932
雖非	-10.1933
獨行	-10.1937
生苦	-10.1938
空性	-10.1944
親生	-10.1948
彼天	-10.1959
明其	-10.196
不自在	-10.1965
永滅	-10.1965
何況	-10.1965
世俗智	-10.1967
而行	-10.1974
身者	-10.1975
餓鬼	-10.1975
或是	-10.1976
生起因	-10.1979
容有	-10.1993
若人	-10.2006
菩薩戒	-10.2009
在定	-10.2011
有因	-10.2018
如理作意	-10.2018
成辦	-10.2021
論解	-10.2023
若彼	-10.2028
超過	-10.2032
理故	-10.2035
世間道	-10.2039
皆由	-10.204
一相	-10.204
心起	-10.2042
如論	-10.2048
次就	-10.205
有餘依	-10.2051
六行	-10.2051
惡見	-10.2052
無別體	-10.2052
犯戒	-10.2059
餘人	-10.2062
三根	-10.2068
相生	-10.2071
身識	-10.2073
策	-10.2078
若不爾者	-10.2102
令得	-10.2102
積聚	-10.2109
識蘊	-10.2118
與此	-10.2118
不假	-10.2119
為例	-10.2126
中亦有	-10.2127
不平等	-10.2132
所依為業	-10.2136
緣真如	-10.2142
通二	-10.2142
得大	-10.2144
文分為二先	-10.2144
身口	-10.2146
平等智	-10.2147
有漏法	-10.2149
觀心	-10.2151
預流	-10.2155
合說	-10.2156
五支	-10.2157
六塵	-10.2165
唯言	-10.2169
未起	-10.2169
有六種	-10.217
那含	-10.2172
成唯識論	-10.2175
適	-10.2178
五識中	-10.2179
世俗有	-10.2192
既許	-10.2197
觀待	-10.2198
恒行	-10.2198
巳下	-10.2199
正解	-10.2206
理趣	-10.221
第三句	-10.2213
非我	-10.2219
真實性	-10.2223
正斷	-10.2233
造論	-10.2236
真實義	-10.2249
諸受	-10.225
謂前	-10.2253
無漏智	-10.2257
以顯	-10.2259
親緣	-10.227
與此相違	-10.2284
利益安樂	-10.229
為本	-10.231
誓	-10.2314
權	-10.232
餘皆	-10.2321
五十八	-10.2326
別明	-10.2328
利養	-10.2333
云何名	-10.2334
形色	-10.2338
也問	-10.2345
彼云	-10.235
三苦	-10.2352
三和	-10.2352
加行位	-10.2353
如何得	-10.2355
唯心	-10.2357
彼地	-10.2367
能執受	-10.2369
住持	-10.237
乃是	-10.2373
青等	-10.2376
心無	-10.2379
書	-10.2382
即不	-10.2385
法義	-10.2392
聖諦	-10.2393
速疾	-10.2395
當知是名	-10.2395
異熟心	-10.2396
能對治	-10.2398
必依	-10.2398
即依	-10.2398
識住	-10.2404
分三如論	-10.2408
狀	-10.241
乞	-10.2411
通無漏	-10.2411
出世道	-10.2417
客	-10.2419
遍處	-10.2419
由是因緣	-10.2424
離心	-10.2439
第十一	-10.2443
諸惑	-10.2445
各異	-10.245
假有	-10.2453
四無量	-10.2455
諂	-10.2455
此中有	-10.2455
稍	-10.2458
無自性	-10.246
七者	-10.2461
處非處	-10.2465
善惡業	-10.2467
非情	-10.2471
分為二	-10.2474
相應者	-10.2475
既云	-10.2483
何妨	-10.2486
廢	-10.2487
至名	-10.2493
所學	-10.2493
癡分	-10.2496
馬	-10.2497
猶豫	-10.2501
五境	-10.252
惣	-10.2525
相應法	-10.2528
有覆無記	-10.2528
不隨	-10.2531
久住	-10.2532
冥	-10.254
為增上緣	-10.2545
草	-10.2551
微妙	-10.2551
彼計	-10.2553
不共無明	-10.2555
能受	-10.2558
作證	-10.2565
丈夫	-10.2567
別破	-10.2568
便能	-10.257
不現	-10.2574
色相	-10.2579
了達	-10.2582
有大	-10.2588
修善	-10.2589
緣者	-10.2597
飲	-10.2602
而作	-10.2602
滅時	-10.2604
作法	-10.2611
為論	-10.2621
有三義	-10.2622
等覺	-10.2629
佛地論	-10.263
勝進道	-10.2631
料簡	-10.264
自分	-10.264
住者	-10.2642
十信	-10.2647
今依	-10.2649
不繫	-10.2654
經部師	-10.2654
由於	-10.2655
中云	-10.2656
未證	-10.2656
難知	-10.2661
四果	-10.2661
略有二種	-10.2665
香味	-10.2672
威力	-10.268
行施	-10.2683
聖智	-10.2685
身命	-10.2686
順決擇分	-10.2695
下結	-10.2699
不得名	-10.2703
如前所說	-10.2704
悉皆	-10.2708
演曰後明	-10.271
餘如前說	-10.2713
次句	-10.2723
我愛	-10.2728
還滅	-10.2735
謂一切	-10.2736
修定	-10.2739
四惑	-10.2744
一生	-10.2746
即取	-10.2747
六識中	-10.2748
斷常	-10.275
此上	-10.275
因明	-10.2752
蛇	-10.2752
沉	-10.2753
相中	-10.2774
聞法	-10.278
別緣	-10.2784
虛妄分別	-10.2787
資具	-10.2787
訶	-10.2787
福德	-10.2788
生果	-10.2793
五依	-10.2793
引因	-10.2794
彼果	-10.2799
巳得	-10.2803
不從	-10.2806
師云	-10.2812
豈非	-10.2821
通三界	-10.2821
無窮	-10.2825
圓成實性	-10.2826
傍生	-10.2838
可言	-10.284
初發心	-10.2842
聲等	-10.2849
增勝	-10.2851
是無記	-10.2852
此處	-10.2853
中邊	-10.2856
言教	-10.2862
而立	-10.2864
似彼	-10.2865
自下第二	-10.2871
不自	-10.2871
如文可知	-10.2871
但依	-10.2874
貪瞋	-10.2878
猶有	-10.2878
得涅槃	-10.2879
不解	-10.2881
不實	-10.2881
同處	-10.2882
何失	-10.2883
陀羅尼	-10.2888
撥	-10.2903
五欲	-10.2906
方有	-10.2906
二十四	-10.2909
十法	-10.2911
疑惑	-10.2927
云何得	-10.2932
十地中	-10.2936
成所作智	-10.2936
一門	-10.2938
自性差別	-10.2941
難可	-10.2945
所為	-10.2949
我故	-10.2951
多種	-10.2966
迷理	-10.2968
亦依	-10.2979
修治	-10.2981
教理	-10.2987
不犯	-10.299
如疏	-10.2997
三時	-10.2997
不著	-10.3009
美	-10.3009
之性	-10.301
貪著	-10.3018
後四	-10.3021
二由	-10.3025
所緣故	-10.3025
徧計所執	-10.3031
佛土	-10.3033
為有	-10.3038
後智	-10.3052
前之	-10.3054
懃	-10.3055
亦為	-10.3061
便違	-10.3063
違犯	-10.3064
與識	-10.3065
論問	-10.3065
定地	-10.3066
所求	-10.3071
業感	-10.3071
地上	-10.3072
合為一	-10.3073
生後	-10.3086
不空	-10.3088
髮	-10.3093
牽引	-10.3094
麤細	-10.3102
應當	-10.311
真異熟	-10.3115
空理	-10.3117
有差別故	-10.3122
惠施	-10.3125
王所	-10.3125
熏成	-10.3127
心住	-10.3133
我當	-10.3137
願力	-10.3137
分中	-10.3141
牽	-10.3141
經文	-10.3143
梵云	-10.3143
則應	-10.3144
能引發	-10.3149
牒前	-10.315
總緣	-10.3153
無過	-10.3155
戲	-10.318
卷云	-10.3183
生上	-10.3187
二支	-10.3187
相違故	-10.3191
名句文	-10.3195
弱	-10.3202
心行	-10.3206
洲	-10.3207
住中	-10.3207
持業	-10.321
誦	-10.3211
一个	-10.3213
無記心	-10.3214
同故	-10.3215
別體	-10.3216
如夢	-10.3217
緣此	-10.3218
見修	-10.3218
遊	-10.322
虗妄	-10.3224
有九	-10.3224
聲聞獨覺	-10.3228
聞聲	-10.3231
根本煩惱	-10.3235
釋論	-10.3239
八者	-10.3246
自種	-10.3253
二界	-10.326
未來世	-10.3261
通緣	-10.3261
識之	-10.3262
大造	-10.3263
之身	-10.327
中有四	-10.3271
佛世尊	-10.3271
如所	-10.3273
施與	-10.3276
皆非	-10.3276
不樂	-10.3281
自性清淨	-10.3282
逼迫	-10.3282
他受用	-10.3284
第	-10.3286
但為	-10.3295
證真如	-10.3296
學無學	-10.3296
言之	-10.3304
能招	-10.3307
不論	-10.3309
壽量	-10.331
▁「	-10.3311
合成	-10.3321
皮	-10.3322
菩提心	-10.3332
鄣	-10.3333
別也	-10.3342
沈	-10.3342
有用	-10.3343
品中	-10.3344
遍計所執自性	-10.3352
由他	-10.3356
汎	-10.3356
錄	-10.3357
禁戒	-10.3369
相分三	-10.3374
演曰後荅	-10.338
念處	-10.3382
受果	-10.3386
二乘人	-10.3388
違理	-10.3389
大願	-10.3393
性淨	-10.3393
第六識中	-10.3395
儀	-10.3397
生於	-10.3398
僧祇	-10.3398
有十種	-10.3403
能與	-10.3403
發菩提心	-10.3413
於苦	-10.3425
救云	-10.3427
惛沉	-10.3432
別者	-10.3435
識者	-10.3437
木	-10.3442
自有	-10.3442
如水	-10.3442
覺觀	-10.345
如意	-10.3454
演	-10.3458
論本	-10.3458
不轉	-10.3458
謝	-10.3462
以理	-10.3463
無心定	-10.3464
五因	-10.3469
不定過	-10.3472
忘念	-10.3478
能現	-10.3482
四門	-10.3482
但緣	-10.3482
名意	-10.3484
此二種	-10.3486
分四如論	-10.3489
能顯	-10.3491
熏成種	-10.3491
一一皆	-10.3494
不善性	-10.3497
令生	-10.3502
勝定	-10.3507
頌言	-10.3511
於一切法	-10.3511
釋此初也	-10.3513
若由	-10.3518
軟	-10.3518
因生	-10.3538
惡法	-10.354
淨法	-10.3549
斷見	-10.355
無諍	-10.3555
文分為二初	-10.3557
緣義	-10.3559
北	-10.3561
聞思修	-10.3571
如其所應	-10.3573
開合	-10.3576
此為	-10.3579
分別起	-10.3586
悶絕	-10.3594
阿毘達磨	-10.3599
七支	-10.3599
斷者	-10.3599
寄	-10.3602
莊嚴論	-10.3602
生相	-10.3604
俱無	-10.3608
空無我	-10.3609
於身	-10.361
則有	-10.3615
先所	-10.3615
皆應	-10.3619
不可知	-10.3621
便有	-10.3622
過去世	-10.3625
難曰	-10.3628
有苦	-10.3633
攝取	-10.3635
已去	-10.3635
底	-10.3637
杖	-10.3637
苦果	-10.3637
擊	-10.3637
仗	-10.3645
問此	-10.3651
聲聞緣覺	-10.3653
二十五	-10.3654
阿含	-10.3654
疎所緣緣	-10.3656
無漏道	-10.3659
數習	-10.3664
六句	-10.3667
非所斷	-10.3669
深生	-10.3669
演曰三明	-10.367
時分	-10.3677
避	-10.3679
地獄中	-10.368
後果	-10.3684
消	-10.3685
處處	-10.3693
相屬	-10.3694
師子	-10.3697
演曰三釋	-10.3706
便成	-10.3706
菩薩行	-10.3712
意顯	-10.3712
演曰五	-10.3713
異者	-10.3714
內法	-10.3723
酬	-10.3727
無不	-10.3731
唯無漏	-10.3734
應云	-10.3735
後說	-10.3736
但約	-10.3738
堅住	-10.3742
檀	-10.3747
總聚	-10.3751
忘	-10.3757
總報	-10.376
根等	-10.376
隣近	-10.3764
之外	-10.3767
次約	-10.3767
外色	-10.3769
能觀	-10.3784
但取	-10.3795
隨心	-10.3799
借	-10.3799
彌勒	-10.38
後辯	-10.3801
無始時來	-10.3801
白法	-10.3804
大乘法中	-10.3805
赤	-10.3807
□□□	-10.3809
是苦	-10.3809
一切世間	-10.3813
高舉	-10.3814
律儀戒	-10.3816
無對	-10.3817
此復	-10.3824
便無	-10.3833
如如	-10.3837
斷彼	-10.3839
有時	-10.384
究	-10.3841
並生	-10.3842
自利利他	-10.3853
簡別	-10.3869
中攝	-10.3869
執取	-10.387
福業	-10.387
諦理	-10.3871
若諸	-10.3877
為除	-10.3882
現法樂住	-10.3883
等皆	-10.3886
便生	-10.3889
有部	-10.3889
憐愍	-10.3892
三十	-10.3893
無心位	-10.3897
無所得	-10.39
必無	-10.3902
安立諦	-10.3904
文分為二	-10.3905
華嚴	-10.3909
數滅	-10.3912
離垢	-10.3914
切	-10.3915
上立	-10.3915
歲	-10.3923
故稱	-10.3924
瑜伽師地論	-10.3924
無明支	-10.3926
竝	-10.3927
寬狹	-10.3931
他宗	-10.3944
二十三	-10.3948
未曾	-10.3951
不求	-10.3955
復言	-10.3963
薩	-10.3967
殘	-10.3968
即與	-10.3971
俱者	-10.3974
今時	-10.3978
第十地	-10.3982
是識	-10.3993
於我	-10.3994
種子故	-10.3995
諸善法	-10.4
異地	-10.4003
三別釋	-10.4006
節	-10.4009
顯揚論	-10.4011
彼定	-10.4012
云何應知	-10.4018
初師	-10.4021
分位差別	-10.4021
壽命	-10.4022
四塵	-10.4022
廢立	-10.4023
喜足	-10.4023
非正	-10.4026
之用	-10.4028
所作事	-10.4033
六釋	-10.4036
折	-10.4038
安隱	-10.404
定性	-10.4045
於心	-10.4047
彼文	-10.405
圓滿故	-10.4052
無此	-10.4053
覺知	-10.4053
呼	-10.4054
心一境性	-10.4056
相雜	-10.4057
俱有因	-10.4057
解行	-10.4061
皆以	-10.4062
攝一切	-10.4063
並是	-10.4064
唯約	-10.4067
苦惱	-10.4068
本識中	-10.4084
廣說乃至	-10.4086
初約	-10.4086
尸	-10.4089
初正釋	-10.4091
相現	-10.4103
若云	-10.4106
諸心所	-10.4107
諸苦	-10.411
所依故	-10.4114
此心	-10.4117
婬	-10.4121
異性	-10.4122
已滅	-10.4125
變現	-10.413
俱名	-10.4132
亦由	-10.4133
作意思惟	-10.4135
自性故	-10.4142
為此	-10.4153
不出	-10.4161
相順	-10.4163
略釋	-10.4169
四事	-10.4171
悶	-10.4173
彼執	-10.4174
立量	-10.4174
集起	-10.4174
空處	-10.4175
根身	-10.4178
住地	-10.4179
哀愍	-10.418
其性	-10.4181
若取	-10.4184
纔	-10.4184
往來	-10.4192
文分為二一	-10.4194
分別故	-10.4197
五識身	-10.4199
方始	-10.42
外法	-10.4203
能攝	-10.421
表業	-10.4216
打	-10.4223
賊	-10.4224
執故	-10.4224
六因	-10.4227
現有	-10.4229
三智	-10.4229
初修	-10.4237
有邊	-10.4242
餘乘	-10.4249
染故	-10.4259
思之	-10.4259
嘆	-10.4265
鼻舌	-10.4267
教誡	-10.4267
一品	-10.427
下三	-10.427
設有	-10.427
其中	-10.4275
顯此	-10.4276
體也	-10.4294
蔽	-10.4299
為自	-10.4306
處故	-10.4307
行中	-10.4311
薪	-10.4311
為義	-10.4312
入涅槃	-10.4313
未離	-10.4314
不及	-10.4315
憍慢	-10.4321
可意	-10.4323
有想	-10.4323
彼既	-10.4326
三處	-10.4327
煩𢙉	-10.433
二辯	-10.4333
謂我	-10.4337
分為	-10.4345
薄伽梵	-10.4347
友	-10.4349
緣慮	-10.4352
今以	-10.4353
是假有	-10.4357
而成	-10.4358
國土	-10.4363
覺了	-10.4374
不順	-10.4379
不過	-10.4381
此問	-10.4386
特	-10.439
見有	-10.4391
默	-10.4397
又諸	-10.4399
行等	-10.44
福智	-10.4402
下中上	-10.4405
生支	-10.4416
三總結	-10.4417
次破	-10.4418
此身	-10.4422
自知	-10.4428
餘一切	-10.443
深密	-10.443
論謂	-10.4436
三聚	-10.4437
覩	-10.4442
現身	-10.4444
聽法	-10.4446
死後	-10.4447
東	-10.4452
之意	-10.446
名不	-10.447
所攝受	-10.447
色聲	-10.4472
專注	-10.4478
貧	-10.4481
亦攝	-10.4483
三類	-10.4484
轉者	-10.4485
二師	-10.4485
初生	-10.4486
浮	-10.4487
在欲界	-10.4487
前所說	-10.4492
復生	-10.4493
閏	-10.4493
邪執	-10.4497
附	-10.4499
異時	-10.4512
假者	-10.4513
瑜伽說	-10.4515
方便道	-10.4516
親所緣緣	-10.4518
依義	-10.4519
不遮	-10.4521
加行智	-10.4521
為首	-10.4523
世俗諦	-10.4523
大眾部	-10.4525
見惑	-10.4525
固	-10.4526
二列名	-10.4527
我等	-10.4531
數論	-10.4533
身在	-10.4534
以之為	-10.4539
不能緣	-10.454
○	-10.454
:「	-10.4544
一切菩薩	-10.4549
為後	-10.455
如言	-10.4552
正道	-10.4555
二業	-10.4559
阿僧祇	-10.4561
勝者	-10.4563
狂	-10.4565
撥無	-10.4565
行捨	-10.4567
依主釋	-10.4568
熾然	-10.457
陵	-10.4573
迦葉	-10.4581
無上正等菩提	-10.4582
二約	-10.4586
義分三	-10.4587
變起	-10.4593
若爾何故	-10.4596
人執	-10.4597
取支	-10.4598
所隨	-10.4598
又能	-10.4599
作是	-10.4603
此頌	-10.4611
欣樂	-10.4613
妙智	-10.4613
定障	-10.4642
軌	-10.4645
放	-10.4647
第二卷	-10.4655
三無性	-10.4657
內證	-10.4662
逼惱	-10.4664
暴流	-10.4664
標舉	-10.4667
諸異生	-10.4667
真理	-10.4668
地地	-10.4669
至非	-10.4671
賢聖	-10.4672
外難	-10.4674
五十一	-10.4684
承	-10.4685
不寂靜	-10.4686
告	-10.469
問何	-10.4693
答由	-10.47
相顯	-10.4708
其相云何	-10.4709
自受用	-10.471
所對治	-10.4717
義同	-10.4718
何等名為	-10.472
可爾	-10.4725
相從	-10.4726
故不相違	-10.4727
六轉識	-10.4731
善清淨	-10.4731
不能生	-10.4733
:	-10.4733
生死涅槃	-10.4733
身受	-10.4734
自宗	-10.4734
諸聖教	-10.4734
大海	-10.4736
為食	-10.4743
有勝	-10.4744
廣如	-10.4748
分六	-10.475
滅壞	-10.475
學者	-10.4751
繩	-10.4754
且說	-10.4755
受變易	-10.4755
眾具	-10.4759
實非	-10.4761
是總	-10.4764
次解	-10.4764
解脫門	-10.4764
察	-10.477
無動	-10.4772
餘七	-10.4774
慢等	-10.4776
自識	-10.4776
此破	-10.4777
三境	-10.4778
實相	-10.4779
不定性	-10.4783
同類因	-10.4786
此乃	-10.4786
勵	-10.4794
文云	-10.4801
假施設	-10.4802
順解脫分	-10.4805
一因	-10.4806
所收	-10.4812
具四	-10.4813
雜心	-10.4814
是前	-10.4826
到彼岸	-10.4832
他地	-10.4835
餘之	-10.4838
覺分	-10.4839
心心法	-10.484
無愧	-10.4843
有生滅	-10.4843
實德業	-10.4845
應身	-10.4848
他所	-10.4851
二頌	-10.4852
依主	-10.4854
初後	-10.4857
不決定	-10.4858
不苦不樂	-10.4858
有方分	-10.4858
性境	-10.4866
非染	-10.4866
是也	-10.4867
恒相續	-10.4878
▁次釋	-10.488
五十六	-10.4881
處者	-10.4882
無妨	-10.4885
先說	-10.4888
體無	-10.4892
生識	-10.4895
以何義故	-10.4897
因此	-10.4903
失壞	-10.4905
覺悟	-10.4909
受相應	-10.4909
有染	-10.491
能生因	-10.491
顯色	-10.4914
現種	-10.4917
因性	-10.4921
冷	-10.493
所持	-10.4939
第四明	-10.494
尊重	-10.4941
不相似	-10.4953
通漏無漏	-10.4954
各自	-10.4955
非得	-10.4958
想者	-10.4959
巳去	-10.496
正定	-10.4968
諸有情類	-10.4969
上有	-10.497
源	-10.4977
善修	-10.4981
心意識	-10.4986
未離欲	-10.4987
計所執	-10.4989
期	-10.4992
如虛空	-10.4993
三德	-10.4993
能善	-10.4998
生現行	-10.5009
預流果	-10.501
見相	-10.5012
當果	-10.5013
境者	-10.5014
座	-10.5015
此因	-10.5015
惛沈	-10.5021
序	-10.5021
拘	-10.5022
解脫分	-10.5023
其身	-10.5023
是所	-10.5028
時有	-10.5037
五受	-10.5042
諸餘	-10.5045
略有三種	-10.505
若起	-10.5052
二乘無學	-10.5053
一切相	-10.5057
廣辨	-10.5062
釋頌	-10.5063
非安立	-10.5066
此一門竟	-10.5078
是果	-10.5079
了相	-10.508
最為	-10.5083
辦	-10.5094
諸聲聞	-10.5097
破之	-10.5097
初徵	-10.5097
無漏定	-10.5107
滅者	-10.5108
有二解	-10.5109
大乘經	-10.5109
是名為	-10.5113
能破	-10.5114
曉	-10.5115
無力	-10.5118
今取	-10.5127
名不共	-10.5127
若依成實	-10.5131
宗中	-10.514
立宗	-10.5142
和集	-10.5146
善行	-10.5148
望於	-10.5151
練	-10.5154
諸功德	-10.5157
讀	-10.5159
二破	-10.516
刀	-10.5161
幾是	-10.5163
諸如來	-10.5179
斷盡	-10.518
無餘涅槃	-10.5184
由此道理	-10.5188
二立	-10.519
然非	-10.5191
證成	-10.5193
四聖諦	-10.5205
浪	-10.5208
法輪	-10.5212
之行	-10.5214
警	-10.5214
實事	-10.5216
明無犯	-10.5218
逢	-10.5218
二十一	-10.5219
比知	-10.522
曾習	-10.5229
重釋	-10.5233
生無色界	-10.5233
離繫果	-10.5237
佛所說	-10.5237
二品	-10.5241
前言	-10.5245
句義	-10.5247
宣	-10.5248
相違因	-10.5249
不稱	-10.5251
或分為	-10.5253
疲	-10.5254
與餘	-10.5255
室	-10.5257
勝鬘經	-10.5259
起於	-10.526
輪王	-10.5261
畢竟無	-10.5261
一切障	-10.5262
釋前	-10.5264
麤相	-10.5265
八十	-10.5268
過故	-10.5269
始從	-10.5271
四念住	-10.5273
此性	-10.5273
如唯識	-10.528
有能	-10.5285
實境	-10.5289
師說	-10.5291
知足	-10.5292
四處	-10.5294
妄情	-10.53
俱舍論	-10.5301
不在	-10.5301
正願	-10.5307
有見	-10.5309
唯識論	-10.5311
對法云	-10.5314
先釋	-10.5314
生天	-10.5318
隨說因	-10.5318
十一種	-10.532
轉計	-10.5323
更無別	-10.5329
徵釋	-10.5331
執藏	-10.5333
暫時	-10.5334
釋迦	-10.5334
撿	-10.5336
不必	-10.5348
已入	-10.5352
苦等	-10.5357
無間斷	-10.5357
第三解	-10.5362
染污心	-10.5363
不生故	-10.5365
六位	-10.5367
如前應知	-10.537
亦得名	-10.537
一名	-10.5371
世法	-10.5371
所犯	-10.5373
如是菩薩	-10.5376
初定	-10.5378
相依	-10.5388
若能	-10.5391
所分別	-10.54
變易生死	-10.54
差別分二	-10.5401
斷欲界	-10.5402
離於	-10.5409
塗	-10.5411
謂欲	-10.5414
鏡智	-10.5415
有德	-10.5417
界繫	-10.5422
通於	-10.5425
可名	-10.5436
厭患	-10.5439
自說	-10.544
諸句	-10.5445
為宗	-10.5448
盲	-10.5453
於理	-10.5455
勝論	-10.5457
能於	-10.5459
永害	-10.546
當得	-10.5463
之與	-10.5464
名緣	-10.5465
無嗔	-10.5466
等智	-10.5467
體即是	-10.5468
究竟位	-10.5468
非安立諦	-10.547
定故	-10.5474
別離	-10.5477
非因緣	-10.548
法施	-10.5483
之道	-10.5483
所樂	-10.5485
初文	-10.5487
引攝	-10.5488
第一句	-10.5493
活	-10.5496
舍利弗	-10.5499
方廣	-10.5505
追悔	-10.5506
盡理	-10.5515
西	-10.5515
功力	-10.5516
漸漸	-10.5527
樞要	-10.5529
等言	-10.5533
微塵	-10.5536
三量	-10.5536
如眼識	-10.5537
若欲	-10.5544
屈曲	-10.5544
神變	-10.5545
演曰二辯	-10.5545
見相二分	-10.5546
次下	-10.5547
兔角	-10.5548
良以	-10.5549
總攝	-10.555
不合	-10.555
)。△	-10.5553
十住	-10.5554
是真	-10.5555
言有	-10.5559
二結	-10.5564
三輪	-10.5565
心緣	-10.5572
諸佛如來	-10.5574
無自性性	-10.5583
此六	-10.5585
依身	-10.559
不得生	-10.5592
遲	-10.5597
瑜伽師	-10.5603
長短	-10.5605
軌則	-10.5606
心淨	-10.5614
通一切	-10.5619
三因	-10.5622
何用	-10.5622
有十一	-10.5624
能有	-10.5627
真智	-10.5628
若非	-10.5639
第四定	-10.564
眼識等	-10.5641
過去未來	-10.5642
四善根	-10.5642
此文即	-10.5643
生緣	-10.5645
作事	-10.5647
誹謗	-10.5647
應作	-10.5658
以不	-10.5664
慧為體	-10.5666
釋此	-10.5667
長等	-10.5672
六依	-10.5675
論釋	-10.5675
者意云此	-10.5676
從因	-10.5676
不徧	-10.568
若見	-10.5689
取蘊	-10.5692
報身	-10.5695
不死	-10.5695
無色定	-10.5695
慼	-10.5696
若得	-10.5697
通上	-10.5698
之色	-10.5698
近事	-10.5701
宿命	-10.5702
畜	-10.5703
崇	-10.5703
非異	-10.5704
現世	-10.5704
別起	-10.5706
正覺	-10.5706
大劫	-10.571
釋名	-10.5711
說一乘	-10.5712
常無常	-10.5713
然今	-10.5717
能藏	-10.5717
迷事	-10.5723
神力	-10.5724
𢙣	-10.5726
餘九	-10.5731
為五	-10.5734
若執	-10.5734
本事	-10.5741
即名為	-10.5741
對法論	-10.5742
何為	-10.5742
二道	-10.5743
後報	-10.5746
見道中	-10.5755
堪任	-10.5758
能緣心	-10.5759
空者	-10.5759
觸處	-10.576
不淨觀	-10.5763
今大乘	-10.5764
三識	-10.5768
增上意樂	-10.5771
初破	-10.5772
種生現	-10.5774
能立	-10.578
佗	-10.5781
說云	-10.5782
必由	-10.5796
修者	-10.5798
衣服	-10.5799
為求	-10.5804
結生	-10.5806
為俱有依	-10.581
善知識	-10.5812
名分別	-10.5813
但云	-10.5813
三支	-10.5816
唯善	-10.5818
加行善	-10.5823
自果	-10.5825
文字	-10.5827
聲聞等	-10.583
一切地	-10.5831
云何知	-10.5838
諸種子	-10.5838
一物	-10.5842
。《	-10.5842
有間	-10.5843
延	-10.5844
彼法	-10.5845
羞	-10.5846
依如毘曇	-10.5847
別有體	-10.5847
第三果	-10.5847
所知境	-10.5849
鐵	-10.5851
為所緣緣	-10.5857
例餘	-10.5857
三諦	-10.5868
有宗	-10.5876
隨喜	-10.5881
恒常	-10.5881
表色	-10.5886
補	-10.589
又依	-10.589
唯屬	-10.5893
視	-10.5896
道故	-10.5899
巳斷	-10.5901
應得	-10.5903
識上	-10.5904
善十一	-10.5905
能滅	-10.5906
餘者	-10.5907
從初	-10.5907
所藏	-10.5908
無生忍	-10.5913
信等五根	-10.5914
是現量	-10.5915
阿耨多羅三藐三菩提	-10.5915
是慧	-10.5919
巳前	-10.5922
身故	-10.5923
三藏云	-10.5927
無障	-10.5934
三由	-10.5935
起煩惱	-10.5935
聖法	-10.5936
故不名	-10.5936
惡友	-10.5937
若望	-10.5947
疏主	-10.5947
炷	-10.5949
落	-10.595
離此	-10.5951
穀	-10.5951
得與	-10.5953
通果	-10.5953
未見	-10.5954
恒沙	-10.5955
薩埵	-10.5956
於識	-10.5957
是所緣	-10.5964
總明	-10.5966
色者	-10.5969
伏斷	-10.5971
一字	-10.5973
此中意	-10.5979
果生	-10.5985
不現前	-10.5987
亦以	-10.5993
隨意	-10.5993
增盛	-10.5996
此亦如是	-10.5997
離蘊	-10.5997
定非	-10.5998
宅	-10.6002
學人	-10.6002
同喻	-10.6003
是無分別智	-10.6005
福田	-10.6009
別別	-10.6013
自性者	-10.6016
真見	-10.6017
雖說	-10.6021
苦者	-10.6022
我相	-10.6024
為自性	-10.6027
於上	-10.6031
恒有	-10.6031
般若波羅蜜	-10.6034
之過	-10.6041
業煩惱	-10.6042
雜染法	-10.6045
謂如	-10.6046
妙觀察智	-10.6047
以能	-10.6047
攝善法戒	-10.6051
巳說	-10.6051
喪	-10.6054
異熟無記	-10.6055
合有	-10.6057
不染污	-10.6057
四食	-10.6061
宗鏡	-10.6062
無明住地	-10.6063
苦故	-10.6067
諸世間	-10.608
於生死	-10.6082
除滅	-10.6084
是第二	-10.6094
覺時	-10.6102
境也	-10.6103
此亦不然	-10.6103
中有五	-10.6105
即非	-10.6106
識生	-10.6107
定者	-10.6107
智見	-10.6109
此唯	-10.6112
理事	-10.6118
為得	-10.6122
勝妙	-10.6125
淨故	-10.6126
一切佛法	-10.6127
二十八	-10.6134
不忘	-10.6135
染污意	-10.6138
聖言	-10.6138
不如實知	-10.614
問也	-10.6143
能捨	-10.6145
所以不	-10.6146
皆成	-10.6148
種種相	-10.615
善士	-10.6154
箭	-10.6155
停	-10.6156
元	-10.6156
阿羅漢果	-10.6157
為因故	-10.6158
了境	-10.6158
精勤	-10.6162
能說	-10.6166
根性	-10.6166
同異性	-10.6171
眼等根	-10.6181
諸界	-10.6185
頌文	-10.6188
屈	-10.619
聞正法	-10.6195
起諸	-10.62
舉頌	-10.6201
何故不說	-10.6207
觀待因	-10.6208
如來法身	-10.6211
拒	-10.6212
一切諸	-10.6212
【	-10.6213
愛著	-10.6214
第八地	-10.6218
唯此	-10.622
他世	-10.622
九者	-10.622
隨觀	-10.6223
蘊界處	-10.6228
說也	-10.6231
初門	-10.6234
第七識中	-10.6235
說正法	-10.6238
可悉	-10.6239
四大種	-10.6243
眼見	-10.6244
一是	-10.6244
即成	-10.6245
必同	-10.6246
不明了	-10.6255
何謂	-10.6255
鉢	-10.6256
雖未	-10.6257
諸心心所	-10.6261
六法	-10.6262
外器	-10.6265
勝鬘	-10.6269
彼二	-10.6269
非想非非想處	-10.6273
布	-10.6273
辨其	-10.6275
不造	-10.6282
略義	-10.6283
通相	-10.6284
諸師	-10.6284
第二靜慮	-10.629
後五	-10.6293
所感	-10.6298
先業	-10.6298
是心	-10.6299
永不	-10.6302
正說	-10.6302
舉數	-10.6302
二十六	-10.6302
法寶	-10.6306
通說	-10.6307
已來	-10.6307
咸	-10.6308
奢摩他毘鉢舍那	-10.6308
色界中	-10.6309
耽著	-10.631
勝用	-10.6312
順益	-10.6316
而未	-10.632
相應心品	-10.6321
雜集論	-10.6325
資糧位	-10.6326
更生	-10.6327
非愛	-10.6327
復由	-10.6327
資生	-10.6328
行時	-10.6329
成有漏	-10.633
言我	-10.6332
總有	-10.6334
擇滅無為	-10.6338
類別	-10.6338
二事	-10.6338
如何說	-10.6339
巳來	-10.6343
略不	-10.6346
詮表	-10.6347
注	-10.6353
得菩提	-10.636
不和合	-10.6361
焉	-10.6361
良	-10.6366
天中	-10.637
跡	-10.6371
非異熟	-10.6372
以是義故	-10.6372
悲心	-10.6373
應爾	-10.6374
牽引因	-10.6374
悲愍	-10.638
衰損	-10.6381
能修	-10.6387
心境	-10.6387
論之	-10.6392
化眾生	-10.6395
又言	-10.6402
麁相	-10.6406
唯有一	-10.6407
為開導依	-10.6411
正量部	-10.6412
三惡趣	-10.6414
三界九地	-10.6414
忍受	-10.6422
是故此	-10.6425
二處	-10.6428
想受	-10.6428
道品	-10.643
惡不善法	-10.6439
諸趣	-10.6439
總釋	-10.6439
二十二根	-10.644
識性	-10.6442
皆名為	-10.6443
差別相	-10.6444
我體	-10.6448
大苦	-10.6449
不定故	-10.6466
角	-10.6469
通妨	-10.6471
與樂	-10.6472
五十三	-10.6473
梵天	-10.6474
根識	-10.6476
現在世	-10.6478
可有	-10.6479
於外	-10.6479
一地	-10.6484
所愛	-10.6491
法師云	-10.6495
制伏	-10.6496
巳滅	-10.6496
果中	-10.6497
有漏種	-10.6498
取相	-10.6499
四位	-10.6501
五句	-10.6509
佛語	-10.6514
餘五	-10.6517
大涅槃	-10.6518
急	-10.6527
忽	-10.6528
所攝故	-10.6528
諦現觀	-10.6528
有為相	-10.653
樂者	-10.653
清淨者	-10.6537
四道	-10.6538
畢竟不	-10.6542
阿難	-10.6549
以來	-10.655
為異	-10.6551
有實體	-10.6553
無漏業	-10.6553
自在者	-10.6553
色識	-10.6555
巳生	-10.6561
於中有三	-10.6561
非但	-10.6564
時節	-10.6565
賢善	-10.6565
比智	-10.6569
巧便	-10.6573
無緣	-10.6575
貫	-10.6575
羞恥	-10.6575
大乘法	-10.6577
濟	-10.6577
證真	-10.6578
剎	-10.658
魚	-10.658
因義	-10.6584
彼處	-10.6586
妙行	-10.6588
之類	-10.6594
非離	-10.6595
證智	-10.6597
亦與	-10.6597
防修	-10.6599
隨所應	-10.66
清淨故	-10.6603
之力	-10.6607
四攝	-10.6608
勝相	-10.6609
實體	-10.6612
二說	-10.6613
無常性	-10.6613
且依	-10.6615
黑白	-10.6627
定果色	-10.6634
依他起自性	-10.6638
無學位	-10.6641
分者	-10.6643
大圓鏡智	-10.6644
五百	-10.6646
諸波羅蜜	-10.6647
斷結	-10.6648
若就	-10.665
何因	-10.6651
第一解	-10.6655
總言	-10.6655
十善	-10.6657
相也	-10.6657
實智	-10.6658
有八種	-10.6662
三十二	-10.6664
必定	-10.6669
教化	-10.6671
違教	-10.6674
中復二	-10.6677
貪癡	-10.6678
自下第三	-10.6681
現行識	-10.6683
遭	-10.6686
復以	-10.6686
前七識	-10.6686
逸	-10.6688
須陀洹	-10.6689
不清淨	-10.6692
非斷	-10.6694
展轉相	-10.6695
諸聖	-10.6695
自許	-10.6697
財寶	-10.6697
或以	-10.6699
為依止	-10.6704
恒時	-10.6707
神足	-10.6708
後世	-10.671
二受	-10.6713
修道中	-10.6715
是故說	-10.6719
六十	-10.6729
意處	-10.673
自作	-10.674
譽	-10.6741
有尋伺	-10.6743
血	-10.6744
自在故	-10.6744
如經說	-10.6745
適悅	-10.6745
道者	-10.6746
能執	-10.6747
若自	-10.6749
演曰六	-10.6752
向前	-10.676
多時	-10.6765
然有	-10.6765
本論	-10.6767
二世	-10.6775
菩提分	-10.6776
橫	-10.6782
即於彼	-10.6783
制立	-10.6787
斷絕	-10.6788
所欲	-10.6789
已前	-10.6789
歎	-10.6792
為本質	-10.6794
鹿	-10.6795
無事	-10.6798
皆說	-10.6802
〔	-10.6803
復云	-10.6805
如佛	-10.6805
戒禁取	-10.6805
增上戒	-10.6806
無間滅	-10.6807
稱讚	-10.681
多住	-10.6813
三十三	-10.6816
此經	-10.6816
起愛	-10.6818
能持種	-10.682
故亦名	-10.6823
捨故	-10.6823
相待	-10.6823
所不攝	-10.683
音義謂	-10.683
諸部	-10.683
先有	-10.6831
明淨	-10.6831
不唯	-10.6837
二身	-10.684
女人	-10.6844
貪嗔	-10.6845
八地巳上	-10.6846
所造色	-10.6847
汝言	-10.6848
一切善法	-10.6849
束	-10.685
六通	-10.685
釋上	-10.6851
喜受	-10.6855
二十七	-10.6857
未知當知根	-10.6857
是因	-10.6864
生在	-10.6867
不亂	-10.6869
餘心所	-10.6869
生也	-10.6877
觸受	-10.6886
天上	-10.6893
因力	-10.6893
軍	-10.6896
此與	-10.6898
似有	-10.6898
亦成	-10.6905
追	-10.6905
鄙	-10.6907
但於	-10.6908
為上首	-10.6912
不俱起	-10.6913
相離	-10.6914
追求	-10.6915
因緣者	-10.6915
堪忍	-10.6917
損益	-10.692
天人	-10.692
尒	-10.6922
臥具	-10.6926
今約	-10.6927
為根	-10.6934
是色	-10.6934
四倒	-10.6935
修得	-10.6936
他故	-10.6936
獄	-10.6938
此理	-10.6939
如其	-10.695
互為	-10.6957
香等	-10.6958
志	-10.6959
汝等	-10.6961
聽聞正法	-10.6964
行人	-10.6965
務	-10.6966
與他	-10.6967
梵本	-10.6967
彼所執	-10.6977
長者	-10.6981
財施	-10.6988
淨不淨	-10.6988
易知	-10.6988
遍染心	-10.699
且約	-10.699
令入	-10.699
此三種	-10.6994
必須	-10.6996
前行	-10.6997
四重	-10.7001
果時	-10.7009
即真如	-10.7014
近住	-10.7015
世人	-10.7018
擾	-10.702
僧寶	-10.7025
頓悟	-10.7025
諸心	-10.7028
否	-10.703
伽他	-10.7033
以後	-10.7033
引教	-10.7034
實色	-10.7036
微劣	-10.7037
由業	-10.704
非有非無	-10.7042
謂除	-10.7043
尚不	-10.7048
諸教	-10.7049
名捨	-10.7049
伏除	-10.7051
信樂	-10.7051
舊云	-10.7059
有境	-10.706
為善	-10.7063
互為緣	-10.7069
別異	-10.7069
既說	-10.707
多修習	-10.7074
交	-10.7078
成故	-10.708
關	-10.7081
鳥	-10.7082
報恩	-10.7086
作是念	-10.7087
香味觸	-10.7089
相差別	-10.709
緣色	-10.7092
種望	-10.7092
內境	-10.7093
隨好	-10.7094
不欲	-10.7095
先後	-10.7101
疏文	-10.7101
第十二	-10.7104
無悔	-10.7107
緣過去	-10.7107
所緣境界	-10.7113
法空智	-10.7114
亦許	-10.7118
眼等五識	-10.7121
皆容	-10.7123
愛等	-10.7126
仙	-10.7132
貪分	-10.7132
十卷	-10.7133
代	-10.7133
臨	-10.7134
鈔	-10.7134
亦不能	-10.7135
此二門竟	-10.714
此諸	-10.7141
生中	-10.7143
善說法	-10.7144
見聞	-10.7145
二徵	-10.7146
意者	-10.7147
空華	-10.7149
釋義	-10.7149
不絕	-10.7151
三解	-10.7151
幻事	-10.7151
戒等	-10.7156
惑業	-10.7159
於諸諦	-10.7165
不善法	-10.7165
此偈	-10.7165
於涅槃	-10.7166
周遍	-10.7171
先問	-10.7175
是人	-10.7175
於現在	-10.718
六義	-10.7186
名言熏習	-10.7186
此即初也	-10.7187
總持	-10.7188
詐	-10.7195
䇿	-10.7199
欲顯	-10.7201
流布	-10.7203
亦起	-10.7203
無方分	-10.7205
有分	-10.7208
七明	-10.7208
第十三	-10.7208
思慮	-10.7216
欲求	-10.7218
一明正義	-10.7219
唯得	-10.7219
為障	-10.722
煗	-10.7224
解脫者	-10.7228
勢用	-10.7228
解深密經	-10.723
別分	-10.723
界者	-10.7231
等位	-10.7231
躰	-10.7235
具三	-10.7241
迷諦	-10.7241
遍智	-10.7242
共不共	-10.7243
預	-10.7244
磨	-10.7248
空觀	-10.7248
娑	-10.7249
樂故	-10.7251
忘失	-10.7254
不善根	-10.7256
五十九	-10.7258
此通	-10.726
若作	-10.726
如於	-10.7262
釋中有二	-10.7263
無分別故	-10.7265
不如理	-10.7265
有樂	-10.7267
是故名為	-10.7268
緣於	-10.7271
無別故	-10.7274
此句	-10.7275
末後	-10.7275
妨難	-10.7276
變易身	-10.7285
三科	-10.7285
相應門	-10.7289
生有	-10.7298
善能	-10.7298
所相	-10.7301
一切皆是	-10.7302
階	-10.7303
行解	-10.7304
罵	-10.7305
祕密	-10.7306
有間斷	-10.7308
融	-10.7308
恐怖	-10.7308
論中說	-10.7308
傷	-10.731
演曰後別	-10.7311
受變易身	-10.7313
成實法中	-10.7314
瓶等	-10.7321
唐	-10.7326
三列名	-10.7326
善無記	-10.7327
此第八識	-10.7329
體雖	-10.7329
名句文身	-10.7332
永無	-10.7334
發趣	-10.7334
增上力	-10.7336
五十七	-10.7336
彼論云	-10.7343
設許	-10.7347
不忍	-10.7348
若復	-10.7349
轉易	-10.735
一性	-10.7351
瑜伽論說	-10.7362
仰	-10.7366
相符	-10.7368
應許	-10.7372
吉祥	-10.7372
壽煖	-10.7374
理教	-10.7376
不簡	-10.7377
清辨	-10.7377
所取能取	-10.7383
依前	-10.7386
前八	-10.7389
是善性	-10.7389
六識身	-10.7391
總破	-10.7397
出觀	-10.74
未滅	-10.7406
名言種子	-10.7408
應斷	-10.7414
麤色	-10.7422
相稱	-10.7427
初二果	-10.7429
有無量	-10.7433
是故說名	-10.7434
羊	-10.7436
小乘中	-10.7437
景師云	-10.7438
小隨	-10.7438
不有	-10.7442
現境	-10.7446
見彼	-10.7447
住故	-10.7449
推度	-10.7454
無明等	-10.7461
攝事	-10.7465
揚	-10.7472
當有	-10.7473
三摩提	-10.7482
炎	-10.7484
不妨	-10.7486
五義	-10.7487
十六行	-10.7491
名想	-10.7493
文中有二	-10.7493
眼等五根	-10.7499
污	-10.75
豈有	-10.7507
故不可	-10.7509
第五明	-10.7511
無障礙	-10.7517
不增	-10.7518
業所感	-10.7521
從前	-10.7522
略攝	-10.7522
有何差別	-10.7522
一解	-10.7527
五十四	-10.7533
住時	-10.7536
正教	-10.7538
何等為五	-10.7539
懸	-10.7545
文也	-10.7546
作意者	-10.7549
安惠	-10.755
半頌	-10.7555
毘尼	-10.7556
諸轉識	-10.7556
無間解脫	-10.7557
異熟因	-10.7559
或立	-10.7561
言顯	-10.7561
識食	-10.7561
密意說	-10.7571
無作用	-10.7577
為所依止	-10.7578
析	-10.7582
所依者	-10.7584
樂住	-10.7595
深心	-10.7598
有作用	-10.7598
施物	-10.76
亦言	-10.76
不令	-10.7601
立一	-10.7601
途	-10.7602
從本	-10.7603
煞	-10.7606
心所相應	-10.761
自境	-10.7614
容受	-10.7614
迷苦	-10.7615
色界繫	-10.7617
答言	-10.7626
伏難	-10.7628
即用	-10.7629
伺察	-10.7636
隨身	-10.7637
廣略	-10.7641
別解脫	-10.7643
定生	-10.7644
實是	-10.7646
或執	-10.7648
百年	-10.7651
帶質	-10.7654
正是	-10.7655
唯以	-10.7656
與五識	-10.7656
今云	-10.7657
爾者	-10.7659
四靜慮	-10.7663
金銀	-10.7664
於一切時	-10.7664
攝受因	-10.7666
由得	-10.7666
易了	-10.7667
身邊二見	-10.7668
明記	-10.7674
自受用身	-10.7674
而於	-10.7676
問言	-10.7677
隨行	-10.7677
第三靜慮	-10.7682
有十二	-10.7684
通論	-10.7684
論議	-10.7686
分限	-10.7693
增故	-10.7696
禁	-10.7701
攝在	-10.7701
識處	-10.7702
真性	-10.7704
三師	-10.7704
義門	-10.7707
斷善根	-10.7712
弘	-10.7715
觀空	-10.7716
番釋	-10.772
降	-10.7723
略不說	-10.7724
降伏	-10.7725
不發	-10.7726
隱顯	-10.7728
理門	-10.7732
希有	-10.7733
三有	-10.7733
威儀工巧	-10.7736
證知	-10.7739
惡慧	-10.7742
梵語	-10.7742
復有二	-10.7744
一切有漏	-10.7746
意生身	-10.7747
初辨	-10.7748
破戒	-10.775
彼此	-10.775
實物	-10.775
無量無邊	-10.7754
眾生界	-10.7755
何者為	-10.7757
釋之	-10.7763
望彼	-10.7764
為依止故	-10.7765
集成	-10.7768
利益眾生	-10.7771
所作業	-10.7776
等引	-10.7776
感得	-10.7781
逐	-10.7783
該	-10.7783
無斷	-10.7787
麥	-10.7787
畜生	-10.7787
言詞	-10.7794
如經中說	-10.7794
非處	-10.7796
有罪	-10.7801
計為	-10.7802
若准	-10.7805
有礙	-10.7806
慈心	-10.781
持業釋也	-10.7812
雖同	-10.7813
資粮	-10.7816
漸斷	-10.7817
為眾生	-10.7817
聞所成	-10.7818
然由	-10.7825
便為	-10.7825
大義	-10.7826
實句	-10.7829
真心	-10.7831
故偏說	-10.7844
妻子	-10.7844
無表色	-10.7846
陳那	-10.7847
厚	-10.7847
醉	-10.7847
促	-10.7848
文分為	-10.7849
法隨法行	-10.7853
出世心	-10.7854
依根	-10.7858
非想地	-10.7859
不散	-10.7861
皆言	-10.7862
國王	-10.7863
又契經說	-10.7868
無情	-10.787
然於	-10.787
退屈	-10.7872
後法	-10.7877
差別義	-10.7878
何有	-10.7879
慧解脫	-10.7879
攝益	-10.7881
果法	-10.7881
所緣之境	-10.7884
正破	-10.7886
根力	-10.7887
四德	-10.7888
十行	-10.7892
前義	-10.7893
無色界中	-10.7895
得阿耨多羅三藐三菩提	-10.7895
欲者	-10.7897
彌	-10.7905
發願	-10.7906
見道所斷	-10.7907
卵	-10.7907
望後	-10.7915
乞食	-10.7916
妄心	-10.7917
緣事	-10.7918
平等性	-10.7919
自業	-10.7922
善不善無記	-10.7926
初略	-10.7927
多生	-10.7927
無堪任性	-10.7928
菩薩住	-10.793
所化有情	-10.7931
亦唯	-10.7932
無智	-10.7933
不執	-10.7935
相似故	-10.7937
簡非	-10.7942
若知	-10.7945
不可見	-10.7948
今據	-10.7958
始終	-10.7958
大法	-10.796
俱舍云	-10.7961
捨根	-10.7963
怯	-10.7967
論此中	-10.7968
唯欲界	-10.797
緣現在	-10.797
創	-10.797
原	-10.7971
翻此	-10.7972
通取	-10.7972
譏	-10.7972
離過	-10.7973
盡智	-10.7975
隨相	-10.7978
此緣	-10.798
永離	-10.7983
大小乘	-10.7984
五釋	-10.7986
四因	-10.7994
所住	-10.8002
亦爾者	-10.8004
有眾多	-10.8005
證有	-10.8006
所緣者	-10.8013
或唯	-10.8014
增上故	-10.8014
識相	-10.8016
意取	-10.8019
水火	-10.8021
同法	-10.8022
第一師	-10.8024
欲解	-10.8026
滯	-10.8028
公	-10.8031
昏	-10.8032
文復	-10.8036
西明	-10.8039
闍	-10.8041
不顧	-10.8042
有如是	-10.8045
引經證	-10.8049
阿陀那識	-10.8053
施戒	-10.8057
景	-10.8059
為實	-10.8059
以何為	-10.8062
二就	-10.807
沙門果	-10.8074
一答	-10.8076
色境	-10.8081
三果	-10.8083
人法	-10.8085
別顯	-10.8088
餘文	-10.8089
有七種	-10.8092
綱	-10.8093
演曰三結	-10.8093
是主	-10.8096
顧	-10.8097
偽	-10.81
〕	-10.8102
所障	-10.811
運轉	-10.8113
第三卷	-10.8115
聞思慧	-10.8121
證自證分	-10.8123
所許	-10.8124
此類	-10.8125
心體	-10.8131
結示	-10.8134
思業	-10.8135
三性心	-10.8139
喚	-10.8148
盜	-10.8154
依士釋	-10.8155
總舉	-10.816
族	-10.8161
毘婆沙	-10.8162
地水火風	-10.8163
增上慧	-10.8165
四空	-10.8165
敵	-10.8165
入初地	-10.8168
見佛	-10.8172
教導	-10.8173
思議	-10.8176
所生果	-10.8178
趣中	-10.8183
無尋伺	-10.8184
分七	-10.8193
業招	-10.8194
生欲界	-10.8194
淨妙	-10.8202
楞伽經	-10.8205
同彼	-10.8206
增上心	-10.8211
惛	-10.8216
澁	-10.8218
為質	-10.8219
羸劣	-10.822
前因	-10.8221
熱惱	-10.8223
矯	-10.8225
劣故	-10.8226
成熟有情	-10.8231
即從	-10.8235
分五如論	-10.8237
五淨居	-10.8241
二顯	-10.8243
隨他	-10.8244
心也	-10.8245
體一	-10.8247
親疎	-10.8249
法喻	-10.8251
無減	-10.8252
之教	-10.8253
即攝	-10.8255
十相	-10.8263
不得自在	-10.8263
利鈍	-10.8266
是增上緣	-10.8268
等義	-10.8269
誤	-10.8276
次別釋	-10.8281
舒	-10.8283
二愚	-10.8286
相續不斷	-10.8286
忍辱	-10.829
有三品	-10.829
殷重	-10.8291
綺語	-10.8292
又以	-10.8293
於是處	-10.8294
能淨	-10.8294
諸極微	-10.8295
遷	-10.8296
又釋	-10.8298
修證	-10.8301
酪	-10.8302
此總	-10.8305
別解脫戒	-10.8307
能通達	-10.8313
解脫身	-10.8315
其事	-10.8316
已離	-10.8317
慢類	-10.8317
已還	-10.8317
十者	-10.8321
所執我	-10.8321
本末	-10.8323
邪教	-10.8336
欲色界	-10.8342
復有二種	-10.8344
別境五	-10.8347
憑	-10.835
擬	-10.835
叉	-10.8352
攝善	-10.8358
膿	-10.8358
類同	-10.8358
外門	-10.836
活命	-10.8363
分別煩惱	-10.8363
大隨	-10.8363
諸諦	-10.8364
謂欲界	-10.8365
若斷	-10.8365
境界故	-10.8371
十門	-10.8372
八解脫	-10.8375
心及心所	-10.8376
此中意說	-10.8377
此論中	-10.8379
非數滅	-10.8384
更相	-10.8387
慧眼	-10.839
即滅	-10.8396
亦不得	-10.8396
無想異熟	-10.8399
一分攝	-10.8402
負	-10.8413
即同	-10.8414
闡提	-10.842
翳	-10.842
兒	-10.8422
遍一切	-10.8424
前巳	-10.843
證涅槃	-10.8432
此執	-10.8435
處說	-10.8435
雖多	-10.8436
是有為	-10.844
次別	-10.8444
於所緣	-10.8445
實際	-10.8445
生色界	-10.8448
生現	-10.8455
令住	-10.8463
所縛	-10.8463
如空	-10.8466
續生	-10.8467
▁四	-10.8475
緣起經	-10.848
箇	-10.8481
非學非無學	-10.8482
但可	-10.8483
應思	-10.8483
蘇	-10.8483
故者意云	-10.8484
日月	-10.8485
利益事	-10.8489
無學果	-10.8489
諍論	-10.8494
練根	-10.8497
後辨	-10.8506
淺深	-10.8513
通攝	-10.8516
方斷	-10.8521
所顯故	-10.8527
餘義	-10.853
音義先	-10.8539
多法	-10.854
上座部	-10.8542
能化	-10.8545
獨頭	-10.8546
而行惠施	-10.8547
何以得知	-10.8547
無礙智	-10.8555
汝執	-10.8556
聞說	-10.8558
印持	-10.8564
易解	-10.8571
此後	-10.8574
有過	-10.8575
開為	-10.8576
互為因	-10.8576
諸經	-10.8578
有義下	-10.8582
皆為	-10.8583
文中分二初	-10.8583
所變相分	-10.8585
有多種	-10.8588
法行	-10.8592
解深密	-10.8597
初總標	-10.8601
明利	-10.8609
第三禪	-10.8609
如是已說	-10.8609
無生無滅	-10.8611
不名為	-10.8613
呵	-10.8613
二量	-10.8613
空等	-10.8617
營	-10.8618
是義不然	-10.8618
不觀	-10.8618
共成	-10.8621
對治道	-10.8624
恒與	-10.8628
前云	-10.8635
彼岸	-10.8636
深信	-10.8637
成道	-10.8639
修所成	-10.8639
為緣生	-10.8644
身語意	-10.8645
辨相	-10.8647
不施	-10.8649
能憶	-10.865
親因緣	-10.8655
猶在	-10.8656
有處	-10.8663
應知其相	-10.8663
摧	-10.8674
愛非愛	-10.8675
掌	-10.8675
須陀	-10.8679
懼	-10.868
三解脫門	-10.868
狗	-10.8682
輔	-10.8682
驗	-10.8686
甌	-10.8687
長夜	-10.8691
諸佛法	-10.8691
即離	-10.8691
異於	-10.8693
惱害	-10.8693
請問	-10.8694
計有	-10.8694
我說	-10.8705
唯識觀	-10.8705
執為我	-10.8705
信等五	-10.8712
不修	-10.8713
餘地	-10.8718
後依	-10.8722
明處	-10.8727
相例	-10.8727
隨增	-10.8729
能轉	-10.873
豈可	-10.8734
暴	-10.8741
餘部	-10.8742
身語業	-10.8744
來求	-10.8745
剎那剎那	-10.8746
惜	-10.8747
施者	-10.875
鼓	-10.875
故偏	-10.8751
有識	-10.8753
天王	-10.8753
入聖	-10.8755
五處	-10.8755
無漏界	-10.8761
演曰次	-10.8763
如眼	-10.8765
應立量云	-10.8766
天耳	-10.8767
知見	-10.8771
七地巳前	-10.8773
願樂	-10.8775
亦應然	-10.8777
所聞	-10.8779
不分別	-10.8784
無實體	-10.8785
亦無失	-10.8786
淨色	-10.8788
此論文	-10.8788
依之	-10.8789
生歡喜	-10.8791
舉喻	-10.8793
取彼	-10.8794
善者	-10.8795
為他說	-10.8798
富	-10.8801
三毒	-10.8801
八法	-10.8802
離一切	-10.8802
從何	-10.8805
護法等	-10.8805
若與	-10.8806
證理	-10.881
三約	-10.8811
即蘊	-10.8813
參	-10.8813
渴	-10.8814
成辨	-10.8815
未了	-10.8818
為方便	-10.882
復次云何	-10.882
軛	-10.8821
愛取有	-10.8824
復有三種	-10.8827
妄識	-10.8827
妄分別	-10.883
能取所取	-10.8832
相應義	-10.8833
饒益有情	-10.8836
於未來	-10.8837
聖性	-10.884
住異	-10.884
誰為	-10.8841
十句	-10.8843
住心	-10.8847
隣	-10.8847
一百	-10.8847
見道斷	-10.885
於中初	-10.8851
俱得	-10.8855
含藏	-10.8856
不得起	-10.8862
慧學	-10.8867
諸所有	-10.8869
無體故	-10.8869
響	-10.8875
牟尼	-10.8876
厭心	-10.8878
▁初正釋	-10.8878
粗	-10.8881
飢	-10.8883
無退	-10.8885
即第八識	-10.8885
前前	-10.8889
所應作	-10.889
其人	-10.889
如一	-10.8891
此障	-10.8896
所行境	-10.8898
三十六	-10.8899
同性	-10.8903
演曰四釋	-10.8903
不伏	-10.8907
十二種	-10.8908
無所緣	-10.8909
第九品	-10.8921
本地	-10.8922
問若爾	-10.8924
憂喜	-10.8924
師義	-10.8924
或云	-10.8932
於己	-10.8932
更互相	-10.8938
授記	-10.8939
起現行	-10.8944
何者是	-10.8947
無明為緣	-10.8948
慈氏	-10.8948
飾	-10.895
如是乃至	-10.895
乾	-10.8952
馳	-10.8956
受支	-10.8956
於所緣境	-10.8956
唯見	-10.8957
淨識	-10.8958
三十頌	-10.8959
莖	-10.8962
不安隱	-10.8967
生無色	-10.8969
遍緣	-10.897
唯立	-10.8971
此文意說	-10.8977
諦觀	-10.8982
二人	-10.8983
於無相	-10.8984
開導依	-10.8986
必是	-10.8987
本地分	-10.8989
一界	-10.8991
第二釋	-10.8992
諸弟子	-10.8993
二根	-10.9
無容	-10.9002
題	-10.9005
非真實	-10.9008
唯識理	-10.901
九門	-10.901
持心	-10.901
揔結	-10.9011
演曰後辯	-10.9013
即起	-10.9013
命者	-10.9014
喜捨	-10.9014
無差別故	-10.9015
妙法	-10.9017
亦隨	-10.9017
百劫	-10.902
伏惑	-10.9021
取捨	-10.9026
品說	-10.9027
不許有	-10.9027
白品	-10.9029
如涅槃說	-10.903
相見二分	-10.9032
二廣答	-10.9032
復有四種	-10.9034
彼障	-10.9036
義不成	-10.9038
勝德	-10.9039
假想	-10.9045
通二種	-10.9046
問意	-10.9047
中際	-10.9051
過惡	-10.9053
十處	-10.9055
委	-10.9057
信心	-10.9057
全分	-10.9057
即知	-10.906
不覺	-10.9061
如前已說	-10.9061
皆從	-10.9065
自義	-10.9065
先標	-10.9068
一實	-10.9072
現果	-10.9072
論主答	-10.9076
一劫	-10.9078
雜染清淨	-10.9081
不相應故	-10.9083
三徵	-10.9087
一聚	-10.9087
何等為四	-10.909
而是	-10.9092
理亦不然	-10.9097
圓鏡智	-10.9099
六事	-10.91
是不善	-10.9104
無間緣	-10.9106
六道	-10.9107
緣所生	-10.9114
如何言	-10.9114
悲願	-10.9118
火等	-10.9129
受學	-10.9131
生巳	-10.9134
先辨	-10.9139
意界	-10.9143
遠近	-10.9145
同是	-10.9159
世道	-10.9165
二行	-10.9166
五力	-10.9167
結生相續	-10.9168
大般若	-10.917
初地已上	-10.9173
無相觀	-10.9173
後師	-10.9174
知法	-10.9174
方所	-10.9177
下二句	-10.9178
能離	-10.9179
道果	-10.9182
今謂	-10.9183
實德	-10.9189
何異	-10.9194
由何	-10.9194
若未	-10.9196
非無漏	-10.9196
佛法僧	-10.9196
脩習	-10.9196
先已	-10.9196
應更	-10.9198
於彼彼	-10.9199
應修	-10.9201
不善心	-10.9202
所知事	-10.9204
略標	-10.9207
一切佛	-10.9209
能隨	-10.9214
是第三	-10.9214
及果	-10.9218
聲聞地	-10.9225
隨事	-10.9226
文意	-10.9227
奇	-10.9229
畫	-10.923
親相分	-10.9231
申正義	-10.9234
瞿	-10.9234
四境	-10.9235
了因	-10.9237
相用	-10.9238
如所說	-10.924
亦取	-10.9245
次一	-10.9245
成壞	-10.9248
五蓋	-10.9249
方便因	-10.9249
諸門	-10.9258
入地	-10.9261
由先	-10.9263
入息	-10.9265
受報	-10.9265
於世間	-10.9269
十使	-10.9275
欲繫	-10.9276
如燈	-10.9276
門竟	-10.9277
離合	-10.9278
前已	-10.9292
二境	-10.9296
一切諸佛	-10.9297
割	-10.9299
化心	-10.93
遺	-10.9301
陀那	-10.9303
青瘀	-10.9303
第一卷	-10.9307
是無記性	-10.9309
具戒	-10.9315
正直	-10.9315
道支	-10.9322
假設	-10.9322
共生	-10.9333
本生	-10.9341
無明發	-10.9346
離縛	-10.9356
而復	-10.9364
能分別	-10.9365
第二月	-10.9365
成無漏	-10.9368
演曰七	-10.9369
可欣	-10.937
於諸眾生	-10.9371
是故菩薩	-10.9374
主宰	-10.9375
甞	-10.9378
飢渴	-10.938
我法二執	-10.9381
菩提涅槃	-10.9383
貪恚	-10.9383
之我	-10.9386
家家	-10.9388
復起	-10.9388
苦具	-10.9393
唯識義	-10.9394
攀緣	-10.9394
小分	-10.9398
不同分	-10.9399
諸惡行	-10.9399
問既	-10.9402
色想	-10.9403
為行相	-10.941
所觸	-10.9413
不明	-10.9416
各一	-10.9417
所以不說	-10.9422
二釋分三	-10.9422
釋論曰	-10.9423
內種	-10.9423
略明	-10.9434
先徵後釋	-10.9439
循	-10.9442
均	-10.9442
開蒙	-10.9445
無實用	-10.9445
讚歎	-10.9446
現量所得	-10.9447
獨影	-10.9448
無住涅槃	-10.9449
等云	-10.9451
如地持說	-10.9453
無定	-10.9454
非他	-10.9456
七作意	-10.9457
彼種	-10.9458
攝大乘論	-10.946
救言	-10.9461
▁○	-10.9464
體實	-10.9465
餘六	-10.9466
智度論	-10.9466
識類	-10.947
前明	-10.947
名色支	-10.9473
緣起支	-10.948
勝功德	-10.9483
有處說	-10.9485
龍樹	-10.9486
邪命	-10.9488
復能	-10.9491
眼界	-10.9492
身表	-10.9494
第二第三	-10.9494
相同	-10.9495
種種差別	-10.9495
黑品	-10.9501
先世	-10.9502
有四句	-10.9508
多人	-10.9508
言語	-10.9511
顧戀	-10.9516
成實論	-10.9517
親證	-10.952
佛所	-10.952
若略說	-10.952
似外境	-10.9521
條	-10.9522
噉	-10.9522
聰慧	-10.9523
死時	-10.9523
隣虛	-10.9523
證入	-10.9528
定道	-10.9528
身分	-10.9528
初地菩薩	-10.9529
法空觀	-10.9532
極重	-10.9535
親所緣	-10.9536
淨居	-10.9538
為治	-10.9539
次答	-10.954
彼復	-10.954
在未來	-10.954
同境	-10.9541
轉法輪	-10.9544
例破	-10.9545
俱生煩惱	-10.9546
可生	-10.9549
能所取	-10.9549
上中下	-10.9551
此能	-10.9556
若無此識	-10.9558
於其中	-10.9558
第八見分	-10.9562
大種所造	-10.9571
兩句	-10.9574
隨自	-10.9579
上上	-10.9582
杌	-10.9583
調柔	-10.9586
而自	-10.9588
清淨法	-10.9589
熏修	-10.9591
扶塵	-10.9591
金剛喻定	-10.9592
搆	-10.9592
初二句	-10.9593
錯亂	-10.9594
呪術	-10.9596
安處	-10.9596
能盡	-10.9598
所遍計	-10.9599
別開	-10.9599
寺	-10.96
手足	-10.9603
不得成	-10.9605
此方	-10.9606
亦不成	-10.9607
非恒	-10.961
正命	-10.9614
此四種	-10.9617
能自	-10.9617
於色等	-10.9617
心品	-10.9617
五大	-10.962
斷所知障	-10.9624
體是一	-10.9627
人身	-10.9632
身在欲界	-10.9635
知其	-10.9637
煩惱種子	-10.9639
何非	-10.9639
廣破	-10.9642
佛位	-10.9643
同聚	-10.9644
次後	-10.9646
界處	-10.9649
無差	-10.9649
所有諸	-10.9651
能遍計	-10.9651
威	-10.9654
二利	-10.9654
於爾時	-10.9655
合名	-10.9657
修果	-10.9657
納	-10.966
羯	-10.9662
顯彼	-10.9664
佛地經	-10.9667
貧窮	-10.9667
令增長	-10.9667
所除	-10.9669
瞻	-10.9673
神我	-10.9676
能了別	-10.9677
略有五種	-10.968
何故如是	-10.9682
由四種	-10.9683
汝宗	-10.9683
義准	-10.9684
三十二相	-10.9686
難破	-10.9689
即簡	-10.969
得滅定	-10.9703
器世界	-10.9705
其理	-10.9708
隨法	-10.9714
無雜	-10.9715
能遍	-10.9717
佛智	-10.972
種子識	-10.9721
不別說	-10.9723
當知即是	-10.9725
慙	-10.9733
服	-10.9733
擔	-10.9734
報果	-10.9735
笑	-10.9735
童	-10.9738
研	-10.9739
一緣	-10.9739
五品	-10.9744
應同	-10.9745
第二念	-10.9746
戒禁	-10.9747
二障種	-10.9753
地繫	-10.9756
二無我	-10.9758
證淨	-10.9759
十二因緣	-10.9764
見分緣	-10.9765
之文	-10.9766
見疑	-10.9767
增語	-10.9767
求菩提	-10.977
不能自	-10.9771
一切有為	-10.9776
輕重	-10.9781
純苦	-10.9787
易脫	-10.979
不定者	-10.9794
如次配	-10.9797
無有差別	-10.9799
出現	-10.9801
一切功德	-10.9802
所集	-10.9805
和上	-10.9808
愁	-10.981
滑	-10.9813
盡未來際	-10.9813
泰	-10.9819
從緣生	-10.982
一邊	-10.9826
體同	-10.9827
耳根	-10.9829
是義云何	-10.9834
到究竟	-10.9835
之失	-10.9835
世出世間	-10.9836
無變異	-10.9836
一切門	-10.9838
於諸法中	-10.9839
極微細	-10.9839
初敘	-10.9842
惑障	-10.9842
轉時	-10.9852
六十二見	-10.9852
言音	-10.9853
觀察作意	-10.9855
要須	-10.9858
修習位	-10.986
登	-10.9863
有一類	-10.9863
二十唯識	-10.9869
自他利	-10.9872
想受滅	-10.988
唱	-10.9882
令起	-10.9883
未熟	-10.9887
酒	-10.9889
差別門	-10.9889
邊執見	-10.9889
無生智	-10.9891
免	-10.9892
能順	-10.9894
臭	-10.9894
亦應爾	-10.9899
受菩薩戒	-10.9901
發識	-10.9901
他方	-10.9903
先起	-10.9903
所了	-10.9905
猶是	-10.9907
通力	-10.9913
還生	-10.9914
判為	-10.992
生上地	-10.9923
無量功德	-10.9925
法華經	-10.9926
無忘失	-10.9927
結上	-10.9929
兩門	-10.9929
所因	-10.993
能變識	-10.9932
六界	-10.9932
形量	-10.9939
頌明	-10.9949
歡	-10.9954
凝	-10.9958
要由	-10.9958
三塗	-10.9961
所緣相	-10.9961
受想行識	-10.9961
形相	-10.9963
策勵	-10.9967
優	-10.9967
諸有漏	-10.9967
忿恨	-10.9967
初頌	-10.9968
常樂我淨	-10.9969
枝	-10.9969
接	-10.997
十二緣	-10.9971
六入	-10.9972
三十七品	-10.9974
而緣	-10.9975
立量破	-10.9977
苦樂受	-10.998
卑	-10.9984
自乘	-10.9985
一來果	-10.9988
行相所緣	-10.9989
薩婆多等	-10.999
擇法	-10.9995
受想思	-10.9997
五業	-10.9999
令離	-10.9999
不證	-11.0003
往還	-11.0004
身行	-11.0006
通別	-11.0007
四無色	-11.0017
畢	-11.0029
支分	-11.0032
能發業	-11.0034
質礙	-11.0034
御	-11.0035
即依此	-11.0039
商	-11.004
蘊處界	-11.004
善人	-11.0041
四取	-11.0041
十七地	-11.0044
毘曇法中	-11.0044
中陰	-11.0045
以此為	-11.0046
成事智	-11.0049
轉成	-11.005
邪欲	-11.0051
苦樂等	-11.0051
常樂	-11.0051
生死相續	-11.0054
十煩惱	-11.0062
遠離一切	-11.0062
外別有	-11.0062
聖說	-11.0062
真義	-11.0069
仙人	-11.0078
云云	-11.0083
分別門	-11.0086
定體	-11.0087
不顛倒	-11.009
諸法種子	-11.0091
前方便	-11.0093
念慧	-11.0096
於未來世	-11.0098
觸食	-11.01
說以為	-11.0101
廣辯	-11.0103
諂誑	-11.0105
下文云	-11.0111
基師	-11.0114
侵	-11.0117
踈	-11.0117
不堅	-11.0117
腹	-11.0118
貴	-11.0119
一師言	-11.0128
銅	-11.0129
出過	-11.013
水等	-11.0132
能了知	-11.0135
修道煩惱	-11.014
比度	-11.0141
略有四種	-11.0141
最後身	-11.0146
俱通	-11.0153
入無餘	-11.0153
似色	-11.0154
執為實	-11.0155
演曰四明	-11.0156
如經言	-11.0157
必與	-11.0161
施設建立	-11.0161
未成	-11.0167
染意	-11.0174
有漏定	-11.0175
無常苦	-11.0178
化作	-11.0181
本頌	-11.0181
十度	-11.0182
泥	-11.0191
反顯	-11.0191
阿笈摩	-11.0191
如大論	-11.0192
涅槃界	-11.0193
不離身	-11.0196
煩惱現行	-11.0198
靈	-11.0198
不用	-11.0203
園	-11.0203
勝智	-11.0204
可厭	-11.0204
如來地	-11.0207
標列	-11.0209
故經說言	-11.021
能趣	-11.0211
令諸有情	-11.0211
不安	-11.0214
煩惱業	-11.0215
頓悟菩薩	-11.0217
智品	-11.0223
煩惱相應	-11.0224
薩迦耶	-11.0232
辨體	-11.0237
有對色	-11.0238
契經說	-11.0238
永盡	-11.0243
心所有法	-11.0243
勝品	-11.0244
𢢔	-11.0244
聚色	-11.0245
三字	-11.0245
心王心所	-11.0247
論善男子至	-11.0248
即許	-11.0251
四尋思	-11.0255
成熟眾生	-11.0257
釋頌意	-11.0258
茲	-11.0261
網	-11.0263
陽	-11.0268
吐	-11.0268
不息	-11.0272
不增不減	-11.0273
八聖道	-11.0273
三十七	-11.0277
懺悔	-11.0278
能照	-11.0279
瑜伽等	-11.0296
迷亂	-11.03
迷悟	-11.0301
未入	-11.0302
日夜	-11.0302
間雜	-11.0302
品類差別	-11.0302
真如理	-11.0303
准此應知	-11.0303
第七地	-11.0303
二形	-11.0307
身證	-11.0308
所引發	-11.0308
所說法	-11.0316
諸漏	-11.0318
結顯	-11.032
草木	-11.0322
煩惱斷	-11.0324
就初	-11.0332
總顯	-11.0335
略答	-11.0339
生空智	-11.0341
極略	-11.0344
拔濟	-11.0349
阿僧祇劫	-11.0351
如理應思	-11.0351
勸導	-11.0351
應受	-11.0352
阿那含	-11.0352
沙彌	-11.0355
灌	-11.0355
勝義無性	-11.0359
疎遠	-11.036
六門	-11.0363
要集云	-11.0365
見相分	-11.0368
非要	-11.0369
利有情	-11.037
有二一	-11.0372
復次若	-11.0373
第一義諦	-11.0374
作如是說	-11.0378
不極成	-11.0391
但舉	-11.0395
修道斷	-11.0405
阿陀那	-11.041
真妄	-11.041
行施等	-11.0412
亦有二	-11.0413
宗鏡云	-11.0416
蜜	-11.0419
遠行	-11.0423
引發因	-11.0426
隔越	-11.0428
佛性論	-11.0429
醫	-11.0429
利養恭敬	-11.043
十地經	-11.043
乏	-11.0431
池	-11.0431
見聞覺知	-11.0432
客塵	-11.0435
如所有性	-11.0435
我宗	-11.0439
殺害	-11.0439
初正明	-11.044
油	-11.0441
虗空等	-11.0443
州	-11.0448
不可意	-11.0449
學勝利	-11.045
證菩提	-11.0452
應知亦爾	-11.0453
同一所緣	-11.0453
互相違	-11.0455
觸等五	-11.0456
命終時	-11.0458
廣如彼	-11.0464
華嚴經	-11.0466
資助	-11.0467
一切種智	-11.047
外無別	-11.0474
妄見	-11.0482
由無明	-11.0482
名言種	-11.0483
此中言	-11.0483
不苦不樂受	-11.0487
自相續	-11.0487
諸聖者	-11.0492
不定地	-11.0494
人法二	-11.0497
斷煩惱障	-11.0499
初文分	-11.0507
寒	-11.0509
雖知	-11.051
平等心	-11.0511
上座	-11.0515
目之為	-11.0517
解行住	-11.0518
二十句	-11.052
八禪	-11.0521
總名為	-11.0523
財位	-11.0527
遮止	-11.0528
佛眼	-11.0528
成不成	-11.053
引業	-11.053
清淨法界	-11.0532
何意	-11.0533
能斷惑	-11.054
上假立	-11.0543
圓明	-11.0544
法處色	-11.0545
信受	-11.0546
肉眼	-11.0549
容俱	-11.0549
見道前	-11.0556
具五	-11.0562
能執持	-11.0572
為簡	-11.0574
分別所起	-11.0583
無增減	-11.0586
孔	-11.0587
𦦨	-11.0588
頃	-11.0591
入見道時	-11.0592
沙門婆羅門	-11.0592
憙	-11.0592
為何義故觀	-11.0595
色等法	-11.0595
糞	-11.0596
無流	-11.0601
初中有二	-11.0601
相見分	-11.0603
所依根	-11.0604
依主釋也	-11.0604
不了義	-11.0605
悕望	-11.0605
一來	-11.0605
發露	-11.0605
不共佛法	-11.0606
橫計	-11.0609
無過失	-11.0611
位次	-11.0611
諸障	-11.062
不聞	-11.0621
既同	-11.0624
所無	-11.0625
問幾	-11.063
更無餘	-11.0632
剎那滅	-11.0632
自在轉	-11.0635
同梵行	-11.0639
大段	-11.0639
前九	-11.0641
佛寶	-11.0642
二廣解	-11.0646
熏發	-11.0648
今既	-11.0653
六十五	-11.0665
廣說如前	-11.0668
昇	-11.0668
略辨	-11.0668
善逝	-11.0669
▁1	-11.0669
生死苦	-11.0669
定果	-11.067
無慚無愧	-11.0672
為捨執著	-11.0676
曇	-11.0676
今謂不爾	-11.0676
此三門竟	-11.0678
方乃	-11.0678
攬	-11.068
愛支	-11.0681
總答	-11.0681
護月	-11.0686
五識俱	-11.0693
定不定	-11.0695
第四解	-11.0698
長壽	-11.07
分為三	-11.0701
率爾心	-11.0703
生空觀	-11.0706
正觀	-11.0708
如是次第	-11.0712
何以知	-11.0714
一切雜染	-11.0725
通達位	-11.073
頓生	-11.073
戒學	-11.0738
但隨	-11.0739
趣寂	-11.0742
一有情	-11.0747
現可得	-11.0748
六品	-11.075
富貴	-11.0752
久遠	-11.0753
着	-11.0753
十支	-11.0753
雜修	-11.0755
怯弱	-11.0756
惑種	-11.0757
梁	-11.0757
賤	-11.0758
如世	-11.076
邑	-11.0762
墮在	-11.0762
自在天	-11.0765
隨所欲	-11.0765
圓寂	-11.0769
攝藏	-11.0769
自釋言	-11.077
文分三段	-11.0782
四支	-11.0784
文句	-11.0785
無堪任	-11.0787
妙慧	-11.0788
前來	-11.0788
外塵	-11.0795
平等平等	-11.0795
豈無	-11.0803
方可	-11.0804
所食	-11.0805
如聲聞地	-11.0813
有情數	-11.0817
作惡	-11.0817
閒	-11.0818
應化	-11.0819
能燒	-11.0823
所得果	-11.083
逈色	-11.0833
人趣	-11.0833
緣闕	-11.0834
弊	-11.0836
指前	-11.0838
灰	-11.084
算數	-11.0841
發勤精進	-11.0842
聖弟子	-11.0842
他受用身	-11.0845
同品	-11.0846
因緣種	-11.0849
破他	-11.0852
所宜	-11.0854
利眾生	-11.0855
己身	-11.0858
千世界	-11.086
淨天	-11.0862
小乘說	-11.0867
四結	-11.0871
有殊	-11.0872
染淨法	-11.0874
一就	-11.0877
如契經說	-11.0879
別報業	-11.088
本疏	-11.0886
施主	-11.0887
分為四	-11.0888
略由	-11.0896
無學道	-11.0897
見趣	-11.0905
會通	-11.0907
競	-11.0912
慈愍	-11.0913
慕	-11.0914
違順	-11.0921
懈	-11.0922
三歸	-11.0922
內法異生	-11.0925
廣說如經	-11.0925
三無漏根	-11.0925
恒起	-11.0926
剎帝利	-11.0927
狹小	-11.0928
取果	-11.0928
覺慧	-11.0935
輪迴	-11.0943
利樂有情	-11.0943
離欲界	-11.0944
更加	-11.0947
現在法	-11.0949
分成	-11.0951
必應	-11.0951
此遮	-11.0951
地前菩薩	-11.0951
無戲論	-11.0955
識等五	-11.0957
聚中	-11.0958
有九種	-11.096
不可以	-11.0967
改轉	-11.0972
惡心	-11.0974
高下	-11.0979
影略	-11.0981
令成	-11.0984
因緣變	-11.0984
依他圓成	-11.0986
立支	-11.0988
且據	-11.0993
不相違故	-11.0997
旋	-11.1
感果	-11.1
有其二	-11.1002
里	-11.1003
彈	-11.1004
輪轉	-11.1008
無貪等	-11.101
修方便	-11.1012
植	-11.1012
半擇迦	-11.1015
審決	-11.1016
七寶	-11.1017
帝	-11.1017
根本識	-11.1018
難解	-11.1019
辟支佛	-11.1024
若不許	-11.1025
演說	-11.1036
論文中	-11.104
諸處	-11.104
不現見	-11.1042
大力	-11.1048
正加行	-11.105
思擇力	-11.1055
斷對治	-11.1057
耳等	-11.1063
能生果	-11.1063
建	-11.1067
習近	-11.1074
為遮	-11.1075
對法第十	-11.1076
修善法	-11.108
幽	-11.1083
投	-11.1084
星	-11.1092
現報	-11.1093
離生喜樂	-11.1094
結集	-11.1094
給	-11.1094
六十二	-11.1095
無亂	-11.1096
得自在故	-11.1103
十五種	-11.1103
值	-11.1104
之物	-11.1104
皆可	-11.1106
二彰	-11.1108
二解釋	-11.1109
便起	-11.1115
熏生	-11.1123
天眼耳	-11.1124
下一句	-11.1125
離惡	-11.1128
下三禪	-11.113
又解云	-11.1132
無礙道	-11.114
利生	-11.1145
由此故知	-11.1155
所依身	-11.1155
不動業	-11.1156
何以然者	-11.1157
會違	-11.1157
色聚	-11.1162
非想非非想	-11.1167
省	-11.1171
穴	-11.1172
憤	-11.1172
符	-11.1176
調暢	-11.1178
回	-11.118
劬勞	-11.1183
舊論	-11.1183
隨一攝故	-11.1184
分析	-11.1185
或於一時	-11.1187
中間禪	-11.1188
難意	-11.1188
耎	-11.119
行德	-11.1191
外餘	-11.1191
後得智中	-11.1193
宿住	-11.1194
麤動	-11.1198
故者此	-11.1203
六支	-11.1206
恒隨轉	-11.1208
二空所顯	-11.1209
五十二	-11.121
熏習種子	-11.1211
為自性故	-11.1213
助成	-11.1213
初能變	-11.1218
對前	-11.1218
生老	-11.1221
有幾	-11.1221
愍	-11.1228
移	-11.1233
二十九	-11.1243
有所得	-11.1246
故說名	-11.1247
□□□□	-11.125
罰	-11.1252
數量	-11.1255
耽	-11.1257
率	-11.1257
宮殿	-11.1258
有幾種	-11.126
牙	-11.1261
可斷	-11.1262
梨	-11.1265
能隨順	-11.1265
強盛	-11.1268
妄念	-11.1271
暴惡	-11.1273
正修行	-11.1273
名阿賴耶	-11.1279
入出息	-11.1279
未審	-11.1282
第十四	-11.1289
小十	-11.129
相應心所	-11.1296
名勝義	-11.1296
身語意業	-11.1297
於現法	-11.1297
梵住	-11.13
損伏	-11.1301
所須	-11.1301
悉是	-11.1303
凡所	-11.1305
不堪	-11.1305
增上義故	-11.1317
他作	-11.1319
了義經	-11.132
後二句	-11.1322
二列	-11.1332
未潤	-11.1334
真識	-11.1337
復更	-11.1338
一切如來	-11.1339
苾蒭	-11.1339
五數	-11.1341
億	-11.1343
毘柰耶	-11.1345
孤	-11.1346
教授教誡	-11.1347
典	-11.1351
無因緣	-11.1352
種子生現行	-11.1354
有實用	-11.1359
簡異	-11.1369
各具	-11.138
文中分二一	-11.1383
曾無	-11.1385
隨其所	-11.1386
經生	-11.1395
根本後得	-11.1396
▁初標	-11.1398
虗妄分別	-11.14
為利益	-11.1404
會釋	-11.1405
「	-11.1408
備云	-11.1423
夢境	-11.1429
何假	-11.143
晝夜	-11.1431
齒	-11.1432
流出	-11.1435
化地部	-11.1436
既然	-11.1436
博	-11.1436
每	-11.1437
緩	-11.1437
相應無明	-11.1439
恥	-11.1439
十二部經	-11.1441
妻	-11.1442
枯	-11.1443
為因緣故	-11.1443
具知根	-11.1444
仁王	-11.1445
八句	-11.1446
永伏	-11.1446
貪嗔癡	-11.1447
四總結	-11.1448
光影	-11.1449
謂諸如來	-11.1451
驚	-11.1454
影顯	-11.1455
萬法	-11.1457
決了	-11.1466
自性分別	-11.1468
堅執	-11.1473
小乘法中	-11.1477
八地已上	-11.1482
非能熏	-11.1488
准下	-11.1492
勤修習	-11.1494
工巧處	-11.1496
聲聞藏	-11.1497
通有漏無漏	-11.1498
最清淨	-11.1498
8	-11.1505
後彰	-11.1505
自性無記	-11.1507
不相違因	-11.151
帝釋	-11.1511
無生滅	-11.1512
與此同	-11.1513
薀	-11.1517
謂諸菩薩於	-11.1518
拏	-11.1519
傍修	-11.1521
理應	-11.1523
端嚴	-11.1523
無尋無伺	-11.1524
一分為體	-11.1527
於理無違	-11.1527
由二因緣	-11.1528
未滿	-11.1529
𤏙	-11.1529
無始來	-11.153
七八二識	-11.1531
柔軟	-11.1533
善不善業	-11.1538
鬼畜	-11.1538
增進	-11.1539
功能差別	-11.1543
勝果	-11.1544
有二說	-11.1544
身口意	-11.1555
移轉	-11.1557
正辨	-11.1558
此位中	-11.1568
表無表	-11.157
何因緣故	-11.1571
身見等	-11.1575
與心相應	-11.1582
是諸菩薩	-11.1585
涅盤	-11.1586
三能變	-11.1586
不離心	-11.1587
當體	-11.159
有無不定	-11.1591
可成	-11.1592
求解脫	-11.1592
薩婆多師	-11.1593
破經部	-11.1597
差別應知	-11.1599
能證得	-11.1601
盡所有性	-11.1613
所染	-11.1615
嫌	-11.1619
出世法	-11.1623
初念	-11.1626
勤精進	-11.1631
云何可見	-11.1635
望前	-11.1636
生厭	-11.1636
第三師	-11.164
所招	-11.1645
承事	-11.1652
所依止故	-11.166
▁初明	-11.1663
無量眾生	-11.1664
由此義故	-11.1666
識等五種	-11.1668
非執受	-11.167
何故此中	-11.167
易可	-11.1673
財法	-11.1673
有功用	-11.1673
樂著	-11.1675
難斷	-11.1676
總合	-11.1677
器界	-11.1681
遇緣	-11.1682
有間斷故	-11.169
為所依故	-11.1698
染分	-11.1698
甘	-11.17
註	-11.1701
索	-11.1702
十二分教	-11.1702
嫉妬	-11.1702
映	-11.1704
恒審思量	-11.1706
現在前時	-11.1706
非擇	-11.1706
無性云	-11.1706
聚落	-11.1707
慳悋	-11.1708
希奇	-11.1712
者意云若	-11.1714
五逆	-11.1714
演曰八	-11.1716
出入息	-11.1716
識等五果	-11.1717
為識支	-11.1717
不能伏	-11.1725
為助伴	-11.1726
諸門分別	-11.1727
第七卷	-11.1731
說一切法	-11.174
如其所	-11.1741
表示	-11.1741
進修	-11.1743
六十六	-11.1745
無漏識	-11.1746
青黃等	-11.1747
重障	-11.1755
一略釋	-11.1756
細分	-11.1757
世間出世間	-11.1762
非一異	-11.1763
般涅槃法	-11.1766
諸惡趣	-11.1766
初中分二一	-11.1774
十五界	-11.1774
聖教說	-11.1775
顯勝	-11.1776
大乘宗	-11.1776
趣生體	-11.178
何理	-11.1781
聰	-11.1787
今當	-11.1788
蕩	-11.1788
別境中	-11.179
休息	-11.179
有何過	-11.179
龜毛	-11.1791
頗	-11.1791
盧	-11.1792
匱乏	-11.1793
漏盡通	-11.1794
湛	-11.1796
謟	-11.1797
於現在世	-11.1799
三十四	-11.1801
兩重	-11.1803
窟	-11.1804
胎藏	-11.1805
僧伽	-11.1809
增上慧學	-11.1809
勝解行地	-11.1809
俱不成	-11.1818
如前釋	-11.1818
增上心學	-11.1821
復有差別	-11.1824
萬物	-11.1824
有執受	-11.1825
有質礙	-11.1827
加行位中	-11.1829
離言說	-11.1836
有頂地	-11.184
此等皆	-11.1841
支節	-11.1842
正顯	-11.1849
世尊說	-11.1849
善惡無記	-11.1851
苦法智	-11.1851
有輕安	-11.1856
有覆無記性	-11.1858
頌意	-11.186
論荅至	-11.1865
出息	-11.1865
文中有二初	-11.1866
如是所說	-11.187
群	-11.1873
例明	-11.1874
法處攝	-11.1876
亦不應理	-11.1881
敗	-11.1884
倦	-11.1885
前解為勝	-11.1886
虛偽	-11.1887
不淨品	-11.1888
數取趣	-11.1889
榮	-11.189
一部	-11.1893
危	-11.1893
幾種	-11.1894
螺	-11.1895
迴趣	-11.1896
速證	-11.1896
一切世界	-11.1896
退還	-11.19
未曾得	-11.19
一切法皆	-11.19
能量	-11.19
此間	-11.1902
舍利	-11.1902
欲愛	-11.1903
說如是言	-11.1905
諸佛世尊	-11.1909
地界	-11.1913
同利	-11.1914
人無我	-11.1916
不與取	-11.1918
分段身	-11.1919
忍可	-11.1925
十六種	-11.1927
任運起	-11.1927
後所得	-11.1948
上忍	-11.1949
通見修	-11.1955
初一頌	-11.1959
留身	-11.1967
収	-11.1971
成佛時	-11.1972
爽	-11.1977
伎	-11.198
神境	-11.198
文可知	-11.1982
是故說言	-11.1984
苦法智忍	-11.1985
展轉相望	-11.1996
耳鼻舌身	-11.2
】【	-11.2001
惱亂	-11.2003
莊嚴具	-11.2004
白淨	-11.2006
西明云	-11.2007
大地法	-11.201
發語	-11.2011
九根	-11.2016
此第二解	-11.203
於諸欲	-11.2032
解行地	-11.2032
堅等	-11.2033
斷二障	-11.2035
二徵問	-11.2038
初列	-11.2045
訓	-11.2049
義邊	-11.2056
寤	-11.2058
佛出世	-11.2058
斥前	-11.206
圓成實自性	-11.2062
决定	-11.2065
躭	-11.2068
本意	-11.2071
擯	-11.2072
至下當知	-11.2073
爛	-11.2074
同時意識	-11.2078
安穩	-11.2078
他界	-11.2078
調善	-11.2079
慢疑	-11.2079
問荅	-11.2081
富樂	-11.2083
六十九	-11.2084
八萬劫	-11.2084
世界中	-11.2089
惣結之	-11.2089
能障礙	-11.2092
不顯現	-11.2092
故此不說	-11.2094
性罪	-11.2098
念定慧	-11.2099
後隨別釋	-11.21
執我法	-11.2105
幻化	-11.2111
隨護	-11.212
諸隨煩惱	-11.2123
進退	-11.2123
般若波羅蜜多	-11.2125
勝解作意	-11.2125
諸經論	-11.2135
上妙	-11.2144
要集	-11.2146
總報業	-11.2152
覆藏	-11.2153
不饒益	-11.2154
忿等十	-11.2155
嗢拕南曰	-11.2156
朽	-11.2158
入此定	-11.2164
波羅	-11.2168
韻	-11.2169
產	-11.2171
不相違也	-11.2174
了相作意	-11.2182
於諸行中	-11.2183
輕微	-11.2183
安置	-11.2184
卷第十	-11.2188
折伏	-11.2193
類忍	-11.22
漸悟	-11.2203
寶性論	-11.2203
和雜	-11.2206
聽受	-11.2207
不肯	-11.2208
二障種子	-11.2209
所量	-11.2212
轉依位	-11.2215
利他行	-11.2215
有其二種	-11.222
諸靜慮	-11.2222
苦無常等	-11.2222
色像	-11.2222
俱相違	-11.2224
老死支	-11.2227
合響宗鏡	-11.2235
地持論	-11.2239
不定四	-11.2245
迷四諦	-11.2246
大梵	-11.2247
得成佛	-11.225
四句分別	-11.2251
觀四諦	-11.2257
慶	-11.2258
鬘	-11.2259
再	-11.226
徹	-11.226
刺	-11.2263
優婆塞	-11.2264
翻前	-11.2265
諸有情所	-11.2265
刀杖	-11.2268
生上界	-11.2271
永不生	-11.2273
定散	-11.2275
是所熏	-11.2283
可熏	-11.2291
無相行	-11.2292
▁初釋	-11.2292
能得清淨	-11.2293
成唯識說	-11.2295
如攝論	-11.231
應作四句	-11.231
斷所知	-11.2312
對法論說	-11.2314
分位建立	-11.232
無缺	-11.2322
文中分三一	-11.2324
差別建立	-11.2331
何別答	-11.2332
聖行	-11.2354
滋潤	-11.2355
祖	-11.2356
蓮華	-11.2356
總立	-11.2359
圍	-11.2361
虫	-11.2361
屠	-11.2364
在家出家	-11.2366
饒益有情戒	-11.2371
在見道	-11.2377
苣	-11.2381
已離欲	-11.2386
相違過	-11.2389
無明愛取	-11.2395
何勞	-11.2397
樹下	-11.2402
無畏施	-11.2414
無垢識	-11.2416
遂求	-11.242
不惱	-11.242
壞滅	-11.2424
化佛	-11.2426
喜樂捨	-11.2426
七轉識	-11.243
未永斷	-11.243
伏煩惱	-11.2431
二答分三	-11.2436
先破	-11.2441
口業	-11.2448
剋	-11.2454
中有二初	-11.2454
為自內我	-11.2456
於十方	-11.2457
托	-11.2457
色聲香味觸	-11.2458
親屬	-11.2458
身器	-11.2458
文中有三	-11.2459
中又二	-11.246
受蘊	-11.2461
場	-11.2462
十地論	-11.2463
無所畏	-11.2465
疾病	-11.2465
初中有二一	-11.2469
思食	-11.2469
見慢	-11.2469
聖位	-11.2473
此亦不爾	-11.2473
極逈	-11.2474
修道所斷	-11.2475
今且	-11.2475
亦尒	-11.2475
怨害	-11.2477
品惑	-11.2488
自相共相	-11.2488
正語	-11.249
計常	-11.2501
印順	-11.2503
欣厭	-11.2514
通局	-11.2518
此疏文	-11.252
憂俱	-11.2522
三十八	-11.2536
所詮義	-11.2537
余	-11.2544
於三世	-11.2547
由五相	-11.2555
摩訶	-11.2555
實我實法	-11.2555
珍	-11.2555
扶根塵	-11.2557
一闡提	-11.2561
猗	-11.2562
作是思惟	-11.2562
耐	-11.2562
醜	-11.2563
後邊	-11.2563
俱生俱滅	-11.2563
青色	-11.257
歸敬	-11.257
論復次至	-11.2578
不如理作意	-11.2578
稱量	-11.2583
進趣	-11.259
不墮	-11.2591
所生之	-11.2593
就前	-11.2599
如來所說	-11.2602
餘可知	-11.2603
俱生分別	-11.2608
邪定	-11.2612
依色根	-11.2614
所慮	-11.2614
能發起	-11.2623
異不異	-11.2627
惡戒	-11.2635
得無上菩提	-11.2636
十障	-11.2643
始起	-11.2646
僻	-11.2648
侍	-11.2651
色塵	-11.2651
是名第二	-11.2652
隱密	-11.2652
殖	-11.2653
不能知	-11.2654
通善惡	-11.2663
初中後	-11.2663
瑜伽處	-11.2664
盡無生智	-11.2665
分十一	-11.2667
五識相應	-11.2668
於後時	-11.2673
文分三段一	-11.2679
已成熟	-11.2682
無常想	-11.2694
犯重	-11.2695
除去	-11.2696
不增減	-11.2696
實我法	-11.2699
有尋有伺	-11.2712
領解	-11.2718
下三無色	-11.2721
不曾	-11.2727
微薄	-11.273
於一切處	-11.273
5	-11.2734
若如是者	-11.2737
慧為性	-11.2742
荷	-11.2743
稽首	-11.2745
彌勒菩薩說三藏法師玄奘奉詔譯	-11.2749
辯才	-11.275
親迷	-11.2751
祇	-11.2753
三千大千世界	-11.2753
獸	-11.2755
八萬四千	-11.2755
脚	-11.2758
威儀路	-11.2758
斯陀	-11.2759
作功用	-11.276
廣百論	-11.2762
真法界	-11.2763
傲	-11.2763
見道位	-11.2765
從此無間	-11.277
佛告	-11.2774
初牒	-11.2775
究竟道	-11.2786
於一時	-11.2793
隨情	-11.2794
發身語	-11.2802
三千	-11.2804
不虛	-11.2805
一剎那中	-11.2806
生惡趣	-11.2808
漸增	-11.2811
縱許	-11.2811
自體分	-11.2814
演曰二依	-11.2818
能緣見分	-11.2819
受想等	-11.2823
少欲	-11.2829
護持	-11.2831
諸纏	-11.2833
9	-11.2835
亦無違	-11.2835
異生位	-11.284
本計	-11.2841
毗鉢舍那	-11.2843
善法欲	-11.2847
正體智	-11.2851
同事因	-11.2853
遊戲	-11.2854
艱難	-11.2855
燸	-11.2855
有情界	-11.2856
顏	-11.2856
不一不異	-11.2858
四正斷	-11.286
所顯真如	-11.2862
正知而住	-11.2862
阿黎耶識	-11.2865
乃至非想	-11.2867
總略	-11.287
證二空	-11.2872
佛子	-11.2874
從無始	-11.2879
受熏持種	-11.2881
第四禪中	-11.2881
有心無心	-11.2883
文有三	-11.2885
十二支中	-11.2887
四別釋	-11.2887
資粮位	-11.289
阿賴耶名	-11.2896
不退菩薩	-11.2897
外道計	-11.2897
地上菩薩	-11.2902
有九品	-11.2905
知量	-11.2913
如前已	-11.2915
不善無記	-11.2917
品麁重	-11.2923
俱不俱	-11.2926
本願	-11.2932
聖果	-11.2944
露	-11.2945
五俱意識	-11.2947
此偈顯示	-11.2949
所託	-11.295
庸	-11.295
資粮加行	-11.295
或說為	-11.2952
善修習	-11.2953
非色非心	-11.2955
敢	-11.2959
戚	-11.2959
景師	-11.296
翼	-11.2964
電光	-11.2965
旬	-11.2966
非所熏	-11.2966
風輪	-11.2968
曾得	-11.2976
語表	-11.2982
相用故	-11.2989
牽引生起	-11.299
上流	-11.2998
於當來世	-11.2999
苦集諦	-11.3001
極清淨	-11.301
皆不離	-11.3012
外凡	-11.3015
顯揚云	-11.3022
所行境界	-11.3023
廣慧	-11.3034
不足	-11.3037
不同小乘	-11.3042
辛	-11.3049
心外法	-11.3052
墜	-11.3057
演曰九	-11.3058
五法中	-11.3058
淪	-11.3059
村	-11.3059
保	-11.306
識無邊處	-11.3062
破斥	-11.3063
如鏡	-11.3063
三界唯心	-11.3064
阿耨菩提	-11.3064
摧伏	-11.3066
勝軍	-11.307
破僧	-11.3073
無我理	-11.3073
所厭	-11.3079
世第一	-11.308
何因緣	-11.3081
初句牒	-11.3082
施波羅蜜多	-11.3083
菩提資糧	-11.3094
初中有二先	-11.3094
疎緣	-11.3099
非遍行	-11.3104
煩惱雜染	-11.3108
約對	-11.3112
天魔	-11.3114
即於如是	-11.3114
三際	-11.3115
喜根	-11.3116
從初地	-11.3118
違逆	-11.3118
損壞	-11.312
文分為三	-11.3125
自稱	-11.3127
修正行	-11.313
相傳	-11.3139
入過去	-11.3145
遍計所執性	-11.3147
盖	-11.3148
曾受	-11.3151
不退轉	-11.3152
文中分二一釋	-11.3154
熾盛	-11.316
能攝受	-11.3161
飛	-11.3162
五度	-11.3163
青黃赤白	-11.3171
資養	-11.3173
倣	-11.3173
亦有二種	-11.3175
第四卷	-11.3179
軌持	-11.3179
稠林	-11.3185
恩德	-11.3193
無質礙	-11.3193
後總結	-11.3194
作此解	-11.3195
惣結	-11.3197
色陰	-11.32
若爾如何	-11.32
由有此	-11.3207
第十五	-11.321
如虗空	-11.3212
具縛	-11.3215
道諦攝	-11.3228
不可記	-11.3237
但遮	-11.3243
得擇滅	-11.3244
資財	-11.3249
居處	-11.3249
2	-11.325
假建立	-11.3251
断	-11.3255
無執受	-11.3257
披	-11.326
偷	-11.3265
猛赤	-11.3267
朋	-11.3267
優劣	-11.3268
淳	-11.3269
讀誦	-11.3271
據實而言	-11.3273
經所說	-11.3278
若依毘曇	-11.3278
聲聞辟支佛	-11.3279
初中有三	-11.3281
篇	-11.3284
是名下結	-11.3287
六十三	-11.329
七十三	-11.3296
轉輪王	-11.3301
故涅槃云	-11.3301
四念處	-11.3303
識不離身	-11.3311
不動地	-11.3311
退轉	-11.3319
寂止	-11.3322
常恒	-11.3323
男根	-11.3323
天親菩薩	-11.3324
宿作	-11.3327
不正思惟	-11.3333
唯識論云	-11.3334
於所觀境	-11.3335
染不染	-11.3336
無恚	-11.3348
賴	-11.3357
先徵	-11.336
敬禮	-11.3361
果報識	-11.3362
所觀境	-11.337
兵	-11.3371
瑜伽論記卷第	-11.3374
能作因	-11.3376
憤發	-11.3378
悋	-11.3378
統	-11.3381
誓願	-11.3382
八萬	-11.3391
二廣答分二	-11.3396
顯揚第一	-11.3396
諸有學	-11.3403
子微	-11.3406
違宗	-11.3407
明略義	-11.3414
依他起相	-11.3418
大慈	-11.3423
入無餘依	-11.343
唯善性	-11.3433
斯乃	-11.3434
影像相分	-11.3438
阿梨耶	-11.3446
破小乘	-11.3452
乃至有頂	-11.3467
不忘失	-11.347
身邊	-11.3472
能徧計	-11.3475
第二禪	-11.3475
扇	-11.3475
步	-11.3476
鬪諍	-11.3477
斫	-11.3478
蘊處界等	-11.3479
涉	-11.3481
迫	-11.3481
如世尊言	-11.3481
有學無學	-11.3483
葢	-11.3484
無有是處	-11.3491
呵責	-11.3492
諸行無常	-11.3493
癈	-11.3494
二別釋分二	-11.3496
亦不應	-11.3499
中夭	-11.35
動搖	-11.3501
訓釋	-11.3503
順違	-11.3514
自利行	-11.3517
順世	-11.3519
判屬	-11.3524
由此應知	-11.3528
教化眾生	-11.3528
厭背	-11.3536
謝滅	-11.3541
作是言	-11.3546
違越	-11.3549
由五種相	-11.3551
空無邊處	-11.3557
演曰二別	-11.3557
六十四	-11.3559
相名分別	-11.3565
有覆性	-11.3577
牒釋	-11.3579
洛	-11.3585
㝡	-11.3587
他利	-11.3588
籌	-11.3588
塔	-11.3593
右	-11.3594
屋	-11.3595
待眾緣	-11.3597
第十六心	-11.3597
同喻如	-11.3601
隱沒	-11.3601
環	-11.3604
有堪能	-11.3604
無性釋云	-11.3609
憶持	-11.3611
普於一切	-11.3614
二無心定	-11.3616
梵音	-11.3616
不久	-11.3622
法住智	-11.3624
都無所有	-11.3635
我所見	-11.364
摽列	-11.3642
准上	-11.3643
卒	-11.365
徧染心	-11.3651
攝大乘論釋	-11.3651
名異熟生	-11.3656
謂即於彼	-11.3657
就實	-11.3682
能斷煩惱	-11.3682
貪等煩惱	-11.3682
此師意說	-11.3695
巳知根	-11.3696
玅	-11.3696
奘	-11.3697
履	-11.3697
至教量	-11.37
祠祀	-11.3702
泯	-11.3703
詣	-11.3703
痛	-11.3705
似我法	-11.3708
彼由如是	-11.3711
亦同此	-11.3721
冷觸	-11.3722
何等為三	-11.373
具四義	-11.3731
文分為二初明	-11.3732
被他	-11.3734
初中有三一	-11.3737
遍行五	-11.3738
俱生我執	-11.3741
諸苾芻	-11.3744
決斷	-11.3745
貪瞋等	-11.3752
覆障	-11.3753
例同	-11.3753
是名略說	-11.3753
約就	-11.3754
貌	-11.3755
純無漏	-11.3761
瑜伽第十	-11.3763
七覺支	-11.3769
圓成實攝	-11.3769
色非色	-11.3771
淨不淨業	-11.3774
且第一	-11.3777
要期	-11.3778
制多	-11.379
從種生	-11.3791
十因中	-11.3792
文勢	-11.3794
能永斷	-11.3801
一切異生	-11.3802
將欲	-11.3805
八地巳去	-11.3806
閉	-11.3807
戒定慧	-11.3809
軌範	-11.3813
今當顯示	-11.3813
瑜伽論云	-11.3813
通二性	-11.3813
或有或無	-11.3815
證成道理	-11.3816
膚	-11.3816
邪正	-11.3816
流注	-11.3816
一時頓斷	-11.3817
正理師	-11.3818
懺	-11.3818
略有六種	-11.3825
純熟	-11.3826
此若無者	-11.3827
推尋	-11.3829
無餘依涅槃界	-11.3831
願求	-11.3837
增上慧住	-11.3837
相應縛	-11.3838
自共相	-11.3841
依識變	-11.3846
等引地	-11.3848
此十煩惱	-11.385
煩惱隨煩惱	-11.3858
圓鏡	-11.3865
中邊論	-11.3873
有餘涅槃	-11.3878
有兩釋	-11.388
百一十	-11.3884
具三義	-11.389
法自相相違	-11.389
於大乘中	-11.389
水月	-11.3892
無漏後得智	-11.39
八十九	-11.3907
意言分別	-11.3908
快	-11.3914
輩	-11.3916
無退轉	-11.3917
晝	-11.3921
厭惡	-11.3922
看	-11.3925
增上戒學	-11.3927
三千界	-11.3929
無住處涅槃	-11.3932
親友	-11.3933
鏡像	-11.3941
寒熱	-11.3946
是因義	-11.3949
衣食	-11.3949
身口意業	-11.395
能生現行	-11.3951
伽陀	-11.3952
皆不離識	-11.3955
有為無漏	-11.3966
動轉	-11.3967
次二句	-11.3992
諸心心法	-11.3997
惑業苦	-11.3997
期心	-11.4008
唯修所斷	-11.4008
緣過未	-11.4023
得初果	-11.4029
中初一	-11.403
彩	-11.4033
百四十	-11.4033
素	-11.4033
鍊	-11.4033
吠	-11.4034
麟角	-11.4034
演曰二彰	-11.4035
增廣	-11.4038
自己	-11.4039
軍林	-11.404
流蕩	-11.4044
拘礙	-11.4047
死屍	-11.4047
未轉依位	-11.4048
挾帶	-11.4049
末尼	-11.4049
且舉	-11.4058
難意云	-11.4063
無色界繫	-11.4064
遠行地	-11.4064
此復云何	-11.4071
日輪	-11.4073
即於此中	-11.4077
修梵行	-11.4077
邊無邊	-11.4085
三界繫	-11.4087
文分為二一明	-11.4089
逐難	-11.4096
無慚愧	-11.4096
依附	-11.4102
退墮	-11.4106
超過一切	-11.4106
泰師	-11.4111
繫念	-11.4111
此亦應爾	-11.412
拔苦	-11.4126
文分為四一	-11.4134
彼論說	-11.4136
總說為	-11.4138
第八卷	-11.4143
闡	-11.4144
撰	-11.4148
猶預	-11.4148
截	-11.4149
我語取	-11.4152
苦集滅道	-11.4152
無數劫	-11.4153
最為殊勝	-11.4153
諸漏永盡	-11.4154
床	-11.4154
點	-11.4155
充滿	-11.4155
隨轉理門	-11.4156
八地以上	-11.4156
宰	-11.4158
範	-11.4159
軟中上	-11.4163
開發	-11.4167
能堪忍	-11.4169
第一釋名	-11.4171
阿毘曇	-11.4174
遍行別境	-11.4178
往惡趣	-11.4184
善巧方便	-11.4187
岸	-11.4194
本母	-11.4195
果俱有	-11.4212
好惡	-11.4222
不動無為	-11.4224
有二十四	-11.423
獄卒	-11.4244
本地分中	-11.4245
經典	-11.4248
規矩	-11.4251
文中有二先	-11.4251
文分三叚	-11.4252
演曰二徵	-11.4259
五受相應	-11.4262
戀	-11.4262
慈恩	-11.4262
災橫	-11.4264
飽	-11.4267
五十一心所	-11.4269
迅	-11.427
諫	-11.427
僕	-11.427
召	-11.4271
沈沒	-11.4274
惛沈睡眠	-11.4275
得非擇滅	-11.4275
五別境	-11.4277
尺	-11.4278
諸佛法身	-11.4282
心與心所	-11.4283
從因生	-11.4287
遍計所起	-11.4294
薄塵	-11.43
色香味觸	-11.4303
十三種	-11.431
名句等	-11.4321
劣無漏	-11.4325
如世尊說	-11.433
初標列	-11.4332
共中不共	-11.4333
違損	-11.4335
頓漸	-11.4349
聞持	-11.4352
極喜	-11.4354
四神足	-11.4356
第五卷	-11.4359
第十卷	-11.4372
瘂	-11.4376
修道位	-11.4377
珍寶	-11.4379
是名第一	-11.438
一標經句	-11.438
吾	-11.4381
繞	-11.4382
充	-11.4383
五塵境	-11.4383
唯是有漏	-11.4383
張	-11.4385
烏	-11.4386
三摩鉢底	-11.4387
瞖	-11.439
審慮	-11.4391
思現觀	-11.4392
西國	-11.4393
蘭	-11.4394
麻	-11.4395
藤	-11.4395
本無今有	-11.4396
能斷道	-11.4397
圓證	-11.44
流散	-11.4411
正翻	-11.4416
五根五塵	-11.4417
隣次	-11.4418
勸修	-11.4422
愛恚	-11.4436
天趣	-11.4441
如前廣說	-11.4447
釋外難	-11.445
不了義經	-11.4453
隨轉門	-11.4455
議	-11.4458
大智論	-11.4459
或分為二	-11.4463
不恒行	-11.447
獄卒等	-11.4471
窮盡	-11.4478
諸比丘	-11.4484
違自宗	-11.4485
翻對	-11.4489
非徧行	-11.4495
唯見所斷	-11.4496
糅	-11.4498
安樂住	-11.4498
漂	-11.4502
悞	-11.4503
無明緣行	-11.4505
上二句	-11.4505
色等諸法	-11.4507
黨	-11.4508
奢	-11.4509
波羅夷	-11.4509
鷄	-11.451
善護	-11.4512
怨敵	-11.4513
中說偈	-11.4516
誑諂	-11.4517
瑜伽第一	-11.4525
名義如是	-11.4527
兩頭	-11.4531
不越	-11.4535
如理應知	-11.4543
未知根	-11.4549
小乘宗	-11.4553
沈掉	-11.4554
胎生	-11.457
則不如是	-11.4571
故偏說之	-11.4575
為同喻	-11.4575
更有餘	-11.4578
所待	-11.4581
違背	-11.4585
薩婆多宗	-11.4585
共中共	-11.4592
能成辦	-11.4598
起信論	-11.4601
有增減	-11.4601
入無餘涅槃	-11.4605
憂受	-11.4612
貫穿	-11.4614
此偈明何義	-11.4614
無生法忍	-11.4622
聾	-11.4622
無心地	-11.4622
居士	-11.4623
澄	-11.4624
諸愚夫	-11.4624
順樂受	-11.4625
維摩	-11.4625
剌	-11.4625
怡	-11.4626
穢污	-11.4626
識等五支	-11.4626
一切種子識	-11.4629
而未能	-11.463
三摩呬多地	-11.4631
翻譯	-11.4637
不生不滅	-11.4638
隨其次第	-11.4641
云何名王	-11.4642
遊觀	-11.465
緣他心	-11.466
氣力	-11.466
初中分	-11.4665
於所樂	-11.4669
彼於爾時	-11.4675
正等覺	-11.4675
有尋有伺地	-11.4678
不續	-11.4692
略有二	-11.4697
唐言	-11.4699
未曾有	-11.47
依識所變	-11.4705
萬行	-11.4713
瑜伽等說	-11.4719
分段生死	-11.4721
三心見道	-11.4725
諂曲	-11.4727
第二能變	-11.4727
論又諸菩薩至	-11.4733
虧	-11.474
講	-11.474
暢	-11.4742
羸	-11.4745
道共戒	-11.4745
安足處	-11.4746
評	-11.4752
達師云	-11.4753
違害	-11.4753
羞耻	-11.4754
師長	-11.4755
竭	-11.4757
生無想天	-11.4762
流類	-11.4764
所防	-11.4768
淨穢	-11.4779
麥等	-11.4781
似塵	-11.4782
日光	-11.4782
問何因緣故	-11.4802
濕生	-11.481
此文意	-11.4813
復有五種	-11.4822
內六處	-11.4824
光明想	-11.4826
十方世界	-11.4826
先敘	-11.4829
期願	-11.4832
寧知	-11.484
意言境	-11.4841
亦不得成	-11.4847
後別釋	-11.4848
大士	-11.4855
大論第十	-11.4857
載	-11.4862
筆	-11.4866
匱	-11.4868
坑	-11.4871
夷	-11.4872
補闕云	-11.4873
毫	-11.4873
尤重	-11.4875
他受用土	-11.4876
卒爾	-11.4876
伊	-11.4879
楞	-11.488
新舊	-11.4882
如幻事等	-11.4883
柱	-11.4884
善戒經	-11.4886
從無始來	-11.4888
逆次	-11.4892
迷謬	-11.4895
思察	-11.4895
精進三根	-11.4897
極喜地	-11.4903
不應有故	-11.4903
迴向菩提	-11.4906
凡夫二乘	-11.491
遊觀無漏	-11.491
復次頌曰	-11.4914
身語二業	-11.4925
德句	-11.4926
煗等	-11.493
具二義	-11.4942
修慈	-11.4943
真金	-11.4943
熏成種子	-11.4944
下論文	-11.4944
三乘無學	-11.4944
大雲	-11.4945
散位	-11.4948
欲邪行	-11.4949
多羅	-11.4966
漸伏	-11.4966
演曰五明	-11.4975
遊行	-11.498
纂	-11.4986
兩種	-11.4989
若於是處	-11.4991
那洛迦	-11.4993
奴	-11.4993
妬	-11.4994
包	-11.4995
謙	-11.4995
役	-11.4996
四如實智	-11.4996
勝義無自性性	-11.4998
遍一切處	-11.5
惛昧	-11.5003
豆	-11.5006
洗	-11.5011
怨家	-11.5016
快樂	-11.5017
二顯果分二	-11.5019
有何所以	-11.502
陀羅尼門	-11.5021
無性攝論	-11.5022
取像	-11.503
鼻識	-11.5037
帶質境	-11.5039
業所招	-11.5044
得非得	-11.5045
我及我所	-11.505
六位心所	-11.5061
相濫	-11.5061
為顯此	-11.5068
自所證	-11.507
後有愛	-11.5082
幾根	-11.5083
稱曰	-11.5098
勸他	-11.5098
所知境界	-11.5099
㸦	-11.51
修道位中	-11.5101
無厭倦	-11.5117
歡喜地	-11.5118
象馬	-11.5118
愛非愛果	-11.512
傾動	-11.5122
溫	-11.5124
戾	-11.5124
斯陀含	-11.5126
摩尼	-11.5126
演曰三辯	-11.5126
仁	-11.5127
垂	-11.513
至處道	-11.513
分六如論	-11.5132
禾	-11.5137
六七二識	-11.5138
無數大劫	-11.5141
十年	-11.5147
故唯識云	-11.5147
憂惱	-11.5154
能緣之心	-11.5157
應撿	-11.5162
觀外色	-11.5167
一切智智	-11.5169
第十地菩薩	-11.5172
阿含經	-11.5202
招感	-11.5204
深推度	-11.5205
逈	-11.5206
婬欲	-11.5218
次引證	-11.5221
盡壽	-11.5235
滋	-11.524
釋中有三	-11.5243
野	-11.5245
阿練若	-11.5247
哀	-11.525
威勢	-11.5251
四門竟	-11.5252
低	-11.5252
如是名王	-11.5254
攝樂作意	-11.5255
軟語	-11.5256
咎	-11.5257
山河等	-11.5258
非一非異	-11.5259
群臣	-11.5259
付	-11.5262
族姓	-11.5262
此世他世樂	-11.5266
所立不成	-11.5269
害伴	-11.5272
怨親	-11.5272
順逆	-11.5275
安住其心	-11.5276
諸聖弟子	-11.5276
釋中有四	-11.528
資益	-11.528
二各二	-11.5285
無上乘	-11.5285
於中先	-11.5287
不盡理	-11.5294
世俗智種子	-11.5294
審諦	-11.5295
略有三	-11.5308
應是無常	-11.5314
迴轉	-11.5314
後有業	-11.5315
遮罪	-11.5317
諸菩薩眾	-11.5319
互不相	-11.5323
演曰後結	-11.5326
動作	-11.5332
各各別	-11.5336
論世尊至	-11.5357
决擇	-11.5362
大種造	-11.5363
閑	-11.5364
現等覺	-11.5365
舉例	-11.537
慰	-11.5373
嘗	-11.5375
各據一義	-11.5377
西域	-11.5379
胡	-11.5382
隙	-11.5382
唐捐	-11.5382
遊履	-11.5383
擾亂	-11.5384
柔和	-11.5385
弟	-11.5385
鮮白	-11.5387
不由功用	-11.5387
被甲	-11.5389
非有想非無想	-11.539
餘文可知	-11.5396
二世樂	-11.54
此義不然	-11.541
於三界中	-11.5413
世親攝論	-11.5432
纏縛	-11.5433
入胎	-11.5438
五明處	-11.5439
同一處	-11.5461
慳貪	-11.5463
問答辨	-11.5466
佛地論云	-11.5474
𢙉	-11.5484
計度分別	-11.549
簡去	-11.5491
隱覆	-11.5499
應不得成	-11.55
嗢拕南	-11.5501
廣解分九	-11.5506
無量無數	-11.5507
朝	-11.5508
吹	-11.5508
干	-11.5509
婦	-11.551
男女二根	-11.5512
形質	-11.5512
發光	-11.5513
嗅	-11.5514
暖	-11.5514
壁	-11.5514
齋	-11.5515
覓	-11.5515
對法第一	-11.5516
而行布施	-11.5516
謂有國王	-11.5516
險	-11.5518
入息出息	-11.5518
衣鉢	-11.5519
入現觀	-11.5521
福德智慧	-11.5521
毀謗	-11.5527
滅心定	-11.5527
善等三性	-11.5527
能詮所詮	-11.5527
微隱	-11.5531
此復三種	-11.5536
別解脫律儀	-11.5555
樞要云	-11.5561
前二句	-11.5561
異生性障	-11.5564
演曰第二	-11.5565
文中分	-11.5568
第九卷	-11.5576
究竟現觀	-11.5577
扶	-11.5586
三解釋分	-11.5587
如龍樹	-11.5587
異色心等	-11.5599
1	-11.5604
空寂	-11.5605
壽盡	-11.5611
熾	-11.5637
乍	-11.5647
米	-11.5647
不死矯亂	-11.5649
禮拜	-11.5654
往善趣	-11.5656
故論說言	-11.5663
隨其所欲	-11.5667
大自在天	-11.5668
治罰	-11.5671
將死	-11.5684
見道已前	-11.5686
如次應知	-11.5688
去來今	-11.5695
勝利分二	-11.5698
過去未來現在	-11.57
第三總結	-11.5708
護法師	-11.5714
舌識	-11.5725
生覺受	-11.5725
初中分二初	-11.573
證無上正等菩提	-11.5732
照了	-11.5743
有爾所	-11.5745
勤求	-11.5756
依彼轉	-11.5758
永不行	-11.5758
倍增	-11.5764
佉	-11.5766
按彼論云	-11.5767
某甲	-11.5773
行緣識	-11.5774
振	-11.5775
漂溺	-11.5776
訛	-11.5776
潛	-11.5776
陶	-11.5777
暇	-11.5778
訟	-11.5779
略而不說	-11.5779
聰叡	-11.5779
嬰兒	-11.578
同處不相離	-11.5781
如應當知	-11.5781
身邊見	-11.5781
於時時間	-11.5782
慶慰	-11.5782
累	-11.5783
抑	-11.5783
觸所生受	-11.5783
寺沙門	-11.5783
燃	-11.5785
不即不離	-11.5786
電	-11.5786
躁	-11.5786
滋長	-11.5788
波浪	-11.579
樓	-11.579
煩惱及隨煩惱	-11.5792
有心位	-11.5799
火燒	-11.5799
化生有情	-11.5806
乞求	-11.5807
嗔恚	-11.5808
分位假立	-11.5816
教誨	-11.5825
我我所執	-11.5827
今當說	-11.5841
汝所執	-11.5842
八地已去	-11.5853
二禪巳上	-11.5876
卑慢	-11.5885
工	-11.5891
一類相續	-11.5898
悕	-11.5907
深密經	-11.5911
真實義愚	-11.5914
大自在宮	-11.5915
隅	-11.5916
堂	-11.5917
矯亂	-11.5918
骨鎖	-11.5918
陰界入	-11.5923
庫	-11.5926
隨法行	-11.5927
應當了知	-11.5927
如別章	-11.5928
本來寂靜	-11.593
直往	-11.5931
宿住通	-11.5936
釋第三句	-11.5939
皆不得成	-11.5956
獨影境	-11.5962
五受根	-11.5965
相扶	-11.597
財利	-11.6001
不捨生死	-11.6007
攝事分	-11.6018
要待	-11.6022
禪支	-11.6023
執我我所	-11.6027
飜	-11.6045
阿羅耶識	-11.6047
尅	-11.605
灾	-11.6051
騰	-11.6052
欲色二界	-11.6053
玉	-11.6057
蒙	-11.6059
鉢羅	-11.6059
加行究竟作意	-11.6059
混	-11.6059
沙門若婆羅門	-11.606
不相障礙	-11.6061
塞	-11.6062
有財釋	-11.6062
興盛	-11.6064
閻浮提	-11.6066
昇進	-11.6066
死後有想	-11.6067
祠	-11.6067
工業	-11.6068
泥洹	-11.6069
相續而轉	-11.6071
若汝說	-11.6076
生住滅	-11.608
相狀如何	-11.6087
具不具	-11.6094
斷見惑	-11.6102
即由如是	-11.6105
依耽嗜	-11.6106
自下第四	-11.6115
衰變	-11.612
初地巳上	-11.6122
二三四	-11.6128
能受熏	-11.6143
卷第五	-11.6145
實無所有	-11.6145
入滅盡定	-11.6148
計為我	-11.6149
△	-11.6153
尓	-11.6179
陁	-11.6181
釋第四句	-11.6182
總攝一切	-11.6188
蔑	-11.6189
勢速	-11.619
成正覺	-11.619
甘露	-11.6191
八地以去	-11.6195
官	-11.6196
敷	-11.6196
淵	-11.6197
團	-11.6199
花嚴	-11.6202
第九地	-11.6202
怨憎	-11.6206
空閑	-11.6207
眼所見	-11.6221
離增上慢	-11.6231
體性業用	-11.6232
印可	-11.6259
梵世	-11.6278
離欲界欲	-11.628
變帶	-11.6286
可愛樂	-11.6287
以何為體	-11.6294
更互為因	-11.6297
釋第二句	-11.63
聞思修慧	-11.6301
辨中邊	-11.631
今此文中	-11.6325
𠛴那	-11.6326
此世他世	-11.6334
北洲	-11.6336
訶責	-11.6336
廣說應知	-11.6337
下別顯之	-11.6337
欺	-11.6337
侶	-11.6338
窮未來際	-11.6339
犢子部	-11.634
救濟	-11.6342
便能永斷	-11.6343
無厭足	-11.6344
怙	-11.6344
今於此中	-11.6345
夏	-11.6346
四天下	-11.6346
鼻舌身三	-11.6348
巧方便	-11.635
是假非實	-11.6351
獨覺乘	-11.6352
故地持云	-11.6353
稱之為	-11.6362
不受熏	-11.6362
六種波羅蜜多	-11.6362
漸悟菩薩	-11.637
非此所	-11.6376
世俗勝義	-11.6383
常委	-11.6404
云何得知	-11.6408
習氣依處	-11.6423
間隔	-11.6424
辟支	-11.6432
初惣	-11.644
文分為五一	-11.646
陀羅	-11.6469
總以標舉	-11.6477
驅	-11.648
怛	-11.6481
渡	-11.6481
聊	-11.6481
昧略	-11.6482
澄清	-11.6483
止舉捨	-11.6483
舍宅	-11.6484
苦類智忍	-11.6485
歸禮	-11.6485
麼	-11.6486
如經廣說	-11.6486
瞋癡	-11.6486
潔	-11.6487
膝	-11.6489
受所引色	-11.649
無明望行	-11.649
丈	-11.6491
扶根	-11.6494
情非情	-11.6494
福分善	-11.6495
有難言	-11.6507
碍	-11.6612
式	-11.6628
瑟	-11.6631
歌	-11.6632
錢	-11.6632
什	-11.6632
個	-11.6635
府	-11.6636
咽	-11.6638
紛	-11.6778
漫	-11.6782
恣	-11.6785
霜	-11.6786
癰	-11.6793
製	-11.692
稟	-11.6928
吉	-11.693
擁	-11.6931
忻	-11.6933
竪	-11.6933
萎	-11.6933
左	-11.6945
誘	-11.7081
蹔	-11.7082
烈	-11.7084
縷	-11.7086
採	-11.7087
剛	-11.7088
術	-11.7088
豫	-11.7088
愈	-11.7091
𨷂	-11.7092
徃	-11.7221
囀	-11.7232
庶	-11.7238
寫	-11.7239
盆	-11.7239
算	-11.7244
藍	-11.7244
骸	-11.7248
迎	-11.725
吼	-11.7259
属	-11.7385
嗢	-11.739
啟	-11.7394
案	-11.7396
漢	-11.7396
甲	-11.7396
遽	-11.7398
煙	-11.7404
貝	-11.7406
惰	-11.7408
叵	-11.7414
菩	-11.7489
誨	-11.7516
搖	-11.7525
6	-11.7547
誡	-11.7548
鑒	-11.7552
└	-11.7554
早	-11.7556
巨	-11.7563
鈴	-11.7564
穿	-11.7565
欝	-11.7566
壯	-11.7569
雅	-11.7711
怒	-11.7723
胤	-11.7725
雞	-11.7726
烟	-11.773
炭	-11.7731
衛	-11.7733
吒	-11.7734
級	-11.7735
渾	-11.7739
綺	-11.7885
胝	-11.7887
雪	-11.7888
飯	-11.7888
模	-11.7888
頻	-11.7889
祕	-11.789
滴	-11.7891
蘆	-11.7891
稽	-11.7892
捷	-11.7898
廟	-11.7901
顛	-11.7904
蟲	-11.7906
稻	-11.8055
耻	-11.8055
認	-11.8061
澤	-11.8063
瞢	-11.8066
江	-11.8066
籍	-11.8067
淚	-11.8071
魯	-11.8232
瓨	-11.8232
勒	-11.8236
峯	-11.8237
耆	-11.8237
兔	-11.8238
曠	-11.8238
獵	-11.824
吞	-11.8242
併	-11.8244
狼	-11.8246
慇	-11.8397
恱	-11.8398
饒	-11.8405
躡	-11.8407
怠	-11.8408
房	-11.8412
健	-11.8413
昂	-11.8414
弄	-11.8417
迭	-11.8422
勅	-11.8425
曜	-11.8585
射	-11.8592
螫	-11.8592
楔	-11.8594
君	-11.8594
虎	-11.8596
𤗊	-11.8752
]	-11.8753
􂎫	-11.8761
辱	-11.8761
臺	-11.8766
杜	-11.8768
凶	-11.8768
走	-11.8771
忌	-11.8775
脇	-11.8778
倚	-11.8783
恡	-11.8945
瑜	-11.8947
英	-11.8947
奧	-11.895
黠	-11.895
填	-11.895
稼	-11.8953
奈	-11.8955
休	-11.8956
嬈	-11.896
醒	-11.8961
某	-11.8969
c	-11.9127
f	-11.9127
㲉	-11.9142
舟	-11.9142
倡	-11.9142
債	-11.9142
飄	-11.9143
孫	-11.9143
鑽	-11.9148
陋	-11.9148
嬾	-11.9148
=	-11.9151
雷	-11.9157
輭	-11.932
疫	-11.9326
勉	-11.9329
鬪	-11.9329
伐	-11.933
躍	-11.9331
陸	-11.9333
泉	-11.9334
叫	-11.9335
春	-11.9335
賣	-11.9338
側	-11.9339
兄	-11.9339
鼠	-11.9339
瘡	-11.9341
闢	-11.9343
腰	-11.9352
魅	-11.9352
管	-11.952
升	-11.9527
硬	-11.9527
肩	-11.9528
肅	-11.9529
靡	-11.9531
的	-11.9535
爪	-11.9536
懇	-11.9536
眩	-11.9537
眉	-11.9543
蛆	-11.9546
民	-11.9547
0	-11.9714
軸	-11.9726
膩	-11.9729
忠	-11.9732
霧	-11.9733
捉	-11.9734
裂	-11.9736
槃	-11.9736
遙	-11.9737
宴	-11.974
弓	-11.9742
贅	-11.9742
串	-11.9862
祈	-11.9908
括	-11.993
尤	-11.9931
瓦	-11.9931
諠	-11.9932
裏	-11.9934
戰	-11.9934
史	-11.9936
跋	-11.9938
邏	-11.9941
猪	-11.9941
捕	-11.9943
肘	-11.9944
頑	-11.9945
繼	-12.0138
囑	-12.014
朗	-12.0142
試	-12.0143
茶	-12.0147
髻	-12.0147
胸	-12.015
𨳝	-12.0151
農	-12.0154
紙	-12.0328
㝵	-12.0341
扙	-12.0346
幢	-12.0348
貞	-12.0352
蓮	-12.0356
竹	-12.0356
政	-12.0359
輒	-12.0359
憐	-12.0361
佐	-12.0361
憒	-12.0362
閻	-12.0366
赴	-12.0368
竊	-12.0564
哲	-12.0567
株	-12.0567
秋	-12.0571
楚	-12.0572
戍	-12.0577
謀	-12.0578
菓	-12.0578
罔	-12.0578
宋	-12.0579
銀	-12.0579
船	-12.058
洞	-12.0581
擲	-12.0582
柯	-12.0582
徐	-12.0583
鎖	-12.0598
儉	-12.079
嗣	-12.0791
拆	-12.0792
賓	-12.0795
氏	-12.0795
碎	-12.0796
囂	-12.0797
泛	-12.0798
逮	-12.0798
諷	-12.0798
舞	-12.0798
臂	-12.0801
諮	-12.0802
濤	-12.0804
踰	-12.0805
壅	-12.0808
柔	-12.1009
院	-12.1015
旦	-12.1018
嗜	-12.1018
趺	-12.1019
酥	-12.102
瑩	-12.1023
匪	-12.1023
呰	-12.1028
莊	-12.1032
維	-12.1037
䨱	-12.104
叚	-12.1228
紹	-12.1241
幸	-12.1249
訪	-12.1251
才	-12.1252
衍	-12.1253
賈	-12.1254
纖	-12.1254
燭	-12.1258
牢	-12.126
苗	-12.1263
卜	-12.1264
封	-12.1267
詭	-12.1271
焚	-12.1483
殷	-12.1484
皷	-12.1493
遞	-12.1496
尾	-12.1496
買	-12.1497
淡	-12.1499
溺	-12.1501
屍	-12.1501
憚	-12.1504
汁	-12.151
獎	-12.1719
3	-12.172
𢝰	-12.1721
7	-12.1724
乱	-12.1726
羣	-12.173
鹽	-12.1734
恭	-12.1734
紅	-12.1735
雹	-12.1736
咀	-12.1737
銷	-12.1739
捍	-12.1744
殿	-12.1745
𦟛	-12.1746
寢	-12.1747
藝	-12.1749
灑	-12.1752
筭	-12.1972
鄰	-12.1976
賞	-12.1985
塚	-12.1987
冀	-12.1988
芥	-12.1988
絃	-12.199
占	-12.1991
欻	-12.1993
片	-12.1995
筞	-12.1997
猴	-12.1997
蚊	-12.1997
療	-12.1999
睺	-12.1999
臍	-12.223
予	-12.2231
牆	-12.2231
餓	-12.2238
價	-12.2241
幼	-12.2241
饑	-12.2243
賜	-12.2243
蟻	-12.2244
整	-12.2245
殞	-12.2246
刻	-12.2246
閱	-12.2246
巖	-12.2247
震	-12.2247
菊	-12.2247
疊	-12.2247
惓	-12.2248
塊	-12.2253
確	-12.2254
困	-12.2256
㧾	-12.2487
┬	-12.2501
私	-12.2503
搏	-12.2504
津	-12.2511
旃	-12.2511
尿	-12.2511
筏	-12.2512
呾	-12.2512
冠	-12.2513
宇	-12.2516
弗	-12.2523
歇	-12.2523
夭	-12.2734
𦘕	-12.2763
涅	-12.277
誹	-12.2772
刑	-12.2775
矚	-12.2775
逕	-12.2776
豐	-12.2778
沼	-12.2779
涌	-12.2781
叢	-12.2781
挾	-12.2783
排	-12.2786
糓	-12.2794
綜	-12.3039
畧	-12.3046
蜂	-12.3046
嬰	-12.305
校	-12.305
祀	-12.3052
廛	-12.3053
寔	-12.3053
敏	-12.3054
逗	-12.3055
燋	-12.3056
懵	-12.3058
伸	-12.3061
檢	-12.3062
奮	-12.3063
殉	-12.3073
号	-12.3323
4	-12.3328
液	-12.3338
谷	-12.3339
喉	-12.334
溉	-12.334
掃	-12.3341
趨	-12.3341
摸	-12.3343
瞬	-12.3346
黎	-12.3349
徑	-12.335
爭	-12.3351
啞	-12.3351
揵	-12.3352
旁	-12.3353
秤	-12.3356
炬	-12.3356
齅	-12.3359
歿	-12.3359
技	-12.3361
麄	-12.3613
廻	-12.3629
芻	-12.3634
蒲	-12.3634
煎	-12.3634
介	-12.3637
丸	-12.364
複	-12.3642
綴	-12.3644
頞	-12.3645
斂	-12.3647
遏	-12.3648
攀	-12.385
栽	-12.3918
杵	-12.3928
孰	-12.3928
叡	-12.3929
敦	-12.3932
溢	-12.3932
閡	-12.3937
沫	-12.3938
織	-12.3939
劍	-12.3941
孩	-12.3943
犍	-12.3944
職	-12.3946
蠅	-12.3948
圖	-12.3954
秪	-12.3955
决	-12.4189
苐	-12.4232
紀	-12.4239
犁	-12.4242
屏	-12.4243
况	-12.4244
毳	-12.4247
捶	-12.4249
絲	-12.425
川	-12.425
廁	-12.4251
后	-12.4251
奔	-12.4251
剃	-12.4252
規	-12.4254
涼	-12.4255
秀	-12.4255
刊	-12.4256
酢	-12.4259
祿	-12.4259
捺	-12.4259
浩	-12.4259
洽	-12.4259
域	-12.4262
屎	-12.4262
氷	-12.4263
蝸	-12.4266
厄	-12.427
宛	-12.4271
陷	-12.4562
醎	-12.4564
犢	-12.4565
鷲	-12.4566
綿	-12.457
揭	-12.4571
翫	-12.4571
瘦	-12.4574
逃	-12.4575
邁	-12.4575
井	-12.4576
洪	-12.458
浣	-12.4583
掩	-12.4585
糧	-12.4585
龜	-12.4587
柝	-12.4882
添	-12.4901
倫	-12.4902
送	-12.4904
轍	-12.4905
俯	-12.4905
斧	-12.4906
逾	-12.4906
斬	-12.4909
貨	-12.4909
菴	-12.491
泣	-12.491
緒	-12.4914
渚	-12.4914
脹	-12.4921
幡	-12.4921
掘	-12.4922
育	-12.4922
皰	-12.4922
苑	-12.514
厥	-12.5241
楷	-12.5243
䟦	-12.5245
鐘	-12.5246
嗟	-12.5246
爰	-12.5247
盈	-12.5248
丘	-12.5248
俟	-12.5253
鳴	-12.5254
懶	-12.5255
鬧	-12.5257
慎	-12.5257
莎	-12.5257
愆	-12.5258
塘	-12.5258
糠	-12.5259
滓	-12.526
貯	-12.5261
層	-12.5261
司	-12.5263
祥	-12.5264
戶	-12.5265
盤	-12.5267
輻	-12.5267
逝	-12.5574
展	-12.5585
刼	-12.5593
墨	-12.5596
宏	-12.5598
壬	-12.5598
豪	-12.56
京	-12.5602
衢	-12.5605
匝	-12.5605
偶	-12.5606
討	-12.5607
媚	-12.561
獷	-12.5611
換	-12.5612
膠	-12.5612
覽	-12.5612
蠲	-12.5614
項	-12.5614
摶	-12.5614
偃	-12.5621
怪	-12.5627
􂗆	-12.5963
謹	-12.5973
汗	-12.5974
雄	-12.5974
綖	-12.5975
巡	-12.5975
帛	-12.5976
捐	-12.5976
孝	-12.5978
訾	-12.5978
癢	-12.5978
瑞	-12.5979
遶	-12.5979
魏	-12.598
尠	-12.5981
抵	-12.5981
肥	-12.5982
黜	-12.5983
臘	-12.5983
窹	-12.5984
紫	-12.5985
剖	-12.5987
鬚	-12.5987
栴	-12.5988
翅	-12.5989
攸	-12.5989
癩	-12.5994
鞭	-12.5995
冝	-12.6342
s	-12.6348
艱	-12.6349
翹	-12.6353
拙	-12.6353
怱	-12.6354
寸	-12.6356
抱	-12.6359
擐	-12.636
跪	-12.6362
蹙	-12.6363
考	-12.6363
鬱	-12.6363
閣	-12.6364
苟	-12.6365
鵂	-12.6365
撮	-12.6365
派	-12.6366
壹	-12.6367
棘	-12.6367
苞	-12.6368
嚼	-12.6368
漿	-12.6369
梗	-12.637
屢	-12.6375
矜	-12.6377
蒼	-12.6388
惺	-12.6389
『	-12.6715
』	-12.6717
夙	-12.6741
歒	-12.6746
証	-12.6753
肆	-12.6757
胄	-12.6759
耨	-12.676
昭	-12.6763
冤	-12.6765
髓	-12.6765
祭	-12.6766
匠	-12.6768
晉	-12.6768
鍵	-12.6768
礦	-12.6769
魁	-12.6769
燥	-12.6772
畵	-12.6772
紺	-12.6773
虵	-12.6774
猿	-12.6778
騎	-12.678
裁	-12.6783
i	-12.6783
m	-12.6783
構	-12.679
旌	-12.7151
昌	-12.7163
礫	-12.7166
鮮	-12.7167
釧	-12.7168
刧	-12.7168
瘖	-12.717
┌	-12.7172
甄	-12.7174
躬	-12.7174
弦	-12.7174
刃	-12.7179
麗	-12.7179
癸	-12.7179
娛	-12.7181
唾	-12.7182
昵	-12.7184
飡	-12.7184
巾	-12.7185
拂	-12.7185
挍	-12.7186
覔	-12.7186
泡	-12.7187
吝	-12.719
煮	-12.7191
羼	-12.7192
湯	-12.7195
讒	-12.7195
探	-12.7195
戴	-12.7197
眷	-12.7197
牟	-12.7198
肯	-12.7456
怕	-12.759
隆	-12.7601
勃	-12.7604
罸	-12.7606
喃	-12.7606
傾	-12.7608
羲	-12.761
𢮎	-12.761
武	-12.7611
拾	-12.7611
曆	-12.7613
寡	-12.7617
蝕	-12.7617
淤	-12.7617
焦	-12.7617
遵	-12.7618
劑	-12.7619
駕	-12.7619
弭	-12.7621
鹹	-12.7621
剩	-12.7623
市	-12.7623
猫	-12.7623
藻	-12.7624
凌	-12.7624
膾	-12.7624
兇	-12.7625
暑	-12.7627
姑	-12.7627
妹	-12.7627
壓	-12.7628
荼	-12.7628
攢	-12.763
倨	-12.7631
斤	-12.7632
悍	-12.7632
<	-12.7637
g	-12.7638
鴻	-12.8043
坦	-12.806
䟽	-12.806
悼	-12.8063
裹	-12.8063
饕	-12.8066
餮	-12.8066
邃	-12.8067
丁	-12.8067
皇	-12.8067
砂	-12.8068
替	-12.8068
塹	-12.8069
邀	-12.8069
帙	-12.807
松	-12.8073
愷	-12.8074
綵	-12.8076
匿	-12.8077
狐	-12.8078
腐	-12.8078
迮	-12.8079
鏁	-12.8079
脣	-12.808
淹	-12.8081
脊	-12.8082
堤	-12.8083
慣	-12.8086
驢	-12.8087
纈	-12.811
贊	-12.8536
籠	-12.8536
頡	-12.8538
候	-12.8538
賚	-12.8543
髣	-12.8544
鵝	-12.8544
旅	-12.8544
跟	-12.8545
嚮	-12.8546
監	-12.8546
旭	-12.8547
削	-12.8548
享	-12.8548
柰	-12.8549
這	-12.8549
揩	-12.8549
較	-12.8549
鎧	-12.8551
樞	-12.8551
鎌	-12.8551
鳩	-12.8551
喬	-12.8552
秦	-12.8552
崖	-12.8552
珊	-12.8552
詶	-12.8553
忖	-12.8553
蕉	-12.8553
璧	-12.8554
岐	-12.8556
+	-12.8556
馱	-12.8557
嶮	-12.8557
鎮	-12.8558
贍	-12.8558
完	-12.8559
斗	-12.8559
覈	-12.8559
辰	-12.8561
裟	-12.8562
激	-12.8564
双	-12.8565
陣	-12.8568
游	-12.9028
芳	-12.9032
猥	-12.9036
格	-12.9037
筋	-12.9038
觧	-12.9039
眀	-12.9039
紐	-12.9041
擅	-12.9041
窺	-12.9042
玩	-12.9044
磁	-12.9047
突	-12.9047
枉	-12.9048
輙	-12.9048
筌	-12.905
倉	-12.905
勳	-12.9052
鄔	-12.9055
踊	-12.906
喫	-12.9061
征	-12.9064
麟	-12.9064
壇	-12.9067
𡧱	-12.9552
熖	-12.9559
垣	-12.9559
嶺	-12.9563
籥	-12.9563
栖	-12.9564
峻	-12.9564
席	-12.9566
㮈	-12.9566
雋	-12.9566
楯	-12.9567
葱	-12.9567
婁	-12.9568
吸	-12.9569
藪	-12.9569
握	-12.957
膏	-12.957
費	-12.9571
浴	-12.9572
搜	-12.9573
縵	-12.9573
欽	-12.9573
丹	-12.9573
騃	-12.9575
麝	-12.9576
愽	-12.9576
蔭	-12.9576
坌	-12.9576
曷	-12.9576
埋	-12.9577
桃	-12.9579
輸	-12.9579
稚	-12.9579
編	-12.958
咲	-12.9581
瘧	-12.9581
燼	-12.9582
駛	-12.9583
鍛	-12.9583
紊	-12.9583
爵	-12.9585
鎔	-12.9586
㒵	-12.9586
針	-12.9587
話	-12.9587
淫	-12.9589
縣	-12.9593
襲	-13.0101
把	-13.0103
扸	-13.0103
繕	-13.0104
淋	-13.0112
播	-13.0112
猷	-13.0113
摠	-13.0115
夕	-13.0119
-	-13.0119
蠢	-13.0121
孕	-13.0121
瑕	-13.0122
額	-13.0122
函	-13.0123
詠	-13.0123
暉	-13.0123
僅	-13.0125
拳	-13.0125
穩	-13.0127
惽	-13.0127
冐	-13.0129
庾	-13.0129
絺	-13.0129
亭	-13.013
涯	-13.0131
廓	-13.0132
餅	-13.0134
顰	-13.0135
囊	-13.0136
蹤	-13.0136
軀	-13.0136
板	-13.0137
劬	-13.0138
肇	-13.0139
胞	-13.0139
詫	-13.0144
悴	-13.0147
卦	-13.0149
諾	-13.0703
糜	-13.0703
囉	-13.0704
詎	-13.0705
沃	-13.0705
縫	-13.0707
劉	-13.0707
㹅	-13.0708
脉	-13.0708
遐	-13.0708
輝	-13.0709
詩	-13.0709
儒	-13.0714
茂	-13.0715
踐	-13.0716
奚	-13.0716
跳	-13.0716
匡	-13.0717
蹄	-13.0717
晨	-13.0719
欠	-13.072
羂	-13.072
猨	-13.0721
李	-13.0721
腸	-13.0723
䥫	-13.0723
堰	-13.0724
吃	-13.0724
覿	-13.0724
哭	-13.0725
甕	-13.0727
蹈	-13.0728
鑊	-13.0728
湎	-13.0729
怜	-13.0729
嗤	-13.073
睛	-13.073
嘖	-13.073
薗	-13.0732
犬	-13.0732
栗	-13.0733
疥	-13.0735
菟	-13.0736
鑿	-13.0737
歘	-13.0745
康	-13.1312
廂	-13.1316
聦	-13.1318
脈	-13.1321
蔗	-13.1322
昱	-13.1323
􂌞	-13.1325
禍	-13.1329
嘉	-13.1332
琰	-13.1332
隋	-13.1333
曳	-13.1335
閙	-13.1335
韜	-13.1335
橋	-13.1337
雌	-13.1337
蹉	-13.1337
季	-13.1339
鞕	-13.134
蠍	-13.134
槩	-13.1343
鞞	-13.1344
押	-13.1345
泄	-13.1347
黏	-13.1347
轂	-13.1347
誕	-13.1347
瑙	-13.1349
豎	-13.135
噵	-13.135
粘	-13.1352
台	-13.1353
鸚	-13.1353
喧	-13.1354
豁	-13.1356
緊	-13.1356
寐	-13.1356
係	-13.1356
翁	-13.1356
稠	-13.1357
諧	-13.1357
涸	-13.137
𢷤	-13.1976
攷	-13.1989
汙	-13.1989
糩	-13.199
秉	-13.1995
婿	-13.1996
蕃	-13.1997
仲	-13.1998
縮	-13.1998
湖	-13.1998
透	-13.1999
鶴	-13.1999
零	-13.1999
歐	-13.1999
鑑	-13.2001
獻	-13.2001
劇	-13.2003
杳	-13.2003
銳	-13.2004
畔	-13.2005
允	-13.2005
曼	-13.2005
帖	-13.2005
隸	-13.2007
線	-13.2007
謨	-13.2007
寅	-13.2008
洟	-13.2008
戇	-13.2009
衡	-13.2009
恁	-13.2011
婢	-13.2012
竅	-13.2014
僚	-13.2015
耕	-13.2015
篋	-13.2017
慘	-13.2017
矛	-13.2018
援	-13.2018
秖	-13.202
頰	-13.2021
販	-13.2023
腦	-13.2025
頸	-13.2025
狠	-13.2027
淄	-13.2027
濡	-13.2027
俳	-13.203
馥	-13.203
徤	-13.2035
粟	-13.2037
舛	-13.2696
讎	-13.2703
鶖	-13.2705
肚	-13.2705
彥	-13.2706
虔	-13.2707
揮	-13.2708
踴	-13.2708
虬	-13.2708
駈	-13.2709
酉	-13.2712
詔	-13.2713
詈	-13.2715
鴦	-13.2715
憫	-13.2716
罽	-13.2716
蓄	-13.2717
霑	-13.2717
杭	-13.2719
朱	-13.2719
衝	-13.272
吟	-13.2721
耀	-13.2723
舜	-13.2723
膊	-13.2723
醯	-13.2724
顇	-13.2724
罝	-13.2724
褁	-13.2726
佷	-13.2726
嚬	-13.2726
撓	-13.2727
估	-13.2727
甜	-13.2729
揣	-13.2729
輿	-13.273
羽	-13.2731
聳	-13.2732
鹵	-13.2732
肢	-13.2733
拍	-13.2736
歟	-13.2736
絡	-13.2737
鋤	-13.2737
羈	-13.274
墻	-13.274
姊	-13.2746
輞	-13.275
麵	-13.2761
灯	-13.347
𢚰	-13.3473
挺	-13.3474
旗	-13.3476
拜	-13.3478
綠	-13.3481
䎡	-13.3481
峰	-13.3482
槖	-13.3482
雀	-13.3482
克	-13.3483
惻	-13.3483
耗	-13.3483
廿	-13.3486
濯	-13.3486
晦	-13.3486
捧	-13.3487
梯	-13.3487
奏	-13.3488
企	-13.3488
鳳	-13.3488
忩	-13.349
拉	-13.349
錫	-13.349
侮	-13.3491
儲	-13.3492
𡙸	-13.3492
臆	-13.3492
呈	-13.3492
腋	-13.3492
窣	-13.3493
楊	-13.3493
鉗	-13.3493
紜	-13.3494
溷	-13.3494
洋	-13.3495
殟	-13.3496
郭	-13.3496
緝	-13.3497
懊	-13.3497
凉	-13.3497
晴	-13.3498
韋	-13.3498
瞑	-13.3498
脂	-13.3499
䗍	-13.3499
窓	-13.3499
矩	-13.3499
俊	-13.3499
恕	-13.35
蒜	-13.35
妍	-13.35
炙	-13.3501
梅	-13.3501
呻	-13.3502
戊	-13.3504
鬬	-13.3504
巢	-13.3505
抽	-13.3505
暮	-13.3506
羝	-13.3508
賒	-13.3509
勗	-13.351
拈	-13.351
郎	-13.3512
縳	-13.3512
槁	-13.3513
卯	-13.3513
絹	-13.3515
婚	-13.3517
殻	-13.3526
鬢	-13.4294
湧	-13.4297
臰	-13.4299
䪺	-13.4302
蜀	-13.4304
㒒	-13.4305
鋸	-13.4308
梓	-13.4308
挫	-13.4309
弃	-13.431
沽	-13.4311
挈	-13.4313
䡄	-13.4313
諱	-13.4314
措	-13.4315
賸	-13.4315
悷	-13.4315
寞	-13.4316
腑	-13.4317
􂔗	-13.4317
嫁	-13.4318
訂	-13.4318
寓	-13.4318
溟	-13.4319
騁	-13.4319
歛	-13.4319
殆	-13.432
茫	-13.432
殄	-13.432
㵎	-13.432
藐	-13.4321
惶	-13.4321
迄	-13.4321
罄	-13.4321
渧	-13.4324
岳	-13.4325
赫	-13.4325
𢤱	-13.4325
狸	-13.4326
庭	-13.4327
戈	-13.4327
儔	-13.4328
嘿	-13.4328
彫	-13.4329
沾	-13.4329
龕	-13.4331
晚	-13.4331
稀	-13.4332
選	-13.4332
搦	-13.4333
撫	-13.4333
搋	-13.4334
蛤	-13.4334
篤	-13.4335
巷	-13.4336
啼	-13.4337
滌	-13.4338
瑣	-13.4339
効	-13.434
匹	-13.434
羺	-13.434
萌	-13.4342
扼	-13.4343
曹	-13.4344
蝎	-13.4346
鍮	-13.4349
芬	-13.435
茅	-13.435
薦	-13.436
粒	-13.4361
抂	-13.5179
糖	-13.5202
件	-13.5217
丑	-13.5217
蟒	-13.5217
僮	-13.5218
傑	-13.5221
崛	-13.5221
盞	-13.5223
庵	-13.5223
粳	-13.5223
揆	-13.5223
体	-13.5224
版	-13.5225
慠	-13.5225
仆	-13.5225
蹲	-13.5226
臻	-13.5227
夾	-13.5228
戎	-13.5228
嗚	-13.5229
股	-13.523
阻	-13.523
湏	-13.523
概	-13.523
褒	-13.5231
董	-13.5232
噫	-13.5232
尖	-13.5232
与	-13.5233
迨	-13.5233
唇	-13.5234
疱	-13.5234
澆	-13.5235
爐	-13.5235
雇	-13.5235
襍	-13.5237
皺	-13.5238
荒	-13.5238
荊	-13.5238
雕	-13.5241
幹	-13.5241
伯	-13.5241
冲	-13.5241
札	-13.5241
瓫	-13.5242
酸	-13.5244
鄭	-13.5244
凍	-13.5246
踝	-13.5247
諭	-13.5248
儻	-13.5248
牧	-13.5248
泊	-13.5249
汲	-13.525
翠	-13.525
傚	-13.5257
腫	-13.5258
劒	-13.526
濃	-13.5262
澀	-13.5265
𡙇	-13.62
万	-13.621
料	-13.6212
繭	-13.6213
鐶	-13.6216
扣	-13.6218
孟	-13.6218
沮	-13.6219
操	-13.6219
𨵗	-13.622
亮	-13.622
剪	-13.6221
叶	-13.6222
槽	-13.6222
冬	-13.6223
癲	-13.6224
娶	-13.6226
禎	-13.6227
徽	-13.6228
鷃	-13.6228
澡	-13.6229
衷	-13.6229
隟	-13.6231
窂	-13.6232
覲	-13.6232
瀾	-13.6232
驕	-13.6233
鉾	-13.6233
控	-13.6233
觝	-13.6234
掠	-13.6234
沸	-13.6234
葛	-13.6234
猜	-13.6234
瀑	-13.6235
咄	-13.6235
昨	-13.6236
讐	-13.6238
淆	-13.6238
罩	-13.6238
菜	-13.6239
輟	-13.6239
𠎝	-13.6239
髆	-13.624
疆	-13.624
厨	-13.624
煨	-13.6241
剝	-13.6241
儞	-13.6242
亘	-13.6242
袋	-13.6243
頴	-13.6243
臼	-13.6243
淮	-13.6244
暎	-13.6244
埵	-13.6244
穗	-13.6245
頷	-13.6245
燕	-13.6245
隻	-13.6246
匃	-13.6247
鑛	-13.6247
悖	-13.6247
緻	-13.6247
昆	-13.6248
勑	-13.625
肺	-13.6253
鉤	-13.6254
盪	-13.6254
旱	-13.6255
腨	-13.6256
佚	-13.6257
腕	-13.6257
貶	-13.6258
瞥	-13.626
犧	-13.6262
揉	-13.6263
燬	-13.6276
寵	-13.6278
癭	-13.6278
笙	-13.7281
!	-13.7308
駄	-13.7322
𡖉	-13.7327
浸	-13.733
𡰱	-13.733
壑	-13.7332
謔	-13.7332
誅	-13.7332
捲	-13.7332
罕	-13.7333
椎	-13.7334
棲	-13.7334
葦	-13.7335
戌	-13.7335
朵	-13.7336
藕	-13.7339
裔	-13.7339
膜	-13.7341
僵	-13.7341
煑	-13.7342
旹	-13.7342
讓	-13.7342
繹	-13.7342
脆	-13.7343
姤	-13.7344
虞	-13.7346
儼	-13.7346
凹	-13.7346
邦	-13.7346
掦	-13.7346
癘	-13.7348
效	-13.7348
銕	-13.7349
箕	-13.7352
膳	-13.7352
溝	-13.7353
閇	-13.7353
隕	-13.7356
酌	-13.7356
倘	-13.7356
鍾	-13.7356
鼷	-13.7356
●	-13.7357
裳	-13.7357
叱	-13.7358
甎	-13.7359
髀	-13.7359
闊	-13.736
蓬	-13.736
熙	-13.7361
輥	-13.7361
虹	-13.7362
媒	-13.7364
錦	-13.7366
碧	-13.7367
它	-13.7367
霏	-13.7367
鵲	-13.7368
擎	-13.7368
洹	-13.737
駝	-13.7373
涕	-13.7373
闥	-13.7375
鵄	-13.7379
跛	-13.7384
挹	-13.8539
鴿	-13.8559
摭	-13.8562
鴈	-13.8562
祉	-13.8564
幟	-13.8566
鑄	-13.8569
弁	-13.8572
肝	-13.8573
粹	-13.8574
湮	-13.8577
栰	-13.8578
a	-13.8579
誷	-13.8579
穆	-13.858
䓗	-13.8582
􂓕	-13.8582
僂	-13.8582
刈	-13.8582
恍	-13.8582
蠶	-13.8583
啻	-13.8583
絢	-13.8583
撻	-13.8584
隷	-13.8584
橐	-13.8584
琴	-13.8584
𠛴	-13.8584
墋	-13.8586
瓮	-13.8586
舐	-13.8586
􂴺	-13.8587
觚	-13.8588
誚	-13.8589
涎	-13.859
謇	-13.859
鎻	-13.859
區	-13.859
筒	-13.859
眤	-13.859
鋒	-13.859
溪	-13.8591
矢	-13.8591
繒	-13.8591
迊	-13.8592
脅	-13.8592
憨	-13.8592
皎	-13.8592
翔	-13.8592
緯	-13.8592
漬	-13.8594
蜯	-13.8595
疹	-13.8596
蒸	-13.8596
譚	-13.8596
詢	-13.8596
榛	-13.8596
綰	-13.8596
─	-13.8597
呂	-13.8597
爍	-13.8599
頹	-13.8601
憩	-13.8601
冊	-13.8602
丙	-13.8602
搭	-13.8602
尉	-13.8602
酧	-13.8603
袟	-13.8603
辟	-13.8603
祐	-13.8604
螢	-13.8605
挑	-13.8605
濬	-13.8605
瓜	-13.8606
侯	-13.8607
埿	-13.8608
漚	-13.8608
鑰	-13.8609
渠	-13.8609
瞚	-13.8609
牖	-13.861
𥝖	-13.8611
喇	-13.8611
鱗	-13.8611
稗	-13.8611
潮	-13.8614
𤦲	-13.8615
机	-13.8618
肌	-13.862
珂	-13.8621
靉	-13.8625
銓	-13.8626
孳	-13.864
〈	-13.9974
〉	-13.9974
廬	-13.9998
捃	-13.9999
无	-14
勁	-14.0004
慨	-14.0009
弼	-14.0009
弶	-14.0013
攻	-14.0014
憬	-14.0016
拱	-14.0017
粮	-14.0018
剏	-14.002
吳	-14.002
抗	-14.0022
卓	-14.0022
朔	-14.0022
午	-14.0024
厲	-14.0024
伍	-14.0025
曦	-14.0028
呬	-14.0029
你	-14.003
悵	-14.0031
哳	-14.0032
帚	-14.0033
冰	-14.0034
蒭	-14.0034
償	-14.0035
咆	-14.0037
仳	-14.0039
弈	-14.0039
姦	-14.004
䯛	-14.0042
央	-14.0055
竺	-14.1686
堵	-14.1707
禽	-14.171
嬉	-14.1718
讖	-14.3691
臧	-14.3692
纜	-14.6175
攪	-14.6196
瑠	-14.6206
穡	-14.6229
苾	-14.9492
訊	-14.9503
笈	-14.9518
琉	-14.954
妾	-14.9579
沐	-15.4517
璃	-15.4523
祗	-15.4524
瘀	-15.4541
臾	-16.4455
奕	-16.4467
婇	-16.4468
墳	-16.4469
佞	-16.447
魎	-16.4471
魍	-16.4472
詛	-16.4473
袒	-16.4474
庠	-16.4475
儱	-16.4476
侗	-16.4477
獅	-16.4478
悎	-16.4479
哮	-16.448
膖	-16.4481
彎	-16.4482
鵡	-16.4483
瑚	-16.4484
莂	-16.4485
跏	-16.4486
蕅	-16.4487
痆	-16.4488
芭	-16.4489
袈	-16.449
憺	-16.4491
>	-16.4492
虻	-16.4493
忉	-16.4494
┤	-16.4495
鶹	-16.4496
貢	-16.4497
│	-16.4498
迂	-16.4499
醐	-16.45
醍	-16.4501
饉	-16.4502
頼	-16.4503
罣	-16.4504
殑	-16.4505
遁	-16.4506
蕂	-16.4507
柁	-16.4508
[	-16.4509
兜	-16.451
瓔	-16.4511
珞	-16.4512
o	-16.4513
N	-16.4514
拕	-16.4515
獼	-16.4515
