<unk>	0
<s>	0
</s>	0
之	-4.20875
(	-4.7822
)	-4.79811
以	-5.13492
/	-5.14555
一	-5.20327
不	-5.26235
有	-5.33145
上	-5.33517
天	-5.36529
爲	-5.36889
於	-5.37868
神	-5.38285
人	-5.46098
者	-5.5023
中	-5.53577
而	-5.53999
也	-5.56115
生	-5.63184
道	-5.67407
符	-5.68063
三	-5.69594
其	-5.70957
大	-5.72791
無	-5.75695
下	-5.76638
靈	-5.83007
行	-5.83982
日	-5.86794
心	-5.91419
法	-5.9276
如	-5.93613
玄	-5.97619
則	-5.97876
此	-6.0077
自	-6.01694
眞	-6.02624
至	-6.06478
五	-6.08737
九	-6.09657
炁	-6.09834
明	-6.10317
用	-6.10553
在	-6.10894
入	-6.13511
水	-6.13793
得	-6.14542
)(	-6.15614
所	-6.16116
某	-6.17586
子	-6.18321
身	-6.19048
文	-6.20046
令	-6.23495
經	-6.2443
書	-6.25672
出	-6.26049
火	-6.26635
金	-6.27516
時	-6.28207
氣	-6.28446
二	-6.2885
君	-6.2902
曰	-6.30501
地	-6.30894
四	-6.31793
名	-6.32224
玉	-6.32266
仙	-6.34361
雲	-6.34422
方	-6.34527
真	-6.35751
臣	-6.3604
宫	-6.36057
精	-6.36082
合	-6.36919
見	-6.36957
或	-6.36976
師	-6.37585
事	-6.38863
元	-6.40158
當	-6.40299
鬼	-6.40514
與	-6.40546
山	-6.43124
通	-6.43636
諸	-6.43654
成	-6.44211
内	-6.46725
光	-6.46948
命	-6.47294
雷	-6.48812
即	-6.50528
右	-6.50577
形	-6.53131
六	-6.5363
相	-6.53686
星	-6.53923
言	-6.53985
主	-6.54368
受	-6.55122
七	-6.55212
降	-6.55842
同	-6.56415
將	-6.57009
存	-6.5701
是	-6.58163
若	-6.58246
未	-6.59149
萬	-6.5929
化	-6.60237
後	-6.60395
非	-6.6086
皆	-6.62009
立	-6.62414
前	-6.63049
乃	-6.6361
飛	-6.63942
陽	-6.64252
正	-6.65304
又	-6.66036
字	-6.67164
來	-6.6744
應	-6.67545
風	-6.67657
▁	-6.67899
呪	-6.68224
召	-6.68444
先	-6.69007
帝	-6.69171
章	-6.69259
分	-6.69543
故	-6.70148
從	-6.70316
八	-6.70628
及	-6.71139
可	-6.71205
龍	-6.71532
各	-6.72097
度	-6.721
今	-6.72792
治	-6.73059
我	-6.74596
太上	-6.75017
次	-6.75737
王	-6.76128
黄	-6.76426
作	-6.76583
常	-6.77807
清	-6.78186
念	-6.7858
使	-6.79678
開	-6.80303
傳	-6.80515
攝	-6.80542
亦	-6.80641
本	-6.81062
門	-6.8221
白	-6.82373
華	-6.83605
官	-6.83871
取	-6.8409
長	-6.84857
青	-6.85623
丹	-6.86721
月	-6.86786
凡	-6.87454
知	-6.87851
年	-6.88258
安	-6.88463
運	-6.89015
訣	-6.90596
起	-6.91316
流	-6.91765
司	-6.92612
壇	-6.92909
矣	-6.93551
發	-6.94378
洞	-6.94384
聖	-6.94823
左	-6.94878
外	-6.95532
死	-6.95553
服	-6.95554
物	-6.96547
使者	-6.96659
請	-6.97501
能	-6.97725
世	-6.98111
去	-6.9914
邪	-6.99227
和	-6.99714
十	-6.99761
斗	-7.00898
聞	-7.01069
景	-7.0134
罪	-7.02586
魂	-7.02812
吾	-7.04262
上清	-7.04479
等	-7.05024
定	-7.05108
何	-7.05144
九天	-7.05215
隨	-7.05384
紫	-7.05528
品	-7.06389
府	-7.06527
欲	-7.06533
重	-7.06891
奏	-7.06914
畢	-7.08007
香	-7.08135
目	-7.08141
過	-7.08362
无	-7.0841
修	-7.08563
願	-7.0866
云	-7.09292
居	-7.09298
寳	-7.10765
百	-7.1151
妙	-7.11821
公	-7.12062
空	-7.12477
速	-7.13886
散	-7.14078
歸	-7.14291
衆	-7.14534
復	-7.14787
善	-7.14912
然	-7.15115
解	-7.15188
不得	-7.15262
德	-7.15434
處	-7.15602
千	-7.1564
結	-7.16585
家	-7.16662
滅	-7.16887
巳	-7.16928
印	-7.18028
奉	-7.18533
頭	-7.19662
食	-7.19905
隂	-7.20023
都	-7.2044
口	-7.20943
卷	-7.21139
並	-7.21298
色	-7.21583
天尊	-7.22096
天地	-7.22763
福	-7.2279
朝	-7.23569
陰	-7.23981
齋	-7.23997
太	-7.24408
虚	-7.24687
位	-7.24779
多	-7.25577
難	-7.25695
自然	-7.25832
伏	-7.26073
數	-7.26616
體	-7.26714
雨	-7.27876
已	-7.28069
求	-7.28182
教	-7.28691
木	-7.28944
謹	-7.29195
功	-7.29218
告	-7.29363
關	-7.29372
除	-7.29561
惡	-7.29637
便	-7.29732
動	-7.29813
石	-7.2995
變	-7.30338
依	-7.30617
離	-7.30761
幽	-7.31336
申	-7.31741
始	-7.32168
直	-7.32509
向	-7.32739
小	-7.32881
威	-7.33328
保	-7.33579
觀	-7.33972
部	-7.34539
赤	-7.34801
乎	-7.35072
轉	-7.35079
土	-7.35872
守	-7.36196
面	-7.36233
盡	-7.36814
衣	-7.36856
思	-7.3692
眞人	-7.36964
不可	-7.37142
病	-7.37511
録	-7.37806
儀	-7.38113
南	-7.38318
交	-7.38399
隱	-7.38541
理	-7.38735
信	-7.40221
根	-7.40331
因	-7.40365
皇	-7.40567
照	-7.40822
意	-7.41386
須	-7.4139
號	-7.41688
女	-7.42088
科	-7.42279
北	-7.42303
必	-7.42603
黑	-7.43023
止	-7.43342
圖	-7.43538
執	-7.44043
仰	-7.44164
將軍	-7.44169
還	-7.44418
急	-7.45216
張	-7.45372
玉清	-7.45461
要	-7.4627
列	-7.46491
極	-7.46763
高	-7.4712
微	-7.48133
籙	-7.48193
帝君	-7.48458
太一	-7.48788
節	-7.48868
宣	-7.49276
平	-7.49394
國	-7.49727
宜	-7.50139
東	-7.50198
致	-7.50489
辰	-7.50607
兩	-7.51252
髙	-7.51985
室	-7.52352
坐	-7.5239
牒	-7.52606
持	-7.52837
收	-7.53466
布	-7.53672
授	-7.54094
禮	-7.54113
羅	-7.54471
蓋	-7.55191
西	-7.55297
敕	-7.55667
吏	-7.55832
啓	-7.55894
耳	-7.56129
聲	-7.56366
狀	-7.56385
疾	-7.56442
進	-7.56569
引	-7.5668
遇	-7.57021
更	-7.5721
臨	-7.57981
指	-7.5816
遊	-7.58519
日月	-7.58532
十二	-7.58552
眞君	-7.59084
加	-7.59201
絶	-7.59251
却	-7.59649
周	-7.59878
兵	-7.6006
遂	-7.60199
戒	-7.60618
素	-7.6108
宿	-7.6116
對	-7.61286
煞	-7.61493
犯	-7.61637
玉女	-7.61644
夫	-7.61933
于	-7.61976
音	-7.62224
惟	-7.62358
一切	-7.62955
宗	-7.63136
老	-7.63278
廣	-7.63282
上帝	-7.63441
十方	-7.63462
學	-7.63671
勑	-7.63844
登	-7.6406
苦	-7.64167
說	-7.6423
失	-7.64252
汝	-7.64306
朱	-7.64396
魔	-7.65404
臺	-7.65737
再	-7.66632
靈寳	-7.66731
異	-7.66886
具	-7.66901
深	-7.67133
俱	-7.67433
獄	-7.67479
大神	-7.6766
姓	-7.67972
利	-7.68029
為	-7.68166
海	-7.68286
夜	-7.68395
性	-7.68432
三界	-7.68662
永	-7.68763
少	-7.69294
莫	-7.6934
簡	-7.69419
集	-7.69466
乗	-7.69945
易	-7.69976
陳	-7.6999
式	-7.70036
升	-7.7011
感	-7.70125
象	-7.70179
民	-7.70436
考	-7.70564
律令	-7.70979
藏	-7.71147
庭	-7.71265
吉	-7.7131
之中	-7.71341
藥	-7.71372
實	-7.72008
問	-7.72068
制	-7.72263
建	-7.72296
諱	-7.72507
真人	-7.72584
濟	-7.72963
回	-7.72978
雷霆	-7.73002
到	-7.73141
志	-7.73263
息	-7.73308
樂	-7.73627
首	-7.73639
古	-7.73939
力	-7.74008
雖	-7.74275
初	-7.74342
焉	-7.74531
拜	-7.74536
但	-7.74821
領	-7.74962
備	-7.75135
冠	-7.75243
稱	-7.75248
舉	-7.75489
誠	-7.75703
□	-7.75843
毒	-7.75911
破	-7.7635
篇	-7.76482
元始	-7.7649
劫	-7.76915
輪	-7.77437
晨	-7.77524
午	-7.7771
害	-7.77765
急急如	-7.78228
星君	-7.78254
情	-7.78426
消	-7.78558
不能	-7.78802
終	-7.78853
足	-7.79089
注	-7.79732
會	-7.7988
誦	-7.79937
差	-7.7995
震	-7.80073
手	-7.80219
亡	-7.80441
全	-7.80641
馬	-7.80958
違	-7.80993
著	-7.81678
乾	-7.8178
塵	-7.81837
承	-7.819
恩	-7.81976
霹靂	-7.82321
瓊	-7.83122
神仙	-7.83521
想	-7.83606
尊	-7.83667
監	-7.83765
祖	-7.84193
災	-7.84403
望	-7.84538
遣	-7.84634
語	-7.84791
滿	-7.85154
兆	-7.85351
穢	-7.85418
謂	-7.85565
祕	-7.85602
好	-7.85648
聽	-7.85773
殺	-7.86067
酒	-7.86103
落	-7.8637
靜	-7.86628
齊	-7.867
冥	-7.8679
護	-7.86956
禁	-7.86992
佩	-7.87622
罡	-7.87966
養	-7.88173
斷	-7.88252
付	-7.88659
積	-7.88908
妄	-7.89179
職	-7.89531
共	-7.89562
五帝	-7.90033
間	-7.90195
之道	-7.90222
甲	-7.9029
論	-7.90553
筆	-7.9065
順	-7.9077
左右	-7.90774
投	-7.90868
親	-7.90935
御	-7.90993
北斗	-7.91104
咸	-7.91734
乘	-7.91737
林	-7.91809
胎	-7.92264
急急如律令	-7.92274
祝	-7.92604
燒	-7.92894
逆	-7.929
血	-7.92912
鬼神	-7.93028
乞	-7.93105
傷	-7.9353
房	-7.93557
士	-7.93613
普	-7.93752
救	-7.94082
三元	-7.9441
侍	-7.94419
由	-7.94497
呪曰	-7.94701
路	-7.94816
顯	-7.94929
延	-7.9504
呼	-7.95069
勿	-7.95569
崇	-7.95827
功曹	-7.96209
源	-7.96398
斬	-7.97158
大道	-7.97382
達	-7.97385
車	-7.97961
㫖	-7.98144
悉	-7.98164
燈	-7.98342
興	-7.98424
典	-7.98814
施	-7.99287
盟	-7.99302
醮	-7.9948
昇	-7.99843
切	-7.99993
詞	-8.00359
長生	-8.00533
諸天	-8.00543
專	-8.0076
謝	-8.00822
掌	-8.01015
駕	-8.01218
㑹	-8.01413
妖	-8.01789
州	-8.01796
總	-8.0234
遍	-8.02343
封	-8.02504
慶	-8.02574
垂	-8.02723
旣	-8.02777
霞	-8.02815
曜	-8.0288
寅	-8.03292
童	-8.03374
輕	-8.03423
虎	-8.03455
屬	-8.03895
堂	-8.03905
鐵	-8.03932
格	-8.04037
造	-8.0409
五方	-8.04324
鍊	-8.04382
春	-8.04542
焚	-8.04687
亥	-8.04903
驅	-8.05014
弟子	-8.05067
太極	-8.05152
浮	-8.05307
奉行	-8.05406
羽	-8.05598
籍	-8.05854
凶	-8.07071
金闕	-8.0723
/)(	-8.07266
雷神	-8.0734
聚	-8.07527
道士	-8.07578
卯	-8.07657
容	-8.07968
久	-8.08065
寒	-8.08209
混	-8.08223
帶	-8.0825
之炁	-8.08366
期	-8.08383
嚴	-8.08659
豈	-8.08974
河	-8.09048
禍	-8.09091
視	-8.0915
天下	-8.09221
鎮	-8.09267
衛	-8.09376
二十四	-8.09432
朗	-8.09535
記	-8.09555
報	-8.09575
就	-8.09676
誓	-8.09968
義	-8.10593
母	-8.10988
元君	-8.11114
詣	-8.11597
尺	-8.1165
并	-8.11694
花	-8.11999
唵	-8.12048
境	-8.12168
表	-8.12322
三十六	-8.12345
三天	-8.12454
右符	-8.12563
萬神	-8.12563
覆	-8.12733
果	-8.13002
慈	-8.13077
獲	-8.13091
靈官	-8.13148
按	-8.13176
界	-8.13266
圓	-8.13447
且	-8.13536
骨	-8.13627
淨	-8.13674
澤	-8.13709
被	-8.13834
甚	-8.1415
徒	-8.14603
昭	-8.14855
反	-8.14928
尚	-8.15444
童子	-8.1547
半	-8.15476
别	-8.1568
元帥	-8.15852
煙	-8.15864
曲	-8.16079
虛	-8.16096
干	-8.16106
識	-8.16113
凝	-8.16134
餘	-8.16235
患	-8.1628
北帝	-8.16281
輔	-8.16567
業	-8.16647
送	-8.16783
祈	-8.16871
䰟	-8.17783
了	-8.17859
住	-8.17942
不知	-8.18166
許	-8.18441
酆都	-8.18446
雷公	-8.18465
賜	-8.18536
益	-8.18583
大將軍	-8.1874
爾	-8.19007
中有	-8.1912
五嶽	-8.19506
仍	-8.19577
吸	-8.19759
紅	-8.20014
鳴	-8.2056
己	-8.20711
城	-8.20808
遷	-8.20814
辛	-8.20871
酉	-8.20886
耀	-8.21032
律	-8.21065
哉	-8.21178
錬	-8.21305
北方	-8.21315
猶	-8.21384
超	-8.21387
只	-8.21501
賢	-8.21507
而不	-8.21508
新	-8.22124
珠	-8.22128
放	-8.22163
機	-8.22343
吒	-8.2238
英	-8.22407
縁	-8.22421
尸	-8.22424
曹	-8.22495
負	-8.2251
覺	-8.22564
霄	-8.2292
種	-8.22953
候	-8.22997
壽	-8.2301
法師	-8.23085
休	-8.23124
然後	-8.23178
之法	-8.23279
泉	-8.23281
如此	-8.23402
亂	-8.23525
捉	-8.23763
敬	-8.23975
恭	-8.2422
悟	-8.24328
魄	-8.24375
太清	-8.24463
蒙	-8.2454
正一	-8.24829
宅	-8.25032
五雷	-8.25032
芝	-8.25082
先生	-8.25255
東方	-8.25864
司命	-8.26005
移	-8.26142
南方	-8.26169
驗	-8.26206
任	-8.26392
察	-8.26506
吐	-8.26528
恐	-8.26647
露	-8.26839
徹	-8.26866
連	-8.27245
巽	-8.27259
步	-8.27269
末	-8.27611
煥	-8.28018
每	-8.28094
省	-8.28095
帥	-8.28146
可以	-8.28158
統	-8.28295
固	-8.28311
忘	-8.28381
歩	-8.28498
忽	-8.28525
歌	-8.28562
辭	-8.2869
勤	-8.28794
寧	-8.28801
劒	-8.2887
神霄	-8.29006
闕	-8.29201
設	-8.29489
貴	-8.29639
伯	-8.29773
閉	-8.29885
奔	-8.29957
報應	-8.30456
光明	-8.30479
役	-8.30559
吹	-8.30596
留	-8.30698
紀	-8.30739
真君	-8.31021
騰	-8.31119
謂之	-8.31235
天門	-8.31307
眼	-8.31396
鎭	-8.31828
案	-8.31908
坤	-8.32031
騎	-8.32239
遠	-8.32337
飲	-8.32942
衝	-8.33045
符命	-8.33109
丁	-8.33337
近	-8.33346
滯	-8.33436
歲	-8.3364
條	-8.33803
現	-8.33824
神將	-8.33881
迷	-8.33885
載	-8.34002
招	-8.34389
停	-8.34492
契	-8.34611
金光	-8.3463
田	-8.34647
隂陽	-8.34704
江	-8.34948
卿	-8.34965
累	-8.35126
驚	-8.35397
示	-8.3549
證	-8.35988
廟	-8.36005
代	-8.3602
戌	-8.36074
他	-8.3616
敢	-8.36233
質	-8.36429
大帝	-8.36488
李	-8.3667
鼻	-8.36762
内外	-8.36843
返	-8.37325
愆	-8.37333
雪	-8.37355
五色	-8.37372
第二	-8.37457
置	-8.37461
良	-8.37709
追	-8.37805
俗	-8.37873
變化	-8.37986
身中	-8.38107
映	-8.3812
坎	-8.3815
資	-8.38244
扶	-8.38394
既	-8.38499
端	-8.38614
之所	-8.38633
西方	-8.38898
揚	-8.38911
勞	-8.38922
掐	-8.38927
漢	-8.39078
腎	-8.39096
獨	-8.39232
殃	-8.39467
天帝	-8.3948
三官	-8.39482
廻	-8.3951
宻	-8.39585
夢	-8.39973
尋	-8.40021
釋	-8.40312
上元	-8.40608
五行	-8.40634
紙	-8.4074
之日	-8.4083
父	-8.40934
所以	-8.4107
郷	-8.41108
喜	-8.41238
泰	-8.41262
赦	-8.414
財	-8.41411
勝	-8.41485
逐	-8.41626
參	-8.41675
之時	-8.4168
斯	-8.41788
天師	-8.42226
梵	-8.42261
魁	-8.42453
背	-8.42462
施行	-8.42695
刀	-8.42748
角	-8.4278
炎	-8.42785
育	-8.43028
管	-8.43153
鬱	-8.43256
秋	-8.43425
披	-8.43442
温	-8.43578
玉帝	-8.43646
電	-8.43687
助	-8.43745
庶	-8.43785
又方	-8.4396
津	-8.44153
天蓬	-8.44274
之上	-8.44326
走	-8.44389
劉	-8.44404
昔	-8.44555
盛	-8.44558
刑	-8.44715
夏	-8.44764
水火	-8.4477
退	-8.44916
碧	-8.44928
沉	-8.44932
待	-8.45265
毋	-8.45372
太玄	-8.45698
萬物	-8.45877
之後	-8.45877
一卷	-8.46
院	-8.4607
太陽	-8.46271
附	-8.4633
中央	-8.46364
將吏	-8.46438
大將	-8.46717
池	-8.46859
丑	-8.46929
調	-8.47296
北極	-8.47367
黃	-8.47429
鳳	-8.47436
迎	-8.47796
含	-8.48001
伐	-8.48051
丸	-8.48225
殿	-8.48273
一炁	-8.48334
户	-8.48335
本命	-8.48359
祥	-8.48442
緫	-8.48567
陰陽	-8.48571
營	-8.487
座	-8.48823
武	-8.48852
草	-8.48923
地獄	-8.49054
彼	-8.49345
傾	-8.49362
愛	-8.49412
接	-8.49468
煉	-8.49594
特	-8.49691
原	-8.49692
塗	-8.49708
昏	-8.49806
檢	-8.50016
天罡	-8.50071
愈	-8.50177
詳	-8.50213
緑	-8.50379
錢	-8.50449
篆	-8.50471
充	-8.5068
禄	-8.50688
火鈴	-8.50842
逺	-8.50953
細	-8.50978
祭	-8.51073
咽	-8.51351
横	-8.51561
唯	-8.5157
群	-8.51762
仁	-8.51777
之人	-8.51791
獻	-8.51852
似	-8.51998
昌	-8.52248
左手	-8.52276
烈	-8.52433
氏	-8.5262
限	-8.52656
慮	-8.52764
窮	-8.52814
行持	-8.52937
厄	-8.5296
術	-8.52977
書符	-8.52987
歷	-8.5321
寂	-8.53324
灾	-8.53385
憂	-8.53676
赴	-8.53792
錦	-8.53915
一日	-8.54084
大聖	-8.54174
遵	-8.54212
泥丸	-8.5437
計	-8.54493
三洞	-8.54593
夫人	-8.54864
以爲	-8.54965
履	-8.55062
行道	-8.55076
男女	-8.55087
遺	-8.55233
波	-8.55265
雜	-8.55408
第一	-8.55526
第三	-8.55535
黒	-8.55596
庚	-8.55596
跡	-8.55761
紫微	-8.55907
師曰	-8.56172
絳	-8.56201
蕩	-8.56206
三五	-8.56285
階	-8.56464
疑	-8.56514
逢	-8.56527
朱書	-8.56554
暉	-8.5675
具位	-8.56802
敷	-8.57005
輝	-8.57015
押	-8.57174
刻	-8.57554
熱	-8.57639
痛	-8.58242
摧	-8.58317
三十	-8.58601
愚	-8.5876
道君	-8.5911
里	-8.5923
二十	-8.59281
混合	-8.59499
剛	-8.59698
濁	-8.5992
損	-8.59928
怪	-8.60427
榮	-8.60693
乙	-8.60783
吏兵	-8.60791
乾坤	-8.60799
行之	-8.60911
谷	-8.60917
免	-8.61063
訖	-8.61092
希	-8.61521
鼓	-8.6161
清微	-8.61776
訟	-8.61872
天君	-8.62054
演	-8.62128
洞玄	-8.62249
三清	-8.62276
嶽	-8.62494
爽	-8.62504
於是	-8.62609
吞	-8.62703
辟	-8.62735
旛	-8.62906
丙	-8.63026
舊	-8.63041
卦	-8.63179
澄	-8.63437
直符	-8.63532
十五	-8.63627
再拜	-8.63647
讀	-8.63791
往	-8.64266
之士	-8.64275
綱	-8.64282
暗	-8.64316
肝	-8.64323
禳	-8.64358
係	-8.64421
土地	-8.64456
禀	-8.64646
野	-8.6474
仙官	-8.65122
卧	-8.65135
檄	-8.65318
逹	-8.65495
提	-8.65533
牛	-8.65822
早	-8.65992
推	-8.66041
玉皇	-8.66119
漸	-8.66163
入意	-8.6626
惠	-8.66327
淵	-8.66438
鑒	-8.66474
魚	-8.66681
之精	-8.6683
看	-8.67064
蟲	-8.67393
懷	-8.67536
序	-8.67803
大法	-8.67856
蛇	-8.6803
艮	-8.68221
蒼	-8.68489
夕	-8.68519
納	-8.68632
洗	-8.68859
主者	-8.68961
祖師	-8.69238
智	-8.69319
拔	-8.69367
得道	-8.69598
髙上	-8.69719
唐	-8.69902
生死	-8.7041
嘗	-8.70499
誅	-8.70629
下降	-8.70646
響	-8.70731
井	-8.70804
剔	-8.70915
疾速	-8.7103
官將	-8.71057
八景	-8.71137
稽首	-8.71615
羣	-8.7177
腹	-8.71947
急急	-8.72382
太乙	-8.72404
宇	-8.72708
上下	-8.72877
詩	-8.72889
秀	-8.72897
右手	-8.72978
灌	-8.73063
皮	-8.73231
丈人	-8.73246
習	-8.73264
假	-8.73457
舍	-8.73596
髮	-8.73633
務	-8.7379
靖	-8.73794
幸	-8.73801
怒	-8.73832
之内	-8.74011
越	-8.74363
瘟	-8.74462
給	-8.7455
天丁	-8.74663
洪	-8.74713
旋	-8.74723
樹	-8.74792
肺	-8.74802
危	-8.74975
玄都	-8.75013
擊	-8.75148
服之	-8.7519
耶	-8.75215
不敢	-8.7529
徧	-8.7559
謁	-8.75988
兹	-8.76097
貪	-8.76313
三日	-8.76374
邊	-8.76772
舌	-8.76857
殊	-8.77253
竟	-8.77331
薦	-8.77358
天中	-8.77381
飛行	-8.77539
冀	-8.77621
無上	-8.77693
畫	-8.77913
秘	-8.78047
徃	-8.78119
四方	-8.78181
誥	-8.78194
告下	-8.7827
潜	-8.78452
大洞	-8.78476
巨	-8.78521
億	-8.78562
康	-8.7863
一人	-8.7867
神虎	-8.78826
今日	-8.78908
謀	-8.79187
徑	-8.7922
肉	-8.79384
之間	-8.79554
俾	-8.7958
無極	-8.79964
姓名	-8.79978
萬靈	-8.80072
萬里	-8.80152
泄	-8.80454
哀	-8.80471
十一	-8.80553
梁	-8.80651
一名	-8.80673
浩	-8.80863
湯	-8.80949
神君	-8.81047
尤	-8.81065
丘	-8.81071
孫	-8.81096
潔	-8.81232
/)	-8.81585
幾	-8.81618
罰	-8.81678
塞	-8.81684
翼	-8.81685
唎	-8.81726
仙人	-8.81739
七祖	-8.8185
默	-8.82032
據	-8.82033
竅	-8.82097
修行	-8.82113
轟	-8.82122
三炁	-8.82347
仲	-8.82503
拘	-8.82508
趙	-8.82687
卒	-8.82689
倒	-8.82716
灰	-8.82923
十六	-8.82934
七星	-8.83576
謹請	-8.83588
上昇	-8.8361
齎	-8.83675
允	-8.83679
父母	-8.83682
又曰	-8.8376
三光	-8.83763
神王	-8.83783
味	-8.83813
悲	-8.83845
脫	-8.83878
生人	-8.83885
供養	-8.83951
巾	-8.84179
佐	-8.84521
强	-8.84535
功德	-8.8467
伸	-8.84742
祝曰	-8.84972
試	-8.84977
句	-8.85012
芒	-8.85041
輿	-8.85201
鏡	-8.85402
夷	-8.85413
兊	-8.85712
晴	-8.8573
類	-8.85761
準	-8.86081
呵	-8.86106
衆生	-8.86125
補	-8.86265
速降	-8.86351
比	-8.86495
唱	-8.8651
軒	-8.86725
我身	-8.86794
客	-8.86903
盈	-8.86926
器	-8.87106
甲子	-8.87191
人間	-8.87195
四十	-8.87198
出入	-8.8731
寶	-8.8769
呪畢	-8.87834
若有	-8.88067
法官	-8.88221
無窮	-8.88263
兼	-8.88275
沖	-8.88362
約	-8.88395
盖	-8.88439
摩	-8.88446
烏	-8.88696
縛	-8.88699
戊	-8.88833
效	-8.88842
竹	-8.88856
抱	-8.8886
孔	-8.88927
脾	-8.89147
道德	-8.89296
男	-8.89565
下元	-8.89574
六甲	-8.89797
寫	-8.89948
像	-8.8995
遲	-8.90092
九幽	-8.90127
堅	-8.90145
造化	-8.90149
一如	-8.90411
分明	-8.90438
冬	-8.9058
脚	-8.90732
仗	-8.90778
委	-8.90847
葉	-8.90853
厚	-8.90864
激	-8.90902
之神	-8.9104
編	-8.91276
頂	-8.91444
炁吹	-8.91609
𩔖	-8.91732
衰	-8.91761
束	-8.91795
覩	-8.91981
催	-8.92093
忠	-8.92394
慧	-8.92439
振	-8.92458
九炁	-8.92524
産	-8.92604
改	-8.92643
開度	-8.92752
迴	-8.92912
賊	-8.93087
五炁	-8.93358
鳯	-8.93409
飛仙	-8.93439
三年	-8.93511
史	-8.93515
縣	-8.93693
裏	-8.93769
陵	-8.94001
丈	-8.94034
髙功	-8.94162
第五	-8.94306
阿	-8.94327
墨	-8.94374
沐浴	-8.9453
俯	-8.94565
五星	-8.94607
乆	-8.94675
校	-8.94692
霧	-8.94801
搯	-8.94844
侯	-8.94979
獸	-8.95158
顧	-8.95204
徐	-8.9523
樓	-8.95235
亦可	-8.95253
十四	-8.9539
松	-8.95403
盤	-8.95438
化爲	-8.95542
度人	-8.9575
席	-8.95898
預	-8.96105
述	-8.96143
風雨	-8.9616
適	-8.96181
桃	-8.96395
十八	-8.96449
杖	-8.96635
上詣	-8.97134
癸	-8.97281
曾	-8.97525
鶴	-8.97622
一身	-8.97698
兵馬	-8.97773
笑	-8.97786
敗	-8.98276
玉京	-8.98423
九宫	-8.98571
五十	-8.98611
那	-8.98621
誤	-8.98757
瑞	-8.98761
用之	-8.98775
私	-8.99031
燭	-8.99109
老君	-8.992
克	-8.99249
學道	-8.99376
採	-8.99483
美	-8.99511
逸	-8.99521
雷火	-8.99563
𤣥	-8.99615
樞	-8.99868
捧	-9.00026
神明	-9.00034
上聖	-9.00135
縱	-9.00226
第四	-9.00315
肅	-9.00376
治病	-9.0042
豐	-9.00485
所謂	-9.00646
手執	-9.00694
魔王	-9.00792
昧	-9.00847
雙	-9.0087
純	-9.01261
川	-9.01475
馳	-9.01483
眞符	-9.01727
孝	-9.01804
是也	-9.01961
門下	-9.01981
權	-9.0201
班	-9.02014
打	-9.02037
爾時	-9.02043
責	-9.02227
罩	-9.02281
彰	-9.02427
嬰	-9.02524
壬	-9.02638
眞文	-9.02668
銀	-9.02708
副	-9.02822
劵	-9.02946
旦	-9.02952
伏願	-9.02953
无上	-9.03261
燒香	-9.03433
丹田	-9.035
之至	-9.03545
兩手	-9.03665
影	-9.03668
行事	-9.03697
導	-9.03707
宋	-9.03751
寸	-9.03873
貫	-9.03983
楊	-9.03989
九色	-9.0403
龜	-9.04067
中元	-9.04146
搗	-9.0447
究	-9.04556
竒	-9.04596
禱	-9.04655
兮	-9.04751
飛天	-9.04873
掃	-9.04879
太空	-9.04885
稽	-9.04914
觸	-9.05033
彌	-9.05043
第十	-9.05092
叩齒	-9.05097
函	-9.05173
續	-9.05542
註	-9.05713
元始天尊	-9.05775
煎	-9.05792
佳	-9.05803
東嶽	-9.05824
翳	-9.0585
答	-9.05853
九年	-9.06019
忌	-9.06041
顔	-9.06106
歳	-9.06441
雷電	-9.06483
徳	-9.06562
驛	-9.06568
烟	-9.06594
霜	-9.06608
索	-9.06634
第六	-9.06652
斧	-9.06676
戸	-9.06702
八卦	-9.0674
汁	-9.06863
嗣	-9.06874
當以	-9.06878
夀	-9.07086
太虚	-9.07113
頌	-9.07331
漏	-9.07379
犬	-9.07406
上眞	-9.07446
雄	-9.07691
眞炁	-9.08315
名曰	-9.08346
閑	-9.0843
撰	-9.0844
衞	-9.08441
鼎	-9.08494
威靈	-9.08543
黙	-9.08753
號令	-9.08757
不祥	-9.08933
瘡	-9.08948
邪精	-9.09038
風火	-9.09147
醫	-9.09149
化生	-9.09157
之氣	-9.09278
陶	-9.09476
溪	-9.09497
把	-9.09609
七元	-9.09634
千里	-9.09711
狂	-9.09749
鳥	-9.09784
旱	-9.09801
懸	-9.09815
臣某	-9.10315
之妙	-9.10514
至眞	-9.10841
静	-9.10875
南極	-9.1089
皂	-9.10916
太微	-9.10978
焚香	-9.11079
詔	-9.11101
筭	-9.11114
逍遥	-9.11191
爐	-9.11309
簿	-9.11349
握	-9.11402
尾	-9.11451
太上老君	-9.1146
是以	-9.11499
鄧	-9.1151
兇	-9.11607
薄	-9.11686
舟	-9.1169
最	-9.11698
玉童	-9.11781
洞天	-9.11918
局	-9.12233
防	-9.12257
冷	-9.12258
判	-9.12312
厭	-9.12316
潤	-9.12319
先天	-9.12417
龍虎	-9.1243
城隍	-9.12678
密	-9.12753
六天	-9.12798
審	-9.12834
太素	-9.12896
枝	-9.13056
貧	-9.13117
例	-9.13131
際	-9.13411
甘	-9.135
毎	-9.13688
聖前	-9.14122
黄帝	-9.14123
魂魄	-9.14202
上天	-9.14258
白虎	-9.14289
名山	-9.14443
單	-9.14464
某人	-9.14497
一時	-9.14508
宫中	-9.14508
勘	-9.1454
苟	-9.14804
火急	-9.14853
生於	-9.14881
陸	-9.15089
天關	-9.153
東南	-9.15555
量	-9.15572
西北	-9.15592
人身	-9.15643
葛	-9.15655
萬人	-9.1573
姓某	-9.15739
旬	-9.15796
怨	-9.15851
上奏	-9.15875
猛	-9.1602
之下	-9.16188
才	-9.16201
某處	-9.16247
令人	-9.16364
九玄	-9.16389
入室	-9.16389
北向	-9.16435
一百	-9.16598
二人	-9.1667
弟子某	-9.16744
祐	-9.16754
屋	-9.16769
枯	-9.16772
着	-9.16802
範	-9.16812
棄	-9.16817
俟	-9.1707
水府	-9.17081
折	-9.17087
萬鬼	-9.17197
五藏	-9.17282
⬤	-9.17327
胡	-9.17348
山川	-9.17353
享	-9.17369
吟	-9.17381
㧞	-9.17442
友	-9.17512
詠	-9.17666
東華	-9.17909
毫	-9.17979
邪鬼	-9.17979
沙	-9.17989
翻	-9.18005
也若	-9.182
之鬼	-9.1836
世間	-9.18453
枚	-9.18492
欽	-9.18534
而爲	-9.18586
毛	-9.18601
依法	-9.18788
勒	-9.18829
上有	-9.18874
液	-9.19011
眞王	-9.1913
避	-9.19177
各有	-9.19253
沈	-9.19471
叩	-9.19678
眞靈	-9.19724
學者	-9.19743
不見	-9.19758
層	-9.19773
六合	-9.19783
御前	-9.19838
弘	-9.19991
長存	-9.20048
批	-9.20091
削	-9.20311
五老	-9.20468
熟	-9.20607
七日	-9.20624
環	-9.20628
懼	-9.20631
天上	-9.20631
憑	-9.20632
齒	-9.2067
箇	-9.20673
暎	-9.20722
三千	-9.20874
況	-9.20923
旨	-9.20962
年月日時	-9.20969
京	-9.21003
□□	-9.21102
隆	-9.21162
社令	-9.21211
否	-9.21278
繞	-9.21312
智慧	-9.21525
叅	-9.2157
咎	-9.21655
正法	-9.21814
道法	-9.21882
袍	-9.219
無所	-9.21932
支	-9.21989
傅	-9.2213
供	-9.22144
略	-9.22188
蠻雷	-9.22342
祈禱	-9.22349
尅	-9.2255
射	-9.22563
説	-9.22687
吽	-9.22709
懇	-9.22711
郡	-9.2277
妃	-9.22843
融	-9.23053
嚥	-9.23178
㣲	-9.23335
世界	-9.23347
衡	-9.2339
纒	-9.2342
一兩	-9.23459
洞神	-9.2359
無爲	-9.23603
惑	-9.23697
嘯	-9.23721
赫	-9.23747
療	-9.23958
遥	-9.23992
上香	-9.24172
威神	-9.24227
三寳	-9.24303
蘭	-9.24357
皓	-9.24368
地祇	-9.24475
斗中	-9.24501
裙	-9.24536
穴	-9.24642
埋	-9.24674
柱	-9.24678
畏	-9.24991
六十	-9.25018
旺	-9.2506
太隂	-9.25147
銅	-9.25226
祠	-9.25226
滌	-9.25239
維	-9.25361
太平	-9.25432
途	-9.25584
截	-9.25602
曉	-9.25613
點	-9.25674
字號計十卷	-9.25818
吾奉	-9.25847
整	-9.25916
翁	-9.26039
玉晨	-9.26041
慢	-9.26165
救苦	-9.26185
遭	-9.26204
翠	-9.26212
蕭	-9.26228
橋	-9.26229
没	-9.26299
无極	-9.2638
存思	-9.26487
障	-9.26514
混沌	-9.26519
併	-9.26527
𡨚	-9.26531
膽	-9.26545
作用	-9.26561
裂	-9.26577
天官	-9.26579
祟	-9.26589
須至	-9.26702
皇君	-9.26739
瑶	-9.26821
馘	-9.26901
郎	-9.26947
本司	-9.26963
戴	-9.27117
侵	-9.27125
南斗	-9.27151
淺	-9.2718
祛	-9.27245
誦經	-9.27491
茅	-9.27495
有所	-9.27549
神呪	-9.27608
増	-9.27832
壁	-9.2784
元降	-9.27903
蘇	-9.28143
羊	-9.28156
社	-9.2826
天人	-9.28289
天曹	-9.28305
台	-9.28347
策	-9.28395
郭	-9.28464
九霄	-9.28743
嘉	-9.28759
余	-9.28836
眉	-9.28853
胃	-9.28859
指揮	-9.28881
第七	-9.28951
混元	-9.28991
侍衛	-9.29106
瞻	-9.29147
如是	-9.29169
二十八宿	-9.29221
君召	-9.29259
頒	-9.29468
戰	-9.29476
牙	-9.29496
之事	-9.29631
冝	-9.29763
荷	-9.29786
題	-9.29799
蹤	-9.29809
繫	-9.29836
精神	-9.29928
玉文	-9.29938
軍	-9.30043
中指	-9.30104
墮	-9.30121
脉	-9.30136
腦	-9.30215
疾病	-9.30276
病人	-9.30421
依科	-9.3051
雷局	-9.3063
風雷	-9.30741
聖人	-9.30753
魅	-9.30787
占	-9.30792
捨	-9.30801
淫	-9.30804
繒	-9.30935
右法	-9.30948
冒	-9.31
炁入	-9.3103
無不	-9.31035
操	-9.31116
三十二天	-9.31182
兆身	-9.31291
頓	-9.31332
第	-9.31408
泥	-9.3148
穹	-9.31487
常以	-9.3156
臻	-9.31736
無量	-9.31779
三台	-9.31791
亦不	-9.3191
於此	-9.31968
染	-9.32081
四時	-9.32123
奪	-9.32124
芳	-9.32135
去處	-9.32197
因縁	-9.3232
后	-9.32447
宴	-9.3251
天皇	-9.32524
設醮	-9.32559
力士	-9.32619
祈晴	-9.32632
金甲	-9.3268
貼	-9.32774
罔	-9.32792
誰	-9.32802
程	-9.3282
正炁	-9.32863
霆	-9.32906
萬劫	-9.3301
上真	-9.33076
竈	-9.33128
杜	-9.33146
慕	-9.33185
䇿	-9.33204
趣	-9.33206
照應	-9.33226
孤	-9.33352
祈雨	-9.33455
洞眞	-9.33455
稍	-9.33482
而行	-9.3349
玉符	-9.33739
率	-9.33837
煑	-9.34018
受度	-9.34068
虚皇	-9.34073
此符	-9.34125
臣等	-9.34203
壯	-9.34223
包	-9.34256
之功	-9.34324
千萬	-9.34414
均	-9.34499
上啓	-9.34539
十七	-9.34556
食之	-9.34556
以今	-9.34574
念呪	-9.34646
政	-9.34692
五道	-9.34724
宰	-9.34833
某等	-9.34916
旗	-9.34938
十二人	-9.35009
神吏	-9.35201
寢	-9.35265
度師	-9.35354
囊	-9.35553
雷部	-9.35561
項	-9.35568
遐	-9.35575
腰	-9.3562
生神	-9.35719
神光	-9.35772
眞形	-9.3587
劄	-9.35892
迹	-9.35893
孟	-9.35977
人之	-9.36109
八方	-9.36134
百神	-9.36166
壞	-9.36185
秦	-9.36233
一升	-9.36236
火輪	-9.36321
浪	-9.36345
而成	-9.36653
南宫	-9.36792
妙經	-9.36819
箋	-9.36932
短	-9.36968
貌	-9.37023
風雲	-9.37089
頭戴	-9.3713
同卷	-9.37207
銜	-9.37313
勢	-9.37406
從官	-9.37486
亡魂	-9.375
懴	-9.37632
沐	-9.37657
欺	-9.3767
吿	-9.37693
逰	-9.37712
黄庭	-9.37955
所在	-9.37991
符呪	-9.38014
上生	-9.38133
十三	-9.38187
通靈	-9.38273
攝召	-9.38293
圍	-9.38345
魏	-9.38388
彩	-9.384
上相	-9.38431
莫不	-9.38525
擇	-9.38787
纏	-9.38802
同前	-9.38813
上宫	-9.38817
正月	-9.3884
主宰	-9.38847
以來	-9.3887
役使	-9.38988
前後	-9.39063
火車	-9.39131
韓	-9.39137
讃	-9.3915
麻	-9.39153
保命	-9.39174
員	-9.39194
呈	-9.3946
喪	-9.39578
其中	-9.39614
囉	-9.39648
季	-9.39718
經云	-9.39759
七寳	-9.39801
鍾	-9.39839
圎	-9.39892
叱	-9.3993
赤書	-9.40002
水中	-9.40097
抑	-9.40199
網	-9.40223
活	-9.40235
莊	-9.40245
正神	-9.40299
鐘	-9.40314
叉	-9.40373
神祇	-9.40416
佑	-9.40446
三十二	-9.40553
吴	-9.40603
錯	-9.40624
暮	-9.40625
一百二十人	-9.40745
慾	-9.40885
妙道	-9.40898
准	-9.40967
議	-9.40974
無形	-9.41058
阻	-9.41285
片	-9.4134
傍	-9.41365
嬰兒	-9.41408
如前	-9.41429
心中	-9.41482
上皇	-9.41518
尊神	-9.41724
内有	-9.41889
金丹	-9.41942
靈文	-9.41992
域	-9.42016
汗	-9.4205
高上	-9.42068
至道	-9.42088
辯	-9.4212
効	-9.42129
擒	-9.4213
口中	-9.42134
合屬	-9.42282
法中	-9.4229
而後	-9.42533
祀	-9.42743
爲之	-9.42791
促	-9.42808
崑崙	-9.42882
和合	-9.42986
威儀	-9.4299
地户	-9.43145
悃	-9.43169
是時	-9.43234
託	-9.43254
彈	-9.43256
訓	-9.43257
亨	-9.43258
五人	-9.43316
眞官	-9.43406
基	-9.4358
一寸	-9.43616
雞	-9.43649
至於	-9.43807
四海	-9.43849
號曰	-9.439
擁	-9.43966
膏	-9.43976
陣	-9.4404
婆	-9.44078
中宫	-9.44286
欣	-9.44319
晝夜	-9.44402
世人	-9.44571
奥	-9.4474
官屬	-9.44761
遁	-9.44866
慈悲	-9.44883
五神	-9.45085
剪	-9.45101
空洞	-9.45107
躬	-9.4511
琅	-9.45138
奇	-9.45238
如法	-9.45283
善惡	-9.45405
凌	-9.45478
骸	-9.45519
堪	-9.45521
晶	-9.45549
碎	-9.45551
十萬人	-9.45586
靈寶	-9.4564
娑訶	-9.45641
幕	-9.45679
鑑	-9.45855
七十二	-9.45874
寥	-9.45913
怠	-9.45917
龍王	-9.45931
感通	-9.45949
敢有	-9.46012
玄元	-9.46089
三魂	-9.46199
神靈	-9.46247
丐	-9.4625
闊	-9.4634
劍	-9.46349
不同	-9.46537
兒	-9.46565
此法	-9.46573
傳授	-9.46632
殘	-9.46638
冲	-9.46653
米	-9.46674
青龍	-9.46701
决	-9.4671
降臨	-9.46852
符右符	-9.46854
已上	-9.46941
紫雲	-9.47078
棗	-9.47083
七十	-9.471
㸃	-9.47107
研	-9.47116
額	-9.47143
如何	-9.47243
市	-9.47406
輙	-9.47438
之門	-9.47445
度命	-9.47603
者不	-9.47653
訪	-9.47711
火光	-9.47749
漿	-9.47808
翔	-9.47837
天眞	-9.48035
鸞	-9.4824
賞	-9.48248
牢	-9.48252
諸司	-9.4826
雷雨	-9.48264
值	-9.48439
逮	-9.48653
掩	-9.48677
柔	-9.48685
粉	-9.48772
絳宫	-9.48785
虚無	-9.48809
𨽻	-9.49015
隔	-9.49028
腫	-9.49068
逃	-9.49096
上仙	-9.49167
斤	-9.49294
舒	-9.49428
歡	-9.49436
未能	-9.49452
黄籙	-9.49578
大指	-9.49765
第八	-9.49769
繁	-9.49864
胞	-9.49887
金剛	-9.49912
无量	-9.49914
配	-9.49983
六丁	-9.50129
而去	-9.50145
神兵	-9.50174
修齋	-9.50204
盞	-9.50272
繼	-9.50278
妻	-9.50288
拱	-9.50293
暢	-9.50294
禽	-9.50302
攻	-9.50302
晦	-9.50309
年月日	-9.50412
法籙	-9.5042
一年	-9.50494
不死	-9.50518
玉字	-9.50527
神符	-9.5056
三皇	-9.50587
亡䰟	-9.50598
煩	-9.50632
增	-9.50666
大小	-9.50711
五臟	-9.50741
上聞	-9.50774
八節	-9.50843
兵士	-9.50856
出於	-9.51127
練	-9.51131
老子	-9.51142
瀆	-9.5131
度厄	-9.51312
者也	-9.51336
東北	-9.51504
箕	-9.51619
)□(	-9.51758
爲一	-9.51865
僞	-9.51902
互	-9.51937
太眞	-9.51975
頃	-9.52319
不用	-9.52374
鮮	-9.52377
濛	-9.52401
青帝	-9.52417
賤	-9.52524
存神	-9.52659
工	-9.52674
寄	-9.52709
屍	-9.52733
凈	-9.52771
後學	-9.52771
躡	-9.52785
猪	-9.52787
更生	-9.52838
玉札	-9.52862
安寧	-9.53092
竭	-9.5317
館	-9.5319
赴壇	-9.53367
竊	-9.5354
賛	-9.53567
梵炁	-9.5359
此道	-9.53756
乖	-9.5398
有一	-9.54
憲	-9.54377
分形	-9.54412
而生	-9.54417
其所	-9.54477
百日	-9.54499
妖精	-9.54579
遏	-9.54789
靈符	-9.548
濟度	-9.54851
七魄	-9.54854
金華	-9.55064
悔	-9.55132
伏魔	-9.55185
矜	-9.55229
桂	-9.55244
蜜	-9.55264
孰	-9.55314
溟	-9.55326
叩齒九通	-9.55336
鷄	-9.5549
知其	-9.55634
桑	-9.55672
暫	-9.55678
博	-9.55678
賔	-9.557
排	-9.5572
絡	-9.55737
三素	-9.55842
穀	-9.55921
五靈	-9.55982
天雷	-9.55983
玄壇	-9.55998
宸	-9.56009
也其	-9.56018
覽	-9.56043
丙丁	-9.56075
八十一	-9.56099
墓	-9.56108
側	-9.56113
軿	-9.56131
蔽	-9.56139
礙	-9.56143
洒	-9.56145
岀	-9.56163
日中	-9.56172
訶	-9.56198
白日	-9.562
祖炁	-9.56245
西南	-9.56395
不生	-9.5641
巳上	-9.56444
一道	-9.56503
三景	-9.56506
山林	-9.56514
空中	-9.56568
板	-9.5659
三境	-9.56659
道場	-9.56688
上法	-9.56767
鈴	-9.56833
爛	-9.5695
䟽	-9.56956
臍	-9.56971
淳	-9.5699
三宫	-9.57102
部領	-9.57116
合同	-9.57216
清齋	-9.57261
生炁	-9.57282
十月	-9.57313
虔	-9.57321
東極	-9.57325
錫	-9.57371
盗	-9.57403
底	-9.57404
飄	-9.57414
曰吾	-9.5751
穿	-9.57518
玉虚	-9.57735
又有	-9.57784
流光	-9.57789
醉	-9.57798
飢	-9.57814
𥘉	-9.57869
氷	-9.57875
大慈	-9.57895
黑雲	-9.57927
剋	-9.5794
凝神	-9.57957
乳	-9.58246
天地之	-9.5827
植	-9.5828
規	-9.58287
戮	-9.58309
人民	-9.58328
偶	-9.58364
滅形	-9.58409
此是	-9.58437
幽冥	-9.58603
天醫	-9.58681
次存	-9.58748
不必	-9.58758
故曰	-9.5876
䖏	-9.58778
焰	-9.58796
亦有	-9.58848
現形	-9.58951
登壇	-9.59021
茂	-9.59117
須臾	-9.5915
朔	-9.59195
黄素	-9.59257
擲	-9.59269
中黄	-9.59368
生民	-9.59473
貞	-9.59504
靡	-9.5958
枷	-9.59626
裳	-9.59645
扇	-9.59653
不動	-9.59664
弱	-9.5969
生天	-9.59715
東向	-9.59778
元炁	-9.59843
督	-9.59914
赤帝	-9.59935
搜	-9.60054
垢	-9.60068
吕	-9.60098
凡有	-9.601
爭	-9.60111
身心	-9.60214
而已	-9.60281
虧	-9.60534
巡	-9.60543
普度	-9.60583
開明	-9.60596
鍊度	-9.60703
湖	-9.60721
三月	-9.60798
卷一之	-9.60891
疫	-9.60891
元皇	-9.60897
忍	-9.60915
𡨋	-9.60957
割	-9.60963
攺	-9.60972
游	-9.60989
森	-9.60991
柳	-9.61038
生成	-9.61062
經曰	-9.61144
潭	-9.61262
也故	-9.61328
精思	-9.61359
▲	-9.6137
奕	-9.6139
喝	-9.61415
三寸	-9.61424
徘徊	-9.61473
龍神	-9.61503
萬丈	-9.61557
富	-9.61617
三塗	-9.6176
禹	-9.61796
二兩	-9.61913
除已	-9.61997
長夜	-9.62063
上帝敕	-9.62193
二炁	-9.62218
昊天	-9.62255
劔	-9.62284
夙	-9.62286
孕	-9.62287
馭	-9.62314
好生	-9.62322
晝	-9.6233
亡人	-9.62354
天之	-9.62407
白炁	-9.62506
緣	-9.62745
缺	-9.62764
軀	-9.62803
三師	-9.62907
太陰	-9.62949
考召	-9.63142
焦	-9.63212
淪	-9.63245
不利	-9.63246
減	-9.63265
玉皇上帝	-9.63266
撫	-9.63289
綬	-9.63371
地府	-9.63379
十二月	-9.63574
大羅	-9.63576
真經	-9.63609
消災	-9.63628
以此	-9.63642
肇	-9.6368
紋	-9.63691
崖	-9.63699
綿	-9.63714
恠	-9.63723
行雨	-9.63748
鋒	-9.63753
上道	-9.63809
慎	-9.63855
欻火	-9.63863
以聞	-9.6387
眞司	-9.64002
紫炁	-9.64031
之際	-9.64069
件	-9.6414
蓮	-9.64161
添	-9.64236
得此	-9.64308
符使	-9.64424
律令敕	-9.64427
一念	-9.64512
借	-9.64584
秉	-9.64639
齡	-9.64644
棲	-9.64653
鹿	-9.64656
等神	-9.64674
自有	-9.64765
玉華	-9.64794
曰此	-9.64807
文昌	-9.64841
吉凶	-9.64876
中天	-9.64888
之外	-9.64999
的	-9.65045
閣	-9.65047
芽	-9.65073
生靈	-9.65085
韻	-9.65094
緯	-9.65109
蒸	-9.65123
緊	-9.6513
億萬	-9.65174
或有	-9.65181
變形	-9.65243
愼	-9.65255
𩲸	-9.65364
告行	-9.65407
婦	-9.65407
洞真	-9.65412
所有	-9.65511
上清靈寳大法卷之	-9.65541
姑	-9.65569
墜	-9.65596
喉	-9.65596
夜半	-9.65736
□□□	-9.65832
九日	-9.65861
不過	-9.65953
邪魔	-9.65972
蜀	-9.66027
闡	-9.66036
荒	-9.66049
腸	-9.66059
倉	-9.66069
請降	-9.66079
紫庭	-9.66154
者皆	-9.66193
隱書	-9.66246
不足	-9.66326
神人	-9.66434
轄	-9.66616
不成	-9.66633
第九	-9.66688
髙眞	-9.66877
之數	-9.66889
百二十人	-9.66918
亭	-9.67004
拯	-9.67022
標	-9.67035
湧	-9.67076
三遍	-9.67146
靈寳天尊	-9.67353
暴	-9.67435
困	-9.67498
璧	-9.67536
分别	-9.67562
章奏	-9.67563
牌	-9.67591
性命	-9.67654
三卷	-9.67691
洞淵	-9.67779
清淨	-9.678
天王	-9.6784
蓬	-9.67876
謬	-9.67968
之宫	-9.67978
十日	-9.68026
金書	-9.68181
飲食	-9.68241
囚	-9.68355
爰	-9.68416
磨	-9.68485
卓	-9.68515
水官	-9.68653
皈	-9.68683
而無	-9.68693
書之	-9.68857
講	-9.6888
踈	-9.68905
區	-9.68914
一如告命	-9.68915
具位姓	-9.68941
洞明	-9.69011
超度	-9.69054
以水	-9.69252
皇帝	-9.69342
肆	-9.69462
辱	-9.69465
虹	-9.69497
長跪	-9.69543
合行	-9.69775
答曰	-9.69808
青炁	-9.69817
虞	-9.6988
捕	-9.69897
拂	-9.6992
弗	-9.69952
叩齒三通	-9.70003
所屬	-9.70268
再念	-9.70287
人也	-9.70288
道法會元卷之	-9.70296
熏	-9.70397
罷	-9.70404
廓	-9.70412
茶	-9.70412
魒	-9.70417
胷	-9.70424
廢	-9.70425
臭	-9.70448
室主	-9.70508
咒	-9.70597
飛雲	-9.70831
得其	-9.70835
談	-9.70886
判官	-9.70896
亢	-9.70991
九靈	-9.71261
解曰	-9.71306
拔度	-9.71315
傳度	-9.71325
九祖	-9.71333
楚	-9.71344
叔	-9.71373
盜	-9.7138
鞭	-9.71473
尼	-9.71497
玄武	-9.71507
則有	-9.71508
汝等	-9.71639
叨	-9.71799
之文	-9.71809
九眞	-9.71875
里域	-9.71947
峯	-9.71959
執法	-9.72042
魁罡	-9.72075
眞仙	-9.72264
上登	-9.72269
匝	-9.72428
流火	-9.72445
透	-9.72447
滋	-9.72484
六畜	-9.72484
投詞	-9.72588
二十七	-9.72602
五日	-9.72602
之罪	-9.72726
可得	-9.72731
若不	-9.72768
絲	-9.72791
保舉	-9.72849
九十	-9.72878
聖衆	-9.72892
壓	-9.7294
岸	-9.72948
刺	-9.72962
脂	-9.72971
道法會元卷之一百	-9.72999
太歳	-9.7303
踏	-9.73031
自己	-9.73045
来	-9.73054
銘	-9.73056
召將	-9.73071
神化	-9.73174
患人	-9.73295
揮	-9.73404
珍	-9.73419
有違	-9.73482
躍	-9.73507
團	-9.73509
宗師	-9.73572
子孫	-9.73634
眞經	-9.73705
星宿	-9.73806
𡻕	-9.73875
延年	-9.73981
文字	-9.73995
輒	-9.74021
刃	-9.74022
齋法	-9.74037
朱陵	-9.74042
白帝	-9.7411
二十五	-9.74267
奏聞	-9.74401
莖	-9.74402
玉府	-9.74405
伺	-9.74408
儒	-9.74409
人家	-9.74469
戎	-9.74472
延生	-9.74504
不復	-9.74513
飯	-9.74514
赤炁	-9.74602
髪	-9.74637
得之	-9.74639
甘露	-9.74681
速起	-9.74707
修之	-9.74723
靈飛	-9.74724
斷絶	-9.74782
與道合眞	-9.74811
青華	-9.74874
帛	-9.74933
恊	-9.74944
璇璣	-9.74947
前去	-9.74965
香火	-9.74967
宮	-9.74977
庸	-9.74977
鑪	-9.74992
其人	-9.75
毀	-9.75009
辨	-9.75025
真靈	-9.75028
濯	-9.75059
此經	-9.75266
帝王	-9.75399
巖	-9.75514
三百六十	-9.7553
天宫	-9.75561
溺	-9.75567
之初	-9.75604
今據	-9.75631
衆聖	-9.75675
之府	-9.75893
君官將一百二十人治	-9.75938
一枚	-9.75957
敕命	-9.75964
陛下	-9.75985
佩之	-9.7602
商	-9.76033
禦	-9.76071
云云	-9.76124
九府	-9.7615
斬邪	-9.76155
輕泄	-9.76158
泰山	-9.76167
四聖	-9.76253
祚	-9.76541
朱雀	-9.76588
南嶽	-9.76794
玉光	-9.76985
玄天	-9.77048
倫	-9.77086
嗔	-9.77153
良乆	-9.77187
之者	-9.77237
方可	-9.77286
真炁	-9.7739
真文	-9.77433
快	-9.77513
之境	-9.77545
祗	-9.77546
几	-9.77605
僧	-9.77663
偏	-9.77664
謹召	-9.77685
天心	-9.77685
拜章	-9.77778
解脫	-9.77812
,	-9.77822
又存	-9.77857
朝禮	-9.77881
之謂	-9.77984
紫虚	-9.78004
之始	-9.78024
跪	-9.78061
舞	-9.78108
主之	-9.78155
厥	-9.78181
上品	-9.78201
子午	-9.78326
叩頭	-9.78347
是故	-9.78386
在前	-9.78396
上上	-9.78424
道者	-9.78446
寳經	-9.78449
名爲	-9.78635
寡	-9.78636
追攝	-9.78639
勸	-9.78644
帔	-9.78699
油	-9.78721
明堂	-9.78933
二升	-9.79005
者乃	-9.79106
宥	-9.79107
飛昇	-9.79123
㝠	-9.79146
字號計九卷	-9.79153
天真	-9.79165
此文	-9.79176
䖍	-9.79179
爲禍	-9.79179
八極	-9.79194
金龍	-9.79314
一分	-9.79358
壇場	-9.7939
感應	-9.79434
合干	-9.79474
此乃	-9.7957
五苦	-9.79572
七玄	-9.7958
後聖	-9.79731
化形	-9.79743
賦	-9.79754
紛	-9.798
浴	-9.79817
洲	-9.79829
漠	-9.79833
煑取	-9.79848
九地	-9.79879
十九	-9.79979
也又	-9.80009
齋戒	-9.80098
清虚	-9.80177
勾	-9.80307
叙	-9.80363
之章	-9.8038
勃	-9.80396
雷王	-9.80424
太歲	-9.80526
元始符命	-9.80529
上靈官	-9.80585
天寳	-9.80657
中平	-9.80657
錬度	-9.80662
冠衣	-9.80687
上章	-9.80701
萬衆	-9.80705
世之	-9.80707
盧	-9.80857
麗	-9.80858
携	-9.80891
寃	-9.80899
淸	-9.80934
一遍	-9.8095
流鈴	-9.81055
七遍	-9.81102
之宗	-9.81258
吾今	-9.81312
之恩	-9.81331
殺鬼	-9.81352
頭上	-9.81373
赤天	-9.81463
九龍	-9.81574
呼吸	-9.81657
百二十	-9.81665
是爲	-9.81723
測	-9.81759
壘	-9.81773
無有	-9.81782
皆得	-9.81793
九月	-9.81815
睿	-9.81888
方治	-9.81889
腑	-9.81931
姚	-9.81961
族	-9.82018
天帝君	-9.82026
屈	-9.82039
撼	-9.82069
皆是	-9.8213
良久	-9.82181
至尊	-9.82342
閉目	-9.82399
二字	-9.82541
托	-9.82543
競	-9.82557
素靈	-9.82576
昇入	-9.82588
科曰	-9.82711
何以	-9.82719
經法	-9.82813
齋壇	-9.82904
口訣	-9.8294
翊	-9.8299
使人	-9.82999
憫	-9.83094
至真	-9.8311
宏	-9.83117
擾	-9.83121
炁一口	-9.83166
上升	-9.8327
奉爲	-9.83374
昇天	-9.83497
青宫	-9.83551
也此	-9.8356
成就	-9.83575
其心	-9.83586
官吏	-9.8362
歴	-9.83681
金童	-9.83682
瑩	-9.83684
况	-9.83698
九皇	-9.83714
軫	-9.83746
後世	-9.83839
之根	-9.83857
君子	-9.8396
太白	-9.83961
七月	-9.84168
憐	-9.84182
経	-9.84273
不正	-9.84274
飈	-9.84312
結成	-9.84315
幡	-9.84326
出行	-9.84436
使我	-9.84522
畜	-9.84651
譴	-9.8478
姦	-9.84784
拒	-9.84784
符呪曰	-9.84804
牀	-9.84805
篤	-9.84832
飾	-9.84848
泛	-9.84879
洞玄靈寳	-9.84925
也凡	-9.84963
洞陽	-9.84969
之心	-9.84978
山嶽	-9.85028
洞房	-9.85059
元辰	-9.8512
三升	-9.85271
賴	-9.85343
符檄	-9.85371
循	-9.85383
拷	-9.8539
旌	-9.85407
黑炁	-9.85434
事畢	-9.85443
其神	-9.85447
迅	-9.85451
洛	-9.85456
度世	-9.85526
清靜	-9.85584
神通	-9.85702
等衆	-9.85747
噀	-9.85757
三百	-9.85799
元始一炁萬神雷司	-9.85809
弟	-9.85849
歎	-9.85909
元神	-9.85918
俓	-9.85933
與道	-9.85945
纂	-9.85971
鄭	-9.86003
入靖	-9.86074
靈光	-9.8609
戒者	-9.86112
道化	-9.86164
斬鬼	-9.86183
十天	-9.86245
上請	-9.86271
醜	-9.86329
廬	-9.86339
存想	-9.86457
道門科範大全集卷之	-9.86463
玄科	-9.86511
黒帝	-9.86529
曽	-9.86544
雹	-9.86598
二十四人	-9.86626
閉炁	-9.86716
元陽	-9.86954
應感	-9.86985
之前	-9.87056
急速	-9.87083
禪	-9.87108
熒惑	-9.87146
五寸	-9.87189
無所不	-9.87247
真仙	-9.87326
金籙	-9.87337
邪神	-9.87462
札	-9.875
龜山	-9.87511
晚	-9.87711
東西	-9.87713
溢	-9.87729
曠	-9.87744
緋	-9.87759
言之	-9.87884
白雲	-9.87891
存亡	-9.87939
過止	-9.87987
消魔	-9.88019
金液	-9.88046
都天	-9.88216
衆眞	-9.88233
而出	-9.88237
言功	-9.88244
晉	-9.88244
園	-9.88265
用此	-9.88294
宛	-9.88295
枉	-9.88296
栢	-9.88353
婁	-9.88389
流精	-9.88451
大梵	-9.88501
玄冥	-9.8856
心章	-9.88577
煞文	-9.88634
官君	-9.88819
勇	-9.88836
彭	-9.88858
太上道君	-9.88872
豋	-9.88887
爲我	-9.88888
猛吏	-9.88901
藉	-9.88902
旁	-9.88907
者處斬	-9.88967
遊行	-9.89001
○	-9.89032
亡者	-9.89047
如意	-9.89052
電光	-9.89097
召雷	-9.89132
若能	-9.89146
微祝曰	-9.8918
中出	-9.89185
幽顯	-9.89316
唵吽吽	-9.89327
速至	-9.89357
炭	-9.89474
萌	-9.89493
鎖	-9.89503
沸	-9.89511
絹	-9.89524
紫房	-9.89552
神炁	-9.89558
戈	-9.89559
琳	-9.8957
告文	-9.89664
四字	-9.89679
不須	-9.8968
壇前	-9.89709
下下	-9.8981
陽明	-9.8983
呼召	-9.89841
形神	-9.89912
靈章	-9.89927
次第	-9.89952
▁(	-9.89964
貨	-9.89981
綵	-9.90044
卑	-9.90087
農	-9.90095
奴	-9.90101
華蓋	-9.90126
牽	-9.90154
則爲	-9.90223
不勝	-9.90225
左足	-9.90245
諸法	-9.90272
丹天	-9.90277
之則	-9.90323
星辰	-9.90365
陽光	-9.90414
河圖	-9.90641
耗	-9.90643
署	-9.90661
大夫	-9.90664
周天	-9.90664
夭	-9.90695
酌	-9.90703
括	-9.90721
捲	-9.90734
盻	-9.90743
急急奉	-9.90771
者右	-9.90783
輦	-9.90786
微妙	-9.91013
某年	-9.91031
萬民	-9.91138
幽魂	-9.91178
甲乙	-9.91193
與吾	-9.91257
霑	-9.91266
完	-9.91266
之地	-9.91301
誕	-9.91318
駐	-9.91332
倚	-9.91339
靈寳大法	-9.91342
消滅	-9.91348
予	-9.91365
蔵	-9.91369
虚空	-9.91381
轡	-9.91435
某日	-9.91458
不行	-9.91469
天闕	-9.91486
伏以	-9.91506
之要	-9.91526
以成	-9.9156
建壇	-9.9157
與天	-9.91606
謹奏	-9.91714
頂門	-9.91727
司馬	-9.91774
道人	-9.91819
之言	-9.91821
餌	-9.91871
屏	-9.9189
其道	-9.919
倍	-9.91929
起雷	-9.91945
幻	-9.91952
臣聞	-9.91955
燥	-9.92032
盆	-9.92064
在天	-9.92092
電母	-9.92101
九州	-9.92167
亡過某等	-9.92213
八門	-9.92246
上三天	-9.92259
當知	-9.92281
寳籙	-9.92314
無邊	-9.92408
惶	-9.92451
告盟	-9.92483
帳	-9.9249
天機	-9.92504
掠	-9.9251
尹	-9.92515
蓬萊	-9.92518
安鎮	-9.92546
冰	-9.92559
與我	-9.92561
黎	-9.92583
繩	-9.92589
仙道	-9.92599
鉞	-9.92605
皆有	-9.92609
迸	-9.92658
前來	-9.92667
百萬	-9.92791
也夫	-9.92876
所奏	-9.92876
功曹使者	-9.92929
謹具	-9.93036
苗	-9.93067
玉童玉女	-9.93089
冤	-9.93136
眷	-9.93137
天神	-9.93139
展	-9.93145
特賜	-9.93182
齋官	-9.93213
以致	-9.93311
二百	-9.93445
陛	-9.93489
解厄	-9.935
中間	-9.93549
梅	-9.93661
未嘗	-9.93702
妨	-9.93722
誡	-9.93747
磬	-9.93806
屯	-9.93822
般	-9.93826
二月	-9.93889
功成	-9.9397
四天	-9.93988
立功	-9.93993
掣電	-9.93999
必有	-9.94139
法事	-9.942
惡鬼	-9.94281
也今	-9.94318
午文	-9.94355
隅	-9.94364
眀	-9.94399
七轉	-9.94406
歛	-9.94422
針	-9.94437
羅列	-9.94461
子文	-9.94636
上朝	-9.94662
之誠	-9.94678
下有	-9.94861
元命	-9.94921
下情無任	-9.94962
鴻	-9.95005
笈	-9.9501
豆	-9.95031
大魔	-9.95034
漬	-9.95047
而巳	-9.9507
惱	-9.95072
三途	-9.95102
𩀱	-9.95103
豁落	-9.95132
眇	-9.95139
陀	-9.95147
大衆	-9.95168
散花	-9.95487
千人	-9.95492
臨壇	-9.95504
師父	-9.95735
以左手	-9.95763
四大	-9.95772
咭	-9.95794
齋主	-9.95822
之方	-9.95884
大魔王	-9.95887
八威	-9.95899
歘火	-9.95965
草木	-9.95983
向來	-9.9601
之理	-9.96097
之冠	-9.96106
而至	-9.96162
四司	-9.96234
葬	-9.96294
靈寳大法司	-9.96301
通天	-9.96306
髓	-9.96322
具法位	-9.96348
天丁力士	-9.9637
事理	-9.96376
魯	-9.96391
小兒	-9.96471
一聲	-9.96484
到處	-9.96488
出離	-9.96566
太帝	-9.96665
興雲	-9.96757
上玄	-9.96844
手把	-9.96879
淮	-9.96981
邑	-9.96989
卜	-9.97001
元氣	-9.9701
天元	-9.97021
侍宸	-9.97031
纔	-9.97036
右符治	-9.97046
弼	-9.97052
太和	-9.97103
臂	-9.97105
雨澤	-9.97149
心不	-9.97186
而有	-9.97207
赤子	-9.97237
所行	-9.97254
六道	-9.97303
千二百	-9.97505
南北	-9.97552
命魔	-9.97566
人皆	-9.97619
玄靈	-9.97624
仙童	-9.97624
逝	-9.97638
五通	-9.97695
官使者	-9.978
肅清	-9.97901
帝敕	-9.97924
飛龍	-9.97957
大有	-9.98047
者是	-9.98062
之音	-9.98088
四十九	-9.98118
崔	-9.98157
飽	-9.98207
浄	-9.98263
燕	-9.98265
剌	-9.98285
榜	-9.98293
聾	-9.98309
女子	-9.98325
擎	-9.98336
膝	-9.98337
控	-9.98361
衆等	-9.98373
宣告	-9.98375
道炁	-9.98509
隨事	-9.98515
變神	-9.98554
解釋	-9.98637
行人	-9.98729
功行	-9.98793
八十	-9.98816
天仙	-9.98817
又云	-9.9887
某甲	-9.98908
洞章	-9.98926
問曰	-9.98941
淡	-9.98952
之曰	-9.98952
崩	-9.98985
聖意	-9.99026
億劫	-9.99027
之類	-9.99125
三兩	-9.99258
符籙	-9.99276
飛騰	-9.99407
不應	-9.99504
蠲	-9.9951
所受	-9.99547
鄉	-9.9956
眷屬	-9.99574
守一	-9.99576
幢	-9.9958
沾	-9.99591
船	-9.99595
六月	-9.99617
鉛	-9.99623
皈依	-9.9966
太皇	-9.99678
火急奉行	-9.99686
捻	-9.9971
奏狀	-9.99786
爲人	-9.99904
青童	-10.0007
陽日	-10.001
有功	-10.0013
主帥	-10.0014
幽明	-10.0016
洞靈	-10.0021
渡	-10.0024
奸	-10.0024
勉	-10.0025
恒	-10.0025
堯	-10.0026
焚之	-10.0027
睡	-10.0028
灑	-10.0028
啼	-10.003
諷	-10.003
浸	-10.003
皆可	-10.0031
神功	-10.0033
帀	-10.0035
有符	-10.0049
神威	-10.0052
之術	-10.0062
仙翁	-10.0064
飛空	-10.0065
玉樞	-10.0076
所啓	-10.0078
謄	-10.0083
脩	-10.009
九重	-10.0091
受命	-10.0092
扶桑	-10.0093
栖	-10.0098
蔣	-10.0098
行用	-10.0102
妖氛	-10.0103
煞炁	-10.0103
若干	-10.0104
法位	-10.0106
三過	-10.0106
口舌	-10.0114
土皇	-10.0115
某乙	-10.0119
二卷	-10.012
一十二	-10.0131
子時	-10.0138
君吏	-10.0141
灸	-10.0154
壺	-10.0155
受生	-10.0155
不出	-10.0157
肩	-10.0159
巧	-10.016
版	-10.0161
善功	-10.0161
者當	-10.0162
欝	-10.0165
風伯	-10.0173
圭	-10.0175
得見	-10.0177
次念	-10.0184
之祖	-10.0185
入符	-10.019
三拜	-10.0194
天兵	-10.0199
老人	-10.0201
富貴	-10.0201
之狀	-10.0208
曆	-10.0216
粒	-10.0219
昊天玉皇上帝	-10.0227
而來	-10.0232
主收	-10.0236
伏聞	-10.0238
枕	-10.0238
尖	-10.0239
黄書	-10.0241
天樞院	-10.0244
二年	-10.0253
然燈	-10.0254
不受	-10.0261
九壘	-10.0261
金簡	-10.027
九億萬	-10.0277
婚姻	-10.0284
上方	-10.0289
選	-10.0295
三一	-10.0295
方函	-10.0298
太上大道君	-10.0301
白玉	-10.0308
承誥奉行	-10.0311
神名	-10.0317
二十八	-10.0322
天道	-10.0331
真符	-10.0333
婦人	-10.035
各三	-10.0351
斥	-10.0363
亞	-10.0363
荆	-10.0364
捉鬼	-10.0365
徴	-10.0365
闢	-10.0368
灼	-10.0369
存見	-10.0372
八月	-10.0372
厲	-10.0376
之本	-10.0395
歩虚	-10.0404
心拜	-10.0404
庚申	-10.0408
之儀	-10.0408
雙手	-10.0412
二寸	-10.0413
三氣	-10.0419
又請	-10.042
一一	-10.0426
垣	-10.0434
者則	-10.0436
橫	-10.0437
爵	-10.0437
家書	-10.0453
雷聲	-10.0458
之名	-10.0477
之光	-10.049
買	-10.0491
其文	-10.0491
吞之	-10.0495
丹書	-10.0496
以是	-10.0498
九寸	-10.05
斛	-10.0501
恨	-10.0503
消除	-10.0503
儲	-10.0504
諧	-10.0504
三天門下	-10.0506
瓦	-10.0506
身形	-10.0506
頑	-10.0508
奮	-10.0508
爻	-10.0508
恍惚	-10.0509
清旦	-10.0509
北極大帝	-10.0519
至誠	-10.0531
十年	-10.0534
當先	-10.0545
眞火	-10.055
苦爽	-10.0554
收攝	-10.0556
流金	-10.0564
寓	-10.0573
殷	-10.0574
䕶	-10.0575
繡	-10.0577
朽	-10.0579
藴	-10.0582
派	-10.0583
收捉	-10.0585
即是	-10.0585
震動	-10.0596
嵩	-10.064
其法	-10.0641
賈	-10.0644
暘谷	-10.0646
靑	-10.0648
涯	-10.0649
護身	-10.0649
紐	-10.065
册	-10.065
九元	-10.0652
某家	-10.0655
騫	-10.0656
啓告	-10.067
以手	-10.0672
破軍	-10.0674
律令勑	-10.0676
衆神	-10.0677
開天	-10.0678
復有	-10.069
南方火	-10.0705
蠱	-10.0706
刼	-10.0714
者必	-10.0716
狐	-10.0717
青書	-10.0717
五符	-10.0717
三尸	-10.072
屠	-10.072
峰	-10.0721
逼	-10.0723
流金火鈴	-10.0723
之尊	-10.0725
流行	-10.0733
七炁	-10.074
千二百人	-10.075
雨師	-10.0756
玄妙	-10.0757
悉皆	-10.0762
閉氣	-10.0764
治在	-10.077
於世	-10.0775
三分	-10.0776
古今	-10.0778
虚无	-10.078
修眞	-10.0781
所居	-10.0783
其身	-10.0785
雅	-10.0787
戾	-10.0788
恬	-10.0789
蝗	-10.0793
一百二十	-10.0793
丞	-10.0793
琴	-10.0794
替	-10.0796
威光	-10.0803
黄炁	-10.0803
伽	-10.0808
來臨	-10.0814
畢又	-10.0818
勿令	-10.0819
妙用	-10.0821
帥將	-10.0822
赤明	-10.0823
耳目	-10.0827
名書	-10.0835
之意	-10.084
昇度	-10.0847
山中	-10.0848
湛	-10.0851
惜	-10.0858
輩	-10.0862
哭	-10.0864
髻	-10.0866
六府	-10.0869
一尺	-10.0871
呪詛	-10.0872
泉曲	-10.0874
北酆	-10.088
皈命	-10.0882
豈不	-10.0893
天獄	-10.0898
以傳	-10.0906
壬癸	-10.0918
之先	-10.0922
四月	-10.0925
是非	-10.0929
裝	-10.0933
曷	-10.0934
稽首再拜	-10.094
飛捷	-10.094
百年	-10.0941
獅子	-10.0942
布炁	-10.0944
四極	-10.0947
瓶	-10.0948
呢	-10.0949
齋功	-10.095
未有	-10.096
道衆	-10.096
王母	-10.0963
青衣	-10.0964
南昌	-10.0967
時刻	-10.0972
下界	-10.0975
九氣	-10.0977
午時	-10.098
之靈	-10.0985
驅邪	-10.0991
地司	-10.0991
贈	-10.0996
道言	-10.0999
上靈	-10.1001
筋	-10.1001
㧞度	-10.1002
一點	-10.1004
愁	-10.1005
禁忌	-10.1006
嶺	-10.1006
幘	-10.1006
自在	-10.1007
筵	-10.1008
臘	-10.1008
匿	-10.1013
濃	-10.1013
茫	-10.1014
昊	-10.1015
呪唵	-10.1018
記名	-10.1028
祈恩	-10.1031
掃蕩	-10.1031
行下	-10.1031
經同卷	-10.105
爲吾	-10.1051
心存	-10.1056
砂	-10.106
玉簡	-10.1062
陽雷	-10.1064
九轉	-10.1064
分野	-10.1065
風刀	-10.1076
仇	-10.1078
塗之	-10.1079
帖	-10.108
肘	-10.1081
雷祖大帝	-10.1086
黨	-10.1087
𨼆	-10.1088
險	-10.109
霖	-10.109
道法會元卷之二百	-10.1094
爍	-10.1094
入道	-10.1098
雌	-10.1103
平旦	-10.1106
口吐	-10.111
化成	-10.1111
一月	-10.1115
星斗	-10.1124
廣成	-10.1125
人道	-10.1127
唵吽	-10.1128
病者	-10.1135
鬼官	-10.1141
巫	-10.1142
隨意	-10.1144
貺	-10.1149
炙	-10.1151
者以	-10.1156
愍	-10.1158
建齋	-10.1158
元精	-10.1159
年月日具位	-10.1161
渾	-10.1162
革	-10.1162
叩齒三十六通	-10.1166
致雨	-10.1168
各各	-10.1169
經中	-10.1173
存念	-10.1176
出家	-10.1176
北炁	-10.1182
統領	-10.1191
三界十方	-10.1193
非人	-10.1196
入符中	-10.1197
之義	-10.1197
所至	-10.1203
山神	-10.1205
墨書	-10.1208
死魂	-10.1219
得仙	-10.1221
與道合真	-10.1223
庵	-10.1224
悠	-10.1227
九州社令	-10.1229
霍	-10.1229
禾	-10.1232
悅	-10.1234
冶	-10.1236
玉經	-10.1236
翅	-10.1238
須㬰	-10.1239
探	-10.124
化身	-10.1241
爪	-10.1241
雷霆都司	-10.1241
謹據	-10.1244
壇所	-10.1254
道學不得	-10.1265
求仙	-10.1269
妖魔	-10.1277
巽方	-10.1288
自生	-10.1292
通神	-10.1298
明科	-10.1303
聖位	-10.1306
頗	-10.1306
窺	-10.1306
玉訣	-10.1307
儻	-10.1308
孚	-10.1309
邦	-10.1309
馮	-10.1311
鼠	-10.1314
多少	-10.1317
挺	-10.1319
具奏	-10.1322
丹陽	-10.1324
無道	-10.1332
罪福	-10.1334
誦之	-10.1336
五斗	-10.1339
八天	-10.1345
生化	-10.1346
帝庭	-10.1347
天堂	-10.1348
真王	-10.1349
之厄	-10.136
直日	-10.1361
奉道	-10.1375
字號計八卷	-10.1378
稼	-10.1382
軄	-10.1383
𩓑	-10.1384
嶽瀆	-10.1384
諭	-10.1386
喻	-10.1386
懴悔	-10.1387
一字	-10.139
玉陛下	-10.1404
萬化	-10.1418
不爲	-10.1423
嗣法	-10.1425
朝元	-10.1435
天河	-10.1442
應時	-10.1455
浮空	-10.1455
下丹田	-10.1458
強	-10.1462
不許	-10.1462
闔	-10.1462
寳珠	-10.1462
右足	-10.1464
膺	-10.1465
剥	-10.1469
邈	-10.1472
室中	-10.1477
奎	-10.1477
衆真	-10.1485
敕㫖	-10.1494
開化	-10.1495
開通	-10.1497
三尺	-10.1504
二景	-10.1507
其間	-10.1512
祇	-10.1514
白簡	-10.1514
酆	-10.1527
昨	-10.153
二日	-10.1531
廉	-10.1535
喬	-10.1538
蘂	-10.1539
豁	-10.1539
還丹	-10.1539
戀	-10.154
仙矣	-10.1543
緩	-10.1545
仙靈	-10.1547
零	-10.1548
工夫	-10.1555
所治	-10.1558
本無	-10.1564
不容	-10.1565
宣行	-10.1571
下部	-10.1578
甲寅	-10.1579
五月	-10.1597
天魔	-10.1602
氛	-10.1613
𥙷	-10.1614
汞	-10.1618
善男子	-10.162
貢	-10.1621
不得妄	-10.1622
贖	-10.1623
燦	-10.1624
金虎	-10.1626
裘	-10.1627
日夜	-10.1633
逐一	-10.1638
玉宸	-10.1646
二分	-10.1659
受事	-10.1669
教主	-10.1669
文書	-10.1673
七年	-10.1677
不及	-10.1682
今有	-10.1685
甲午	-10.1685
仕	-10.1689
妬	-10.1693
顚	-10.1693
肯	-10.1693
濕	-10.1695
及諸	-10.1696
遶	-10.1699
可謂	-10.1702
謙	-10.1703
四指	-10.1704
咄	-10.1704
嘘	-10.1705
五百	-10.1706
鷹	-10.1707
毁	-10.1708
學仙	-10.1714
發遣	-10.172
元年	-10.1722
一旦	-10.1722
十二時	-10.1729
坎離	-10.174
僕射	-10.1745
具狀	-10.1745
仙都	-10.1746
之機	-10.1746
雷令	-10.1747
火燒	-10.175
曹僊官	-10.175
猛將	-10.176
甲申	-10.1761
東海	-10.1765
建立	-10.1767
債	-10.1767
妙化	-10.1767
詐	-10.1776
身長	-10.1778
紏	-10.1778
杏	-10.178
取炁	-10.1782
揺	-10.1783
生身	-10.1783
頓首	-10.1785
大吉	-10.1787
雷祖	-10.1787
九陽	-10.1787
元洞	-10.1788
廬山	-10.1795
一口	-10.1804
碧落	-10.1807
雷君	-10.1822
天猷	-10.1824
附體	-10.1824
小兆	-10.1829
太真	-10.1841
自非	-10.1849
寬	-10.1851
抽	-10.1858
日月星辰	-10.1859
祭酒	-10.186
攀	-10.1862
衣服	-10.1863
錦帔	-10.1864
漱	-10.1865
逕	-10.1865
曰子	-10.1867
治卒	-10.1868
一丈	-10.1873
日時	-10.1874
死生	-10.1876
默念	-10.1888
三關	-10.1888
下令	-10.1895
十餘	-10.1895
注生	-10.1906
所見	-10.1918
奉命	-10.1919
受經	-10.192
杳	-10.1922
卯文	-10.1922
伏望	-10.1923
永保	-10.1924
上告	-10.1925
合形	-10.1926
覃	-10.1929
寺	-10.1929
金精	-10.193
二十一	-10.193
正道	-10.1932
警	-10.1932
介	-10.1934
聰	-10.1939
偃	-10.194
萬象	-10.1941
无極大道	-10.1942
他人	-10.1943
巍巍	-10.1943
磚	-10.1944
北斗七元	-10.1947
咽液	-10.195
三才	-10.1953
祕訣	-10.1962
將來	-10.1964
監齋	-10.1968
色界	-10.1981
玉眞	-10.1981
中文	-10.1982
四明	-10.1993
无所	-10.1994
大師	-10.1998
丹元	-10.2
微塵	-10.2
動靜	-10.2005
不欲	-10.2005
晩	-10.2013
恢	-10.2016
費	-10.2016
視之	-10.2016
泣	-10.2017
潰	-10.2018
秩	-10.2018
與之	-10.202
金門	-10.2024
之身	-10.2027
具位姓某	-10.2032
謝恩	-10.2041
太㣲	-10.2041
吾身	-10.2042
宻呪	-10.2043
聖母	-10.2058
天樞	-10.2063
破獄	-10.2067
上仙都	-10.2069
十極	-10.2077
百病	-10.2077
由是	-10.2082
輪轉	-10.2085
大元帥	-10.2086
天子	-10.2091
愧	-10.2096
帝勑	-10.2097
今月	-10.2098
州縣	-10.2101
箭	-10.2102
桐	-10.2102
低	-10.2106
彦	-10.2115
行壇	-10.2124
碧玉	-10.2125
一斤	-10.2135
大力	-10.2137
端坐	-10.2138
更相	-10.214
火候	-10.2156
兩目	-10.2156
岳	-10.2164
玄虚	-10.2169
具法位姓	-10.2172
終不	-10.2172
疊	-10.2173
亦無	-10.2177
膚	-10.2183
認	-10.2183
太虛	-10.2184
壤	-10.2184
渉	-10.2184
董	-10.2184
翹	-10.2185
趨	-10.2186
蓮花	-10.2192
袋	-10.2192
符章	-10.2207
玉章	-10.2209
勑召	-10.2216
萬法	-10.2224
祈求	-10.2232
太元	-10.2237
百姓	-10.225
元始上帝	-10.225
死者	-10.2255
恪	-10.2259
袖	-10.2261
不然	-10.2262
謹狀	-10.2262
衍	-10.2263
俄	-10.2264
喧	-10.2266
熬	-10.2267
䘮	-10.2268
然而	-10.2269
爲末	-10.228
壇中	-10.2284
旡	-10.2288
日光	-10.2292
邵陽	-10.2301
朝謁	-10.2311
消息	-10.2318
真形	-10.2318
人物	-10.2322
四季	-10.2323
其事	-10.2327
伏乞	-10.233
方位	-10.2337
今則	-10.2337
青城	-10.2343
三字	-10.2345
巢	-10.2347
郊	-10.2348
㐫	-10.2349
榖	-10.2349
床	-10.2352
三色	-10.2352
八字	-10.2352
過度	-10.2352
噉	-10.2356
薩	-10.2357
無礙	-10.2358
嗚	-10.2359
咒曰	-10.236
𡄦	-10.2361
三尊	-10.2362
觜	-10.2374
山魈	-10.2375
手持	-10.2376
鬼賊	-10.2379
萬炁	-10.2386
慎之	-10.2393
皆當	-10.2399
无窮	-10.2402
方便	-10.2408
捷	-10.2421
脱	-10.2422
不傳	-10.2422
得長生	-10.2423
戲	-10.2428
舜	-10.2429
撥	-10.2432
該	-10.2432
奠	-10.2432
洞照	-10.2433
噴	-10.2435
紹	-10.2435
尉	-10.2436
狗	-10.2438
遮	-10.2439
憎	-10.244
佛	-10.2441
樞機	-10.2441
貪狼	-10.2445
蔚	-10.2449
中部	-10.2454
即時	-10.2458
洞徹	-10.2459
依前	-10.2463
寳章	-10.2474
求財	-10.2478
太華	-10.2482
仙公	-10.2487
普告	-10.2489
一條	-10.2495
陽精	-10.2497
有敕	-10.2501
黄金	-10.2503
忽然	-10.2504
寰	-10.2509
玉堂	-10.2515
狼	-10.2515
廕	-10.2519
謹具狀	-10.2519
衢	-10.2522
縳	-10.2522
弓	-10.2523
城隍社令	-10.2523
去滓	-10.2523
暖	-10.2524
上中下	-10.2542
紫光	-10.2547
俯仰	-10.2547
猷	-10.2547
勑命	-10.2551
光照	-10.2553
方寸	-10.2571
玄關	-10.2573
徃來	-10.2575
天台	-10.2577
謹封	-10.2584
便是	-10.2588
雌一	-10.2588
志心	-10.2592
恃	-10.2602
之源	-10.2605
腥	-10.2607
紫清	-10.2608
元始天王	-10.2615
關告	-10.2615
𠃔中	-10.2615
千年	-10.2619
見之	-10.262
救苦天尊	-10.2628
清明	-10.2628
金眞	-10.264
關啓	-10.264
南向	-10.2641
佩帶	-10.2645
乃是	-10.2645
雖有	-10.265
九隂	-10.265
功過	-10.2655
萬魔	-10.2663
群生	-10.2671
天將	-10.2673
精誠	-10.2676
雲霧	-10.2678
東方青	-10.2682
銷	-10.2686
學士	-10.2691
癡	-10.2693
修奉	-10.2693
跨	-10.2695
懽	-10.2698
豹	-10.2699
右手執	-10.2703
升降	-10.2704
益筭	-10.2709
冬至	-10.271
羲	-10.271
百里	-10.2712
敢不	-10.2713
種種	-10.2716
河海	-10.2716
不識	-10.2719
慈尊	-10.272
伏念	-10.2739
十一月	-10.2754
即日	-10.2755
飛玄	-10.2755
三十六天	-10.2758
安鎭	-10.277
孽	-10.2771
汲	-10.2772
鑄	-10.2775
召呪	-10.2776
痊	-10.2779
聖賢	-10.2779
煩惱	-10.278
我今	-10.2781
魓	-10.2781
纓	-10.2785
風伯雨師	-10.2785
八素	-10.2786
捷疾	-10.2788
場	-10.279
孔子	-10.279
吼	-10.2793
俯垂	-10.2797
香爐	-10.2803
上達	-10.2815
當境	-10.2827
諸靈官	-10.283
任意	-10.2835
炎帝	-10.2835
冠帶	-10.2839
)(/)	-10.2841
白素	-10.2857
賣	-10.2863
酬	-10.2864
禍福	-10.2864
河源	-10.2865
嘆	-10.2868
敵	-10.2872
孩	-10.2875
鱗	-10.2875
征	-10.2877
青紙	-10.2878
哪	-10.288
皇上	-10.2893
其餘	-10.2918
在我	-10.292
六十四	-10.292
愼之	-10.2923
制魔	-10.2925
吞服	-10.2926
蠻	-10.2927
兄	-10.2938
昇玄	-10.2945
圓光	-10.2951
隨吾	-10.2951
修真	-10.2952
婚	-10.2954
靄	-10.2955
懺	-10.2955
阜	-10.2956
貴人	-10.2958
厨	-10.2959
乏	-10.2959
輕重	-10.2961
泠	-10.2961
餓	-10.2962
朱衣	-10.2964
褐	-10.2965
熾	-10.2965
减	-10.2965
甘草	-10.2965
杵	-10.2966
揈	-10.2966
孤魂	-10.2984
未得	-10.2996
事意	-10.2997
照耀	-10.2998
請進	-10.2999
又名	-10.3003
巳身	-10.3011
受持	-10.3013
通眞	-10.3017
江河	-10.3021
四象	-10.3026
主法	-10.303
泰玄都省	-10.3038
追魂	-10.3041
月朔	-10.3042
散形	-10.3043
玉清訣	-10.3043
疰	-10.3044
朴	-10.3046
急召	-10.3046
施用	-10.3049
匠	-10.3049
級	-10.3051
逥	-10.3052
泯	-10.3053
晃	-10.3059
酆都大帝	-10.3063
廉貞	-10.3065
到壇	-10.3067
神丹	-10.3074
謹爲	-10.3076
玉籙	-10.3079
九江	-10.308
延壽	-10.308
來迎	-10.3094
國土	-10.3095
之道也	-10.3117
咽之	-10.3119
玄母	-10.3122
蟾	-10.313
符篆	-10.3136
寵	-10.3138
謫	-10.3138
賀	-10.3139
陋	-10.3142
嵗	-10.3147
摇	-10.3149
召請	-10.3151
斑	-10.3151
仗劒	-10.3153
侍衞	-10.316
玉闕	-10.3179
不信	-10.3196
帝命	-10.3198
不覺	-10.3198
是謂	-10.3202
能知	-10.3202
妖邪	-10.3204
華池	-10.321
紫皇	-10.3214
二儀	-10.3219
月華	-10.322
觧	-10.3229
鈞	-10.3229
六宫	-10.323
晏	-10.3231
一尺二寸	-10.3232
涉	-10.3236
五嶽四瀆	-10.3237
閭	-10.3238
羅酆	-10.3238
出筆	-10.324
滄	-10.3242
激切	-10.3242
原赦	-10.3243
上部	-10.3249
光芒	-10.3252
公子	-10.3256
洞眞太上	-10.3257
上界	-10.3294
鄕	-10.3308
洞府	-10.3312
穩	-10.3316
念呪曰	-10.3318
萬邪	-10.3318
匱	-10.3319
霓	-10.332
幼	-10.3322
暑	-10.3323
五千	-10.3325
貯	-10.3326
歡喜	-10.3326
黄衣	-10.3327
抵	-10.3328
薪	-10.333
西王母	-10.3331
歟	-10.3331
三萬六千	-10.3334
月孛	-10.3339
御史	-10.3342
帬	-10.3343
雷震	-10.336
周流	-10.3405
玉音	-10.3411
攸	-10.3412
弊	-10.3416
擬	-10.3418
頻	-10.3422
攪	-10.3422
藹	-10.3432
都督	-10.3433
禮拜	-10.3442
上帝勑	-10.3446
丁巳	-10.3447
領兵	-10.3458
昭報	-10.3468
姓某狀	-10.3469
保生	-10.3473
急捉	-10.3477
章表	-10.3478
四維	-10.3479
奏告	-10.3481
尸解	-10.3485
修造	-10.3495
庶使	-10.3502
陟	-10.3504
饑	-10.3512
僕	-10.3512
眠	-10.3513
天恩	-10.3514
擔	-10.3517
猖	-10.3517
軌	-10.3518
伊	-10.3518
哺	-10.3518
譬如	-10.3521
鹽	-10.3522
娑	-10.3524
炁入符	-10.3524
丹砂	-10.3524
急急如上帝律令	-10.3526
不可以	-10.3527
服色	-10.353
常存	-10.3533
遊宴	-10.3534
門户	-10.3539
武曲	-10.3539
庚辛	-10.3542
北斗七星	-10.3545
四瀆	-10.3548
東井	-10.355
天魔王	-10.3558
有餘	-10.3563
太保	-10.3564
說經	-10.3564
寳光	-10.3576
地戸	-10.358
陞	-10.3594
玉司	-10.3597
四面	-10.3597
淹	-10.36
焚符	-10.36
敎	-10.3601
梓	-10.3602
雍	-10.3605
鋪	-10.361
争	-10.361
倦	-10.3612
𢘆	-10.3614
醋	-10.3614
漫	-10.3617
隻	-10.3619
鬚	-10.3623
不問	-10.3626
侍香	-10.3626
七宿	-10.3646
申狀	-10.3655
火獄	-10.3678
奉請	-10.3683
申聞	-10.3689
血湖	-10.3699
恣	-10.37
盲	-10.3705
製	-10.3705
寒暑	-10.3706
轅	-10.3706
戟	-10.3706
僣	-10.3707
統兵	-10.3707
不停	-10.3713
哩	-10.3714
恭望	-10.3724
誦呪	-10.3725
古人	-10.3728
三昧	-10.3746
北都	-10.3746
别有	-10.375
謹按	-10.3767
在乎	-10.3775
所說	-10.3778
滅魔	-10.3789
徽	-10.3791
驅雷	-10.3792
馥	-10.3793
玄中大法師	-10.3795
𩲃	-10.3796
姿	-10.3802
嗜	-10.3803
匡	-10.3807
薰	-10.3808
焕	-10.3812
佑聖	-10.3823
巽户	-10.3829
亡過某	-10.383
殺伐	-10.3833
錢馬	-10.3833
公公	-10.384
告命	-10.3848
今月某日	-10.386
每日	-10.386
雷轟	-10.3864
羽衣	-10.3868
驅除	-10.3871
中嶽	-10.3876
採訪	-10.3882
佩服	-10.3892
鑿	-10.3893
煌	-10.3893
優	-10.3894
㝷	-10.3897
平坐	-10.3898
雷兵	-10.3898
別	-10.3898
澗	-10.3898
醮官某	-10.3903
奚	-10.3904
瓢	-10.3905
掛	-10.3905
鄙	-10.3907
忿	-10.3909
青詞	-10.391
普濟	-10.3912
掃除	-10.3925
隨時	-10.393
青童君	-10.3937
西華	-10.3938
聽令	-10.3959
天廷	-10.3959
祕法	-10.3974
景霄	-10.3978
福地	-10.3982
三十九	-10.3988
奈	-10.3992
九泉	-10.3992
紫陽	-10.3993
始生	-10.3994
耕	-10.3996
匪	-10.3999
芬	-10.3999
拾	-10.4
拭	-10.4
怖	-10.4001
雄黄	-10.4001
搏	-10.4001
麽	-10.4003
敕煞攝	-10.4003
無極大道	-10.4003
受錬	-10.4005
裹	-10.4005
鐶	-10.4007
朋	-10.4008
赫赫	-10.4013
萬福	-10.4022
境界	-10.4046
甲戌	-10.4059
醮儀	-10.4078
應干	-10.4088
嗟	-10.4094
扣	-10.4094
癰	-10.4094
僊	-10.4095
材	-10.4096
雀	-10.4096
敕呪	-10.4097
香花	-10.41
做	-10.4102
二百四十	-10.4105
謗	-10.4105
九天採訪	-10.4105
頃刻	-10.4106
都畢	-10.4109
四兩	-10.411
眞武	-10.4112
斗柄	-10.412
飲酒	-10.4123
金木	-10.4124
赤文	-10.4129
朱履	-10.4131
騎吏	-10.4134
左手掐	-10.4136
三十五	-10.4144
法信	-10.4145
上宰	-10.4151
慧光	-10.4154
幽關	-10.4155
禮謝	-10.4166
煉度	-10.4175
呪塗	-10.418
太一眞君	-10.4191
社稷	-10.4191
解穢	-10.4193
字號計十一卷	-10.4193
西山	-10.4197
醴	-10.4198
嫉	-10.4199
牧	-10.42
綿綿	-10.42
統攝	-10.4202
狄	-10.4202
天皇大帝	-10.421
廷	-10.4212
父毋	-10.4214
先亡	-10.4218
頂上	-10.4221
即賜	-10.4222
祕呪	-10.4222
追䰟	-10.4222
甲辰	-10.4226
一切衆生	-10.4226
炎炎	-10.4229
服食	-10.4232
進退	-10.4233
無間	-10.4233
九宸	-10.424
謝過	-10.4244
斗訣	-10.4246
文曲	-10.4254
不忘	-10.4268
往來	-10.4275
籤	-10.429
豉	-10.4294
皈身皈神皈命	-10.4294
赫奕	-10.4299
真誥	-10.43
叩齒十二通	-10.4301
甫	-10.4301
讓	-10.4302
埃	-10.4302
犀	-10.4302
塡	-10.4306
魑	-10.4307
吁	-10.4308
故能	-10.4309
瞑目	-10.431
虛無	-10.4312
嚤	-10.4319
鴉	-10.4319
聦明	-10.432
流布	-10.4331
本壇	-10.4332
兄弟	-10.4334
形影	-10.4344
白鶴	-10.4349
不孝	-10.435
啓奏	-10.4364
中央黄	-10.4367
二尺	-10.4373
七徧	-10.4382
高上神霄	-10.4395
忱	-10.4398
城隍主者	-10.4399
明皇	-10.4402
悶	-10.4406
奏申	-10.4407
廣成先生	-10.4408
劈	-10.4409
二指	-10.441
星帥	-10.441
符一道	-10.4413
國王	-10.4415
太上洞玄靈寳	-10.4415
表裏	-10.4428
移文	-10.443
禹步	-10.4431
魔鬼	-10.4433
武帝	-10.4441
接引	-10.4444
如干	-10.4456
年月日時告下具位	-10.4457
不拘	-10.4464
勑攝	-10.4466
羣生	-10.4466
罡風	-10.4467
師友	-10.4469
復連	-10.4472
擲火	-10.4484
百餘	-10.4497
懈	-10.4506
烈火	-10.4506
夜光	-10.4507
熊	-10.4508
飛天神王	-10.4509
豫	-10.451
䂓	-10.451
暘	-10.4512
祅	-10.4513
而退	-10.4514
藍	-10.4516
皇夫人	-10.452
玉房	-10.4524
㗶	-10.4527
离	-10.453
劔訣	-10.453
刀兵	-10.454
利貞	-10.4547
云何	-10.4565
巨門	-10.4573
黄紙	-10.4577
催生	-10.4586
解除	-10.4586
魈	-10.459
帝尊	-10.4603
駭	-10.4604
衆官	-10.4605
禱祀	-10.4606
遽	-10.4609
倘	-10.4609
渴	-10.4609
粟	-10.4609
勵	-10.4615
皆由	-10.4615
蓊	-10.4615
迫	-10.4616
虚无自然	-10.4618
㦸	-10.4618
申牒	-10.4618
珮	-10.4618
艱	-10.4619
辦	-10.4619
邁	-10.462
內	-10.462
翊聖	-10.4628
學之士	-10.4633
吐納	-10.4638
開天門	-10.4638
蛟	-10.4658
三田	-10.4682
鐵面	-10.4699
救度	-10.4701
無上黄籙大齋	-10.4709
冐	-10.4713
諒	-10.4717
殄	-10.4717
訴	-10.4718
襲	-10.472
九拜	-10.4721
兔	-10.4721
郁	-10.4721
忤	-10.4721
換	-10.4722
白日昇天	-10.4725
滅亡	-10.4727
鎻	-10.4728
呬	-10.4729
悔過	-10.4734
考校	-10.4735
入室燒香	-10.4735
甘雨	-10.4743
氐	-10.4744
仙階	-10.4746
飛歩	-10.475
神仙傳	-10.477
牒請	-10.477
禱雨	-10.4788
頒行	-10.4798
白衣	-10.4815
臣某承誥奉行	-10.4815
飛升	-10.4817
宿啓	-10.4817
弄	-10.4819
䰢	-10.4819
斬妖	-10.4822
宵	-10.4823
𩳐	-10.4823
畧	-10.4826
禄存	-10.4828
霐	-10.4829
緒	-10.4829
痾	-10.4829
魍魎	-10.4829
棒	-10.4831
麾	-10.4831
粗	-10.4832
北極紫微大帝	-10.4832
帽	-10.4833
偉	-10.4834
匣	-10.4836
東南方	-10.4839
腰帶	-10.4839
紫微大帝	-10.484
懴謝	-10.4841
紫晨	-10.4858
侍從	-10.4876
家國	-10.4879
胎息	-10.4884
騰空	-10.4899
神咒	-10.49
夏至	-10.4905
災厄	-10.4915
空五寸篆符	-10.492
急急如高上神霄玉清眞王律令	-10.4924
付度	-10.4931
緘	-10.4932
貽	-10.4935
讎	-10.4935
霽	-10.4935
依式	-10.4936
摽	-10.4936
孤䰟	-10.4937
寐	-10.4938
祀典	-10.4938
罄	-10.4939
扃	-10.4939
耿	-10.4941
扵	-10.4942
幹	-10.4942
瓜	-10.4942
肌	-10.4942
畔	-10.4945
流霞	-10.4946
不知其	-10.4949
朱砂	-10.495
縱横	-10.4952
誦詠	-10.4955
蕩蕩	-10.4957
何處	-10.4967
左手執	-10.4973
河魁	-10.4975
紫府	-10.4983
某月某日	-10.4993
救濟	-10.4995
寂然	-10.5001
副將	-10.5003
衛我	-10.5025
世俗	-10.5029
捕盗	-10.5035
赦宥	-10.5038
手足	-10.5039
邀	-10.5042
斗口	-10.5043
伍	-10.5044
屢	-10.5045
攝赴	-10.5047
熙	-10.5048
衮	-10.5049
漂	-10.5049
醒	-10.505
峩	-10.5056
莫測	-10.5056
百關	-10.5057
西北方	-10.5057
雲篆	-10.5058
槌	-10.5064
戊己	-10.5068
爾時天尊	-10.5084
承受	-10.5088
步罡	-10.5096
姓某承誥奉行	-10.5104
乘雲	-10.5134
關奏	-10.5142
菜	-10.5149
碑	-10.515
踐	-10.5151
乾薑	-10.5152
黄紙朱書	-10.5152
東北方	-10.5152
隊	-10.5153
築	-10.5153
釁	-10.5154
柄	-10.5155
慰	-10.5157
壑	-10.5162
幅	-10.5163
徵	-10.5164
陞壇	-10.5173
青絲	-10.5179
潭洞	-10.5185
十方三界	-10.5235
家宅	-10.5247
言語	-10.5258
寛	-10.5266
噐	-10.5269
漆	-10.527
采	-10.527
瀝	-10.5271
麟	-10.5271
島	-10.5275
析	-10.5276
魁𩲃𩵄䰢魓𩳐魒	-10.5279
七祖父母	-10.5279
聖㫖	-10.528
罪業	-10.5282
杳冥	-10.5284
丹霞	-10.5285
歩綱	-10.5289
臣妾	-10.5297
差又方	-10.5307
破廟	-10.531
青面	-10.5313
丑時	-10.5316
死籍	-10.5316
七政	-10.5322
忽見	-10.5324
五穀	-10.5325
五湖	-10.5328
里社	-10.5328
丁卯	-10.5336
赤色	-10.5338
年月日時告下	-10.5343
卯酉	-10.5348
兆民	-10.5348
欲求	-10.536
寅卯	-10.5361
引進	-10.5361
濫	-10.5375
疆	-10.538
换	-10.5381
㓕	-10.5382
僚	-10.5382
倏	-10.5385
洽	-10.5385
賫	-10.5386
四肢	-10.5386
甦	-10.5386
罹	-10.5387
闇	-10.5387
唾	-10.5391
十惡	-10.5391
北極驅邪院	-10.5392
雲輿	-10.5402
吉利	-10.5403
握固	-10.5404
拘留	-10.5409
齋官某	-10.542
冥冥	-10.5432
羽蓋	-10.5446
酉文	-10.5452
白蛇	-10.5462
千萬丈	-10.5473
疏	-10.5478
蠢	-10.5487
醮筵	-10.5488
湘	-10.5489
抛	-10.549
龍漢	-10.5491
坦	-10.5492
遞	-10.5493
開悟	-10.5494
決	-10.5494
巻	-10.5495
鄰	-10.5496
係薦	-10.5497
焦枯	-10.5499
燃	-10.55
紛紛	-10.5503
希夷	-10.5509
思之還反真形	-10.5511
嶽府	-10.5515
嚥液	-10.5515
骨肉	-10.5518
西向	-10.552
夫妻	-10.5521
天蓬元帥	-10.553
北方黑	-10.5531
六寸	-10.5547
附子	-10.555
飛步	-10.5568
四寸	-10.5574
黃帝	-10.5579
太霄	-10.558
遵依	-10.5581
轟轟	-10.5593
杯	-10.5596
江水帝	-10.5605
弦	-10.5608
北海	-10.5608
斡旋	-10.5612
殟	-10.5612
鴈	-10.5615
黄籙院	-10.5617
淩	-10.5617
肥	-10.5618
酸	-10.5619
必須	-10.5621
檀	-10.5621
萬遍	-10.5626
侵害	-10.5631
邪崇	-10.5663
密呪	-10.5666
男子	-10.5672
玉郎	-10.5674
億萬衆	-10.5684
二十三	-10.5693
兩足	-10.5705
十里	-10.5713
伏望聖慈	-10.5713
近世	-10.5714
憶	-10.5723
夾	-10.5726
烹	-10.5728
拳	-10.5728
咬	-10.5728
岱	-10.5732
蘆	-10.5733
神霄玉清眞王	-10.5733
蠶	-10.5733
伺候	-10.5734
虎狼	-10.5735
儼	-10.5736
踰	-10.5736
炳	-10.5736
鼔	-10.5741
快樂	-10.5741
狂風	-10.5743
昴	-10.575
七百年	-10.5764
積功	-10.5769
頒降	-10.5772
風吹	-10.5778
徹視	-10.5778
度人經	-10.5779
飛裙	-10.5782
不測	-10.5784
治病功曹	-10.5789
仙曹	-10.5792
東方青帝	-10.5798
兇惡	-10.5804
吽吽	-10.5812
光映	-10.5818
聦	-10.5825
福慶	-10.5826
幽䰟	-10.5828
下情不勝	-10.5838
縛鬼	-10.584
𩵄	-10.584
棺	-10.5842
璽	-10.5842
渺	-10.5846
召役	-10.5849
妾	-10.5851
勅	-10.5851
葷	-10.5853
諦	-10.5855
馨	-10.5856
道學當念	-10.5856
挑	-10.5858
足躡	-10.587
漸漸	-10.5872
披髮	-10.588
遵奉	-10.589
兩腎	-10.5911
都天大	-10.5922
九天之上	-10.5929
急準	-10.594
紙朱書	-10.5945
巳午	-10.5946
凉	-10.5967
太平興國	-10.5967
迍	-10.5969
籠	-10.5969
溥	-10.597
播	-10.5971
釜	-10.5971
衘	-10.5971
范	-10.5972
沼	-10.5972
鈎	-10.5973
甞	-10.5973
恍	-10.5974
亘	-10.5974
較	-10.5974
卷一之十	-10.5974
矢	-10.5976
潦	-10.5979
縈	-10.5979
䑓	-10.598
穆	-10.5981
鬼魅	-10.5982
風雲雷雨電	-10.5987
復爐	-10.6013
西嶽	-10.6015
九醜	-10.603
鷄子	-10.6031
苦酒	-10.6037
𡖖	-10.6066
丕	-10.6087
牓	-10.6089
屑	-10.6089
鎔	-10.6091
餅	-10.6092
柯	-10.6095
膠	-10.6096
頼	-10.6096
賓	-10.6097
殁	-10.6098
暇	-10.6098
綸	-10.6098
皎	-10.6099
梯	-10.61
嚼	-10.61
刋	-10.6101
庫	-10.6102
塊	-10.6102
飡	-10.6107
𢹂	-10.6108
邵	-10.6197
閱	-10.6211
嫁	-10.6212
翰	-10.6215
謾	-10.6217
炷	-10.6217
頽	-10.6219
牘	-10.6219
餐	-10.622
譽	-10.6222
滴	-10.6222
籟	-10.6226
䧟	-10.6232
癘	-10.6295
梧	-10.6335
苑	-10.6338
衷	-10.6341
黍	-10.6341
驂	-10.6342
綺	-10.6342
䕃	-10.6343
峨	-10.6347
汪	-10.6349
健	-10.6349
矧	-10.635
飮	-10.6351
偈	-10.6352
啞	-10.636
簫	-10.6466
鈕	-10.6467
饒	-10.6467
哆	-10.6469
儉	-10.6471
訛	-10.6472
脊	-10.6473
絞	-10.6473
圃	-10.6474
粹	-10.6474
蟻	-10.6475
𠔃	-10.6508
釣	-10.6588
薛	-10.6588
怡	-10.6592
挹	-10.6596
蹈	-10.6597
掣	-10.66
噓	-10.6603
逞	-10.6603
價	-10.6711
俞	-10.6712
匹	-10.6719
圈	-10.6719
話	-10.6722
卵	-10.6723
驕	-10.6723
段	-10.6725
濤	-10.6725
玊	-10.6725
誘	-10.6726
抗	-10.6727
瑕	-10.6728
剖	-10.6729
硯	-10.6733
裁	-10.6733
墳	-10.6733
𧇊	-10.6734
擣	-10.6744
蕃	-10.676
𫝊	-10.6846
郞	-10.6849
歘	-10.685
迂	-10.685
敦	-10.6853
歆	-10.6854
湏	-10.6855
霹	-10.6856
釘	-10.6857
縫	-10.686
撞	-10.6865
縮	-10.6868
喫	-10.687
襟	-10.6872
鵝	-10.6874
央	-10.694
义	-10.6974
偷	-10.6988
侣	-10.6988
歇	-10.6989
譜	-10.699
姻	-10.699
洎	-10.6991
塚	-10.6992
猫	-10.6996
涼	-10.6996
矯	-10.6997
椒	-10.6997
誇	-10.6997
皁	-10.7
閬	-10.7001
靴	-10.7002
鉢	-10.7003
閻	-10.7005
鑚	-10.7005
竇	-10.7117
袁	-10.7118
斡	-10.7122
梨	-10.7123
莽	-10.7127
揖	-10.7134
譯	-10.7135
韋	-10.7256
凰	-10.726
窟	-10.7263
汙	-10.7263
辜	-10.7264
啖	-10.7264
擢	-10.7266
織	-10.7267
寔	-10.7268
核	-10.7268
匕	-10.7268
昆	-10.7269
俠	-10.7271
豪	-10.7271
簪	-10.7273
睛	-10.7274
叟	-10.7392
遨	-10.7398
攅	-10.74
粮	-10.7401
脇	-10.7401
蝕	-10.7402
謡	-10.7402
滓	-10.7405
滛	-10.7405
欵	-10.7408
澡	-10.7415
僃	-10.7537
麄	-10.754
措	-10.754
討	-10.7542
乍	-10.7546
墟	-10.7548
凋	-10.7548
系	-10.755
酷	-10.7551
燎	-10.7552
吊	-10.7557
軸	-10.7667
娶	-10.7673
渠	-10.7679
顛	-10.7682
瞬	-10.7688
熒	-10.769
戯	-10.769
咀	-10.769
戍	-10.7691
慘	-10.7693
慚	-10.7823
騁	-10.7828
荀	-10.7828
蔡	-10.7828
抜	-10.7829
勳	-10.7829
庇	-10.783
村	-10.783
蹇	-10.7833
撚	-10.7833
聊	-10.7835
巴	-10.7839
淋	-10.7839
擅	-10.7973
詵	-10.7975
獵	-10.7977
叶	-10.7979
污	-10.798
饌	-10.7982
嚧	-10.7982
邇	-10.7983
瀉	-10.7984
葩	-10.7987
舘	-10.7996
禎	-10.8115
橘	-10.8121
勲	-10.8123
虬	-10.8125
麥	-10.8127
艾	-10.8127
叢	-10.8131
僻	-10.8131
杓	-10.8135
蟬	-10.8135
躋	-10.8137
償	-10.8263
叛	-10.827
亮	-10.827
逓	-10.8272
眸	-10.8274
瘥	-10.8276
揆	-10.8279
疼	-10.8281
芥	-10.8281
涵	-10.8282
躁	-10.8285
戚	-10.8285
殆	-10.8285
嚙	-10.8286
撒	-10.8288
糞	-10.829
霸	-10.8292
膿	-10.842
耆	-10.8425
藝	-10.8427
舎	-10.8427
濡	-10.8432
翌	-10.8432
鞅	-10.8433
填	-10.8434
璣	-10.8434
模	-10.8434
炬	-10.8434
刊	-10.8436
貸	-10.8437
輸	-10.8439
泊	-10.8442
贊	-10.8579
薫	-10.8579
俊	-10.8581
蒲	-10.8582
汚	-10.8583
葱	-10.8584
鈔	-10.8584
竿	-10.8584
雕	-10.8584
陷	-10.8586
券	-10.8587
柏	-10.8587
諾	-10.859
遜	-10.859
藻	-10.8591
掘	-10.8591
嫌	-10.8592
線	-10.8592
咤	-10.8592
覓	-10.8593
熖	-10.8593
沓	-10.8594
纖	-10.8595
鳩	-10.8596
姤	-10.8601
孛	-10.8713
臟	-10.8726
販	-10.8727
蕆	-10.8742
傑	-10.8744
聳	-10.8744
䢖	-10.8744
賁	-10.8744
霈	-10.8745
岡	-10.8746
涓	-10.8746
蠟	-10.8746
挾	-10.8747
遯	-10.8748
噠	-10.8749
桓	-10.875
顓	-10.875
儔	-10.8751
躔	-10.8754
唇	-10.8755
𥝠	-10.8755
呌	-10.8757
靉	-10.876
掇	-10.8762
頰	-10.8777
嚩	-10.8883
粥	-10.8895
漁	-10.8899
潮	-10.89
腐	-10.8901
沛	-10.8904
椿	-10.8907
仞	-10.8907
詰	-10.8908
譚	-10.8909
浹	-10.8909
援	-10.891
泓	-10.8912
貟	-10.8912
燄	-10.8914
迦	-10.8915
恕	-10.892
槍	-10.8923
喗	-10.8925
腴	-10.9065
痢	-10.9066
昩	-10.9072
凢	-10.9075
壅	-10.9075
搆	-10.9076
凍	-10.9076
疇	-10.9077
𥿄	-10.9079
峙	-10.908
茭	-10.9083
摶	-10.9092
喘	-10.923
坊	-10.9233
冉	-10.9233
躭	-10.9238
肚	-10.9238
闘	-10.9239
裴	-10.9242
徊	-10.9243
揭	-10.9243
協	-10.9244
猿	-10.9245
遼	-10.9247
粘	-10.9247
驟	-10.9248
聻	-10.9253
詛	-10.939
曇	-10.9402
繪	-10.9405
料	-10.9406
嚮	-10.9407
弭	-10.9407
倐	-10.9409
辤	-10.9413
綉	-10.9413
翮	-10.9413
叫	-10.9415
喚	-10.9417
扉	-10.9419
㖿	-10.9424
罕	-10.9428
䙱	-10.9429
菴	-10.9567
墠	-10.9569
迪	-10.957
顫	-10.9573
讚	-10.9575
鄷	-10.9578
佞	-10.9579
誣	-10.958
胥	-10.9581
些	-10.9582
盪	-10.9582
娥	-10.9582
劃	-10.9583
稀	-10.9584
劣	-10.9586
誑	-10.9587
頸	-10.9587
篩	-10.9587
燮	-10.9587
皷	-10.9588
虐	-10.9589
朕	-10.959
兌	-10.9591
蛻	-10.9595
欻	-10.9737
韶	-10.974
蜂	-10.9741
忝	-10.9749
樵	-10.9751
籥	-10.9752
唤	-10.9752
祉	-10.9754
挈	-10.9755
璇	-10.9756
弃	-10.9756
傲	-10.9757
嘔	-10.9758
嗽	-10.9759
暝	-10.976
璫	-10.9762
硃	-10.9763
膜	-10.9766
腋	-10.9766
荅	-10.9766
你	-10.9767
蜃	-10.9769
倣	-10.9772
甯	-10.9784
閃	-10.9906
番	-10.9929
糺	-10.9931
脯	-10.9931
哲	-10.9931
銖	-10.9933
柴	-10.9934
沿	-10.9935
暨	-10.9938
迨	-10.994
潛	-10.994
僉	-10.994
奢	-10.994
颺	-10.9941
燼	-10.9942
窈	-10.9942
狹	-10.9943
蟄	-10.9944
珏	-10.9946
鬰	-10.9947
嘿	-10.995
這	-11.0103
浙	-11.0107
凛	-11.011
冢	-11.011
攄	-11.0113
塜	-11.0114
兢	-11.0115
滂	-11.0116
礬	-11.0116
狸	-11.0116
茹	-11.0118
瘧	-11.0119
麵	-11.0119
渚	-11.012
創	-11.012
亶	-11.0121
痰	-11.0122
洩	-11.0122
㔶	-11.0122
眄	-11.0123
拙	-11.0124
晋	-11.0124
术	-11.0124
贍	-11.0126
冩	-11.0127
囂	-11.013
抄	-11.0132
溽	-11.0137
盂	-11.0285
忙	-11.0292
疋	-11.0294
橐	-11.0294
筌	-11.0296
澆	-11.0298
罵	-11.03
亟	-11.0301
廵	-11.0302
算	-11.0302
瘵	-11.0302
突	-11.0302
属	-11.0303
誨	-11.0305
菩	-11.0305
兜	-11.0307
孜	-11.032
飴	-11.0485
螫	-11.0487
漑	-11.0489
箱	-11.0489
伎	-11.049
墻	-11.049
矩	-11.049
稚	-11.0491
沃	-11.0491
潘	-11.0491
恱	-11.0492
殻	-11.0492
涕	-11.0493
㬋	-11.0494
顆	-11.0494
撓	-11.0501
鬢	-11.0502
牖	-11.0503
瞤	-11.0574
產	-11.0672
褒	-11.0673
蔭	-11.0677
綴	-11.0679
錄	-11.068
恚	-11.0681
伴	-11.0681
構	-11.0683
佇	-11.0683
凖	-11.0684
撲	-11.0685
岑	-11.0686
詮	-11.0688
滑	-11.0689
械	-11.0692
鎗	-11.0696
粲	-11.0696
鎚	-11.0698
竪	-11.0699
痒	-11.0716
渥	-11.0865
裔	-11.0869
跳	-11.0871
婬	-11.0872
収	-11.0872
膈	-11.0874
翦	-11.0874
菲	-11.0875
汎	-11.0876
絃	-11.0876
悮	-11.0878
插	-11.0879
匀	-11.0879
笙	-11.088
悖	-11.0881
廽	-11.0882
侮	-11.0882
殞	-11.0885
韜	-11.0888
樸	-11.0889
翫	-11.0889
摺	-11.089
碗	-11.0895
嘍	-11.0906
槁	-11.1072
藜	-11.1073
蒿	-11.1074
斜	-11.1075
隣	-11.1077
蒜	-11.1077
狩	-11.1079
聿	-11.1082
霶	-11.1082
扁	-11.1082
牡	-11.1083
𨗳	-11.1084
黜	-11.1085
踊	-11.1088
隙	-11.1089
炓	-11.1093
瓮	-11.1099
隍	-11.1262
茱	-11.1268
刷	-11.1268
殗	-11.1273
拍	-11.128
逾	-11.128
㓂	-11.1281
剉	-11.1283
疽	-11.1283
架	-11.1283
軻	-11.1284
扄	-11.1284
劑	-11.1285
稔	-11.1285
宦	-11.1285
斟	-11.1287
績	-11.1287
靣	-11.129
曩	-11.1291
苐	-11.1291
澹	-11.1291
撤	-11.1295
溉	-11.1296
唏	-11.1296
弔	-11.1297
祼	-11.1298
頥	-11.1301
毬	-11.1305
淚	-11.1478
𡜍	-11.1481
覔	-11.1482
䑕	-11.1483
恰	-11.1487
彬	-11.1488
钁	-11.1488
坑	-11.1489
疲	-11.1492
廼	-11.1494
龔	-11.1494
哥	-11.1494
奄	-11.1494
涌	-11.1496
縊	-11.1498
鞋	-11.1498
弩	-11.1499
𧵥	-11.1499
蹄	-11.1499
儛	-11.1502
煮	-11.1504
噏	-11.1509
款	-11.17
聯	-11.1702
閒	-11.1703
峻	-11.1704
銳	-11.1706
航	-11.1707
玩	-11.1707
稷	-11.1707
怛	-11.1711
随	-11.1714
慨	-11.1717
釡	-11.1719
簇	-11.1721
沌	-11.1724
䏻	-11.1905
熨	-11.1909
捍	-11.1913
縷	-11.1915
咫	-11.1915
𠂻	-11.1916
曦	-11.1917
塩	-11.1918
陁	-11.192
甕	-11.1921
窒	-11.1921
沴	-11.1921
洋	-11.1921
霏	-11.1921
紂	-11.1921
懃	-11.1922
兀	-11.1922
叚	-11.1922
璈	-11.1923
攘	-11.1923
隸	-11.1925
鵠	-11.1925
阮	-11.1925
諮	-11.1925
羸	-11.1926
濱	-11.1926
冨	-11.1927
踵	-11.1929
吳	-11.1931
帙	-11.1933
厠	-11.1934
槩	-11.1938
冕	-11.1945
姬	-11.2125
𣲖	-11.2126
㓜	-11.2134
鯉	-11.2135
蘋	-11.2137
鄒	-11.214
鵲	-11.214
曝	-11.2143
翟	-11.2146
岐	-11.2147
訊	-11.2148
衿	-11.2149
叮	-11.215
旅	-11.2153
惕	-11.2164
魘	-11.2165
啄	-11.2167
蘿	-11.2358
呉	-11.2362
䆫	-11.2364
脅	-11.2366
襄	-11.2368
捐	-11.2369
糧	-11.2369
憚	-11.237
邉	-11.2371
梗	-11.2371
頴	-11.2372
脹	-11.2375
寤	-11.2375
吻	-11.2376
潑	-11.2378
斫	-11.2379
秤	-11.2381
燁	-11.2383
猴	-11.2384
嘻	-11.2386
咈	-11.2392
臉	-11.2414
譬	-11.2578
鉤	-11.2592
鏤	-11.2594
彚	-11.2595
猥	-11.2599
株	-11.26
撮	-11.26
牋	-11.2601
渭	-11.2601
巵	-11.2602
詢	-11.2602
蕪	-11.2604
炮	-11.2604
勦	-11.2606
筒	-11.2607
炒	-11.2607
煖	-11.2609
昬	-11.2609
娘	-11.2612
𥨸	-11.2621
曄	-11.2624
薑	-11.2794
龐	-11.283
懐	-11.2834
悼	-11.2838
紗	-11.2838
鮑	-11.2838
媱	-11.284
蓄	-11.284
煒	-11.284
趍	-11.2842
稻	-11.2843
稟	-11.2843
菊	-11.2845
禧	-11.2847
袂	-11.2848
咨	-11.2849
椎	-11.285
碍	-11.285
胤	-11.2851
欎	-11.2859
劇	-11.3073
岩	-11.3075
姹	-11.3075
悚	-11.3075
𦍙	-11.3078
耽	-11.3079
芟	-11.3079
臼	-11.308
荐	-11.3084
塘	-11.3084
敏	-11.3084
舄	-11.3085
鴨	-11.3086
戢	-11.3086
暦	-11.3087
輟	-11.3088
哮	-11.3088
敘	-11.3091
驢	-11.3091
飬	-11.3092
飜	-11.3093
綜	-11.3099
圗	-11.3319
螣	-11.3324
鐡	-11.3328
竺	-11.3329
曳	-11.3333
瘦	-11.3334
癢	-11.3335
黏	-11.3336
浣	-11.3337
迭	-11.3338
届	-11.3339
眩	-11.3341
鞫	-11.3344
羞	-11.3345
瑟	-11.3348
拆	-11.3349
誌	-11.3351
𥼶	-11.3354
掾	-11.3506
璞	-11.3576
庥	-11.3585
萃	-11.3588
欠	-11.3593
拽	-11.3593
駢	-11.3594
蝶	-11.3595
寜	-11.3595
燧	-11.3597
麝	-11.3601
侈	-11.3601
饗	-11.3604
鋤	-11.384
評	-11.3845
盥	-11.3848
肖	-11.3851
酥	-11.3854
恥	-11.3856
様	-11.3856
瑛	-11.3856
巔	-11.3857
汨	-11.3857
椀	-11.3857
鞠	-11.3857
栗	-11.3858
彗	-11.3862
攷	-11.3864
課	-11.3866
彫	-11.4114
簾	-11.4114
酣	-11.4118
涎	-11.4118
懲	-11.4119
竄	-11.4119
捜	-11.412
殫	-11.4121
鱉	-11.4122
瘴	-11.4124
庠	-11.4125
繕	-11.4127
帷	-11.4127
岫	-11.4134
葺	-11.4135
抹	-11.4136
舛	-11.4137
彷	-11.4137
奧	-11.4139
燿	-11.414
鍪	-11.414
隠	-11.4143
浦	-11.4389
葵	-11.4389
穰	-11.4393
瀛	-11.4394
喑	-11.4395
壼	-11.4398
敞	-11.4399
街	-11.4401
楹	-11.4402
軰	-11.4402
睦	-11.4407
股	-11.4407
餞	-11.4407
𠰢	-11.4408
囿	-11.4408
隴	-11.4408
慙	-11.4408
梟	-11.4409
姥	-11.4409
冑	-11.441
籌	-11.4412
紳	-11.4412
劾	-11.4413
繆	-11.4416
㫁	-11.4417
囑	-11.4419
暐	-11.4421
瞳	-11.4427
薤	-11.4674
媚	-11.4681
諂	-11.4681
鯨	-11.4681
踴	-11.4682
邅	-11.4682
態	-11.4683
覬	-11.4684
茲	-11.4685
個	-11.4686
姜	-11.4686
棘	-11.4687
蟠	-11.4688
蚓	-11.4688
昂	-11.4688
篋	-11.4689
吃	-11.4689
碌	-11.469
嚀	-11.469
噫	-11.4693
窄	-11.4693
貝	-11.4693
軟	-11.4694
吝	-11.4695
𡵯	-11.4696
沫	-11.4696
𡄼	-11.4696
㐲	-11.4697
刄	-11.4698
莢	-11.4698
簷	-11.4699
渟	-11.4699
徤	-11.47
轍	-11.47
𠻗	-11.4701
吠	-11.4703
謨	-11.4709
烜	-11.4723
硤	-11.4969
蹉	-11.4971
肢	-11.4973
娱	-11.4974
萊	-11.4975
悛	-11.4977
怕	-11.4977
㡬	-11.4977
驥	-11.4979
癆	-11.4979
忻	-11.498
諍	-11.4981
廊	-11.4982
陪	-11.4983
螻	-11.4984
癩	-11.4985
羙	-11.4986
碩	-11.4986
澍	-11.4986
恤	-11.4986
淘	-11.4986
幃	-11.4986
慿	-11.4987
閩	-11.4987
慜	-11.4988
𩃱	-11.4988
企	-11.4991
蔓	-11.4991
𣗳	-11.4991
轝	-11.4994
樽	-11.5
霾	-11.5001
旭	-11.5003
瑣	-11.5266
翩	-11.5275
堆	-11.5275
葆	-11.5277
徙	-11.5277
櫛	-11.5277
悴	-11.5278
体	-11.5279
耐	-11.5281
懿	-11.5282
蒂	-11.5282
臯	-11.5283
瞽	-11.5283
漓	-11.5284
兎	-11.5284
臰	-11.5285
噬	-11.5285
閏	-11.5287
糾	-11.5288
珎	-11.5289
菌	-11.5289
籖	-11.5289
瀾	-11.529
挽	-11.5291
鈍	-11.5292
寮	-11.5293
獰	-11.5293
騶	-11.5293
聴	-11.5295
踢	-11.5295
墉	-11.5295
眥	-11.5306
𠃔	-11.5559
飭	-11.5586
猜	-11.5589
址	-11.559
憾	-11.5591
栽	-11.5593
墀	-11.5593
胄	-11.5594
糜	-11.5595
踞	-11.5596
慊	-11.5596
滔	-11.5598
閟	-11.5598
惰	-11.5599
妹	-11.56
嬌	-11.56
刮	-11.56
錐	-11.5601
巿	-11.5602
鍚	-11.5602
鼈	-11.5602
妍	-11.5602
寞	-11.5604
蹔	-11.5605
蚩	-11.5605
溝	-11.5606
擦	-11.5608
衫	-11.5609
巍	-11.561
𦤺	-11.5611
栲	-11.5612
菓	-11.5612
拄	-11.5613
庾	-11.562
㝱	-11.5907
卉	-11.5909
熈	-11.5912
彤	-11.5912
惚	-11.5917
蚊	-11.5917
詎	-11.5917
彝	-11.5917
璋	-11.5918
刦	-11.5919
棟	-11.5919
翕	-11.5919
詭	-11.592
淑	-11.592
褥	-11.5921
蜚	-11.5921
琢	-11.5924
釀	-11.5924
嵓	-11.5924
躅	-11.5924
靂	-11.5925
戹	-11.5925
甑	-11.5925
妓	-11.5927
諳	-11.5929
朒	-11.593
彿	-11.5931
擺	-11.5932
瞿	-11.5932
僅	-11.5933
㗭	-11.5938
跛	-11.6238
筮	-11.6239
虫	-11.624
蔕	-11.6241
懋	-11.6242
貳	-11.6243
潄	-11.6246
羈	-11.625
迓	-11.625
紊	-11.6251
粤	-11.6252
樊	-11.6252
鐺	-11.6253
邕	-11.6255
惹	-11.6255
譏	-11.6256
緬	-11.6257
饉	-11.6257
玃	-11.6258
屎	-11.6258
歐	-11.6259
𠮷	-11.6259
迢	-11.6259
邃	-11.626
暈	-11.626
汩	-11.626
樣	-11.626
冡	-11.6261
駡	-11.6261
揣	-11.6262
捺	-11.6264
敲	-11.6266
撿	-11.6267
牲	-11.627
闓	-11.6273
罣	-11.6274
拈	-11.6583
棹	-11.6584
繿	-11.6585
閤	-11.6585
巒	-11.6587
痹	-11.6589
惻	-11.6589
癖	-11.659
培	-11.6592
癥	-11.6592
笛	-11.6592
嬪	-11.6593
毓	-11.6594
攬	-11.6594
藩	-11.6595
紇	-11.6596
䘖	-11.6597
𦔳	-11.6597
掀	-11.6599
闗	-11.6599
窗	-11.6599
膊	-11.66
聮	-11.66
麓	-11.6602
纎	-11.6604
俺	-11.6606
榛	-11.6606
疵	-11.6607
笥	-11.6607
鬻	-11.6607
沒	-11.6607
庖	-11.661
閼	-11.661
笏	-11.661
犒	-11.661
毗	-11.6611
闌	-11.6611
睹	-11.6611
鵬	-11.6613
扎	-11.6613
𠯐	-11.6615
嶁	-11.6617
柈	-11.6617
烘	-11.6624
灝	-11.6626
珪	-11.6936
蚕	-11.6941
懶	-11.6942
羡	-11.6944
倶	-11.6945
廖	-11.6945
顙	-11.6947
蔬	-11.6947
迄	-11.6951
玷	-11.6952
㳺	-11.6952
泒	-11.6952
駿	-11.6952
㳙	-11.6952
怳	-11.6954
趺	-11.6955
舋	-11.6955
匙	-11.6956
燔	-11.6956
崑	-11.6957
縻	-11.6958
謟	-11.6958
兠	-11.6959
悦	-11.6959
奬	-11.6959
螟	-11.6961
虵	-11.6961
蜺	-11.6962
漲	-11.6962
湮	-11.6962
惺	-11.6963
矛	-11.6963
刁	-11.6964
扈	-11.6964
徇	-11.6966
窠	-11.6969
頊	-11.6973
𡆄	-11.6976
彪	-11.6985
痘	-11.7291
閽	-11.7305
鈐	-11.7307
欄	-11.7314
麤	-11.7314
廡	-11.7315
薈	-11.7316
遟	-11.7316
殖	-11.7319
蠁	-11.732
蛛	-11.7321
鳧	-11.7321
憇	-11.7322
悵	-11.7323
沱	-11.7323
寇	-11.7324
掖	-11.7325
癲	-11.7325
枳	-11.7327
嵎	-11.7327
甄	-11.7327
仔	-11.7328
裕	-11.7328
餉	-11.7329
殂	-11.7329
玕	-11.733
璨	-11.733
臆	-11.7331
兖	-11.7331
淆	-11.7332
倡	-11.7332
终	-11.7332
竦	-11.7333
夔	-11.7333
羹	-11.7333
憤	-11.7334
澇	-11.7335
盼	-11.7337
澁	-11.7338
綾	-11.7338
彊	-11.734
窕	-11.7342
㰱	-11.7342
榆	-11.7344
羌	-11.7346
啗	-11.7353
諶	-11.7353
蚣	-11.7356
繳	-11.7691
谿	-11.7692
畝	-11.7697
芍	-11.7698
炊	-11.7698
琪	-11.77
夤	-11.77
葢	-11.77
梳	-11.77
卞	-11.7702
䑛	-11.7702
蠡	-11.7703
礪	-11.7704
蘩	-11.7706
浚	-11.7707
悌	-11.7707
糓	-11.7708
陌	-11.7708
爇	-11.7709
讒	-11.771
盃	-11.771
謐	-11.771
媒	-11.7712
巷	-11.7712
逡	-11.7712
肴	-11.7712
禬	-11.7712
觴	-11.7713
紘	-11.7713
㭒	-11.7713
輅	-11.7714
噤	-11.7714
邙	-11.7715
旂	-11.7715
查	-11.7715
婉	-11.7715
宂	-11.7716
醇	-11.7716
頤	-11.7717
𩲓	-11.7718
䝉	-11.7719
𤑔	-11.7719
藪	-11.772
拖	-11.7721
咖	-11.7723
稠	-11.7723
飊	-11.7729
狡	-11.773
髭	-11.7739
苔	-11.8097
晻	-11.8098
怙	-11.8098
搬	-11.81
纛	-11.8102
桔	-11.8102
詈	-11.8102
諫	-11.8103
簮	-11.8103
蹟	-11.8105
弁	-11.8107
鏗	-11.8107
㓗	-11.8109
迯	-11.8109
綏	-11.8109
𠷈	-11.8109
怱	-11.811
耦	-11.811
朵	-11.811
荼	-11.8111
鋸	-11.8111
笳	-11.8111
濳	-11.8112
徼	-11.8112
黷	-11.8113
恡	-11.8113
釐	-11.8113
缸	-11.8113
槐	-11.8113
閫	-11.8115
胚	-11.8115
峽	-11.8115
訾	-11.8115
溷	-11.8116
幄	-11.8116
炅	-11.8119
痕	-11.812
亹	-11.8121
週	-11.8122
𨇠	-11.8123
壟	-11.8124
晅	-11.8125
焜	-11.8125
曖	-11.8126
喏	-11.8126
疥	-11.8126
疸	-11.8128
蹙	-11.8129
哼	-11.8132
瞋	-11.8135
秃	-11.8136
尿	-11.8507
矅	-11.8508
濮	-11.8513
擕	-11.8515
胸	-11.8517
旙	-11.8517
芻	-11.8518
攣	-11.8519
唫	-11.852
劬	-11.8522
隋	-11.8523
𩔗	-11.8524
嶷	-11.8524
緝	-11.8525
屐	-11.8525
惒	-11.8526
苓	-11.8526
渇	-11.8527
睫	-11.8527
昱	-11.8527
贅	-11.8527
遑	-11.8528
冗	-11.8528
曵	-11.8528
挼	-11.8529
姧	-11.853
攙	-11.853
脣	-11.8532
勁	-11.8532
朧	-11.8532
蛾	-11.8533
陂	-11.8534
朦	-11.8535
迤	-11.8535
聘	-11.8536
技	-11.8536
萎	-11.8536
旻	-11.8537
獬	-11.8537
獠	-11.8537
夣	-11.8537
晡	-11.8537
涸	-11.8538
髯	-11.8539
癬	-11.854
儵	-11.8541
閔	-11.8541
硬	-11.8541
旄	-11.8541
埜	-11.8542
檻	-11.8546
筯	-11.8546
綽	-11.8547
腭	-11.8547
𡀎	-11.8548
◍	-11.8592
櫃	-11.8936
芩	-11.8946
絕	-11.8951
幣	-11.8953
嘟	-11.8953
昻	-11.8954
臧	-11.8954
挫	-11.8954
騾	-11.8955
捩	-11.8956
檗	-11.8957
筞	-11.8957
霙	-11.8957
楓	-11.8959
廚	-11.896
葫	-11.8961
塑	-11.8961
憩	-11.8962
蠣	-11.8962
呷	-11.8963
糊	-11.8963
𠰂	-11.8963
膩	-11.8964
飼	-11.8964
㨿	-11.8964
豕	-11.8966
籬	-11.8966
稅	-11.8966
玲	-11.8967
拓	-11.8967
旃	-11.8968
軽	-11.8968
萍	-11.8969
挂	-11.897
皺	-11.8972
乹	-11.8973
鍔	-11.8973
羨	-11.8976
艷	-11.8977
偕	-11.8978
斕	-11.8979
嶮	-11.8981
嗗	-11.8981
隄	-11.8984
劎	-11.8985
𤓰	-11.8989
揀	-11.9392
郝	-11.9394
冊	-11.9396
棊	-11.9398
蘧	-11.94
曁	-11.9402
毅	-11.9402
篹	-11.9403
𨺚	-11.9404
湫	-11.9405
驪	-11.9405
殯	-11.9405
襪	-11.9407
雉	-11.9407
痼	-11.9407
𦋇	-11.9408
刪	-11.9409
榻	-11.9413
慄	-11.9414
敝	-11.9414
簽	-11.9414
乂	-11.9414
麈	-11.9414
褻	-11.9415
搐	-11.9416
顱	-11.9416
坡	-11.9416
祿	-11.9417
鑰	-11.9418
𧷤	-11.9419
喃	-11.9419
鹵	-11.9421
豺	-11.9421
膳	-11.9421
倪	-11.9422
艶	-11.9423
踪	-11.9424
杞	-11.9424
槿	-11.9425
戶	-11.9426
蹕	-11.9427
磊	-11.9428
窿	-11.9428
馴	-11.9428
槃	-11.9428
袴	-11.9429
槨	-11.943
嗶	-11.943
醪	-11.9432
慳	-11.9432
龎	-11.9436
鐄	-11.944
鵰	-11.9442
烱	-11.9444
嚏	-11.9448
囬	-11.9448
嵋	-11.945
㖟	-11.9483
臓	-11.9857
牝	-11.9862
穡	-11.9871
斿	-11.9877
虜	-11.988
儗	-11.9881
洿	-11.9883
潼	-11.9883
譔	-11.9884
姪	-11.9885
鏁	-11.9885
蠕	-11.9886
凄	-11.9887
犢	-11.9887
綂	-11.9887
郵	-11.9887
確	-11.9888
粧	-11.9888
旴	-11.9888
灘	-11.9888
瑚	-11.9889
卽	-11.9889
掬	-11.989
堵	-11.989
臊	-11.9891
鬛	-11.9891
鶉	-11.9891
筠	-11.9891
咳	-11.9891
摘	-11.9891
涇	-11.9892
醖	-11.9892
蚌	-11.9893
縹	-11.9893
峭	-11.9893
厖	-11.9893
杪	-11.9895
瀨	-11.9895
猒	-11.9895
緲	-11.9895
莾	-11.9897
磐	-11.9897
顏	-11.9898
窻	-11.9898
鬽	-11.9898
凟	-11.9899
脛	-11.9899
尓	-11.9899
佗	-11.99
誚	-11.9901
穎	-11.9901
俛	-11.9902
㬰	-11.9902
䙝	-11.9904
黯	-11.9904
苞	-11.9905
媾	-11.9905
泮	-11.9905
㓨	-11.9905
霰	-11.9905
悽	-11.9906
鹹	-11.9906
褚	-11.9907
彂	-11.9907
赭	-11.9907
瑤	-11.9909
㖂	-11.9909
駁	-11.9909
遘	-11.9909
佯	-11.991
彙	-11.9916
啹	-11.9938
瘻	-12.0365
璘	-12.0369
邢	-12.0373
鰲	-12.0378
茆	-12.0379
婢	-12.038
槎	-12.0381
蒞	-12.0381
瘞	-12.0383
吩	-12.0383
楫	-12.0384
刳	-12.0385
磁	-12.0386
孺	-12.0386
覧	-12.0386
𢊍	-12.0388
翛	-12.0389
揲	-12.0389
娠	-12.0389
攔	-12.0389
嚕	-12.039
圜	-12.039
嬴	-12.039
怎	-12.039
揩	-12.0391
賚	-12.0392
欒	-12.0392
峴	-12.0392
剡	-12.0392
喎	-12.0393
楮	-12.0393
斃	-12.0394
卻	-12.0394
鍼	-12.0396
柰	-12.0397
訂	-12.0397
邸	-12.0398
净	-12.0398
翥	-12.0398
歃	-12.0399
礫	-12.04
趕	-12.04
隷	-12.0401
㓙	-12.0401
驎	-12.0402
糠	-12.0402
禇	-12.0402
需	-12.0403
諌	-12.0403
頡	-12.0403
燌	-12.0403
黔	-12.0406
垠	-12.0407
賾	-12.0408
釵	-12.041
桉	-12.041
机	-12.0411
斂	-12.0411
庻	-12.0412
榴	-12.0415
嘧	-12.042
旒	-12.0425
蜒	-12.0426
訝	-12.0901
漚	-12.0902
沽	-12.0904
縑	-12.0904
俵	-12.0904
髠	-12.0905
壹	-12.0907
糖	-12.0908
琰	-12.0909
杭	-12.091
韭	-12.0911
肹	-12.0911
瓠	-12.0912
岷	-12.0912
騐	-12.0913
棋	-12.0914
悰	-12.0915
蔑	-12.0915
茗	-12.0916
堤	-12.0916
樗	-12.0916
恁	-12.0917
䄂	-12.0917
鬥	-12.0918
颯	-12.0918
𣑽	-12.0918
呻	-12.0919
酢	-12.0919
粳	-12.0919
髏	-12.092
鞶	-12.092
鏘	-12.092
摭	-12.0921
拊	-12.0922
趁	-12.0923
瑠	-12.0923
狠	-12.0923
秪	-12.0923
什	-12.0924
蕙	-12.0924
媿	-12.0924
璃	-12.0924
苕	-12.0924
两	-12.0925
鍳	-12.0925
紆	-12.0926
忒	-12.0928
瀟	-12.0928
閶	-12.0929
渙	-12.0929
疎	-12.093
頷	-12.0931
𥬇	-12.0932
轂	-12.0933
煜	-12.0934
㘞	-12.0934
螭	-12.0935
僥	-12.0936
匆	-12.0936
售	-12.0936
磕	-12.0937
駟	-12.0938
恙	-12.0939
虺	-12.0939
栝	-12.094
泔	-12.0941
濵	-12.0943
睇	-12.0943
呮	-12.0952
𠸎	-12.0952
辣	-12.0967
塲	-12.139
帚	-12.1444
匐	-12.1452
絮	-12.1452
蟹	-12.1458
垓	-12.1458
嫗	-12.1458
嗏	-12.1459
匃	-12.146
䥫	-12.1462
梢	-12.1462
聃	-12.1463
蓆	-12.1464
泗	-12.1465
鄱	-12.1468
裾	-12.1469
𠾬	-12.1469
崎	-12.1469
䖝	-12.1469
屇	-12.147
綃	-12.1471
禆	-12.1471
沬	-12.1472
笠	-12.1472
瞞	-12.1472
甜	-12.1473
貶	-12.1473
崐	-12.1474
組	-12.1475
竚	-12.1475
嚇	-12.1475
餚	-12.1475
熛	-12.1477
芸	-12.1478
瀑	-12.1478
愫	-12.1479
羯	-12.1479
袐	-12.1479
㩀	-12.148
祓	-12.1481
蓼	-12.1482
炫	-12.1482
礴	-12.1483
湊	-12.1484
萼	-12.1485
讁	-12.1485
誼	-12.1486
茵	-12.1487
蹊	-12.1487
𠎝	-12.1488
猾	-12.1489
俚	-12.1491
鬭	-12.1493
攢	-12.1502
芋	-12.2031
。	-12.2034
柩	-12.2036
衒	-12.204
杻	-12.2051
噪	-12.2052
嗃	-12.2052
店	-12.2055
覡	-12.2057
帯	-12.2058
搶	-12.2058
笞	-12.2058
姨	-12.2059
嬉	-12.2059
渤	-12.2059
盍	-12.2059
砥	-12.206
愕	-12.206
珊	-12.206
燾	-12.2061
桀	-12.2062
摙	-12.2062
蓐	-12.2062
堰	-12.2063
𣸸	-12.2063
殮	-12.2063
巘	-12.2063
郤	-12.2064
敖	-12.2064
楷	-12.2064
嗌	-12.2065
咜	-12.2065
抃	-12.2066
晟	-12.2066
㢤	-12.2066
捫	-12.2067
孳	-12.2067
藤	-12.2068
瓫	-12.2068
煅	-12.2068
豎	-12.2069
欹	-12.2069
琚	-12.207
努	-12.2071
𦆵	-12.2071
嘶	-12.2072
暄	-12.2072
芎	-12.2073
璿	-12.2073
焙	-12.2073
鑲	-12.2074
羶	-12.2075
徨	-12.2075
𥹋	-12.2076
𥠖	-12.2077
爆	-12.2077
𠳤	-12.2077
跋	-12.2078
倖	-12.2078
啒	-12.2078
灣	-12.2078
闈	-12.2079
嶸	-12.2079
霪	-12.2082
塔	-12.2083
啾	-12.2084
犧	-12.2085
脈	-12.2089
哂	-12.2091
鯁	-12.2649
滕	-12.2654
盎	-12.2664
畒	-12.267
慵	-12.267
鑊	-12.2671
姙	-12.2673
譁	-12.2675
妊	-12.2675
厯	-12.2677
帡	-12.2678
蝎	-12.2679
蹠	-12.268
寘	-12.2681
愽	-12.2682
癎	-12.2683
鐸	-12.2683
禰	-12.2683
匈	-12.2684
簞	-12.2684
拏	-12.2686
刧	-12.2686
攜	-12.2687
瀬	-12.2687
俎	-12.2688
邐	-12.2688
杉	-12.2688
篁	-12.2689
癧	-12.2689
溶	-12.2689
刹	-12.269
藁	-12.269
狎	-12.269
嗇	-12.269
𠿼	-12.269
趾	-12.269
颻	-12.2691
駑	-12.2691
侔	-12.2692
𡅗	-12.2692
蘸	-12.2692
菽	-12.2692
嵯	-12.2693
删	-12.2693
畿	-12.2694
腿	-12.2694
𠯲	-12.2694
潯	-12.2695
仆	-12.2695
譎	-12.2695
溜	-12.2695
嚳	-12.2696
麋	-12.2696
渌	-12.2696
酪	-12.2696
湍	-12.2696
屣	-12.2697
曼	-12.2698
悞	-12.2698
姊	-12.2698
泳	-12.2699
埏	-12.2699
瀰	-12.2699
隲	-12.2701
鄂	-12.2702
覷	-12.2702
緜	-12.2702
迮	-12.2704
蹻	-12.2706
窘	-12.271
夬	-12.271
邏	-12.272
㳟	-12.3334
𠾑	-12.3335
鎧	-12.334
騏	-12.334
娩	-12.3341
窩	-12.3345
廪	-12.3346
諠	-12.3347
隳	-12.3347
唧	-12.3347
搥	-12.3348
蠆	-12.3348
駒	-12.3349
輻	-12.3349
悸	-12.3351
砌	-12.3351
竢	-12.3351
肓	-12.3351
琥	-12.3352
㗸	-12.3352
鑽	-12.3352
牆	-12.3353
擘	-12.3354
蠅	-12.3354
萄	-12.3354
皛	-12.3354
槖	-12.3355
腮	-12.3355
瘳	-12.3355
輯	-12.3356
蝦	-12.3356
繚	-12.3357
晷	-12.3357
繹	-12.3358
轆	-12.3358
鍵	-12.3359
丗	-12.3359
黛	-12.336
鬍	-12.336
熠	-12.3361
眺	-12.3361
鷗	-12.3361
堦	-12.3362
嶇	-12.3362
菁	-12.3362
訥	-12.3362
撩	-12.3363
絣	-12.3363
逋	-12.3367
覿	-12.3367
迥	-12.3367
𤔵	-12.3368
晁	-12.3368
剩	-12.3369
泡	-12.3371
臈	-12.3371
弛	-12.3372
𢍆	-12.3372
喙	-12.3372
䌝	-12.3373
䡖	-12.3376
殉	-12.338
膂	-12.338
獅	-12.4027
帊	-12.4038
蠹	-12.4042
藿	-12.4047
磴	-12.4049
逭	-12.405
剱	-12.4052
踝	-12.4052
綦	-12.4055
躊	-12.4055
隘	-12.4056
寨	-12.4058
雰	-12.4058
琮	-12.4059
它	-12.4061
躶	-12.4061
耘	-12.4062
昉	-12.4062
獺	-12.4063
悄	-12.4064
𤺋	-12.4064
迺	-12.4064
嵐	-12.4064
鉅	-12.4064
駸	-12.4065
緱	-12.4065
苧	-12.4065
諄	-12.4065
訕	-12.4066
暹	-12.4066
梭	-12.4067
㳂	-12.4067
𢌿	-12.4068
烝	-12.4068
鍋	-12.4069
綠	-12.4069
鍛	-12.407
驤	-12.407
璝	-12.407
壊	-12.4071
躑	-12.4071
裸	-12.4072
鴛	-12.4072
状	-12.4072
愡	-12.4073
呤	-12.4073
痺	-12.4073
圄	-12.4073
懾	-12.4074
晞	-12.4074
撻	-12.4075
帆	-12.4075
苛	-12.4076
罇	-12.4077
瑰	-12.4077
拉	-12.4077
𠑽	-12.4078
魃	-12.4078
隕	-12.4079
氈	-12.4079
潺	-12.408
諺	-12.408
匏	-12.408
覲	-12.4081
賽	-12.4082
𠕂	-12.4082
朂	-12.4083
叠	-12.4083
膓	-12.4085
旍	-12.4086
㮣	-12.4087
爨	-12.4088
愔	-12.4089
燋	-12.4089
椹	-12.4091
𠒋	-12.4092
哽	-12.4094
颷	-12.4095
咦	-12.4095
蜿	-12.4096
嘰	-12.4096
嚦	-12.4097
𤚥	-12.4103
跖	-12.412
褵	-12.4133
蓍	-12.4794
媪	-12.4798
鞏	-12.4811
棠	-12.4815
睠	-12.4817
猩	-12.4819
閲	-12.482
疝	-12.482
羆	-12.482
垚	-12.4822
藕	-12.4822
篷	-12.4822
鋟	-12.4825
裊	-12.4825
闥	-12.4825
畨	-12.4826
鄽	-12.4827
珉	-12.4827
𨾏	-12.4828
卭	-12.4829
瘤	-12.483
壝	-12.4831
僮	-12.4831
䜛	-12.4832
蕤	-12.4832
茸	-12.4833
笻	-12.4833
誹	-12.4835
煆	-12.4835
刢	-12.4835
跌	-12.4835
碁	-12.4836
鉗	-12.4836
苾	-12.4836
凱	-12.4836
逍	-12.4836
診	-12.4837
靚	-12.4837
㤗	-12.4837
掲	-12.4839
蛤	-12.4839
斌	-12.4839
偽	-12.484
搨	-12.484
螚	-12.484
籲	-12.484
鑛	-12.4841
焱	-12.4841
𡂑	-12.4841
啟	-12.4842
碭	-12.4843
鶡	-12.4843
銓	-12.4843
堕	-12.4843
怯	-12.4844
枸	-12.4845
捶	-12.4846
匄	-12.4846
栁	-12.4848
覈	-12.4848
遡	-12.4848
圊	-12.4849
鉏	-12.4849
廳	-12.485
褰	-12.485
嗼	-12.485
揉	-12.485
兑	-12.485
鼇	-12.4851
讖	-12.4851
𤨏	-12.4852
駍	-12.4852
嵬	-12.4852
雩	-12.4853
㡌	-12.4853
参	-12.4854
摸	-12.4856
袿	-12.4857
豬	-12.4858
嗢	-12.4859
㖮	-12.4859
糟	-12.4859
抺	-12.486
僵	-12.486
娛	-12.4861
杲	-12.4862
飇	-12.4863
牟	-12.4864
祜	-12.4865
檐	-12.4865
袪	-12.4866
齧	-12.4867
衾	-12.487
牎	-12.4875
唳	-12.5641
𠺕	-12.5642
蜎	-12.5642
檎	-12.5644
琬	-12.5645
猋	-12.5648
鬲	-12.5649
駱	-12.5651
募	-12.5653
鱠	-12.5654
渝	-12.5654
穽	-12.5655
汾	-12.5656
瘖	-12.5659
螺	-12.5659
𩲨	-12.5659
皿	-12.566
琯	-12.566
屛	-12.5661
歉	-12.5661
哨	-12.5661
煇	-12.5661
痞	-12.5661
霳	-12.5662
啜	-12.5662
嶂	-12.5662
檜	-12.5663
租	-12.5663
跏	-12.5663
|	-12.5664
舅	-12.5664
跂	-12.5664
鑠	-12.5665
嚨	-12.5665
秖	-12.5666
熳	-12.5667
䕫	-12.5668
濂	-12.5668
宄	-12.5668
礀	-12.5669
弧	-12.5669
禺	-12.5669
襦	-12.5669
黼	-12.567
瞰	-12.567
茨	-12.5671
圕	-12.5672
𥙿	-12.5673
甍	-12.5673
泆	-12.5673
碓	-12.5673
蹶	-12.5674
梏	-12.5674
紺	-12.5675
刎	-12.5675
複	-12.5675
泝	-12.5675
翶	-12.5675
澶	-12.5676
紱	-12.5676
沅	-12.5676
穗	-12.5676
賒	-12.5676
咏	-12.5677
賂	-12.5677
馺	-12.5678
婺	-12.5678
蜋	-12.5678
𣢾	-12.5679
套	-12.5679
塢	-12.5679
瀹	-12.5679
関	-12.568
宼	-12.5682
呴	-12.5682
箸	-12.5684
蛙	-12.5684
縶	-12.5684
滚	-12.5685
㘅	-12.5685
㕘	-12.5685
愴	-12.5686
愜	-12.5686
琁	-12.5687
賑	-12.5688
壻	-12.5689
逈	-12.5689
噎	-12.5689
距	-12.5689
𢖍	-12.569
殽	-12.5691
罟	-12.5692
怏	-12.5692
牗	-12.5692
屨	-12.5694
閙	-12.5694
𠰹	-12.5694
囘	-12.5696
沆	-12.5696
甖	-12.57
釗	-12.57
傖	-12.57
啡	-12.5703
𦚾	-12.5703
鋩	-12.5705
鷺	-12.5708
縉	-12.5708
囄	-12.5728
𣗥	-12.6545
嫂	-12.6549
蘚	-12.6549
緇	-12.6552
蕖	-12.6552
勛	-12.6553
薇	-12.6557
凑	-12.6558
荻	-12.6559
慣	-12.6561
徂	-12.6563
憧	-12.6564
賺	-12.6565
遄	-12.6565
箴	-12.6566
湔	-12.6566
鬟	-12.6566
挿	-12.6567
耜	-12.6568
耻	-12.6568
蛀	-12.6568
𨔡	-12.6569
萱	-12.6569
䀎	-12.657
𥁞	-12.6571
莎	-12.6571
𢎞	-12.6571
串	-12.6571
𦕈	-12.6572
畊	-12.6572
漣	-12.6572
氅	-12.6572
𩬊	-12.6572
謚	-12.6573
縟	-12.6573
傭	-12.6573
髀	-12.6574
癇	-12.6574
沁	-12.6574
芙	-12.6575
斾	-12.6575
鼉	-12.6575
闋	-12.6575
仭	-12.6575
懌	-12.6575
缶	-12.6575
潢	-12.6576
淛	-12.6578
娟	-12.6578
𣡡	-12.6578
衲	-12.6578
嚲	-12.6578
絆	-12.6579
狴	-12.6579
彛	-12.658
𡍼	-12.658
撃	-12.6581
朞	-12.6581
鑾	-12.6581
𦤀	-12.6581
飆	-12.6582
疣	-12.6582
燠	-12.6582
凊	-12.6582
慱	-12.6582
萇	-12.6583
蒭	-12.6583
蟊	-12.6584
𡩋	-12.6584
腕	-12.6585
錮	-12.6586
痿	-12.6586
榔	-12.6586
𠺗	-12.6587
廛	-12.6587
牕	-12.6588
尔	-12.6589
腪	-12.6589
麯	-12.6589
薊	-12.659
犴	-12.659
濠	-12.6591
跼	-12.6591
贛	-12.6592
寗	-12.6592
褁	-12.6593
囁	-12.6594
毆	-12.6594
䪃	-12.6595
膞	-12.6595
峥	-12.6595
衹	-12.6595
葦	-12.6595
妥	-12.6596
魍	-12.6596
苴	-12.6597
慟	-12.6598
坼	-12.6598
祲	-12.6598
遙	-12.6599
罙	-12.66
妒	-12.66
搖	-12.66
嘷	-12.66
獎	-12.66
憊	-12.66
謳	-12.6602
慝	-12.6603
喥	-12.6605
罏	-12.6607
𠿗	-12.6608
伶	-12.661
嘈	-12.6611
亰	-12.662
攴	-12.6625
岧	-12.7545
脆	-12.7551
儘	-12.7552
貿	-12.7553
躇	-12.7554
碾	-12.7556
衙	-12.7558
聶	-12.7559
䦨	-12.7562
紈	-12.7562
𠻣	-12.7563
鮓	-12.7563
哦	-12.7563
閨	-12.7564
纍	-12.7565
縞	-12.7567
螢	-12.7568
装	-12.7568
鬧	-12.7569
顒	-12.757
貲	-12.757
愬	-12.757
繽	-12.7571
耒	-12.7571
侃	-12.7571
凹	-12.7572
苖	-12.7572
瞑	-12.7572
耨	-12.7572
甌	-12.7573
儕	-12.7573
砭	-12.7574
祁	-12.7574
𡆀	-12.7574
嗅	-12.7575
爼	-12.7575
㵼	-12.7575
慤	-12.7575
笋	-12.7576
邴	-12.7576
鄴	-12.7576
爀	-12.7576
笄	-12.7576
么	-12.7576
陲	-12.7577
夐	-12.7577
奩	-12.7577
怜	-12.7577
𤌿	-12.7578
耴	-12.7579
嗒	-12.7579
𡪹	-12.7579
荑	-12.758
疪	-12.758
醺	-12.758
䏶	-12.758
蒺	-12.758
瓣	-12.758
孑	-12.7581
漾	-12.7581
淒	-12.7582
鞍	-12.7582
勗	-12.7582
蜕	-12.7582
嘙	-12.7582
榭	-12.7582
堊	-12.7583
綰	-12.7583
佪	-12.7583
跬	-12.7584
幟	-12.7585
𠱀	-12.7585
黻	-12.7585
砧	-12.7585
蝸	-12.7586
攫	-12.7586
鋭	-12.7586
嫩	-12.7586
荄	-12.7587
繄	-12.7587
闚	-12.7587
恂	-12.7587
莭	-12.7587
臥	-12.7588
叵	-12.7588
蕉	-12.7588
佚	-12.7588
宙	-12.7588
捏	-12.759
椽	-12.759
鷰	-12.759
耄	-12.759
岌	-12.7591
盱	-12.7591
咆	-12.7591
揔	-12.7591
鳶	-12.7592
吔	-12.7592
搔	-12.7592
晹	-12.7593
尙	-12.7593
闍	-12.7594
𠼳	-12.7594
坵	-12.7595
澈	-12.7596
㢘	-12.7596
烽	-12.7596
檳	-12.7597
蠧	-12.7598
㸦	-12.7598
喋	-12.7598
蠍	-12.7598
鶩	-12.7599
撑	-12.7599
汰	-12.76
霤	-12.7601
蝠	-12.7601
餒	-12.7601
啵	-12.7601
爓	-12.7601
烕	-12.7602
襯	-12.7603
𣈆	-12.7605
螘	-12.7608
蹷	-12.7608
竝	-12.761
癤	-12.761
箒	-12.7615
戛	-12.7615
邯	-12.7617
汜	-12.7618
昺	-12.7619
瑋	-12.762
澳	-12.7622
慼	-12.7625
贏	-12.8651
弇	-12.8659
糅	-12.8661
瑯	-12.8665
瘕	-12.8666
聆	-12.8666
綳	-12.8669
嶼	-12.8671
覊	-12.8672
嘽	-12.8672
嗷	-12.8674
㤙	-12.8675
擯	-12.8677
濬	-12.8678
𢌜	-12.8678
湎	-12.8679
忖	-12.8679
駈	-12.8679
膾	-12.868
絨	-12.868
夸	-12.868
腧	-12.8681
哈	-12.8681
桶	-12.8681
剏	-12.8681
眚	-12.8681
囹	-12.8681
謦	-12.8682
蓉	-12.8682
黿	-12.8683
鯽	-12.8683
嚚	-12.8683
啇	-12.8683
飫	-12.8683
睢	-12.8684
陬	-12.8684
懵	-12.8685
昃	-12.8685
鵶	-12.8686
菰	-12.8686
肸	-12.8686
軋	-12.8686
芹	-12.8686
蘅	-12.8686
焴	-12.8687
睨	-12.8687
痂	-12.8687
鰥	-12.8688
兕	-12.8689
嬋	-12.8689
擡	-12.869
弑	-12.869
襌	-12.8691
漙	-12.8691
煨	-12.8692
沮	-12.8692
僭	-12.8693
胇	-12.8693
嵉	-12.8693
嶠	-12.8693
蕳	-12.8694
鴟	-12.8694
遹	-12.8694
珞	-12.8694
饋	-12.8694
旆	-12.8696
靠	-12.8696
㕧	-12.8696
緼	-12.8697
尢	-12.8697
狙	-12.8698
懊	-12.8698
禋	-12.8698
幷	-12.8698
雇	-12.8698
曙	-12.8698
倩	-12.8699
瘍	-12.8699
崱	-12.87
榼	-12.87
濜	-12.87
溫	-12.87
毳	-12.8701
噂	-12.8701
杇	-12.8701
汀	-12.8701
漉	-12.8701
俸	-12.8702
羮	-12.8702
洙	-12.8702
粢	-12.8703
肱	-12.8703
䘙	-12.8703
囀	-12.8704
𨗿	-12.8706
𣳚	-12.8707
栩	-12.8707
炯	-12.8707
唦	-12.8707
驍	-12.8708
雛	-12.8709
喼	-12.8709
仿	-12.871
怍	-12.871
饕	-12.871
䧺	-12.8711
𡀖	-12.8711
醯	-12.8712
䵟	-12.8712
球	-12.8712
柘	-12.8713
倬	-12.8713
淼	-12.8714
㩗	-12.8715
凾	-12.8716
鑼	-12.8716
豚	-12.8716
𠾐	-12.8716
屹	-12.8717
閥	-12.8717
碣	-12.8717
煦	-12.8718
亳	-12.8723
毘	-12.8724
幙	-12.8728
桴	-12.873
尻	-12.8732
搭	-12.8745
蚰	-12.875
鶯	-12.9902
皥	-12.9912
瞥	-12.9913
潁	-12.9913
櫟	-12.9916
瑾	-12.9918
寖	-12.9919
𠰳	-12.9923
槲	-12.9923
奭	-12.9924
飃	-12.9924
漳	-12.9924
鏳	-12.9925
壷	-12.9925
蛆	-12.9927
嘛	-12.9927
磲	-12.9928
瑀	-12.9929
硨	-12.9929
磑	-12.9929
哳	-12.9929
簧	-12.993
蘖	-12.9931
揜	-12.9931
朶	-12.9931
鱔	-12.9931
𧆺	-12.9932
飱	-12.9932
勺	-12.9932
鯤	-12.9932
沭	-12.9933
舂	-12.9933
𠵇	-12.9933
滉	-12.9934
楗	-12.9935
鸚	-12.9935
喨	-12.9936
郴	-12.9936
蝣	-12.9936
綘	-12.9936
柸	-12.9936
痔	-12.9937
巓	-12.9937
䓁	-12.9938
呶	-12.9938
醬	-12.9939
縦	-12.9939
舡	-12.9939
冦	-12.994
鴆	-12.994
窖	-12.994
䕡	-12.994
沔	-12.994
蒨	-12.994
檝	-12.9941
肋	-12.9941
謔	-12.9942
圮	-12.9942
玭	-12.9942
蚤	-12.9942
咷	-12.9942
悒	-12.9943
麴	-12.9943
𨚧	-12.9943
缾	-12.9943
咍	-12.9944
涣	-12.9944
鏹	-12.9944
犍	-12.9945
氲	-12.9945
剜	-12.9946
薨	-12.9946
逵	-12.9946
筶	-12.9946
扞	-12.9947
吱	-12.9947
珂	-12.9947
茍	-12.9947
哃	-12.9947
藋	-12.9948
霅	-12.9948
檠	-12.9949
𠸩	-12.9949
磺	-12.995
絰	-12.995
呂	-12.995
楠	-12.9951
𤢟	-12.9951
酋	-12.9951
肧	-12.9951
囷	-12.9952
矇	-12.9952
筏	-12.9952
躰	-12.9952
璹	-12.9952
㮈	-12.9952
賄	-12.9953
鬬	-12.9953
詹	-12.9953
吙	-12.9953
畋	-12.9953
茄	-12.9953
顖	-12.9953
驀	-12.9954
睽	-12.9954
擴	-12.9954
瘢	-12.9955
𠴏	-12.9956
㹠	-12.9956
湄	-12.9956
膻	-12.9956
洌	-12.9957
嫡	-12.9957
騷	-12.9957
崗	-12.9957
踖	-12.9958
汋	-12.9959
㖵	-12.9959
𠿞	-12.9959
貂	-12.996
拌	-12.996
褖	-12.996
烙	-12.9961
僖	-12.9961
囦	-12.9961
埴	-12.9962
㸔	-12.9962
閡	-12.9962
踟	-12.9962
蹲	-12.9962
㒒	-12.9963
巋	-12.9963
蓽	-12.9964
顴	-12.9964
曬	-12.9969
滸	-12.9969
筍	-12.997
𠻳	-12.9972
咁	-12.9974
椅	-12.9975
𡅵	-12.9975
畚	-12.9979
蝮	-12.9979
惛	-12.9979
靁	-12.998
哄	-12.9982
楝	-13.1313
阡	-13.1342
扭	-13.1344
佃	-13.1345
咇	-13.1346
剽	-13.1346
琊	-13.1346
洄	-13.1347
洊	-13.135
泌	-13.1351
噃	-13.1352
疱	-13.1353
厝	-13.1353
緗	-13.1353
鋼	-13.1354
頋	-13.1355
擂	-13.1355
笁	-13.1356
𡄳	-13.1357
藂	-13.1359
牃	-13.1359
苒	-13.136
傚	-13.1361
恵	-13.1362
杰	-13.1362
仄	-13.1362
憣	-13.1362
壙	-13.1363
蟒	-13.1363
壠	-13.1363
幔	-13.1363
摯	-13.1364
沍	-13.1364
𥘵	-13.1364
氓	-13.1364
偓	-13.1366
矮	-13.1366
愷	-13.1367
鋌	-13.1367
禴	-13.1368
茟	-13.1369
豔	-13.1369
狻	-13.1369
屩	-13.1369
疹	-13.1369
嵌	-13.137
縢	-13.137
㕑	-13.137
狽	-13.137
犂	-13.137
餳	-13.137
𩲕	-13.137
将	-13.1371
啌	-13.1371
蓑	-13.1371
唓	-13.1371
骼	-13.1371
翎	-13.1371
刈	-13.1372
騭	-13.1372
漕	-13.1373
窓	-13.1373
芘	-13.1373
禜	-13.1374
懀	-13.1374
瓷	-13.1374
裒	-13.1374
鈆	-13.1375
喊	-13.1375
倅	-13.1376
燻	-13.1376
徯	-13.1376
賖	-13.1376
瞪	-13.1376
趂	-13.1376
崿	-13.1376
繇	-13.1376
楔	-13.1377
啝	-13.1377
軾	-13.1377
舫	-13.1378
㗖	-13.1378
嘹	-13.1378
嵇	-13.1379
輊	-13.1379
粱	-13.1379
輜	-13.1379
稜	-13.1379
躄	-13.138
澮	-13.138
荏	-13.138
軼	-13.138
噦	-13.138
鵾	-13.1381
蘄	-13.1381
噇	-13.1381
侖	-13.1381
籛	-13.1382
嗤	-13.1382
愉	-13.1382
襈	-13.1382
鱸	-13.1382
閎	-13.1383
阨	-13.1383
塹	-13.1383
臠	-13.1383
斲	-13.1384
箍	-13.1384
緡	-13.1385
譖	-13.1385
另	-13.1385
唬	-13.1385
犮	-13.1386
鄞	-13.1386
鍍	-13.1386
撈	-13.1387
淬	-13.1387
数	-13.1388
仝	-13.1389
鎰	-13.1389
嘲	-13.1389
闤	-13.139
蝀	-13.1391
賷	-13.1391
𢡖	-13.1391
啘	-13.1391
茁	-13.1392
徉	-13.1392
騖	-13.1393
襁	-13.1394
脘	-13.1395
矚	-13.1396
嘏	-13.1396
㝡	-13.1396
囌	-13.1396
憒	-13.1396
䨩	-13.1396
㺄	-13.1397
爕	-13.1397
穫	-13.1397
蛩	-13.1398
祺	-13.1398
偁	-13.1399
唌	-13.14
萋	-13.1404
𡼳	-13.1404
甥	-13.1405
瘁	-13.1408
嗑	-13.1409
諤	-13.1409
銚	-13.1409
虱	-13.1416
芴	-13.1417
𧟌	-13.1417
嗄	-13.1455
甃	-13.2987
聒	-13.2991
従	-13.2994
桎	-13.2999
癱	-13.3002
㔹	-13.3003
叻	-13.3004
㔌	-13.3004
繭	-13.3007
簣	-13.3008
秧	-13.3009
臛	-13.3009
汶	-13.3011
蕊	-13.3014
飰	-13.3014
晰	-13.3018
顇	-13.3018
𧪵	-13.302
鶻	-13.302
炤	-13.302
杼	-13.3021
㨗	-13.3021
舐	-13.3021
篠	-13.3021
畦	-13.3023
癃	-13.3023
墯	-13.3023
楪	-13.3023
壍	-13.3024
㖤	-13.3025
妣	-13.3025
鴿	-13.3025
篦	-13.3025
㝢	-13.3025
𠋣	-13.3026
姮	-13.3026
酹	-13.3026
𢇁	-13.3026
糴	-13.3026
摹	-13.3027
駞	-13.3027
艇	-13.3027
菑	-13.3027
殛	-13.3027
纸	-13.3027
臚	-13.3028
殍	-13.3028
裀	-13.3028
饈	-13.3028
泪	-13.303
𢦙	-13.303
疚	-13.303
駮	-13.303
輾	-13.303
揵	-13.303
咣	-13.3031
圑	-13.3033
糵	-13.3034
淤	-13.3034
紬	-13.3034
豢	-13.3034
𤤽	-13.3034
夥	-13.3034
𧇖	-13.3036
䆒	-13.3036
彥	-13.3036
殤	-13.3037
煬	-13.3037
贓	-13.3037
饍	-13.3038
沗	-13.3038
鐫	-13.304
斁	-13.304
衽	-13.3041
隤	-13.3041
𠳿	-13.3041
𩳀	-13.3041
凳	-13.3041
舶	-13.3042
讐	-13.3042
吮	-13.3042
簉	-13.3042
璜	-13.3042
唆	-13.3043
迃	-13.3043
㨂	-13.3044
謢	-13.3044
隰	-13.3045
斵	-13.3045
髫	-13.3045
㭊	-13.3045
𤤠	-13.3046
榦	-13.3046
砰	-13.3047
閘	-13.3047
詬	-13.3047
佺	-13.3047
瓤	-13.3047
綻	-13.3048
彀	-13.3048
靳	-13.3048
枰	-13.3048
蝢	-13.3049
塏	-13.3049
羔	-13.3049
黶	-13.305
扳	-13.305
咮	-13.305
掊	-13.305
灧	-13.305
舩	-13.3051
㖅	-13.3051
磯	-13.3052
喭	-13.3052
玅	-13.3052
羇	-13.3053
妳	-13.3053
攤	-13.3054
澥	-13.3054
䛕	-13.3054
廐	-13.3055
唔	-13.3055
掉	-13.3056
邠	-13.3056
鷯	-13.3056
窪	-13.3057
筝	-13.3058
釅	-13.3058
麩	-13.3058
圯	-13.3058
闐	-13.3059
塋	-13.3061
𠷯	-13.3061
瘀	-13.3062
綢	-13.3062
𣏌	-13.3062
瑜	-13.3062
潞	-13.3063
樟	-13.3063
郄	-13.3063
洶	-13.3064
蚋	-13.3065
𨯂	-13.3065
丫	-13.3065
襴	-13.3065
獼	-13.3066
瘑	-13.3066
扛	-13.3068
隼	-13.3069
茯	-13.3069
㦲	-13.307
搓	-13.307
蜩	-13.3071
吚	-13.3071
䯻	-13.3072
𥜗	-13.3072
𨦟	-13.3076
吅	-13.308
惔	-13.308
歧	-13.3081
鷙	-13.3081
咥	-13.3083
詆	-13.3087
魎	-13.3089
枲	-13.3096
髼	-13.3096
乕	-13.3097
薺	-13.3102
呀	-13.3105
讟	-13.3114
种	-13.3127
誷	-13.4922
鉉	-13.4989
褔	-13.4995
苡	-13.4995
㧓	-13.4997
隗	-13.5004
詒	-13.5005
畬	-13.5005
傒	-13.5005
菷	-13.5006
猗	-13.5007
臬	-13.5007
嶢	-13.5008
箬	-13.5009
𠴲	-13.501
糝	-13.501
頁	-13.501
胴	-13.5011
旖	-13.5012
澱	-13.5013
幨	-13.5013
亷	-13.5014
紉	-13.5014
茜	-13.5015
估	-13.5015
猨	-13.5015
蠖	-13.5015
覇	-13.5016
絪	-13.5016
逗	-13.5016
菀	-13.5017
甆	-13.5018
誾	-13.5019
赶	-13.502
淄	-13.502
姆	-13.502
踧	-13.502
崧	-13.5021
昶	-13.5021
漭	-13.5022
塼	-13.5022
荘	-13.5023
从	-13.5023
澣	-13.5023
髦	-13.5023
焼	-13.5023
肄	-13.5023
叹	-13.5023
玠	-13.5023
薏	-13.5024
䈥	-13.5024
𠕋	-13.5024
羗	-13.5024
濶	-13.5025
愿	-13.5025
簟	-13.5025
喤	-13.5027
墾	-13.5027
旰	-13.5027
莅	-13.5028
𢢽	-13.5028
濾	-13.5028
酡	-13.5028
弈	-13.5028
礎	-13.5028
楸	-13.5029
蚑	-13.5029
璵	-13.503
雁	-13.503
殢	-13.503
叄	-13.503
郢	-13.503
偵	-13.503
壐	-13.503
棃	-13.503
韞	-13.503
劊	-13.5031
屝	-13.5031
蒔	-13.5031
黠	-13.5031
涂	-13.5032
𠺌	-13.5032
鼐	-13.5032
嚢	-13.5032
賃	-13.5032
塤	-13.5032
餔	-13.5032
雱	-13.5032
曡	-13.5033
僂	-13.5033
崙	-13.5033
鵷	-13.5033
暵	-13.5033
蚛	-13.5033
鐃	-13.5033
霂	-13.5033
櫻	-13.5034
簸	-13.5034
揷	-13.5034
啊	-13.5035
臃	-13.5035
濰	-13.5035
愓	-13.5035
藐	-13.5036
訐	-13.5036
襖	-13.5036
瓉	-13.5036
恫	-13.5036
挍	-13.5036
皦	-13.5036
璠	-13.5037
裨	-13.5037
樺	-13.5037
蹋	-13.5037
睟	-13.5037
諏	-13.5037
徜	-13.5037
娼	-13.5038
墊	-13.5038
礼	-13.5038
剞	-13.5038
薜	-13.5039
汴	-13.5039
蟇	-13.5039
剳	-13.5039
𧢻	-13.5039
廁	-13.504
囓	-13.504
嘱	-13.504
蒐	-13.5041
㕔	-13.5041
嫣	-13.5041
俶	-13.5042
嗵	-13.5042
剗	-13.5042
輈	-13.5042
梃	-13.5043
惣	-13.5043
娉	-13.5043
㘂	-13.5043
搢	-13.5043
謎	-13.5043
葳	-13.5045
柟	-13.5045
輥	-13.5045
惋	-13.5045
薯	-13.5045
菱	-13.5046
㵎	-13.5046
㖡	-13.5046
軺	-13.5046
厓	-13.5047
捽	-13.5047
憘	-13.5047
咻	-13.5047
𨥨	-13.5047
娯	-13.5048
歙	-13.5048
戩	-13.5048
篡	-13.5048
鬨	-13.5048
𠼦	-13.5048
锦	-13.5049
蔗	-13.5049
兾	-13.5049
罅	-13.5049
尫	-13.505
硎	-13.505
𠻜	-13.505
緻	-13.5051
詗	-13.5051
悍	-13.5051
瞎	-13.5051
蔻	-13.5051
嗎	-13.5052
㥽	-13.5052
擿	-13.5053
璉	-13.5053
烋	-13.5054
謪	-13.5054
麪	-13.5055
抉	-13.5055
罌	-13.5056
斚	-13.5056
䡩	-13.5056
嬾	-13.5057
烓	-13.5057
巇	-13.5057
黥	-13.5057
𨌩	-13.5057
撇	-13.5058
懟	-13.5058
𨊧	-13.5058
𩛙	-13.5059
砲	-13.506
棧	-13.506
肪	-13.506
値	-13.5061
隈	-13.5061
浡	-13.5061
釆	-13.5062
苻	-13.5062
盒	-13.5062
覘	-13.5063
薙	-13.5063
顥	-13.5064
礦	-13.5064
𦊙	-13.5064
婪	-13.5064
繋	-13.5064
㪚	-13.5065
縲	-13.5065
輶	-13.5065
毉	-13.5067
弋	-13.5067
詶	-13.5067
喈	-13.5067
詘	-13.5068
嚛	-13.5068
坂	-13.5069
葭	-13.5069
熄	-13.5069
滲	-13.5069
紡	-13.5069
莱	-13.507
苽	-13.507
咯	-13.5071
羿	-13.5071
攖	-13.5072
刾	-13.5073
弒	-13.5073
𠸺	-13.5074
噒	-13.5075
𡺿	-13.5075
崦	-13.5075
抖	-13.5076
唘	-13.5076
虗	-13.5077
藺	-13.5077
䨔	-13.5078
●	-13.5078
徘	-13.5079
蟯	-13.5079
贙	-13.5084
泚	-13.5084
歠	-13.5085
崟	-13.5087
昜	-13.5089
禊	-13.5095
町	-13.5109
澒	-13.5112
蛭	-13.7443
𠚥	-13.7478
㸑	-13.7481
㓱	-13.7481
𩲤	-13.7482
肕	-13.7489
灊	-13.7496
檉	-13.7497
瞹	-13.7501
埽	-13.7502
蹴	-13.7504
楣	-13.7504
堇	-13.7504
楯	-13.7506
稗	-13.7506
諜	-13.7506
𦍤	-13.7506
汭	-13.7507
阪	-13.7507
婿	-13.7508
𡖉	-13.7509
騮	-13.751
諛	-13.751
錚	-13.751
鞲	-13.751
謭	-13.751
洺	-13.7511
澧	-13.7511
痃	-13.7511
捴	-13.7513
詡	-13.7513
偟	-13.7513
窶	-13.7513
瘠	-13.7514
嘌	-13.7514
箓	-13.7514
絀	-13.7514
齅	-13.7515
嗥	-13.7515
嘅	-13.7517
蠒	-13.7517
橈	-13.7518
椷	-13.7518
嘞	-13.7518
邾	-13.7519
枵	-13.752
甓	-13.752
締	-13.752
橡	-13.752
阐	-13.752
爟	-13.7521
癀	-13.7521
蜮	-13.7521
喟	-13.7522
瘂	-13.7522
跽	-13.7522
霔	-13.7522
垤	-13.7522
譙	-13.7524
皋	-13.7524
浼	-13.7525
汧	-13.7525
羝	-13.7525
鷂	-13.7525
䆳	-13.7526
鐔	-13.7526
臞	-13.7527
呯	-13.7527
癊	-13.7527
概	-13.7527
夘	-13.7527
齏	-13.7528
賻	-13.7529
伹	-13.7529
縠	-13.7529
醨	-13.7529
傘	-13.7529
圵	-13.7529
怵	-13.7529
嗈	-13.7529
擷	-13.7529
瞩	-13.7531
艘	-13.7531
苣	-13.7531
蕋	-13.7531
咺	-13.7532
摉	-13.7532
港	-13.7532
騑	-13.7532
驩	-13.7532
䓗	-13.7533
鱖	-13.7533
倮	-13.7533
縵	-13.7533
𠇍	-13.7533
豊	-13.7533
逄	-13.7533
搦	-13.7533
蓰	-13.7533
辠	-13.7533
𧙓	-13.7533
凭	-13.7535
彎	-13.7535
祑	-13.7535
䋲	-13.7535
喂	-13.7536
厢	-13.7536
垕	-13.7536
睥	-13.7536
孀	-13.7536
柢	-13.7536
鈸	-13.7536
漪	-13.7537
堠	-13.7538
吧	-13.7538
𨵗	-13.7538
慓	-13.7538
泫	-13.7538
亊	-13.7539
翬	-13.7539
痴	-13.7539
紵	-13.754
廩	-13.754
遒	-13.754
舸	-13.754
舁	-13.754
庄	-13.754
淊	-13.754
燬	-13.7542
鄣	-13.7542
柬	-13.7542
嬖	-13.7542
肫	-13.7542
卹	-13.7542
噲	-13.7542
駛	-13.7543
涅	-13.7543
涿	-13.7543
畎	-13.7543
圠	-13.7543
蔾	-13.7543
𠜖	-13.7544
愠	-13.7545
薬	-13.7545
堥	-13.7545
眧	-13.7545
錙	-13.7546
觚	-13.7546
扺	-13.7546
篙	-13.7546
頏	-13.7546
峊	-13.7546
殭	-13.7546
絫	-13.7546
璚	-13.7546
癕	-13.7546
瞶	-13.7546
釧	-13.7547
馹	-13.7547
扼	-13.7547
坯	-13.7547
㗚	-13.7547
鑷	-13.7547
筑	-13.7549
龕	-13.7549
众	-13.7549
哞	-13.7549
甸	-13.7549
𡙎	-13.7549
𠷕	-13.7549
曺	-13.7549
讌	-13.755
炩	-13.755
燝	-13.755
个	-13.755
蝡	-13.755
倕	-13.755
菘	-13.7551
𤆶	-13.7551
樁	-13.7551
寕	-13.7551
罍	-13.7551
戻	-13.7553
撝	-13.7553
洧	-13.7553
娃	-13.7553
槽	-13.7553
尪	-13.7554
伋	-13.7554
塌	-13.7554
窅	-13.7554
埿	-13.7556
䡼	-13.7556
荳	-13.7556
纘	-13.7556
烖	-13.7556
鑱	-13.7556
奶	-13.7556
涪	-13.7557
苪	-13.7557
籩	-13.7557
㗒	-13.7557
嚷	-13.7557
蜆	-13.7557
酤	-13.7557
瀘	-13.7557
跟	-13.7557
瑝	-13.7557
刲	-13.7558
剿	-13.7558
唻	-13.7558
颸	-13.756
𠆸	-13.756
蕕	-13.756
坳	-13.756
瞭	-13.756
哹	-13.756
誗	-13.756
褲	-13.756
哧	-13.7561
婭	-13.7561
咕	-13.7563
鬆	-13.7564
䡠	-13.7564
涬	-13.7564
廨	-13.7565
唷	-13.7565
檯	-13.7565
鍗	-13.7565
迁	-13.7567
𨤲	-13.7567
蹀	-13.7567
櫓	-13.7568
皚	-13.7568
𤥭	-13.7568
㗘	-13.7569
閴	-13.7571
胙	-13.7571
宁	-13.7571
嘢	-13.7572
嘩	-13.7572
黤	-13.7572
尭	-13.7572
䡇	-13.7572
喰	-13.7574
箚	-13.7574
鐮	-13.7574
𠰠	-13.7575
杷	-13.7575
湓	-13.7575
踦	-13.7575
梘	-13.7576
𡀂	-13.7576
𡂙	-13.7576
熔	-13.7578
䘏	-13.7578
饜	-13.7579
觝	-13.758
淙	-13.7582
㮏	-13.7583
曈	-13.7583
𩴹	-13.7586
𤤖	-13.7587
鋋	-13.7587
篝	-13.7587
㷋	-13.7587
𠻃	-13.7589
懦	-13.759
軆	-13.759
唭	-13.759
愶	-13.7591
犇	-13.7593
鍥	-13.7593
瓓	-13.7593
猱	-13.7594
倨	-13.7596
𠹋	-13.7596
𩲍	-13.7597
𨳨	-13.7597
𨭊	-13.7599
㻌	-13.7601
呦	-13.7603
尠	-13.7604
囮	-13.7607
寝	-13.7611
郍	-13.7628
燂	-14.079
𨑰	-14.0792
邛	-14.0792
𢈔	-14.0796
籀	-14.0804
皯	-14.0806
𤇆	-14.0815
𠼱	-14.0815
鍮	-14.0817
涘	-14.0821
鱣	-14.0823
㯳	-14.0825
恓	-14.0827
帕	-14.0827
鎡	-14.0827
罐	-14.0827
陔	-14.0829
惙	-14.0829
濘	-14.0829
醼	-14.0829
沂	-14.0831
𨠩	-14.0833
靨	-14.0833
礋	-14.0835
竃	-14.0835
峕	-14.0835
玎	-14.0835
驆	-14.0835
飪	-14.0835
宓	-14.0835
釃	-14.0836
貊	-14.0837
揠	-14.0837
蹬	-14.0837
嗍	-14.0837
耑	-14.0837
黮	-14.0837
踳	-14.0839
鑣	-14.0839
唄	-14.0839
桷	-14.0839
鏃	-14.0839
訃	-14.084
粼	-14.0841
扙	-14.0841
嚒	-14.0841
堡	-14.0841
㕓	-14.0841
綖	-14.0841
丄	-14.0842
磔	-14.0842
櫂	-14.0844
厮	-14.0844
踣	-14.0844
蒯	-14.0844
𣇍	-14.0844
憍	-14.0846
忡	-14.0846
蓁	-14.0846
嘇	-14.0846
邳	-14.0848
犖	-14.0848
眈	-14.0848
袵	-14.0848
貔	-14.0848
䦕	-14.0848
听	-14.0848
廿	-14.085
𩴃	-14.085
濼	-14.085
雋	-14.085
凂	-14.085
柺	-14.085
躃	-14.085
瘗	-14.0852
矗	-14.0852
佈	-14.0852
佻	-14.0852
醻	-14.0852
宍	-14.0852
磵	-14.0854
躓	-14.0854
閾	-14.0854
𣾰	-14.0854
𡚁	-14.0854
枹	-14.0855
柑	-14.0856
眾	-14.0856
奂	-14.0856
絢	-14.0856
倂	-14.0856
鎸	-14.0856
卸	-14.0856
洫	-14.0856
䨇	-14.0857
㕵	-14.0858
眯	-14.0858
竽	-14.0858
惇	-14.0858
𠷉	-14.0858
蜫	-14.0858
飥	-14.0858
卬	-14.0858
𠺒	-14.086
娣	-14.086
𧰟	-14.086
蝟	-14.086
昝	-14.086
貎	-14.086
喽	-14.086
𠯞	-14.086
-	-14.0862
凜	-14.0862
矝	-14.0862
瑒	-14.0862
孱	-14.0862
琛	-14.0862
坈	-14.0862
廸	-14.0862
醆	-14.0862
𢙣	-14.0862
蜇	-14.0864
妝	-14.0864
眎	-14.0864
廂	-14.0864
捋	-14.0864
瀲	-14.0864
琦	-14.0864
敇	-14.0864
溏	-14.0864
謠	-14.0864
刓	-14.0866
扆	-14.0866
鉦	-14.0866
䫙	-14.0866
据	-14.0866
揄	-14.0866
湩	-14.0866
輭	-14.0866
靦	-14.0866
躐	-14.0866
稿	-14.0867
萝	-14.0867
潨	-14.0868
箆	-14.0868
嚬	-14.0868
頺	-14.0868
栅	-14.0868
歹	-14.0868
𠳀	-14.0868
㘕	-14.0868
㭝	-14.0868
䄄	-14.0868
喔	-14.0868
庀	-14.0868
顋	-14.0868
喳	-14.0868
隧	-14.0868
搴	-14.0868
𧦽	-14.0868
灵	-14.0869
袱	-14.0869
揫	-14.0869
棓	-14.0869
寀	-14.0869
𡂒	-14.0869
㢮	-14.0869
諉	-14.0869
蛸	-14.0869
𪎗	-14.0869
袊	-14.087
𠰈	-14.087
𠻞	-14.087
𥚑	-14.087
雯	-14.087
辅	-14.0871
媵	-14.0871
琱	-14.0871
蟢	-14.0871
抬	-14.0871
魋	-14.0871
䊮	-14.0871
𠸄	-14.0871
嘀	-14.0871
斸	-14.0871
𠾙	-14.0871
𠾣	-14.0871
吲	-14.0871
𡶶	-14.0871
𣆟	-14.0871
躣	-14.0873
噩	-14.0873
𨓦	-14.0873
獐	-14.0873
嶓	-14.0873
莓	-14.0873
浥	-14.0873
嗡	-14.0873
𪒟	-14.0873
㒺	-14.0873
剸	-14.0873
残	-14.0873
襭	-14.0873
韮	-14.0873
鸜	-14.0873
鰻	-14.0873
Z	-14.0874
芡	-14.0875
䔍	-14.0875
斐	-14.0875
宕	-14.0875
澟	-14.0875
喡	-14.0875
錠	-14.0875
駘	-14.0875
㬌	-14.0875
䦘	-14.0875
膨	-14.0875
舠	-14.0875
蒱	-14.0875
𢌞	-14.0875
𨞬	-14.0875
慔	-14.0877
酗	-14.0877
嚘	-14.0877
猝	-14.0877
箔	-14.0877
瘨	-14.0877
𡁏	-14.0877
𣸯	-14.0877
扑	-14.0877
諗	-14.0877
畛	-14.0877
荔	-14.0877
醢	-14.0877
髹	-14.0877
滹	-14.0877
岏	-14.0879
濺	-14.0879
觥	-14.0879
悊	-14.0879
袠	-14.0879
刖	-14.0879
忉	-14.0879
录	-14.0879
楶	-14.0879
犁	-14.0879
魴	-14.088
与	-14.0881
畹	-14.0881
𠜍	-14.0881
唀	-14.0881
瘇	-14.0881
𠫭	-14.0881
懂	-14.0881
涙	-14.0881
鷃	-14.0881
澠	-14.0883
极	-14.0883
畱	-14.0883
簑	-14.0883
䈴	-14.0883
籃	-14.0883
啍	-14.0883
硏	-14.0883
䨜	-14.0883
坌	-14.0883
砒	-14.0883
顰	-14.0883
𩃋	-14.0883
㕲	-14.0883
儋	-14.0883
喯	-14.0883
専	-14.0883
挐	-14.0883
𥟵	-14.0883
俲	-14.0885
犠	-14.0885
磧	-14.0885
啺	-14.0885
胑	-14.0885
㕹	-14.0885
肶	-14.0885
醑	-14.0885
翾	-14.0887
齲	-14.0887
𦋺	-14.0887
棚	-14.0887
穏	-14.0887
聵	-14.0887
竣	-14.0887
吪	-14.0887
抓	-14.0887
𥧌	-14.0887
姒	-14.0887
睴	-14.0887
芰	-14.0887
鈌	-14.0887
苫	-14.0889
简	-14.0889
鶵	-14.0889
䐉	-14.0889
軨	-14.0889
逯	-14.0889
𦍒	-14.0891
瞍	-14.0891
徭	-14.0891
騃	-14.0891
囐	-14.0891
眙	-14.0891
畸	-14.0891
磋	-14.0891
薌	-14.0892
賭	-14.0892
俙	-14.0893
唼	-14.0893
銊	-14.0893
爺	-14.0893
橾	-14.0893
𨓜	-14.0893
朿	-14.0893
濆	-14.0894
鬐	-14.0894
纉	-14.0895
鈿	-14.0895
糲	-14.0895
虻	-14.0895
𠶀	-14.0895
𨎿	-14.0895
猧	-14.0895
鈇	-14.0895
鍜	-14.0896
綮	-14.0896
贜	-14.0896
柂	-14.0896
殲	-14.0896
儷	-14.0896
剰	-14.0896
惸	-14.0896
𢚢	-14.0897
筐	-14.0897
圻	-14.0898
䧏	-14.0898
㬽	-14.0898
夊	-14.0898
喴	-14.0898
擐	-14.0898
㩦	-14.0898
躩	-14.0898
题	-14.0898
𠾜	-14.0898
𨋔	-14.0898
䆠	-14.09
𠲰	-14.09
瞠	-14.09
鲁	-14.09
爏	-14.09
䈉	-14.09
覼	-14.09
轜	-14.09
餦	-14.09
彘	-14.09
椰	-14.09
繤	-14.09
䨱	-14.0902
餎	-14.0902
曛	-14.0904
撗	-14.0904
癭	-14.0904
𩅼	-14.0904
呿	-14.0904
咐	-14.0906
醎	-14.0906
呅	-14.0906
貍	-14.0906
嗻	-14.0906
啨	-14.0906
揶	-14.0906
𠾶	-14.0906
鶚	-14.0908
糶	-14.0908
嵒	-14.0908
踶	-14.091
菅	-14.091
㓛	-14.091
曨	-14.091
橙	-14.091
鍤	-14.0912
楞	-14.0912
虢	-14.0912
紼	-14.0912
䟦	-14.0912
渢	-14.0912
緉	-14.0914
𦑡	-14.0914
咩	-14.0914
牯	-14.0916
緦	-14.0916
梠	-14.0917
㘘	-14.0917
嶔	-14.0918
暁	-14.0918
眹	-14.0918
圡	-14.0918
稊	-14.0919
腠	-14.092
𠵜	-14.092
鸇	-14.092
縋	-14.092
玆	-14.092
臝	-14.092
瀼	-14.092
啉	-14.0922
昕	-14.0923
𣅀	-14.0923
怢	-14.0925
𡃳	-14.0925
縗	-14.0925
𤍽	-14.0927
荊	-14.0927
绿	-14.0927
鏐	-14.0929
蚺	-14.0929
万	-14.0931
咘	-14.0933
䏑	-14.0933
粽	-14.0935
𩅟	-14.0935
氾	-14.0935
湟	-14.0937
𢂿	-14.0937
籜	-14.0939
纚	-14.0939
鯔	-14.0939
絽	-14.0943
殳	-14.0944
𨋎	-14.0947
挪	-14.0951
盾	-14.0951
𩴩	-14.0951
闉	-14.0954
隐	-14.0954
芮	-14.0956
勰	-14.0958
珒	-14.0958
𤤁	-14.096
閇	-14.0962
罳	-14.0968
褌	-14.0972
縝	-14.5743
鼃	-14.5759
蝍	-14.5762
孃	-14.5765
俣	-14.5765
舴	-14.5765
艋	-14.5765
昳	-14.5772
蟮	-14.5778
玘	-14.5778
㕭	-14.5781
佾	-14.5784
袒	-14.5787
秣	-14.5794
扒	-14.58
蚪	-14.5806
蜥	-14.5806
㯶	-14.5806
睶	-14.5806
彖	-14.5809
焂	-14.5809
燀	-14.5809
繙	-14.5809
韃	-14.5809
逴	-14.5809
嚶	-14.581
芣	-14.581
輀	-14.581
籣	-14.5813
瓴	-14.5813
壜	-14.5816
桮	-14.5816
琨	-14.5816
㕫	-14.5819
泂	-14.5819
疃	-14.5819
糐	-14.5819
㗇	-14.5822
洟	-14.5822
瑑	-14.5822
幫	-14.5822
㺒	-14.5822
䋎	-14.5822
懹	-14.5822
栰	-14.5822
沕	-14.5822
狖	-14.5822
絜	-14.5822
靷	-14.5822
芭	-14.5825
撅	-14.5825
禔	-14.5825
酖	-14.5825
頳	-14.5825
呧	-14.5828
𠫤	-14.5828
䠋	-14.5828
彾	-14.5828
洮	-14.5828
眢	-14.5828
㡳	-14.5831
螳	-14.5831
礜	-14.5831
蹭	-14.5831
鵞	-14.5831
翆	-14.5831
鈃	-14.5831
鏞	-14.5831
黝	-14.5831
㷆	-14.5832
潸	-14.5832
獷	-14.5832
閳	-14.5832
舃	-14.5832
哫	-14.5834
䖟	-14.5834
𠯀	-14.5835
騄	-14.5835
櫝	-14.5835
粞	-14.5835
蜴	-14.5838
𠯖	-14.5838
恼	-14.5838
塾	-14.5838
廌	-14.5838
蓂	-14.5838
瓌	-14.5838
瑘	-14.5838
餼	-14.5838
臾	-14.5838
醲	-14.5841
曚	-14.5841
俏	-14.5841
腔	-14.5841
噁	-14.5841
颶	-14.5841
砍	-14.5841
輗	-14.5841
㯽	-14.5841
拫	-14.5841
彧	-14.5844
玳	-14.5844
瑁	-14.5844
踉	-14.5844
洸	-14.5844
霟	-14.5844
穉	-14.5844
諐	-14.5844
鮪	-14.5844
棐	-14.5844
毐	-14.5844
餺	-14.5844
槀	-14.5847
擠	-14.5847
辞	-14.5847
飧	-14.5847
暳	-14.5847
譸	-14.5847
墅	-14.5847
幛	-14.5847
柝	-14.5847
裵	-14.5847
:	-14.5847
朓	-14.5847
譛	-14.5847
鎪	-14.5847
𠲿	-14.585
渦	-14.585
蹁	-14.585
繮	-14.585
䡄	-14.585
閹	-14.585
奐	-14.585
郯	-14.585
隹	-14.585
㖆	-14.585
㞯	-14.585
埳	-14.585
描	-14.585
楨	-14.585
籊	-14.585
蟜	-14.585
騙	-14.585
茰	-14.5853
蓴	-14.5853
娵	-14.5853
鄢	-14.5853
両	-14.5854
撟	-14.5854
瓆	-14.5854
礱	-14.5854
胯	-14.5854
䓤	-14.5854
膒	-14.5854
蕣	-14.5854
騂	-14.5854
㫒	-14.5854
亀	-14.5854
儹	-14.5854
恟	-14.5854
曀	-14.5854
枢	-14.5854
溱	-14.5854
瓘	-14.5854
齁	-14.5854
唋	-14.5856
橦	-14.5857
䁐	-14.5857
慷	-14.5857
籮	-14.5857
匭	-14.5857
鄼	-14.5857
奫	-14.5857
撽	-14.5857
朅	-14.5857
经	-14.5857
茴	-14.5857
𠹍	-14.5857
厶	-14.5857
猳	-14.5857
矻	-14.5857
胬	-14.5857
膴	-14.5857
褊	-14.5857
鉸	-14.5857
𠵯	-14.5857
訢	-14.5857
溧	-14.5858
踽	-14.5858
C	-14.586
K	-14.586
𠰧	-14.586
鋉	-14.586
茀	-14.586
鄆	-14.586
胗	-14.586
鱧	-14.586
䨙	-14.586
覯	-14.586
蹐	-14.586
馽	-14.586
枮	-14.586
鄔	-14.586
侗	-14.586
僦	-14.586
柙	-14.586
溼	-14.586
睍	-14.586
繖	-14.586
羃	-14.586
葜	-14.586
豌	-14.586
霢	-14.586
澂	-14.5861
耋	-14.5863
咠	-14.5863
傔	-14.5863
吡	-14.5863
珥	-14.5863
莘	-14.5863
貅	-14.5863
㖦	-14.5863
厔	-14.5863
咲	-14.5863
噼	-14.5863
媸	-14.5863
彜	-14.5863
澀	-14.5863
盩	-14.5863
絺	-14.5863
迆	-14.5863
漩	-14.5863
纜	-14.5863
肰	-14.5863
虙	-14.5863
譾	-14.5863
麑	-14.5863
涔	-14.5865
楒	-14.5866
挨	-14.5866
伻	-14.5866
惘	-14.5866
确	-14.5866
㸌	-14.5866
症	-14.5866
彞	-14.5866
輰	-14.5866
滀	-14.5866
螬	-14.5866
餝	-14.5866
嚆	-14.5866
塟	-14.5866
賝	-14.5866
𠶕	-14.5866
凸	-14.5866
圉	-14.5866
夌	-14.5866
孾	-14.5866
慺	-14.5866
槫	-14.5866
沚	-14.5866
皖	-14.5866
皞	-14.5866
砆	-14.5866
磶	-14.5866
笇	-14.5866
紕	-14.5866
綯	-14.5866
蝥	-14.5866
阳	-14.5866
鵒	-14.5866
号	-14.5869
儂	-14.5869
噢	-14.5869
䦝	-14.5869
匜	-14.5869
盝	-14.5869
齗	-14.5869
潴	-14.5869
㘽	-14.5869
濩	-14.5869
砢	-14.5869
鸛	-14.5869
儆	-14.5869
哗	-14.5869
総	-14.5869
胅	-14.5869
袚	-14.5869
訇	-14.5869
鼾	-14.5869
𠘶	-14.5869
・	-14.5871
伙	-14.5872
莩	-14.5872
錀	-14.5872
蜝	-14.5872
𠳾	-14.5872
熹	-14.5872
綈	-14.5872
徍	-14.5872
戺	-14.5872
蝨	-14.5872
偯	-14.5872
姞	-14.5872
婌	-14.5872
慠	-14.5872
摴	-14.5872
楇	-14.5872
獪	-14.5872
畆	-14.5872
票	-14.5872
藳	-14.5872
迊	-14.5872
菖	-14.5875
襵	-14.5875
嘺	-14.5876
簦	-14.5876
晘	-14.5876
咃	-14.5876
氊	-14.5876
广	-14.5876
抒	-14.5876
珈	-14.5876
畕	-14.5876
皃	-14.5876
萑	-14.5876
蕎	-14.5876
鐏	-14.5876
颠	-14.5876
媛	-14.5876
巠	-14.5876
廏	-14.5876
擄	-14.5876
汛	-14.5876
禩	-14.5876
蔂	-14.5876
袞	-14.5876
銍	-14.5876
靸	-14.5876
韱	-14.5876
畀	-14.5877
呆	-14.5879
儁	-14.5879
睱	-14.5879
謊	-14.5879
幌	-14.5879
魌	-14.5879
嫚	-14.5879
昀	-14.5879
棼	-14.5879
疈	-14.5879
粿	-14.5879
蕘	-14.5879
蠓	-14.5879
錡	-14.5879
靊	-14.5879
鳬	-14.5879
呐	-14.5879
唅	-14.5879
撾	-14.5879
梲	-14.5879
芊	-14.5879
譆	-14.5879
谹	-14.5879
柒	-14.588
蘢	-14.5882
朏	-14.5882
檮	-14.5882
罸	-14.5882
濊	-14.5882
襍	-14.5882
鷟	-14.5882
熲	-14.5882
砦	-14.5882
褶	-14.5882
愀	-14.5882
鋅	-14.5882
韁	-14.5882
巉	-14.5882
捥	-14.5882
棖	-14.5882
汐	-14.5882
瀇	-14.5882
荃	-14.5882
萆	-14.5882
蝱	-14.5882
霡	-14.5882
駉	-14.5882
䜟	-14.5885
罨	-14.5885
进	-14.5885
鎬	-14.5885
哇	-14.5885
担	-14.5885
摛	-14.5885
繢	-14.5885
莆	-14.5885
泩	-14.5885
𠰸	-14.5885
胍	-14.5885
芾	-14.5885
㑆	-14.5885
㦯	-14.5885
㽞	-14.5885
淂	-14.5885
煓	-14.5885
甡	-14.5885
遅	-14.5885
鈛	-14.5885
𠵽	-14.5885
𠷟	-14.5885
噌	-14.5888
坻	-14.5888
椄	-14.5888
沠	-14.5888
翣	-14.5888
彺	-14.5888
馱	-14.5888
卮	-14.5888
婥	-14.5888
悤	-14.5888
僑	-14.5888
簋	-14.5888
呟	-14.5888
旐	-14.5888
丏	-14.5888
债	-14.5888
凣	-14.5888
暌	-14.5888
煠	-14.5888
蘊	-14.5888
誄	-14.5888
跣	-14.589
嚋	-14.5891
餧	-14.5891
餬	-14.5891
偑	-14.5891
澌	-14.5891
盭	-14.5891
鄹	-14.5891
栘	-14.5891
櫳	-14.5891
煟	-14.5891
煴	-14.5891
簠	-14.5891
餟	-14.5891
壚	-14.5891
敉	-14.5891
淶	-14.5891
蒡	-14.5891
衄	-14.5891
諡	-14.5891
軚	-14.5891
輁	-14.5891
鎛	-14.5891
鞮	-14.5891
嗺	-14.5891
爹	-14.5891
玼	-14.5891
肛	-14.5891
鏥	-14.5891
揍	-14.5894
鰕	-14.5894
俻	-14.5894
埤	-14.5894
暾	-14.5894
丱	-14.5894
圩	-14.5894
葈	-14.5894
鮐	-14.5894
嚓	-14.5894
𠲃	-14.5894
炟	-14.5895
𠸂	-14.5895
夂	-14.5895
抇	-14.5895
畵	-14.5895
痣	-14.5895
荇	-14.5895
鄜	-14.5896
䈎	-14.5897
鞘	-14.5897
仵	-14.5898
楂	-14.5898
腆	-14.5898
䒶	-14.5898
墩	-14.5898
穠	-14.5898
囒	-14.5898
緹	-14.5898
賙	-14.5898
鉾	-14.5898
虀	-14.5898
贇	-14.5901
湼	-14.5901
淇	-14.5901
輞	-14.5901
踨	-14.5901
歭	-14.5901
篕	-14.5901
紓	-14.5901
蠃	-14.5901
嚑	-14.5901
淦	-14.5901
㤜	-14.5901
櫬	-14.5901
禠	-14.5901
隟	-14.5901
煤	-14.5901
詇	-14.5904
箑	-14.5904
㬢	-14.5904
怗	-14.5904
槳	-14.5904
甎	-14.5904
軔	-14.5904
酩	-14.5904
胝	-14.5904
嘵	-14.5904
欇	-14.5904
㗰	-14.5904
㸁	-14.5904
柤	-14.5904
趯	-14.5904
裌	-14.5907
吘	-14.5907
袤	-14.5907
鞾	-14.5907
桅	-14.5907
瀅	-14.5907
闭	-14.5907
汯	-14.5907
聡	-14.5907
讞	-14.5907
瘏	-14.5907
雒	-14.5907
卆	-14.5907
䝤	-14.5907
戇	-14.5907
啿	-14.5907
爠	-14.5907
緃	-14.5907
嚄	-14.591
慇	-14.591
綣	-14.591
邱	-14.591
鰐	-14.591
氤	-14.591
餈	-14.591
僄	-14.591
郛	-14.591
鴝	-14.591
槪	-14.591
禫	-14.591
鏌	-14.591
簏	-14.591
躞	-14.591
鍠	-14.591
〇	-14.591
㝎	-14.591
䞋	-14.591
张	-14.591
忩	-14.591
慽	-14.591
猊	-14.591
瓞	-14.591
轔	-14.591
雝	-14.591
𠸻	-14.591
哏	-14.5913
騞	-14.5913
囏	-14.5913
蜲	-14.5913
见	-14.5913
釦	-14.5913
陜	-14.5913
屾	-14.5913
銛	-14.5913
齔	-14.5913
勻	-14.5913
惓	-14.5913
㖒	-14.5913
嚻	-14.5913
毖	-14.5913
餽	-14.5917
糗	-14.5917
銧	-14.5917
嘒	-14.5917
瀕	-14.5917
迼	-14.5917
䐇	-14.5917
橉	-14.5917
穟	-14.5917
㪍	-14.5919
黽	-14.592
岨	-14.592
雭	-14.592
佰	-14.592
睎	-14.592
攧	-14.5923
蘗	-14.5923
冏	-14.5923
癉	-14.5923
㱕	-14.5923
賡	-14.5923
鱷	-14.5923
咿	-14.5923
拼	-14.5923
桞	-14.5926
髽	-14.5926
珣	-14.5926
䩁	-14.5929
唶	-14.5929
褫	-14.5929
醽	-14.5929
忳	-14.5929
爥	-14.5932
䂊	-14.5932
劭	-14.5932
抅	-14.5932
堈	-14.5932
皡	-14.5932
鸝	-14.5932
蜓	-14.5932
蜾	-14.5932
畟	-14.5935
楕	-14.5935
缚	-14.5935
玨	-14.5939
䰡	-14.5939
変	-14.5939
奱	-14.5942
吇	-14.5942
嗯	-14.5942
㤅	-14.5942
枒	-14.5942
愇	-14.5945
钧	-14.5945
酧	-14.5945
莠	-14.5948
嗂	-14.5948
郫	-14.5948
㿋	-14.5948
则	-14.5948
罒	-14.5948
憺	-14.5951
蓀	-14.5951
婣	-14.5951
哻	-14.5954
晤	-14.5954
䦎	-14.5954
蜻	-14.5961
呹	-14.5961
怊	-14.5961
焃	-14.5964
贄	-14.5967
嗹	-14.5967
瓇	-14.5986
踤	-14.5986
鷕	-14.5986
臸	-14.5992
翏	-14.6005
茦	-14.6052
𠹛	-15.5567
鷓	-15.5568
鴣	-15.5569
鱺	-15.557
鰾	-15.5571
鬒	-15.5572
駙	-15.5573
韙	-15.5574
鞵	-15.5575
阱	-15.5576
闒	-15.5577
邡	-15.5578
轢	-15.5579
趹	-15.558
赬	-15.5581
藇	-15.5582
薟	-15.5583
蓯	-15.5584
腓	-15.5585
罽	-15.5586
緂	-15.5587
筦	-15.5588
祊	-15.5589
琖	-15.559
灙	-15.5591
瀈	-15.5592
潧	-15.5593
氽	-15.5594
桾	-15.5595
柞	-15.5596
枽	-15.5597
枇	-15.5598
揕	-15.5599
扯	-15.56
憃	-15.5601
惧	-15.5602
怲	-15.5603
忏	-15.5604
庋	-15.5605
幐	-15.5606
帟	-15.5607
嶪	-15.5608
嵰	-15.5609
嵫	-15.561
嵛	-15.5611
崛	-15.5612
宨	-15.5613
嬈	-15.5614
嫫	-15.5615
妤	-15.5616
夲	-15.5617
塿	-15.5618
坰	-15.5619
囋	-15.562
嚞	-15.5621
噣	-15.5622
噔	-15.5623
叡	-15.5624
匳	-15.5625
勩	-15.5626
俑	-15.5627
侠	-15.5628
伉	-15.5629
䗶	-15.563
䗤	-15.5631
䎕	-15.5632
㽔	-15.5633
㬷	-15.5634
㛰	-15.5635
㗌	-15.5636
㖪	-15.5637
㕿	-15.5638
𦍑	-15.5639
𠼀	-15.564
𠸫	-15.5641
𠲮	-15.5642
鯪	-15.5643
鯢	-15.5644
驊	-15.5645
饅	-15.5646
顗	-15.5647
頎	-15.5648
韉	-15.5649
閧	-15.565
閈	-15.5651
鏑	-15.5652
逶	-15.5653
轇	-15.5654
詁	-15.5655
蟋	-15.5656
蟀	-15.5657
螋	-15.5658
蚘	-15.5659
蕞	-15.566
菉	-15.5661
聤	-15.5662
翡	-15.5663
羚	-15.5664
纁	-15.5665
綆	-15.5666
篌	-15.5667
箜	-15.5668
碪	-15.5669
瘓	-15.567
痎	-15.5671
牷	-15.5672
瀚	-15.5673
洹	-15.5674
歔	-15.5675
欷	-15.5676
楩	-15.5677
枘	-15.5678
擻	-15.5679
捃	-15.568
拗	-15.5681
戞	-15.5682
嶙	-15.5683
峋	-15.5684
嚌	-15.5685
喞	-15.5686
咹	-15.5687
䭀	-15.5688
䙵	-15.5689
䁝	-15.569
㹻	-15.5691
㖃	-15.5692
𩕄	-15.5693
𡹃	-15.5694
𡨾	-15.5695
𠺢	-15.5696
齬	-15.5697
齟	-15.5698
麞	-15.5699
鷦	-15.57
鷀	-15.5701
骰	-15.5702
餮	-15.5703
鐀	-15.5704
褓	-15.5705
蟪	-15.5706
蛉	-15.5707
蘞	-15.5708
蕷	-15.5709
荽	-15.571
苨	-15.5711
艽	-15.5712
紲	-15.5713
箎	-15.5714
睁	-15.5715
瑪	-15.5716
瑙	-15.5717
猬	-15.5718
燉	-15.5719
焄	-15.572
拶	-15.5721
悱	-15.5722
嶒	-15.5723
崚	-15.5724
嬙	-15.5725
埭	-15.5726
剾	-15.5727
儺	-15.5728
侏	-15.5729
佔	-15.573
仃	-15.5731
䐩	-15.5732
㩉	-15.5733
㠀	-15.5734
㖀	-15.5735
】	-15.5736
【	-15.5737
𧍴	-15.5738
鵑	-15.5739
顦	-15.574
錟	-15.5741
蔔	-15.5742
蒴	-15.5743
菪	-15.5744
菟	-15.5745
莨	-15.5746
胖	-15.5747
絅	-15.5748
粕	-15.5749
簁	-15.575
痍	-15.5751
泬	-15.5752
汹	-15.5753
欬	-15.5754
忪	-15.5755
嫦	-15.5756
坱	-15.5757
儭	-15.5758
䨥	-15.5759
𧝋	-15.576
𤋺	-15.5761
𡀱	-15.5762
𠰚	-15.5763
靛	-15.5764
闠	-15.5765
鍈	-15.5766
郜	-15.5767
轕	-15.5768
艤	-15.5769
胰	-15.577
粦	-15.5771
粃	-15.5772
秫	-15.5773
磽	-15.5774
碢	-15.5775
瘙	-15.5776
猘	-15.5777
濓	-15.5778
枻	-15.5779
摳	-15.578
摐	-15.5781
徬	-15.5782
崢	-15.5783
咢	-15.5784
冽	-15.5785
㱽	-15.5786
𠯜	-15.5787
鵡	-15.5788
魉	-15.5789
髑	-15.579
蝖	-15.5791
蜞	-15.5792
脗	-15.5793
羖	-15.5794
碼	-15.5795
碯	-15.5796
睪	-15.5797
燹	-15.5798
瀣	-15.5799
沲	-15.58
憔	-15.5801
妞	-15.5802
壒	-15.5803
儡	-15.5804
傀	-15.5805
倆	-15.5806
鼕	-15.5807
鸕	-15.5808
骷	-15.5809
鄲	-15.581
蠼	-15.5811
蟆	-15.5812
蝙	-15.5813
蚖	-15.5814
菵	-15.5815
莧	-15.5816
窬	-15.5817
稉	-15.5818
磻	-15.5819
癮	-15.582
獗	-15.5821
惆	-15.5822
坷	-15.5823
鴦	-15.5824
螮	-15.5825
蝴	-15.5826
蘘	-15.5827
髣	-15.5828
芫	-15.5828
翱	-15.5829
糯	-15.583
厦	-15.5831
㪷	-15.5832
駝	-15.5833
蹰	-15.5834
瘰	-15.5835
𨦲	-15.5836
霎	-15.5837
蜣	-15.5838
蜍	-15.5839
蜉	-15.584
蛄	-15.5841
蔞	-15.5842
祧	-15.5843
麒	-15.5844
盔	-15.5844
瓏	-15.5845
敭	-15.5846
陡	-15.5847
裩	-15.5848
蠈	-15.5849
琶	-15.585
琵	-15.5851
愊	-15.5852
㕤	-15.5853
邂	-15.5854
逅	-15.5855
轤	-15.5856
輳	-15.5857
藭	-15.5858
磅	-15.5859
瓔	-15.586
拇	-15.5861
嵳	-15.5862
崘	-15.5863
児	-15.5864
醐	-15.5865
醍	-15.5866
轗	-15.5867
豸	-15.5868
璀	-15.5869
珀	-15.587
瘼	-15.5871
幪	-15.5872
啻	-15.5873
撕	-15.5874
匍	-15.5875
髴	-15.5876
㾮	-15.5876
媧	-15.5877
嗊	-15.5878
㕮	-15.5879
跎	-15.588
蜘	-15.5881
蚯	-15.5882
藶	-15.5883
葶	-15.5884
硝	-15.5885
戕	-15.5886
榑	-15.5887
蜈	-15.5888
芷	-15.5889
翺	-15.589
栀	-15.5891
硫	-15.5892
紜	-15.5893
靆	-15.5894
崆	-15.5895
萸	-15.5896
峒	-15.5897
膀	-15.5898
胱	-15.5899
幞	-15.59
琉	-15.59
