<unk>	0
<s>	0
</s>	0
。	-2.38759
,	-3.53968
者	-4.28498
、	-4.55739
也	-4.75173
▁	-4.77441
故	-4.93085
是	-4.96991
為	-5.13118
*	-5.1492
二	-5.15282
有	-5.20741
之	-5.32453
無	-5.33818
以	-5.35194
不	-5.39729
中	-5.48873
名	-5.50934
即	-5.51278
一	-5.52755
三	-5.53146
(	-5.55153
下	-5.55219
)	-5.55948
非	-5.58302
若	-5.59942
!	-5.6235
於	-5.63988
法	-5.64273
如	-5.64864
此	-5.67771
生	-5.78594
佛	-5.78943
心	-5.7902
人	-5.79597
得	-5.83721
說	-5.83865
善男子	-5.8453
如來	-5.86357
等	-5.89532
明	-5.92184
而	-5.93463
言	-5.99182
行	-5.99562
義	-5.99722
見	-6.00292
因	-6.00476
四	-6.0299
我	-6.04202
菩薩	-6.11955
相	-6.12002
身	-6.12789
謂	-6.1544
時	-6.15989
眾生	-6.15993
初	-6.16346
其	-6.16493
至	-6.16537
?	-6.17109
常	-6.17224
大	-6.18178
;	-6.18878
則	-6.22396
今	-6.24963
涅槃	-6.25481
所	-6.25844
如是	-6.26248
果	-6.28667
後	-6.28724
經	-6.28776
能	-6.30195
知	-6.31706
受	-6.34477
從	-6.34686
自	-6.35641
作	-6.35957
亦	-6.37525
問	-6.38501
前	-6.39192
諸	-6.41659
云	-6.43235
譬	-6.43952
觀	-6.43995
滅	-6.4606
釋	-6.46088
一切	-6.48808
已	-6.49397
即是	-6.50085
。】「	-6.50692
次	-6.50864
空	-6.50986
善	-6.51605
解	-6.52093
皆	-6.52511
上	-6.52927
彼	-6.53991
定	-6.54005
與	-6.54392
道	-6.54829
。」【	-6.55711
在	-6.5591
出	-6.56907
應	-6.56962
:「	-6.57417
性	-6.59055
佛性	-6.59311
五	-6.59322
正	-6.61553
苦	-6.62533
修	-6.63221
又	-6.63364
樂	-6.66123
難	-6.67357
喻	-6.67492
無常	-6.67776
云何	-6.68474
教	-6.69207
入	-6.69745
意	-6.70126
。「	-6.70432
破	-6.70491
當	-6.70573
通	-6.7086
及	-6.72618
名為	-6.73465
世尊	-6.7422
色	-6.7437
同	-6.74756
耶	-6.74854
先	-6.75037
故云	-6.75852
成	-6.76018
復	-6.76139
王	-6.76399
戒	-6.76594
理	-6.76752
合	-6.77395
智	-6.77422
事	-6.78683
文	-6.79042
本	-6.79774
處	-6.79826
欲	-6.80445
用	-6.81783
別	-6.82684
令	-6.83183
起	-6.83891
緣	-6.84099
▁二	-6.84235
答	-6.84977
煩惱	-6.85338
顯	-6.85579
斷	-6.85615
眾	-6.8672
惡	-6.87283
業	-6.87524
:『	-6.87898
異	-6.88211
雖	-6.8854
舉	-6.88549
巳	-6.88634
多	-6.89605
是故	-6.89728
分	-6.89885
案	-6.90139
既	-6.90282
住	-6.90589
。」	-6.91973
具	-6.92616
離	-6.95119
體	-6.97082
實	-6.9753
淨	-6.98059
取	-6.9895
論	-7.00558
可	-7.00828
爾時	-7.01319
聞	-7.01411
地	-7.01534
六	-7.01589
天	-7.03971
未	-7.05059
真	-7.05432
汝	-7.06082
就	-7.06445
過	-7.07405
但	-7.0778
經云	-7.08125
生死	-7.08337
解脫	-7.0855
然	-7.08958
乃至	-7.09312
證	-7.09554
由	-7.10182
來	-7.10544
結	-7.11369
依	-7.11417
施	-7.1238
無有	-7.12403
現	-7.13091
重	-7.13334
對	-7.13533
約	-7.13808
想	-7.13914
食	-7.13917
▁初	-7.1605
第三	-7.16222
師	-7.16496
或	-7.16735
第二	-7.1695
去	-7.17787
世	-7.18014
因緣	-7.20183
不能	-7.20431
八	-7.21291
子	-7.21387
盡	-7.21397
語	-7.22736
病	-7.22994
。』	-7.23098
何以故	-7.23179
僧亮曰	-7.23721
念	-7.24547
慧	-7.24582
水	-7.24882
求	-7.2501
愛	-7.25689
小	-7.25709
識	-7.26019
世間	-7.2657
何	-7.27122
迦葉	-7.27535
俱	-7.29271
無量	-7.2967
不得	-7.29739
是名	-7.29905
捨	-7.30384
隨	-7.30572
開	-7.30977
悉	-7.31539
三昧	-7.31598
餘	-7.31735
不見	-7.3179
七	-7.3201
兩	-7.33158
除	-7.3316
德	-7.33422
示	-7.3345
亦復如是	-7.33869
執	-7.33931
廣	-7.34848
化	-7.34882
請	-7.35493
十	-7.36577
信	-7.36665
他	-7.3765
外	-7.37686
力	-7.38542
功德	-7.38633
惑	-7.38686
唯	-7.40634
分別	-7.41263
方	-7.41917
物	-7.42738
所以	-7.43324
失	-7.43567
譬如	-7.43848
一切眾生	-7.44058
門	-7.44291
深	-7.44394
方便	-7.4527
不同	-7.45626
曰	-7.458
具足	-7.45807
耳	-7.46024
比丘	-7.46783
更	-7.46887
還	-7.47672
報	-7.48278
圓	-7.48463
持	-7.49354
字	-7.497
數	-7.51343
共	-7.5216
凡夫	-7.52917
乃	-7.5311
勝	-7.53643
稱	-7.54639
根	-7.54741
大乘	-7.55122
內	-7.55828
立	-7.56336
故言	-7.56684
度	-7.57189
無明	-7.57433
治	-7.57527
阿難	-7.57999
僧	-7.58099
復次	-7.58432
無我	-7.58443
不可	-7.58451
便	-7.59585
聖	-7.60358
不知	-7.61764
轉	-7.62366
第一	-7.62475
死	-7.62761
智慧	-7.62769
勸	-7.62982
不應	-7.62989
聲聞	-7.63183
昔	-7.63225
攝	-7.63355
慈	-7.63755
故名	-7.63982
歸	-7.63994
歎	-7.64027
第四	-7.64544
發	-7.64953
法身	-7.66017
邪	-7.66247
若有	-7.66473
等者	-7.67264
命	-7.6762
供養	-7.67801
菩薩摩訶薩	-7.68015
清淨	-7.68218
藥	-7.68937
因果	-7.69652
諸佛	-7.70211
疑	-7.70442
所謂	-7.70498
壞	-7.70925
始	-7.71066
凡	-7.71324
辨	-7.71449
位	-7.72156
種種	-7.72252
何故	-7.7228
乳	-7.74255
境	-7.74277
反	-7.74872
會	-7.74931
略	-7.75555
聲	-7.75814
二乘	-7.75872
不定	-7.76422
總	-7.7684
將	-7.77563
僧宗曰	-7.77627
外道	-7.77875
純陀	-7.7794
火	-7.78333
引	-7.78604
中道	-7.7866
覺	-7.78953
利	-7.79047
罪	-7.79452
光	-7.79546
不生	-7.8019
:	-7.80213
向	-7.80353
集	-7.8044
五陰	-7.80663
成就	-7.80707
未來	-7.80712
指	-7.81005
陰	-7.81147
必	-7.81316
次第	-7.8169
猶如	-7.81893
修習	-7.8222
日	-7.8232
現在	-7.82783
妙	-7.82951
菩提	-7.83111
魔	-7.83586
樹	-7.84121
一者	-7.84408
往	-7.86091
家	-7.86428
之人	-7.866
主	-7.86657
障	-7.86823
少	-7.87033
各	-7.87118
常住	-7.87246
我今	-7.87967
使	-7.89778
味	-7.90186
殺	-7.90677
著	-7.90864
須	-7.91148
寶亮曰	-7.91192
願	-7.91676
藏	-7.91768
二者	-7.92187
當知	-7.92379
虛空	-7.92576
國	-7.92619
學	-7.92666
偏	-7.93681
動	-7.93788
猶	-7.94071
貪	-7.94124
是人	-7.94511
計	-7.94586
品	-7.94766
無漏	-7.94782
照	-7.94901
以是義故	-7.94987
▁三	-7.95127
九	-7.95161
遍	-7.95355
寶	-7.95367
類	-7.9583
足	-7.9608
滿	-7.96681
終	-7.96681
?」	-7.96692
復有	-7.97048
云云	-7.97219
遠	-7.97673
假	-7.98188
月	-7.98356
佛言	-7.99511
自在	-7.99892
機	-8.00321
若言	-8.00614
觸	-8.00676
過去	-8.00991
正法	-8.0133
流	-8.02016
果報	-8.0202
下明	-8.02564
亦不	-8.03095
之法	-8.03249
安	-8.03496
音	-8.03856
大涅槃	-8.04341
翻	-8.04512
亦名	-8.04553
覆	-8.05323
大眾	-8.06058
女	-8.06268
遠離	-8.06315
益	-8.06346
山	-8.07793
據	-8.08108
莊嚴	-8.08339
白	-8.08738
屬	-8.09128
止	-8.09332
偈	-8.09472
諸法	-8.09533
邊	-8.09777
斯	-8.10302
諦	-8.10779
輕	-8.1113
辯	-8.116
直	-8.11675
莫	-8.12174
地獄	-8.12558
乘	-8.12785
極	-8.12808
以為	-8.12926
了	-8.13226
第五	-8.13464
俗	-8.13589
害	-8.13928
香	-8.14147
雙	-8.14256
況	-8.14683
之所	-8.14762
無所	-8.1491
口	-8.15377
華	-8.15383
夫	-8.15678
▁初分科	-8.15806
畢竟	-8.15906
護	-8.15991
句	-8.16268
近	-8.16738
喜	-8.17143
長	-8.17196
父母	-8.17497
不淨	-8.17559
表	-8.17836
之義	-8.17861
闡提	-8.1849
究竟	-8.18764
亦是	-8.1896
簡	-8.18988
所說	-8.19062
四諦	-8.19435
持戒	-8.19517
倒	-8.19653
眼	-8.19733
金	-8.20133
城	-8.20744
例	-8.20787
沒	-8.21073
亦爾	-8.21333
爾	-8.21427
所有	-8.21486
般若	-8.2155
大王	-8.21575
毒	-8.22031
小乘	-8.22214
名曰	-8.22228
對治	-8.22364
界	-8.22558
名之為	-8.22727
出家	-8.22774
親	-8.22951
豈	-8.23831
修行	-8.24272
示現	-8.24413
宗	-8.24431
衣	-8.24753
種	-8.25119
智者	-8.25466
百	-8.2565
形	-8.26041
人天	-8.26264
縛	-8.26634
順	-8.2667
真實	-8.27331
四句	-8.27345
神	-8.27381
卷	-8.27813
章	-8.27826
河	-8.27859
到	-8.28399
風	-8.29133
三寶	-8.29782
如文	-8.29923
光明	-8.30067
無上	-8.3036
告	-8.30626
付	-8.30876
誰	-8.31423
三種	-8.31862
絕	-8.31969
平等	-8.3206
法門	-8.32137
且	-8.32218
亂	-8.32221
善哉	-8.32307
列	-8.32476
不可思議	-8.32639
要	-8.32888
獨	-8.33022
思	-8.33216
說法	-8.33401
金剛	-8.33612
福	-8.34494
易	-8.34601
非是	-8.35098
羅	-8.35261
法界	-8.35668
能生	-8.3582
尚	-8.36088
十二	-8.36339
利益	-8.36506
復次善男子	-8.36535
佛法	-8.36605
亦無	-8.37004
此經	-8.37024
增	-8.371
悲	-8.37154
酪	-8.37155
亦有	-8.3719
是常	-8.37216
趣	-8.37343
可知	-8.37487
之中	-8.37672
目	-8.38098
竟	-8.38216
文殊	-8.38384
息	-8.38635
達	-8.38838
可見	-8.38966
墮	-8.39001
善法	-8.39238
世界	-8.39352
長者	-8.39399
服	-8.39577
四大	-8.39618
權	-8.39672
思惟	-8.40109
望	-8.40422
牛	-8.40766
遮	-8.40817
尋	-8.41069
文云	-8.41095
海	-8.4131
只	-8.41583
者即	-8.41612
故知	-8.4165
高	-8.41715
皆是	-8.41764
出世	-8.41782
聽	-8.42014
犯	-8.42092
和合	-8.42353
造	-8.42987
漏	-8.43145
恒	-8.43455
妄	-8.4357
婆羅門	-8.4362
者謂	-8.4404
說言	-8.44129
?』	-8.44237
劫	-8.44264
有二	-8.44496
那	-8.44747
故名為	-8.44908
差別	-8.44916
不為	-8.4503
而不	-8.4511
三界	-8.45192
有人	-8.45289
無為	-8.45433
於此	-8.45623
制	-8.45641
已下	-8.45699
又二	-8.45877
花	-8.46566
忍	-8.46644
常樂我淨	-8.46682
發心	-8.46695
雜	-8.46738
器	-8.46801
弟子	-8.46837
下隨釋	-8.47464
二種	-8.47625
細	-8.47676
瞿曇	-8.478
雖復	-8.47913
第六	-8.48204
有三	-8.48438
三世	-8.48514
習	-8.48557
散	-8.48711
悟	-8.48803
亦如是	-8.48866
好	-8.48888
兼	-8.49165
並	-8.49337
號	-8.49585
虗空	-8.49628
善根	-8.49967
此是	-8.505
居	-8.50771
記	-8.50792
下釋	-8.51
於中	-8.5104
老	-8.51164
生滅	-8.51205
頭	-8.51324
文中	-8.51367
加	-8.51397
似	-8.51695
為三	-8.51905
顛倒	-8.51911
許	-8.51934
修道	-8.52172
》	-8.52249
亦應	-8.52289
尊	-8.52415
供	-8.52486
宜	-8.52522
者即是	-8.52734
法性	-8.53056
不受	-8.53138
經文	-8.53173
如彼	-8.53231
歡喜	-8.53354
律	-8.53423
千	-8.53582
終不	-8.53627
則無	-8.53652
阿	-8.53799
乎	-8.53826
一闡提	-8.54131
久	-8.54222
有為	-8.54351
年	-8.54606
我等	-8.54616
部	-8.54648
師子	-8.55145
被	-8.55385
何者	-8.55427
一切法	-8.55732
迷	-8.55747
舊	-8.56083
母	-8.56482
有漏	-8.56835
聚	-8.56848
梵行	-8.5685
問答	-8.56863
故也	-8.57057
斥	-8.57276
若不	-8.57329
嘆	-8.57337
內外	-8.57758
設	-8.58157
沙門	-8.5823
壽	-8.58276
汝今	-8.58319
故曰	-8.58703
情	-8.59263
一時	-8.59324
宣說	-8.59369
此中	-8.59631
迹	-8.59791
疏	-8.60546
欲界	-8.60687
有二種	-8.60808
脫	-8.60823
闇	-8.60925
三德	-8.60989
三諦	-8.61299
《	-8.61444
退	-8.61444
根本	-8.61565
半	-8.61566
如是等	-8.6191
不作	-8.61986
不名	-8.62207
微	-8.62313
中有	-8.62597
讚	-8.62879
眷屬	-8.63116
象	-8.63354
甚深	-8.63395
雖有	-8.63465
存	-8.63702
皆悉	-8.63819
破戒	-8.64061
真諦	-8.64132
佛答	-8.64146
草	-8.64268
末	-8.64282
怨	-8.64419
一一	-8.64422
第七	-8.64559
判	-8.64571
伏	-8.64746
全	-8.64835
二諦	-8.64913
增長	-8.65182
世諦	-8.65375
亦非	-8.65569
禪	-8.6606
致	-8.66111
其義	-8.6614
三乘	-8.66221
婆	-8.6641
聖人	-8.66466
今經	-8.66659
推	-8.668
有四	-8.6698
是其	-8.67013
寄	-8.67031
己	-8.67047
醫	-8.67185
備	-8.67242
慢	-8.67298
手	-8.67319
女人	-8.67377
」	-8.67594
初明	-8.67732
次明	-8.67746
遣	-8.67863
感	-8.67992
標	-8.68034
坐	-8.68104
入涅槃	-8.68326
師子吼	-8.68354
本有	-8.68369
今明	-8.6842
受持	-8.68684
并	-8.68889
普	-8.69029
遇	-8.69171
甘露	-8.69257
彰	-8.69271
生於	-8.69419
十二因緣	-8.69439
「	-8.69551
無作	-8.6963
互	-8.69839
隱	-8.7009
只是	-8.70178
漸	-8.70191
有無	-8.70416
舍	-8.70523
答言	-8.70616
而有	-8.70754
汝等	-8.70889
諸眾生	-8.70978
寧	-8.71086
三者	-8.71108
燈	-8.71179
如經	-8.71216
呵	-8.71256
序	-8.71263
進	-8.71354
旨	-8.71474
陀	-8.71498
大海	-8.7165
馬	-8.72274
了因	-8.72451
下結	-8.72599
善惡	-8.7272
諸天	-8.72857
染	-8.73086
矣	-8.73213
佛說	-8.73248
邪見	-8.73261
淺	-8.73763
不聞	-8.73782
羅漢	-8.73939
法者	-8.74009
如此	-8.74395
而得	-8.7452
患	-8.7464
癡	-8.74715
寂	-8.74778
一人	-8.74785
第一義	-8.74787
消	-8.74797
速	-8.74806
父	-8.75039
大小	-8.75059
名字	-8.75071
明其	-8.75227
大涅槃經	-8.75338
土	-8.75368
以是因緣	-8.75569
若無	-8.75658
所作	-8.75707
阿羅漢	-8.76107
量	-8.76241
萬	-8.76725
不斷	-8.76749
財	-8.76771
畏	-8.76848
緣覺	-8.76869
永	-8.7711
無生	-8.77178
今日	-8.77582
謗	-8.77683
責	-8.77693
伹	-8.77789
嚴	-8.77857
一明	-8.78359
經中	-8.78659
熱	-8.78694
護法	-8.78794
有我	-8.79078
或有	-8.79479
亡	-8.7948
本無	-8.79603
前後	-8.80017
木	-8.80115
上來	-8.80138
能斷	-8.80277
義也	-8.80359
段	-8.80717
瞋	-8.81013
像	-8.81289
以此	-8.81353
之時	-8.81355
述	-8.81393
相似	-8.81516
單	-8.81675
神通	-8.81732
決定	-8.8192
梵	-8.82067
麁	-8.8217
龍	-8.82288
待	-8.82304
為二	-8.8236
解釋	-8.82521
乃是	-8.82538
奉	-8.82628
若能	-8.8263
常無常	-8.82887
科	-8.82915
所得	-8.83061
法華	-8.83128
諸比丘	-8.83193
聖行	-8.8324
徵	-8.83423
興	-8.83745
能知	-8.8403
燒	-8.84174
而生	-8.84337
獲	-8.8436
賊	-8.84454
是無常	-8.84536
寂靜	-8.84541
不滅	-8.84606
林	-8.84877
壽命	-8.85098
損	-8.85113
。△	-8.85134
敬	-8.85201
知見	-8.85553
諸菩薩	-8.85596
怖	-8.85618
新	-8.85658
境界	-8.85747
精進	-8.8592
如人	-8.8608
橫	-8.86159
是則	-8.86211
石	-8.8631
徧	-8.86365
變	-8.86496
不動	-8.8654
無相	-8.86566
最後	-8.86821
悉皆	-8.86971
雨	-8.87162
奪	-8.87187
頂	-8.87261
十六	-8.87268
第十	-8.87276
之相	-8.87311
牒	-8.87322
未得	-8.8744
傳	-8.87555
提	-8.87561
大般涅槃	-8.87749
訖	-8.87961
摩	-8.88119
刀	-8.88151
何等	-8.8838
古	-8.88453
調	-8.88741
聲聞緣覺	-8.88814
珠	-8.88951
各有	-8.8916
則有	-8.89209
呪	-8.89213
違	-8.89374
密	-8.89416
則不	-8.8943
懷	-8.89562
劣	-8.89746
然後	-8.89746
生善	-8.89873
竝	-8.89978
恐	-8.9023
差	-8.90269
和	-8.90289
不說	-8.90289
安樂	-8.90412
無礙	-8.90518
應當	-8.91389
比	-8.91416
下第二	-8.91548
法中	-8.91588
故得	-8.91691
路	-8.91844
之言	-8.91871
憍慢	-8.91923
有餘	-8.91966
蓋	-8.92009
虛	-8.92043
故不	-8.92226
首	-8.92229
不善	-8.92493
窮	-8.92508
之心	-8.92559
亦復	-8.92587
強	-8.93159
微妙	-8.93406
及以	-8.93541
塵	-8.93611
收	-8.93652
肉	-8.93653
▁四	-8.93862
次釋	-8.94108
為四	-8.94351
智秀曰	-8.94384
滅度	-8.94678
十地	-8.9471
自性	-8.94741
五行	-8.94859
不出	-8.94931
縱	-8.95085
諸行	-8.95354
我所	-8.95437
鳥	-8.9561
支	-8.95619
四種	-8.95853
迦	-8.96032
骨	-8.96037
▁二答	-8.96053
得阿耨多羅三藐三菩提	-8.96259
放逸	-8.96424
禮	-8.96494
歸依	-8.96501
是時	-8.96805
惱	-8.96911
咸	-8.97048
夜	-8.97075
演說	-8.97106
第八	-8.97588
中間	-8.97652
最	-8.97769
乖	-8.9805
十方	-8.9845
不離	-8.98455
不退	-8.98514
冥	-8.98754
不思議	-8.98784
專	-8.98796
疾	-8.98823
畜生	-8.98906
領	-8.98921
此即	-8.99001
或說	-8.99115
盛	-8.99133
不信	-8.9933
良醫	-8.99408
佛果	-8.99425
即便	-8.99573
所見	-8.99587
力士	-8.99657
故非	-8.99723
醍醐	-8.99728
實相	-9.00058
甚	-9.00238
毀	-9.00331
面	-9.00554
能令	-9.00591
四依	-9.0066
初地	-9.00683
見佛性	-9.00776
臣	-9.00824
敘	-9.00937
二十五有	-9.01061
又復	-9.01389
我當	-9.01428
方等	-9.01563
正因	-9.01605
周	-9.01616
有佛性	-9.01869
其心	-9.02286
梵天	-9.02758
無色	-9.02897
置	-9.02902
十一	-9.03025
長壽	-9.03157
吾	-9.03189
大悲	-9.03478
布施	-9.03633
厭	-9.03734
惡業	-9.03767
成佛	-9.03771
非色	-9.03787
非不	-9.03826
又云	-9.04053
住處	-9.04082
唱	-9.04295
鬼	-9.04494
安住	-9.04507
化他	-9.04549
勤	-9.0472
無有是處	-9.05039
)。】「	-9.05049
拔	-9.05069
姓	-9.05112
一句	-9.05132
輪	-9.05222
書	-9.05519
常樂	-9.05731
繫	-9.05856
日月	-9.06011
悔	-9.06132
無邊	-9.06262
而為	-9.06304
因緣故	-9.06311
唯有	-9.06522
信心	-9.06551
故無	-9.06878
苦行	-9.07146
假名	-9.07447
諸佛世尊	-9.07449
人中	-9.07458
救	-9.07524
相應	-9.07545
二邊	-9.0755
威儀	-9.07703
二人	-9.07813
譬如有人	-9.07958
正明	-9.08141
▁初問	-9.08188
黑	-9.08372
廣說	-9.08493
般涅槃	-9.08698
安隱	-9.08997
容	-9.09129
無畏	-9.09147
曾	-9.09155
之身	-9.09335
文殊師利	-9.09443
車	-9.09477
童子	-9.09599
慈悲	-9.09748
舍利	-9.09781
此下	-9.09959
資	-9.10171
下約	-9.10268
何得	-9.10404
如佛所說	-9.10498
而言	-9.1051
一心	-9.10574
非無	-9.10609
者以	-9.10854
不修	-9.11025
寂滅	-9.112
一切諸法	-9.11247
七寶	-9.11266
遂	-9.11312
阿耨多羅三藐三菩提	-9.11432
須陀洹	-9.11447
三藏	-9.11717
二明	-9.11801
改	-9.11884
聞法	-9.11885
恭敬	-9.11949
一體	-9.12063
五根	-9.12066
或言	-9.12096
不然	-9.12268
導	-9.1247
穢	-9.12591
逆	-9.1266
辭	-9.12677
一向	-9.12736
之處	-9.12932
親近	-9.13024
先明	-9.13073
斷煩惱	-9.13163
所言	-9.1318
三結	-9.13242
波	-9.13319
祕藏	-9.13557
助	-9.13596
不解	-9.13597
此義	-9.13733
讀誦	-9.13824
為說	-9.1402
熟	-9.14176
所生	-9.14189
章門	-9.14548
不可得	-9.14582
若是	-9.14833
苦惱	-9.14875
實無	-9.1489
清	-9.14939
相對	-9.14965
種子	-9.15078
十二部經	-9.15215
得果	-9.15688
中初	-9.15918
白佛言	-9.16031
視	-9.16246
此云	-9.16323
得解脫	-9.16339
之性	-9.16362
若依	-9.16463
廣明	-9.16539
齊	-9.16839
是經	-9.16852
故須	-9.1686
之理	-9.16943
若爾	-9.16963
此二	-9.17053
不異	-9.17136
飲	-9.17184
准	-9.17207
得名	-9.17315
始終	-9.17337
哀	-9.17441
皆有	-9.17502
傷	-9.17554
中陰	-9.17562
十四	-9.17655
永斷	-9.17959
為一	-9.18007
。」「	-9.18247
於是	-9.18292
下文	-9.18354
如來亦爾	-9.18444
此文	-9.18491
純	-9.18521
大慈	-9.18605
五種	-9.18622
受者	-9.18638
所以者何	-9.18674
棄	-9.18683
五事	-9.18688
我於	-9.18754
自行	-9.18758
能為	-9.18758
怖畏	-9.18825
為欲	-9.18854
脩	-9.18878
印	-9.18926
優婆塞	-9.18941
▁二初	-9.19095
談	-9.19223
誡	-9.19238
不具	-9.1924
各各	-9.19352
苦樂	-9.19829
南	-9.20033
何以	-9.2016
虗	-9.20373
尼	-9.20418
世人	-9.20484
超	-9.20507
積	-9.20524
善業	-9.20605
不住	-9.20627
星	-9.20714
一切諸	-9.20866
甘	-9.20911
旃陀羅	-9.20975
是故名	-9.21168
如上	-9.21266
論云	-9.21574
不失	-9.21574
當知是人	-9.21661
相續	-9.21765
非法	-9.21975
其中	-9.22112
見佛	-9.22408
短	-9.22504
辟支佛	-9.22508
接	-9.22528
實非	-9.22666
四德	-9.22728
以顯	-9.22925
宮	-9.23149
破壞	-9.23271
十八	-9.23404
西	-9.23432
放	-9.23444
妨	-9.23545
不二	-9.23595
自然	-9.23609
盲	-9.23683
兒	-9.23874
愚癡	-9.23956
迦葉菩薩白佛言	-9.23965
是義不然	-9.2397
調伏	-9.23986
悉是	-9.23987
亦可	-9.23988
先舉	-9.24099
是名為	-9.24106
?」「	-9.24129
五欲	-9.24165
十住	-9.24194
禪定	-9.24268
無餘	-9.24268
則是	-9.24275
而無	-9.24279
四者	-9.24307
則得	-9.24404
北	-9.24468
▁初明	-9.24473
則能	-9.2448
美	-9.24492
其人	-9.24548
十三	-9.24714
於我	-9.24877
殊	-9.24928
伽	-9.24931
觀察	-9.25086
領解	-9.25184
能破	-9.25244
油	-9.25381
畜	-9.25494
宣	-9.25546
若見	-9.25629
向前	-9.25858
臥	-9.26223
堅	-9.26252
遊	-9.26429
塗	-9.26452
法瑤曰	-9.26941
等也	-9.2695
幻	-9.26993
行者	-9.27006
是事	-9.27032
今此	-9.27093
欲令	-9.2718
故以	-9.27189
是身	-9.27248
諸惡	-9.27527
座	-9.27596
亦如	-9.27812
憂	-9.2796
間	-9.28222
福德	-9.28394
自他	-9.28403
麤	-9.2843
氣	-9.28432
不壞	-9.28531
緣因	-9.28532
歲	-9.28535
四倒	-9.28878
初中	-9.28882
諸煩惱	-9.28999
是為	-9.29171
諸佛菩薩	-9.29207
六道	-9.29349
見者	-9.29362
飲食	-9.29372
爾時世尊	-9.29417
偽	-9.29475
則為	-9.29508
我見	-9.29666
無二	-9.29707
以是	-9.2985
大臣	-9.29893
何以下釋	-9.2996
含	-9.30057
不可說	-9.30169
能見	-9.30205
說為	-9.30304
四禪	-9.30367
東	-9.30468
如其	-9.30475
無盡	-9.30478
總結	-9.30485
檀	-9.30511
初住	-9.30554
知足	-9.30577
當有	-9.30587
是佛	-9.30594
於諸	-9.3064
青	-9.30666
初文	-9.30673
葉	-9.30712
讚歎	-9.30877
悅	-9.30884
命終	-9.30894
枯	-9.31038
嬰兒	-9.31126
初問	-9.31442
平	-9.31494
說有	-9.31672
此約	-9.31904
隨順	-9.31928
人民	-9.32126
鉢	-9.32127
以明	-9.32192
愚	-9.32201
瓶	-9.32224
瞋恚	-9.32257
此三	-9.32377
三法	-9.32401
所行	-9.32537
心無	-9.3255
淨戒	-9.32712
五百	-9.32734
無樂	-9.3283
應云	-9.32864
可得	-9.32892
未有	-9.32938
大地	-9.32963
正是	-9.33021
佛告迦葉	-9.33144
定有	-9.33241
彌	-9.33351
佛性者	-9.33472
宿	-9.33533
不爾	-9.33569
恩	-9.33587
受樂	-9.33587
他人	-9.33592
譯	-9.336
承	-9.33656
但有	-9.33812
審	-9.33956
題	-9.34116
義者	-9.34203
心不	-9.34332
之行	-9.34568
而作	-9.34613
法故	-9.34688
國土	-9.34691
道生曰	-9.34789
六度	-9.3489
功	-9.34946
大般涅槃經	-9.34977
一云	-9.35264
召	-9.35317
明佛	-9.35404
。」【(	-9.35452
正答	-9.35481
玄	-9.35556
億	-9.35577
得聞	-9.35605
值	-9.35658
之事	-9.35831
後一	-9.36287
眼見	-9.36301
論義	-9.36377
故說	-9.36384
一念	-9.36446
垢	-9.36484
。』「	-9.36578
前三	-9.36646
非我	-9.36746
一乘	-9.36772
降	-9.36773
佛所	-9.36774
我亦	-9.3682
雙非	-9.36857
三歸	-9.3691
有一	-9.37078
仙	-9.37327
此品	-9.37366
下合	-9.37429
頓	-9.37745
第二明	-9.37876
諍	-9.37952
常者	-9.38157
靜	-9.38252
非有非無	-9.38394
本無今有	-9.38444
切	-9.3855
身心	-9.38576
二云	-9.38665
有五	-9.38702
又三	-9.38714
若有眾生	-9.38839
惡心	-9.38892
而復	-9.389
為是	-9.39046
虛妄	-9.39054
是名菩薩	-9.39108
閻浮提	-9.39326
田	-9.39467
善知識	-9.39766
此之	-9.39832
有性	-9.3992
第九	-9.40012
繫縛	-9.40036
或時	-9.40104
勿	-9.40115
三業	-9.40135
三句	-9.4023
毛	-9.40309
料簡	-9.40341
二十	-9.40346
中云	-9.40385
善知	-9.40547
非有	-9.408
雲	-9.40907
男	-9.41016
其所	-9.41048
四法	-9.41193
得見	-9.4125
諸外道	-9.41292
六師	-9.41325
佛告	-9.41327
般	-9.41358
節	-9.41519
無差別	-9.41562
關	-9.41562
巧	-9.41704
是一	-9.4173
力故	-9.41796
黃	-9.41813
是果	-9.41837
大雲	-9.41963
懸	-9.4198
默然	-9.42018
無記	-9.42038
不須	-9.42184
不識	-9.42294
云何名為	-9.42406
於彼	-9.42469
無差	-9.42605
人也	-9.42671
我說	-9.42707
于	-9.42736
富	-9.42762
生生	-9.42789
在於	-9.42939
不從	-9.42992
十力	-9.42993
痛	-9.43
入於涅槃	-9.43025
但是	-9.4303
堅固	-9.43193
多聞	-9.43237
若使	-9.43279
此乃	-9.43401
佛言善男子	-9.43408
實不	-9.43414
無因	-9.43438
謝	-9.43557
不了	-9.43584
胎	-9.43661
開善	-9.43807
有六	-9.43812
復言	-9.43869
相違	-9.43955
貪欲	-9.43955
解云	-9.44074
是因	-9.44148
我為	-9.44166
不盡	-9.4429
於佛	-9.44345
垂	-9.44391
為因	-9.44423
最勝	-9.44501
定慧	-9.44638
養	-9.44745
此明	-9.44836
能得	-9.44954
雖無	-9.45088
及諸	-9.4518
却	-9.4524
豈非	-9.45272
歷	-9.45592
鐵	-9.45608
貧窮	-9.45779
云何言	-9.45862
為眾生	-9.45912
聖道	-9.45932
如前	-9.46183
正見	-9.46292
為難	-9.46341
勢	-9.46351
作如是言	-9.46411
不復	-9.4645
天人	-9.46457
沙	-9.46465
曲	-9.46528
意者	-9.46548
都	-9.46568
釋迦	-9.46618
當得	-9.46624
之名	-9.4666
無別	-9.46738
為本	-9.46802
仰	-9.46938
賢	-9.46959
音聲	-9.46969
夢	-9.47021
無量眾生	-9.4705
二句	-9.47123
際	-9.4718
能壞	-9.47204
昔教	-9.47227
假使	-9.4724
故今	-9.47291
名無	-9.47385
驗	-9.47579
貧	-9.47607
慈心	-9.47779
雪山	-9.4794
聞已	-9.47997
元	-9.48249
之果	-9.48407
決	-9.48459
前二	-9.48498
初禪	-9.48594
一子	-9.48617
文為二	-9.48652
志	-9.487
別教	-9.48792
餓鬼	-9.48793
何不	-9.48884
有三種	-9.48931
一往	-9.48964
憐愍	-9.49015
十住菩薩	-9.49062
以其	-9.491
德王	-9.49181
多有	-9.49251
授	-9.49445
弘	-9.49503
亦云	-9.49531
是故如來	-9.49541
不取	-9.49544
試	-9.49552
初果	-9.49587
冷	-9.49594
無量無邊	-9.49623
斷善根	-9.49642
名色	-9.49692
男女	-9.49757
帝釋	-9.49788
池	-9.50045
色界	-9.50212
非非	-9.50353
典	-9.50422
貴	-9.50428
蒙	-9.50446
期	-9.50448
影	-9.50472
亦得	-9.50565
術	-9.50835
為我	-9.50877
舍利弗	-9.50985
守	-9.50991
果者	-9.51174
何所	-9.51276
魚	-9.514
難也	-9.514
若人	-9.51443
為體	-9.515
下舉	-9.51559
無所有	-9.51577
獲得	-9.51585
真我	-9.51587
四悉	-9.51589
見性	-9.51603
唯願	-9.51647
不成	-9.51653
而說	-9.51753
則非	-9.51994
令其	-9.52073
三明	-9.52076
赤	-9.52222
比丘尼	-9.52296
令人	-9.5232
不起	-9.52459
不空	-9.52503
士	-9.5252
為眾生故	-9.52567
恐怖	-9.52615
何處	-9.52671
然此	-9.52945
大士	-9.52946
念處	-9.53149
留	-9.53173
六種	-9.53178
謬	-9.53196
應有	-9.53468
▁二釋	-9.53469
濁	-9.53507
不聞聞	-9.53564
無異	-9.53584
無不	-9.53607
常為	-9.53678
福田	-9.53699
未能	-9.53835
○	-9.53848
何因緣故	-9.53924
作是念	-9.54091
一切煩惱	-9.54218
聽法	-9.54463
斷惑	-9.54484
發阿耨多羅三藐三菩提心	-9.54645
所知	-9.54662
忘	-9.54665
故有	-9.54726
憍陳如	-9.54784
變易	-9.54796
二解	-9.54823
貪著	-9.54937
亦然	-9.55102
牽	-9.55104
丈夫	-9.55145
三事	-9.55212
三千大千世界	-9.55397
若以	-9.55496
適	-9.555
摩訶	-9.55513
利根	-9.55568
由旬	-9.55579
此身	-9.55706
四教	-9.55769
文為三	-9.55785
二字	-9.5586
華嚴	-9.55872
如佛	-9.55915
合前	-9.55927
八種	-9.5607
阿那含	-9.56245
是以	-9.56268
任	-9.56384
慚愧	-9.56398
非想	-9.56441
何故不	-9.56469
第一義空	-9.56475
諸根	-9.56668
不名為	-9.56689
無數	-9.56777
興皇	-9.5688
畢	-9.56934
請佛	-9.56963
果也	-9.57029
得道	-9.57032
復作是念	-9.57194
輕重	-9.57307
融	-9.57348
呼	-9.57368
下是	-9.57444
身口	-9.57463
何況	-9.57465
隨意	-9.57504
不共	-9.57535
造作	-9.57553
滿足	-9.57627
階	-9.57841
番	-9.57844
逐	-9.57856
那含	-9.57869
仍	-9.57892
當知是	-9.57944
優婆夷	-9.57958
諸師	-9.58007
第一義諦	-9.58229
無性	-9.58245
而是	-9.5826
牙	-9.58284
舊云	-9.5833
濟	-9.58373
生因	-9.58407
是涅槃	-9.5865
不求	-9.58661
實諦	-9.58687
受苦	-9.58687
作業	-9.58739
佛為	-9.58771
云何為	-9.58889
義故	-9.58905
瘡	-9.58943
心者	-9.58952
少分	-9.58997
法也	-9.59074
病者	-9.59085
其餘	-9.59171
初句	-9.59177
意也	-9.59192
今文	-9.5922
諸有	-9.59226
能治	-9.59229
惡人	-9.59339
枝	-9.59365
汝等比丘	-9.59539
不依	-9.59581
蘇	-9.59726
如何	-9.59755
鏡	-9.59865
云何名	-9.59871
酒	-9.59932
身中	-9.60145
四人	-9.60165
諸佛如來	-9.60227
為他	-9.60254
意云	-9.60287
賣	-9.60338
皮	-9.60349
文字	-9.60373
樓	-9.60373
不可見	-9.60396
因中	-9.60528
自知	-9.60542
是故當知	-9.60609
八十	-9.60694
不久	-9.60772
騰	-9.60815
是故名為	-9.60946
遺	-9.61031
天眼	-9.61113
之意	-9.612
斷常	-9.61278
其性	-9.61596
去是	-9.61599
能除	-9.61637
王子	-9.6176
鹽	-9.61778
乃名	-9.61792
懼	-9.61836
是苦	-9.61926
泥洹	-9.61935
是有	-9.61984
此則	-9.62061
轉法輪	-9.62091
鈍	-9.62244
泥	-9.62268
一行	-9.62417
異法	-9.62619
背	-9.62638
七種	-9.62674
相即	-9.62737
得菩提	-9.62755
依止	-9.62821
所問	-9.62961
精	-9.63194
負	-9.63243
招	-9.63337
毘	-9.6345
有所	-9.63585
礙	-9.6366
道品	-9.637
徒	-9.63738
蛇	-9.63814
無學	-9.63817
次答	-9.63857
修多羅	-9.63867
斷善	-9.63908
大師	-9.63931
問曰	-9.63965
無罪	-9.64073
言無	-9.64114
血	-9.64338
解脫者	-9.64348
法師	-9.64413
纏	-9.64414
酥	-9.64438
▁二合	-9.64519
十五	-9.64606
今以	-9.64684
通別	-9.64685
法相	-9.64691
寶藏	-9.64855
毗	-9.64855
伴	-9.64913
唱言	-9.64987
之與	-9.65044
羅剎	-9.65059
端	-9.65098
肉眼	-9.65101
闍	-9.6511
正義	-9.65145
釋之	-9.65205
十種	-9.65206
經律	-9.65234
傍	-9.65238
云何得	-9.65244
其身	-9.65303
五者	-9.65551
酬	-9.65558
一法	-9.65701
一切皆	-9.6589
群	-9.6589
此人	-9.65933
吉	-9.65966
書寫	-9.6597
付囑	-9.65999
微塵	-9.66046
國王	-9.66142
此言	-9.66156
誓	-9.66223
可解	-9.66227
勸修	-9.66305
臨	-9.66316
契	-9.66367
次合	-9.66378
非因	-9.66389
四相	-9.66443
帝	-9.66572
病人	-9.66577
一種	-9.66623
狂	-9.66625
流通	-9.6666
疏主	-9.667
相者	-9.66871
聞是	-9.66884
中先	-9.66946
病苦	-9.66966
交	-9.66977
投	-9.66998
半字	-9.67007
床	-9.67022
是我	-9.67075
少欲	-9.67078
若我	-9.67129
▁三結	-9.67254
都無	-9.67322
善男子譬如	-9.6734
法說	-9.67353
令得	-9.67424
尸	-9.67492
利他	-9.67519
髮	-9.6754
▁○	-9.67555
若得	-9.67634
阿修羅	-9.67655
薄	-9.67674
何緣	-9.67676
合譬	-9.67688
後明	-9.6771
善星	-9.67715
五大	-9.67729
是無	-9.6786
即得	-9.67903
正道	-9.68099
得涅槃	-9.68204
果性	-9.68232
受生	-9.68281
云何而言	-9.6839
七日	-9.6849
天子	-9.6857
辦	-9.68738
云何菩薩	-9.68779
勅	-9.68844
醉	-9.68923
四重	-9.68966
梵志	-9.68974
所證	-9.68991
自身	-9.6901
圓教	-9.69015
以下	-9.69063
世法	-9.69079
跡	-9.69134
尊重	-9.69234
斷除	-9.69331
二義	-9.69346
是實	-9.69379
空者	-9.69423
應供	-9.69439
有兩	-9.69539
自下第二	-9.69546
憂悲	-9.69552
太	-9.69613
後二	-9.69678
」【	-9.69761
昔日	-9.69781
緣起	-9.70003
若欲	-9.70031
詮	-9.70128
守護	-9.70144
焉	-9.70152
喪	-9.70161
道者	-9.70174
拘	-9.70182
堪	-9.70221
入於	-9.70232
五戒	-9.70287
汝言	-9.703
那羅延	-9.70352
能作	-9.70354
迦葉菩薩白佛言世尊	-9.70464
諸人	-9.70483
有十	-9.70666
秊	-9.70677
竪	-9.70744
降伏	-9.70804
一切智	-9.70934
累	-9.70936
廣釋	-9.70985
滅盡	-9.71066
在家	-9.71123
慶	-9.71183
天上	-9.71247
顯示	-9.71323
三十七品	-9.71371
未生	-9.71521
有大	-9.71524
六入	-9.71616
譏	-9.71696
乞	-9.71704
公	-9.71761
弱	-9.71783
葢	-9.71856
之本	-9.71909
涅槃者	-9.71922
聞見	-9.71926
涅槃經	-9.72071
會通	-9.72304
訓	-9.7237
a	-9.72533
祕密	-9.72539
不在	-9.72546
彼岸	-9.72665
下就	-9.72667
常法	-9.72683
何等為	-9.72719
第三明	-9.7274
非常	-9.72761
波羅蜜	-9.72836
是則名為	-9.72874
之物	-9.72916
鹿	-9.72941
時節	-9.72963
不放逸	-9.73279
我身	-9.73312
既無	-9.73331
觀行	-9.73334
非一	-9.73413
不自	-9.73433
涅槃是	-9.73491
耆婆	-9.73494
準	-9.7353
角	-9.73617
草木	-9.73658
無所得	-9.7388
捨離	-9.73921
前中	-9.73944
我言	-9.74009
四門	-9.74013
代	-9.74046
苦諦	-9.74194
獄	-9.74319
是中	-9.7437
空中	-9.74435
二隨釋	-9.74442
迴	-9.74516
生者	-9.74692
聽受	-9.7487
說之	-9.74884
二釋	-9.74906
如是之人	-9.7493
四事	-9.75025
正釋	-9.75043
若論	-9.75176
不變	-9.7519
折	-9.75193
不至	-9.7522
能滅	-9.75233
不食	-9.75277
三品	-9.75278
作如是	-9.75394
難破	-9.75403
云何說言	-9.75408
不用	-9.75411
不實	-9.75507
同於	-9.75587
詣	-9.75618
滅諦	-9.75632
堂	-9.75707
苦集	-9.75729
遷	-9.75762
建立	-9.75844
懺悔	-9.75871
一切世間	-9.75945
是諸	-9.76069
仁	-9.76142
今云	-9.76272
不以	-9.76327
夏	-9.7634
愍	-9.76394
倍	-9.76405
佛所說	-9.76431
雖不	-9.76444
▁二明	-9.76468
醎	-9.76496
一闡提輩	-9.7653
覩	-9.76597
名大涅槃	-9.76653
為諸眾生	-9.76697
兵	-9.76749
不與	-9.76863
如我	-9.76872
若有比丘	-9.76945
昇	-9.76972
諸經	-9.7705
十善	-9.77087
善哉善哉	-9.77147
各異	-9.77203
喻中	-9.77203
彰其	-9.77271
況復	-9.77287
之教	-9.77314
下答	-9.77373
過患	-9.77382
護持	-9.77417
凡聖	-9.7742
稟	-9.77541
覺知	-9.77549
蜜	-9.77565
既云	-9.7758
四果	-9.77663
長行	-9.77793
配	-9.77975
擇	-9.78029
訶	-9.78039
分真	-9.78086
三番	-9.78087
舌	-9.78142
之用	-9.78147
暫	-9.7815
如來藏	-9.78159
一偈	-9.78201
發菩提心	-9.7825
教化	-9.78289
無間	-9.78469
此亦	-9.78602
行人	-9.78702
豈可	-9.78742
斯陀含	-9.7882
無復	-9.78864
亦能	-9.79038
百千	-9.79058
又二先	-9.79107
非實	-9.79116
之體	-9.79123
空空	-9.79176
別有	-9.79247
缺	-9.79247
運	-9.79267
自下第三	-9.79318
申	-9.79337
步	-9.79352
不樂	-9.79363
後結	-9.79463
若有說言	-9.79631
更無	-9.79699
正念	-9.79759
非常非無常	-9.79902
衰	-9.79927
洗	-9.79957
中有四	-9.8016
又解脫者	-9.80311
今者	-9.80353
通教	-9.80458
四眾	-9.80459
而能	-9.80478
而今	-9.8057
咎	-9.80583
恒河	-9.8061
初一	-9.80615
正解	-9.80668
?「	-9.80693
言我	-9.80731
明了	-9.80778
滅後	-9.80778
如來世尊	-9.80794
不言	-9.80813
希有	-9.80817
演	-9.80999
二法	-9.81035
併	-9.81089
誦	-9.8147
無閡	-9.81479
明無	-9.8151
或云	-9.81563
生疑	-9.81673
為實	-9.81719
四方	-9.81782
上上	-9.81786
應知	-9.81801
天行	-9.81837
放光	-9.81853
炷	-9.81866
衣服	-9.81922
及與	-9.81962
污	-9.82048
食肉	-9.82195
修善	-9.82249
應身	-9.82255
俗諦	-9.82258
於一	-9.82295
彌勒	-9.82345
誠	-9.82372
。」【△	-9.82498
巳上	-9.82596
此釋	-9.82652
別體	-9.82653
為兩	-9.82687
通達	-9.82696
為喻	-9.82733
為人	-9.82776
灰	-9.82798
凡有	-9.82885
讓	-9.82897
活	-9.829
請住	-9.82936
右	-9.82938
摧	-9.82952
受報	-9.82955
初文者	-9.82955
複	-9.82978
箭	-9.83072
真解脫者即是如來	-9.83083
潤	-9.83107
有異	-9.83179
智斷	-9.83315
無能	-9.83378
注	-9.83397
今昔	-9.83459
闕	-9.83505
破之	-9.83518
施主	-9.83561
借	-9.83565
盜	-9.83605
所成	-9.83748
佛身	-9.83758
第二段中	-9.83761
善解	-9.83768
師子吼言	-9.83818
捨身	-9.83856
一諦	-9.8388
猶是	-9.83883
十二緣	-9.83926
所為	-9.83929
一切凡夫	-9.83991
先問	-9.83994
儀	-9.84072
毒蛇	-9.84122
善女人	-9.84149
為緣	-9.84167
我者	-9.84197
不見佛性	-9.84205
舍宅	-9.84246
瓔珞	-9.8426
蓮華	-9.84277
自有	-9.84298
有罪	-9.84318
令彼	-9.84334
不著	-9.84412
得自在	-9.84439
復作是言	-9.84441
因也	-9.84569
陳	-9.84658
今言	-9.84667
番問答	-9.84824
龍王	-9.8493
佛意	-9.84951
往昔	-9.85021
前文	-9.85067
三塗	-9.85214
即以	-9.85245
念念	-9.85277
之說	-9.85293
九界	-9.85338
邪正	-9.85499
居士	-9.85501
底	-9.85508
亦當	-9.85508
誹謗	-9.85509
毒藥	-9.85526
是故我	-9.856
此等	-9.85665
若有菩薩	-9.85689
眾生佛性	-9.85923
秘藏	-9.85992
河西	-9.86
之因	-9.86007
語言	-9.86089
御	-9.8609
客	-9.86126
太子	-9.86178
渡	-9.86187
阿含	-9.86217
六波羅蜜	-9.86366
中無	-9.86533
下正釋	-9.86584
諸弟子	-9.86612
作者	-9.8662
本性	-9.86687
無始	-9.86836
悉能	-9.8684
六根	-9.86871
離諸	-9.86896
良	-9.86959
將欲	-9.8703
問也	-9.87168
互相	-9.87263
善能	-9.87305
捉	-9.8736
就初	-9.87367
入滅	-9.87387
令我	-9.87393
愧	-9.87394
生故	-9.87448
常故	-9.87472
惡道	-9.87488
滅惡	-9.87595
恒河沙	-9.8773
心生	-9.87753
為五	-9.87763
取著	-9.87991
侍	-9.88013
穀	-9.88106
▁「	-9.88255
不生生	-9.88287
有法	-9.88442
眾中	-9.88477
之異	-9.88646
幾	-9.88663
今初	-9.88666
了了	-9.88723
吐	-9.8874
復有二種	-9.88744
既不	-9.88798
前四	-9.88922
是義云何	-9.88955
一實	-9.89004
其實	-9.89083
三點	-9.89228
智人	-9.89289
▁初譬	-9.89341
何須	-9.89361
懈怠	-9.89376
壯	-9.89383
欣	-9.89385
栴檀	-9.8943
次從	-9.89494
復說	-9.8958
半偈	-9.89589
知是	-9.89606
下正	-9.89696
喻於	-9.89747
是色	-9.89928
不別	-9.89978
去來	-9.8998
亦復不	-9.89994
帶	-9.89996
野	-9.90005
講	-9.9004
誑	-9.90067
泉	-9.90077
二十五	-9.90158
為大	-9.90162
驚	-9.90191
答問	-9.90237
名不	-9.90285
佛性亦爾	-9.90463
暴	-9.90524
不捨	-9.90563
委	-9.90615
嗔	-9.90628
彈	-9.90632
隔	-9.90662
愁	-9.90685
乏	-9.90717
園	-9.9074
故能	-9.90792
般若波羅蜜	-9.90815
事理	-9.90893
生貪	-9.90897
住於	-9.90905
我於爾時	-9.90945
微密	-9.90952
是知	-9.90956
不犯	-9.90991
虗妄	-9.90993
非真	-9.91023
人法	-9.91041
▁五	-9.911
禁戒	-9.91114
無病	-9.91233
涉	-9.91326
未盡	-9.91327
中說	-9.91345
竭	-9.91381
作惡	-9.91389
非眾生	-9.91549
得失	-9.91573
釋中	-9.91637
受身	-9.91646
眾苦	-9.91726
默	-9.91783
之道	-9.91803
眠	-9.91883
落	-9.91895
復以	-9.91899
特	-9.91924
婬	-9.9196
說無	-9.91993
無緣	-9.92029
三千	-9.92056
笑	-9.9207
惡法	-9.92085
不能得	-9.92088
呵責	-9.92144
不現	-9.92146
下示	-9.92163
槃	-9.92191
東方	-9.92203
生天	-9.92251
無定	-9.92254
生信	-9.92279
而說偈言	-9.92286
端正	-9.92319
三十二相	-9.92333
已得	-9.92409
以釋	-9.92441
初云	-9.92452
計我	-9.92461
但云	-9.92685
所依	-9.92739
惜	-9.9275
呪術	-9.9279
是大涅槃	-9.92799
說者	-9.92801
免	-9.92926
一切眾生悉有佛性	-9.92958
一名	-9.92961
出生	-9.93023
釋義	-9.93048
於諸眾生	-9.93203
夫人	-9.93209
三義	-9.9324
博	-9.93324
名義	-9.93375
春	-9.93384
唯佛	-9.93411
羯磨	-9.93411
漸漸	-9.93432
則應	-9.93453
民	-9.93479
義同	-9.93517
不及	-9.93543
如來為	-9.9355
自生	-9.93678
觀於	-9.93684
我時	-9.93693
。】	-9.93717
對前	-9.93722
五逆	-9.93829
悉得	-9.93866
曇	-9.93993
必有	-9.94006
防	-9.94012
最上	-9.94055
等是	-9.94165
真俗	-9.94185
正遍知	-9.94247
修慧	-9.94406
煖	-9.94413
密語	-9.94441
不聽	-9.94512
從此	-9.94536
眾生有	-9.94576
佛道	-9.94604
木叉	-9.94712
乾	-9.94773
登	-9.94806
滅者	-9.94811
中有三	-9.94884
合掌	-9.949
必定	-9.94985
答中	-9.95031
仁者	-9.95126
前品	-9.95199
五塵	-9.95263
作佛	-9.95298
榮	-9.95405
乳中	-9.95437
為涅槃	-9.95444
載	-9.95471
舊解	-9.95473
賢聖	-9.95473
飛	-9.95478
所修	-9.95592
云何當	-9.95646
無非	-9.95862
我是	-9.95864
難得	-9.95869
無住	-9.95902
大德	-9.9592
之後	-9.95949
大品	-9.95968
不足	-9.95977
君	-9.96104
狗	-9.96181
琉璃	-9.96201
愚人	-9.9622
室	-9.96233
聚落	-9.96282
依法	-9.96301
如來說	-9.96301
一問	-9.96359
私謂	-9.96368
威	-9.96388
還是	-9.96428
點	-9.96515
如法	-9.96576
今教	-9.96586
妙覺	-9.9659
眾僧	-9.9664
實有	-9.96661
下別	-9.96685
若從	-9.967
質	-9.96712
契經	-9.96713
涅槃之	-9.96763
解脫亦爾	-9.96771
惠	-9.96775
見有	-9.96791
尚不	-9.96801
伊	-9.96857
一體三寶	-9.96888
慧眼	-9.96953
勤修	-9.96981
心中	-9.96986
是大	-9.97159
久住	-9.97175
次列	-9.97222
四念處	-9.97298
船	-9.97503
源	-9.97543
〔	-9.97554
有無量	-9.97555
靈	-9.97588
見諦	-9.97616
十界	-9.97627
此翻	-9.97646
信受	-9.9771
或復	-9.97716
棺	-9.97717
祕密藏	-9.9775
無疑	-9.97826
兩句	-9.97917
問言	-9.9801
頌	-9.98039
▁初釋	-9.98057
權實	-9.9812
善心	-9.98243
處處	-9.98259
顧	-9.98298
願諸眾生	-9.98321
下對	-9.98347
須彌	-9.98378
於如來	-9.98464
不覺	-9.98522
此四	-9.98599
上文	-9.98621
沈	-9.98816
無知	-9.98835
耶答	-9.98872
即為	-9.98886
離於	-9.9889
而來	-9.98929
若聞	-9.9893
自利	-9.98943
知法	-9.99018
疏云	-9.99034
罵	-9.99034
戒者	-9.99073
有四種	-9.99092
再	-9.99094
出世間	-9.99115
戰	-9.99117
無果	-9.99188
心故	-9.99238
空寂	-9.99241
三十	-9.99247
五道	-9.99314
以無	-9.99393
如來性	-9.99487
神力	-9.99499
能問	-9.9959
五時	-9.99637
亦名為	-9.99844
鬼神	-9.99848
犢子	-9.99931
之德	-9.99945
地前	-9.99956
財物	-9.9998
未曾	-9.99983
疑網	-10
殺害	-10.0017
所須	-10.0021
是法	-10.0028
先牒	-10.0034
布	-10.0036
恚	-10.004
善修	-10.0048
若約	-10.0052
無所畏	-10.0056
作譬	-10.006
十九	-10.0061
芽	-10.0062
唯除	-10.007
墮地獄	-10.0077
見聞	-10.0079
淺深	-10.0079
展轉	-10.0085
生不生	-10.0099
下隨文釋義	-10.0102
不具足	-10.0103
此法	-10.0106
諍論	-10.0108
抑	-10.0113
稱為	-10.0113
見已	-10.0114
初番	-10.0116
下引	-10.0117
禁	-10.0117
敷	-10.0118
諦聽	-10.0118
連	-10.0123
浮	-10.0123
應是	-10.0126
附	-10.0127
迦葉菩薩復白佛言	-10.0133
轉輪聖王	-10.0138
豈得	-10.0139
▁初正	-10.0142
可斷	-10.0147
▁釋	-10.0162
得名為	-10.0167
受用	-10.017
無想	-10.0172
色心	-10.0179
有時	-10.018
是義	-10.0182
妙藥	-10.0194
『	-10.0196
急	-10.0197
藉	-10.0197
妄語	-10.0201
漿	-10.0202
羊	-10.0206
是菩薩	-10.0213
之善	-10.022
二事	-10.0232
時有	-10.0242
成道	-10.0242
不來	-10.0246
就前	-10.0264
謙	-10.0265
虫	-10.0266
佛教	-10.0267
病行	-10.0268
廢	-10.0271
撿	-10.0274
割	-10.0277
該	-10.0278
獼猴	-10.028
從緣	-10.0286
五果	-10.0296
略說	-10.0297
故使	-10.0309
諸菩薩等	-10.0312
快樂	-10.0319
牒前	-10.0328
止觀	-10.033
戒定慧	-10.0334
極果	-10.0335
諸結	-10.034
我亦如是	-10.0344
寒	-10.0348
減	-10.035
茲	-10.0351
猶未	-10.0351
甜	-10.0355
雖知	-10.0356
分明	-10.0356
汙	-10.0356
戲論	-10.0357
鼓	-10.0357
提婆達多	-10.0358
二果	-10.0361
所計	-10.0361
四心	-10.0361
鈍根	-10.0363
無法	-10.0382
續	-10.0382
樹下	-10.0384
初先	-10.0389
不思	-10.0394
說是	-10.0409
所受	-10.0412
嬰兒行	-10.0421
煞	-10.0422
杖	-10.0429
道理	-10.0433
到彼岸	-10.044
獸	-10.0441
九十	-10.0447
而非	-10.0451
有得	-10.0461
謂之	-10.0474
象力	-10.0475
果果	-10.0479
瑞	-10.0485
觀師	-10.0492
索	-10.0493
禮拜	-10.0494
經中說	-10.05
在此	-10.05
詳	-10.0503
玅	-10.0507
毛孔	-10.0509
初依	-10.0512
金銀	-10.0513
手足	-10.0518
有苦	-10.0518
同一	-10.0523
是有為	-10.0531
流布	-10.0532
昔說	-10.0533
引證	-10.0534
其文	-10.0536
古人	-10.0539
慧命	-10.054
無常者	-10.0542
是故下結	-10.0548
無智	-10.0549
方名	-10.0552
哉	-10.0554
戒律	-10.0555
於生死	-10.0557
有八	-10.0559
故稱	-10.0563
道諦	-10.0571
停	-10.0573
菩提心	-10.0573
越	-10.0575
曉	-10.0583
彼佛	-10.0586
八萬四千	-10.0588
豎	-10.0594
世王	-10.0597
十德	-10.0598
一相	-10.0598
欲明	-10.0601
得脫	-10.0602
小兒	-10.0603
意在	-10.0609
非但	-10.061
臥具	-10.0612
可以	-10.0617
等覺	-10.0618
苦者	-10.0622
能令眾生	-10.0623
欲得	-10.0628
即是如來	-10.0629
為正	-10.063
檀波羅蜜	-10.0633
無常想	-10.0638
而此	-10.064
誓願	-10.0645
未見	-10.0654
大河	-10.0656
相也	-10.0657
測	-10.0662
謂佛	-10.0664
度脫	-10.0665
其體	-10.0671
不相	-10.0681
得入	-10.0682
有此	-10.0687
聞不聞	-10.0692
岸	-10.0692
知識	-10.0696
不到	-10.0704
定說	-10.071
機緣	-10.0715
不敢	-10.0727
孔	-10.0733
師云	-10.0733
初段	-10.0738
唯願如來	-10.0741
敗	-10.0745
愛念	-10.0751
剎利	-10.0754
則名	-10.0761
何謂	-10.077
五十	-10.0783
皆得	-10.0784
答上	-10.0794
釋言	-10.0795
不如	-10.0796
且約	-10.0802
眼識	-10.0806
二約	-10.0807
亦說	-10.0809
寺	-10.081
樹木	-10.0815
帖	-10.0816
積聚	-10.082
王舍城	-10.0821
所持	-10.0822
現世	-10.0826
▁初標	-10.083
正覺	-10.0834
天王	-10.0834
如來常	-10.0834
集諦	-10.0836
雙照	-10.0838
樂者	-10.0839
即真解脫	-10.0841
能說	-10.0842
相生	-10.0848
則知	-10.085
十七	-10.0851
常也	-10.0851
三毒	-10.0852
不令	-10.0853
定無	-10.0863
般泥洹	-10.0869
若定	-10.087
我即	-10.0872
知其	-10.0873
見道	-10.088
立名	-10.0881
佉	-10.0883
一處	-10.0885
聞佛	-10.0886
慮	-10.0886
修學	-10.0886
十二部	-10.0886
殘	-10.0887
其相	-10.0889
王言	-10.0892
明佛性	-10.0892
墜	-10.0894
打	-10.0903
飢	-10.0905
塔	-10.0906
多少	-10.0907
河西云	-10.0914
左	-10.0916
迦葉復言	-10.0918
解義	-10.0924
如來常住	-10.0925
無淨	-10.0931
▁初約	-10.0937
住世	-10.0946
慳	-10.0947
後身	-10.095
乃能	-10.0952
何等名為	-10.0955
上下	-10.0963
作是言	-10.0965
三觀	-10.0971
吼	-10.0974
徹	-10.0975
睡眠	-10.0975
篇	-10.0976
卒	-10.0979
陀羅尼	-10.098
輩	-10.098
龜	-10.098
汝今不應	-10.0981
增上	-10.0981
奴婢	-10.0985
憑	-10.0987
不墮	-10.0988
約就	-10.0989
解說	-10.1
下破	-10.1
七人	-10.1007
如來所	-10.1013
知見覺	-10.1017
明有	-10.1035
廣大	-10.1038
亦同	-10.1051
〕	-10.1052
與前	-10.1054
追	-10.1059
作是說	-10.1061
九地	-10.1066
空無	-10.1071
法寶	-10.1071
.	-10.1071
療治	-10.1075
隨其	-10.1077
既是	-10.1078
不許	-10.1082
了知	-10.1082
同體	-10.109
名也	-10.1091
化眾生	-10.1094
依正	-10.1094
能持	-10.1095
既有	-10.1105
我若	-10.1112
生起	-10.1117
初總	-10.1121
不死	-10.1121
侵	-10.114
惟	-10.114
濫	-10.1141
塞	-10.1143
汝當	-10.1148
莖	-10.1148
▁二譬	-10.1149
地動	-10.1153
身命	-10.1154
別相	-10.1159
蓮花	-10.1161
略舉	-10.1163
難可	-10.1166
非涅槃	-10.1167
若非	-10.1167
上說	-10.1169
實是	-10.1169
乳酪	-10.1178
佛以	-10.1181
先說	-10.1189
行也	-10.1195
定執	-10.1206
見色	-10.1217
為最	-10.122
四魔	-10.122
令他	-10.1221
納	-10.1224
烏	-10.1227
放捨	-10.1233
如汝所言	-10.1233
緣生	-10.1239
財寶	-10.1241
能觀	-10.1241
善友	-10.1247
即空	-10.125
當為	-10.1253
無窮	-10.1256
少見	-10.1262
解者	-10.1265
勢力	-10.1266
是非	-10.1268
分段	-10.1273
煗	-10.1274
喻佛	-10.1276
羅睺羅	-10.1288
無色界	-10.1294
逼	-10.1298
斷一切	-10.1304
揚	-10.1306
建	-10.1306
勞	-10.1306
如來之身	-10.1308
醫藥	-10.1318
總別	-10.1324
斷結	-10.1327
三十二	-10.1327
寶珠	-10.1329
發起	-10.1329
初後	-10.133
八聖道	-10.1331
須陀洹人	-10.1332
斷見	-10.1333
乃得	-10.1337
六塵	-10.1347
故如經	-10.135
三惡	-10.135
其意	-10.1353
境智	-10.1357
有為法	-10.137
界外	-10.1374
忽	-10.1377
破其	-10.138
譬喻	-10.1382
滅故	-10.1385
下佛答之	-10.1393
卑	-10.1398
畫	-10.1399
渴	-10.14
與佛	-10.1403
犯四重禁	-10.1406
有因	-10.1414
不堪	-10.1424
之力	-10.1424
佛及	-10.1425
果故	-10.1438
今說	-10.1445
善不善	-10.1449
後三	-10.1455
不答	-10.1458
體性	-10.1458
故不可	-10.1461
方得	-10.1463
中有二	-10.1464
若說	-10.1466
給	-10.1472
此土	-10.1473
吸	-10.1475
清涼	-10.1475
異解	-10.1478
心數	-10.1478
菓	-10.1482
五難	-10.1484
諸漏	-10.1489
別釋	-10.1511
流轉	-10.1514
與彼	-10.1516
名涅槃	-10.152
金剛三昧	-10.1522
此意	-10.1529
從初	-10.153
諸聲聞	-10.1535
餘人	-10.154
猶有	-10.1542
我昔	-10.1544
鹹	-10.1547
為常	-10.1549
託	-10.1555
今謂	-10.1557
下文云	-10.1559
今當	-10.156
屈	-10.156
二俱	-10.1563
詞	-10.1565
至於	-10.1574
復名	-10.1577
結成	-10.158
巳得	-10.1583
想者	-10.1584
移	-10.1587
淨土	-10.159
雖見	-10.1594
則不能	-10.1594
然後乃	-10.1601
五句	-10.1602
獻供	-10.1606
初釋	-10.1609
諸天人	-10.1613
左右	-10.1619
相故	-10.1622
一品	-10.1624
鼻	-10.1644
束	-10.1649
有生	-10.165
飢渴	-10.1652
疑心	-10.1668
又言	-10.1669
名為佛性	-10.1671
目連	-10.1671
相貌	-10.1676
初標	-10.1683
令眾生	-10.169
有何	-10.1696
念佛	-10.1697
度者	-10.1697
非道	-10.1699
因故	-10.1703
因性	-10.1703
是故我說	-10.1703
常修	-10.171
成論	-10.1713
說我	-10.1713
他方	-10.1714
具足成就	-10.172
幢	-10.1721
得度	-10.1725
稍	-10.1727
當來	-10.1728
即前	-10.1728
因是	-10.1729
法忍	-10.173
以大	-10.1733
預	-10.1741
男子	-10.1744
人所	-10.1752
如來所說	-10.1755
天魔	-10.1763
僧寶	-10.1763
非三世	-10.1764
有樂	-10.1767
色相	-10.1771
之業	-10.1784
隨機	-10.1788
作此	-10.1789
修集	-10.1791
重明	-10.1793
一切諸佛	-10.1794
常見	-10.18
陵	-10.1816
一事	-10.1819
實法	-10.1823
詐	-10.1827
轉輪王	-10.1831
得大	-10.1835
受持讀誦	-10.184
名大	-10.1843
如來身	-10.1844
歎經	-10.1845
上妙	-10.1849
色者	-10.1855
阿闍世王	-10.1862
自下	-10.1866
汝所	-10.1881
二因	-10.1887
優	-10.1889
真常	-10.1898
是第二	-10.1901
天竺	-10.1904
滯	-10.1905
世俗	-10.1909
以喻	-10.1911
如世間	-10.1912
豈有	-10.1913
回	-10.1913
頗	-10.1915
是無為	-10.1916
成前	-10.192
圓融	-10.192
佛菩薩	-10.1925
天中天	-10.1927
而起	-10.1927
魔波旬	-10.1927
啼哭	-10.1928
三障	-10.1934
合上	-10.1948
法僧	-10.1956
聲聞弟子	-10.1965
之文	-10.197
合為	-10.1971
共行	-10.1972
入地獄	-10.1974
今家	-10.1976
仙人	-10.1979
聞說	-10.1986
偏說	-10.1991
於中初先	-10.1995
秋	-10.1996
氏	-10.1997
就初段中	-10.2
經典	-10.2002
六者	-10.2006
佛法中	-10.2007
言有	-10.2007
於法	-10.201
乾闥婆	-10.2017
異者	-10.2018
未至	-10.2029
不次第	-10.2029
百年	-10.2036
淨名	-10.2036
飾	-10.204
迦葉白佛	-10.2044
喻如	-10.2048
梵王	-10.2052
後釋	-10.2056
六行	-10.2058
具有	-10.2059
初難	-10.206
見思	-10.2064
萬行	-10.2066
有七	-10.2068
名須陀洹	-10.2075
通名	-10.2077
固	-10.2085
利鈍	-10.2092
次舉	-10.2093
苦果	-10.2093
證成	-10.2097
糞	-10.2097
諸凡夫	-10.2097
初心	-10.2099
不解我意	-10.2102
道場	-10.2108
四無礙	-10.2113
性是	-10.2115
為勝	-10.2118
謂是	-10.2121
其子	-10.2123
開示	-10.2124
除滅	-10.2132
故屬	-10.2146
大智	-10.2151
意業	-10.2162
所明	-10.217
三禪	-10.217
抱	-10.2173
梨	-10.2178
不入	-10.2179
【	-10.2181
圓常	-10.2183
應作	-10.2184
研	-10.2186
非因非果	-10.2188
澤	-10.2189
刺	-10.2191
善逝	-10.2197
之想	-10.2199
無得	-10.2202
精勤	-10.2205
不觀	-10.2213
此事	-10.2214
後四	-10.2216
後合	-10.2217
作因	-10.2218
滅也	-10.2223
是真	-10.2227
因緣者	-10.2233
今解	-10.224
其有	-10.2253
受供	-10.2259
婦	-10.2262
無常等	-10.2271
坑	-10.2271
他解	-10.2272
大乘經典	-10.2274
遲	-10.2276
讀	-10.2277
之類	-10.2278
懺	-10.2278
幡蓋	-10.2289
隨順世間	-10.2294
說偈	-10.2315
性故	-10.2317
不生不滅	-10.232
隱顯	-10.2328
有因緣故	-10.2339
聞者	-10.2339
水中	-10.2344
波羅	-10.2353
入道	-10.2356
驅	-10.2359
行處	-10.2361
蘭	-10.2364
下重	-10.2368
於常	-10.2371
碎	-10.2371
滿月	-10.2374
漂	-10.2377
微細	-10.2377
本有今無	-10.2384
後之	-10.2387
一就	-10.2388
釋經	-10.2396
亦為	-10.2398
北方	-10.2398
例如	-10.24
初舉	-10.2401
若有人	-10.2404
問者	-10.2409
先釋	-10.2413
大人	-10.2419
如意	-10.2433
空也	-10.2437
因緣生	-10.2444
勸問	-10.2451
犯戒	-10.2454
觀身	-10.246
業果	-10.246
淚	-10.2461
買	-10.2463
之問	-10.2464
稽首佛足	-10.2468
須䟦	-10.2471
口業	-10.2476
獻	-10.2484
若佛	-10.2484
賤	-10.249
為譬	-10.2492
此問	-10.2496
唯一	-10.2498
異故	-10.2498
說此偈	-10.2506
本來	-10.2506
陀羅	-10.2515
難意	-10.2517
常身	-10.2527
觀智	-10.253
弟	-10.2537
法體	-10.2539
受畜	-10.2543
無上道	-10.2546
法要	-10.2548
赴	-10.2553
不論	-10.2555
市	-10.2555
疎	-10.2556
統	-10.2556
文為四	-10.2559
良以	-10.2559
不能自	-10.2565
老死	-10.2567
安置	-10.2568
滅除	-10.257
三修	-10.2576
現報	-10.258
九部	-10.2581
謗法	-10.2582
共相	-10.2587
章安	-10.2588
又如	-10.2588
我聞	-10.2589
於世	-10.2589
體用	-10.259
還生	-10.2599
異也	-10.2608
此方	-10.2608
修慈	-10.2612
非苦	-10.2612
下以	-10.2613
相成	-10.2618
常義	-10.2628
首楞嚴	-10.263
倒想	-10.2632
譬中	-10.2634
橫計	-10.264
局	-10.2646
擬	-10.2646
歌	-10.2648
早	-10.2648
從佛	-10.265
羸	-10.2655
長養	-10.2658
無垢	-10.2659
心性	-10.2659
迴向	-10.266
憶念	-10.2661
雙結	-10.2665
我已	-10.2669
於前	-10.2673
第三段中	-10.2675
諸苦	-10.2676
無量劫	-10.2681
常存	-10.2684
趣向	-10.2693
異說	-10.2698
結前	-10.2704
以之為	-10.2708
非內非外	-10.2712
得罪	-10.2719
圓滿	-10.2725
與樂	-10.2725
之色	-10.2725
前明	-10.2726
非一切	-10.273
云何菩薩摩訶薩	-10.2731
雙樹	-10.2732
軟	-10.2735
行苦	-10.2735
問佛	-10.2736
里	-10.2737
貫	-10.2739
陳如	-10.2741
為眾	-10.2741
狹	-10.2741
自在天	-10.2742
有退	-10.2745
我無我	-10.2749
作大	-10.2751
根性	-10.2751
不退轉	-10.2751
門中	-10.2752
蟲	-10.2753
炎	-10.2755
第三句	-10.2758
說也	-10.2761
色陰	-10.2761
一字	-10.2763
第二句	-10.2763
此名	-10.2777
或有說言	-10.2778
問中	-10.2785
已下明	-10.2786
餘三	-10.2788
眾德	-10.279
重罪	-10.2791
四十	-10.2798
得住	-10.2799
次別	-10.28
四分	-10.2809
一邊	-10.2811
依經	-10.2811
諸善	-10.2822
性者	-10.2825
不能知	-10.2827
不悔	-10.283
不必	-10.283
祕	-10.2831
斷疑	-10.2835
而巳	-10.2845
愁惱	-10.285
孝	-10.285
此理	-10.285
為苦	-10.2851
剎	-10.2853
先問次答	-10.2856
即無	-10.2856
己身	-10.2857
文略	-10.2858
乞食	-10.2859
有智之人	-10.2859
迦葉言	-10.2862
隨緣	-10.2862
三譬	-10.2865
令汝	-10.2872
應以	-10.2875
初言	-10.2876
神足	-10.2877
還得	-10.2885
若言如來	-10.2888
當果	-10.289
苦因	-10.2891
次譬	-10.2893
即能	-10.2893
濕	-10.2908
為上	-10.2917
六句	-10.2918
十法	-10.2922
分證	-10.2924
定知	-10.2933
正難	-10.2933
腹	-10.2935
之過	-10.2935
冠	-10.2935
法王	-10.2937
脚	-10.2937
熏	-10.2938
利養	-10.2939
為證	-10.2941
三惡道	-10.2945
先喻後合	-10.2945
以理	-10.2946
不絕	-10.2957
種性	-10.2957
佛眼	-10.2959
亦無常	-10.296
但以	-10.2963
有自性	-10.2964
云何知	-10.2966
問意	-10.2968
三問	-10.298
體是	-10.2981
意謂	-10.2981
釋也	-10.2982
對破	-10.2987
諸佛境界	-10.2989
我諸弟子	-10.2994
字義	-10.2997
一義	-10.3008
則不得	-10.301
】	-10.3014
滿字	-10.3015
界內	-10.3016
七善	-10.3017
稱歎	-10.302
催	-10.3025
常在	-10.303
十五日	-10.3033
今有	-10.3037
總標	-10.3038
菩薩爾時	-10.304
薪	-10.3041
一劫	-10.3041
芥子	-10.3048
三釋	-10.305
若知	-10.305
俱有	-10.3053
▁二問	-10.3055
如世	-10.3058
亦常	-10.3067
令諸眾生	-10.3071
佛是	-10.3077
喻之	-10.3088
次辨	-10.3092
我弟子	-10.3095
私	-10.3104
外人	-10.3107
下即	-10.3114
聞經	-10.3116
故此	-10.3117
我以	-10.3118
凡夫之人	-10.312
明菩薩	-10.3128
聞巳	-10.3128
降魔	-10.3129
誤	-10.313
扶	-10.3136
下次	-10.3137
不畏	-10.3139
無量功德	-10.3143
不生不生	-10.3144
皆云	-10.3145
恒沙	-10.3145
無著	-10.3148
外國	-10.315
正觀	-10.3151
三十三天	-10.3153
種智	-10.3153
ā	-10.3154
論之	-10.3156
翻為	-10.3157
及餘	-10.3158
發露	-10.316
用也	-10.316
單疏	-10.3164
初生	-10.3171
無有變易	-10.3171
為義	-10.3176
或作	-10.3178
世間解	-10.3192
八萬	-10.3195
但為	-10.3195
列名	-10.3195
敬信	-10.32
多羅	-10.3201
八倒	-10.3204
漢	-10.3233
開善云	-10.3236
狀	-10.3236
如下文	-10.3237
豆	-10.3239
愈	-10.3243
荊溪	-10.3244
調御	-10.3246
二禪	-10.3247
妻子	-10.3248
齒	-10.3249
破邪	-10.325
雜食	-10.3251
初又二	-10.3252
說之為	-10.3255
下明其	-10.3257
近因	-10.3259
三教	-10.3264
皆由	-10.3267
先尼	-10.3271
死者	-10.3273
得知	-10.3275
正他	-10.3279
初譬	-10.328
若作	-10.328
生煩惱	-10.328
聞之	-10.3288
定相	-10.3293
中初明	-10.3298
非外	-10.3309
顯前	-10.3314
樂受	-10.3316
等四	-10.3323
後世	-10.3328
諸子	-10.3328
下顯	-10.333
周遍	-10.3334
舉其	-10.3336
非時	-10.3341
補註	-10.3341
孤	-10.3344
愛樂	-10.3344
忍辱	-10.3349
性相	-10.3353
餘處	-10.3356
我今當	-10.3356
性空	-10.3357
雖說	-10.3358
隨逐	-10.3361
而見	-10.3362
珍寶	-10.3377
八正道	-10.3385
下地	-10.3389
不假	-10.339
難解	-10.3392
譬也	-10.34
唯在	-10.3404
初如文	-10.3405
佛世尊	-10.3406
廣辨	-10.3408
佛弟子	-10.3414
如說	-10.3414
常等	-10.3415
下辯	-10.3417
偈中	-10.342
得解	-10.3426
白佛言世尊	-10.3427
不遇	-10.3433
行道	-10.3434
鄙	-10.3436
占	-10.3439
尺	-10.3441
吹	-10.3444
總以標舉	-10.3451
』	-10.3452
鬘	-10.3456
所起	-10.3456
領旨	-10.3458
▁初科分	-10.346
五人	-10.3462
西方	-10.3464
四住	-10.3467
得成	-10.3475
魔說	-10.3481
而作是言	-10.3486
不能令	-10.3491
天下	-10.3492
唯是	-10.3495
初發心	-10.3498
復問	-10.3499
化生	-10.35
大苦	-10.3501
不殺	-10.3509
能所	-10.3515
得大涅槃	-10.3517
拘尸	-10.352
一切悉	-10.3525
聖王	-10.3527
理也	-10.3529
言說	-10.3532
句別有	-10.3538
所覆	-10.3539
六法	-10.354
修空	-10.355
辛	-10.3551
覺觀	-10.3556
銀	-10.3557
必死	-10.356
來者	-10.3566
總明	-10.357
惠施	-10.3574
:「『	-10.3586
出於	-10.3586
悉有	-10.359
清淨梵行	-10.3592
三解	-10.3594
在後	-10.3594
皆以	-10.3608
執持	-10.3611
今欲	-10.3621
有本	-10.3627
不破	-10.3629
下佛	-10.363
上來第一	-10.363
大力	-10.3631
是空	-10.3631
未知	-10.3633
惡知識	-10.3634
同前	-10.3637
皆名	-10.3639
互無	-10.3643
務	-10.3646
返	-10.3649
佛語	-10.3651
煩	-10.3651
!」	-10.3654
繩	-10.3656
都不	-10.3657
延	-10.3657
又四	-10.3658
稽首	-10.3661
摩訶衍	-10.3661
真法	-10.3662
悅可	-10.3664
習氣	-10.3664
遺教	-10.3665
菴羅	-10.3665
所聞	-10.367
初約	-10.3675
諸眾生故	-10.3677
住法	-10.3679
苦哉	-10.3685
須陀	-10.3687
顯之	-10.369
為作	-10.3693
中初先	-10.3698
若離	-10.37
涅槃亦爾	-10.3702
生後	-10.3704
先尼言	-10.3707
涅槃也	-10.3711
白佛	-10.3711
別圓	-10.3712
不達	-10.3712
金剛身	-10.3717
眾人	-10.3718
四天王	-10.3723
阿闍世	-10.373
供具	-10.3737
有煩惱	-10.3742
所解	-10.3746
議	-10.3748
略不	-10.3749
二別釋	-10.3749
事者	-10.375
掌	-10.3755
復當	-10.3756
得益	-10.3758
錄	-10.376
未來世	-10.376
執著	-10.3763
方等經	-10.3765
夷	-10.3766
得生	-10.3766
四趣	-10.3766
三十六	-10.3767
而行	-10.3767
途	-10.3769
皆具	-10.3771
波旬	-10.3773
伎樂	-10.3775
從因	-10.3782
菩薩摩訶薩亦復如是	-10.3782
復更	-10.3786
從因緣	-10.3788
常果	-10.3794
復為	-10.3802
之慈	-10.3807
□	-10.3812
句也	-10.3815
破煩惱	-10.3818
佛性是	-10.3827
變化	-10.383
三智	-10.3834
之益	-10.3835
說於	-10.3837
須彌山	-10.3838
理性	-10.3839
具二	-10.3845
非謂	-10.3848
兼答	-10.3851
之旨	-10.3856
聖諦	-10.3859
拂	-10.3861
消滅	-10.3863
則成	-10.3863
瑠璃	-10.3867
麻	-10.3869
缾	-10.3876
滅已	-10.3878
中初言	-10.3882
所不能	-10.3882
意同	-10.3883
見一切法	-10.3885
無上士	-10.3886
商主	-10.3888
即時	-10.3888
無煩惱	-10.3893
業因緣	-10.3896
豈是	-10.3896
天人師	-10.3899
譬之	-10.39
定者	-10.3903
無常故	-10.3906
修定	-10.3908
句中	-10.3914
來至	-10.3916
文也	-10.3924
生處	-10.394
必得	-10.3943
瞻	-10.3944
我實	-10.3947
睡	-10.3958
善見	-10.3961
猛	-10.3962
五味	-10.3967
行法	-10.3971
昏	-10.3975
薩	-10.3976
中先舉	-10.3977
經家	-10.3979
酢	-10.3981
僧祇	-10.3985
答之	-10.3987
柱	-10.3987
有果	-10.3988
一切有	-10.4001
是大乘	-10.4007
此解	-10.4011
性淨	-10.4014
船師	-10.4015
四無量心	-10.4018
菩提之心	-10.4021
正破	-10.4023
等皆	-10.4025
如羅睺羅	-10.4026
遍滿	-10.4031
永滅	-10.4035
自正	-10.4036
皆謂	-10.4036
心則	-10.4044
了義	-10.4046
而白佛言	-10.4047
迦葉菩薩	-10.4047
已還	-10.4052
貧人	-10.4055
斷滅	-10.406
彼此	-10.4066
經說	-10.4067
時眾	-10.4069
相待	-10.4069
閑	-10.4071
法藏	-10.4073
更有	-10.4076
第四句	-10.4077
胡	-10.4081
即是涅槃	-10.4082
則便	-10.4084
大論	-10.4087
童	-10.4089
發意	-10.409
寤	-10.409
光宅	-10.4091
眾多	-10.4093
障礙	-10.4093
井	-10.4094
有實	-10.4095
充滿	-10.4095
柔軟	-10.4098
若就	-10.4099
必當	-10.4102
等三	-10.4102
我能	-10.4105
律儀	-10.4109
已有	-10.4109
下苦	-10.4115
例爾	-10.4116
是道	-10.4119
惡趣	-10.412
三人	-10.4123
白衣	-10.4124
未聞	-10.4128
八苦	-10.4133
所求	-10.4136
說無我	-10.414
生死涅槃	-10.4141
三惑	-10.4145
謂如來	-10.4145
妄想	-10.4151
五章	-10.417
法輪	-10.4175
修因	-10.4175
於汝	-10.4177
險	-10.4179
為斷	-10.4183
無名	-10.4188
亦不可	-10.4189
暗	-10.4194
證得	-10.4195
先有	-10.4197
難言	-10.4198
析	-10.4199
一期	-10.4204
嫉妬	-10.4206
二問	-10.4206
亦空	-10.4207
於眾生	-10.4207
如汝所說	-10.4208
長短	-10.4209
焰	-10.4211
因中說果	-10.4211
我諸弟子聞是說已	-10.4212
大慈大悲	-10.4214
奉行	-10.422
非內	-10.4224
起惡	-10.4227
何能	-10.4228
初答	-10.4233
香花	-10.4233
別明	-10.4235
釋云	-10.4241
悉令	-10.4243
出入	-10.4244
限	-10.4252
如來涅槃	-10.4254
離欲	-10.4256
拘尸城	-10.4256
有其	-10.4258
魔王	-10.4259
疏文	-10.4261
高下	-10.4262
煖法	-10.4273
對上	-10.4274
既非	-10.4276
色法	-10.4276
故說為	-10.4277
名一闡提	-10.428
從緣生	-10.4284
萬善	-10.4286
可畏	-10.429
但言	-10.4294
▁初法	-10.4294
無苦	-10.4296
念念滅	-10.4299
官	-10.4302
後問	-10.4302
寬	-10.4305
毘曇	-10.4307
憐	-10.4308
玉	-10.4308
叵	-10.4309
而去	-10.4309
六事	-10.4311
隣	-10.4312
初二	-10.4315
困	-10.4317
俱是	-10.4319
以偈	-10.4319
約理	-10.432
依人	-10.4322
前問	-10.4328
翻前	-10.4328
釋論	-10.4329
毒箭	-10.433
諦聽諦聽	-10.433
諸大眾	-10.4334
菩薩行	-10.4334
壞苦	-10.4336
真如	-10.4336
以破	-10.4338
多諸	-10.434
彼人	-10.4344
生老病死	-10.4345
是故菩薩	-10.4348
難陀	-10.4349
若於	-10.4351
信者	-10.4355
心常	-10.4361
有二義	-10.4361
滅罪	-10.4362
彼土	-10.4364
非生	-10.4374
貪心	-10.4376
非人	-10.4376
文義	-10.4377
何用	-10.4378
佛智	-10.4379
十惡	-10.4389
是業	-10.439
為樂	-10.4391
空故	-10.4391
生相	-10.4395
所由	-10.4396
若不能	-10.4396
有常	-10.4397
得成阿耨多羅三藐三菩提	-10.4399
廣辯	-10.4403
難見	-10.4405
父王	-10.4408
秦	-10.4421
故經云	-10.4424
生子	-10.4429
震	-10.4429
檀越	-10.443
晝	-10.4431
合中	-10.4433
。』「『	-10.4435
敢	-10.4436
有益	-10.4437
受戒	-10.4442
一分	-10.4443
次一	-10.4444
一切種智	-10.4444
卷第十	-10.4445
所可	-10.4459
▁六	-10.4464
無憂	-10.4468
癡人	-10.4469
即成	-10.4474
大般泥洹	-10.4475
俱無	-10.4476
今約	-10.4479
令諸	-10.4481
八地	-10.4482
十六行	-10.4487
其事	-10.4488
還復	-10.449
有情	-10.4492
見空	-10.4495
七者	-10.4497
正說	-10.4498
至心	-10.4504
貌	-10.4509
造業	-10.451
維	-10.451
未發心	-10.4515
起惑	-10.4516
得阿羅漢果	-10.4517
世有	-10.452
於中初	-10.4521
佛告阿難	-10.4524
次說	-10.4525
明駿	-10.453
厚	-10.4533
得羅漢	-10.4533
二死	-10.4533
州	-10.4534
以有	-10.4534
受化	-10.4536
云何如來	-10.4537
馳	-10.4538
賴	-10.4539
原	-10.454
無上菩提	-10.4543
大法	-10.4543
婆伽婆	-10.4545
宮殿	-10.4546
舍衛	-10.4546
臭	-10.4547
兔角	-10.4547
小大	-10.4547
至心聽	-10.4554
或見	-10.4554
王所	-10.4554
哀愍	-10.4555
不遍	-10.4556
佛土	-10.4561
即生	-10.4563
三因	-10.457
通論	-10.4571
施與	-10.4571
云何而得	-10.4574
修者	-10.4575
堪忍	-10.4578
開合	-10.4584
攝取	-10.4584
所在	-10.4585
自相	-10.4586
四天下	-10.4586
是諸外道	-10.4597
為六	-10.4597
無貪	-10.4602
先王	-10.4606
為八	-10.4609
萬法	-10.4612
能解	-10.462
護正法	-10.4621
之難	-10.4626
沙門果	-10.4627
家之	-10.463
無滅	-10.4634
喻明	-10.4638
現前	-10.4641
四陰	-10.4644
當觀	-10.4646
正問	-10.4648
豐	-10.4648
相好	-10.4649
避	-10.4652
唐	-10.4653
閻浮	-10.4657
悉無	-10.4659
卿	-10.4662
一舉	-10.4664
頃	-10.4665
啼	-10.4666
釋提桓因	-10.4668
語者	-10.4674
前云	-10.4678
多人	-10.4684
三相	-10.4685
所以不	-10.4694
文別有	-10.4702
悉名	-10.4703
諸見	-10.4708
修戒	-10.4712
入般涅槃	-10.4716
所召	-10.4717
犯四重	-10.4723
皆為	-10.4728
昔所	-10.4742
深觀	-10.4742
▁二今	-10.4742
異相	-10.4743
妙有	-10.4744
次就	-10.4745
邪法	-10.4751
三漏	-10.4758
新伊	-10.4758
聞是經	-10.4762
五法	-10.4763
四義	-10.4763
補	-10.4765
校	-10.4766
憶	-10.4768
敵	-10.4768
觀心	-10.4768
有因緣	-10.4769
拒	-10.477
吒	-10.4772
生解	-10.4773
喚	-10.4775
知時	-10.4775
不可以	-10.4777
緩	-10.4777
穿	-10.4778
因此	-10.4779
擁護	-10.4782
不相應	-10.4782
至此	-10.4783
熾盛	-10.4783
上中下	-10.4796
既其	-10.48
五門	-10.4806
一味	-10.4809
就人	-10.4811
色無色	-10.4814
住者	-10.4815
愚智	-10.4817
支佛	-10.4832
無常也	-10.4834
迦葉白佛下	-10.4838
因於	-10.4851
三月	-10.4852
善男子菩薩摩訶薩	-10.4857
今無	-10.4863
無量煩惱	-10.4866
功用	-10.487
冬	-10.4883
上品	-10.4883
充	-10.4885
凡所	-10.4887
少欲知足	-10.4889
為佛	-10.4892
牧	-10.4896
憎	-10.4896
勝鬘	-10.4896
曠野	-10.4898
中明	-10.4898
七地	-10.49
阿鼻地獄	-10.49
總相	-10.4903
▁【	-10.4905
墮於地獄	-10.4907
自體	-10.4908
不入涅槃	-10.4911
善星比丘	-10.4915
憂愁	-10.4915
自下第四	-10.4916
六卷	-10.4919
亦有亦無	-10.4922
佛寶	-10.4939
內有	-10.4939
學者	-10.4946
不虛	-10.4947
而實	-10.4952
無過	-10.4952
二就	-10.4953
思議	-10.4953
火聚	-10.4958
則生	-10.4959
只由	-10.496
為果	-10.4966
雷	-10.4969
四明	-10.497
通於	-10.4972
偏執	-10.4977
上半	-10.498
欲使	-10.4994
除斷	-10.5
洲	-10.5001
更互	-10.5004
薰	-10.5005
錢	-10.5005
崩	-10.5008
略明	-10.5009
了達	-10.5011
恨	-10.5013
逸	-10.5013
截	-10.5013
得是	-10.5014
鳩	-10.5016
未必	-10.502
互融	-10.5022
邊際	-10.5022
護持正法	-10.5025
調御丈夫	-10.5028
三從	-10.5031
生樂想	-10.5036
隨所	-10.5054
故云無	-10.5055
地人	-10.5059
先喻	-10.5059
名為大	-10.506
明涅槃	-10.506
等正覺	-10.5062
戒定	-10.5063
不行	-10.5071
世智	-10.5072
▁二初文下隨	-10.5075
上界	-10.5082
與我	-10.5086
十一空	-10.509
厭離	-10.5104
次觀	-10.5105
汎	-10.5107
以何	-10.5108
如來何故	-10.511
我之	-10.511
空三昧	-10.5116
廣略	-10.5127
應生	-10.5127
文顯可知	-10.5128
撰	-10.5131
復得	-10.5135
宋	-10.5137
業緣	-10.5138
法雨	-10.5142
有佛性者	-10.5144
則失	-10.5145
摧伏	-10.5147
拘尸那城	-10.5147
紙	-10.5148
明行足	-10.5148
若菩薩摩訶薩	-10.5158
往來	-10.5162
觀方	-10.5164
香象	-10.5166
不定故	-10.5167
復示	-10.5167
無自性	-10.5173
半滿	-10.5174
不疑	-10.5175
諸功德	-10.5175
六十	-10.5182
八法	-10.5182
正定	-10.5182
四無量	-10.5187
古來	-10.5188
非三世攝	-10.5194
以譬	-10.5194
救護	-10.5195
異名	-10.5201
猶如虛空	-10.5203
答前	-10.5205
次破	-10.5208
出假	-10.5213
威神	-10.5215
取其	-10.5221
佛今	-10.5227
即於	-10.523
常沒	-10.5232
有酪	-10.5232
論曰	-10.5232
貪愛	-10.5234
具三	-10.5238
受安樂	-10.5238
分別說	-10.5242
可尋	-10.5243
乳藥	-10.5244
兩教	-10.5244
威德	-10.5245
鉤鎖	-10.5248
斷絕	-10.5248
一部	-10.5248
恒河沙等	-10.5249
身智	-10.525
肇	-10.525
顯其	-10.5255
虎	-10.5257
族	-10.5258
犯重	-10.5258
所攝	-10.5259
裏	-10.526
曠	-10.5262
女身	-10.5264
勇	-10.5266
軍	-10.5268
八十種好	-10.527
供給	-10.527
諸魔	-10.527
晝夜	-10.5272
前中初言	-10.5284
出其	-10.5289
如是等法	-10.529
心生歡喜	-10.5291
有貪	-10.5291
破惡	-10.5299
下總結	-10.5302
其數	-10.5306
非空	-10.5311
不合	-10.5312
即非	-10.5313
復是	-10.532
令一切	-10.5324
是諸眾生	-10.5326
八味	-10.5328
無實	-10.533
如幻	-10.534
並是	-10.5341
次結	-10.5344
覩見	-10.5355
不得言	-10.5356
所斷	-10.536
發言	-10.536
之樂	-10.5363
緣者	-10.5364
法空	-10.5367
可說	-10.5373
先答	-10.5374
祇	-10.5376
始從	-10.5377
而我	-10.5379
滋	-10.5382
見之	-10.5383
旁	-10.5383
符	-10.5383
族姓子	-10.5383
亦以	-10.5384
□□□□	-10.5385
麥	-10.5387
如來之性	-10.5388
甘蔗	-10.5388
復次迦葉	-10.5389
響	-10.5391
不安	-10.5391
先譬次合	-10.5392
黨	-10.5393
諸王	-10.5393
却住一面	-10.5393
以是業緣	-10.5393
如虛空	-10.5395
大城	-10.5395
者即是如來	-10.5399
未解	-10.5406
却坐一面	-10.5408
是生死	-10.5409
雖得	-10.5413
偏教	-10.5414
種姓	-10.5421
有病	-10.5422
四番	-10.5423
興皇云	-10.5424
說是偈	-10.5427
有九	-10.5433
顯發	-10.5434
而住	-10.544
於理	-10.5443
為說法	-10.5446
身業	-10.5446
而自	-10.5448
先合	-10.5449
即指	-10.5453
空處	-10.5453
迦葉問	-10.5457
為性	-10.5458
為道	-10.5458
餘皆	-10.546
與其	-10.5461
熱病	-10.5462
此初	-10.5473
他國	-10.5481
之始	-10.5484
寂然	-10.5488
亮	-10.5501
走	-10.5502
宅	-10.5509
兩問	-10.551
毫	-10.551
但取	-10.5512
護持禁戒	-10.5513
所離	-10.5515
羞	-10.5515
實義	-10.5515
慎	-10.5516
以是下結	-10.5518
所化	-10.5519
說偈言	-10.5529
因滅	-10.5532
我想	-10.5535
前難	-10.5538
慚	-10.5542
住前	-10.5544
南方	-10.5549
明知	-10.555
實無有	-10.555
之智	-10.5552
是名下結	-10.5553
有為無為	-10.5553
若有善男子	-10.5554
現身	-10.5556
伊字	-10.5556
無主	-10.5556
正性	-10.5558
入證	-10.556
如實	-10.5562
一身	-10.5565
不能見	-10.5568
猶故	-10.5573
大慈悲	-10.5575
同異	-10.5578
如諸	-10.5582
於人	-10.5583
難知	-10.5583
有邊	-10.5591
惡果	-10.5591
無諸	-10.5609
露	-10.561
苦想	-10.5616
不當	-10.5619
哭	-10.5621
意識	-10.5625
此五	-10.5635
幽	-10.5635
約教	-10.5636
娑	-10.5638
王宮	-10.5642
條	-10.5642
闡	-10.5643
詐親	-10.5643
價	-10.5643
誰能	-10.5644
邏	-10.5644
欝	-10.5644
能發	-10.5646
人間	-10.5649
餘經	-10.5649
一約	-10.5651
紙巳下	-10.5652
雖未	-10.5653
順召	-10.5654
隨文	-10.5655
健	-10.5656
非為	-10.5656
不從因緣	-10.566
其解脫者即是如來	-10.5662
三學	-10.5664
眾生佛性亦復如是	-10.5669
佛地	-10.5682
質直	-10.5683
忉利天	-10.5693
瞻病	-10.5696
口密	-10.5706
是煩惱	-10.5707
亦知	-10.571
殺生	-10.5714
不得名為	-10.5717
破無明	-10.5719
巳還	-10.572
為王	-10.572
修治	-10.5721
不如一	-10.5728
未斷	-10.5729
成實	-10.5731
論中	-10.5734
四等	-10.5737
▁初正釋	-10.575
眾生亦爾	-10.575
數數	-10.5755
起行	-10.5757
六住	-10.5759
掘	-10.5759
每	-10.5759
未曾有	-10.5761
竹	-10.5763
善者	-10.5765
丸	-10.5766
波羅提木叉	-10.5769
淵	-10.5769
鹿苑	-10.577
下辨	-10.5771
增減	-10.5772
齋	-10.5774
發願	-10.5777
佛界	-10.5777
波斯匿王	-10.5778
是故復名不可思議	-10.5778
兄弟	-10.5781
不可稱計	-10.5782
受記	-10.5782
但說	-10.5784
非有為	-10.5786
下今師	-10.5802
五通	-10.5806
化身	-10.5806
施者	-10.5806
答曰	-10.5807
常住不變	-10.5808
萬物	-10.5808
盲人	-10.5815
此說	-10.5816
於一切法	-10.5832
無身	-10.5838
佛滅後	-10.5839
當知如來	-10.5848
無終	-10.5852
前五	-10.5857
別惑	-10.5863
如水	-10.5865
之別	-10.5866
即是佛性	-10.5869
釋上	-10.5869
不可壞	-10.5876
色非色	-10.5881
廣上	-10.5882
為利養	-10.5882
輪王	-10.5882
之境	-10.5883
於涅槃	-10.5887
蒼	-10.5889
如來法身	-10.5889
躡	-10.5889
色身	-10.589
威力	-10.589
產	-10.5892
噉	-10.5892
送	-10.5894
奢	-10.5895
亦不得	-10.5895
怒	-10.5895
嫌	-10.5898
勒	-10.5898
斫	-10.5902
踰	-10.5904
閉	-10.5907
於無量劫	-10.5908
瓦石	-10.591
教誨	-10.5911
佛即	-10.5912
不吉	-10.5914
下明今	-10.5915
忽然	-10.5917
愁苦	-10.5919
於閻浮提	-10.5919
舊醫	-10.592
不淨之物	-10.592
所觀	-10.5921
小異	-10.5922
真空	-10.5923
有五種	-10.5924
無對	-10.5926
尊者	-10.5927
初出	-10.5929
之語	-10.5932
上座	-10.5935
剎土	-10.5938
如是如是	-10.594
萬德	-10.5943
一闡提等	-10.5945
度眾生	-10.5947
世尊告	-10.5949
大意	-10.595
歎其	-10.5951
者即經云	-10.5951
文明	-10.5954
梨車	-10.5957
此偈	-10.5957
遍一切處	-10.5962
之外	-10.5963
□□	-10.5968
九品	-10.5968
若當	-10.5968
淨故	-10.5969
燈明	-10.5972
無根	-10.5984
下品	-10.5984
法華云	-10.5991
成佛道	-10.5991
通前	-10.5993
捨心	-10.5994
以前	-10.5996
所詮	-10.5996
先出	-10.5998
外凡	-10.6001
其旨	-10.6001
磨	-10.6003
色等	-10.6008
解了	-10.601
不能得見	-10.6017
淨行	-10.6018
翳	-10.6028
會疏	-10.6028
雖在	-10.6029
慕	-10.6031
耆	-10.6031
飽	-10.6032
灌	-10.6033
茂	-10.6035
須跋	-10.6041
▁初總	-10.6042
罰	-10.6043
便得	-10.6043
調達	-10.6044
肥	-10.6045
o	-10.6047
如我所說	-10.6049
緊那羅	-10.6054
沙門瞿曇	-10.6057
讚嘆	-10.6058
宿命	-10.6059
如來無常	-10.606
以自	-10.606
無益	-10.6061
為宗	-10.6061
還成	-10.6062
不變易	-10.6065
雖同	-10.6066
二舉經	-10.6066
是故說	-10.6066
我我所	-10.6067
一切善法	-10.6068
中亦有	-10.6072
退轉	-10.6073
隨他	-10.6073
壞滅	-10.6076
動轉	-10.608
別答	-10.6089
同時	-10.6091
若如是者	-10.6097
真金	-10.6098
了了見	-10.6103
徵問	-10.6104
▁初牒	-10.6105
縛解	-10.6105
教法	-10.6111
不貪	-10.6114
解也	-10.6118
諮	-10.612
結歎	-10.6121
滅煩惱	-10.6122
醫王	-10.6125
是真實	-10.6127
約三諦	-10.6128
前之	-10.6132
未出	-10.6135
不可盡	-10.6141
或謂	-10.6142
唯見	-10.6145
堅持	-10.6148
摩羅	-10.615
以成	-10.6155
歸伏	-10.6156
多者	-10.6157
斬	-10.6159
殺人	-10.6161
梵行品	-10.6161
任運	-10.6163
飯	-10.6163
求利	-10.6166
封	-10.6166
見法	-10.6167
張	-10.6169
若為	-10.6172
一番	-10.6173
真是	-10.6173
巳身	-10.6174
同是	-10.6175
荒	-10.6177
i	-10.618
羣	-10.618
別異	-10.6181
經言	-10.6182
妄計	-10.6185
法眼	-10.6186
現病品	-10.6186
黑闇	-10.6188
終不能	-10.6189
雙遊	-10.6192
無人	-10.6192
尚無	-10.6193
七覺	-10.6194
清淨戒	-10.6195
良由	-10.6196
經論	-10.6197
重病	-10.6197
無情	-10.6203
此語	-10.6203
說無常	-10.6204
眾惡	-10.6205
十號	-10.6211
為彼	-10.6211
經明	-10.6218
欲見	-10.6219
緣於	-10.6221
實語	-10.6228
取相	-10.6233
十事	-10.6238
定性	-10.6244
化作	-10.6245
述成	-10.6245
引昔	-10.6252
悲哀	-10.6259
非鬼	-10.626
薩婆多	-10.6264
值遇	-10.6266
直是	-10.6269
置答	-10.6269
貧女	-10.6275
品中	-10.6275
不攝	-10.6278
▁三合	-10.6279
各別	-10.628
變異	-10.6293
舉譬	-10.6294
參	-10.6296
安眠	-10.6296
辨異	-10.6301
三約	-10.6306
今依	-10.6306
行七步	-10.6306
青黃赤白	-10.6308
泣	-10.6309
米	-10.631
驢	-10.631
以何因緣	-10.6312
訶責	-10.6314
見其	-10.6315
諂	-10.6315
親近善友	-10.6316
獵師	-10.6317
王三昧	-10.632
頂生	-10.6321
熾然	-10.6322
不知足	-10.6332
無因緣	-10.6335
論師	-10.6337
一一皆	-10.6337
方便道	-10.634
明矣	-10.6341
常當	-10.6343
請答	-10.6343
舉佛	-10.6351
緣了	-10.6357
之解	-10.6359
依報	-10.636
三云	-10.6367
一切處	-10.6367
八事	-10.637
迦葉品	-10.637
為破	-10.6371
不云	-10.6374
後總結	-10.6376
等無差別	-10.6377
立義	-10.6381
導師	-10.6381
永離	-10.6383
能斷善根	-10.6387
第四明	-10.6388
釋疑	-10.6389
此第一	-10.6393
喻顯	-10.6396
起於	-10.6403
世出世	-10.641
此譬	-10.6413
餘二	-10.642
於中有三	-10.642
為令眾生	-10.642
辯中	-10.642
勝修	-10.6421
時王	-10.6422
遠因	-10.6423
內心	-10.643
持諸	-10.6431
尾	-10.6436
更不	-10.6436
逃	-10.6436
五十二眾	-10.6436
作種種	-10.6437
食者	-10.644
怨親	-10.6443
婆羅門等	-10.6444
下結示	-10.6444
焚	-10.6446
陰界入	-10.6448
涅槃之體	-10.6449
兩譬	-10.6449
繞	-10.6451
雄	-10.6452
石蜜	-10.6455
勇健	-10.6455
冤	-10.6456
婆羅	-10.6457
教者	-10.6459
不聞不聞	-10.6463
如向	-10.6466
以示	-10.6476
依此	-10.6478
今更	-10.648
中先明	-10.6481
分齊	-10.6483
捨相	-10.6485
等視	-10.6487
業報	-10.6488
為顯	-10.649
即涅槃	-10.6492
非滅	-10.6497
欲知	-10.6504
於中有二	-10.6505
略無	-10.6512
歎德	-10.6513
重釋	-10.6515
若遇	-10.652
汝說	-10.6523
為利	-10.6524
便言	-10.6525
共住	-10.6525
有緣	-10.6527
十功德	-10.6527
同歸	-10.6528
王位	-10.6536
為七	-10.6537
闍王	-10.6538
於中先明	-10.6539
設難	-10.6544
相資	-10.6548
所施	-10.6549
作善業	-10.655
得安樂	-10.6551
薄福	-10.6553
故名大	-10.6554
必須	-10.6554
網	-10.6556
行於	-10.6558
於中初明	-10.6558
▁二正	-10.6559
八正	-10.6564
故舉	-10.6566
別論	-10.6567
繫心	-10.6568
先標	-10.657
處所	-10.6573
寸	-10.6579
後兩	-10.658
伐	-10.658
等法	-10.658
暢	-10.6582
圍繞	-10.6582
▁初舉	-10.6585
旦	-10.6586
祕密之藏	-10.6589
類顯	-10.659
怨憎	-10.659
住大涅槃	-10.6591
說此	-10.6592
生苦	-10.6594
之子	-10.6595
宛然	-10.6596
大仙	-10.6597
事也	-10.6597
。』」「	-10.6603
異於	-10.6603
所愛	-10.6613
證知	-10.6626
解脫不爾	-10.663
弘廣	-10.6635
不由	-10.6638
所立	-10.664
能了	-10.6646
而亦	-10.6648
譬佛	-10.665
聞聲	-10.6652
今品	-10.6652
得見佛性	-10.6652
燈滅	-10.6656
五色	-10.6658
經歷	-10.6661
不應說	-10.6662
為汝	-10.6671
滅時	-10.6672
於阿耨多羅三藐三菩提	-10.6672
上明	-10.6675
涅槃義	-10.6684
知義	-10.6685
重說	-10.6693
弊	-10.6694
六地	-10.6695
道滅	-10.6697
而彼	-10.6701
因成	-10.6705
雖聞	-10.6705
之極	-10.6711
戲	-10.6713
聽許	-10.6716
為求	-10.6716
三雙	-10.6718
罪人	-10.6718
殿	-10.6719
括	-10.6723
保	-10.6723
怪	-10.6724
計有	-10.6724
伽陀	-10.673
伺	-10.6731
以上	-10.6733
是名菩薩摩訶薩	-10.6734
既得	-10.6738
鬪	-10.6738
釋迦牟尼	-10.6738
城邑	-10.674
現在世	-10.6744
以法	-10.6745
行惡	-10.6752
輪轉	-10.6753
即名	-10.6756
然其	-10.6764
身體	-10.6767
其言	-10.6767
次問	-10.6769
▁初敘	-10.677
問其	-10.6775
無師	-10.6778
我經中說	-10.6779
四結	-10.678
求佛	-10.6782
推求	-10.6784
上流	-10.6786
藏通	-10.6792
總舉	-10.6794
一切大眾	-10.6804
皆約	-10.6806
所治	-10.6806
爾乃	-10.681
外法	-10.6811
諸臣	-10.6815
本是	-10.6815
極愛	-10.6817
菩薩品	-10.6818
昧	-10.6818
若其	-10.682
內法	-10.6823
善方便	-10.6826
文別有四	-10.6826
今則	-10.6828
破執	-10.6829
丈	-10.6842
為化眾生	-10.6848
先問後	-10.6857
離相	-10.6861
中夜	-10.6862
但明	-10.6863
壁	-10.6864
柔	-10.6867
滿故	-10.6868
究	-10.6868
無始終	-10.6869
聞此	-10.687
叢林	-10.6873
聾	-10.6874
甲	-10.6875
祖	-10.6875
省	-10.6876
跋	-10.6876
踊	-10.6877
尼乾	-10.6877
迦羅	-10.6878
八萬劫	-10.6878
有法譬合	-10.6878
爾時佛告	-10.688
包	-10.688
憐憫	-10.6881
欺	-10.6881
鈔	-10.6883
作如是說	-10.6885
我於往昔	-10.6886
能答	-10.6888
顯現	-10.6888
見巳	-10.6888
經法	-10.689
不還	-10.6892
生已	-10.6894
車乘	-10.6894
堪任	-10.6895
三有	-10.6899
即有	-10.6901
進止	-10.6902
師子吼言世尊	-10.6903
密教	-10.6904
增益	-10.6907
聞慧	-10.6916
有為之法	-10.6918
亦二	-10.6925
互現	-10.6926
其味	-10.6926
頌曰	-10.6926
幻化	-10.6928
由此	-10.6933
若據	-10.6935
之間	-10.6937
或在	-10.6938
各具	-10.6942
迦葉菩薩言	-10.6942
所居	-10.6943
即是無常	-10.6946
後時	-10.6946
快	-10.6955
治病	-10.6959
拔苦	-10.6959
理即	-10.6961
逮	-10.6961
為其	-10.6963
雖非	-10.6964
百非	-10.6964
之辭	-10.6974
知我	-10.6976
復生	-10.6986
以手	-10.699
八者	-10.6991
答云	-10.6996
佛出世	-10.7007
不染	-10.701
爭	-10.7012
朝	-10.7012
金色	-10.7016
學人	-10.7016
有相	-10.7016
餓	-10.7016
的	-10.702
下半	-10.7021
以何義故	-10.7021
擯	-10.7022
剎那	-10.7022
傾	-10.7022
譽	-10.7023
瞿	-10.7025
村	-10.7025
我涅槃後	-10.7026
生瞋	-10.7027
汝意若謂	-10.7029
娑羅林	-10.703
鑽	-10.703
幡	-10.7032
譬說	-10.7036
廣博	-10.7038
啟	-10.7044
以說	-10.7047
亦無是處	-10.7047
總以結之	-10.7047
破惑	-10.7051
若能如是	-10.7052
有疑	-10.7057
盡滅	-10.7058
第二番	-10.7059
約事	-10.7059
作難	-10.7064
此地	-10.7065
貪求	-10.7066
即佛性	-10.7069
密藏	-10.7074
汝於	-10.7076
之眾	-10.7076
第二難	-10.7076
出聲	-10.7077
下彰	-10.7077
故爾	-10.7078
白言	-10.7079
得安隱	-10.708
要須	-10.7082
我常	-10.7083
又三一	-10.7084
所破	-10.709
是三昧	-10.7102
四毒蛇	-10.7102
或為	-10.7103
醉人	-10.711
有諸眾生	-10.7115
地持	-10.7116
中二先	-10.7118
今師	-10.712
下徵	-10.7129
如王	-10.7134
譬合	-10.7136
雖是	-10.7137
可作	-10.7147
得成佛	-10.7147
聞聞	-10.7148
育	-10.716
幼	-10.7161
陽	-10.7162
多分	-10.7162
二門	-10.7163
四種人	-10.7163
淡	-10.7165
三四	-10.7165
死苦	-10.7165
採	-10.7166
皆同	-10.717
屋	-10.7172
均	-10.7172
楊	-10.7173
丈六	-10.7175
逆罪	-10.7178
革	-10.7178
初略	-10.7178
臂	-10.7178
無餘涅槃	-10.7179
位也	-10.7181
射	-10.7182
畢竟空	-10.7183
不忘念	-10.7184
大段	-10.7186
識處	-10.719
終無	-10.7192
為異	-10.7194
深淺	-10.7195
九住	-10.7195
顯實	-10.7196
愚者	-10.7196
或以	-10.7198
自恣	-10.7199
非聖	-10.7199
良藥	-10.72
絕待	-10.7201
生此	-10.7209
樂見	-10.7209
敘意分科	-10.7217
別義	-10.7219
名同	-10.7224
彰己	-10.7228
大乘經	-10.7228
六即	-10.7232
今且	-10.7233
正以	-10.7234
三身	-10.7238
譬如良醫	-10.7239
除一闡提	-10.724
業障	-10.7244
得樂	-10.7251
然今	-10.7251
因緣和合	-10.7258
有信	-10.7261
次復	-10.7263
若有人能	-10.7264
食身	-10.7269
功能	-10.7269
不去	-10.7271
如月	-10.7271
云何復	-10.7272
從因生	-10.7276
正為	-10.7278
與此	-10.7284
云何說	-10.7287
如來今者	-10.7288
無是處	-10.7288
習因	-10.7293
十想	-10.7296
有作	-10.73
識心	-10.7304
妻	-10.7305
為眾生說	-10.7308
蔽	-10.731
貢高	-10.7311
已來	-10.7313
軌	-10.7313
裂	-10.7314
恥	-10.7315
體同	-10.7315
故成	-10.7317
偈頌	-10.7318
療	-10.732
毗曇	-10.732
身見	-10.7322
撥	-10.7323
狐	-10.7323
叉	-10.7327
六念	-10.7329
之義也	-10.733
圍遶	-10.7333
摩睺羅伽	-10.7334
百句	-10.7335
為問	-10.734
教行	-10.7341
則生不動國	-10.7349
一日	-10.735
正意	-10.7357
不同也	-10.736
凡夫二乘	-10.7377
所疑	-10.7379
治之	-10.7385
真性	-10.7386
發問	-10.739
心懷	-10.739
廣破	-10.7391
諸業	-10.7395
增過	-10.7397
常命	-10.7398
諸婆羅門	-10.7402
彼彼	-10.7404
非諸聲聞	-10.7404
復次善男子譬如	-10.7409
八難	-10.7419
未免	-10.7421
閡	-10.7421
三無為	-10.7425
二乘人	-10.7428
住持	-10.7432
我性	-10.7433
天女	-10.7435
所造	-10.7437
若在	-10.7439
信解	-10.744
離惡	-10.7441
哀歎	-10.7441
如是無量	-10.7441
我復	-10.7444
空門	-10.7451
憂喜	-10.7452
菩薩亦爾	-10.7459
所引	-10.7459
若斷	-10.7461
武	-10.7462
雅	-10.7464
催供	-10.7469
遭	-10.7471
欲求	-10.7472
混	-10.7473
鮮	-10.7474
能以	-10.7476
文意	-10.7476
遊戲	-10.7477
須臾	-10.7478
浴	-10.748
嫉	-10.7481
粟	-10.7481
毘舍	-10.7483
無數劫	-10.7484
諂曲	-10.7486
n	-10.7488
於意云何	-10.7489
一雙	-10.749
夜叉	-10.7493
災	-10.7493
象馬	-10.7494
臺	-10.7499
名為涅槃	-10.7502
圓頓	-10.7504
阿僧祇劫	-10.7505
色力	-10.7507
合掌恭敬	-10.7507
弊惡	-10.7511
於他	-10.7512
離過	-10.7513
以是義下	-10.7514
巳前	-10.7515
染著	-10.7515
雙釋	-10.7516
理同	-10.7516
無厭	-10.7517
諸惡比丘	-10.7522
即第一義	-10.7524
能受持	-10.7524
不肯	-10.7526
縱廣	-10.7528
忘失	-10.7533
今既	-10.7534
生盲	-10.7538
為得	-10.7542
不忘	-10.7542
造惡	-10.7544
外緣	-10.7545
偏明	-10.7545
思之	-10.7546
須依	-10.7546
為首	-10.7553
淨居	-10.7557
佛剎	-10.7559
破戒者	-10.7564
藥草	-10.757
何者是	-10.7571
勸捨	-10.758
神我	-10.7581
又是	-10.7583
所出	-10.7602
內空	-10.7602
之苦	-10.7608
一切聖人	-10.761
離苦	-10.7612
習果	-10.7617
紹	-10.7617
諦觀	-10.7617
成阿耨多羅三藐三菩提	-10.7622
下牒	-10.7622
退失	-10.7623
隨時	-10.7623
不真	-10.7624
陸	-10.7625
危	-10.7626
中先問	-10.7627
營	-10.7629
梁	-10.7631
深義	-10.7632
誘	-10.7633
偷	-10.7634
牀	-10.7634
乳中有酪	-10.7635
是魔眷屬	-10.7636
綺	-10.7636
世第一法	-10.7638
我欲	-10.7639
顏	-10.7639
擲	-10.764
祠	-10.764
如汝所問	-10.7641
答第五	-10.7642
何異	-10.7642
超越	-10.7643
皆空	-10.7644
大聖	-10.7645
釋成	-10.7646
窟	-10.7648
三段	-10.7652
大千	-10.7652
體一	-10.7655
阿難言	-10.7657
觀受	-10.7659
名相	-10.766
內凡	-10.7661
入定	-10.7662
可依	-10.7662
赤色	-10.7665
佛法僧	-10.7667
諮問	-10.7668
彼經	-10.7668
十相	-10.767
當體	-10.7671
不用處	-10.7672
煩惱障	-10.7675
更無別	-10.7677
如地	-10.7677
獲得解脫	-10.7678
逮得	-10.7683
敬重	-10.7685
略而不	-10.7687
直心	-10.7688
對曰	-10.7694
次論義	-10.7696
非作	-10.7698
次正答	-10.7701
既言	-10.7704
開發	-10.7708
將來	-10.7711
百福	-10.7714
隨喜	-10.7715
及其	-10.7717
唯然	-10.7721
須達	-10.7721
計常	-10.7722
卷第二十	-10.7723
通釋	-10.7724
釋文	-10.7727
隨義	-10.7731
其理	-10.7742
現有	-10.7743
憍	-10.7744
江	-10.7745
牒問	-10.7752
能度	-10.7755
第三結	-10.7755
雙明	-10.7761
登地	-10.777
始有	-10.777
四顛倒	-10.7771
奇	-10.7778
何等為四	-10.7779
揀	-10.7781
慧朗	-10.7782
鶴	-10.7782
鑒	-10.7783
初正明	-10.7783
悟解	-10.7784
招提	-10.7784
奇特	-10.7787
但見	-10.7788
是我所	-10.7788
是名上智	-10.7789
梁武	-10.779
三釋義	-10.7792
大覺	-10.7793
下別顯之	-10.7794
駕	-10.7795
佛讚	-10.7795
尼拘陀子	-10.7797
蚊	-10.7798
恃	-10.7799
未入	-10.78
房舍	-10.7803
乳有酪	-10.7803
之上	-10.7804
值佛	-10.7805
狼	-10.7805
菩薩摩訶薩修大涅槃	-10.7805
如是解脫即是如來	-10.7806
善思念之	-10.7812
總名	-10.7813
住於大乘大般涅槃	-10.7817
無報	-10.7817
義釋	-10.7818
不違	-10.7828
善人	-10.783
辯其相	-10.783
下句	-10.7832
兩義	-10.7833
久住於世	-10.7837
即開	-10.7841
友	-10.7842
果實	-10.7844
即知	-10.7848
如來真實	-10.785
障故	-10.7852
皆當	-10.7854
塵沙	-10.7855
子想	-10.7857
益物	-10.7866
法華玄	-10.7867
火滅	-10.7868
後難	-10.7869
勝劣	-10.7873
毀戒	-10.7874
設有	-10.7882
從彼	-10.7885
佛境界	-10.7885
無量百千	-10.7888
二十一	-10.7902
而成	-10.7902
汝可	-10.7905
同聞	-10.7907
身口意	-10.7912
天龍	-10.7916
即名為	-10.7918
合為一	-10.7918
要當	-10.7919
涅槃體	-10.792
能破壞	-10.7921
答意	-10.7921
那得	-10.7925
不畢竟	-10.7927
趣入	-10.7927
初正答	-10.7934
未成	-10.7937
晨朝	-10.7937
第	-10.7938
即真	-10.7941
隨有	-10.7941
次辯	-10.7942
綿	-10.7944
果上	-10.7946
生果	-10.7946
咨	-10.7949
以別	-10.795
律中	-10.7951
徐	-10.7953
至彼	-10.7955
牧牛	-10.7955
更問	-10.7955
憙	-10.7955
】【	-10.7955
因中有果	-10.7958
那忽	-10.7958
競	-10.7959
善行	-10.7963
六識	-10.7964
其過	-10.7967
諸力士	-10.7967
菩薩摩訶薩修大涅槃微妙經典	-10.7968
悋	-10.7969
菩薩應當	-10.797
同彼	-10.7976
道前	-10.7976
流轉生死	-10.7976
若無我者	-10.7977
八智	-10.7978
以求	-10.798
明中道	-10.7985
下別釋	-10.7989
能如是	-10.799
於中先	-10.7991
一子地	-10.7995
第三番	-10.7997
四部	-10.8001
亦不可思議	-10.8002
正顯	-10.8008
寶幢	-10.801
隨情	-10.8014
於過去	-10.8015
實性	-10.8016
須菩提	-10.8018
。』」	-10.8021
有三義	-10.8024
亦應有	-10.8028
終日	-10.8029
分科	-10.8031
永無	-10.8034
四段	-10.8037
知根	-10.804
何因緣	-10.804
分為二	-10.8041
來至此	-10.8042
開宗	-10.8042
依教	-10.8045
是故汝等	-10.8048
百億	-10.8051
婆羅門言	-10.8068
遊行	-10.807
長老	-10.807
聽我	-10.8076
善男子譬如有人	-10.8081
本迹	-10.8081
供養恭敬	-10.8086
向佛	-10.809
修羅	-10.8096
思慧	-10.81
聲聞辟支佛	-10.8103
藍	-10.8107
有門	-10.8107
修梵行	-10.8108
抄	-10.811
湛然	-10.811
即一而三	-10.8112
開顯	-10.8113
巨	-10.8113
霧	-10.8117
報障	-10.8118
善說	-10.8121
燃	-10.8123
歡	-10.8124
右膝著地	-10.8125
賢劫	-10.8132
諍訟	-10.8133
首陀	-10.8135
雜華	-10.8137
廣顯	-10.8138
貪恚	-10.8139
邊地	-10.814
只是一	-10.8142
住是三昧	-10.8147
無想天	-10.8152
一切眾生亦復如是	-10.8154
有二意	-10.8159
注云	-10.8159
玄義	-10.8166
四聖諦	-10.818
觀師云	-10.8181
五譬	-10.8183
其猶	-10.8191
覆藏	-10.8192
具足檀波羅蜜	-10.8194
亦具	-10.8194
入理	-10.82
德王品	-10.8202
便謂	-10.8206
三慧	-10.821
皆爾	-10.8211
正報	-10.8212
往佛所	-10.8213
有所得	-10.8216
未足	-10.8219
又問	-10.8224
善道	-10.8227
之地	-10.8228
為根本	-10.8236
不有	-10.8236
無勝	-10.824
結勸	-10.8245
治國	-10.8245
舉昔	-10.8246
非有無	-10.8247
三十七	-10.8257
善果	-10.8264
恣	-10.8267
正應	-10.8269
時異	-10.8272
庶	-10.8274
前六	-10.8275
素	-10.8276
愛取	-10.8277
優鉢羅	-10.8279
曜	-10.8279
倚	-10.8281
剋	-10.8282
是名中智	-10.8283
色像	-10.8283
鬱	-10.8284
工巧	-10.8285
裟	-10.8286
出現於世	-10.8289
屠	-10.829
m	-10.8293
富那	-10.8294
拔濟	-10.8295
陰入界	-10.8295
渧	-10.8296
縱橫	-10.8296
依義	-10.8297
▁初敘古	-10.8297
其地	-10.8298
或有眾生	-10.8299
須達多	-10.8299
離陰	-10.83
怨賊	-10.8302
行慈	-10.8303
名聞	-10.8304
即是法身	-10.8306
繫屬	-10.8306
如法修行	-10.8307
殊勝	-10.8307
真解	-10.8308
金剛之身	-10.8309
墮三惡道	-10.8309
所執	-10.8317
即是中道	-10.8317
作五逆罪	-10.8317
五品	-10.8317
此第二	-10.8318
大機	-10.8323
亦應如是	-10.8324
應須	-10.8325
▁初略	-10.8332
便是	-10.8332
惡比丘	-10.8334
無犯	-10.8336
梵語	-10.8339
三途	-10.8344
能詮	-10.8346
能燒	-10.8346
後分	-10.8347
徒眾	-10.835
解惑	-10.8354
具論	-10.8358
智臣	-10.8359
至于	-10.8368
下正明	-10.8371
教他	-10.8374
離生死	-10.838
弘誓	-10.8385
▁初示	-10.8391
云何復言	-10.8392
妙理	-10.8402
兩難	-10.8402
苦受	-10.8407
察	-10.8408
一家	-10.8408
▁初引	-10.8409
其義云何	-10.8409
無邊身	-10.8422
盈	-10.8431
如火	-10.844
身密	-10.8442
升	-10.8444
倡	-10.8444
生長	-10.8444
正因性	-10.8444
逗	-10.8447
命盡	-10.8448
夢中	-10.8449
爛	-10.8452
悞	-10.8453
非諸聲聞緣覺所知	-10.8455
側	-10.8455
遠離一切	-10.8456
得須陀洹果	-10.8457
即其義也	-10.8458
芭	-10.8459
夭	-10.846
雙樹間	-10.8461
一門	-10.8461
是大乘典	-10.8462
婆私吒	-10.8464
娑羅雙樹間	-10.8464
或復有說	-10.8464
不應作	-10.8465
無量阿僧祇	-10.8466
梵本	-10.8479
度眾生故	-10.8484
行施	-10.8487
作此說	-10.8488
七方便	-10.8495
大喜	-10.8495
眾魔	-10.8497
正辨	-10.8498
第一明	-10.85
願諸眾生得	-10.8509
亦見	-10.851
不應言	-10.851
是有漏	-10.8511
▁二舉	-10.8511
品云	-10.8512
餘四	-10.8514
於未來世	-10.8517
根緣	-10.8524
佛復告	-10.8529
五千	-10.8529
之殊	-10.853
歸依處	-10.8535
二乘之人	-10.8539
大般涅槃經集解卷第	-10.8541
非真實	-10.8542
日光	-10.8549
第十一	-10.855
理無	-10.8551
亦得名為	-10.8556
初門	-10.8567
樂因	-10.8576
佛答為二	-10.8577
業行	-10.8586
例然	-10.8589
九種	-10.8595
最初	-10.8599
斥古	-10.8601
初標章	-10.8604
下正示	-10.8607
得好	-10.8612
阿僧祇	-10.8615
假我	-10.8616
什	-10.8619
大會	-10.862
汁	-10.8621
猒	-10.8622
疲	-10.8622
攬	-10.8624
疑惑	-10.8625
裹	-10.8625
先歎	-10.8628
無因果	-10.8628
凝	-10.8629
莊	-10.8629
評	-10.8629
嗜	-10.8629
遵	-10.8631
充足	-10.8631
怨敵	-10.8633
所以然者	-10.8633
中有一	-10.8633
次約	-10.8634
刀杖	-10.8634
報身	-10.8636
憂惱	-10.8637
r	-10.8637
我當云何	-10.864
論議	-10.8641
告諸比丘	-10.8641
所感	-10.8642
偏小	-10.8643
本末	-10.8645
上求	-10.8647
護戒	-10.8651
瞿曇沙門	-10.8652
淨心	-10.8654
電光	-10.8657
二語	-10.866
諸佛世界	-10.8661
遍照	-10.8662
教門	-10.8668
故不名	-10.867
邊見	-10.8671
先列	-10.8672
墮於	-10.8675
勸令	-10.8682
果地	-10.8689
成就具足	-10.869
四無所畏	-10.869
真正	-10.8694
常無常等	-10.8703
隨宜	-10.8703
卷第三十	-10.8704
象王	-10.871
煗法	-10.8715
五眼	-10.8719
還家	-10.8726
兩種	-10.8728
如來出世	-10.8728
施食	-10.8729
我本	-10.8733
聞思	-10.8735
所奉	-10.8736
能忍	-10.8736
▁初答	-10.8738
衣食	-10.8739
弘經	-10.8745
助道	-10.8748
古今	-10.875
一實諦	-10.8753
罪報	-10.8755
結難	-10.8755
大論云	-10.8757
令知	-10.8768
無常無我	-10.8771
召請	-10.8773
法非法	-10.8773
理具	-10.8781
正直	-10.8783
之罪	-10.8784
無所著	-10.8784
造色	-10.8784
真理	-10.8785
皆有佛性	-10.8789
則不如是	-10.8789
十四音	-10.8791
䨱	-10.8792
淨不淨	-10.8794
馬鳴	-10.8795
久遠	-10.8799
誼	-10.8804
三十四問	-10.8805
示同	-10.8805
四十年	-10.8806
作是願	-10.8806
聞所不聞	-10.8806
遶	-10.8806
錯	-10.8806
輪迴	-10.8807
廁	-10.8809
北涼天竺三藏曇無讖譯	-10.881
有何差別	-10.8812
迴轉	-10.8813
▁二就	-10.8814
雙林	-10.8816
分陀利	-10.8816
哀歎品	-10.8817
千世界	-10.8821
佛旨	-10.8829
墮落	-10.8831
真解脫者	-10.884
初偈	-10.884
中文別有	-10.8841
分文	-10.8842
最為	-10.885
背捨	-10.8852
常住之法	-10.888
明己	-10.888
佛昔	-10.8882
後邊	-10.8887
多種	-10.8888
非諦	-10.8902
理實	-10.8904
速往	-10.8925
不能分別	-10.893
總持	-10.8933
娑羅	-10.8939
其名曰	-10.8946
悲喜	-10.8949
此間	-10.8953
聖行品	-10.8955
第四禪	-10.8956
上云	-10.8959
舉體	-10.8959
雖異	-10.8963
讚言	-10.8963
旋	-10.897
道慧記曰	-10.8971
師子王	-10.8971
爾雅	-10.8974
訛	-10.8976
饑	-10.8977
一切外道	-10.8978
勤精進	-10.898
稗	-10.898
辯才	-10.898
菩提道	-10.8981
第三段	-10.8981
憍尸迦	-10.8981
地獄畜生餓鬼	-10.8982
若復有人	-10.8982
詶	-10.8982
爽	-10.8983
鉤	-10.8983
臭穢	-10.8984
額	-10.8986
群賊	-10.8988
嗚呼	-10.8988
看	-10.8989
斧	-10.899
▁疏總釋	-10.8991
稻	-10.8992
商人	-10.8992
常與無常	-10.8993
攀緣	-10.8994
我等今者	-10.8994
是大涅槃微妙經典	-10.8995
無辜	-10.9004
此經復有諸佛菩薩	-10.9006
對辨	-10.9007
戒取	-10.9009
善思惟	-10.9011
方能	-10.9017
之意也	-10.9022
次佛答	-10.9027
行陰	-10.9027
攝心	-10.9029
總非	-10.9031
非過去	-10.9034
生怖畏	-10.9036
等者即	-10.9037
列其名	-10.9038
慧行	-10.9038
已盡	-10.9041
數息	-10.9043
即般若	-10.9047
制戒	-10.9048
無明漏	-10.9049
其聲	-10.905
▁二結	-10.9053
舉偈	-10.9058
不差	-10.9058
偏圓	-10.9062
修成	-10.9076
如須彌山	-10.9084
要因	-10.9085
波若	-10.9085
苦無常	-10.9086
相關	-10.9087
潤生	-10.909
不平	-10.9098
為主	-10.9098
樂想	-10.91
▁二又	-10.9103
妙義	-10.9115
釋種	-10.9125
為一雙	-10.9132
兩番	-10.9135
煩惱業	-10.9139
偈半	-10.9139
圓極	-10.9141
若諸眾生	-10.9142
光召	-10.9142
孫	-10.915
佛乘	-10.915
熾	-10.9153
牢	-10.9155
亦不見	-10.9156
中初法次喻後合	-10.9156
役	-10.9157
有頂	-10.9158
蔭	-10.9159
翅	-10.9163
焦	-10.9167
長跪	-10.9168
叉手	-10.9169
斷德	-10.9169
奉召	-10.917
拄	-10.917
短壽	-10.9171
作是思惟	-10.9176
唯願大王	-10.9181
如是我聞	-10.9185
遺教經	-10.9188
無量世	-10.9193
外空	-10.9196
首楞嚴三昧	-10.9197
見諸眾生	-10.9208
專念	-10.9209
五分	-10.9212
不久當	-10.9216
聲光	-10.9217
下合譬	-10.9219
化佛	-10.9222
所得功德	-10.9223
吾今	-10.923
但合	-10.9232
作罪	-10.9232
重問	-10.9239
唯除菩薩	-10.9241
但約	-10.9242
兩意	-10.9242
正使	-10.9248
末後	-10.925
結使	-10.9251
應先	-10.9252
于時	-10.9253
不可量	-10.9257
一面	-10.926
兩偈	-10.9265
所念	-10.9266
釋論云	-10.9274
廣答	-10.9277
今舉	-10.9283
不移	-10.9289
如來不爾	-10.9303
後句	-10.9303
第一義天	-10.9304
中品	-10.9313
前三教	-10.9314
第二釋	-10.9316
百二十	-10.9328
賞	-10.9332
無諍	-10.9333
阿鼻	-10.9334
注云云者	-10.9335
晉	-10.9337
證實	-10.9341
大眾問品	-10.9342
鷲	-10.9343
淫	-10.9343
織	-10.9345
軸	-10.9345
三世攝	-10.9345
因果性	-10.9346
蕩	-10.9346
涅	-10.9346
地上	-10.9347
眾生悉有佛性	-10.9348
殖	-10.9349
重惡	-10.9352
兔	-10.9353
進退	-10.9353
不免	-10.9354
善五陰	-10.9354
驚怪	-10.9355
低	-10.9356
醒	-10.9356
牛羊	-10.9356
生酥	-10.9358
迦樓羅	-10.9362
流淚	-10.9362
炬	-10.9365
聰明	-10.9365
不可治	-10.9365
大雲密藏菩薩	-10.9373
方乃	-10.9375
故名為大	-10.9375
文句	-10.938
勝負	-10.9388
於無量阿僧祇劫	-10.9388
佛國	-10.9399
兩章門	-10.94
水草	-10.9409
眾罪	-10.9409
總釋	-10.9409
聽畜	-10.9411
國人	-10.9415
昔言	-10.9424
不動地	-10.9428
三倒	-10.9432
各自	-10.9434
師子吼品	-10.9437
□□□□□□□□□□	-10.9441
梵志言	-10.9442
四兵	-10.9442
諸藥	-10.946
希	-10.9462
常為眾生	-10.9466
第二段	-10.9466
有四句	-10.9475
如似	-10.9481
如是等人	-10.9482
能遮	-10.9482
四偈	-10.9487
經力	-10.9488
不淨觀	-10.95
經書	-10.95
上首	-10.9502
豈同	-10.9523
而般涅槃	-10.9524
苟	-10.9526
囑	-10.9528
頻	-10.9531
筆	-10.9531
功德成就	-10.9531
月愛三昧	-10.9531
自行化他	-10.9532
苦苦	-10.9532
不縱不橫	-10.9535
朽	-10.9535
津	-10.9536
祇陀	-10.9536
金翅鳥	-10.9536
聞是語已	-10.9537
銅	-10.9537
寫	-10.9537
▁二約	-10.9538
寂定	-10.954
沈沒	-10.9542
未具	-10.9542
妃	-10.9543
防護	-10.9543
最為第一	-10.9543
畜養	-10.9544
貝	-10.9544
無央數	-10.9544
炭	-10.9544
善知識者	-10.9547
憶想	-10.9547
哀哉	-10.9549
來詣佛所	-10.9549
禮敬	-10.9551
第四段中	-10.9552
不了義	-10.9553
四姓	-10.9554
微妙經典	-10.9557
純陀品	-10.9559
菩薩修大涅槃	-10.956
望前	-10.9564
方廣	-10.9567
是何	-10.9572
可壞	-10.9574
龍樹	-10.9591
雖殊	-10.9591
兩章	-10.9594
別離	-10.9597
攝一切法	-10.9598
有去來	-10.9598
而諸眾生	-10.9605
四相品	-10.9605
去住	-10.9606
不畜	-10.9613
同學	-10.9614
如來性品	-10.9616
以種種	-10.9626
此句	-10.9642
邪常	-10.9643
勿令	-10.9644
。」《	-10.9648
未了	-10.9653
大樹	-10.9654
為利養故	-10.9662
無定相	-10.9668
大王當知	-10.9672
珍	-10.9674
正因佛性	-10.9675
之功	-10.968
全是	-10.9683
正理	-10.9685
獨處	-10.9691
一塵	-10.9692
全無	-10.9694
解脫處	-10.9696
則不爾	-10.9697
例前	-10.97
外有	-10.9702
除惑	-10.9705
文殊師利言	-10.9708
祈	-10.971
檢	-10.9711
寧得	-10.9713
悉是無常	-10.9714
楚	-10.9715
豫	-10.9716
熙連	-10.9716
勸信	-10.9717
愁憂	-10.9718
非想非非想	-10.9724
即三而一	-10.9725
快哉	-10.9727
即事而理	-10.9728
涼	-10.9728
毗舍	-10.973
上根	-10.973
伸	-10.9731
近善友	-10.9731
是故說言	-10.9732
三世有法無有是處	-10.9733
凡愚	-10.9735
分別解說	-10.9735
某	-10.9735
誰有	-10.9735
坻	-10.9738
客醫	-10.9738
精舍	-10.9739
智德	-10.974
娑羅雙樹	-10.974
欺誑	-10.9742
大梵天王	-10.9746
來至佛所	-10.9747
陰身	-10.9749
成熟	-10.9751
所有眾生	-10.9752
除愈	-10.9754
三世所攝	-10.9755
以佛神力	-10.9756
邪曲	-10.9762
歎教	-10.977
猛火	-10.9771
序品	-10.9777
邪我	-10.9782
既盡	-10.9783
勸請	-10.9792
不污	-10.9795
到彼	-10.9797
持犯	-10.9798
臨終	-10.98
醫師	-10.9803
等者謂	-10.9805
小教	-10.9807
觀漏	-10.981
本際	-10.9825
諸句	-10.9832
真應	-10.9836
無染	-10.9837
三十心	-10.9839
酬其	-10.9846
現病	-10.9853
理事	-10.9855
顯勝	-10.9858
無明為	-10.986
發聲	-10.9861
難辭	-10.989
他云	-10.9895
上句	-10.9896
遮止	-10.9899
久已	-10.9902
度生死	-10.9905
荼	-10.9909
剛	-10.9914
斗	-10.9914
雞	-10.9915
溺	-10.9918
后	-10.9918
饑渴	-10.9919
促	-10.9923
澄	-10.9924
圍	-10.9926
凍	-10.9927
坦	-10.9928
匝	-10.9928
第四段	-10.9929
雀	-10.993
挍	-10.9931
泛	-10.9931
默然不受	-10.9931
經旨	-10.9932
二解一云	-10.9932
煙	-10.9933
無常即常	-10.9937
離煩惱	-10.9938
隨自意語	-10.9939
所逼	-10.9942
偏就	-10.9946
我於一時	-10.9946
非想非非想處	-10.9946
及一闡提	-10.9951
空無所有	-10.9953
頭面作禮	-10.9954
往至佛所	-10.9956
是了因	-10.9957
諸眾生等	-10.9958
隱沒	-10.996
威儀具足	-10.9965
無邊身菩薩	-10.9974
香山	-10.998
無上正法	-10.9982
離車	-10.9984
眼根	-11.0012
不得稱	-11.0012
棄捨	-11.0046
阿那含人	-11.0055
是故不得	-11.0055
歸命	-11.006
無漏果	-11.0064
愛著	-11.0085
第五明	-11.0089
眾生壽命	-11.0096
法無礙	-11.0101
七事	-11.0102
穴	-11.0111
氷	-11.0116
以顯之	-11.0117
晚	-11.0117
盧	-11.0117
掃	-11.0118
擊	-11.0118
幸	-11.0118
篌	-11.0119
搆	-11.0122
枝葉	-11.0124
東西	-11.0124
瑕	-11.0124
耎	-11.0125
脂	-11.0126
不聞而聞	-11.0126
十方佛	-11.0127
嶮	-11.0127
屋宅	-11.0127
亦無有	-11.0129
堅牢	-11.0129
漏盡	-11.013
授記	-11.0131
悔恨	-11.0133
曉了	-11.0134
化物	-11.0135
滅壞	-11.0137
誹謗正法	-11.0144
是經典	-11.0146
號哭	-11.0157
亦無所	-11.0158
江河	-11.0161
有憂	-11.0162
恭敬供養	-11.0164
未達	-11.0164
非倒	-11.017
則得安樂	-11.0175
十誦	-11.0183
唯願世尊	-11.0186
何等為五	-11.0186
圓修	-11.0188
名分別答	-11.0188
念慧	-11.0201
邪惡	-11.0206
捨去	-11.0211
此即第一	-11.0211
憂苦	-11.0214
此閻浮提	-11.0215
大神通	-11.0219
數論	-11.022
不能治	-11.0227
塵垢	-11.0228
惡象	-11.0242
永盡	-11.0246
非我弟子	-11.0246
展轉相	-11.0251
願力	-11.0257
不得自在	-11.0262
▁二正答	-11.0262
遍知	-11.0268
毀禁	-11.027
生歡喜	-11.0276
深密	-11.0296
想倒	-11.0296
決定說	-11.0296
逢	-11.0301
冶城	-11.0307
文釋義	-11.0309
弗	-11.0313
華果	-11.0314
悶	-11.0315
毗尼	-11.0315
膝	-11.0315
裁	-11.0316
崇	-11.0317
辱	-11.0318
麗	-11.032
蜂	-11.032
得差	-11.0321
泯	-11.0323
膚	-11.0323
沮	-11.0324
陷	-11.0326
下廣釋	-11.0327
允	-11.0327
偷蘭遮	-11.033
吞	-11.033
月光	-11.0331
嗅	-11.0333
受想行識亦復如是	-11.0334
不果所願	-11.0335
無常苦空無我	-11.0335
齎	-11.0337
搖	-11.0338
目犍連	-11.0338
十八界	-11.0343
悲感	-11.0345
顧命	-11.0345
求索	-11.0348
多羅樹	-11.0351
是以言	-11.0355
藥樹	-11.0359
磨滅	-11.0365
悟道	-11.0365
色香	-11.0367
善護	-11.0369
淨名云	-11.037
水性	-11.0371
真偽	-11.0377
答初問	-11.0381
冥真	-11.0382
下第三結	-11.0384
▁初唱	-11.0384
佛讚迦葉	-11.0384
覺悟	-11.0385
▁初正明	-11.0389
明闡提	-11.039
極重	-11.0394
心神	-11.0396
▁二論義	-11.0401
甚多	-11.0403
不造	-11.0413
若我弟子	-11.0415
下廣顯	-11.0439
常樂等	-11.0455
四弘	-11.0462
而言之	-11.0475
安樂性	-11.0481
能破煩惱	-11.0484
覺了	-11.0487
得生天	-11.0488
易解	-11.0488
他土	-11.05
無救	-11.0501
之徒	-11.0502
如止觀	-11.0507
月喻	-11.0512
▁初敘意	-11.0519
初牒	-11.0525
悉共	-11.0527
火燒	-11.0528
嬈	-11.0529
灼	-11.0529
鳴	-11.0529
販賣	-11.0529
帳	-11.053
問何故	-11.053
縷	-11.0531
迎	-11.0532
腦	-11.0532
陋	-11.0536
神通變化	-11.0536
祿	-11.0536
游	-11.0537
弓	-11.0537
婆沙	-11.0537
迦葉白下	-11.0538
良田	-11.0539
各相謂言	-11.0541
圖	-11.0541
所作已辦	-11.0542
渴仰	-11.0544
伴侶	-11.0544
死屍	-11.0545
鴿	-11.0545
貿易	-11.0545
奴	-11.0545
未來之世	-11.0545
茶毘	-11.0546
今正是時	-11.055
納衣	-11.0551
進趣	-11.0555
佛告純陀	-11.0555
瘡疣	-11.0557
變為	-11.0558
中有五	-11.0559
逆流	-11.056
為度眾生	-11.0562
摩尼	-11.0562
奢摩他	-11.0562
長大	-11.0567
惟願如來	-11.0568
泥曰	-11.0569
香氣	-11.0569
則墮	-11.0586
光照	-11.0591
遙見	-11.0592
是故為常	-11.0594
中最	-11.0596
婬欲	-11.0598
凡有二種	-11.06
置之	-11.0616
不待	-11.0617
開權	-11.0618
汝諸比丘	-11.0621
驗知	-11.0625
師長	-11.0625
辯釋	-11.0628
則易	-11.0628
阿羅漢果	-11.0628
假設	-11.0629
隨其所	-11.0631
修苦行	-11.0634
眾寶	-11.0635
嘆其	-11.0642
深奧	-11.0643
中又二	-11.0644
施設	-11.0645
摩耶	-11.0646
無累	-11.0649
見於佛性	-11.065
云何得名	-11.0651
色是無常	-11.0657
震動	-11.0662
能救	-11.0662
無明觸	-11.0665
八不淨	-11.0674
無變	-11.0683
自稱	-11.0684
感應	-11.0685
能調	-11.0691
十信	-11.0693
非虛妄	-11.0698
於此處	-11.07
聲聞乘	-11.0703
不調	-11.0705
樹林	-11.071
啟請	-11.0714
不曉	-11.0723
百歲	-11.0727
綱	-11.0731
逼切	-11.0732
膏	-11.0735
身戒心慧	-11.0738
是名中道	-11.0739
䟦	-11.0739
奔	-11.0742
向云	-11.0742
頑	-11.0746
怯	-11.0747
髓	-11.0749
吉祥	-11.0749
調柔	-11.075
猪	-11.0751
無為空	-11.0751
喻真解脫	-11.0752
羸劣	-11.0753
下云云者	-11.0753
廟	-11.0754
僕使	-11.0754
咽	-11.0755
鬪諍	-11.0756
漫	-11.0758
方等經典	-11.0759
傾動	-11.076
悲泣	-11.076
種植	-11.0762
慈愍	-11.0763
飛鳥	-11.0764
雖念念滅	-11.0766
勝三修	-11.0767
覆蔽	-11.077
反顯	-11.0777
私云	-11.0778
▁二番	-11.0779
亦於晨朝	-11.078
施化	-11.0782
▁初番	-11.0785
山林	-11.0787
座上	-11.0795
親屬	-11.0797
苦味	-11.0799
眼目	-11.0799
而為說法	-11.0816
信根	-11.082
慳貪	-11.0838
十使	-11.0845
第二論義	-11.0845
空空空	-11.085
且舉	-11.0851
是佛境界	-11.0868
至佛所	-11.0881
辟支	-11.0884
詣佛	-11.0888
萬億	-11.0891
遙	-11.0902
罪福	-11.0904
持禁戒	-11.093
我見我	-11.0932
相續不斷	-11.0948
安穩	-11.0952
皇	-11.0952
尼犍	-11.0955
虧	-11.0955
率	-11.0956
仗	-11.0961
衛	-11.0962
殷	-11.0963
房	-11.0964
改悔	-11.0965
隨自意	-11.0965
有三意	-11.0965
靡	-11.0968
標釋結	-11.0968
頗梨	-11.0969
五逆罪	-11.0971
篋	-11.0971
突吉羅	-11.0972
田宅	-11.0972
慇懃	-11.0972
泡	-11.0974
菩薩不爾	-11.0974
端嚴	-11.0974
受五欲	-11.0977
星宿	-11.0977
y	-11.0978
不見性	-11.0978
初先正	-11.0979
周匝	-11.0979
法與非法	-11.0981
靈味	-11.0982
前中初先	-11.0982
慰喻	-11.0983
高廣	-11.0986
百千萬	-11.099
是故得名	-11.0994
無量諸佛	-11.0997
不可斷	-11.1004
香華	-11.1005
一切佛法	-11.1005
彰彼	-11.1008
愚癡之人	-11.1011
奉持	-11.1011
迦葉領解	-11.1011
面門	-11.1016
俱舍	-11.1019
異物	-11.1025
能發心	-11.1033
各執	-11.104
是故我今	-11.1042
在何處	-11.1047
利益眾生	-11.106
顯中道	-11.1062
不可聞	-11.1067
長壽品	-11.1074
□□□□□□□□□	-11.1085
觀境	-11.1096
生死河	-11.1109
自然而	-11.1112
請佛住	-11.1126
初譬中	-11.1126
五番	-11.1134
消文	-11.1138
不修身	-11.1145
頓漸	-11.1145
無明愛	-11.115
我慢	-11.1151
以是義下結	-11.1153
弘法	-11.1153
既爾	-11.1153
戀	-11.1167
那由他	-11.1167
席	-11.1169
開密	-11.117
以標舉	-11.1174
佗	-11.1181
謀	-11.1182
來至我所	-11.1183
故下文言	-11.1184
棃	-11.1185
休	-11.1187
紫	-11.1188
墨	-11.1191
添	-11.1191
摩訶摩耶	-11.1193
支節	-11.1195
高貴	-11.1196
無始無終	-11.1197
無殊	-11.1197
庫藏	-11.1198
鼠	-11.1199
如是等輩	-11.1199
跳	-11.1201
如前記	-11.1203
從乳生	-11.1204
得壽命長	-11.1204
生悔心	-11.1215
中句別有	-11.122
說無量名	-11.1221
親友	-11.1233
十方諸佛	-11.1235
十二字	-11.1236
述其	-11.1237
此經中	-11.1238
優波	-11.124
譬如虛空	-11.1243
遠近	-11.1248
還歸	-11.1248
無慚愧	-11.1253
醫方	-11.1265
其土	-11.1275
似解	-11.1276
十六心	-11.1276
十六分	-11.1281
如幻化	-11.1284
如是經典	-11.1292
持戒比丘	-11.1295
一途	-11.1302
次句	-11.1304
城內	-11.1313
教化眾生	-11.1316
無限	-11.132
違經	-11.1325
河沙	-11.133
一切諸法皆	-11.133
重復	-11.1334
種善根	-11.1338
不忍	-11.1357
更無異	-11.1366
別歎	-11.1376
有餘無餘	-11.1378
其母	-11.1381
何益	-11.1382
善趣	-11.1388
捨身命	-11.1391
如經中說	-11.1397
千萬	-11.1399
籌量	-11.1399
崖	-11.1401
縣	-11.1403
無瘡疣	-11.1404
若具應言	-11.1406
三千大千	-11.1409
甞	-11.1413
折伏	-11.1413
囊	-11.1415
恕	-11.1416
筋	-11.1416
無常苦無我	-11.1416
俟	-11.1417
身色俱空	-11.1418
丘	-11.1419
蟻	-11.1419
燸	-11.1421
念念生滅	-11.1422
勇猛	-11.1425
洗浴	-11.1427
窟宅	-11.1428
善權	-11.1428
種諸善根	-11.1429
鷄	-11.1431
迦葉先問	-11.1441
精勤修習	-11.1444
首楞嚴定	-11.1456
相似法故	-11.1457
佉陀羅	-11.1459
甘露味	-11.1461
雖有佛性	-11.1489
是人雖	-11.1498
入大涅槃	-11.1499
容受	-11.1501
如是等物	-11.1504
常住無變	-11.1505
地已上	-11.1509
福盡	-11.1527
三千大千世界所有	-11.1528
不善思惟	-11.1531
王而為上首	-11.1537
且就	-11.1537
正路	-11.1548
畢竟涅槃	-11.1554
當得阿耨多羅三藐三菩提	-11.1559
道路	-11.157
是故我言	-11.1571
習學	-11.1576
內證	-11.1578
譬如國王	-11.158
驚怖	-11.1585
悉有佛性	-11.1587
譬如父母	-11.1594
寶物	-11.1602
化益	-11.1608
遇善友	-11.161
六十二	-11.1615
非內外	-11.1615
世流布	-11.1618
服乳	-11.1625
自下第二明	-11.1632
水火	-11.1632
輒	-11.1635
祇夜	-11.1641
驅遣	-11.1643
深廣	-11.1643
心若常者	-11.1647
整	-11.1647
式	-11.1648
謹	-11.1648
問答重顯	-11.1649
蠲	-11.1649
認	-11.1649
優劣	-11.165
涕	-11.1651
罵辱	-11.1651
竊	-11.1654
紺	-11.1654
末代	-11.1655
不苦不樂	-11.1657
發誓願	-11.166
則不名	-11.1665
我亦不說	-11.1668
一切眾生悉有	-11.1669
知根力	-11.1672
往詣	-11.1672
面像	-11.1674
盛滿	-11.168
衣鉢	-11.168
因緣力故	-11.1683
修伽陀	-11.1686
摩訶迦葉	-11.1686
牛馬	-11.1692
名善知識	-11.1698
段食	-11.17
又一解	-11.1703
且置	-11.1706
略標	-11.172
不墮地獄	-11.1722
無始空	-11.1731
四依品	-11.1731
出家之人	-11.1737
百千億	-11.1748
七句	-11.1752
能增長	-11.1757
釋題	-11.1763
何故不見	-11.1767
不可思	-11.1771
憐愍眾生	-11.178
復有比丘	-11.1785
梵云	-11.1801
因因性	-11.1807
聞佛說	-11.181
先總	-11.1813
又為二	-11.1815
六趣	-11.1819
所住處	-11.1828
不明了	-11.1829
境界性	-11.1848
總以結	-11.1851
如來常住不變	-11.1864
斛	-11.1866
逝	-11.1867
履	-11.1869
大雨	-11.187
谷	-11.187
削	-11.1874
欽	-11.1876
繁	-11.1877
潔	-11.1878
橋	-11.1879
塵勞	-11.1879
策	-11.188
為我說	-11.1881
陶	-11.1882
是故菩薩名無所得	-11.1882
孰	-11.1884
空不空	-11.1886
書寫解說	-11.1889
倫	-11.1889
安慰	-11.1889
蝕	-11.189
巨富	-11.189
形貌	-11.189
爪	-11.1892
迦毗羅	-11.1892
出入息	-11.1892
六番	-11.1893
南本大般涅槃經會疏	-11.1898
摩醯首羅	-11.1898
牟尼	-11.1898
從他聞	-11.1899
伽羅	-11.19
湯藥	-11.1903
等無有異	-11.1904
南山	-11.1904
速疾	-11.1905
所得福德	-11.1905
捉持	-11.1907
第三重	-11.1909
刑	-11.191
奪其	-11.1912
約之顯	-11.1915
思惟其義	-11.1918
以自在故	-11.1918
▁初標示	-11.1918
長夜	-11.1922
起諍	-11.1923
遺餘	-11.1932
出家修道	-11.1932
有漏之法	-11.1943
猶如虗空	-11.1946
多含	-11.195
同一佛性	-11.1955
如來知時	-11.1957
娑羅樹	-11.1965
得人身	-11.1968
恭敬禮拜	-11.1977
偏據	-11.1978
常不變易	-11.1993
前起後	-11.1995
傳云	-11.1995
無餘義	-11.2006
如來正覺	-11.2015
▁二今明下	-11.2029
可救	-11.2033
界內外	-11.2038
皆是無常	-11.204
其間	-11.2043
辦供	-11.2066
眾生不解	-11.2066
惡獸	-11.2079
第十六	-11.2087
吾我	-11.2098
所讚	-11.2103
癈	-11.2107
三世諸佛	-11.211
提婆達	-11.2113
贊	-11.2115
攀	-11.2117
繼	-11.2117
遇緣	-11.212
仲	-11.212
死魔	-11.2122
文為兩	-11.2123
教誡	-11.2123
政	-11.2123
刈	-11.2124
否	-11.2124
邑	-11.2124
秉	-11.2125
暫出還沒	-11.2127
憫	-11.2128
上求下化	-11.2128
黎	-11.213
結前生後	-11.2131
劍	-11.2131
嬰	-11.2132
在在處處	-11.2133
生大苦惱	-11.2133
儒	-11.2133
如前說	-11.2134
抗	-11.2136
悴	-11.2136
螫	-11.2138
謗佛法僧	-11.2138
周旋	-11.2138
爭論	-11.2139
心懷愁惱	-11.2142
誡聽	-11.2143
滓	-11.2143
師子吼菩薩言	-11.2143
顯露	-11.2145
意密	-11.215
右手	-11.2151
意如何	-11.2156
劫奪	-11.216
沈水	-11.2161
婬女	-11.2164
士夫	-11.2167
欲漏	-11.2174
險難	-11.2175
若有沙門	-11.2178
瑞應	-11.219
樹神	-11.2194
至不至	-11.2197
物情	-11.2209
入胎	-11.2209
有大威德	-11.2213
照了	-11.2218
思量	-11.2219
寶城	-11.2243
加水	-11.2244
甚難	-11.2245
斷肉	-11.2249
初總示	-11.225
善巧	-11.2253
成正覺	-11.2256
勤苦	-11.226
前白佛言	-11.2273
無慚	-11.2274
述意	-11.2275
轉變	-11.2278
為他說	-11.2283
豪	-11.2289
未見佛性	-11.2294
歷別	-11.2299
廣宣	-11.2322
分舍利	-11.2322
先唱	-11.2326
十恒河沙	-11.2329
慰	-11.2347
選	-11.2355
億劫	-11.2355
如前釋	-11.2364
斤	-11.2365
詩	-11.2366
朗	-11.2371
悕	-11.2374
伎藝	-11.2374
鄭	-11.2374
巖	-11.2375
嘿	-11.2375
開權顯實	-11.2376
不應說言	-11.2376
瓦	-11.2376
魚肉	-11.2378
潛	-11.2378
眉間	-11.238
於如來所	-11.2381
陣	-11.2381
損減	-11.2382
億那術百千	-11.2382
甚奇	-11.2382
躄	-11.2383
壓	-11.2384
膩	-11.2384
橫竪	-11.2384
洹	-11.2386
瞻仰	-11.2386
作是觀時	-11.2389
犬	-11.239
當知是輩	-11.2391
救濟	-11.2391
即從坐起	-11.2391
飯食	-11.2397
諸優婆塞	-11.2398
光明遍照高貴德王菩薩摩訶薩	-11.2402
神變	-11.2405
等侶	-11.2407
錢財	-11.2408
梵音	-11.241
空閑	-11.241
文中初言	-11.2412
億百千	-11.2415
都盡	-11.2418
修敬已畢	-11.2418
無障礙	-11.2425
斷諸煩惱	-11.2426
如師子王	-11.2428
識支	-11.2437
普照	-11.2437
如法住	-11.244
十秊	-11.2446
無去來	-11.2451
所污	-11.246
成無上道	-11.2461
生蘇	-11.2466
佛性非內非外	-11.2477
象牙	-11.248
右脇	-11.2482
濁水	-11.2498
所宜	-11.2502
緣覺所知	-11.2504
作菩提因	-11.2508
無量無邊眾生	-11.2509
如來密語	-11.2512
不可翻	-11.2514
標列	-11.2523
記論	-11.2537
墮惡	-11.2537
釋迦文	-11.254
能為眾生	-11.2544
古師	-11.2548
犯罪	-11.2551
文中先	-11.2564
不從緣生	-11.2576
下結成	-11.2597
犯波羅夷	-11.2606
蘊	-11.2612
匿	-11.2624
迫	-11.2625
筏	-11.2626
寡	-11.2626
貯	-11.2628
地水火風	-11.263
宛	-11.2631
絲	-11.2632
拍	-11.2633
勵	-11.2635
妬	-11.2638
籍	-11.2638
歡喜踊躍	-11.2639
特勝	-11.2641
不惜身命	-11.2641
羅睺	-11.2641
即真解脫真解脫者即是如來	-11.2642
知幻	-11.2642
青黃	-11.2642
唯有一子	-11.2642
犢	-11.2642
穀米	-11.2643
有問有答	-11.2644
下合可知	-11.2645
啼泣	-11.2646
輔	-11.2646
胡麻	-11.2648
阿耨菩提	-11.2651
熟酥	-11.2651
真解脫者則不如是	-11.2656
劫數	-11.2659
悲號	-11.266
題品	-11.2664
左傳	-11.2668
開敷	-11.2669
聲召	-11.2671
機感	-11.2672
不放逸法亦復如是	-11.2673
香木	-11.2673
六十二見	-11.2674
迦葉菩薩言世尊	-11.2675
長存	-11.2677
軟語	-11.2678
利刀	-11.2688
諮受	-11.2689
眾中有一天	-11.27
報恩	-11.2704
法譬合	-11.271
無所有處	-11.2711
章句	-11.2715
帝王	-11.2719
常住二字	-11.2721
黃金	-11.2723
師子座	-11.2723
告阿難言	-11.2727
利益安樂	-11.2736
斥他	-11.2743
照境	-11.2763
沙門婆羅門	-11.2778
下釋疑	-11.2788
教勅	-11.2794
因緣故生	-11.2796
堅實	-11.2798
機宜	-11.2809
十萬	-11.281
偈答	-11.2814
日夜	-11.2824
未熟	-11.2852
須彌山王	-11.2859
無緣慈	-11.286
徵破	-11.2881
域	-11.2883
才	-11.2887
克	-11.289
勉	-11.289
枕	-11.289
紅	-11.289
菩薩摩訶薩於慈心中	-11.2891
逾	-11.2894
八大人覺	-11.2895
覓	-11.2897
阿耨	-11.2897
賓	-11.2897
刻	-11.2898
茶	-11.29
扣	-11.2902
耕	-11.2902
澡	-11.2902
渠	-11.2903
無上正真道	-11.2903
讖	-11.2904
彩	-11.2904
剃髮	-11.2904
鑿	-11.2905
因滅是色	-11.2905
戮	-11.2906
先陀婆	-11.2907
飲酒	-11.2908
橫豎	-11.2908
慈即如來	-11.2915
非色非非色	-11.2915
摩伽陀國	-11.2918
無因無果	-11.292
塵土	-11.2921
從他生	-11.2926
智者當觀	-11.2927
墮獄	-11.2928
淺近	-11.2934
度無極	-11.2944
以不見故	-11.2945
猶存	-11.2949
就文為二	-11.2954
稱美	-11.2955
白王	-11.2956
七支	-11.296
億那由他	-11.296
又二先明	-11.2961
摩訶薩	-11.2963
在胎	-11.2965
寶蓋	-11.2968
得善果	-11.2973
文中云	-11.2975
下合顯	-11.2978
其所立	-11.2993
迷惑	-11.2995
眾中有	-11.2996
快說	-11.3
迷悶	-11.3019
苦痛	-11.3024
遮請	-11.3036
眾鳥	-11.3042
悶絕	-11.3053
諸大菩薩	-11.3082
答第二問	-11.3086
更不復	-11.3091
來詣	-11.3118
以大涅槃心修	-11.3119
且據	-11.3139
管	-11.3151
秀	-11.3154
湯	-11.3154
諫	-11.3154
纖	-11.3158
鎌	-11.3159
忻	-11.3161
具煩惱性	-11.3161
涅槃經疏三德指歸卷第	-11.3162
討	-11.3164
饒益	-11.3165
灌頂	-11.3166
我滅度後	-11.3167
國王大臣	-11.3167
廣行流布	-11.3167
名字功德品	-11.3168
普賢	-11.3171
唱如是言	-11.3172
懈	-11.3172
糞穢	-11.3172
好醜	-11.3172
愛別離苦	-11.3173
帀	-11.3173
果中說因	-11.3174
鞭	-11.3175
具足無缺	-11.3176
為他廣說	-11.3176
註	-11.3177
跋提	-11.3178
無作無受	-11.318
離垢威	-11.318
矜	-11.3181
水陸	-11.3184
五盛陰苦	-11.3184
逼迫	-11.3185
已有還無	-11.3186
如是安樂亦名涅槃	-11.3187
謗方等經	-11.3187
常即無常	-11.3189
逆順	-11.319
毘婆舍那	-11.3192
千倍	-11.3193
若干	-11.3198
十方世界	-11.3199
共貪生	-11.3199
字誤	-11.3199
琉璃光	-11.32
潤業	-11.3202
六卷云	-11.3202
知有我者	-11.3207
何妨	-11.3208
問起發	-11.3209
所不能及	-11.3212
非二乘所	-11.3213
次何以故下	-11.3214
灰斷	-11.3214
是名知足	-11.3221
傍論	-11.3223
波羅夷	-11.3223
無作四諦	-11.3223
汎明	-11.3227
是義不然何以故	-11.3233
無有一法	-11.3233
末香	-11.3236
略不論	-11.3241
教授	-11.3248
列章	-11.3249
消除	-11.3261
住一劫	-11.3271
濕生	-11.3279
而為上首	-11.3305
老病死	-11.3376
安止	-11.3377
法華疏	-11.3379
如是說者	-11.3408
說妙法	-11.3408
善惡業	-11.3411
𤏙	-11.3418
悲惱	-11.3427
辰	-11.3433
顛	-11.3436
踐	-11.3436
秘密	-11.3439
魏	-11.3439
闊	-11.3441
覽	-11.3442
高原	-11.3444
阿脩羅	-11.3446
旛	-11.3446
殃	-11.3447
醜陋	-11.3448
憒閙	-11.3448
琉光	-11.3449
眴	-11.3453
浴池	-11.3453
二施果報等無差別	-11.3454
奈	-11.3454
寒熱	-11.3454
宋代沙門慧嚴等依泥洹經加之	-11.3454
聞是事已	-11.3454
尸波羅蜜	-11.3456
不相關	-11.3457
吾當為汝分別解說	-11.3457
日東天台沙門本	-11.3457
有譬有合	-11.3458
毘尼	-11.3458
d	-11.346
是亦不然	-11.346
珊	-11.3461
啖	-11.3461
醪	-11.3462
若佛初出得阿耨多羅三藐三菩提	-11.3463
算數	-11.3463
雹	-11.3465
寂滅為樂	-11.3466
堪忍地	-11.3466
定知無我	-11.3466
生死即涅槃	-11.3468
毘舍離	-11.3469
純善	-11.3475
下約顯法	-11.3477
補處	-11.3478
過去現在未來	-11.3479
我今此身	-11.3481
生老死	-11.3481
頓制	-11.3483
止悲	-11.3486
右遶三匝	-11.3488
金剛三昧亦復如是	-11.349
疾病	-11.3491
譬如有王	-11.3493
惱害	-11.3494
塗香	-11.3496
受持禁戒	-11.3499
若有我者	-11.3499
何曾	-11.3513
漸頓	-11.3517
違順	-11.3578
香味	-11.3596
凡有五	-11.3599
邊無邊	-11.3612
種類	-11.3622
受快樂	-11.3631
四悉意	-11.3644
害父	-11.3692
為欲利益	-11.3705
隨文正釋	-11.3706
孟	-11.3712
心心數法	-11.3714
主親師	-11.3715
旃	-11.3716
閣	-11.3717
頻婆娑羅	-11.3719
上二界	-11.3723
揣食	-11.3723
羊角	-11.3723
苦集滅道	-11.3726
慚恥	-11.3726
生惡國	-11.3727
忿	-11.3727
布薩	-11.3727
吉凶	-11.3729
拙	-11.373
練	-11.373
舒	-11.3731
頂戴	-11.3734
慄	-11.3734
波羅㮈	-11.3734
同於諸行	-11.3734
禽獸	-11.3735
隻	-11.3735
償	-11.3735
淳	-11.3736
摩訶衍般泥洹經	-11.3736
敕	-11.3737
梯	-11.3737
蠟	-11.3737
能隨問答	-11.3738
牆壁	-11.3738
出家學道	-11.3739
虛偽	-11.374
溼	-11.3741
解苦無苦	-11.3741
晉沙門慧嚴慧觀謝靈運重治	-11.3742
無非法界	-11.3742
却後三月	-11.3743
人中象王	-11.3744
文殊師利法王子	-11.3745
反說文	-11.3745
s	-11.3745
熱惱	-11.3746
善巧方便	-11.3746
乘船	-11.3746
賈	-11.3747
毱多	-11.3749
蹈	-11.3749
繒	-11.375
當勤精進	-11.375
重擔	-11.3752
學大乘者	-11.3753
彗星	-11.3754
當知是慈是聲聞慈	-11.3755
如其有者	-11.3757
及其眷屬	-11.3758
迷悟	-11.3759
食噉	-11.3762
消息	-11.3763
徵責	-11.3766
是名少欲	-11.3769
兩舌	-11.3774
遣使	-11.3784
兜率天	-11.3792
雙流	-11.3823
處胎	-11.383
契理	-11.3831
愛樂大乘	-11.3847
初先法說	-11.3896
忉利	-11.3913
十句	-11.3941
難可得	-11.3943
不能發	-11.3985
電	-11.3996
誨	-11.3999
約顯法	-11.4
野干	-11.4007
澤州云	-11.4008
挫	-11.4011
掉	-11.4013
族姓	-11.4015
喧	-11.4016
服毒	-11.4017
囑累	-11.4018
虧盈	-11.4018
按	-11.4018
宰	-11.4019
褒	-11.4019
淪	-11.402
選擇	-11.402
粮	-11.4021
有病行處	-11.4021
康	-11.4022
敦	-11.4022
從因至果	-11.4023
糧	-11.4024
峻	-11.4025
下就設難	-11.4025
須跋陀羅	-11.4026
又二初正	-11.4027
悕望	-11.4028
敬禮	-11.4028
唾	-11.4028
屍	-11.4028
欝單越	-11.4029
倉	-11.4029
祐	-11.4029
與上樂	-11.403
鎖	-11.403
雄猛	-11.4031
毀呰	-11.4031
債	-11.4032
熱鐵	-11.4032
耽	-11.4034
恒河沙等世界	-11.4034
鎧	-11.4035
犯重禁	-11.4035
牛糞	-11.4036
雲集	-11.4037
渴乏	-11.4037
徑	-11.4038
k	-11.4039
捕	-11.4041
無常苦等	-11.4041
淨威力士	-11.4041
二十五諦	-11.4042
深邃	-11.4046
乳糜	-11.4047
如其無者	-11.4047
娛樂	-11.4047
金沙	-11.4048
坐臥	-11.4049
還生善根	-11.405
卵生	-11.4052
凡夫愚人	-11.4053
復有諸佛菩薩大雲不退	-11.4057
輪轉生死	-11.406
身口意業	-11.406
千億	-11.4066
神呪	-11.4068
差別之相	-11.4068
從禪定起	-11.4072
沙門那	-11.4077
貪瞋	-11.408
未曾聞	-11.4081
毀壞	-11.4081
八番	-11.409
修八聖道	-11.4091
根塵	-11.4097
答前問	-11.4104
毀犯	-11.4121
名大法師	-11.4138
大般涅槃經卷第	-11.4169
無量劫來	-11.4194
當為汝說	-11.4268
譬如二人	-11.4268
風雨	-11.4271
句句	-11.4276
陳如品	-11.4305
袒	-11.4309
余	-11.4317
先譬後合	-11.4323
紹繼	-11.4323
薩婆	-11.4323
下對釋之	-11.4325
鵝	-11.4325
偶	-11.4326
暹	-11.4326
赦	-11.4327
虎狼	-11.4327
先徵後	-11.4327
菩薩摩訶薩復作是願	-11.4328
如佛言曰	-11.4328
𦦨	-11.4329
輿	-11.4329
若不爾者	-11.4331
杜	-11.4331
節節	-11.4332
技藝	-11.4333
拯	-11.4334
因中無果	-11.4336
隋章安頂法師撰唐天台沙門湛然再治	-11.4336
淤泥	-11.4336
輻	-11.4337
蟁	-11.4337
旱	-11.4337
輕賤	-11.4337
剃除鬚髮	-11.4338
復有人言	-11.4338
純分會南本大般涅槃經會疏卷第	-11.4339
瘧	-11.4341
驅逐	-11.4341
破空是	-11.4342
是因非果	-11.4343
無罣礙	-11.4343
迦葉佛時	-11.4344
伎樂以供養佛	-11.4344
如王所言	-11.4345
拘物頭	-11.4346
珂貝	-11.4346
求覓	-11.4347
鍮	-11.4347
汝不應言	-11.4352
辭無礙	-11.4352
諸眾生皆有佛性	-11.4354
婦女	-11.4357
汝等今者	-11.4357
四部眾	-11.436
何時當	-11.4364
風吹	-11.4368
之所恭敬	-11.4368
十二年	-11.437
虛假	-11.437
敷演	-11.4371
或時說言	-11.4372
形像	-11.4378
終不生於	-11.438
調適	-11.4381
凡有三種	-11.4383
何關	-11.4385
八術	-11.4391
停住	-11.4395
四無礙智	-11.4395
二十年	-11.4409
惡友	-11.4426
道聖諦	-11.4455
十億	-11.4465
辨其相	-11.4489
第二番問答	-11.4524
其餘諸	-11.4536
退不退	-11.4548
詣佛所	-11.455
聰	-11.46
周徧	-11.4602
療病	-11.4612
植	-11.462
貶	-11.4629
丹	-11.463
非色非心	-11.463
詔	-11.4632
拾	-11.4634
尸羅	-11.4636
川	-11.4636
怪哉	-11.4638
冀	-11.464
本自有之	-11.464
輕躁	-11.464
皮肉	-11.464
春秋	-11.464
蒲	-11.4641
軀	-11.4641
器仗	-11.4642
即於佛前	-11.4642
悼	-11.4642
紛	-11.4642
荷負	-11.4643
浮囊	-11.4645
得二十五三昧	-11.4645
㲲	-11.4645
嗟	-11.4645
戀慕	-11.4646
喉	-11.4646
即從座起	-11.4646
籠	-11.4647
範	-11.4647
溢	-11.4647
片	-11.4648
一道清淨	-11.4648
遇斯光	-11.4648
礦	-11.4648
其後不久	-11.4648
牢獄	-11.4649
空假中	-11.4649
良福田	-11.4651
工匠	-11.4653
姊	-11.4653
三十六物	-11.4653
王即答言	-11.4653
農夫	-11.4654
先舉次列	-11.4656
冶城云	-11.4656
自念言	-11.4657
矟	-11.4657
郭	-11.4657
囚	-11.4658
垢穢	-11.4658
放大光明	-11.4659
方等大乘經典	-11.4659
昔所不聞而今得聞	-11.4661
厭患	-11.4663
雙亡	-11.4664
戒定智慧	-11.4665
平等無二	-11.4667
㝹	-11.4668
首羅	-11.4669
平聲	-11.4673
無明所覆	-11.4674
其心平等	-11.4682
金剛身品	-11.4682
給施	-11.4687
斯陀	-11.4689
受我供	-11.47
檀度	-11.4706
當與汝	-11.4727
aṃ	-11.4768
疏記	-11.4864
怠	-11.4931
艸木	-11.4943
匡	-11.4953
訟	-11.4953
裸	-11.4954
昔所不知而今得知	-11.4956
肩	-11.4956
叢	-11.4957
鈎	-11.4958
建大義	-11.4958
剩	-11.496
凶	-11.4961
格	-11.4962
盤	-11.4962
阿那律	-11.4963
伊蘭	-11.4964
懶	-11.4964
受想行識	-11.4964
偷蘭	-11.4965
荊	-11.4965
胸	-11.4965
基	-11.4965
猴	-11.4966
力士生地	-11.4967
光明遍照高貴德王	-11.4967
受大苦惱	-11.4967
廣為人說	-11.4968
阿鼻獄	-11.4968
互為因果	-11.4969
一時佛在	-11.497
哀受我等最後供養	-11.497
諛諂	-11.497
踊躍	-11.4971
哀憫	-11.4972
四衢	-11.4973
命終之後	-11.4974
刪	-11.4977
e	-11.4977
完	-11.4978
集一切福德三昧	-11.4978
羂	-11.4979
尼拘陀樹	-11.4979
不須修道	-11.4979
貪瞋癡	-11.498
盜賊	-11.498
魔王波旬	-11.4981
俱舍云	-11.4984
今明不爾	-11.4985
杌	-11.4985
養育	-11.4985
云何如來說言	-11.4986
活命	-11.4988
亦可得說	-11.4991
三世有法	-11.4994
以不知故	-11.5001
委悉	-11.5002
到不到	-11.5006
金翅鳥王	-11.5012
是謂人種	-11.5019
維摩	-11.5042
徧一切處	-11.5045
初文又二	-11.5064
復告阿難	-11.5072
▁初正示	-11.5072
沙彌	-11.5153
千年	-11.518
無量阿僧祇劫	-11.5259
生死大河	-11.5262
曇濟曰	-11.5277
僕	-11.5278
較	-11.5278
嗣	-11.5279
映	-11.5285
卜	-11.5287
規	-11.5287
洞	-11.5288
柳	-11.5288
扇	-11.5288
次喻後合	-11.5288
是常住法	-11.5288
涯	-11.5289
嘉	-11.5289
躬	-11.5289
駈	-11.5291
庸	-11.5291
粗	-11.5292
團	-11.5292
苗稼	-11.5292
錢塘沙門釋智圓	-11.5293
從淺至深	-11.5293
精血	-11.5293
韋	-11.5294
欠	-11.5294
我諸弟子聞是說巳不解我意唱言如來	-11.5295
寢	-11.5295
菴	-11.5296
故注云云	-11.5297
苗	-11.5297
輸	-11.5298
豹	-11.5298
挑	-11.53
刀劍	-11.53
鴈	-11.5301
沉	-11.5301
澄清	-11.5301
起塔供養	-11.5302
衣服飲食	-11.5302
貧賤	-11.5303
醜	-11.5303
四部之眾	-11.5303
澁	-11.5304
仙豫	-11.5304
二鳥雙遊	-11.5304
脈	-11.5305
先問後辯	-11.5305
不得相離	-11.5305
嬰孩	-11.5305
鹵	-11.5307
迦隣提	-11.5307
捐	-11.5307
顏貌	-11.5308
溫	-11.5309
即體而用	-11.5309
廣雅	-11.5311
如佛先說	-11.5312
掘地	-11.5312
為人廣說	-11.5313
當於爾時	-11.5313
右繞	-11.5313
淨潔	-11.5314
寶貨	-11.5315
菩薩摩訶薩住是地	-11.5315
譬如日出	-11.5316
法同喻	-11.5317
不但獨為	-11.532
師子吼菩薩言世尊	-11.5322
萬八千	-11.5322
一面住	-11.5324
辯後結	-11.5325
反質	-11.5326
復有二種一者	-11.5329
頻婆娑羅王	-11.534
到岸	-11.5355
相似相續	-11.5378
必定當得	-11.5509
善根人有	-11.5526
惡覺觀	-11.5556
兜率	-11.5573
憂畏	-11.5588
前中先喻	-11.5592
無量無邊阿僧祇	-11.5598
恭	-11.5614
携	-11.5622
隋	-11.5624
工	-11.5626
聊	-11.5631
敬遺記	-11.5631
尼拘陀	-11.5633
秘	-11.5633
汝莫憂悲	-11.5634
忠	-11.5634
先法後喻	-11.5635
披	-11.5638
鞞	-11.5641
僮僕	-11.5644
尼陀那	-11.5644
惟願	-11.5644
秖	-11.5645
算	-11.5646
若減一劫	-11.5646
噓	-11.5647
偏袒右肩	-11.5647
婢	-11.5648
右脇而臥	-11.5648
諮啟	-11.5649
狸	-11.5649
瘂	-11.5649
萌	-11.565
下次明其	-11.565
焚燒	-11.565
到於彼岸	-11.565
不可窮盡	-11.565
阿闍	-11.5651
褒貶	-11.5651
盈滿	-11.5653
他心智	-11.5654
5	-11.5654
項	-11.5654
6	-11.5654
我今始知	-11.5654
書寫經卷	-11.5655
非雜食身	-11.5656
爐	-11.5656
叫	-11.5656
富蘭那	-11.5656
佛涅槃後	-11.5656
偷狗	-11.5656
及正解脫	-11.5657
佛言善哉善哉善男子	-11.5659
作是語已	-11.5659
鄰	-11.566
唱言如來說	-11.566
慎莫	-11.566
捔	-11.566
勿懷	-11.5661
衰老	-11.5662
門戶	-11.5662
醋	-11.5664
雖見佛性而不明了	-11.5664
端坐	-11.5667
病瘦	-11.5668
僧殘	-11.5671
金剛不壞	-11.5673
單疏第十	-11.5684
三種病人	-11.5687
發菩提之心	-11.5688
夫涅槃者	-11.5689
法身常身	-11.5701
貴賤	-11.5886
妹	-11.5984
暇	-11.5986
矛	-11.5988
疣	-11.599
慈悲喜捨	-11.5993
編	-11.5994
罷	-11.5994
阿須倫	-11.5996
稚	-11.5999
即理而事	-11.5999
環	-11.5999
諸佛法爾	-11.5999
療眾病	-11.6
四十里	-11.6
同於子想	-11.6001
最為殊勝	-11.6001
梵網	-11.6001
乃得安隱眠	-11.6002
黠慧	-11.6002
休息	-11.6003
蠶	-11.6003
哽咽	-11.6003
我從今日	-11.6003
錯謬	-11.6004
優陀那	-11.6004
饑饉	-11.6005
針鋒	-11.6005
血肉	-11.6005
戚	-11.6005
釧	-11.6007
尤	-11.6007
五分法身	-11.6007
却後三月當般涅槃	-11.6008
奉獻	-11.6009
閒	-11.6009
以方便力	-11.601
即其人也	-11.6011
酵	-11.6011
奇哉	-11.6011
我念往昔	-11.6011
1	-11.6013
三世不攝	-11.6013
u	-11.6013
▁初分科敘意	-11.6013
無常苦空	-11.6013
脣	-11.6013
見是事已	-11.6013
當爾之時	-11.6013
樂說無礙	-11.6015
我與無我	-11.6015
六塵惡賊	-11.6015
不可稱量	-11.6016
遷變	-11.6016
迦毘羅城	-11.6017
四悉檀	-11.6018
耆婆答言	-11.6019
常破無常	-11.602
如來證涅槃	-11.6021
身心寂靜	-11.6023
毘伽羅論	-11.6025
諸善根本	-11.6028
為護法故	-11.603
吾當為汝	-11.603
悲戀	-11.6034
論人云	-11.6085
暴風	-11.6111
得福無量	-11.6114
百千萬億	-11.6301
核	-11.6347
季	-11.6357
徵前起後	-11.6361
儉	-11.6361
探	-11.6361
曇無德	-11.6361
非學非無學	-11.6361
翼	-11.6362
耀	-11.6366
臘	-11.6366
慙	-11.6367
烟	-11.6368
駟	-11.6368
沾	-11.6368
斫伐	-11.6369
有始有終	-11.6369
考	-11.6369
鸚	-11.637
副	-11.637
彊	-11.637
䟦提	-11.637
吾曾為	-11.637
衍	-11.6371
掠	-11.6373
聽是經者	-11.6374
妒	-11.6374
則得近於大般涅槃	-11.6374
祥	-11.6376
奏	-11.6377
嘲	-11.6378
而行布施	-11.6379
知諸根力	-11.638
專心聽法	-11.638
我又示現於閻浮提	-11.6381
如來在世	-11.6381
鳥獸	-11.6381
默然而住	-11.6381
讎	-11.6381
羅剎復言	-11.6382
▁初懸示	-11.6383
唯佛能知	-11.6383
兜羅	-11.6383
興廢	-11.6383
婆藪	-11.6386
名字觀行	-11.6386
疾至佛所	-11.6388
甘露法味	-11.6388
跨	-11.6389
繫念思惟	-11.6389
頂禮佛足	-11.639
一義說無量名	-11.639
白淨法	-11.6392
踊躍無量	-11.6392
內善思惟	-11.6392
次觀果報	-11.6393
波頭摩	-11.6394
於未來世成佛之時	-11.6394
一切眾生身亦如是	-11.6394
殘害	-11.6395
非是非不是	-11.6398
邪歸正	-11.6405
寂默	-11.6428
害其父	-11.6449
▁二初如下隨	-11.6522
脇	-11.6609
生亦不可說	-11.668
華臺	-11.6716
劉	-11.6727
鄣	-11.6731
絡	-11.6733
南無佛陀	-11.6734
脩多羅	-11.6735
囹圄	-11.6735
罸	-11.6736
釜	-11.6736
五盛陰	-11.6741
伎	-11.6742
椎	-11.6743
毉	-11.6744
下舉喻以	-11.6745
嶷	-11.6745
匠	-11.6746
宰主	-11.6747
冶	-11.6747
南無純陀	-11.6747
金錍	-11.6748
昌	-11.6749
慼	-11.6749
瘦	-11.6749
鏤	-11.675
派	-11.675
酒糟	-11.6751
劇	-11.6752
怨憎會苦	-11.6753
不即不離	-11.6753
波羅奈	-11.6754
膳	-11.6754
迦旃延	-11.6754
厄	-11.6754
河沙諸如來所發菩提心	-11.6754
鉾	-11.6755
惶怖	-11.6755
=	-11.6755
倦	-11.6756
信等五根	-11.6756
炙	-11.6757
創	-11.6757
秘密藏	-11.6757
瓦礫	-11.6757
影響	-11.6758
雪	-11.6758
擾	-11.676
一空一切空	-11.676
浪	-11.676
脊	-11.676
所言大者	-11.6761
水陸俱行	-11.6761
包含	-11.6761
煩惱即菩提	-11.6761
顯發如來方便密教	-11.6762
無二無別	-11.6763
棘	-11.6763
求不得苦	-11.6764
須跋陀	-11.6766
從無明生	-11.6766
飜	-11.6766
婁	-11.6767
如來畢竟入於涅槃	-11.6768
c	-11.6768
近友	-11.6768
攢	-11.6768
六種震動	-11.6769
初題目	-11.6769
癩	-11.677
常當一心	-11.6771
頭面禮足	-11.6771
齧	-11.6771
不與世諍	-11.6772
塔廟	-11.6772
糠	-11.6772
貪欲瞋恚愚癡	-11.6773
亦見亦知	-11.6777
悉無有我	-11.6785
如世人言	-11.6785
優鉢羅花	-11.6785
忍辱草	-11.6792
言本有者	-11.6799
以大涅槃心	-11.6829
先問次辯	-11.6846
於諸佛所	-11.692
菩	-11.7019
萬二千	-11.702
曼陀	-11.7033
佛告文殊師利	-11.707
為菩提因	-11.7118
不住不不住	-11.7128
吳	-11.7133
姚	-11.7135
絹	-11.7136
下今破	-11.7137
涌	-11.7138
韻	-11.7138
凡聞起諍	-11.7141
滑	-11.7142
竺	-11.7142
呿	-11.7142
噵	-11.7146
振	-11.7147
挾	-11.7148
下重顯之	-11.7148
賜	-11.7149
渾	-11.7149
無明住地	-11.715
目楗連	-11.715
俯	-11.7151
群萌	-11.7151
在文可見	-11.7151
即寂而照	-11.7151
皰	-11.7152
烈	-11.7152
史	-11.7153
搥胸	-11.7155
獎	-11.7155
無酪性	-11.7157
受純陀供	-11.7157
初先立喻	-11.7158
於一念中	-11.7159
膜	-11.7159
哲	-11.716
此與止觀	-11.716
殿堂	-11.7161
樓逗	-11.7162
舞	-11.7162
迭	-11.7162
三藐三佛陀	-11.7162
巡	-11.7163
名義俱異	-11.7163
領旨仰非	-11.7163
如來述讚	-11.7164
闍維	-11.7164
優樓	-11.7164
倚臥	-11.7165
三十二相八十種好	-11.7165
資糧	-11.7165
倍勝於前	-11.7166
鬬	-11.7166
塹	-11.7166
終不生念	-11.7167
髦	-11.7167
菟角	-11.7168
迦毘羅	-11.7169
怙	-11.7169
我於彼經亦不說之	-11.7169
光明徧照高貴德王菩薩	-11.717
不相捨離	-11.717
屋舍	-11.7172
鎮頭迦	-11.7172
他化自在天	-11.7173
!」「	-11.7175
鬚	-11.7175
生不自生	-11.7179
亦是亦不是	-11.7184
拳	-11.7186
佛在世	-11.7208
豪貴	-11.7304
今當為汝	-11.7333
嚴飾	-11.7382
干	-11.7518
拜	-11.7522
㓨	-11.7545
瑜伽	-11.7547
予	-11.755
京	-11.7554
貨	-11.7555
貿	-11.7559
慧朗述	-11.7561
吝	-11.7561
當知是則為如來也	-11.7562
自利利他	-11.7564
礫	-11.7564
魯	-11.7564
灑	-11.7564
文皆可知	-11.7564
非六師也	-11.7565
填	-11.7566
發無上正真道意	-11.7568
儲君	-11.7569
燋	-11.7569
匹	-11.757
懃	-11.7571
身異命異	-11.7571
鵲	-11.7572
浩	-11.7572
遍觀四方	-11.7573
如去不如去	-11.7573
臆	-11.7574
膠	-11.7574
犁	-11.7574
斯有是處	-11.7575
分段變易	-11.7576
說十三偈	-11.7576
是故說言一切眾生悉有佛性	-11.7576
如恒河邊第	-11.7577
出佛身血	-11.7577
阿波陀那	-11.7578
猫	-11.7579
佐	-11.7579
先受施者	-11.7581
是名菩薩摩訶薩非現生後受是惡業	-11.7581
若有隨順魔所說者	-11.7582
歟	-11.7582
無明緣行	-11.7584
謟	-11.7584
胡麻油	-11.7584
言語道斷心行處滅	-11.7585
燭	-11.7585
而亦是有	-11.7585
茶毗	-11.7585
毘跋致	-11.7585
名大地動	-11.7587
棘刺	-11.7587
聽其出家	-11.7587
若得此意	-11.7588
遇惡友	-11.7588
煩惱在先	-11.7589
大小便利	-11.7592
迦羅迦	-11.7592
若乳無酪	-11.7593
以是誓願因緣力故	-11.7595
▁二此初下隨	-11.7602
不決定故	-11.7603
於諸善法為最	-11.7611
場	-11.7896
𨷂	-11.7976
駭	-11.7986
跌	-11.7991
激	-11.7993
鎮	-11.7994
芥	-11.7996
荷	-11.7997
惰	-11.7997
隷	-11.7998
躍	-11.7999
汲	-11.7999
俾	-11.8
煮	-11.8
饍	-11.8001
伯	-11.8001
嵐	-11.8002
贖	-11.8003
𧂐	-11.8004
咄	-11.8004
脆	-11.8006
脅	-11.8006
塘	-11.8007
瑙	-11.8009
撲	-11.8009
沫	-11.801
纔	-11.8012
冰	-11.8012
司	-11.8013
渚	-11.8013
醯	-11.8014
砂	-11.8015
株	-11.8016
駛	-11.8017
騾	-11.8018
氀	-11.8023
枳	-11.8026
曼	-11.8131
蓮	-11.8407
乍	-11.8436
耻	-11.8441
唼	-11.8447
虵	-11.8448
寐	-11.845
針	-11.845
猿	-11.8451
碩	-11.8452
函	-11.8452
牆	-11.8453
饒	-11.8453
兄	-11.8454
篤	-11.8454
艸	-11.8455
戶	-11.8455
浣	-11.8456
鍑	-11.8456
耘	-11.8456
洋	-11.8457
轍	-11.8458
覈	-11.8459
撻	-11.846
蝮	-11.846
介	-11.8461
揵	-11.8463
牟	-11.8465
獷	-11.8465
啞	-11.8466
炳	-11.8466
栰	-11.8466
隅	-11.8467
枚	-11.847
饌	-11.8472
芻	-11.8474
-	-11.8474
捧	-11.8478
料	-11.8482
筩	-11.8484
効	-11.8916
諱	-11.8927
鋒	-11.8927
販	-11.8931
桓	-11.8939
洛	-11.8939
禍	-11.8939
悵	-11.8941
墓	-11.8942
殄	-11.8943
螢	-11.8943
栗	-11.8944
擎	-11.8944
枷	-11.8944
涎	-11.8945
撫	-11.8947
溝	-11.8949
瞬	-11.8953
榛	-11.8956
簫	-11.8957
廬	-11.9397
俄	-11.9413
邦	-11.9415
迸	-11.9422
稽	-11.9423
汰	-11.9423
疊	-11.9423
𦘕	-11.9425
矩	-11.9425
宇	-11.9428
廓	-11.9431
茅	-11.9431
級	-11.9431
桃	-11.9432
綠	-11.9433
絺	-11.9433
棲	-11.9434
庫	-11.9436
祀	-11.9437
采	-11.9437
盂	-11.9437
閱	-11.9438
嚮	-11.9438
嘗	-11.944
怡	-11.9441
胞	-11.9441
剝	-11.9442
替	-11.9443
昨	-11.9444
圊	-11.9444
猗	-11.9445
羆	-11.9446
怱	-11.9446
疫	-11.9446
𤦲	-11.9447
勳	-11.945
羼	-11.9453
踈	-11.9454
奧	-11.9716
丁	-11.9926
卵	-11.9934
盾	-11.9943
寇	-11.9946
瓜	-11.9948
躁	-11.9949
輙	-11.9952
遏	-11.9953
桑	-11.9953
線	-11.9957
+	-11.9959
帛	-11.996
騁	-11.9961
詰	-11.9961
怏	-11.9961
肎	-11.9963
曹	-11.9963
區	-11.9963
傅	-11.9964
疱	-11.9964
腰	-11.9966
棗	-11.9967
磐	-11.9967
壅	-11.9968
亘	-11.9969
g	-11.9969
獵	-11.9971
埿	-11.9972
蓬	-11.9973
屏	-11.9973
霜	-11.9975
突	-11.9975
无	-11.9985
△	-12.0146
糜	-12.0481
亭	-12.0481
湛	-12.0487
棠	-12.0488
侶	-12.0496
濃	-12.0498
鄉	-12.05
刃	-12.05
皎	-12.0501
鏘	-12.0502
諾	-12.0504
膽	-12.0504
郡	-12.0505
詎	-12.0506
娛	-12.0506
彫	-12.0508
蹔	-12.0508
尅	-12.0508
瞢	-12.0509
爵	-12.0509
沸	-12.0509
麟	-12.0511
姉	-12.0512
髻	-12.0515
央	-12.0515
阜	-12.0516
衡	-12.0516
駄	-12.0516
胝	-12.0516
楯	-12.0517
詠	-12.0517
妖	-12.0518
燼	-12.0519
兜	-12.0519
蘆	-12.052
憚	-12.052
葦	-12.0521
喘	-12.0522
抵	-12.0522
蒸	-12.0523
邁	-12.0524
駝	-12.0524
阬	-12.0525
鱗	-12.0526
扼	-12.0527
覲	-12.0528
候	-12.0529
凉	-12.0529
堆	-12.0529
霑	-12.053
ś	-12.0532
璧	-12.0539
毱	-12.1078
訪	-12.1079
妾	-12.1087
奚	-12.1088
鑊	-12.1089
侯	-12.1091
擔	-12.1092
瑠	-12.1092
寱	-12.1093
囉	-12.1093
賖	-12.1093
泰	-12.1093
愽	-12.1095
埵	-12.1095
貞	-12.1095
傴	-12.1095
淑	-12.1097
勘	-12.1097
媟	-12.1098
奮	-12.1098
賦	-12.1098
骸	-12.1098
殯	-12.1099
姨	-12.1099
褥	-12.1099
恡	-12.1099
羽	-12.11
隆	-12.1101
暮	-12.1101
苞	-12.1103
澆	-12.1105
疆	-12.1106
警	-12.1106
劒	-12.1106
禦	-12.1109
馥	-12.111
跛	-12.111
擘	-12.1111
雉	-12.1111
闥	-12.1111
緒	-12.1113
壜	-12.1113
肌	-12.1113
栖	-12.1114
]	-12.1115
撮	-12.1115
濤	-12.1117
郁	-12.112
ṣ	-12.112
瀉	-12.1123
禰	-12.1124
隄	-12.1136
蚕	-12.1689
窺	-12.1705
飄	-12.1712
嬪	-12.1713
墻	-12.1715
景	-12.1716
巾	-12.1719
肆	-12.1719
製	-12.1721
遜	-12.1721
昭	-12.1722
蠱	-12.1723
祚	-12.1723
循	-12.1723
艱	-12.1725
耐	-12.1726
惻	-12.1726
揣	-12.1727
鳳	-12.1728
涇	-12.1728
渭	-12.1728
朱	-12.1729
剌	-12.1729
係	-12.1729
構	-12.1731
䇿	-12.1731
槊	-12.1731
技	-12.1732
捲	-12.1732
費	-12.1733
妓	-12.1733
辟	-12.1734
撓	-12.1734
熊	-12.1735
洽	-12.1735
嘴	-12.1736
杭	-12.1737
旅	-12.1737
鈴	-12.1738
詺	-12.174
綵	-12.174
摶	-12.174
暖	-12.1741
髀	-12.1741
睺	-12.1741
憲	-12.1742
芬	-12.1742
跱	-12.1743
閻	-12.1743
姦	-12.1744
漬	-12.1745
罥	-12.1747
讐	-12.1749
雌	-12.1751
麞	-12.1754
v	-12.1975
氈	-12.233
洪	-12.2367
愆	-12.2368
臰	-12.2374
敏	-12.2377
漱	-12.2378
鍊	-12.2379
爰	-12.2379
覔	-12.2381
棊	-12.2382
曆	-12.2382
絃	-12.2383
傲	-12.2383
煎	-12.2384
尉	-12.2385
捺	-12.2385
暑	-12.2387
銷	-12.2388
紀	-12.2388
晦	-12.239
輦	-12.2391
怛	-12.2391
柝	-12.2392
庵	-12.2393
趺	-12.2394
攻	-12.2395
琴	-12.2396
蛣	-12.2397
僻	-12.2398
糾	-12.24
藐	-12.24
澹	-12.24
摘	-12.24
軫	-12.2401
鼈	-12.2401
皷	-12.2401
雇	-12.2401
眉	-12.2402
職	-12.2402
嚚	-12.2403
迅	-12.2403
諷	-12.2404
慟	-12.2406
輭	-12.2407
罄	-12.2407
藕	-12.2408
頸	-12.2408
鐮	-12.2409
厥	-12.2409
憒	-12.241
兕	-12.241
籌	-12.2412
惓	-12.2412
鵄	-12.2412
􂌞	-12.2412
9	-12.2412
哽	-12.2415
豺	-12.2417
裔	-12.2417
娉	-12.2418
讒	-12.3058
嶺	-12.3064
脉	-12.3078
商	-12.308
戈	-12.3084
虞	-12.3088
炮	-12.3089
煑	-12.3089
踔	-12.309
佩	-12.3091
錫	-12.3094
墾	-12.3094
洎	-12.3096
縫	-12.3096
頞	-12.3097
澣	-12.3097
犍	-12.3098
筮	-12.3099
窈	-12.3101
詈	-12.3101
螘	-12.3102
綖	-12.3103
恠	-12.3104
趙	-12.3105
崔	-12.3106
溉	-12.3106
舫	-12.3106
幹	-12.3107
慘	-12.3108
耗	-12.3108
層	-12.3108
篡	-12.3109
劓	-12.3109
忌	-12.311
農	-12.311
紳	-12.311
皺	-12.311
疼	-12.3111
偪	-12.3111
疵	-12.3111
廿	-12.3112
藿	-12.3112
慨	-12.3112
浸	-12.3112
厲	-12.3113
楗	-12.3113
掩	-12.3114
藝	-12.3115
珮	-12.3115
臧	-12.3116
萎	-12.3116
胤	-12.3116
朴	-12.3116
綜	-12.3118
緊	-12.3118
把	-12.3119
錐	-12.312
諭	-12.3121
誅	-12.3121
偃	-12.3122
耨	-12.3123
儲	-12.3124
蚌	-12.3124
眩	-12.3126
脹	-12.3126
捷	-12.3127
2	-12.3127
紐	-12.3128
褐	-12.313
𢙣	-12.314
钁	-12.3143
鑞	-12.3143
ṃ	-12.3616
姬	-12.3838
沃	-12.3839
李	-12.385
戴	-12.3858
毳	-12.3859
縮	-12.3864
岳	-12.3867
賒	-12.3867
雕	-12.3867
瞥	-12.3872
嵩	-12.3873
夕	-12.3876
畔	-12.3878
潮	-12.3879
釐	-12.388
姝	-12.388
效	-12.3881
懌	-12.3881
陛	-12.3881
蠅	-12.3882
潘	-12.3882
伇	-12.3882
坎	-12.3882
况	-12.3883
欄	-12.3883
攪	-12.3884
誥	-12.3885
机	-12.3885
寞	-12.3885
羮	-12.3886
帥	-12.3886
梟	-12.3887
淋	-12.3887
侘	-12.3887
轂	-12.3888
釆	-12.3888
熈	-12.3889
䟽	-12.3889
綆	-12.3889
碯	-12.389
昆	-12.389
宏	-12.389
酷	-12.389
緻	-12.389
銜	-12.3891
着	-12.3891
炤	-12.3894
鴟	-12.3894
瘖	-12.3894
粖	-12.3894
4	-12.3895
鳧	-12.3895
豕	-12.3895
莎	-12.3896
鵒	-12.3896
穌	-12.3899
鑛	-12.39
薑	-12.3901
来	-12.3901
汗	-12.3902
頰	-12.3903
尖	-12.3903
桴	-12.3904
蹉	-12.3906
栽	-12.3907
𤚼	-12.391
胄	-12.3925
裨	-12.4663
瀾	-12.4678
湖	-12.4682
拏	-12.4687
庭	-12.469
兆	-12.4693
峙	-12.4695
剃	-12.4697
拱	-12.4698
趨	-12.4698
府	-12.4699
戾	-12.47
斂	-12.4701
徙	-12.4702
琉	-12.4702
剖	-12.4703
猨	-12.4703
躃	-12.4703
夾	-12.4703
誕	-12.4704
箕	-12.4704
僅	-12.4705
怜	-12.4706
恬	-12.4707
蔓	-12.4707
飡	-12.471
晃	-12.471
峯	-12.4711
䴬	-12.4712
診	-12.4713
竅	-12.4714
塊	-12.4714
葵	-12.4714
繇	-12.4715
娶	-12.4715
呂	-12.4716
槩	-12.4716
嬾	-12.4717
幔	-12.4717
坌	-12.4718
醻	-12.4718
豬	-12.4718
𨳝	-12.4718
盆	-12.4719
肝	-12.4719
泊	-12.472
斜	-12.472
燥	-12.4721
瀑	-12.4721
殞	-12.4722
院	-12.4723
懅	-12.4725
螳	-12.4725
罔	-12.4726
排	-12.4727
瑟	-12.4727
邃	-12.4727
壇	-12.4727
b	-12.4729
澍	-12.4729
禱	-12.473
笛	-12.473
3	-12.4731
擣	-12.4733
偉	-12.5583
笈	-12.5587
殆	-12.5588
痾	-12.5591
朕	-12.5592
逕	-12.5592
艾	-12.5594
蹤	-12.5596
乙	-12.5598
禽	-12.5602
駿	-12.5603
腸	-12.5603
蓊	-12.5607
胲	-12.5607
讇	-12.5609
蓐	-12.5609
肘	-12.5609
迂	-12.5609
卝	-12.561
逈	-12.561
爆	-12.561
監	-12.5612
鐘	-12.5612
枉	-12.5612
蚖	-12.5613
夸	-12.5613
糅	-12.5613
菜	-12.5614
薺	-12.5614
叡	-12.5614
募	-12.5614
瞽	-12.5615
䥫	-12.5615
禿	-12.5616
忖	-12.5616
𤚲	-12.5617
換	-12.5617
遽	-12.5618
埤	-12.562
跪	-12.562
森	-12.5621
箇	-12.5621
觚	-12.5621
筒	-12.5622
肺	-12.5622
蠆	-12.5623
睫	-12.5623
癕	-12.5624
樞	-12.5624
舟	-12.5625
杵	-12.5626
攜	-12.5626
煥	-12.5626
蠭	-12.5626
娠	-12.5627
臻	-12.5627
棋	-12.5627
躭	-12.5627
撾	-12.5628
贅	-12.5628
肅	-12.5629
哮	-12.563
脾	-12.563
郎	-12.563
薦	-12.563
勁	-12.5631
𦀟	-12.5631
押	-12.5631
搜	-12.5631
杳	-12.5632
粘	-12.5632
魅	-12.5634
砧	-12.5635
糺	-12.5635
貢	-12.5636
滴	-12.5636
喑	-12.5637
霔	-12.5637
陂	-12.5637
f	-12.5638
7	-12.564
錠	-12.564
倣	-12.5641
摸	-12.5642
儼	-12.5643
鷸	-12.5644
啝	-12.5645
􂎔	-12.5645
𢇲	-12.5646
鉞	-12.5652
䗍	-12.5672
旬	-12.6593
嶽	-12.6595
鵠	-12.6595
弈	-12.6601
楹	-12.6601
唅	-12.6602
閙	-12.6603
祭	-12.6604
貰	-12.6605
餮	-12.6607
饕	-12.6607
泝	-12.6608
鍼	-12.6609
熙	-12.661
轡	-12.6611
仞	-12.6612
媱	-12.6613
霄	-12.6616
胃	-12.6617
颺	-12.6618
擅	-12.6618
纓	-12.6618
蛤	-12.662
麵	-12.662
械	-12.662
𤘽	-12.6621
絍	-12.6621
腋	-12.6621
苑	-12.6623
穉	-12.6623
驃	-12.6623
巷	-12.6624
蔑	-12.6624
邈	-12.6624
庾	-12.6624
溪	-12.6624
姑	-12.6625
跏	-12.6625
鏃	-12.6625
襯	-12.6626
氎	-12.6626
䆳	-12.6626
瘠	-12.6626
拭	-12.6626
婚	-12.6627
遞	-12.6627
鵰	-12.6628
眄	-12.6629
隙	-12.6629
裝	-12.663
梗	-12.663
訥	-12.663
烝	-12.6631
秤	-12.6631
蝶	-12.6632
邠	-12.6632
㭊	-12.6632
綴	-12.6632
勑	-12.6633
卅	-12.6633
敝	-12.6633
墟	-12.6635
踝	-12.6635
刊	-12.6636
囈	-12.6636
8	-12.6636
黜	-12.6637
ḥ	-12.6638
酉	-12.6639
璞	-12.664
恍	-12.664
英	-12.664
碁	-12.6645
纂	-12.6647
㮏	-12.6649
搥	-12.665
肯	-12.7437
㪷	-12.7645
惛	-12.7669
舶	-12.7687
虔	-12.7694
樏	-12.7701
愜	-12.7703
隴	-12.7704
寅	-12.7706
寮	-12.7707
黏	-12.7707
曝	-12.7708
聘	-12.7709
䭾	-12.771
揖	-12.771
淮	-12.771
埋	-12.771
耿	-12.7711
曀	-12.7714
松	-12.7714
芝	-12.7716
嘖	-12.7717
儻	-12.7717
它	-12.7718
壬	-12.7718
迄	-12.7718
鑄	-12.7718
芳	-12.7719
狎	-12.772
燕	-12.772
兢	-12.7721
閇	-12.7721
槍	-12.7722
躑	-12.7723
駱	-12.7723
冊	-12.7723
頹	-12.7724
擒	-12.7724
萍	-12.7725
貼	-12.7725
匪	-12.7725
員	-12.7725
痢	-12.7726
柯	-12.7726
蟄	-12.7727
臍	-12.7728
猥	-12.7728
拆	-12.7729
冑	-12.7729
厨	-12.773
酸	-12.773
阻	-12.7732
尿	-12.7732
寓	-12.7733
舡	-12.7733
奄	-12.7733
舂	-12.7733
􂌤	-12.7733
迢	-12.7733
憤	-12.7733
訾	-12.7733
刖	-12.7734
舁	-12.7734
栴	-12.7734
厝	-12.7734
膾	-12.7735
瑰	-12.7735
佞	-12.7736
茸	-12.7736
衝	-12.7736
瓌	-12.7737
僂	-12.7738
歒	-12.7738
攘	-12.7739
亟	-12.774
騎	-12.774
叔	-12.774
呻	-12.774
菊	-12.774
袪	-12.7742
壺	-12.7742
企	-12.7743
展	-12.7743
昴	-12.7744
斑	-12.7745
穽	-12.7746
蒱	-12.7746
衒	-12.7746
箏	-12.7747
楔	-12.7748
瓔	-12.7749
悒	-12.7749
輞	-12.7749
訂	-12.7753
蕀	-12.7756
藪	-12.7761
售	-12.7762
敲	-12.8937
甫	-12.8948
釰	-12.8951
鍋	-12.8955
煬	-12.8957
翔	-12.8958
􂌰	-12.8958
魂	-12.8962
遁	-12.8962
晨	-12.8963
薉	-12.8964
楷	-12.8965
矚	-12.8966
􂍾	-12.8969
詭	-12.8969
梓	-12.897
嘶	-12.897
糟	-12.8971
翫	-12.8971
抽	-12.8973
蹋	-12.8973
澗	-12.8973
黿	-12.8973
鼉	-12.8973
觜	-12.8974
劈	-12.8974
柵	-12.8975
稠	-12.8975
箱	-12.8975
暉	-12.8975
沐	-12.8976
膿	-12.8976
儔	-12.8977
皃	-12.8977
檻	-12.8978
鉗	-12.8978
澀	-12.8978
芸	-12.898
嚼	-12.898
蒭	-12.898
訴	-12.898
零	-12.898
嫁	-12.8981
衿	-12.8981
帚	-12.8982
弑	-12.8983
板	-12.8984
啑	-12.8984
璽	-12.8984
萊	-12.8984
尠	-12.8985
潰	-12.8986
餐	-12.8986
硨	-12.8986
蟬	-12.8987
塼	-12.8988
勗	-12.8988
昂	-12.8988
濯	-12.8988
蠖	-12.8988
麋	-12.8989
黠	-12.8989
概	-12.899
榻	-12.8991
丙	-12.8992
憋	-12.8992
𪉖	-12.8992
𦟛	-12.8992
蚤	-12.8993
鑑	-12.8993
駁	-12.8993
䅎	-12.8994
騃	-12.8994
暨	-12.8994
菟	-12.8994
液	-12.8995
賸	-12.8995
矇	-12.8995
琦	-12.8996
苨	-12.8997
珂	-12.8997
惺	-12.8997
貸	-12.8997
ṛ	-12.8999
l	-12.8999
鏁	-12.8999
咀	-12.9
堀	-12.9
弶	-12.9001
羈	-12.9002
〉	-12.9003
麾	-12.9003
操	-12.9003
〈	-12.9003
羨	-12.9004
挽	-12.9005
憩	-12.9006
肢	-12.9008
鴆	-12.9011
驕	-12.9012
痒	-12.9013
餧	-12.9014
餌	-12.9014
亢	-12.9019
墳	-13.0307
琪	-13.0325
朔	-13.036
賀	-13.0364
懦	-13.0367
匂	-13.0367
蔔	-13.0376
歛	-13.0378
倪	-13.038
噁	-13.0382
裕	-13.0382
插	-13.0384
奕	-13.0384
窓	-13.0384
蕖	-13.0385
蕭	-13.0386
卓	-13.0387
繕	-13.0388
舛	-13.0391
吏	-13.0393
模	-13.0394
俊	-13.0394
琰	-13.0395
呾	-13.0395
濡	-13.0398
班	-13.0398
匐	-13.0398
穆	-13.0398
駃	-13.0398
憊	-13.0399
俸	-13.0399
灾	-13.04
琳	-13.04
陜	-13.04
蟠	-13.04
彗	-13.0401
樗	-13.0402
髠	-13.0403
漓	-13.0404
窘	-13.0404
刁	-13.0404
梏	-13.0406
剪	-13.0406
熨	-13.0406
鍾	-13.0407
沓	-13.0407
瓠	-13.0407
螺	-13.0407
眊	-13.0407
揩	-13.0409
征	-13.0409
酌	-13.0409
蔡	-13.0409
㿇	-13.041
惶	-13.041
腎	-13.0411
搏	-13.0412
毼	-13.0412
綌	-13.0412
舜	-13.0412
瑜	-13.0414
虻	-13.0414
佷	-13.0415
狩	-13.0415
琅	-13.0415
臗	-13.0417
㿃	-13.0417
軄	-13.0417
涱	-13.0418
旭	-13.0418
藂	-13.0418
腕	-13.0419
轅	-13.0419
丑	-13.042
姿	-13.042
歇	-13.0423
咤	-13.0423
儭	-13.0424
禾	-13.0424
祗	-13.0424
這	-13.0424
癃	-13.0424
祁	-13.0424
睒	-13.0425
黐	-13.0425
洟	-13.0425
菔	-13.0425
j	-13.0427
斲	-13.0427
飼	-13.0427
ṇ	-13.0427
燎	-13.0428
熬	-13.0428
𧑃	-13.0428
湎	-13.0429
谿	-13.0429
抆	-13.043
弄	-13.043
駮	-13.043
燄	-13.043
糩	-13.043
亨	-13.043
槌	-13.0431
肴	-13.0431
腑	-13.0434
熠	-13.0435
撝	-13.0436
踏	-13.0436
縵	-13.0437
苐	-13.044
􂚭	-13.0446
噎	-13.0447
筭	-13.1997
宍	-13.2009
叨	-13.2022
壹	-13.2027
𤛓	-13.2033
簦	-13.2043
乱	-13.2049
緯	-13.205
廉	-13.205
矢	-13.2051
䩸	-13.2051
咲	-13.2053
薊	-13.2059
牡	-13.2059
贍	-13.2059
痴	-13.2059
凌	-13.2061
匱	-13.2062
浦	-13.2062
魁	-13.2063
孱	-13.2064
餔	-13.2064
桎	-13.2064
双	-13.2064
紏	-13.2065
竢	-13.2066
措	-13.2066
􂙾	-13.2066
洄	-13.2067
銘	-13.2067
掣	-13.2067
曩	-13.2067
萇	-13.2068
羹	-13.2069
碓	-13.207
曷	-13.207
徤	-13.207
澓	-13.2071
􂙻	-13.2072
督	-13.2073
葬	-13.2073
筞	-13.2074
牖	-13.2075
孕	-13.2075
恊	-13.2077
瑋	-13.2077
樣	-13.2077
誣	-13.2078
昉	-13.2079
課	-13.2079
躳	-13.2079
巴	-13.208
貓	-13.2081
柹	-13.2082
圭	-13.2082
握	-13.2082
噦	-13.2082
埽	-13.2082
謔	-13.2083
禹	-13.2083
醘	-13.2083
􂎟	-13.2083
囂	-13.2084
𨵗	-13.2084
鎻	-13.2084
昞	-13.2085
午	-13.2086
肋	-13.2086
聯	-13.2086
􂚉	-13.2086
渜	-13.2087
顇	-13.2088
𠍴	-13.2088
尒	-13.209
虱	-13.209
几	-13.209
襦	-13.209
撤	-13.209
陟	-13.209
眷	-13.2092
闚	-13.2092
齚	-13.2094
𢷤	-13.2094
腫	-13.2096
橛	-13.2096
懲	-13.2097
兇	-13.2097
貍	-13.2098
帙	-13.2098
𠲿	-13.2099
糓	-13.21
燿	-13.21
瓫	-13.21
鎔	-13.2101
鬧	-13.2101
惚	-13.2103
𨷲	-13.2104
痰	-13.2105
鷹	-13.2106
歔	-13.2112
嘻	-13.2114
䗶	-13.2128
桁	-13.2137
辜	-13.3922
穎	-13.4006
藻	-13.4019
罻	-13.4028
蒂	-13.4033
遼	-13.404
𥢶	-13.4041
蜫	-13.4042
郊	-13.4043
褁	-13.4044
芙	-13.4046
磬	-13.4047
婉	-13.4048
姧	-13.4049
歘	-13.4049
衢	-13.4049
氍	-13.405
狢	-13.4053
漁	-13.4053
籤	-13.4055
腥	-13.4056
巢	-13.4056
抉	-13.4056
瓮	-13.4056
翦	-13.4057
沖	-13.4058
俞	-13.4059
玩	-13.4059
陪	-13.4059
架	-13.406
<	-13.4062
翹	-13.4062
誇	-13.4062
挐	-13.4062
窻	-13.4062
距	-13.4063
扄	-13.4063
托	-13.4064
鐶	-13.4064
佳	-13.4064
慇	-13.4065
蠒	-13.4065
嚙	-13.4065
貽	-13.4066
蚶	-13.4067
粥	-13.4068
摒	-13.4068
霸	-13.4069
懟	-13.4069
剜	-13.4069
屎	-13.407
邇	-13.4071
籬	-13.4071
虺	-13.4073
凋	-13.4074
闢	-13.4075
漠	-13.4076
剡	-13.4077
凖	-13.4077
駞	-13.4077
街	-13.4077
慓	-13.4078
吁	-13.4078
仕	-13.4078
嗚	-13.4078
琢	-13.4079
凞	-13.4079
踞	-13.4079
諧	-13.4079
轝	-13.4079
淤	-13.4079
蜱	-13.4079
矬	-13.408
薳	-13.4081
鋪	-13.4081
刧	-13.4081
殮	-13.4082
㲉	-13.4082
抧	-13.4083
版	-13.4083
椽	-13.4083
緇	-13.4083
戊	-13.4084
岐	-13.4084
謚	-13.4085
惋	-13.4085
杯	-13.4085
䉈	-13.4086
蜣	-13.4086
徃	-13.4086
𨍮	-13.4086
屆	-13.4086
虐	-13.4086
庚	-13.4087
渙	-13.4087
甕	-13.4088
卍	-13.4088
祝	-13.4089
掬	-13.4089
援	-13.4089
蹄	-13.4089
􂎫	-13.409
嘔	-13.4091
坁	-13.4091
麇	-13.4091
旻	-13.4091
羯	-13.4091
陿	-13.4091
収	-13.4092
疇	-13.4092
鉋	-13.4092
璫	-13.4092
棟	-13.4093
ī	-13.4094
𠻳	-13.4094
嬉	-13.4095
怳	-13.4095
璀	-13.4095
璨	-13.4095
銳	-13.4096
摛	-13.4096
𣄢	-13.4097
淘	-13.4097
𨽻	-13.4098
𣸪	-13.4098
丞	-13.4099
覇	-13.4099
毅	-13.4101
估	-13.4102
晏	-13.4103
随	-13.4103
膊	-13.4104
礪	-13.4104
廂	-13.4105
宙	-13.4106
翏	-13.4106
䩕	-13.4116
廷	-13.6473
竣	-13.6501
栢	-13.6509
串	-13.6512
爍	-13.6519
擗	-13.6523
殫	-13.6529
𢉆	-13.6532
孃	-13.6533
股	-13.6537
鐇	-13.6539
𢍉	-13.654
翠	-13.6541
峰	-13.6544
薗	-13.6544
寘	-13.6545
暄	-13.6546
柿	-13.6547
卯	-13.6548
葩	-13.6548
驛	-13.655
桂	-13.655
繪	-13.6551
隕	-13.6552
𠷐	-13.6552
餅	-13.6552
霞	-13.6552
𧹞	-13.6552
姻	-13.6554
扁	-13.6554
霍	-13.6554
睛	-13.6555
蠻	-13.6555
洩	-13.6555
罕	-13.6556
誂	-13.6557
墯	-13.6557
潭	-13.6557
剬	-13.6557
噬	-13.6557
􂚏	-13.6557
帆	-13.6558
欻	-13.6558
啄	-13.6558
饉	-13.6559
慌	-13.6559
圄	-13.6559
咳	-13.6559
湊	-13.6559
隟	-13.6561
絓	-13.6561
囹	-13.6562
䏶	-13.6562
泄	-13.6563
蕪	-13.6563
笠	-13.6565
蔚	-13.6565
瓨	-13.6565
喏	-13.6565
穮	-13.6567
臠	-13.6568
筌	-13.6568
飫	-13.6568
侈	-13.6568
荂	-13.6568
􂚌	-13.6568
綸	-13.6568
戍	-13.6569
羇	-13.6569
鞠	-13.6569
葛	-13.657
捋	-13.657
碧	-13.657
蒜	-13.657
抂	-13.657
臈	-13.6572
麃	-13.6572
臼	-13.6573
欬	-13.6573
愷	-13.6574
詼	-13.6575
喁	-13.6575
歕	-13.6575
怕	-13.6576
協	-13.6576
斌	-13.6576
愞	-13.6576
芮	-13.6576
陁	-13.6576
㬉	-13.6577
狡	-13.6577
戎	-13.6577
蒔	-13.6577
柟	-13.6579
呈	-13.6579
菱	-13.6579
弦	-13.6579
葌	-13.6579
瑩	-13.658
媒	-13.658
酖	-13.658
亥	-13.6581
屢	-13.6581
社	-13.6581
瀝	-13.6582
黮	-13.6582
丐	-13.6582
柏	-13.6583
悷	-13.6583
畵	-13.6583
属	-13.6583
􂌦	-13.6583
謁	-13.6583
拊	-13.6584
熒	-13.6584
捶	-13.6584
劬	-13.6584
䩭	-13.6584
犀	-13.6586
笙	-13.6586
話	-13.6586
𧎮	-13.6586
捫	-13.6587
瞑	-13.6587
槁	-13.6588
頺	-13.6588
嫚	-13.6588
批	-13.6589
芰	-13.6589
茇	-13.659
毋	-13.659
播	-13.6591
吠	-13.6591
韓	-13.6591
裴	-13.6593
梱	-13.6593
鷂	-13.6594
攙	-13.6594
悚	-13.6594
酧	-13.6594
ḍ	-13.6594
獦	-13.6594
􂚊	-13.6594
纛	-13.6595
魄	-13.6595
蛻	-13.6595
兮	-13.6597
蚩	-13.6597
衷	-13.6597
栒	-13.6597
0	-13.6597
万	-13.6598
闐	-13.6598
懇	-13.6598
誌	-13.6598
朦	-13.6599
囄	-13.66
檐	-13.66
璃	-13.6601
趍	-13.6601
𠿘	-13.6602
䰒	-13.6602
蓽	-13.6602
蟒	-13.6602
滌	-13.6602
弩	-13.6604
鄴	-13.6604
鼎	-13.6604
梐	-13.6605
篾	-13.6605
癖	-13.6606
󰑁	-13.6608
𠻬	-13.6608
鉛	-13.6609
囓	-13.6609
壤	-13.6611
𠁅	-13.6612
鶹	-13.6612
剔	-13.6613
肖	-13.6615
迨	-13.6616
粹	-13.6618
摠	-13.6624
櫼	-13.6626
穄	-13.6633
脯	-13.6635
屑	-13.9825
廌	-13.9827
婿	-13.9844
戟	-13.985
斃	-13.9854
垣	-13.986
嵇	-13.9866
凸	-13.9875
慜	-13.9875
忉	-13.9877
姜	-13.9877
蔗	-13.9878
喫	-13.9879
奎	-13.9881
㲪	-13.9881
㢡	-13.9881
享	-13.9883
摚	-13.9883
罽	-13.9885
旌	-13.9887
僥	-13.9887
腷	-13.9887
屒	-13.9887
曚	-13.9887
壑	-13.9889
錍	-13.989
彪	-13.9891
梅	-13.9891
諛	-13.9892
唇	-13.9893
匏	-13.9893
穩	-13.9894
帋	-13.9895
叶	-13.9895
吟	-13.9895
俠	-13.9896
剗	-13.9896
侫	-13.9896
堤	-13.9898
凹	-13.9898
冲	-13.9898
卉	-13.9898
倨	-13.99
岡	-13.9902
忤	-13.9902
勌	-13.9902
噞	-13.9904
宴	-13.9906
嘢	-13.9906
斆	-13.9906
啅	-13.9908
撩	-13.991
奠	-13.9912
嗽	-13.9916
撈	-13.992
忝	-13.992
摾	-13.992
啇	-13.9922
䴰	-13.9923
儛	-13.9925
俻	-13.9925
娙	-13.9925
稼	-13.9927
ñ	-13.9927
ū	-13.9927
姟	-13.9927
ṭ	-13.9927
唄	-13.9929
弁	-13.9929
匈	-13.9931
悸	-13.9933
搘	-13.9935
掖	-13.9939
槹	-13.9939
宦	-13.994
惒	-13.9942
揄	-13.9943
B	-13.9943
嫡	-13.9943
廅	-13.9943
埃	-13.9946
伍	-13.9947
擁	-13.9951
憔	-14.4861
隥	-14.4883
鎞	-14.489
櫓	-14.4892
航	-14.4899
孩	-14.4905
呰	-14.492
醍	-14.5047
楓	-15.4749
桵	-15.475
曄	-15.4751
暐	-15.4752
揮	-15.4753
徘	-15.4754
徊	-15.4755
巫	-15.4756
妷	-15.4757
夗	-15.4758
嚀	-15.4759
呞	-15.476
叮	-15.4761
努	-15.4762
刵	-15.4763
俜	-15.4764
你	-15.4765
伶	-15.4766
㸌	-15.4767
㰦	-15.4768
㖒	-15.4769
驎	-15.477
騲	-15.4771
騏	-15.4772
馚	-15.4773
頒	-15.4774
鞏	-15.4775
鑰	-15.4776
鐹	-15.4777
鋼	-15.4778
鄔	-15.4779
轟	-15.478
蹟	-15.4781
踡	-15.4782
跣	-15.4783
豌	-15.4784
螟	-15.4785
蛉	-15.4786
蘿	-15.4787
羔	-15.4788
簧	-15.4789
穬	-15.479
痕	-15.4791
牉	-15.4792
沛	-15.4793
椒	-15.4794
柄	-15.4795
晡	-15.4796
摽	-15.4797
搗	-15.4798
捃	-15.4799
扈	-15.48
態	-15.4801
愴	-15.4802
悠	-15.4803
恪	-15.4804
弼	-15.4805
奩	-15.4806
墋	-15.4807
堄	-15.4808
坥	-15.4809
嗤	-15.481
劭	-15.4811
凰	-15.4812
僊	-15.4813
傑	-15.4814
㼑	-15.4815
㳂	-15.4816
鵂	-15.4817
魎	-15.4818
魍	-15.4819
頴	-15.482
靻	-15.4821
鄧	-15.4822
邕	-15.4823
蠃	-15.4824
蜾	-15.4825
蛊	-15.4826
茹	-15.4827
苽	-15.4828
肪	-15.4829
翩	-15.483
髣	-15.4831
髴	-15.4831
罐	-15.4831
瑪	-15.4832
牓	-15.4833
漚	-15.4834
沽	-15.4835
歿	-15.4836
斟	-15.4837
帑	-15.4838
埳	-15.4839
啻	-15.484
咫	-15.4841
匍	-15.4842
▲	-15.4843
>	-15.4844
鍛	-15.4845
釘	-15.4846
邵	-15.4847
蹲	-15.4848
蠕	-15.4849
莠	-15.485
茫	-15.4851
綈	-15.4852
皴	-15.4853
玫	-15.4854
狷	-15.4855
樝	-15.4856
昺	-15.4857
摴	-15.4858
䳒	-15.4859
㓟	-15.486
鴝	-15.4861
蜋	-15.4862
萄	-15.4863
縚	-15.4864
紜	-15.4865
紆	-15.4866
磲	-15.4867
磋	-15.4868
痍	-15.4869
疽	-15.487
疐	-15.4871
沼	-15.4872
掁	-15.4873
惆	-15.4874
庠	-15.4875
哺	-15.4876
冕	-15.4877
𧄼	-15.4878
麒	-15.4879
頷	-15.488
釣	-15.4881
苾	-15.4882
瞎	-15.4883
睨	-15.4884
睥	-15.4885
渟	-15.4886
杻	-15.4887
寥	-15.4888
鏗	-15.4889
牸	-15.489
材	-15.4891
髑	-15.4892
髏	-15.4893
鄲	-15.4894
邯	-15.4895
蝱	-15.4896
獅	-15.4897
彭	-15.4898
媚	-15.4899
蛾	-15.49
茯	-15.4901
碼	-15.4902
琥	-15.4903
珞	-15.4903
燧	-15.4904
拇	-15.4905
叛	-15.4906
匃	-15.4907
㽄	-15.4908
𦭽	-15.4909
藶	-15.491
蓏	-15.4911
菅	-15.4912
瀆	-15.4913
孚	-15.4914
閫	-15.4915
葶	-15.4916
橙	-15.4917
榴	-15.4918
曳	-15.4919
咷	-15.492
菀	-15.4921
羝	-15.4922
稊	-15.4923
腐	-15.4924
瘜	-15.4925
涸	-15.4926
棱	-15.4927
餚	-15.4928
橘	-15.4929
廝	-15.493
𧏙	-15.4931
繭	-15.4932
硬	-15.4933
[	-15.4934
羖	-15.4935
柰	-15.4936
駒	-15.4937
洮	-15.4938
閦	-15.4939
豁	-15.494
揆	-15.4941
頡	-15.4942
㮈	-15.4943
壙	-15.4943
靂	-15.4944
霹	-15.4945
馱	-15.4946
莂	-15.4947
珀	-15.4948
鵡	-15.4949
隘	-15.495
瑚	-15.4951
懊	-15.4952
崛	-15.4953
蚋	-15.4954
甄	-15.4955
屣	-15.4956
坏	-15.4957
䱜	-15.4958
p	-15.4959
裳	-15.496
癰	-15.4961
婇	-15.4962
訊	-15.4963
朋	-15.4964
磁	-15.4965
塚	-15.4966
粳	-15.4967
溥	-15.4968
箜	-15.4969
巍	-15.497
坊	-15.4971
迮	-15.4972
妊	-15.4973
袈	-15.4974
h	-15.4975
僮	-15.4975
鴛	-15.4976
罣	-15.4977
N	-15.4978
蕉	-15.4979
鴦	-15.498
t	-15.4981
獼	-15.4982
台	-15.4983
誹	-15.4984
瑤	-15.4985
楞	-15.4986
醐	-15.4987
—	-15.4988
臾	-15.4988
