<unk>	0
<s>	0
</s>	0
之	-3.90418
也	-4.34052
者	-4.7468
而	-4.80635
爲	-4.83345
(	-4.84276
)	-4.90169
/	-4.90692
以	-4.94921
其	-5.03293
不	-5.04232
有	-5.10536
則	-5.21082
一	-5.22017
於	-5.30849
人	-5.40429
中	-5.42677
無	-5.4459
氣	-5.50611
)(	-5.51364
生	-5.56014
上	-5.60468
心	-5.68043
天	-5.7259
神	-5.72757
此	-5.7446
三	-5.74498
故	-5.76583
大	-5.77168
道	-5.77938
下	-5.83115
自	-5.84851
是	-5.85105
在	-5.87978
行	-5.88536
曰	-5.88947
如	-5.9114
至	-5.91659
得	-5.93074
水	-5.93276
子	-5.95755
二	-6.02161
陽	-6.03435
日	-6.06096
五	-6.06972
矣	-6.09343
言	-6.09563
見	-6.10582
眞	-6.10618
與	-6.1106
時	-6.12911
金	-6.13056
即	-6.14564
明	-6.15938
乃	-6.16704
火	-6.20302
所	-6.21422
入	-6.22085
用	-6.22752
相	-6.23222
六	-6.241
四	-6.24505
成	-6.25779
九	-6.25943
出	-6.27191
内	-6.29983
乎	-6.30683
身	-6.31006
地	-6.32214
合	-6.34426
非	-6.35484
陰	-6.36267
經	-6.36908
若	-6.37247
後	-6.37505
山	-6.38095
可	-6.39426
玄	-6.39767
皆	-6.3978
又	-6.40874
法	-6.42191
亦	-6.42346
王	-6.43099
精	-6.43852
同	-6.44193
名	-6.44252
當	-6.44475
來	-6.44942
謂	-6.45691
靈	-6.45785
形	-6.47101
化	-6.47741
七	-6.49003
常	-6.49112
能	-6.49613
作	-6.50159
正	-6.50464
通	-6.5073
君	-6.50837
焉	-6.51363
然	-6.53619
從	-6.53864
事	-6.54595
物	-6.55001
于	-6.55961
風	-6.56276
知	-6.57531
去	-6.58817
外	-6.62262
玉	-6.62988
復	-6.63032
主	-6.63346
月	-6.66931
未	-6.68665
病	-6.6934
令	-6.69492
元	-6.69505
土	-6.69773
多	-6.70436
云	-6.7101
光	-6.71322
或	-6.72297
八	-6.72415
欲	-6.7314
方	-6.73287
數	-6.73799
白	-6.743
丹	-6.74415
長	-6.75039
先	-6.75242
▁	-6.75321
脉	-6.7608
年	-6.76169
文	-6.7675
何	-6.77375
今	-6.78204
分	-6.78236
及	-6.79835
我	-6.80481
應	-6.80557
處	-6.81105
木	-6.81167
使	-6.8242
仙	-6.82447
本	-6.83116
兩	-6.85266
星	-6.85345
宫	-6.862
居	-6.86859
門	-6.87695
安	-6.88115
清	-6.88436
前	-6.88511
性	-6.89354
書	-6.89708
雲	-6.89972
體	-6.90677
死	-6.91436
和	-6.91843
已	-6.9221
取	-6.92441
小	-6.92799
受	-6.9319
命	-6.93781
十	-6.93931
流	-6.94056
萬	-6.9464
過	-6.94701
立	-6.94834
師	-6.96105
象	-6.96562
黄	-6.97217
因	-6.97354
開	-6.97447
德	-6.97584
虚	-6.97722
夫	-6.98104
耳	-6.98174
理	-6.982
龍	-6.9851
寒	-6.98844
必	-6.99987
治	-7.00548
動	-7.00982
空	-7.01648
善	-7.01729
傳	-7.01974
難	-7.02406
世	-7.02762
始	-7.03718
天地	-7.0406
聲	-7.04776
諸	-7.04996
起	-7.05018
食	-7.05604
帝	-7.06634
變	-7.06716
平	-7.06878
藏	-7.07521
足	-7.08303
石	-7.08617
歸	-7.08648
高	-7.08769
將	-7.08882
盡	-7.08977
存	-7.09072
熱	-7.10372
運	-7.11473
符	-7.11827
少	-7.12003
不可	-7.12179
易	-7.1258
藥	-7.12717
色	-7.13053
實	-7.13409
定	-7.13569
還	-7.13583
目	-7.13618
者也	-7.14179
飛	-7.1462
位	-7.15794
公	-7.16427
度	-7.16611
右	-7.168
華	-7.17085
國	-7.17196
字	-7.17969
意	-7.18549
青	-7.19393
家	-7.19511
發	-7.19937
邪	-7.20428
千	-7.2148
離	-7.21944
初	-7.22333
守	-7.22949
觀	-7.23397
重	-7.23958
口	-7.24099
雖	-7.24143
須	-7.2418
服	-7.24429
會	-7.26037
東	-7.27163
求	-7.27173
散	-7.27391
凡	-7.27728
血	-7.27889
修	-7.28741
隨	-7.28761
音	-7.29125
乾	-7.29324
骨	-7.2934
功	-7.29562
腎	-7.29602
失	-7.29754
各	-7.29771
更	-7.29885
向	-7.29986
靜	-7.30757
微	-7.3085
極	-7.31084
陰陽	-7.31092
吾	-7.31122
不能	-7.31149
終	-7.31189
滿	-7.31235
頭	-7.31813
聞	-7.32816
西	-7.33125
間	-7.33579
十二	-7.33887
絶	-7.34215
妙	-7.34231
異	-7.34233
交	-7.34249
南	-7.34308
隂	-7.345
不得	-7.34725
勝	-7.34795
思	-7.35339
息	-7.35969
周	-7.35999
甚	-7.36259
反	-7.37088
便	-7.37148
養	-7.3775
次	-7.38212
○	-7.38798
深	-7.39005
情	-7.39122
百	-7.39244
節	-7.39257
炁	-7.39873
自然	-7.4007
樂	-7.40094
衆	-7.4082
而不	-7.40914
猶	-7.4127
盛	-7.41533
无	-7.41701
卦	-7.41726
傷	-7.41809
章	-7.42238
蓋	-7.42278
景	-7.42522
歲	-7.42532
說	-7.42787
結	-7.43286
眞人	-7.43354
止	-7.4338
但	-7.43389
日月	-7.43628
北	-7.43699
赤	-7.43715
肺	-7.43782
轉	-7.438
問	-7.44077
聖	-7.44834
要	-7.44841
志	-7.45444
惡	-7.46152
○)	-7.46268
伏	-7.47243
可以	-7.47481
女	-7.47623
肝	-7.47706
紫	-7.47826
左	-7.47851
○)(	-7.48085
别	-7.49621
降	-7.49844
既	-7.49927
哉	-7.50347
全	-7.50578
俱	-7.50619
汞	-7.50972
引	-7.51288
屬	-7.52013
所以	-7.52341
虎	-7.52388
脾	-7.5247
論	-7.52652
隱	-7.52759
半	-7.53152
篇	-7.53468
真	-7.5417
太	-7.54428
好	-7.54645
之氣	-7.55067
朝	-7.55259
莫	-7.55279
鬼	-7.5546
官	-7.55504
衣	-7.56109
刺	-7.56328
苦	-7.56343
臣	-7.56379
等	-7.56725
鉛	-7.56849
關	-7.57
解	-7.57193
教	-7.57209
春	-7.57361
海	-7.57378
指	-7.57453
著	-7.57583
滅	-7.58561
手	-7.59699
制	-7.59703
洞	-7.59827
直	-7.60313
學	-7.6102
卷	-7.61207
積	-7.61462
念	-7.61895
老	-7.61997
之中	-7.62208
宜	-7.62665
坐	-7.62959
首	-7.63214
疾	-7.63733
都	-7.63787
故曰	-7.63885
遂	-7.64006
亂	-7.64123
利	-7.64339
萬物	-7.64435
之道	-7.6459
母	-7.64821
謂之	-7.65025
識	-7.65315
斯	-7.65377
力	-7.6541
且	-7.65481
州	-7.66035
授	-7.66482
由	-7.66707
五行	-7.66966
不知	-7.67407
似	-7.68606
爾	-7.68743
順	-7.69065
兵	-7.69211
遊	-7.69238
齊	-7.69291
獨	-7.69404
坤	-7.69929
乘	-7.69953
遇	-7.70693
鍊	-7.70726
夜	-7.71088
圖	-7.71257
勿	-7.71436
除	-7.71647
致	-7.71692
味	-7.71863
感	-7.72032
為	-7.7209
虛	-7.7214
義	-7.72188
逆	-7.73033
固	-7.73204
痛	-7.73243
天下	-7.73248
並	-7.73738
注	-7.73937
候	-7.73958
花	-7.74157
民	-7.74208
士	-7.74935
留	-7.74936
魂	-7.75253
寶	-7.75537
斗	-7.76129
信	-7.76151
室	-7.76212
旣	-7.76306
皇	-7.7633
達	-7.76426
畢	-7.76496
餘	-7.77131
馬	-7.77414
舉	-7.77593
根	-7.78025
廣	-7.78429
遠	-7.78471
夏	-7.78666
語	-7.78872
加	-7.79343
進	-7.79351
唯	-7.80425
悟	-7.80473
亡	-7.80695
之所	-7.80827
臨	-7.81115
登	-7.81208
訣	-7.81249
照	-7.81285
浮	-7.81336
幽	-7.81971
秋	-7.82088
衰	-7.82115
忘	-7.82689
黑	-7.83069
殺	-7.83235
名曰	-7.83264
依	-7.84488
註	-7.84574
永	-7.84601
古	-7.84818
愛	-7.85179
急	-7.85384
坎	-7.85604
惟	-7.85864
益	-7.85958
雨	-7.86039
壽	-7.86165
却	-7.86617
於是	-7.86722
視	-7.87476
酒	-7.87647
塵	-7.88227
張	-7.88303
機	-7.88467
面	-7.88468
府	-7.88671
害	-7.88969
久	-7.8934
稱	-7.89901
輕	-7.89923
液	-7.89975
近	-7.90512
消	-7.9106
覺	-7.9125
魚	-7.91541
了	-7.91831
胎	-7.91871
妄	-7.92176
泄	-7.92246
十五	-7.92367
凝	-7.92387
堅	-7.92605
呼	-7.92811
己	-7.92836
寳	-7.93091
到	-7.93403
巳	-7.93417
調	-7.9405
退	-7.94108
宗	-7.94235
也故	-7.9481
收	-7.94919
香	-7.95069
保	-7.95338
并	-7.95516
共	-7.95539
尋	-7.95782
禁	-7.95815
損	-7.96916
强	-7.97364
漢	-7.97401
長生	-7.97925
鼎	-7.98022
升	-7.98119
持	-7.98571
號	-7.9858
太上	-7.98759
河	-7.98877
含	-7.99288
胃	-7.99423
肉	-7.99491
吟	-7.99577
福	-8.00266
豈	-8.00767
彼	-8.01017
如此	-8.01319
貴	-8.01431
以爲	-8.01521
代	-8.01582
毛	-8.02032
布	-8.0219
李	-8.02245
温	-8.02374
乾坤	-8.02416
閉	-8.02563
任	-8.02626
素	-8.02737
就	-8.02866
具	-8.02869
辛	-8.02872
城	-8.02892
之時	-8.03443
類	-8.03682
執	-8.03786
水火	-8.03967
神仙	-8.04284
望	-8.04353
司	-8.04395
補	-8.04401
奉	-8.04548
榮	-8.05833
朱	-8.062
禮	-8.06374
圓	-8.06516
所謂	-8.06569
裏	-8.06835
閑	-8.06873
許	-8.069
吉	-8.071
術	-8.07242
施	-8.07323
夢	-8.07477
林	-8.07701
落	-8.07734
智	-8.07767
路	-8.07848
告	-8.07912
聖人	-8.08262
珠	-8.08786
上下	-8.08848
草	-8.08876
刻	-8.09205
恐	-8.09233
筋	-8.09317
喜	-8.09474
冬	-8.09536
中有	-8.09765
十八	-8.10028
武	-8.10178
甲	-8.10203
十一	-8.1061
臺	-8.10895
興	-8.11318
奇	-8.11477
變化	-8.1162
而爲	-8.11736
羽	-8.11748
親	-8.12045
住	-8.12283
父	-8.12431
隂陽	-8.12448
鼻	-8.12541
太陽	-8.12579
切	-8.12648
是也	-8.12725
十四	-8.12863
期	-8.13096
陳	-8.13181
步	-8.13395
人之	-8.13433
疑	-8.13451
/○○○○)	-8.13521
秦	-8.13777
對	-8.14156
源	-8.14174
昔	-8.14446
飲	-8.14704
被	-8.14708
辰	-8.14786
(/	-8.14921
走	-8.14923
是謂	-8.15519
返	-8.158
震	-8.15848
十六	-8.15866
汝	-8.15869
然後	-8.15897
左右	-8.16043
曲	-8.16292
是以	-8.16503
穴	-8.16551
容	-8.16854
干	-8.1688
聚	-8.16924
勞	-8.1701
漸	-8.17654
腹	-8.17927
金丹	-8.18684
尊	-8.18728
憂	-8.18797
尺	-8.18868
十三	-8.19028
每	-8.19052
房	-8.19114
舌	-8.19202
迷	-8.19735
願	-8.19939
斷	-8.19983
造	-8.20237
備	-8.20253
破	-8.20266
假	-8.20275
伐	-8.20282
宿	-8.20322
五藏	-8.20332
太一	-8.20362
江	-8.20824
顯	-8.2083
魄	-8.21407
休	-8.2142
先生	-8.21428
按	-8.21482
縣	-8.21526
谷	-8.21705
賢	-8.22233
只	-8.22353
敗	-8.22443
尚	-8.22739
窮	-8.22829
兮	-8.23359
絡	-8.23389
待	-8.23718
境	-8.23726
車	-8.23972
爐	-8.2403
針	-8.24157
仰	-8.24454
煉	-8.24714
眼	-8.24889
陵	-8.24904
循	-8.25014
氏	-8.2535
迴	-8.25466
祖	-8.2554
建	-8.25572
巽	-8.25712
救	-8.25735
細	-8.25993
混	-8.26079
爭	-8.26145
聽	-8.26276
沉	-8.26353
夫人	-8.26367
午	-8.26386
甘	-8.2646
列	-8.26482
羅	-8.26748
鳥	-8.26865
魏	-8.26899
他	-8.27172
質	-8.27256
愈	-8.27334
兆	-8.27348
是爲	-8.27477
其氣	-8.27807
業	-8.2791
愚	-8.2793
濟	-8.28172
記	-8.28193
⬤	-8.28249
罪	-8.28313
器	-8.2834
陽氣	-8.28721
之後	-8.28739
驗	-8.28942
俗	-8.29257
請	-8.29295
美	-8.29442
報	-8.2953
砂	-8.2953
牛	-8.29599
之法	-8.30188
辭	-8.30323
戒	-8.30591
爻	-8.30599
卧	-8.30991
宻	-8.31506
艮	-8.31603
經云	-8.31749
想	-8.31892
天地之	-8.323
霞	-8.32569
端	-8.32583
再	-8.32892
盈	-8.33075
還丹	-8.33126
承	-8.33244
冠	-8.33249
昇	-8.33409
歌	-8.3369
比	-8.3397
兼	-8.34143
晨	-8.34154
移	-8.34248
四時	-8.34294
泉	-8.34306
大道	-8.34324
末	-8.34914
果	-8.35084
遍	-8.35388
縁	-8.35415
龍虎	-8.35537
伯	-8.35563
姓	-8.35601
劉	-8.35606
忽	-8.36021
放	-8.3613
不足	-8.36199
澤	-8.36227
佛	-8.36337
二十四	-8.36361
推	-8.36415
誠	-8.36523
政	-8.3662
專	-8.36682
里	-8.36933
剛	-8.36941
寧	-8.3699
童	-8.3704
造化	-8.37093
無所	-8.37266
啓	-8.37338
厥	-8.37571
烏	-8.37689
看	-8.37743
之間	-8.37755
衛	-8.37888
之上	-8.37912
二十	-8.37915
黄帝	-8.37938
十七	-8.37949
齋	-8.38327
角	-8.38381
寂	-8.3886
條	-8.38959
孔	-8.39277
部	-8.39321
新	-8.39552
紅	-8.3972
客	-8.39835
而生	-8.40021
表	-8.40057
封	-8.40472
濁	-8.40541
元氣	-8.40568
集	-8.40597
驚	-8.40757
冥	-8.41049
仁	-8.41086
鳳	-8.41422
太極	-8.41727
上清	-8.41754
至于	-8.41777
適	-8.41795
生於	-8.41947
十九	-8.42145
井	-8.42221
露	-8.42239
而成	-8.42327
濕	-8.4237
侯	-8.42815
旦	-8.42838
差	-8.42867
某	-8.4295
詩	-8.42983
參	-8.43301
誰	-8.43345
箇	-8.43363
計	-8.43479
潜	-8.43507
陽明	-8.43579
凶	-8.43783
田	-8.43866
不及	-8.43931
一日	-8.44108
穀	-8.44165
延	-8.44241
鼓	-8.44336
笑	-8.44489
尸	-8.44596
毒	-8.44621
勤	-8.44639
御	-8.44704
採	-8.45104
軍	-8.45324
葉	-8.45416
而已	-8.45463
禍	-8.45545
錬	-8.45741
良	-8.45938
載	-8.46185
徒	-8.46332
帶	-8.46485
商	-8.4653
種	-8.46543
也其	-8.46545
第二	-8.46577
庭	-8.46583
寫	-8.46613
丹田	-8.46644
拜	-8.46928
鳴	-8.4699
津	-8.47051
回	-8.47067
災	-8.47193
蛇	-8.47214
户	-8.47224
甲子	-8.47262
晋	-8.47364
原	-8.47384
覆	-8.47593
威	-8.47617
乆	-8.47637
少陽	-8.4768
兔	-8.47717
早	-8.47794
吐	-8.48112
輪	-8.48117
申	-8.48413
歷	-8.48417
舍	-8.48711
耶	-8.48755
雪	-8.48775
三十	-8.48893
薄	-8.49124
刑	-8.4941
録	-8.49412
駕	-8.495
患	-8.49564
/○○○	-8.49605
卒	-8.49617
危	-8.49716
充	-8.49864
攝	-8.50224
昏	-8.50403
不見	-8.50512
闕	-8.50522
連	-8.50772
背	-8.50937
丘	-8.50995
塞	-8.51104
碧	-8.51131
宣	-8.51543
紀	-8.51663
遺	-8.5175
逺	-8.51864
懷	-8.51869
三元	-8.52147
堂	-8.52153
抱	-8.522
孫	-8.52276
徃	-8.52584
楚	-8.52687
男	-8.52838
野	-8.52924
司天	-8.5293
慮	-8.52963
太陰	-8.52988
釋	-8.53039
煙	-8.53074
之精	-8.53142
師曰	-8.53153
柔	-8.53389
泰	-8.53398
梁	-8.53777
證	-8.53946
之人	-8.54066
令人	-8.54507
賊	-8.54544
謝	-8.56047
蟲	-8.56048
泥丸	-8.56113
吴	-8.5624
超	-8.56256
丁	-8.56312
徹	-8.56584
殊	-8.56609
鬱	-8.56675
資	-8.56698
燥	-8.56733
序	-8.56867
皮	-8.56877
火候	-8.57317
/○○○○)(	-8.57648
貪	-8.57649
禀	-8.5767
也夫	-8.5768
累	-8.57836
脫	-8.57937
趙	-8.57947
棄	-8.58029
審	-8.58173
化爲	-8.58174
雜	-8.58272
慧	-8.58364
犯	-8.58459
攻	-8.58513
無爲	-8.5859
示	-8.58638
狀	-8.58655
履	-8.58853
庚	-8.58904
接	-8.5903
宅	-8.59234
英	-8.59258
樹	-8.59664
得道	-8.59837
越	-8.59857
髮	-8.59881
奔	-8.60041
道士	-8.60086
察	-8.60294
總	-8.60468
幾	-8.60635
之下	-8.60718
往	-8.60771
而後	-8.6097
營	-8.61076
淫	-8.61116
瑩	-8.61287
犬	-8.61363
之内	-8.61419
納	-8.61485
眞氣	-8.62022
出入	-8.62133
人也	-8.62155
縱	-8.62286
九天	-8.62296
淵	-8.62309
三日	-8.62325
包	-8.62742
蒼	-8.62994
夕	-8.63039
丸	-8.63107
何以	-8.63177
瓊	-8.6332
垂	-8.63335
契	-8.63367
簡	-8.63757
弱	-8.63757
如是	-8.64139
品	-8.64179
喻	-8.64198
謀	-8.64219
□	-8.64299
改	-8.64412
獲	-8.64419
少陰	-8.64439
服之	-8.64462
謹	-8.64615
將軍	-8.64887
祕	-8.64997
敬	-8.65089
逢	-8.65301
膽	-8.65498
行之	-8.65538
群	-8.65633
穢	-8.65645
厚	-8.65689
訖	-8.65711
修行	-8.65713
不同	-8.66078
老君	-8.66185
寅	-8.66326
怒	-8.66334
宰	-8.6634
至於	-8.6644
三年	-8.6653
腦	-8.666
悲	-8.66788
竹	-8.66961
其數	-8.67126
昌	-8.67232
齒	-8.67419
樞	-8.67431
負	-8.67633
界	-8.67963
澄	-8.6802
横	-8.6804
霄	-8.68048
悉	-8.68279
經曰	-8.68625
舊	-8.68723
咽	-8.68769
迎	-8.6897
騰	-8.69326
有所	-8.69559
孝	-8.69648
輔	-8.69827
鐵	-8.69863
育	-8.69906
曾	-8.6992
波	-8.70007
帝君	-8.70149
父母	-8.70187
跡	-8.70272
速	-8.70323
配	-8.70364
辰戌	-8.7048
置	-8.70529
神明	-8.70753
惑	-8.7076
暴	-8.70818
改元	-8.70844
丈	-8.70999
壯	-8.71107
魔	-8.71134
邊	-8.71156
季	-8.71215
衝	-8.71368
之數	-8.71434
權	-8.71488
龜	-8.71616
金水	-8.71655
君子	-8.71891
况	-8.71901
寄	-8.72083
否	-8.72161
郡	-8.72345
三十六	-8.72485
投	-8.72549
卿	-8.72558
一聲	-8.7275
奪	-8.72835
純	-8.7302
冷	-8.73259
煩	-8.73332
爲之	-8.73377
戰	-8.73472
折	-8.73528
)(/	-8.73567
畏	-8.73789
内外	-8.73824
籙	-8.74194
亥	-8.74301
生死	-8.74305
腰	-8.74343
五色	-8.74358
學道	-8.74459
汗	-8.74533
炎	-8.74666
曉	-8.74857
領	-8.74906
㫖	-8.7493
貫	-8.75114
侍	-8.75243
遷	-8.75403
有餘	-8.756
霜	-8.75772
枯	-8.75852
諱	-8.76081
弟子	-8.76091
劫	-8.76107
乙	-8.76127
精神	-8.76152
違	-8.76345
務	-8.7656
恩	-8.76798
三五	-8.76957
蒙	-8.77058
酸	-8.77085
畫	-8.77184
鬼神	-8.77215
宋	-8.77259
徐	-8.77345
兊	-8.77372
潤	-8.77507
映	-8.77515
六十	-8.77602
第一	-8.77623
第三	-8.77692
白虎	-8.77725
懸	-8.77952
竅	-8.78082
奏	-8.78224
真人	-8.78321
銀	-8.7833
二百	-8.78359
忌	-8.78432
財	-8.78445
卯	-8.78672
熟	-8.78678
雷	-8.7871
唐	-8.78812
約	-8.79019
工	-8.79126
晝夜	-8.793
嘗	-8.79318
朗	-8.79415
友	-8.79662
其所	-8.79673
黄芽	-8.79787
才	-8.79831
環	-8.79903
雙	-8.79938
川	-8.80211
酉	-8.80247
辰巳	-8.80392
逐	-8.80421
兄	-8.80618
又曰	-8.80701
没	-8.80916
繼	-8.80961
兒	-8.8099
三千	-8.81168
産	-8.8119
五聲	-8.81225
獸	-8.81259
泥	-8.8135
緩	-8.81427
增	-8.81445
最	-8.81452
東方	-8.81565
滯	-8.81665
燒	-8.81765
漏	-8.81924
鼠	-8.81944
芝	-8.8215
坎離	-8.82265
綱	-8.82405
青龍	-8.82495
一切	-8.82585
顧	-8.82682
喪	-8.82687
管	-8.82718
竭	-8.82733
俞	-8.82848
者是	-8.82891
五音	-8.83059
世人	-8.83133
楊	-8.83155
助	-8.83228
辯	-8.83276
貞	-8.83518
入于	-8.83569
神氣	-8.83572
北方	-8.83661
精氣	-8.83682
戊	-8.83824
掌	-8.83956
之事	-8.84182
而無	-8.84253
鎭	-8.84287
岐伯曰	-8.84447
答	-8.84749
鏡	-8.8479
嚥	-8.85068
際	-8.85072
三聲	-8.85164
十聲	-8.85189
召	-8.85266
八聲	-8.85274
一年	-8.85289
天之	-8.85497
之理	-8.85513
送	-8.85517
設	-8.85563
道之	-8.85617
四聲	-8.85976
祝	-8.86031
習	-8.86068
二聲	-8.86388
妻	-8.8643
愼	-8.86548
九聲	-8.86721
太過	-8.86778
影	-8.86862
仙人	-8.87016
夷	-8.87051
暮	-8.87358
治之	-8.87549
支	-8.87649
潔	-8.88134
道德	-8.88285
湯	-8.88462
辟	-8.8849
勢	-8.88668
昧	-8.88697
咸	-8.88973
答曰	-8.89119
第十	-8.89136
知其	-8.89152
一名	-8.89281
用之	-8.89305
吞	-8.89309
鹹	-8.89314
揚	-8.8932
玉女	-8.89366
故云	-8.89401
詳	-8.89449
辰申	-8.8947
也若	-8.89544
溢	-8.89565
人間	-8.89736
醉	-8.89752
扶	-8.89826
乍	-8.89833
律	-8.89841
辰辰	-8.90107
辰午	-8.90128
底	-8.90158
佐	-8.90159
吸	-8.90273
牙	-8.9029
惠	-8.90324
偏	-8.90361
在泉	-8.90383
頂	-8.90502
秀	-8.9056
旋	-8.90576
傾	-8.90652
中央	-8.9076
辰寅	-8.90826
仍	-8.90838
膝	-8.90839
敢	-8.90853
辰未	-8.9105
余	-8.91159
丑	-8.91191
弦	-8.91256
於此	-8.91383
孤	-8.9141
隔	-8.91557
丙	-8.9156
不死	-8.91578
般	-8.91879
辰卯	-8.91917
辰丑	-8.91918
之士	-8.9192
辰酉	-8.91921
辰亥	-8.91923
七十	-8.92088
短	-8.92177
辰子	-8.92325
顔	-8.92395
曜	-8.92437
哀	-8.92601
況	-8.92807
停	-8.92852
免	-8.92861
錯	-8.92879
鶴	-8.93096
新校正云按	-8.93159
枝	-8.93171
康	-8.93413
試	-8.93432
四十	-8.93673
占	-8.93713
二十五	-8.93719
又云	-8.93789
一寸	-8.93904
胡	-8.93934
讀	-8.93977
誤	-8.9406
尾	-8.9408
决	-8.9432
鉛汞	-8.94463
虧	-8.94552
出於	-8.94797
五十	-8.94863
鄭	-8.95125
述	-8.95146
廢	-8.9539
丹砂	-8.95433
癸	-8.95555
儀	-8.95625
委	-8.95723
五臟	-8.95736
把	-8.95745
克	-8.96026
鍾	-8.96058
髓	-8.96259
拘	-8.96284
先天	-8.96309
迹	-8.9636
捨	-8.96499
者皆	-8.96566
魯	-8.96576
不用	-8.966
南方	-8.96691
頓	-8.96846
量	-8.96862
脚	-8.97103
仲	-8.97241
翼	-8.97264
索	-8.97499
池	-8.97533
金液	-8.97601
遣	-8.97666
一百	-8.977
岳	-8.97788
妾	-8.97826
霍	-8.97833
身中	-8.97857
默	-8.97988
招	-8.98016
誦	-8.98023
壇	-8.98038
狂	-8.98071
屋	-8.98085
沐浴	-8.98114
不敢	-8.98362
帥	-8.98381
呼吸	-8.9841
水銀	-8.98427
殿	-8.98552
拔	-8.98719
陰氣	-8.98879
魂魄	-8.99082
一陽	-8.99315
八卦	-8.99373
嬰兒	-8.99522
司命	-8.99525
慈	-8.99527
句	-8.99714
暗	-8.9976
摩	-8.99816
灌	-8.99924
二音	-8.99963
繫	-9.00117
統	-9.00168
錦	-9.00429
亦有	-9.00461
鄉	-9.00469
八音	-9.00562
廉	-9.00709
巨	-9.00782
六甲	-9.00936
昭	-9.01044
屈	-9.01065
凉	-9.01074
附	-9.0108
七日	-9.01323
呪	-9.01353
蕩	-9.01354
欠	-9.01389
膀胱	-9.01453
禪	-9.01578
北斗	-9.01758
六音	-9.01762
子曰	-9.01884
松	-9.01915
徑	-9.01956
洪	-9.01969
乞	-9.0226
斤	-9.02278
暑	-9.02281
校	-9.02307
各有	-9.02317
之日	-9.02357
韓	-9.02409
九音	-9.02493
十一音	-9.02566
問曰	-9.02577
之山	-9.02677
亦不	-9.02686
是故	-9.02708
太素	-9.02784
舒	-9.02942
壞	-9.02961
第五	-9.02969
沖	-9.03176
擊	-9.03206
借	-9.03222
據	-9.0325
一月	-9.033
傍	-9.03424
刀	-9.03499
旬	-9.03572
籍	-9.03696
自有	-9.0381
四音	-9.04077
略	-9.04142
道者	-9.0416
冰	-9.04201
燕	-9.0421
十音	-9.04213
腸	-9.04296
入於	-9.04426
七音	-9.04465
忠	-9.04556
純陽	-9.04646
十二音	-9.04659
其神	-9.04728
希	-9.04764
慶	-9.04793
一音	-9.05052
逸	-9.05077
九十	-9.05089
基	-9.05132
允	-9.05169
無窮	-9.05229
五日	-9.05333
厥陰	-9.05364
十月	-9.0538
護	-9.05433
庶	-9.05459
西方	-9.05549
緑	-9.05742
詣	-9.05743
三音	-9.05752
晝	-9.05793
考	-9.058
市	-9.0605
不動	-9.06074
徵	-9.06086
嶽	-9.06138
弟	-9.06261
項	-9.06374
幸	-9.06415
其中	-9.0657
寸	-9.06653
恒	-9.06675
融	-9.06689
沙	-9.0673
病者	-9.06814
避	-9.07046
郭	-9.07081
二十一	-9.07118
歟	-9.07207
其道	-9.07455
彌	-9.07668
性命	-9.07684
託	-9.07702
即是	-9.07843
一身	-9.07856
貧	-9.0793
嘉	-9.07973
黄帝曰	-9.07992
亘	-9.08032
淨	-9.08533
草木	-9.08593
竟	-9.08648
遲	-9.08974
游	-9.09009
懼	-9.09036
者爲	-9.0912
禹	-9.09253
予	-9.09332
科	-9.09339
樓	-9.09377
如何	-9.09458
新校正云詳	-9.09597
莊	-9.0969
得其	-9.10019
則爲	-9.10435
透	-9.10585
𣈆	-9.10654
披	-9.10684
苟	-9.1069
粉	-9.10929
偶	-9.11019
八十	-9.11058
吕	-9.11083
也此	-9.11087
一人	-9.11224
動靜	-9.11245
二千二百	-9.11306
眉	-9.11584
宇	-9.11643
特	-9.117
嬰	-9.11719
蜀	-9.11744
課	-9.1209
太平	-9.12397
之外	-9.12404
之脉	-9.12542
標	-9.12599
雄	-9.126
滋	-9.12614
盤	-9.12666
三百	-9.12751
痹	-9.128
不離	-9.13389
者謂	-9.13528
射	-9.13697
血氣	-9.13748
何也	-9.14041
之功	-9.14074
晦	-9.14107
壬	-9.14173
側	-9.14267
桃	-9.14392
叔	-9.14404
崇	-9.14422
第六	-9.14527
之用	-9.14622
翠	-9.14715
暢	-9.14777
嚴	-9.1479
之妙	-9.14883
京	-9.15
不通	-9.1502
慾	-9.15068
洛	-9.15092
吏	-9.15098
禄	-9.151
邪氣	-9.1514
印	-9.15191
至道	-9.15422
佳	-9.15426
賜	-9.15446
得之	-9.15579
策	-9.15627
小腸	-9.15693
現	-9.15756
戌	-9.1582
夭	-9.15886
之道也	-9.15956
郎	-9.1618
也又	-9.16215
密	-9.16227
付	-9.16554
腫	-9.16586
上元	-9.16721
絳	-9.17056
研	-9.17158
黄庭	-9.17459
學者	-9.17749
歩	-9.1777
服氣	-9.17826
不復	-9.17829
無形	-9.17895
觸	-9.17988
葛	-9.18003
私	-9.18039
所生	-9.18082
太清	-9.18225
飲食	-9.18282
逰	-9.18324
九轉	-9.18341
滑	-9.187
陶	-9.18733
一氣	-9.18796
不相	-9.1884
起於	-9.1885
大腸	-9.18886
染	-9.19041
暉	-9.19094
儒	-9.19099
撰	-9.19126
孰	-9.19153
千里	-9.19175
毫	-9.19358
言之	-9.19361
乳	-9.19433
四象	-9.19531
貌	-9.19548
萬里	-9.19554
婦	-9.19649
津液	-9.19663
洗	-9.19775
上昇	-9.19862
減	-9.19864
肩	-9.2015
在於	-9.20183
尚書	-9.20193
躁	-9.2024
其形	-9.20285
氣也	-9.20349
此是	-9.20354
秘	-9.20551
沈	-9.20555
覩	-9.2056
大丹	-9.20645
役	-9.20844
常以	-9.2086
互	-9.20975
雞	-9.2098
一斤	-9.21075
此法	-9.21164
蒸	-9.21274
第四	-9.21411
二十二	-9.21484
富	-9.21507
追	-9.21673
彭	-9.21696
銅	-9.217
抑	-9.21772
耀	-9.21812
天氣	-9.22052
怪	-9.22144
人身	-9.22337
寢	-9.2238
驅	-9.22419
之謂	-9.22449
者何也	-9.22772
二十三	-9.22917
世間	-9.23107
取之	-9.23145
階	-9.23209
妖	-9.23221
不生	-9.23332
而有	-9.23571
天符	-9.23592
所在	-9.23796
響	-9.23882
馳	-9.23966
祥	-9.24026
其名曰	-9.24042
二十八	-9.24117
四日	-9.24118
緫	-9.24277
厭	-9.2436
佩	-9.24783
道也	-9.25085
吹	-9.25103
巧	-9.25128
兹	-9.25133
猛	-9.25474
混沌	-9.25531
孟	-9.25542
羊	-9.25602
答云	-9.25645
三才	-9.25663
史	-9.2576
故能	-9.258
渾	-9.25878
脅	-9.25892
彰	-9.2591
弗	-9.25957
號曰	-9.26145
淺	-9.26185
盜	-9.2626
冬至	-9.26415
水中	-9.26595
五嶽	-9.26624
二十七	-9.26675
祝曰	-9.26676
寒熱	-9.26835
飽	-9.27027
防	-9.2704
臭	-9.27044
臂	-9.27067
談	-9.27073
流珠	-9.27083
崩	-9.27122
衆生	-9.27139
無不	-9.27192
淳	-9.2742
逍遥	-9.27439
漿	-9.27471
灾	-9.27535
往來	-9.27576
明堂	-9.27706
歡	-9.27782
陸	-9.27864
長史	-9.27945
太白	-9.27973
維	-9.28064
胞	-9.2828
乖	-9.28281
奈何	-9.28305
桑	-9.28348
爲一	-9.28361
天尊	-9.28542
憑	-9.28653
棲	-9.28681
荒	-9.28689
祭	-9.28708
此道	-9.28729
光明	-9.28977
省	-9.29039
銖	-9.29058
鹿	-9.29062
灰	-9.2908
元君	-9.29108
飢	-9.29398
添	-9.2943
其身	-9.29434
倒	-9.29454
究	-9.29473
萬物之	-9.29737
三月	-9.29776
四方	-9.29778
典	-9.29791
爲陽	-9.29802
有三	-9.29818
尤	-9.29826
像	-9.29845
振	-9.29911
寒暑	-9.30011
錢	-9.30168
限	-9.30236
僧	-9.30251
溪	-9.30253
圍	-9.30309
有一	-9.30395
經脉	-9.30469
於人	-9.30611
博	-9.30758
莫不	-9.308
百日	-9.30845
不可以	-9.3086
魁	-9.31185
故爲	-9.31377
三焦	-9.31465
中宫	-9.31491
侵	-9.31538
一時	-9.31672
之位	-9.31803
多少	-9.31807
豐	-9.31932
个	-9.31958
帝曰	-9.3196
喉	-9.31995
則氣	-9.32011
童子	-9.32035
之要	-9.32038
點	-9.32126
太玄	-9.32241
困	-9.32308
霧	-9.32349
殃	-9.32371
妻子	-9.3238
誅	-9.32387
天師	-9.32717
鷄	-9.32803
分明	-9.33171
溺	-9.33174
畜	-9.33252
口訣	-9.33313
名爲	-9.33368
三界	-9.33376
三陽	-9.3347
故也	-9.33561
者必	-9.33582
陰陽之	-9.33692
堪	-9.3376
卯酉	-9.33793
二十六	-9.33961
老君曰	-9.34019
皮膚	-9.34071
怨	-9.34085
新校正云按甲乙經	-9.34114
河車	-9.34189
以其	-9.34214
在乎	-9.34258
十日	-9.34346
二寸	-9.34357
上有	-9.34392
導	-9.34434
柳	-9.3448
乗	-9.34546
軒	-9.34835
脊	-9.34867
赤氣	-9.34887
使人	-9.34945
其病	-9.34992
僞	-9.35019
第七	-9.35034
鮮	-9.35296
毁	-9.35322
知之	-9.35481
三十二	-9.35668
鹽	-9.35677
不出	-9.35725
輿	-9.35727
尹	-9.35794
劒	-9.35815
捻	-9.35898
黄金	-9.35974
不利	-9.36107
也然	-9.36206
氣之	-9.36358
虚無	-9.36382
五帝	-9.36424
后	-9.36489
日中	-9.36564
見其	-9.36582
杜	-9.36621
議	-9.36649
格	-9.36654
之物	-9.36712
二氣	-9.36847
爲陰	-9.36979
三尸	-9.37017
晩	-9.37022
監	-9.37076
以成	-9.3718
之初	-9.37339
女子	-9.37381
眞一	-9.37392
五味	-9.37433
芳	-9.37462
灸	-9.37465
唱	-9.37491
男女	-9.3763
臍	-9.3764
賔	-9.37894
咎	-9.37958
崑崙	-9.38029
朱雀	-9.38035
弘	-9.38039
之本	-9.38122
不過	-9.38172
煎	-9.38278
三百六十	-9.3829
戲	-9.38321
其心	-9.38475
在上	-9.3855
翁	-9.38611
汁	-9.38655
責	-9.38855
賞	-9.38887
富貴	-9.38985
食之	-9.39088
幻	-9.39251
烹	-9.39259
萌	-9.39282
茅	-9.39406
與天地	-9.39493
合於	-9.39544
東北	-9.39645
鑒	-9.39654
焚	-9.39672
舟	-9.39692
爽	-9.39753
尅	-9.39759
無極	-9.3976
十年	-9.39892
五星	-9.39921
玉清	-9.40063
殘	-9.40158
慕	-9.40177
善惡	-9.40182
大小	-9.40226
衡	-9.40233
之前	-9.40304
枕	-9.40583
天眞	-9.40638
妃	-9.40651
陷	-9.40719
戊己	-9.40762
餌	-9.40959
涉	-9.41049
恭	-9.41063
者則	-9.41105
庚申	-9.41234
消息	-9.4135
生氣	-9.41448
釜	-9.41462
稍	-9.41499
涼	-9.4155
以此	-9.41758
道君	-9.41923
浪	-9.41941
珍	-9.41951
三寸	-9.42258
右手	-9.42329
勸	-9.4235
者以	-9.4236
紙	-9.42383
天道	-9.42436
百里	-9.42453
雌	-9.42476
邑	-9.42524
地氣	-9.42542
輝	-9.42748
皆有	-9.42758
升降	-9.42794
水水	-9.4286
悅	-9.42903
亦無	-9.42904
頃	-9.42907
均	-9.42942
阿	-9.42961
六氣	-9.42965
死生	-9.43069
進退	-9.43111
人有	-9.4317
五氣	-9.4318
朔	-9.43412
愁	-9.43792
亦可	-9.43817
率	-9.43861
洲	-9.43862
瀉	-9.43885
生成	-9.44062
不欲	-9.44156
三十日	-9.44168
老子	-9.44183
活	-9.44269
廟	-9.4429
蔽	-9.44337
姑	-9.44339
病在	-9.44443
太隂	-9.44517
清淨	-9.44529
未嘗	-9.44596
着	-9.446
之術	-9.44626
一曰	-9.44773
二年	-9.44782
奚	-9.44787
太虚	-9.44789
六府	-9.44796
杖	-9.44813
工夫	-9.4495
三一	-9.45017
見之	-9.45129
可得	-9.45176
纔	-9.45185
剋	-9.4522
鐘	-9.45314
胎息	-9.45589
這	-9.45598
園	-9.45694
羣	-9.45723
伸	-9.4573
左手	-9.459
無常	-9.45952
宴	-9.46141
擣	-9.46164
盟	-9.46201
白氣	-9.4636
也今	-9.46399
▁(	-9.46432
華池	-9.46433
是非	-9.46438
三分	-9.4646
曰吾	-9.46462
夜半	-9.46507
胷	-9.46615
而去	-9.46617
相合	-9.46663
桓	-9.46673
題	-9.46725
醫	-9.46764
焦	-9.46928
之象	-9.46939
之神	-9.4694
元始	-9.46982
對化	-9.47001
叩齒	-9.47155
斬	-9.4719
輒	-9.47191
穿	-9.47214
崔	-9.47221
茂	-9.47244
前後	-9.47289
下見	-9.47339
認	-9.47567
鎮	-9.47592
惜	-9.476
瑞	-9.47639
激	-9.47669
一本	-9.47899
二十九	-9.47985
此之謂也	-9.48071
塗	-9.48158
十里曰	-9.48288
呵	-9.48514
蕭	-9.48548
者即	-9.48573
正氣	-9.48658
之門	-9.48793
九宫	-9.4885
東西	-9.48855
汗出	-9.49009
位也	-9.49039
何謂	-9.4909
絲	-9.49131
則神	-9.49165
下降	-9.49167
吾之	-9.49172
蔵	-9.4918
巾	-9.49197
效	-9.49211
之際	-9.49425
金木	-9.49443
巖	-9.49549
白日	-9.49558
域	-9.49624
耳目	-9.49633
途	-9.49638
則有	-9.49872
曹	-9.49893
萬神	-9.49929
化生	-9.49958
筆	-9.50034
浩	-9.50085
姹女	-9.50138
頗	-9.50226
不勝	-9.50435
之體	-9.50444
今日	-9.50476
煑	-9.50484
須臾	-9.50619
覽	-9.50629
彩	-9.50831
金運	-9.50834
那	-9.51048
必有	-9.51082
爛	-9.51089
繁	-9.51093
蘭	-9.51113
牢	-9.51114
烈	-9.51175
再拜	-9.51189
天下之	-9.51297
八月	-9.51324
中元	-9.51352
兩手	-9.51482
六月	-9.51484
五分	-9.51607
渴	-9.51614
歎	-9.51631
之府	-9.51641
蘇	-9.51645
未有	-9.51674
煥	-9.51688
恍惚	-9.51701
之說	-9.5183
淡	-9.52046
繞	-9.52085
然而	-9.5211
摇	-9.52127
掩	-9.5213
偃	-9.52196
椎	-9.522
剛柔	-9.52251
手足	-9.52498
主之	-9.526
囊	-9.52623
席	-9.52653
燭	-9.52676
終始	-9.52749
測	-9.5275
六合	-9.52866
也帝曰	-9.52952
之類	-9.53066
訪	-9.531
僕	-9.53198
葬	-9.53198
辨	-9.53209
其色	-9.53212
參同契	-9.53253
便是	-9.53259
甲午	-9.53272
正月	-9.53321
之主	-9.53605
桂	-9.53621
墨	-9.53664
又有	-9.53736
西南	-9.54015
醮	-9.54136
相應	-9.54165
小人	-9.5418
淪	-9.54192
逃	-9.54222
天關	-9.54236
飛仙	-9.54243
獻	-9.54257
肥	-9.54268
甲乙	-9.54318
男坎	-9.54368
舞	-9.54601
心審	-9.54634
壁	-9.54647
天上	-9.54673
可知	-9.54687
豈不	-9.54689
不成	-9.54745
診	-9.54748
禾火化八	-9.54764
龍甬用	-9.54766
刀早孝	-9.54767
牛斗奏	-9.54774
七星	-9.54817
得一	-9.54824
之性	-9.54979
洞房	-9.55016
則無	-9.55156
换	-9.55164
騎	-9.55192
古人	-9.55217
陷者中	-9.55245
墮	-9.55259
龜水貴	-9.55291
其脉	-9.55296
於天	-9.55493
風雨	-9.55541
芒	-9.55562
延年	-9.55617
矣故	-9.55626
刺之	-9.55633
少隂	-9.55651
蓬	-9.55685
冲	-9.55735
遁	-9.55758
丁井	-9.55855
千典	-9.559
而出	-9.56004
其人	-9.56085
倫	-9.56261
俠	-9.56268
職	-9.56276
多可	-9.56299
者不	-9.56312
疏	-9.56324
不行	-9.56592
東南	-9.56615
若不	-9.56662
神丹	-9.56864
正化	-9.57059
良兩	-9.57194
儉	-9.5724
快	-9.57311
喘	-9.57319
蟾	-9.5732
抽	-9.57321
辱	-9.57329
翻	-9.57331
大藥	-9.57343
欺	-9.57344
鬲	-9.57418
導引	-9.57437
子午	-9.5746
至人	-9.57482
一兩	-9.57613
可謂	-9.57677
也言	-9.57778
七十二	-9.57823
夫婦	-9.57839
續	-9.57883
嘔	-9.57884
戴	-9.5789
競	-9.57917
由是	-9.57924
寡	-9.57924
咳	-9.57951
藥物	-9.57971
回每	-9.58018
長安	-9.58038
爲相	-9.58336
神室	-9.58364
磨	-9.58367
謁	-9.58417
朋	-9.58436
者其	-9.58823
西北	-9.58866
燈	-9.5888
二分	-9.58897
琴	-9.58957
抵	-9.5899
疫	-9.59011
踈	-9.5902
泣	-9.59158
火運	-9.59216
司馬	-9.5923
百年	-9.59254
之始	-9.59355
謙	-9.59451
閉氣	-9.59494
趣	-9.59496
罷	-9.59575
詞	-9.59604
億	-9.59614
無有	-9.59619
离	-9.59689
兩傍	-9.59691
正一	-9.59804
之謂也	-9.59868
始於	-9.59934
之義	-9.59935
軀	-9.60017
綿綿	-9.60066
暫	-9.60103
判	-9.60122
四肢	-9.60124
耗	-9.60173
者亦	-9.60386
時人	-9.60399
論曰	-9.60406
太微	-9.6044
盛則	-9.60472
若有	-9.60494
巡	-9.60547
低	-9.60586
狐	-9.60604
岀	-9.60609
岸	-9.60619
吉凶	-9.60787
天門	-9.60808
十二月	-9.60844
閉目	-9.61017
輩	-9.61119
筭	-9.61146
鸞	-9.6121
庵	-9.61231
縮	-9.61261
一點	-9.61336
乙丑	-9.6136
不爲	-9.61549
矣夫	-9.61671
玄珠	-9.61699
卑	-9.6175
一一	-9.61758
操	-9.61766
大夫	-9.61934
者乃	-9.62163
常存	-9.62251
携	-9.62268
肅	-9.62309
植	-9.6232
第	-9.62381
勑	-9.62403
厄	-9.62422
男子	-9.62439
百八	-9.62467
周天	-9.62549
絳宫	-9.62582
爲人	-9.62608
鼎器	-9.62654
修鍊	-9.6275
甲寅	-9.62796
効	-9.62804
睡	-9.62821
暖	-9.62847
民病	-9.62956
諸侯	-9.63201
二千一百	-9.63234
之宫	-9.63254
金精	-9.63287
覓	-9.63329
不必	-9.63386
眠	-9.63419
視之	-9.63525
徳	-9.63546
肘	-9.63848
芽	-9.63931
飯	-9.63966
竊	-9.64071
玄元	-9.64071
濡	-9.64086
於外	-9.64218
在人	-9.64482
玉皇	-9.64527
案	-9.64538
演	-9.64583
檢	-9.64615
虞	-9.64641
謬	-9.64655
九月	-9.64694
陽也	-9.64961
能知	-9.64979
君曰	-9.65133
唾	-9.65137
詠	-9.65138
堯夫	-9.6517
俟	-9.65173
敷	-9.65205
冀	-9.65214
墓	-9.65247
二物	-9.65291
不失	-9.6532
者非	-9.6546
十五日	-9.65608
三光	-9.65665
普	-9.65687
費	-9.65711
者有	-9.65732
族	-9.65734
穆	-9.65861
表裏	-9.65905
上帝	-9.65913
眞君	-9.66039
金石	-9.66272
膏	-9.66316
甲申	-9.66323
麻	-9.66324
埃	-9.66351
劔	-9.66364
子孫	-9.66415
山中	-9.66477
之處	-9.66731
宫中	-9.66776
八景	-9.66809
八十一	-9.66871
詔	-9.66909
倚	-9.66925
隆	-9.66955
元年	-9.66984
打	-9.67406
亭	-9.67463
頸	-9.6751
紫微	-9.67515
規	-9.67552
例	-9.67556
勇	-9.67558
式	-9.67563
二者	-9.67567
修道	-9.67599
襄	-9.67605
上應	-9.67632
之炁	-9.6769
之源	-9.67807
不在	-9.68025
敵	-9.68105
缺	-9.68116
孔子	-9.68152
荆	-9.68174
握固	-9.68183
减	-9.68184
柱	-9.68233
唇	-9.68245
而死	-9.68467
拂	-9.68644
羲	-9.68684
遭	-9.68687
不明	-9.68701
革	-9.68713
凌	-9.68764
三遍	-9.68868
鼎中	-9.68936
賤	-9.68937
而行	-9.69054
腎氣	-9.69118
以養	-9.6926
而不知	-9.6928
炭	-9.69295
寇	-9.69302
漱	-9.69306
之形	-9.69326
脩	-9.6933
徙	-9.69345
何謂也	-9.69372
躡	-9.69378
肌肉	-9.69388
洞天	-9.69433
其間	-9.69646
動而	-9.69682
於心	-9.69708
易曰	-9.69781
曠	-9.69918
兌	-9.69931
水也	-9.69953
五神	-9.70094
甲戌	-9.70138
頌	-9.70202
之歲	-9.70231
不言	-9.70277
甚則	-9.7028
腹中	-9.70305
一物	-9.70338
於地	-9.70404
清靜	-9.7042
單	-9.70439
埋	-9.70441
米	-9.70448
翳	-9.7045
翔	-9.70458
倦	-9.70482
三清	-9.70482
電	-9.70487
脹	-9.70502
鈎	-9.7051
讓	-9.7055
也即	-9.70583
肯	-9.70614
水穀	-9.70829
紫陽	-9.70897
第八	-9.71015
朴	-9.71017
癸亥	-9.71034
遥	-9.71051
卜	-9.71071
神光	-9.71072
垢	-9.71095
握	-9.71122
麗	-9.71138
孕	-9.71163
生也	-9.71172
冒	-9.71176
本無	-9.71269
之大	-9.71369
日月之	-9.71411
庚子	-9.71507
熒惑	-9.71681
緯	-9.71714
靡	-9.71764
倍	-9.71792
太虛	-9.71793
其事	-9.71839
戊午	-9.71947
非是	-9.71997
之根	-9.72258
焕	-9.7227
不應	-9.72326
泛	-9.72337
堯	-9.72365
彈	-9.7242
苗	-9.72434
皇帝	-9.72479
之狀	-9.72558
陰也	-9.726
其性	-9.72702
太和	-9.72707
世之	-9.72744
金闕	-9.72749
眞鉛	-9.72752
至此	-9.72837
天機	-9.72894
髪	-9.72915
四海	-9.72942
後聖	-9.72962
掾	-9.73027
普朴品匹	-9.7303
旁排平瓶	-9.73032
同覃田	-9.73033
乃妳女	-9.73036
父凡吠	-9.7304
安亞乙一	-9.73045
走哉足	-9.73046
内南年	-9.73048
雲笈七籤卷之	-9.73049
老冷吕	-9.73049
自在匠	-9.73053
义赤	-9.73057
吾牙月堯	-9.73068
五瓦仰	-9.73072
黄華雄賢	-9.73073
古今	-9.73077
坼丑	-9.73084
寺象	-9.73099
崇辰	-9.73112
近揆	-9.73112
厥隂	-9.73208
於内	-9.73234
人皆	-9.73248
之候	-9.73252
丁卯	-9.73284
卓中	-9.73292
足太陽	-9.73299
養生	-9.73414
於身	-9.73427
神水	-9.73569
脇	-9.73588
寐	-9.7364
東丹帝	-9.73656
卜百丙必	-9.7366
夫法飛	-9.73674
鹿犖离	-9.73675
爻王寅	-9.73678
草采七	-9.73681
母馬美米	-9.73684
曹才全	-9.73687
取其	-9.73715
古甲九癸	-9.73726
莊震	-9.73736
足陽明	-9.7374
宅直	-9.73867
門户	-9.73867
水運	-9.73869
其名	-9.73945
萬象	-9.73945
在下	-9.74012
長存	-9.74025
山川	-9.74095
三官	-9.74144
揮	-9.74192
閣	-9.74246
鈆	-9.74248
弊	-9.74268
悔	-9.74271
戀	-9.74279
步白備鼻	-9.74291
罰	-9.74297
擇	-9.74313
思三星	-9.74317
是知	-9.74319
戊寅	-9.74411
戊申	-9.7445
曰此	-9.7448
山手	-9.74494
何處	-9.74528
不已	-9.74595
水之	-9.7466
始生	-9.74812
下元	-9.74816
在天	-9.74855
火也	-9.74862
濇	-9.74866
成丹	-9.74891
文万未	-9.74935
併	-9.74942
錫	-9.74942
目貌眉民	-9.74952
茶呈	-9.74979
黑花香血	-9.74984
乾虯	-9.74984
五行之	-9.75038
無事	-9.75042
以應	-9.75052
經辰之	-9.75057
此二	-9.75225
而得	-9.75296
金玉	-9.75432
座	-9.75443
鄰	-9.75518
飄	-9.75521
徴	-9.75561
而能	-9.75618
瘧	-9.75621
流注	-9.75663
東海	-9.75667
戊辰	-9.75783
火之	-9.7581
之地	-9.75879
華蓋	-9.75949
排	-9.76104
琅	-9.76125
此三	-9.76155
館	-9.76185
赤子	-9.76218
殆	-9.76247
上古	-9.76439
天子	-9.7645
下臨	-9.76465
木運	-9.7651
者何	-9.76606
一歲	-9.76631
給	-9.76816
迫	-9.76819
皓	-9.76831
吾身	-9.76853
旁	-9.76892
鴻	-9.76899
粗	-9.76908
上眞	-9.76915
百六	-9.76947
搏	-9.76953
篤	-9.76954
不如	-9.7696
或曰	-9.7698
丙寅	-9.77012
辛酉	-9.77074
功成	-9.77349
蓮	-9.77371
非有	-9.77373
提	-9.77474
材	-9.77521
厲	-9.77528
自己	-9.7753
擾	-9.77558
坤巧丘弃	-9.77567
疾病	-9.77567
血脉	-9.77649
妙用	-9.77817
各一	-9.77845
丁巳	-9.77847
獄	-9.77853
與天	-9.77938
廬	-9.77945
於中	-9.77946
九年	-9.77956
十餘	-9.77997
故以	-9.78012
玄武	-9.78019
身心	-9.78041
服食	-9.78054
神也	-9.78056
庚辰	-9.78097
饑	-9.78117
揺	-9.78136
捉	-9.78145
誓	-9.78153
括	-9.78158
煩惱	-9.78163
帛	-9.78171
瑶	-9.78179
舜	-9.78241
辛卯	-9.78354
心不	-9.78453
失其	-9.78609
故言	-9.78654
雲母	-9.78696
水出焉	-9.78728
中間	-9.78732
弄	-9.7875
頻	-9.78752
士石	-9.78813
窺	-9.78814
網	-9.78823
鑄	-9.78834
武晩尾	-9.7884
赫	-9.78845
良久	-9.78935
丙戌	-9.7895
乙酉	-9.78959
陽年	-9.7896
有道	-9.7897
壬辰	-9.78977
乙卯	-9.78987
之象也	-9.79047
筋骨	-9.79173
使者	-9.79192
上天	-9.79299
聞之	-9.79327
壬癸	-9.7941
忍	-9.79418
焰	-9.79445
麤	-9.79474
四十九	-9.79486
卵	-9.79509
有大	-9.79692
丁亥	-9.79712
皆是	-9.79718
入室	-9.79732
己未	-9.79747
口中	-9.79776
人心	-9.79815
自生	-9.79893
乙未	-9.79962
南北	-9.80001
三皇	-9.80017
五月	-9.80018
癸酉	-9.80032
寥	-9.8004
心中	-9.80112
沸	-9.80113
牽	-9.80115
慢	-9.80117
名山	-9.80122
希夷	-9.80137
朱砂	-9.80306
癸巳	-9.80363
神名	-9.80371
榮衛	-9.80389
金花	-9.80422
聖人之	-9.80502
修眞	-9.80525
通於	-9.80532
黄氣	-9.80592
甲辰	-9.80709
十方	-9.8071
四支	-9.80726
嶺	-9.80752
則傷	-9.80763
壬子	-9.80793
其精	-9.80811
之氣也	-9.80932
壺	-9.80932
寸口	-9.80939
陽生	-9.81151
三十九	-9.81168
人能	-9.8118
三者	-9.81221
不入	-9.81241
何如	-9.81256
莫能	-9.81264
丁未	-9.81299
變爲	-9.8137
雀	-9.81447
鈴	-9.81457
欣	-9.81467
不然	-9.81491
郷	-9.81515
太子	-9.81539
祐	-9.81554
八日	-9.81573
古之	-9.81625
丙午	-9.81699
十有二	-9.8173
元神	-9.81802
之化	-9.81804
雖有	-9.81851
人物	-9.82108
棗	-9.82124
墜	-9.8219
痿	-9.82239
係	-9.82253
湖	-9.82277
成數	-9.82484
相生	-9.82499
如前	-9.82551
我身	-9.82673
展	-9.82705
燒香	-9.82899
日夜	-9.8291
涯	-9.82956
循環	-9.82957
闢	-9.82969
言其	-9.82991
壬申	-9.83058
百病	-9.83093
相交	-9.83227
壬午	-9.83228
戒不得	-9.83409
也凡	-9.83444
纏	-9.83504
弓	-9.83559
牀	-9.8356
衍	-9.83597
蓬萊	-9.83603
而下	-9.83607
灼	-9.83629
輸	-9.83683
戊子	-9.83684
素問	-9.83722
喜怒	-9.83738
壬寅	-9.83741
人生	-9.83767
丁酉	-9.83773
勿令	-9.83798
己亥	-9.83805
中見	-9.83811
九日	-9.83813
二月	-9.83861
上行	-9.83986
太上老君	-9.84003
辛丑	-9.84016
不識	-9.8407
魏公	-9.84124
九竅	-9.84188
怠	-9.84233
脂	-9.84235
靈寶	-9.84251
叛	-9.84314
解曰	-9.84325
盧	-9.84337
乙亥	-9.84443
春秋	-9.84467
未能	-9.8447
己丑	-9.84495
因縁	-9.84653
眞仙	-9.84687
焉其	-9.84748
公子	-9.84762
修之	-9.84827
之令	-9.84867
後聖君	-9.84874
程	-9.84921
筮	-9.84929
鋒	-9.84961
鎖	-9.84986
三天	-9.84991
躍	-9.84995
神靈	-9.84995
靖	-9.85005
㑹	-9.85055
然則	-9.85146
三魂	-9.85149
腠理	-9.85164
庚午	-9.85178
辛巳	-9.85311
五穀	-9.85334
千萬	-9.85534
寒氣	-9.85564
碎	-9.85587
本來	-9.85597
丙辰	-9.85597
瘡	-9.85613
肌	-9.85625
奥	-9.85637
預	-9.85645
赴	-9.85655
侣	-9.85665
可見	-9.85671
恨	-9.85672
豆	-9.85693
腐	-9.85708
亦是	-9.85712
伊	-9.85714
顛倒	-9.8572
若能	-9.85732
巢	-9.8578
分别	-9.85782
戊戌	-9.85843
癸丑	-9.8586
己卯	-9.85889
隂年	-9.85938
不散	-9.85939
交合	-9.85996
庚寅	-9.86053
君臣	-9.86074
補之	-9.86127
百五	-9.86139
之變	-9.86162
凡人	-9.86258
者乎	-9.86286
罔	-9.86329
相去	-9.86357
逼	-9.86367
叅	-9.86384
橋	-9.86387
征	-9.86392
股	-9.86394
爍	-9.86399
匿	-9.86417
百九	-9.86422
竈	-9.8643
丙子	-9.86456
髙	-9.86467
屯	-9.86497
祠	-9.86538
丙申	-9.86563
三十五	-9.86575
三千六百	-9.86636
乙巳	-9.8667
天綱	-9.86706
虚則	-9.86711
存思	-9.86721
而復	-9.86733
旱	-9.86849
在于	-9.86882
而止	-9.86887
用事	-9.86952
千日	-9.8696
二人	-9.86961
相得	-9.86966
悶	-9.87005
之方	-9.87014
四季	-9.87074
涕	-9.87092
俯	-9.87105
三十一	-9.87115
介	-9.87246
系	-9.87317
癸未	-9.87334
陰符	-9.87376
或有	-9.87395
不以	-9.87421
玉液	-9.87533
二八	-9.87579
名也	-9.87604
有二	-9.87674
八百	-9.87729
妨	-9.87746
仙官	-9.87779
奕	-9.87807
㝠	-9.87823
也金	-9.87827
飾	-9.87835
眀	-9.87842
晚	-9.87849
按之	-9.87853
禦	-9.87891
裴	-9.87898
趨	-9.87903
丁丑	-9.88076
足少陽	-9.88151
或問	-9.88188
不息	-9.88211
萬事	-9.88226
頌曰	-9.8828
功德	-9.88303
之端	-9.88377
甫	-9.88567
無名	-9.88576
豫	-9.88586
險	-9.88589
刃	-9.88596
范	-9.88599
曰夫	-9.8862
夏至	-9.88635
姤	-9.8865
黃	-9.88663
亢	-9.88678
壬戌	-9.88745
運行	-9.88798
礙	-9.88817
己酉	-9.88821
己巳	-9.88954
生于	-9.89076
辛亥	-9.89114
言語	-9.89118
𩲸	-9.89271
經世之	-9.89326
百七	-9.89332
梵	-9.89344
勃	-9.89364
鱗	-9.89398
玄牝	-9.89437
日用	-9.89481
天帝	-9.89603
黑氣	-9.89631
爲道	-9.89749
未得	-9.89815
人所	-9.89898
也是以	-9.89939
歸於	-9.89964
團	-9.90001
禽	-9.90011
胸	-9.90041
四月	-9.9006
其中多	-9.90071
火氣	-9.90085
晦朔	-9.90119
智慧	-9.90175
第九	-9.90328
丹成	-9.90497
農	-9.90514
白金	-9.90571
空中	-9.90624
主人	-9.90625
晶	-9.9073
賦	-9.90771
訓	-9.90773
劎	-9.90777
挺	-9.9078
三十四	-9.90816
裳	-9.90823
變而	-9.90935
此皆	-9.91068
足以	-9.911
生焉	-9.91167
其本	-9.91176
動則	-9.91243
三十三	-9.91245
蜜	-9.913
物之	-9.91336
院	-9.91477
耕	-9.9149
擬	-9.91492
山在	-9.9152
五百	-9.91534
二日	-9.91543
癡	-9.91548
牧	-9.91588
準	-9.91606
乃得	-9.91665
不聞	-9.91667
鍼	-9.91701
或作	-9.91721
禹歩	-9.91945
道成	-9.91959
(/○○○	-9.91988
徃來	-9.92017
之首	-9.92022
狀如	-9.92042
之分	-9.92091
一體	-9.9216
鑿	-9.92198
内觀	-9.92206
雅	-9.92259
無心	-9.92262
不知其	-9.9228
刀圭	-9.9229
祈	-9.92291
峯	-9.92298
促	-9.923
腸胃	-9.92354
辛未	-9.9249
勝復	-9.92649
通神	-9.9268
金華	-9.92721
數也	-9.92946
遐	-9.92971
守一	-9.92972
在心	-9.92974
晴	-9.93006
刺可入同身寸之	-9.93015
稽	-9.93028
丙丁	-9.93102
闔	-9.9311
殷	-9.93123
已上	-9.93131
隅	-9.93134
曆	-9.93166
銜	-9.93172
辰星	-9.93174
咽液	-9.93178
癸卯	-9.93258
譬	-9.93288
七月	-9.93351
衛氣	-9.93485
能生	-9.93491
十里	-9.93495
有形	-9.9354
三關	-9.93693
勝則	-9.93788
氷	-9.93805
與道	-9.93814
若灸者可灸三壯	-9.93831
與人	-9.93862
見於	-9.939
眩	-9.93935
愆	-9.93936
其狀如	-9.93971
三宫	-9.93973
癰	-9.94063
生化	-9.9409
三氣	-9.94141
昇天	-9.94143
訣曰	-9.94215
虚空	-9.94323
安得	-9.94354
賢者	-9.9444
死者	-9.94462
贈	-9.945
成都	-9.94517
泯	-9.94525
障	-9.94543
百二	-9.94571
繩	-9.9458
同身寸之	-9.94585
徧	-9.94616
盖	-9.94645
宋朝	-9.94809
明月	-9.94893
少腹	-9.94934
有無	-9.94961
而至	-9.95298
的	-9.9535
此乃	-9.95371
仕	-9.95396
束	-9.95437
矜	-9.95439
浴	-9.95446
膺	-9.95485
庚戌	-9.9559
欲得	-9.95599
仁義	-9.95622
使之	-9.95645
十一月	-9.95788
以手	-9.95813
氣逆	-9.95837
相見	-9.9585
氣者	-9.95883
器中	-9.95909
而行之	-9.96074
伴	-9.96115
梅	-9.96124
後人	-9.96149
不覺	-9.96155
倉	-9.96189
不食	-9.96235
戎	-9.96249
成矣	-9.96251
禾	-9.96252
祟	-9.96277
人事	-9.96351
一分	-9.96427
數十	-9.96479
命門	-9.96593
百姓	-9.96599
夫子	-9.96608
終於	-9.9668
和合	-9.96854
嗟	-9.96905
銷	-9.96906
緊	-9.96907
滓	-9.96909
肆	-9.96947
叙	-9.97001
零	-9.97074
别有	-9.97127
集賢	-9.97137
其中有	-9.97179
不安	-9.97225
有五	-9.97239
天心	-9.97269
注云	-9.9737
何云	-9.97519
則不	-9.97602
王母	-9.97643
經絡	-9.97703
郞	-9.97718
蔡	-9.97748
有人	-9.97762
奢	-9.97806
終日	-9.97933
洞玄	-9.97992
度支	-9.98045
行人	-9.98217
之名	-9.98225
内丹	-9.98336
瓶	-9.98375
恬	-9.98413
歌曰	-9.98434
高下	-9.98448
枚	-9.98489
洒	-9.98491
木也	-9.98496
擒	-9.98517
矣此	-9.98538
脛	-9.98574
神通	-9.98584
張君房集	-9.98614
寬	-9.98618
竒	-9.98619
賜緋魚袋	-9.98619
銘	-9.98656
土運	-9.98668
勒	-9.98687
嗣	-9.98698
虚實	-9.98716
好道	-9.98724
以明	-9.98826
凝結	-9.98851
仙道	-9.98872
不信	-9.98906
心心	-9.9909
者蓋	-9.99159
進火	-9.99279
瞻	-9.99358
熙	-9.99371
神人	-9.99373
員外郎	-9.99424
土貪天	-9.99427
頑	-9.99437
割	-9.99443
白雲	-9.99454
復有	-9.99474
璧	-9.99492
人迎	-9.99629
百神	-9.99793
根本	-9.99806
五年	-9.99869
云何	-9.99926
客於	-9.99972
傷於	-10
混合	-10.0002
周流	-10.0003
金鼎	-10.0008
無所不	-10.0013
話	-10.0015
賈	-10.0015
蹻	-10.0016
栖	-10.002
掃	-10.002
探	-10.0021
誘	-10.0022
邈	-10.0025
黍	-10.0026
噫	-10.0028
盛衰	-10.0029
緒	-10.003
剥	-10.0032
東向	-10.0041
片	-10.0043
情性	-10.0045
也吾	-10.0065
不止	-10.0066
元精	-10.0073
所居	-10.0075
不肯	-10.0076
成形	-10.009
極則	-10.0092
掛	-10.0092
坦	-10.0095
馮	-10.0099
心爲	-10.0102
扇	-10.0102
流行	-10.0103
抽添	-10.0104
闇	-10.0105
從此	-10.0106
寓	-10.0108
飛行	-10.0118
日日	-10.0118
此書	-10.0122
和氣	-10.0122
太徵	-10.0128
八方	-10.0129
當以	-10.0136
以至	-10.0158
五寸	-10.0163
秋冬	-10.0164
其德	-10.0172
之機	-10.018
自在	-10.0184
範	-10.0186
窟	-10.0188
壅	-10.0189
晏	-10.019
下有	-10.0191
健	-10.0194
訟	-10.0196
皆以	-10.0197
觀其	-10.0205
非常	-10.0205
故不	-10.0211
骨髓	-10.0214
之徒	-10.0219
此言	-10.0221
二兩	-10.0225
河圖	-10.0226
亦如	-10.0233
四十五	-10.0234
十二時	-10.0242
爲水	-10.0244
云云	-10.0259
之意	-10.026
崖	-10.0265
殻	-10.0267
華陽	-10.0271
饒	-10.0272
襲	-10.0272
闊	-10.0273
之月	-10.0278
虛無	-10.0282
奈何岐伯曰	-10.0287
淮南	-10.0295
白雪	-10.0322
得仙	-10.0326
少商	-10.0331
曰我	-10.0338
求之	-10.034
六日	-10.0342
觀之	-10.0352
貨	-10.0354
齡	-10.0356
削	-10.0356
徘徊	-10.0356
同身寸之一寸	-10.0357
潭	-10.0364
眇	-10.0366
/○○○○)(/	-10.0373
其位	-10.0376
也非	-10.0387
東華	-10.0387
帝王	-10.039
出于	-10.0405
不須	-10.0405
精思	-10.0415
爲主	-10.0421
洛陽	-10.0425
千年	-10.0436
而不能	-10.044
秉	-10.044
鄕	-10.0443
八節	-10.0446
北極	-10.0456
齋戒	-10.0459
六十四	-10.0459
以致	-10.0495
赤色	-10.0504
而反	-10.0508
合而	-10.0516
穩	-10.0518
三十七	-10.052
整	-10.0522
滌	-10.0525
智者	-10.0527
享	-10.0529
摧	-10.0533
故知	-10.0534
捕	-10.0534
眞汞	-10.054
五藏之	-10.0542
七八	-10.0555
形神	-10.0562
何爲	-10.0564
何所	-10.0587
心者	-10.06
滎	-10.0611
有功	-10.0613
莖	-10.0615
瘦	-10.0616
亨	-10.0617
高上	-10.0618
巴	-10.062
麥	-10.0622
又東	-10.0626
爰	-10.0627
此經	-10.0627
其理	-10.0635
傳於	-10.0637
章第十	-10.0643
三四	-10.0643
太空	-10.0654
者所以	-10.0663
之極	-10.0665
萬法	-10.0666
亦然	-10.0667
平旦	-10.0668
聲色	-10.0691
譽	-10.0692
做	-10.0695
採藥	-10.0696
宇宙	-10.0697
諸天	-10.07
銳	-10.0701
氣不足	-10.0703
藉	-10.0705
元陽	-10.0706
至藥	-10.0707
其一	-10.0712
百一	-10.0734
金火	-10.0734
及其	-10.0738
口吐	-10.0739
二七	-10.0744
丈人	-10.0745
風化	-10.0762
始終	-10.0763
時有	-10.0769
堯夫非是愛吟詩堯夫非是愛吟詩詩是	-10.0779
其用	-10.0783
四十八	-10.0788
也此課	-10.079
敦	-10.0791
配合	-10.0791
賴	-10.0793
島	-10.0793
若夫	-10.0795
療	-10.0798
一二	-10.0806
眞人曰	-10.0806
祖師	-10.0807
生萬物	-10.081
其實	-10.084
之情	-10.0841
陽火	-10.0848
願聞	-10.0848
之㫖	-10.0856
病也	-10.0871
值	-10.0873
眄	-10.0874
轡	-10.0874
峰	-10.0875
氣盛	-10.0877
四兩	-10.0877
上升	-10.0878
拙	-10.0878
一千二百	-10.0879
徐徐	-10.0879
怡	-10.088
鄙	-10.0882
練	-10.0883
匡	-10.0887
拒	-10.0888
七魄	-10.0888
至眞	-10.0892
純陽子曰	-10.0903
之用也	-10.0906
千九百	-10.0908
甲乙經	-10.0938
温養	-10.094
麽	-10.0942
無方	-10.0947
朽	-10.0954
牝	-10.0966
廓	-10.0967
踵	-10.0968
稽首	-10.0969
故名	-10.0969
船	-10.097
谿	-10.0971
傅	-10.0972
者先	-10.0973
渠	-10.0976
踐	-10.0976
𩔖	-10.099
自是	-10.0996
尸解	-10.1002
思慮	-10.1004
百四	-10.1006
聖賢	-10.101
玉京	-10.1013
生數	-10.1019
在地	-10.1025
其功	-10.1027
金也	-10.1028
無以	-10.103
以道	-10.1033
編	-10.1053
窗	-10.1059
完	-10.1061
知此	-10.1062
狗	-10.1064
賓	-10.1064
郊	-10.1069
不受	-10.1074
杳冥	-10.1079
窒	-10.1082
臍下	-10.1102
不絶	-10.1108
也於是	-10.1116
者死	-10.1119
故有	-10.1125
雖然	-10.1132
髀	-10.1139
嘯	-10.1146
百脉	-10.1147
一十二	-10.1148
仲尼	-10.1148
猿	-10.1152
驕	-10.1152
所出	-10.1153
此爲	-10.1154
保命	-10.1155
兌大弟	-10.1156
䧟	-10.1158
則知	-10.1158
丗	-10.1168
乃可	-10.1169
,	-10.1173
通靈	-10.1176
手陽明	-10.118
運火	-10.1184
之言	-10.1187
庚辛	-10.1192
六十卦	-10.1192
可不	-10.1193
氣海	-10.1196
鼎内	-10.1197
由此	-10.1198
一陰	-10.1203
丹陽	-10.1208
天人	-10.1209
其二	-10.1212
則病	-10.1218
中出	-10.122
喫	-10.1222
或以	-10.1224
一千五百	-10.1234
之數也	-10.1235
三田	-10.1236
至精	-10.1238
上士	-10.1239
依前	-10.124
膚	-10.1241
纖	-10.1242
冝	-10.1242
其次	-10.1243
生而	-10.1249
軸	-10.125
蟠	-10.125
牒	-10.1251
者當	-10.1253
五藏六府	-10.1258
二十八宿	-10.1262
胷中	-10.1268
春夏	-10.1304
元炁	-10.1307
逾	-10.1333
軟	-10.1336
微妙	-10.1338
毋	-10.134
玩	-10.1346
吐納	-10.1349
祀	-10.1349
此卦	-10.1352
七祖	-10.1374
調和	-10.1377
此章	-10.1378
物外	-10.1389
字道	-10.139
天數	-10.1396
爲大	-10.1402
運用	-10.1407
正陽	-10.141
合德	-10.1413
日出	-10.1413
也故曰	-10.1416
因而	-10.1424
淮	-10.1425
蹤	-10.1426
之所以	-10.1427
歛	-10.1428
六十日	-10.1429
居之	-10.143
浸	-10.143
築	-10.1431
藴	-10.1433
則生	-10.1434
托	-10.1434
歳	-10.1439
武帝	-10.144
帝曰善	-10.1441
湘	-10.1443
玄妙	-10.1447
臓	-10.1447
固濟	-10.1453
受氣	-10.146
用也	-10.1466
小便	-10.1471
清風	-10.1475
火火	-10.1476
自此	-10.1488
亦得	-10.1489
道人	-10.1506
分爲	-10.1506
杳	-10.1509
四十四	-10.1513
神神	-10.152
大將軍	-10.1524
些	-10.1526
其時	-10.1529
討	-10.1532
麟	-10.1536
箕	-10.1545
伏火	-10.1545
以意	-10.1547
衆人	-10.1551
閉塞	-10.1558
方寸	-10.1562
太陽之	-10.1565
顔色	-10.1569
肝氣	-10.1571
發於	-10.1575
而入	-10.1582
足少陰	-10.1589
譬如	-10.1589
之官	-10.1594
若無	-10.1596
出焉	-10.1611
叩	-10.1612
中部	-10.1613
粟	-10.1618
灑	-10.162
嗔	-10.1622
恃	-10.1623
恣	-10.1624
漫	-10.1625
囚	-10.1626
有四	-10.1632
山林	-10.1638
熱病	-10.1652
眞火	-10.1655
而不可	-10.1673
三十八	-10.1675
少角	-10.1693
於道	-10.1695
誕	-10.1714
得此	-10.1716
餐	-10.1717
宛	-10.1719
匪	-10.172
魅	-10.172
韻	-10.1721
裂	-10.1722
社	-10.1723
不可得	-10.1724
内踝	-10.1727
百餘	-10.173
溲	-10.1734
下至	-10.1738
使我	-10.1744
其日	-10.1748
上仙	-10.1749
人知	-10.1753
三千五百	-10.1756
化氣	-10.1762
藏府	-10.1766
法象	-10.1767
流通	-10.1773
上陽子曰	-10.1774
玄眞	-10.1782
清濁	-10.1787
左足	-10.1791
月中	-10.1792
變易	-10.1795
湛	-10.1797
聖胎	-10.18
一本作	-10.1808
爵	-10.1811
唤	-10.1814
詐	-10.1814
䟽	-10.1819
疲	-10.182
行氣	-10.182
姦	-10.1822
胃氣	-10.1822
事皆	-10.1823
峨	-10.1823
命曰	-10.1827
稷	-10.1827
冢	-10.1836
紛	-10.1841
失守	-10.1857
受之	-10.1859
其化	-10.1861
形體	-10.1863
殺之	-10.187
守眞	-10.189
篇云	-10.1899
頭上	-10.1902
相通	-10.1904
邵	-10.1912
五金	-10.1912
缺盆	-10.1914
當時	-10.1916
刺可入同身寸之三分	-10.1917
青氣	-10.1918
頰	-10.192
天生	-10.1921
少氣	-10.1922
鎮星	-10.1922
瀆	-10.1923
呪曰	-10.1926
微祝曰	-10.1928
巫	-10.1929
無復	-10.1931
也黄帝曰	-10.1933
不至	-10.1934
腰痛	-10.1934
南極	-10.1938
復命	-10.1944
可使	-10.1955
何者	-10.1957
一千三百	-10.1961
子母	-10.1968
歸于	-10.1974
愼勿	-10.1981
凈	-10.1986
本命	-10.1987
授以	-10.1988
爪	-10.2004
氣交	-10.2007
尉	-10.2007
皎	-10.2008
問云何是道笑指	-10.2008
渡	-10.201
七返	-10.2014
藏於	-10.2016
溟	-10.2018
三兩	-10.2019
析	-10.2019
渺	-10.2023
紐	-10.2024
戾	-10.2026
故病	-10.2028
也蓋	-10.2029
混元	-10.2029
雌雄	-10.2032
下手	-10.2032
日行	-10.2033
姓名	-10.2036
相傳	-10.2039
一呼	-10.2048
者多	-10.2051
其法	-10.2062
熱則	-10.2068
去其	-10.207
應之	-10.2078
月之	-10.2078
愼之	-10.2081
國之	-10.2085
福地	-10.209
是一病	-10.2091
二千五百	-10.2096
矣其	-10.2099
氣爲	-10.2103
老子曰	-10.2103
三過	-10.2106
乃是	-10.2108
勝之	-10.211
俄	-10.211
四寸	-10.2112
一息	-10.2113
氣化	-10.2113
焉故	-10.2116
顛	-10.2118
准	-10.212
湧	-10.2124
筌	-10.2125
虛空	-10.213
是一藥	-10.213
瞑目	-10.2133
六爻	-10.2158
既濟	-10.2168
四大	-10.217
太初	-10.2172
太角	-10.2174
上見	-10.2175
王氏	-10.218
之德	-10.2181
其變	-10.2182
君火	-10.2192
不祥	-10.2196
無知	-10.2197
清氣	-10.2197
上弦	-10.2197
四十三	-10.2209
攪	-10.2216
中黄	-10.2216
一千八百	-10.2218
遵	-10.2218
逝	-10.2219
擲	-10.2222
一千四百	-10.2225
勾	-10.2227
裹	-10.223
百三	-10.2233
聦明	-10.2235
心神	-10.2236
而上	-10.2244
亦非	-10.2247
其上	-10.2248
督脉	-10.2252
思之	-10.2259
人面	-10.2267
存神	-10.2271
莫知	-10.2273
風從	-10.2273
也腎	-10.2282
養性	-10.2288
成功	-10.2291
以生	-10.23
不悟	-10.2301
豁	-10.2305
也且	-10.2321
默默	-10.2322
誡	-10.2324
耽	-10.2324
撓	-10.2325
嘆	-10.2326
擁	-10.2327
乏	-10.2328
不定	-10.2328
綿	-10.2328
寫之	-10.2328
弼	-10.2328
治病	-10.2329
忽然	-10.2329
學仙	-10.233
必先	-10.233
六分	-10.2333
内視	-10.2334
若是	-10.2334
遯	-10.2337
燔	-10.2337
元陽子曰	-10.234
此時	-10.2344
寅申	-10.235
周易	-10.2352
心痛	-10.2367
四十一	-10.2369
卒子	-10.237
存之	-10.2378
五十五	-10.2384
三陰	-10.2391
大如	-10.2391
身體	-10.2395
觀物	-10.2396
曰子	-10.24
九氣	-10.2402
百二十	-10.2409
二千四百	-10.2412
相似	-10.2415
自得	-10.2419
即得	-10.2421
菜	-10.2422
污	-10.2422
呈	-10.2423
下弦	-10.2425
存亡	-10.2426
漠	-10.2427
匠	-10.2428
冤	-10.2428
三千七百	-10.243
未始	-10.2431
棊	-10.2434
四者	-10.2439
靈樞經曰	-10.2441
黎	-10.2441
離宫	-10.2443
只是	-10.245
手太陰	-10.2459
一旦	-10.246
四時之	-10.2463
三千二百	-10.247
五運	-10.2479
陽中	-10.2485
終不	-10.2485
修丹	-10.249
陰生	-10.2492
方知	-10.2494
丑未	-10.2496
未知	-10.2499
以來	-10.2501
十有五	-10.2503
子時	-10.2504
北向	-10.2512
嗜	-10.2518
者謂之	-10.2521
裙	-10.2526
籠	-10.2527
守之	-10.2529
拳	-10.2529
捧	-10.253
盲	-10.2531
腋	-10.2531
函	-10.2531
凡此	-10.2532
攀	-10.2532
濯	-10.2532
三人	-10.2535
焚香	-10.2536
四十二	-10.2537
面目	-10.2538
雍	-10.2539
員	-10.2539
二千八百	-10.254
萬化	-10.2541
榆	-10.2544
𤣥	-10.2552
其志	-10.2552
五方	-10.2554
九九	-10.2556
二千七百	-10.2561
陽精	-10.2564
度世	-10.257
大指	-10.2571
其眞	-10.2575
金銀	-10.258
也所以	-10.2583
隱居	-10.2589
歲會	-10.2592
其情	-10.2598
於上	-10.2608
玄關	-10.2609
三尺	-10.2615
金金	-10.2624
硫黄	-10.2628
燦	-10.263
茶	-10.2631
蘂	-10.2631
揖	-10.2636
杯	-10.2636
哭	-10.2637
泊	-10.2638
汲	-10.264
買	-10.264
篆	-10.2641
太守	-10.2642
替	-10.2642
駐	-10.2643
軌	-10.2645
一千七百	-10.2647
旺	-10.265
有時	-10.265
膿	-10.2651
少陽相火	-10.2652
從來	-10.2652
眞誥	-10.2665
筭數	-10.2667
雄黄	-10.2674
文王	-10.2679
天有	-10.2681
上皇	-10.2682
他人	-10.2684
八兩	-10.2686
十有六	-10.2688
其餘	-10.2707
太帝	-10.2734
寵	-10.2737
養神	-10.2739
谷神	-10.2739
歸根	-10.2742
一千六百	-10.2743
跨	-10.2743
峻	-10.2743
相隨	-10.2745
凡事	-10.2747
三千四百	-10.2747
太尉	-10.2747
憶	-10.2747
揆	-10.2749
蒲	-10.2749
黨	-10.2749
凋	-10.275
互相	-10.2753
坎中	-10.2754
帔	-10.2756
勁	-10.2759
於世	-10.2764
發生	-10.2767
西王母	-10.277
生長	-10.2771
土也	-10.2773
故聖人	-10.2775
皮毛	-10.2775
三千三百	-10.2777
以求	-10.278
之時也	-10.2783
後世	-10.2786
地獄	-10.2793
者也故	-10.2793
長短	-10.2799
丈夫	-10.2801
不妄	-10.2804
北帝	-10.281
奉上	-10.2816
生者	-10.282
二千九百	-10.2821
不宜	-10.2825
之教	-10.283
故得	-10.2831
飮	-10.2838
四千二百	-10.2839
十分	-10.2842
頭痛	-10.2846
於肺	-10.2848
勿食	-10.2849
村	-10.285
者歟	-10.2851
則死	-10.2854
賣	-10.2856
飈	-10.2856
逮	-10.2859
衢	-10.286
形容	-10.2861
會稽	-10.2862
講	-10.2862
嵩	-10.2862
非人	-10.2863
撫	-10.2863
二千六百	-10.2863
而求	-10.2867
二千三百	-10.2869
湛然	-10.2871
直符	-10.2871
更無	-10.2877
九星	-10.2881
功曹	-10.2885
夫妻	-10.2907
右遷	-10.2909
逆順	-10.292
之義也	-10.2927
隂功	-10.2928
陰陽相	-10.293
上部	-10.2937
每日	-10.2941
聦	-10.2944
歇	-10.295
少羽	-10.295
昨	-10.2954
膕	-10.2956
時時	-10.2957
不與	-10.2963
枉	-10.2965
稀	-10.2965
三千八百	-10.2965
頥	-10.2966
暇	-10.2966
額	-10.2968
存想	-10.2968
局	-10.2969
遼	-10.297
諧	-10.297
造化之	-10.2971
欽	-10.2971
之色	-10.2976
常行	-10.2983
應乎	-10.2984
人情	-10.2988
物物	-10.2992
常在	-10.2999
眞精	-10.3001
金剛	-10.3003
四千一百	-10.3004
而長	-10.3005
三部	-10.3008
此即	-10.3014
無他	-10.3015
百歲	-10.302
二曰	-10.3025
第三十	-10.3026
成道	-10.3027
知道	-10.3027
五彩	-10.3029
成眞	-10.303
其意	-10.3031
今在	-10.3047
八石	-10.3048
陰精	-10.3051
也經云	-10.3053
下部	-10.3064
百事	-10.3069
四十六	-10.3069
叉	-10.3072
得長生	-10.3072
翫	-10.3073
嚥之	-10.3074
縛	-10.3077
奸	-10.308
玄冥	-10.3082
與我	-10.3083
溜	-10.3085
醜	-10.3092
皇太子	-10.3097
手少陽	-10.3111
書云	-10.3121
右足	-10.3122
三千九百	-10.3124
明矣	-10.3124
數百	-10.3132
一千一百	-10.3133
口舌	-10.3139
不遇	-10.3145
五六	-10.3152
生滅	-10.3174
阻	-10.3185
一卷	-10.3186
料	-10.3187
釣	-10.3188
心主	-10.319
沃	-10.319
匝	-10.3191
播	-10.3191
床	-10.3193
賁	-10.3195
昊	-10.3201
蕃	-10.3202
何如岐伯曰	-10.3205
喘息	-10.3205
山下	-10.3207
入水	-10.3211
此其	-10.3217
相連	-10.3219
綱紀	-10.3219
安能	-10.3223
皆得	-10.3231
未至	-10.3231
後天	-10.3232
無憂	-10.3237
之紀	-10.3238
赤龍	-10.3243
浮沉	-10.3246
砂汞	-10.3255
入山	-10.3258
人自	-10.326
何人	-10.3273
順行	-10.3275
五千	-10.3276
兆身	-10.3287
四面	-10.3288
對曰	-10.329
茯苓	-10.3292
踏	-10.3292
功滿	-10.3293
蟬	-10.3296
構	-10.3297
竿	-10.3299
諭	-10.3299
庸	-10.3299
洩	-10.33
填	-10.33
挾	-10.3302
壘	-10.3302
讚	-10.3302
而言之	-10.3302
迅	-10.3303
憎	-10.3303
靜室	-10.3303
喬	-10.3305
戈	-10.3307
當其	-10.3309
氣候	-10.331
皇極經世	-10.3314
出世	-10.3315
王君	-10.332
昴	-10.3325
形骸	-10.3328
長久	-10.3332
矣然	-10.3334
爲用	-10.3335
咽之	-10.3339
氣血	-10.334
爲本	-10.3348
結於	-10.335
歸去	-10.3354
地户	-10.3356
兄弟	-10.3357
紫雲	-10.3363
言曰	-10.337
歲星	-10.3387
採取	-10.3395
穀氣	-10.3397
斧	-10.34
二儀	-10.341
屑	-10.3411
名字	-10.3412
軿	-10.3413
三百里	-10.3414
勉	-10.3415
選	-10.3417
厨	-10.3418
囂	-10.3419
捐	-10.3419
奴	-10.3421
製	-10.3426
之液	-10.343
翕	-10.3436
歸一	-10.3441
火燒	-10.3446
青童	-10.3446
日精	-10.3448
穴也在	-10.3449
相須	-10.3452
以自	-10.3453
在左	-10.3458
文字	-10.3458
久久	-10.346
行道	-10.3464
當是	-10.3465
山上	-10.347
爲火	-10.347
共成	-10.3472
少宫	-10.3474
眞空	-10.3479
萬人	-10.3479
九眞	-10.3483
不是	-10.3485
玉童	-10.3489
傳授	-10.3491
結成	-10.35
故謂之	-10.3507
其體	-10.351
之祖	-10.3519
心存	-10.3522
也所謂	-10.3523
石室	-10.3529
)(/○○○	-10.353
鬢	-10.353
剖	-10.3531
蓄	-10.3532
綸	-10.3533
控	-10.3534
遏	-10.3534
肌膚	-10.3535
矯	-10.3535
層	-10.3536
扣	-10.3537
蛟	-10.3538
縱横	-10.3541
涸	-10.3545
疝	-10.3547
萬靈	-10.355
昇仙	-10.3551
又西	-10.3552
不起	-10.3555
丹元	-10.3556
其要	-10.3556
假令	-10.3562
玄黄	-10.3567
也岐伯曰	-10.3567
天皇	-10.3572
其義	-10.3572
亦猶	-10.3576
反覆	-10.3583
合于	-10.3586
或爲	-10.359
所言	-10.3593
萬劫	-10.3601
骸	-10.3615
光照	-10.3619
月華	-10.3623
叢	-10.3637
金公	-10.3637
漆	-10.364
其外	-10.3649
白玉	-10.365
老人	-10.3652
潰	-10.3653
旅	-10.3654
斂	-10.3657
姚	-10.3657
金砂	-10.3658
帀	-10.366
濤	-10.366
願聞其	-10.3662
一炁	-10.3663
突	-10.3663
不解	-10.3664
俯仰	-10.3664
胸中	-10.3667
隱書	-10.3673
清虚	-10.3679
之經	-10.3682
洞周迴	-10.3692
秋分	-10.3705
不修	-10.3718
四年	-10.3718
修身	-10.3722
異名	-10.3723
一片	-10.3727
論云	-10.3733
所勝	-10.3738
玄都	-10.3739
臟	-10.3743
奉天	-10.3743
歩綱	-10.3749
之會	-10.3752
寒温	-10.3755
艱	-10.376
矢	-10.3766
俾	-10.3767
胥	-10.3767
袁	-10.3769
繡	-10.377
禱	-10.377
濛	-10.3773
屈伸	-10.3775
濫	-10.3775
栢	-10.3776
腴	-10.3777
清虛	-10.3782
何物	-10.3783
黄婆	-10.3784
大洞	-10.3791
一粒	-10.3795
七年	-10.3799
之宗	-10.3805
其下多	-10.3825
玉帝	-10.3827
之患	-10.3831
之聲	-10.3835
六丁	-10.384
太羽	-10.3843
不休	-10.3847
功夫	-10.3849
圓明	-10.386
玉晨	-10.3873
氣有餘	-10.3874
之卦	-10.3879
入口	-10.3881
身熱	-10.3888
閭	-10.3889
交媾	-10.3889
森	-10.3891
胻	-10.3891
遞	-10.3891
忙	-10.3892
遽	-10.3893
吿	-10.3893
熾	-10.3897
雹	-10.3905
色青	-10.3907
口鼻	-10.3907
得失	-10.3911
只在	-10.3913
訖即	-10.3914
禍福	-10.3916
氣之所	-10.3917
神化	-10.392
制伏	-10.3928
黑鉛	-10.3929
者也夫	-10.393
穴也	-10.3932
小指	-10.3936
死矣	-10.3942
堅固	-10.3943
新校正云詳此	-10.3958
長春	-10.3963
不測	-10.3968
後來	-10.3972
化成	-10.3974
太宫	-10.398
靈根	-10.3989
方可	-10.3998
平氣	-10.4
以鼻	-10.4002
聾	-10.4004
漬	-10.4005
蓍	-10.401
嘘	-10.4012
旌	-10.4012
醒	-10.4015
手太陽	-10.4015
九六	-10.4019
忿	-10.4019
毎	-10.4021
帖	-10.4022
叩齒九通	-10.4022
至妙	-10.4025
良乆	-10.4025
軒轅	-10.4027
雲牙子曰	-10.4031
精微	-10.4031
并於	-10.4031
非眞	-10.4035
世上	-10.4036
南嶽	-10.4044
先須	-10.4048
役使	-10.4053
狼	-10.4055
皇后	-10.4063
絡脉	-10.4065
眞道	-10.4065
六年	-10.4081
卓	-10.4083
所求	-10.4085
長生不死	-10.4091
此謂	-10.41
靈光	-10.4102
安靜	-10.4105
柄	-10.4107
運氣	-10.4117
心肺	-10.4124
霸	-10.4126
謾	-10.4128
簫	-10.413
冶	-10.4131
圃	-10.4132
墟	-10.4133
留七呼若灸者可灸三壯	-10.4136
中國	-10.4136
漁	-10.4138
無色	-10.4139
無益	-10.4139
不和	-10.414
桐	-10.4141
箭	-10.4144
紫金	-10.4145
父子	-10.4145
玉斧	-10.4145
侮	-10.4146
蠶	-10.4147
金液還丹	-10.4148
采	-10.4153
太始	-10.4174
用心	-10.4177
實則	-10.4184
遠近	-10.4189
四分	-10.4191
豈有	-10.4192
紫房	-10.4195
誰能	-10.4206
文武	-10.4207
方諸	-10.4211
全眞	-10.4216
地紀	-10.4227
天柱	-10.4242
次第	-10.4242
形質	-10.4245
薰	-10.4246
治在	-10.4247
後學	-10.4248
屍	-10.4248
蛻	-10.425
上聖	-10.4254
憐	-10.4255
下丹田	-10.4255
董	-10.4256
飛龍	-10.4262
嫁	-10.4262
屏	-10.4263
躬	-10.4263
一般	-10.4264
撥	-10.4264
較	-10.4264
木火	-10.4265
伏羲	-10.4272
廣成子	-10.4273
嗜欲	-10.4288
七元	-10.4296
則不能	-10.4298
善則	-10.4299
者何也答曰	-10.4315
重陽	-10.4322
書曰	-10.4323
此所謂	-10.4336
其說	-10.4345
四十七	-10.4347
人民	-10.4354
腎爲	-10.4356
脾氣	-10.4358
楊君	-10.436
八風	-10.4363
所由	-10.4364
聰	-10.437
未見	-10.4371
寺	-10.4373
稱帝	-10.4379
師云	-10.438
其運	-10.4383
柯	-10.4383
相逢	-10.4386
驟	-10.4387
膈	-10.4389
娶	-10.4393
周而復始	-10.4394
戚	-10.4395
簿	-10.4395
垣	-10.4398
山澤	-10.4404
更相	-10.4406
左右手	-10.4407
道家	-10.441
韋	-10.4415
吏兵	-10.4415
漸漸	-10.4423
飲酒	-10.4426
配衣	-10.4427
焉夫	-10.4435
一周	-10.4442
豈能	-10.4442
心氣	-10.4451
閉息	-10.4462
街	-10.4462
三洞	-10.4463
有疾	-10.4464
之始也	-10.4466
骨肉	-10.4472
精華	-10.4477
婦人	-10.4478
受邪	-10.4481
名利	-10.4483
空洞	-10.4487
方平	-10.4489
下焦	-10.4493
朝元	-10.4495
欲知	-10.4498
不失其	-10.45
韜	-10.4503
滴	-10.4507
坑	-10.4507
盃	-10.4508
千一百	-10.4509
幼	-10.4509
叟	-10.451
腕	-10.4512
瓦	-10.4514
夾	-10.4514
澗	-10.4515
斜	-10.4516
溝	-10.4518
肇	-10.4519
鮑	-10.4519
絃	-10.4519
欻	-10.452
顏云	-10.4522
槁	-10.4524
狄	-10.4524
全元起	-10.4525
伺	-10.4527
蠻	-10.4527
豪	-10.453
丞相	-10.4533
後聖君告	-10.4535
之卦也	-10.4547
有獸焉其狀如	-10.455
月一日	-10.4552
五十二	-10.4563
亦名	-10.4566
交會	-10.4569
必得	-10.4571
雷公	-10.4576
是以聖人	-10.4579
運轉	-10.4585
第一百	-10.4596
清齋	-10.46
神農	-10.4602
金汞	-10.4603
誥	-10.4603
九重	-10.461
之策	-10.4612
盆	-10.4628
肺氣	-10.4629
若見	-10.4629
天之道	-10.4636
迸	-10.4643
日光	-10.4644
啼	-10.4645
隴	-10.4647
法師	-10.4649
五十一	-10.465
足太陰	-10.465
正坐	-10.4651
腧	-10.4651
澆	-10.4651
陣	-10.4653
曰汝	-10.4653
天仙	-10.4655
畢又	-10.4658
天宫	-10.4662
上品	-10.4675
之中有	-10.468
救人	-10.4682
何必	-10.4697
余聞	-10.4702
混成	-10.4703
金氣	-10.4709
茅山	-10.4709
山其上多	-10.4726
丹經	-10.4733
大吉	-10.4733
仙問	-10.4744
星辰	-10.4754
會於	-10.4757
入鼎	-10.4762
上焦	-10.4768
鑑	-10.477
祚	-10.477
妹	-10.4772
膠	-10.4776
涓	-10.4776
兀	-10.4776
頭戴	-10.4777
罡	-10.478
酬	-10.478
區	-10.4782
哲	-10.4786
賛	-10.4788
小大	-10.479
黄老	-10.4793
愧	-10.4797
養氣	-10.4798
抱一	-10.48
庵曰	-10.4804
其陽	-10.4811
立春	-10.4823
也復詢	-10.4828
三教	-10.4833
洞中	-10.4835
當作	-10.4839
若得	-10.4856
人之所	-10.4868
將欲	-10.4873
動脉	-10.4887
方圓	-10.4891
炙	-10.4894
跪	-10.4901
聊	-10.4903
陽爻	-10.4904
墻	-10.4905
或云	-10.4906
洞眞	-10.4906
也是故	-10.491
髣髴	-10.491
跳	-10.4911
嫌	-10.4912
罕	-10.4913
璇璣	-10.4914
至理	-10.4914
澹	-10.4915
菴	-10.4917
班	-10.4919
二穴在	-10.4921
急急如律令	-10.4922
遷正	-10.4922
也參同契曰	-10.4925
雲雨	-10.4926
俞在	-10.4927
六十四卦	-10.4929
廼	-10.4931
敢問	-10.4946
玄門	-10.4949
周旋	-10.4952
玉華	-10.4961
傳曰	-10.4963
賢人	-10.4971
純陰	-10.4975
神鬼	-10.4984
不知所	-10.4988
精精	-10.499
無異	-10.4992
其類	-10.4995
神炁	-10.5
不著	-10.5003
今古	-10.5005
九色	-10.5009
不免	-10.5017
尊師	-10.503
畔	-10.5034
襟	-10.5034
郄	-10.5034
掣	-10.5037
淚	-10.5037
帳	-10.504
匱	-10.5042
外踝	-10.5044
柏	-10.5048
梯	-10.5048
慘	-10.5051
鑪	-10.5053
熊	-10.5054
誦之	-10.5054
虹	-10.5056
詭	-10.5057
潤澤	-10.5057
三素	-10.5058
猪	-10.5058
少隂君火	-10.506
殺人	-10.5061
眚	-10.5062
同歸	-10.5063
朔旦	-10.5063
衝脉	-10.5067
大衆	-10.507
閉口	-10.5072
獨立	-10.5072
豈非	-10.5079
凝神	-10.5081
關節	-10.5091
一百二十	-10.5092
滋味	-10.5092
爪甲	-10.5097
太眞	-10.5103
太商	-10.5108
其狀	-10.5111
無情	-10.5112
紛紛	-10.5148
六寸	-10.515
如何是	-10.5157
運太過	-10.517
沐	-10.5174
運動	-10.5175
术	-10.5178
拈	-10.5178
誇	-10.5178
壤	-10.5185
薪	-10.5186
疊	-10.5187
謗	-10.5188
尾閭	-10.5188
天地之間	-10.5189
耦	-10.519
軫	-10.5193
杏	-10.5195
從容	-10.5197
半斤	-10.5203
裁	-10.5204
非道	-10.5206
方便	-10.5213
一升	-10.5215
欲求	-10.5216
貴人	-10.5237
世界	-10.5248
靈臺	-10.5248
定録	-10.5249
應時	-10.5249
楊書	-10.5256
將來	-10.5258
五十六	-10.5261
貴賤	-10.5277
手把	-10.5285
十六日	-10.5287
龍吟	-10.529
入道	-10.5296
傲	-10.5313
核	-10.5314
不可妄	-10.5316
糧	-10.5318
夙	-10.5318
塊	-10.5318
忤	-10.5319
喧	-10.5319
眥	-10.532
屢	-10.5322
段	-10.5322
剪	-10.5322
闡	-10.5323
本性	-10.5324
仇	-10.5324
腥	-10.5325
詰	-10.5326
嗜慾	-10.5326
忽有	-10.5327
虎嘯	-10.5327
純粹	-10.5328
棺	-10.5329
黄色	-10.5336
婁	-10.534
五符	-10.5342
也經曰	-10.5346
種種	-10.5347
知音	-10.5347
先天地	-10.5348
仙公	-10.5348
來復	-10.5357
宫室	-10.5369
太原	-10.5375
坐忘	-10.5375
舍於	-10.5376
凶惡	-10.5379
八十七	-10.5382
須知	-10.5384
少徵	-10.5385
九過	-10.5389
之至也	-10.5418
志人	-10.5418
色赤	-10.542
眞性	-10.5421
明珠	-10.5421
直指	-10.5422
嘿庵曰	-10.5422
其夕	-10.5432
奈	-10.5435
粹	-10.5455
署	-10.5458
斡	-10.5458
曝	-10.5458
搜	-10.5458
供	-10.546
篩	-10.546
愍	-10.5461
五十九	-10.5462
寰	-10.5462
墳	-10.5464
斛	-10.5464
丹法	-10.5465
拯	-10.5466
巍巍	-10.5466
几	-10.5469
綜	-10.547
留三呼	-10.547
飢渴	-10.547
烟	-10.5473
滲	-10.5475
昆	-10.5478
輪迴	-10.5478
金鎖流珠	-10.5479
須是	-10.5484
第四十	-10.5486
刀支	-10.5492
肅殺	-10.5492
成就	-10.5493
十餘年	-10.5495
金母	-10.5506
腎之氣	-10.5506
南流注于	-10.5509
乃止	-10.5518
求仙	-10.5521
不移	-10.5522
場	-10.5522
武火	-10.5526
不堪	-10.5527
却入	-10.5531
九州	-10.5533
五十四	-10.5539
而得之	-10.5543
色黄	-10.5544
志意	-10.5547
皆由	-10.5555
地仙	-10.5555
無量	-10.556
之基	-10.5579
九還	-10.5581
孰能	-10.5581
之位也	-10.5582
你	-10.5596
遶	-10.5598
樵	-10.56
優	-10.56
鄧	-10.5601
長生久視	-10.5603
脱	-10.5605
葱	-10.5607
任脉	-10.5607
截	-10.5608
薦	-10.5608
迭	-10.561
貢	-10.561
賀	-10.5612
羸	-10.5613
慄	-10.5618
褐	-10.5619
復卦	-10.5628
章第二十	-10.5628
木木	-10.5636
太乙	-10.5644
注於	-10.5651
其木多	-10.5652
腸中	-10.5652
利害	-10.5668
太元	-10.5675
必須	-10.5682
仙翁	-10.5685
無礙	-10.5687
任意	-10.5693
未盡	-10.5698
至誠	-10.57
不審	-10.5715
學道者	-10.5717
風吹	-10.5736
絹	-10.5738
頽	-10.5742
荷	-10.5745
瑕	-10.5747
漂	-10.5748
抛	-10.5748
手執	-10.5749
樸	-10.5749
邁	-10.5751
南山	-10.5751
涎	-10.5752
瘕	-10.5753
稻	-10.5754
僻	-10.5755
弩	-10.5757
價	-10.5757
睛	-10.5757
輦	-10.5757
莫測	-10.5759
周易參同契	-10.5759
癘	-10.5761
摶	-10.5762
潛	-10.5765
慎	-10.5766
脘	-10.5766
腎腎	-10.5768
胞胎	-10.5768
鳥獸	-10.5779
一爻	-10.5787
拔宅	-10.579
飛昇	-10.5797
正位	-10.5814
畢矣	-10.5818
無差	-10.5821
三百六十五	-10.5833
肺藏	-10.5837
一百八十	-10.5839
乘雲	-10.5845
衆眞	-10.5849
十八日	-10.585
青城	-10.5854
五十七	-10.5861
三將軍	-10.5866
此之謂	-10.5881
二字	-10.5882
揣	-10.5885
隋	-10.5887
腨	-10.5891
州刺史	-10.5892
無限	-10.5892
彊	-10.5893
鳩	-10.5894
懈	-10.5895
尻	-10.5895
懃	-10.5898
隙	-10.5898
煅	-10.5898
道之人	-10.59
㸃	-10.5901
鴻濛	-10.5903
踰	-10.5906
牡	-10.5907
涌	-10.5907
輻	-10.5907
扶桑	-10.5912
牝牡	-10.5913
夬	-10.5918
五十三	-10.5926
又存	-10.593
兩目	-10.5938
返照	-10.594
无極	-10.5943
兩儀	-10.595
腹滿	-10.5954
錬形	-10.5958
其陽多	-10.5962
天台	-10.5975
大壯	-10.5981
所說	-10.5993
分野	-10.6005
法度	-10.6007
來迎	-10.6015
而取之	-10.6016
一句	-10.6023
同類	-10.6027
根源	-10.6027
歸來	-10.6038
簾	-10.6038
猶未	-10.6039
亦如之	-10.6039
古文	-10.604
太山	-10.604
咽氣	-10.604
讎	-10.6044
寔	-10.6045
胎仙	-10.6045
叫	-10.6046
淸	-10.6048
運交時面向	-10.6048
琳	-10.6049
徽	-10.6049
蘆	-10.6049
態	-10.6053
熬	-10.6054
三萬六千	-10.6056
冉	-10.6057
如嬰兒	-10.6059
藍	-10.6062
諫	-10.6066
日月星辰	-10.6074
巳亥	-10.6091
長夏	-10.6099
右英	-10.6103
之本也	-10.6109
容易	-10.613
紫府	-10.6136
上陽子	-10.6142
自古	-10.615
又北	-10.6152
三花	-10.6155
脾胃	-10.6159
之類也	-10.6167
無涯	-10.6178
相對	-10.6179
而知之	-10.6183
瀛	-10.6188
妙道	-10.6188
袖	-10.6189
遮	-10.6189
誨	-10.619
劑	-10.619
婚姻	-10.6191
晃	-10.6192
巔	-10.6194
洋	-10.6195
嘿	-10.6195
叩齒三通	-10.6198
挽	-10.6199
昂	-10.62
恍	-10.62
副	-10.6201
以左手	-10.6201
泠	-10.6202
一丸	-10.6203
冥冥	-10.6205
蝕	-10.6207
在其中	-10.6208
蹈	-10.6209
戸	-10.6212
岐伯對曰	-10.6213
煙霞	-10.6215
躡地紀	-10.6216
龜蛇	-10.6217
岐	-10.622
服餌	-10.622
受病	-10.6228
端坐	-10.6239
氣街	-10.6241
不可得而	-10.625
仙家	-10.6266
無英	-10.6266
豈可	-10.6272
靈寳	-10.6277
成敗	-10.6289
五老	-10.6303
往往	-10.6322
交感	-10.6322
婆	-10.6335
金丹大要	-10.6335
鬚	-10.6342
輕重	-10.6343
伍	-10.6346
件	-10.6346
鬭	-10.6347
淹	-10.6349
跗	-10.635
梧	-10.6352
挹	-10.6353
咒	-10.6353
掘	-10.6354
橫	-10.6354
匹	-10.6354
板	-10.6357
屯蒙	-10.6358
仗	-10.636
何由	-10.6362
初九	-10.6364
苑	-10.6367
各有所	-10.6369
腹脹	-10.6381
眉間	-10.6382
根基	-10.6392
羽蟲	-10.6397
災害	-10.6397
其隂多	-10.6398
太極眞人	-10.6413
黄牙	-10.6416
定息	-10.6417
春分	-10.6422
玉池	-10.643
歲月	-10.6432
其音如	-10.6444
天地間	-10.6448
未詳	-10.645
文帝	-10.6451
詩云	-10.6471
足躡	-10.6486
又按	-10.6495
攣	-10.6499
煌	-10.6502
分肉	-10.6503
姜	-10.6507
猜	-10.6508
姬	-10.6509
匀	-10.6509
陋	-10.651
醴	-10.6513
夾脊	-10.6513
新校正云按全元起本	-10.6514
廷	-10.6514
戮	-10.6515
一陰一陽	-10.6516
薛	-10.6516
元和	-10.6516
簇	-10.6516
許長史	-10.6522
骨節	-10.6527
梨	-10.6528
子鍾離子曰	-10.6528
否泰	-10.653
霜雪	-10.6531
隂符	-10.6534
汴	-10.6537
天庭	-10.655
煉丹	-10.6555
豈知	-10.6591
訣云	-10.6596
九寸	-10.6598
要知	-10.662
三蟲	-10.6622
六十三	-10.6628
微微	-10.6629
壺中	-10.6632
九鼎	-10.6646
芥	-10.6659
姿	-10.666
轍	-10.6662
惺	-10.6662
偉	-10.6663
派	-10.6664
山河	-10.6667
雲笈七籖卷之	-10.6668
侍衛	-10.667
竇	-10.6671
轂	-10.6673
瞑	-10.6673
脆	-10.6674
呬	-10.6676
翰	-10.6676
亮	-10.6676
岑	-10.6677
誣	-10.6677
措	-10.6679
娥	-10.668
兑	-10.6681
佞	-10.6685
檀	-10.6685
六腑	-10.6691
聰明	-10.6695
相薄	-10.6696
陰陽之氣	-10.67
厥隂木	-10.6739
思存	-10.6751
消滅	-10.6756
陽明金	-10.6756
後五日	-10.6766
眼前	-10.6782
七寶	-10.6788
或問曰	-10.6795
莫知其	-10.6797
豹	-10.6799
宂	-10.6816
靈砂	-10.682
瓜	-10.6827
杵	-10.6827
糞	-10.6828
孩	-10.6828
瞳	-10.6828
兎	-10.6828
乾元	-10.6828
模	-10.683
斟	-10.683
赦	-10.6831
蟄	-10.6834
凍	-10.6836
旗	-10.6837
涂	-10.6838
陽極	-10.684
參差	-10.6846
倮蟲	-10.6854
樞機	-10.6859
赤帝	-10.6866
輕舉	-10.6897
百關	-10.69
冬夏	-10.6905
上中下	-10.692
腎脉	-10.6921
忽見	-10.6934
濕氣	-10.6965
北海	-10.6967
淘	-10.6972
𡖖	-10.6979
貯	-10.6984
氤氲	-10.6985
逕	-10.6986
催	-10.6986
穴在	-10.6989
這箇	-10.699
于丹田	-10.6992
閏	-10.6992
徤	-10.6993
直事	-10.6993
𫝊	-10.6993
鈞	-10.6994
邦	-10.6994
尼	-10.6995
臻	-10.6995
滄	-10.6998
鞭	-10.6998
供養	-10.6998
揲	-10.6998
膜	-10.7002
裕	-10.7003
暄	-10.7004
叱	-10.7006
陀	-10.7013
真鉛	-10.7018
忘形	-10.7027
靜坐	-10.7027
腎藏	-10.7028
中焦	-10.704
天津	-10.7044
殊不知	-10.7047
備矣	-10.7053
行於上	-10.7072
榮華	-10.7089
無草木	-10.7099
清閑	-10.7123
秋石	-10.7145
怎	-10.7147
隸	-10.7153
端的	-10.7155
貽	-10.7162
痏	-10.7163
紹	-10.7164
熏	-10.7166
皆屬於	-10.7166
渭	-10.7174
彦	-10.7175
衣服	-10.719
肺肺	-10.72
相剋	-10.7201
解脫	-10.7202
與道合	-10.7207
徃徃	-10.7211
肘後	-10.7213
標本	-10.7215
虎豹	-10.7218
法界	-10.7283
星宿	-10.7302
修煉	-10.7304
代立	-10.7313
醋	-10.7314
番	-10.7315
藝	-10.7317
平等	-10.7318
袋	-10.7319
臘	-10.7319
澡	-10.7322
扉	-10.7325
喝	-10.7326
謫	-10.7326
勘	-10.7326
鶯	-10.7327
煞	-10.7327
宏	-10.7328
倏	-10.733
禳	-10.7331
耎	-10.7332
摽	-10.7333
嫉	-10.7333
疇	-10.7334
璞	-10.7335
珪	-10.7335
册	-10.7336
耳聾	-10.7343
遘	-10.7344
正陽子曰	-10.7351
吕子曰	-10.7356
不肖	-10.7384
斗建	-10.7391
宗祖	-10.74
尋常	-10.7401
羽化	-10.7409
周迴	-10.7412
肝藏	-10.7413
高祖	-10.7414
所治	-10.742
督	-10.7439
誰知	-10.7445
七十四	-10.7446
飛走	-10.7446
三百日	-10.7461
在左手	-10.7462
當願一切	-10.7474
同契	-10.7476
二十四分	-10.7489
玉堂	-10.749
籬	-10.7492
油	-10.7493
輟	-10.7493
儔	-10.7496
鐺	-10.7499
惶	-10.75
遨	-10.7502
虔	-10.7502
大修行人	-10.7502
幹	-10.7504
一日一夜	-10.7504
禽獸	-10.7504
拱	-10.7505
芸	-10.7507
寂然不動	-10.7508
八素	-10.7509
麋	-10.7514
慕容	-10.7519
臍之下	-10.7523
月建	-10.7538
洛書	-10.7543
坐卧	-10.7549
三十年	-10.7553
四句	-10.7566
百刻	-10.7571
次存	-10.7577
台	-10.7577
一周天	-10.7592
千餘	-10.7597
十二辰	-10.7607
請問	-10.7634
百八十	-10.7635
筒	-10.7641
萬民	-10.7655
撞	-10.7668
抄	-10.767
綺	-10.7671
袍	-10.7672
籥	-10.7674
韶	-10.7674
鵠	-10.7674
籟	-10.7674
潮	-10.7675
百節	-10.7675
驪	-10.7675
世俗	-10.7676
誑	-10.7677
眷	-10.7677
鬥	-10.7678
十有八	-10.7679
橐籥	-10.7679
冕	-10.7683
讒	-10.7685
凛	-10.7686
樊	-10.7686
雄雌	-10.7686
微呪曰	-10.7687
栗	-10.7687
株	-10.7688
媒	-10.7689
乆乆	-10.7696
盗	-10.7697
考召	-10.7703
靈源	-10.7711
金丹之道	-10.7722
交接	-10.7722
毛蟲	-10.7733
八寸	-10.7747
玉樓	-10.775
七十六	-10.7769
粒	-10.7788
飛步	-10.7792
脉浮	-10.7813
斑	-10.784
庫	-10.7842
藹	-10.7842
謚	-10.7845
恰	-10.7845
訴	-10.7847
拍	-10.7848
翮	-10.7849
裘	-10.785
奮	-10.7852
悴	-10.7854
憫	-10.7855
懇	-10.7856
腠	-10.7857
繆	-10.7859
叚	-10.786
仆	-10.7861
嚏	-10.7864
昩	-10.7864
俊	-10.7866
嗌	-10.7874
浙	-10.7877
粮	-10.8026
捷	-10.8026
縈	-10.8029
瓢	-10.8031
掖	-10.8032
敕	-10.8036
頤	-10.8037
驂	-10.8043
圭	-10.8046
織	-10.805
氐	-10.8056
彘	-10.8066
顏	-10.8205
肢	-10.8205
礬	-10.8212
攸	-10.8213
別	-10.8216
拭	-10.8217
吁	-10.8219
黜	-10.822
劣	-10.8223
睹	-10.8226
膂	-10.8229
棠	-10.8229
狹	-10.823
喙	-10.8239
嵗	-10.8243
腑	-10.8387
疼	-10.8393
盞	-10.8397
耻	-10.8398
算	-10.8399
胤	-10.84
札	-10.8401
壑	-10.8402
裝	-10.8404
駭	-10.8405
詮	-10.8406
菊	-10.8407
緘	-10.8407
䕶	-10.8407
噴	-10.8408
邀	-10.8409
恥	-10.8409
妬	-10.8412
鵬	-10.8413
恚	-10.8415
仞	-10.8415
蕪	-10.8418
紂	-10.8419
怖	-10.842
怫	-10.842
澀	-10.8424
蠱	-10.8425
豕	-10.8431
丞	-10.8589
閻	-10.8589
擘	-10.8592
啄	-10.8592
蠢	-10.8597
圜	-10.86
髻	-10.8601
瞽	-10.8603
汎	-10.8603
瘥	-10.8605
靚	-10.8606
蚌	-10.8606
鄴	-10.8606
縷	-10.8607
崑	-10.8607
恠	-10.8607
彖	-10.861
牖	-10.8611
阜	-10.8611
雉	-10.8612
恢	-10.8612
萎	-10.8614
㜽	-10.863
碑	-10.8786
敲	-10.8786
㓜	-10.879
鉢	-10.8792
獵	-10.8794
怕	-10.8795
狸	-10.8796
偷	-10.8797
創	-10.8799
惱	-10.88
餅	-10.8801
睦	-10.8801
諦	-10.8802
醺	-10.8803
杼	-10.8806
嘻	-10.8807
敏	-10.8807
鴈	-10.8811
胠	-10.8816
岫	-10.899
伎	-10.899
臧	-10.899
嗽	-10.8994
蔚	-10.8994
炳	-10.8996
奄	-10.8997
粲	-10.8998
塘	-10.9
屠	-10.9001
陟	-10.9004
綴	-10.9004
寤	-10.9006
陛	-10.9007
罵	-10.9007
鼽	-10.9007
蹄	-10.9008
溉	-10.9011
惕	-10.9011
祛	-10.9011
衞	-10.9011
禺	-10.902
峕	-10.9022
甬	-10.9031
摘	-10.9195
瘟	-10.9196
噓	-10.9197
媚	-10.92
宵	-10.9201
哺	-10.9201
酌	-10.9203
霓	-10.9203
堆	-10.9206
婚	-10.9206
援	-10.9207
柴	-10.9207
欒	-10.9213
癉	-10.9214
輳	-10.9217
儲	-10.9221
評	-10.9223
叓	-10.9238
欬	-10.9395
酥	-10.9404
馭	-10.9408
簪	-10.9409
瘖	-10.9411
懽	-10.9413
旨	-10.9413
幡	-10.9413
𨽻	-10.9414
衂	-10.9416
脯	-10.9417
詎	-10.9417
憚	-10.9417
梟	-10.9418
嚼	-10.9418
決	-10.942
頷	-10.942
潘	-10.9423
膻	-10.9427
杓	-10.943
噦	-10.9436
募	-10.9608
褒	-10.9611
罇	-10.9616
妍	-10.9617
什	-10.9618
笙	-10.9618
壓	-10.9619
恁	-10.9621
剡	-10.9623
疆	-10.9623
茫	-10.9626
該	-10.9627
癲	-10.9627
拆	-10.9627
曷	-10.9628
掉	-10.9629
雕	-10.9629
嬌	-10.9629
潄	-10.963
亟	-10.963
黒	-10.963
秩	-10.9631
醇	-10.9631
貶	-10.9632
泝	-10.9633
䰟	-10.9633
觜	-10.9635
莽	-10.9635
攺	-10.9637
贊	-10.9637
濱	-10.9641
苞	-10.9821
濃	-10.9825
勳	-10.9831
蠲	-10.9833
芬	-10.9837
眸	-10.9838
抗	-10.9841
冑	-10.9841
罏	-10.9842
憲	-10.9842
斃	-10.9843
悖	-10.9843
儻	-10.9843
綬	-10.9843
炅	-10.9845
槐	-10.9845
鍵	-10.9846
衷	-10.9847
稼	-10.9847
宦	-10.9848
疵	-10.9849
𨼆	-10.9854
冽	-10.9854
。	-10.9858
漑	-10.9863
莢	-10.9866
欄	-11.0048
懶	-11.0053
櫛	-11.0054
躭	-11.0055
饌	-11.0056
瑛	-11.0057
警	-11.006
痾	-11.006
邇	-11.0061
縫	-11.0061
肋	-11.0062
痺	-11.0062
沌	-11.0067
髎	-11.0067
諷	-11.0068
譚	-11.0069
殞	-11.0069
狩	-11.0069
版	-11.0069
滔	-11.007
懿	-11.007
嵋	-11.007
讃	-11.0071
纂	-11.0075
咀	-11.0079
蒂	-11.0267
邾	-11.0281
騁	-11.0284
翊	-11.0285
斫	-11.0285
㐫	-11.0288
祇	-11.0289
惰	-11.0293
悸	-11.0293
嚮	-11.0293
矩	-11.0295
葩	-11.0296
翛	-11.0296
翟	-11.0297
酣	-11.0298
説	-11.0299
蔓	-11.0299
橘	-11.0299
鑠	-11.0301
訛	-11.0301
陂	-11.0302
閔	-11.0302
斥	-11.0303
偕	-11.0304
梓	-11.0309
繇	-11.031
瘞	-11.0312
甞	-11.0316
髏	-11.0507
耐	-11.0511
梢	-11.0514
迥	-11.0516
辦	-11.0516
琢	-11.0518
竦	-11.0518
蔣	-11.0519
玲	-11.052
凑	-11.0522
芙	-11.0523
臯	-11.0524
纓	-11.0524
慙	-11.0525
羞	-11.0525
杞	-11.0531
距	-11.0531
迨	-11.0531
梗	-11.0531
鋪	-11.0532
燼	-11.0532
孺	-11.054
璨	-11.0741
秤	-11.0746
朕	-11.075
蝶	-11.0751
悮	-11.0753
拾	-11.0753
鎔	-11.0757
𩱿	-11.0758
祅	-11.0759
羡	-11.0762
璫	-11.0767
虐	-11.0768
静	-11.0778
槩	-11.0987
摸	-11.0993
慰	-11.0994
瀟	-11.0994
稟	-11.0996
媾	-11.0999
䧺	-11.0999
撮	-11.0999
霹	-11.1002
净	-11.1002
蜂	-11.1002
耆	-11.1005
孚	-11.1006
蹇	-11.1007
刊	-11.1007
遜	-11.1008
捫	-11.1009
稚	-11.1009
貝	-11.1009
頴	-11.101
徇	-11.1011
蠡	-11.1011
桀	-11.1013
臆	-11.1013
慨	-11.1014
霖	-11.1018
峙	-11.1019
葵	-11.1025
顆	-11.1194
踝	-11.1224
憩	-11.1244
笛	-11.1245
孽	-11.1248
泓	-11.1251
戟	-11.1252
擔	-11.1254
掇	-11.1255
懲	-11.1255
盪	-11.1255
汨	-11.1256
惚	-11.1256
偈	-11.1257
儛	-11.1259
勵	-11.1259
肓	-11.126
閱	-11.1262
詢	-11.1263
盼	-11.1264
魒	-11.1265
倣	-11.1265
蹙	-11.1266
毗	-11.1266
驢	-11.1269
搗	-11.1269
岡	-11.127
朙	-11.1272
郁	-11.1273
釐	-11.1274
鉤	-11.1288
轅	-11.1489
筠	-11.1494
聘	-11.15
朵	-11.1502
儘	-11.1503
獅	-11.1504
荀	-11.1505
沛	-11.1507
礜	-11.1507
鱉	-11.1507
卉	-11.1507
侈	-11.1508
霑	-11.1509
擺	-11.1511
藜	-11.1513
俛	-11.1515
劇	-11.1518
洽	-11.1519
燧	-11.1519
恕	-11.152
兇	-11.1521
蔭	-11.1521
癖	-11.1522
兕	-11.1525
顒	-11.1526
藻	-11.153
瞿	-11.1533
涇	-11.1536
从	-11.1539
央	-11.1674
汧	-11.175
棒	-11.1757
薑	-11.1762
恊	-11.1764
甑	-11.1766
霽	-11.1767
菽	-11.1767
鍜	-11.1767
挈	-11.1768
羈	-11.1768
糠	-11.1769
沮	-11.177
蟻	-11.177
噬	-11.1772
眎	-11.1773
幃	-11.1774
擅	-11.1775
嬉	-11.1775
汾	-11.1778
熒	-11.178
犢	-11.178
啖	-11.1781
盻	-11.1781
豺	-11.1783
僚	-11.1783
顙	-11.1783
躋	-11.1787
凄	-11.1788
晷	-11.1789
忒	-11.179
怯	-11.1791
奎	-11.1803
蠹	-11.2024
塑	-11.2024
踞	-11.2028
臑	-11.2033
吼	-11.2035
椒	-11.2036
庾	-11.2038
嫩	-11.2039
蒜	-11.2039
婢	-11.204
隳	-11.204
翹	-11.204
跟	-11.2041
𢘆	-11.2042
沫	-11.2043
績	-11.2046
磬	-11.2048
綵	-11.2049
宮	-11.2049
袂	-11.2051
葢	-11.2052
騫	-11.2052
犧	-11.2052
杭	-11.2053
鵲	-11.2053
裔	-11.2054
扃	-11.2054
癃	-11.2056
艾	-11.2057
恱	-11.206
兖	-11.2061
夀	-11.2061
狎	-11.2062
畧	-11.2063
熨	-11.2064
淖	-11.2069
赭	-11.2085
麵	-11.2297
鍋	-11.2299
槌	-11.2308
豚	-11.2312
蘿	-11.2314
捲	-11.2315
協	-11.2317
澁	-11.2317
漚	-11.2318
蒿	-11.2318
虬	-11.2319
弈	-11.2319
敖	-11.2321
鋤	-11.2322
鑚	-11.2322
堤	-11.2322
忻	-11.2322
籌	-11.2323
瞀	-11.2323
塡	-11.2325
黙	-11.2326
蹊	-11.2326
藩	-11.2327
栽	-11.2328
弛	-11.2328
悼	-11.233
狡	-11.2331
廪	-11.2332
薤	-11.2334
渚	-11.2338
酆	-11.2338
彤	-11.2339
級	-11.234
轄	-11.234
盂	-11.235
摹	-11.2593
甜	-11.2597
挫	-11.2599
㖟	-11.26
橐	-11.2601
瀝	-11.2603
餓	-11.2603
憤	-11.2604
暝	-11.2605
樣	-11.2605
彷	-11.2606
饗	-11.2608
隻	-11.2608
黅	-11.261
儼	-11.261
笈	-11.261
陌	-11.2611
藤	-11.2612
巿	-11.2612
拓	-11.2612
兢	-11.2613
鷹	-11.2614
溶	-11.2614
墉	-11.2618
猴	-11.2618
謐	-11.2619
弃	-11.2621
疽	-11.2623
顚	-11.2623
瞋	-11.2624
顴	-11.2624
幘	-11.2624
傑	-11.2625
駿	-11.2625
犀	-11.2629
竺	-11.2635
虖	-11.2652
趁	-11.2882
飡	-11.2883
靄	-11.2889
暈	-11.2893
巷	-11.2894
惹	-11.2894
悌	-11.2894
洎	-11.2894
浦	-11.2897
邃	-11.2898
沾	-11.2899
羌	-11.2899
鉞	-11.2902
葷	-11.2902
緣	-11.2904
粥	-11.2904
璃	-11.2906
羿	-11.2907
龐	-11.2907
翅	-11.2908
鞅	-11.2908
鵝	-11.2909
瘛	-11.2911
黔	-11.2911
劈	-11.2913
齎	-11.2913
穰	-11.2914
腭	-11.2914
舐	-11.2915
迦	-11.2915
窈	-11.2918
甕	-11.2936
肖	-11.3155
耿	-11.3185
擎	-11.3189
販	-11.3191
硝	-11.3192
秪	-11.3194
鞋	-11.3195
皺	-11.3195
珮	-11.3196
幕	-11.3196
椿	-11.3196
閬	-11.3197
線	-11.3197
蔕	-11.3197
亞	-11.3198
誌	-11.3199
譜	-11.3202
茹	-11.3202
儵	-11.3203
閃	-11.3203
郢	-11.3205
倮	-11.3207
厠	-11.3207
榻	-11.3207
匣	-11.3207
蛤	-11.3207
淩	-11.3207
殁	-11.321
韞	-11.321
峭	-11.3212
蠕	-11.3212
繒	-11.3213
鈍	-11.3214
扈	-11.3214
稠	-11.3214
臊	-11.3215
潁	-11.3216
檄	-11.3223
慚	-11.3228
隧	-11.323
苛	-11.3232
衫	-11.3233
箝	-11.3263
艷	-11.35
巍	-11.3507
嗇	-11.3509
聯	-11.351
硬	-11.3511
馨	-11.3512
罩	-11.3512
櫃	-11.3515
拊	-11.3516
棘	-11.3516
婬	-11.3517
咦	-11.3519
菌	-11.352
壟	-11.352
汩	-11.352
旄	-11.352
撲	-11.3521
歧	-11.3522
攘	-11.3523
訝	-11.3523
債	-11.3523
悍	-11.3525
蛾	-11.3526
煆	-11.3527
貳	-11.3528
毅	-11.3529
趾	-11.353
瘍	-11.3531
虫	-11.3531
驛	-11.3534
彫	-11.3534
䘮	-11.3536
睿	-11.3548
鬧	-11.3821
殗	-11.3822
䏶	-11.3827
逞	-11.3831
囑	-11.3832
鯉	-11.3832
颺	-11.3832
竄	-11.3833
臀	-11.3834
繕	-11.3834
鯨	-11.3835
闌	-11.3836
涵	-11.3836
捏	-11.3836
羹	-11.3837
粕	-11.3838
敎	-11.384
贍	-11.384
蹉	-11.3841
瑯	-11.3842
諒	-11.3844
綉	-11.3844
隍	-11.3844
譏	-11.3845
揭	-11.3845
飧	-11.3846
庖	-11.3847
燠	-11.3848
鼈	-11.3854
鴟	-11.3857
甯	-11.3861
邠	-11.3863
膩	-11.4152
萊	-11.416
碍	-11.4161
辜	-11.4165
衒	-11.4166
蕤	-11.4168
聳	-11.417
稔	-11.4171
奧	-11.4172
癢	-11.4173
鑊	-11.4174
璽	-11.4176
徼	-11.4176
鐶	-11.4177
炷	-11.4178
琰	-11.4178
紗	-11.4178
巓	-11.4178
胚	-11.4179
筵	-11.4179
硃	-11.4179
軻	-11.418
拽	-11.418
髯	-11.418
嚳	-11.418
衮	-11.418
牌	-11.4181
閼	-11.4181
酷	-11.4183
晡	-11.4185
寛	-11.4185
龔	-11.4188
湊	-11.4189
強	-11.4191
弑	-11.4193
飴	-11.4194
挼	-11.4476
凭	-11.4503
汙	-11.4507
瞞	-11.4508
徊	-11.4508
漉	-11.451
驀	-11.451
款	-11.4511
淋	-11.4511
週	-11.4511
穎	-11.4512
諾	-11.4513
駡	-11.4513
懺	-11.4515
嵐	-11.4516
鷺	-11.4516
痕	-11.4516
絞	-11.4516
皂	-11.4517
螢	-11.4517
挂	-11.4517
棟	-11.4519
笠	-11.4519
岱	-11.4519
亹	-11.4521
楗	-11.4522
燋	-11.4522
窘	-11.4523
炫	-11.4523
綽	-11.4523
菟	-11.4525
砭	-11.4526
聃	-11.4527
刳	-11.4527
嬪	-11.4527
:	-11.4527
瀾	-11.4531
溽	-11.4531
擢	-11.4532
渤	-11.4532
薩	-11.4533
雎	-11.4533
閩	-11.4537
韭	-11.4541
騷	-11.4546
漳	-11.4548
礪	-11.4554
碗	-11.485
陪	-11.4858
弋	-11.486
驥	-11.4865
娘	-11.4866
帷	-11.4866
嗅	-11.4867
鏁	-11.4868
霏	-11.4868
賒	-11.4869
衾	-11.4871
瑟	-11.4872
換	-11.4872
拖	-11.4872
檻	-11.4875
仿	-11.4875
拄	-11.4876
壼	-11.4876
諮	-11.4877
睫	-11.4878
氛	-11.4878
黯	-11.4879
臼	-11.4879
蔬	-11.4879
紊	-11.488
駟	-11.4881
塚	-11.4882
內	-11.4883
閡	-11.4883
幢	-11.4883
糜	-11.4884
拉	-11.4884
汪	-11.4887
佑	-11.4887
萃	-11.4887
榖	-11.4888
架	-11.489
隕	-11.4893
僅	-11.4895
勗	-11.4898
縉	-11.4915
䐃	-11.4916
堊	-11.492
碌	-11.5229
鑽	-11.5231
拌	-11.5231
磁	-11.5236
浄	-11.5237
朦	-11.5237
恡	-11.5237
馥	-11.5237
覔	-11.5238
髭	-11.5239
衹	-11.524
轟	-11.5242
慵	-11.5242
愉	-11.5244
涬	-11.5244
剌	-11.5245
戍	-11.5246
蠅	-11.5247
廊	-11.5247
憊	-11.5249
噉	-11.525
譴	-11.525
麾	-11.5251
㕘	-11.5252
蹔	-11.5252
榦	-11.5252
虜	-11.5253
鏗	-11.5254
絮	-11.5255
焫	-11.5255
吝	-11.5256
娱	-11.5256
膊	-11.5258
緻	-11.5263
諂	-11.5263
疹	-11.5265
佚	-11.5266
隗	-11.5266
楮	-11.5268
䐜	-11.5269
蚓	-11.527
譫	-11.527
鳧	-11.5271
璇	-11.5275
杻	-11.5289
捭	-11.5293
梳	-11.5609
滕	-11.5616
償	-11.5616
硇	-11.5617
肚	-11.5618
蓼	-11.5618
搬	-11.5619
鄂	-11.5623
綻	-11.5624
恤	-11.5626
潑	-11.5627
緼	-11.5628
敘	-11.5628
它	-11.5629
叶	-11.5629
杪	-11.5631
彿	-11.5631
苔	-11.5632
訥	-11.5633
攅	-11.5634
蝗	-11.5634
蹶	-11.5634
懦	-11.5634
覲	-11.5635
淑	-11.5636
阮	-11.5637
諠	-11.5638
疋	-11.5638
輙	-11.564
逹	-11.5643
鶉	-11.5643
殖	-11.5644
雁	-11.5646
僑	-11.5649
虢	-11.5653
涿	-11.5655
邢	-11.5656
褚	-11.566
萇	-11.6012
唏	-11.6013
崗	-11.6013
剔	-11.6019
葺	-11.6023
悠	-11.6024
曳	-11.6024
謨	-11.6024
脣	-11.6026
咨	-11.6027
鸇	-11.6027
踴	-11.6027
榛	-11.6027
縳	-11.603
觴	-11.6031
邯	-11.6031
悚	-11.6031
宸	-11.6032
丕	-11.6033
賾	-11.6034
彙	-11.6035
沓	-11.6035
嶷	-11.6037
箋	-11.6037
悗	-11.6039
翦	-11.6039
璣	-11.604
趍	-11.604
搓	-11.6041
巇	-11.6041
脈	-11.6041
悦	-11.6042
𧖟	-11.6042
䆫	-11.6042
棋	-11.6043
痔	-11.6044
胂	-11.6044
佇	-11.6046
牲	-11.6049
鋭	-11.605
吠	-11.6051
頡	-11.6052
樗	-11.6064
槃	-11.6397
痼	-11.6411
掀	-11.6422
瞬	-11.6426
柰	-11.6432
瘉	-11.6437
翥	-11.6438
粧	-11.6439
坊	-11.6439
謡	-11.644
縹	-11.644
巅	-11.644
澼	-11.6442
廕	-11.6444
揀	-11.6444
殫	-11.6444
蓑	-11.6444
彝	-11.6445
肱	-11.6446
髦	-11.6447
衿	-11.6447
衲	-11.6449
譎	-11.6449
呻	-11.645
煖	-11.6451
甄	-11.6451
煒	-11.6452
夔	-11.6452
笻	-11.6452
餉	-11.6453
溥	-11.6455
荼	-11.6455
紋	-11.6456
岷	-11.6457
詈	-11.6458
弭	-11.6458
烝	-11.6461
贅	-11.6462
廵	-11.6465
企	-11.6465
燿	-11.6465
雰	-11.6465
孛	-11.6467
媧	-11.6468
濮	-11.6469
鉅	-11.6472
𠕋	-11.6473
専	-11.6475
歐	-11.6477
䝿	-11.6478
夸	-11.6492
蝎	-11.6855
曄	-11.6859
淅	-11.6865
挑	-11.6869
垓	-11.6875
晟	-11.6875
啞	-11.6876
帙	-11.6878
痎	-11.6878
攢	-11.6879
暘	-11.6882
猫	-11.6882
浹	-11.6883
檐	-11.6884
畒	-11.6884
巒	-11.6884
芻	-11.6885
隊	-11.6885
轆	-11.6885
閒	-11.6886
瘁	-11.6886
釘	-11.6886
煮	-11.6886
㣲	-11.6887
嶮	-11.6887
僣	-11.6888
舛	-11.6889
扁	-11.6889
兜	-11.6889
查	-11.689
陜	-11.689
溏	-11.689
坼	-11.6891
覈	-11.6891
秃	-11.6891
馴	-11.6892
褥	-11.6893
掠	-11.6894
収	-11.6894
崐	-11.6894
翱	-11.6895
𩲃	-11.6896
柘	-11.6897
》	-11.6898
燎	-11.6898
《	-11.6898
箴	-11.69
跌	-11.6901
組	-11.6902
砥	-11.6909
瑜	-11.6916
糈	-11.6924
昺	-11.731
銚	-11.7319
璈	-11.732
羶	-11.7322
瓮	-11.7326
尖	-11.7328
倪	-11.7328
峽	-11.7329
刹	-11.7329
疥	-11.7331
嗷	-11.7332
匙	-11.7333
叠	-11.7333
魍	-11.7333
梏	-11.7333
悄	-11.7334
晉	-11.7335
莒	-11.7335
篋	-11.7336
聶	-11.7336
髃	-11.7336
鍛	-11.7337
鴨	-11.7338
疎	-11.7338
眹	-11.7339
猷	-11.7339
羨	-11.7339
鄒	-11.734
炊	-11.734
錐	-11.734
貸	-11.734
旂	-11.7342
艶	-11.7342
努	-11.7343
凱	-11.7344
昱	-11.7344
麴	-11.7344
邙	-11.7345
庇	-11.7346
泮	-11.7346
撩	-11.7347
熈	-11.7347
泆	-11.7347
佗	-11.7349
咄	-11.7349
舂	-11.7349
遑	-11.7352
酪	-11.7354
鯀	-11.7355
譆	-11.7355
歃	-11.7357
鬛	-11.7362
羆	-11.7363
鳯	-11.7366
悳	-11.7366
疸	-11.7784
嫗	-11.7792
確	-11.7801
咬	-11.7802
𦙄	-11.7803
牟	-11.7805
痢	-11.7805
礦	-11.7806
讖	-11.7808
渝	-11.7809
悽	-11.7809
彎	-11.781
郗	-11.781
桎	-11.781
個	-11.7811
箱	-11.7812
祗	-11.7812
婉	-11.7813
撼	-11.7813
絪	-11.7814
琉	-11.7815
罣	-11.7815
㠯	-11.7815
戢	-11.7815
毬	-11.7816
眦	-11.7816
岩	-11.7817
耘	-11.7819
穹	-11.7819
淄	-11.782
倘	-11.7821
葆	-11.7821
嵬	-11.7821
倡	-11.7822
曇	-11.7824
捩	-11.7824
釁	-11.7825
糾	-11.7826
曽	-11.7827
譔	-11.7827
需	-11.7828
慳	-11.7829
蜚	-11.783
嶠	-11.783
囟	-11.7832
巻	-11.7836
陬	-11.7843
蛙	-11.7844
跋	-11.7845
藕	-11.8284
䖍	-11.8296
痰	-11.8297
藪	-11.8301
嬴	-11.8301
幅	-11.8301
縻	-11.8302
葫	-11.8303
迤	-11.8303
睢	-11.8306
痞	-11.8306
憔	-11.8306
椀	-11.8307
躄	-11.8309
絆	-11.831
簞	-11.831
哂	-11.831
裊	-11.8311
蝦	-11.8311
慣	-11.8313
駢	-11.8313
穗	-11.8313
僂	-11.8314
冗	-11.8315
贖	-11.8315
轝	-11.8317
荔	-11.8318
𩵄	-11.8318
漓	-11.8319
遟	-11.8319
沿	-11.8319
佯	-11.8319
叡	-11.832
訾	-11.8321
誼	-11.8321
址	-11.8322
螺	-11.8322
呌	-11.8322
琮	-11.8323
薺	-11.8323
毓	-11.8323
殯	-11.8324
暨	-11.8325
甌	-11.8326
蘖	-11.8328
乂	-11.8328
僵	-11.8329
蟹	-11.8331
塔	-11.8331
麒	-11.8332
愕	-11.8333
縞	-11.8338
醪	-11.834
窳	-11.8341
瑰	-11.8345
柞	-11.8353
匆	-11.8809
頁	-11.8815
紆	-11.8818
緇	-11.8819
慼	-11.8826
窩	-11.8826
沽	-11.8827
鴛	-11.883
粳	-11.8831
晁	-11.8832
跂	-11.8833
炬	-11.8834
浚	-11.8834
覷	-11.8835
鴉	-11.8835
菀	-11.8836
嘶	-11.8837
堵	-11.8838
蚊	-11.8839
昰	-11.8839
懾	-11.884
鑰	-11.884
罹	-11.8841
黵	-11.8841
畝	-11.8842
隘	-11.8842
狙	-11.8843
炒	-11.8843
鷗	-11.8843
睽	-11.8843
忖	-11.8844
繳	-11.8844
矧	-11.8846
瘳	-11.8846
嚙	-11.8847
惋	-11.8847
躔	-11.8848
頏	-11.885
曦	-11.885
礫	-11.885
臉	-11.8851
泳	-11.8851
裸	-11.8852
迄	-11.8853
藿	-11.8856
螻	-11.8857
捍	-11.8857
熇	-11.886
倩	-11.8861
瓷	-11.9358
賚	-11.936
幈	-11.9364
鈔	-11.9378
瞎	-11.9378
瑋	-11.9379
哩	-11.9381
妓	-11.9383
旛	-11.9383
圈	-11.9383
蓽	-11.9383
嶂	-11.9384
愠	-11.9384
壷	-11.9384
拇	-11.9385
鴦	-11.9385
硯	-11.9386
貺	-11.9386
䑕	-11.9387
鏤	-11.9388
煴	-11.9388
穡	-11.9391
晞	-11.9391
榴	-11.9391
押	-11.9392
杲	-11.9393
傚	-11.9394
魑	-11.9394
畎	-11.9395
螟	-11.9396
闓	-11.9396
漯	-11.9398
慓	-11.9398
沅	-11.9398
魓	-11.9398
勛	-11.9398
䰢	-11.9399
釀	-11.9399
坯	-11.94
厮	-11.9401
泡	-11.9402
亶	-11.9403
机	-11.9403
蝸	-11.9404
械	-11.9404
爇	-11.9406
歴	-11.9407
痤	-11.9408
劬	-11.9408
鴆	-11.9408
痠	-11.9408
骶	-11.9409
覿	-11.941
彬	-11.9411
涅	-11.9412
嵓	-11.9412
卭	-11.9416
潞	-11.9416
搐	-11.9417
笋	-11.9421
髁	-11.9423
揵	-11.9925
塩	-11.9946
堝	-11.9951
晻	-11.9952
繚	-11.9957
黛	-11.9962
朧	-11.9966
寮	-11.9967
踪	-11.9969
逈	-11.9969
瘴	-11.9969
欹	-11.9972
翌	-11.9973
敝	-11.9974
渟	-11.9974
航	-11.9974
闈	-11.9977
蹋	-11.9977
罅	-11.9977
紳	-11.9979
潦	-11.998
棹	-11.998
詘	-11.998
矇	-11.9981
頄	-11.9981
疣	-11.9983
缾	-11.9983
壠	-11.9983
癇	-11.9984
姹	-11.9984
宥	-11.9985
坡	-11.9985
珊	-11.9985
巵	-11.9985
僖	-11.9986
渌	-11.9986
匏	-11.9986
誚	-11.9986
猖	-11.9986
諳	-11.9986
窠	-11.9987
纒	-11.9987
詹	-11.9988
葦	-11.9988
扺	-11.9988
簮	-11.9989
拗	-11.999
燮	-11.9991
𩳐	-11.9991
糵	-11.9991
洿	-11.9991
枷	-11.9991
迺	-11.9993
餚	-11.9993
噏	-11.9993
噪	-11.9993
鈹	-11.9994
埏	-11.9994
渥	-11.9996
圉	-11.9996
諍	-11.9997
娠	-11.9997
駮	-11.9999
眺	-11.9999
霪	-12.0003
濬	-12.0003
鵰	-12.0005
鄆	-12.0005
犍	-12.0005
複	-12.0006
浣	-12.0006
膳	-12.0006
樽	-12.0006
▲	-12.001
凖	-12.0011
䭀	-12.0012
蒨	-12.0029
怵	-12.0032
龢	-12.0035
㯶	-12.0043
皷	-12.0573
嗚	-12.0576
紈	-12.0579
搶	-12.0582
囉	-12.0583
滚	-12.0591
搆	-12.0593
粃	-12.0594
撈	-12.0594
頞	-12.0595
猥	-12.0595
瘈	-12.0597
顱	-12.0597
瞥	-12.0597
賫	-12.0597
愔	-12.0597
慝	-12.0598
簷	-12.0598
萼	-12.0598
楷	-12.0598
殄	-12.06
𧷤	-12.0601
廳	-12.0601
插	-12.0603
蜕	-12.0603
鎻	-12.0603
蠧	-12.0603
𠫤	-12.0604
笥	-12.0605
盥	-12.0606
餒	-12.0607
剩	-12.0607
揩	-12.0609
颯	-12.061
茵	-12.061
歆	-12.061
咤	-12.061
諄	-12.0611
吳	-12.0611
菲	-12.0611
產	-12.0611
妊	-12.0612
麝	-12.0613
捺	-12.0613
蠟	-12.0613
澈	-12.0613
璋	-12.0614
技	-12.0614
磚	-12.0614
鍮	-12.0614
詬	-12.0615
芮	-12.0616
蘧	-12.0617
陞	-12.0619
噀	-12.0619
醯	-12.0619
僥	-12.0621
榭	-12.0621
啗	-12.0622
閟	-12.0623
鹵	-12.0623
泗	-12.0623
蕙	-12.0624
訶	-12.0625
鴞	-12.0626
螫	-12.0626
緱	-12.0626
孑	-12.0626
鑱	-12.0627
迂	-12.0628
懐	-12.063
鈐	-12.063
紺	-12.0631
䢉	-12.0632
帆	-12.0636
虺	-12.0642
姥	-12.0645
蛩	-12.0646
橿	-12.0668
癩	-12.125
陔	-12.1251
跛	-12.1254
鼷	-12.1258
琪	-12.1259
霐	-12.1259
稅	-12.1261
撒	-12.1263
剉	-12.1264
嶸	-12.1265
詫	-12.1265
錙	-12.1265
鷙	-12.1265
廛	-12.1266
沼	-12.1266
邐	-12.1268
憺	-12.1268
臥	-12.1268
酢	-12.1269
廨	-12.127
緬	-12.1271
淒	-12.1271
虻	-12.1271
鳶	-12.1271
磻	-12.1271
竪	-12.1272
颼	-12.1272
嗤	-12.1272
聆	-12.1274
恙	-12.1275
鉗	-12.1276
燃	-12.1276
奠	-12.1277
沴	-12.1277
𥋋	-12.1277
舄	-12.1277
萋	-12.1278
踊	-12.1279
覬	-12.1279
䏚	-12.128
奬	-12.1281
醖	-12.1281
培	-12.1283
苖	-12.1283
熹	-12.1284
娉	-12.1284
刮	-12.1284
訊	-12.1286
沁	-12.1287
絓	-12.1287
畋	-12.1288
瘠	-12.129
慤	-12.1291
旡	-12.1293
姧	-12.1294
詆	-12.1295
忝	-12.1297
櫟	-12.1297
癭	-12.1298
捶	-12.1299
僮	-12.1301
讙	-12.1302
噲	-12.1305
璿	-12.1308
勺	-12.131
柟	-12.1311
諛	-12.1312
俸	-12.1965
檝	-12.1966
炮	-12.1968
嵇	-12.197
耨	-12.197
畿	-12.1971
緜	-12.1971
裾	-12.1973
蔑	-12.1974
搭	-12.1974
哮	-12.1975
徨	-12.1975
垠	-12.1976
店	-12.1977
粱	-12.1977
顗	-12.1977
鶩	-12.1978
罟	-12.1978
婪	-12.1978
簁	-12.1979
縑	-12.1979
氈	-12.198
痴	-12.198
屐	-12.198
笄	-12.1981
騏	-12.1982
敞	-12.1983
彗	-12.1983
呆	-12.1984
吊	-12.1985
僭	-12.1985
蚤	-12.1985
瑣	-12.1986
罄	-12.1987
雛	-12.1987
拶	-12.1989
衄	-12.1989
郝	-12.1989
筯	-12.199
迢	-12.199
榼	-12.199
癥	-12.199
颻	-12.199
攫	-12.199
殽	-12.1991
参	-12.1991
芷	-12.1992
騖	-12.1992
倨	-12.1992
翡	-12.1993
璚	-12.1993
愴	-12.1994
懵	-12.1994
嵒	-12.1995
褁	-12.1996
囿	-12.1997
砌	-12.1997
燁	-12.1998
褰	-12.1998
遡	-12.1998
珉	-12.1998
J	-12.1999
皋	-12.1999
A	-12.1999
N	-12.1999
鮫	-12.2
㤅	-12.2
U	-12.2
黽	-12.2001
碾	-12.2001
悒	-12.2005
烱	-12.2006
駝	-12.2006
聴	-12.2006
趺	-12.2006
飋	-12.2008
謌	-12.2008
覃	-12.2009
潼	-12.2012
窫	-12.2013
緋	-12.2013
䝉	-12.2015
坂	-12.2016
湣	-12.2017
匈	-12.2017
鏐	-12.2018
喚	-12.2021
穫	-12.2022
瑾	-12.2023
槍	-12.2715
憾	-12.2723
鴣	-12.2725
璜	-12.2728
苒	-12.2738
巘	-12.2738
藁	-12.2739
泌	-12.274
汶	-12.274
洮	-12.274
駑	-12.2741
窄	-12.2741
嘲	-12.2742
鏘	-12.2743
鼔	-12.2744
歙	-12.2745
臁	-12.2746
丐	-12.2746
頒	-12.2747
灘	-12.2749
拏	-12.2749
欵	-12.275
鎚	-12.2751
暎	-12.2751
繹	-12.2752
汰	-12.2753
貂	-12.2753
訂	-12.2754
賑	-12.2754
糊	-12.2754
蓊	-12.2754
殂	-12.2754
灧	-12.2755
秖	-12.2755
䂓	-12.2755
阯	-12.2756
涣	-12.2757
墀	-12.2758
耄	-12.2758
瓠	-12.2758
蘸	-12.2758
湍	-12.2759
邳	-12.2759
婺	-12.276
啜	-12.276
殳	-12.276
顥	-12.2761
霆	-12.2761
媿	-12.2762
偽	-12.2764
綃	-12.2765
鞠	-12.2765
怱	-12.2766
茗	-12.2766
苴	-12.2767
僊	-12.2767
孳	-12.2768
倖	-12.2768
哥	-12.2768
篡	-12.2768
牋	-12.277
譙	-12.277
銓	-12.2772
楓	-12.2772
摯	-12.2772
枳	-12.2773
戕	-12.2773
纍	-12.2774
曼	-12.2775
繭	-12.2776
琨	-12.2776
瘻	-12.2776
;	-12.278
鐸	-12.278
薨	-12.2781
鯢	-12.2783
球	-12.2783
劍	-12.2784
茍	-12.2784
胗	-12.2784
菅	-12.2784
肴	-12.2784
魴	-12.2788
殢	-12.279
鸚	-12.2792
㸘	-12.2794
浥	-12.2795
逵	-12.2796
桶	-12.3552
珂	-12.3557
舫	-12.3559
撑	-12.3559
𤙲	-12.3561
臰	-12.3565
娟	-12.3567
鷰	-12.3567
姊	-12.3568
簟	-12.357
扐	-12.357
駒	-12.3572
鰲	-12.3572
龕	-12.3574
掬	-12.3574
堦	-12.3574
侔	-12.3575
賺	-12.3575
錘	-12.3576
厶	-12.3577
鷦	-12.3578
碩	-12.3581
斲	-12.3582
傭	-12.3582
廖	-12.3583
窅	-12.3585
攄	-12.3585
臏	-12.3585
昃	-12.3585
薊	-12.3585
俺	-12.3586
碣	-12.3586
懊	-12.3586
閲	-12.3586
曖	-12.3587
邕	-12.3587
郛	-12.3587
泪	-12.3588
禎	-12.3588
迍	-12.3588
帽	-12.3589
屣	-12.3589
气	-12.359
鋸	-12.359
勦	-12.3591
萍	-12.3591
廻	-12.3591
烊	-12.3592
弧	-12.3593
咏	-12.3593
妒	-12.3593
俎	-12.3594
痊	-12.3594
幄	-12.3594
薈	-12.3597
删	-12.3597
𩩲	-12.3597
唳	-12.3597
熛	-12.3597
珏	-12.3598
岌	-12.3598
緝	-12.3599
麓	-12.3599
椹	-12.36
冩	-12.36
彪	-12.36
嗄	-12.36
賄	-12.36
甸	-12.3601
墊	-12.3602
黼	-12.3602
蜃	-12.3603
肛	-12.3604
祁	-12.3604
曩	-12.3605
粘	-12.3605
槨	-12.3607
鶚	-12.3607
泚	-12.3607
盩	-12.3607
飱	-12.3607
瀨	-12.3608
陁	-12.3608
粤	-12.3608
汚	-12.3608
宕	-12.3608
猗	-12.3608
靳	-12.3608
攖	-12.3609
跣	-12.3609
曈	-12.361
闚	-12.361
㦸	-12.3611
蜼	-12.3611
吃	-12.3613
来	-12.3613
概	-12.3613
惒	-12.3614
睾	-12.3615
勅	-12.3615
腊	-12.3616
赧	-12.3619
櫝	-12.3623
稌	-12.3626
囷	-12.3627
騩	-12.3631
舅	-12.3633
澧	-12.3649
泑	-12.3653
羬	-12.3653
埅	-12.3655
闥	-12.4458
竚	-12.4466
賽	-12.4468
廡	-12.4473
沍	-12.4473
磷	-12.4473
飫	-12.4477
膨	-12.4483
篁	-12.4483
磐	-12.4483
桴	-12.4486
稜	-12.4488
遄	-12.4489
儳	-12.4489
蹠	-12.449
叮	-12.449
琬	-12.449
荄	-12.449
蒯	-12.4491
吻	-12.4491
莎	-12.4491
筏	-12.4493
啟	-12.4494
汜	-12.4494
瀹	-12.4494
惻	-12.4495
疴	-12.4495
搔	-12.4495
飬	-12.4495
奭	-12.4495
儋	-12.4496
蜺	-12.4496
届	-12.4496
恪	-12.4496
諺	-12.4496
瘀	-12.4497
旃	-12.4497
躅	-12.4497
疰	-12.4497
羔	-12.4498
顓	-12.4498
閹	-12.4499
溷	-12.45
畦	-12.4501
偎	-12.4501
扳	-12.4501
紱	-12.4501
謳	-12.4502
仐	-12.4502
寃	-12.4502
玫	-12.4502
刼	-12.4503
逭	-12.4503
躑	-12.4503
瀰	-12.4504
鄽	-12.4504
叵	-12.4505
檜	-12.4505
隼	-12.4505
齦	-12.4506
蝴	-12.4506
鬻	-12.4506
咆	-12.4506
噎	-12.4507
扞	-12.4507
瑚	-12.4507
湄	-12.4508
甦	-12.4508
逋	-12.4508
鷃	-12.4508
矛	-12.4508
㪷	-12.4509
昶	-12.4509
湮	-12.4509
芎	-12.451
鞏	-12.451
𡜍	-12.451
屎	-12.451
糅	-12.451
綂	-12.451
濠	-12.4511
埴	-12.4511
叨	-12.4511
鋌	-12.4512
盾	-12.4513
墬	-12.4515
霔	-12.4515
撻	-12.4515
嶓	-12.4518
幞	-12.4518
俶	-12.4519
暐	-12.4519
諤	-12.4519
𣲖	-12.4521
煦	-12.4522
瞤	-12.4522
璘	-12.4525
嫂	-12.4525
租	-12.4526
吒	-12.4526
皈	-12.4532
刋	-12.4533
驁	-12.4533
闗	-12.4534
閎	-12.4534
賃	-12.4534
眯	-12.4539
攜	-12.4541
熔	-12.4547
痙	-12.4552
雇	-12.546
黥	-12.5465
橛	-12.5466
篦	-12.5471
姪	-12.5474
榜	-12.5474
厦	-12.5475
蘋	-12.5476
抬	-12.5476
爺	-12.5479
俣	-12.548
幙	-12.548
絕	-12.5481
餳	-12.5482
籃	-12.5483
蕉	-12.5485
儕	-12.5485
翶	-12.5486
䕫	-12.5487
韵	-12.5488
詵	-12.5489
痍	-12.5489
串	-12.5489
竽	-12.5491
胝	-12.5491
婥	-12.5491
趕	-12.5492
撤	-12.5492
婿	-12.5493
伶	-12.5494
旭	-12.5495
闋	-12.5495
曛	-12.5495
翽	-12.5496
蛆	-12.5496
憒	-12.5496
嗑	-12.5496
橡	-12.5496
躊	-12.5497
鞍	-12.5497
蕖	-12.5497
綏	-12.5497
爨	-12.5498
砒	-12.5498
饕	-12.5499
熺	-12.5499
姻	-12.5499
舁	-12.5499
貼	-12.5501
齲	-12.5501
嚇	-12.5502
㝷	-12.5502
痱	-12.5502
邸	-12.5502
錄	-12.5502
熠	-12.5503
様	-12.5503
卹	-12.5504
扭	-12.5505
虓	-12.5506
貿	-12.5506
韮	-12.5507
狠	-12.5507
睪	-12.5507
阡	-12.5508
倶	-12.5509
綫	-12.551
斐	-12.551
跖	-12.551
僦	-12.551
諕	-12.5511
濼	-12.5511
齧	-12.5511
卞	-12.5511
坰	-12.5512
漭	-12.5513
呴	-12.5515
摭	-12.5515
滂	-12.5515
誃	-12.5516
澠	-12.5516
緛	-12.5516
旻	-12.5516
飼	-12.5516
昳	-12.5517
椽	-12.5518
毳	-12.5518
槖	-12.552
猾	-12.552
胕	-12.552
蹲	-12.5521
隄	-12.5522
寖	-12.5522
濩	-12.5523
旍	-12.5524
淆	-12.5525
珥	-12.5525
溼	-12.5526
柤	-12.5527
墠	-12.5528
硌	-12.5528
茆	-12.5528
魘	-12.553
劓	-12.553
蝮	-12.5534
鷩	-12.554
秊	-12.5559
苣	-12.6575
鎰	-12.658
胦	-12.6582
脖	-12.6582
湲	-12.6585
㳂	-12.6586
儷	-12.6587
邡	-12.6587
聿	-12.6588
趓	-12.6588
晤	-12.6589
輾	-12.6589
壖	-12.6589
臒	-12.6591
撚	-12.6591
惆	-12.6591
贏	-12.6592
獰	-12.6594
硫	-12.6596
鉚	-12.6596
釵	-12.6597
尿	-12.6597
鵷	-12.6598
姒	-12.6598
槎	-12.6599
腿	-12.6599
閽	-12.6601
桔	-12.6601
甆	-12.6601
漾	-12.6603
袴	-12.6603
綰	-12.6603
霈	-12.6604
駱	-12.6604
抹	-12.6604
脗	-12.6605
焞	-12.6605
茄	-12.6606
秬	-12.6606
㓂	-12.6606
鼙	-12.6606
薫	-12.6607
鋩	-12.6607
頊	-12.6607
嵎	-12.6608
訢	-12.6608
屛	-12.6608
瘵	-12.6608
釅	-12.6608
匕	-12.6609
磕	-12.6609
拴	-12.6609
牕	-12.6609
寜	-12.6609
塼	-12.6609
柩	-12.6609
歉	-12.6609
閶	-12.6609
澒	-12.661
憧	-12.661
翩	-12.661
剗	-12.6611
踡	-12.6612
酡	-12.6613
泫	-12.6613
窑	-12.6613
簑	-12.6614
漲	-12.6614
賂	-12.6614
褊	-12.6615
擦	-12.6616
晰	-12.6616
堙	-12.6617
詛	-12.6617
爓	-12.6617
莧	-12.6618
誹	-12.6618
隟	-12.6618
眈	-12.6619
劾	-12.662
鵾	-12.662
瓌	-12.662
瓓	-12.662
輅	-12.662
愜	-12.6621
䐈	-12.6621
珙	-12.6622
裨	-12.6622
豔	-12.6623
簳	-12.6623
菰	-12.6623
莅	-12.6624
蚪	-12.6624
閤	-12.6624
簣	-12.6625
鍉	-12.6625
撿	-12.6625
峩	-12.6626
崎	-12.6626
玃	-12.6626
矚	-12.6626
栁	-12.6627
囀	-12.6627
𦛗	-12.6628
瑗	-12.6628
牎	-12.6629
、	-12.663
佻	-12.663
噤	-12.6631
穽	-12.6632
芘	-12.6632
抃	-12.6632
窪	-12.6632
暦	-12.6633
楝	-12.6633
攴	-12.6633
滷	-12.6633
迪	-12.6634
菑	-12.6634
烘	-12.6634
㧞	-12.6634
汋	-12.6634
譯	-12.6635
攬	-12.6636
𤸷	-12.6637
鵜	-12.6638
騶	-12.6638
鼉	-12.6641
訆	-12.6642
玊	-12.6643
厯	-12.6644
瘤	-12.6644
犇	-12.6645
芑	-12.6646
詨	-12.6647
沔	-12.6649
璟	-12.6677
寨	-12.7813
擡	-12.7816
蚑	-12.7821
茱	-12.7822
帬	-12.7823
誷	-12.7826
癎	-12.7828
俳	-12.7828
敺	-12.7828
菱	-12.7831
滛	-12.7831
譁	-12.7831
蜣	-12.7832
輯	-12.7834
祉	-12.7835
傴	-12.7837
覡	-12.7837
鋼	-12.7837
芊	-12.7838
蹷	-12.7839
倆	-12.7839
弔	-12.784
柈	-12.7841
絙	-12.7842
邅	-12.7843
楹	-12.7843
焠	-12.7844
蝣	-12.7845
紘	-12.7846
締	-12.7847
陡	-12.7847
諲	-12.7847
閨	-12.7847
甖	-12.7848
盱	-12.7848
㨿	-12.7849
嚚	-12.785
鑾	-12.785
痒	-12.785
釗	-12.7851
躇	-12.7852
璺	-12.7852
啾	-12.7854
胴	-12.7854
鷇	-12.7854
磅	-12.7854
塌	-12.7854
廩	-12.7854
鎁	-12.7854
娛	-12.7855
拷	-12.7855
菡	-12.7856
鯤	-12.7856
閫	-12.7856
瀵	-12.7856
饋	-12.7856
蛄	-12.7857
怳	-12.7857
仝	-12.7857
睨	-12.7858
韁	-12.7858
侃	-12.7858
贇	-12.7858
冪	-12.7858
霰	-12.7858
蹴	-12.7859
禧	-12.7859
齬	-12.7859
殤	-12.786
犂	-12.786
麄	-12.786
驩	-12.786
繪	-12.7861
芰	-12.7861
齟	-12.7862
螭	-12.7862
薯	-12.7862
熖	-12.7863
獐	-12.7863
怜	-12.7863
裒	-12.7863
貲	-12.7863
痝	-12.7863
磎	-12.7863
襌	-12.7864
傘	-12.7864
潏	-12.7864
黏	-12.7865
緗	-12.7865
痓	-12.7865
獺	-12.7866
剜	-12.7866
謔	-12.7866
缶	-12.7867
襖	-12.7867
仄	-12.7867
濳	-12.7868
綦	-12.7869
瀘	-12.7869
囘	-12.7869
屨	-12.7869
伽	-12.7869
爆	-12.787
苽	-12.787
倐	-12.7871
掊	-12.7871
嫦	-12.7871
薜	-12.7872
篠	-12.7872
僉	-12.7873
飜	-12.7873
汭	-12.7873
慜	-12.7873
澮	-12.7873
玷	-12.7874
懣	-12.7874
塜	-12.7874
俓	-12.7874
苓	-12.7874
鲁	-12.7875
煬	-12.7875
紇	-12.7876
湫	-12.7876
搧	-12.7876
飭	-12.7877
棣	-12.7878
㫁	-12.7878
癬	-12.7881
紬	-12.7881
衃	-12.7881
櫾	-12.7882
勣	-12.7882
糺	-12.7882
撝	-12.7884
骬	-12.7885
縶	-12.7889
阪	-12.7891
么	-12.7891
鎸	-12.7892
将	-12.7893
抜	-12.7895
譛	-12.7895
懌	-12.7895
氾	-12.7896
㢲	-12.7899
㾬	-12.7899
椐	-12.79
𥙷	-12.7901
蠖	-12.7903
阨	-12.7908
柎	-12.7912
呿	-12.7914
擿	-12.7914
蜎	-12.9234
搥	-12.9234
瑆	-12.9252
巋	-12.9252
蕕	-12.9253
閴	-12.9256
劌	-12.9261
渇	-12.9261
荑	-12.9261
醑	-12.9262
貍	-12.9262
劄	-12.9263
氓	-12.9264
顑	-12.9264
郵	-12.9267
汀	-12.9267
蒭	-12.9267
凹	-12.9268
觚	-12.9268
蠆	-12.927
甿	-12.927
懂	-12.9271
磯	-12.9271
聵	-12.9271
澣	-12.9272
蜿	-12.9272
罐	-12.9273
呀	-12.9273
眐	-12.9273
燻	-12.9274
楯	-12.9275
聒	-12.9275
㿉	-12.9275
髖	-12.9275
渉	-12.9276
迓	-12.9276
昕	-12.9276
芟	-12.9276
紿	-12.9277
鱣	-12.928
㽷	-12.9282
蚖	-12.9282
斸	-12.9282
豉	-12.9282
絫	-12.9283
蚩	-12.9284
俚	-12.9285
骭	-12.9285
輥	-12.9286
楫	-12.9286
繟	-12.9286
鷂	-12.9287
洌	-12.9287
駁	-12.9287
悛	-12.9287
梭	-12.9287
㡬	-12.9288
皦	-12.9288
徂	-12.9288
儂	-12.9289
墾	-12.929
㑺	-12.9291
笞	-12.9291
傖	-12.9291
鴝	-12.9292
摳	-12.9294
鵡	-12.9294
瞭	-12.9294
霿	-12.9294
軼	-12.9294
䤵	-12.9294
蛭	-12.9294
齗	-12.9295
衘	-12.9295
麈	-12.9296
曁	-12.9296
絛	-12.9296
懋	-12.9296
凢	-12.9297
罍	-12.9297
紵	-12.9297
蜒	-12.9297
崧	-12.9297
笏	-12.9297
恇	-12.9298
嬖	-12.9298
暍	-12.9298
鞴	-12.9299
寘	-12.9299
瓘	-12.93
蘄	-12.93
爝	-12.93
簧	-12.93
顰	-12.93
衙	-12.93
胳	-12.93
薇	-12.9301
縢	-12.9301
褭	-12.9301
扎	-12.9302
芋	-12.9302
氂	-12.9303
貉	-12.9303
㞢	-12.9304
掐	-12.9304
磊	-12.9304
鐍	-12.9304
黠	-12.9304
沂	-12.9305
鄢	-12.9306
莠	-12.9309
栩	-12.9309
𢖍	-12.9309
㓨	-12.9309
迯	-12.9309
垤	-12.931
驤	-12.931
盍	-12.9311
逓	-12.9311
涔	-12.9312
𢎞	-12.9312
毀	-12.9312
繿	-12.9313
邽	-12.9314
𠋣	-12.9314
圀	-12.9314
茸	-12.9315
懟	-12.9315
麂	-12.9315
鵒	-12.9315
睒	-12.9318
冐	-12.9318
洺	-12.9318
烽	-12.9319
腪	-12.932
殛	-12.9321
蹟	-12.9321
湥	-12.9321
鴽	-12.9321
沆	-12.9321
亳	-12.9323
鄶	-12.9323
膲	-12.9324
劂	-12.9324
朐	-12.9324
鶹	-12.9326
牘	-12.9327
紏	-12.9327
堰	-12.9329
蝟	-12.9329
扆	-12.933
錞	-12.9332
烖	-12.9333
喑	-12.9333
搖	-12.9337
粢	-12.9339
鱓	-12.9342
姙	-12.9344
凓	-12.9344
藷	-12.9352
趎	-12.9354
䀆	-12.9366
紜	-13.0477
妘	-13.0868
圮	-13.0901
蹌	-13.0901
碭	-13.0902
墝	-13.0903
瘢	-13.0908
衽	-13.0911
盌	-13.0919
肁	-13.0921
批	-13.0926
厩	-13.0928
塢	-13.0931
駘	-13.0932
侗	-13.0932
徭	-13.0933
鈿	-13.0933
摙	-13.0934
𥹋	-13.0934
詧	-13.0935
絜	-13.0936
䵟	-13.0937
蠵	-13.0937
蟪	-13.0937
袒	-13.0938
怍	-13.0938
顬	-13.0938
幀	-13.0939
覯	-13.0939
踣	-13.0939
顳	-13.0939
鬬	-13.094
訕	-13.094
伉	-13.094
夤	-13.0941
睠	-13.0941
騭	-13.0941
澇	-13.0941
倕	-13.0941
筐	-13.0941
纜	-13.0942
𨭊	-13.0942
磋	-13.0943
搢	-13.0943
瓣	-13.0943
踹	-13.0943
义	-13.0944
揄	-13.0944
寗	-13.0944
楪	-13.0945
耍	-13.0946
黷	-13.0946
烜	-13.0947
貰	-13.0947
幣	-13.0947
吤	-13.0948
橈	-13.0948
喟	-13.0949
恂	-13.0949
襯	-13.0949
𩀱	-13.0949
殉	-13.095
惛	-13.095
𡨋	-13.095
糖	-13.0952
畤	-13.0952
终	-13.0952
淤	-13.0952
犁	-13.0954
胛	-13.0954
钮	-13.0954
伋	-13.0954
瀁	-13.0954
筍	-13.0955
荘	-13.0955
弁	-13.0955
刁	-13.0955
侄	-13.0956
甃	-13.0956
鎗	-13.0956
燾	-13.0956
蒞	-13.0956
嶼	-13.0956
鏃	-13.0956
醅	-13.0957
夐	-13.0957
綾	-13.0957
槽	-13.0958
剏	-13.0958
絀	-13.0958
檗	-13.096
靠	-13.096
侖	-13.0961
櫻	-13.0962
觧	-13.0962
樁	-13.0962
捜	-13.0962
尫	-13.0963
溫	-13.0963
韛	-13.0963
憨	-13.0963
瀍	-13.0963
彧	-13.0964
隲	-13.0964
眡	-13.0964
鬨	-13.0964
盎	-13.0964
笳	-13.0965
庠	-13.0965
䱱	-13.0966
郟	-13.0967
蝡	-13.0967
琚	-13.0967
鋟	-13.0967
膾	-13.0967
佪	-13.0968
扼	-13.0968
蹕	-13.0968
𡻕	-13.0968
虵	-13.0969
貊	-13.097
窌	-13.0971
淇	-13.0971
箒	-13.0972
慊	-13.0972
邗	-13.0972
赩	-13.0972
柸	-13.0973
亣	-13.0973
煢	-13.0974
騄	-13.0974
隈	-13.0975
縟	-13.0975
𦔳	-13.0975
桉	-13.0975
罌	-13.0976
雒	-13.0976
蕨	-13.0976
銛	-13.0977
鄜	-13.0978
玗	-13.0978
贛	-13.0978
莘	-13.0979
骼	-13.0979
㾓	-13.0979
䳜	-13.098
壻	-13.098
暠	-13.098
忸	-13.098
爕	-13.098
俘	-13.0981
隣	-13.0981
騮	-13.0981
呉	-13.0981
舋	-13.0981
肪	-13.0981
贱	-13.0984
郴	-13.0984
崿	-13.0985
靴	-13.0985
幌	-13.0985
㚟	-13.0985
鶡	-13.0986
胖	-13.0986
皝	-13.0986
䯏	-13.0988
售	-13.0989
洧	-13.0989
舎	-13.0989
𢬵	-13.099
洹	-13.099
𦬸	-13.099
楛	-13.0991
瀣	-13.0991
䑞	-13.0996
毘	-13.1
属	-13.1003
柢	-13.1004
餞	-13.1004
崦	-13.1006
䉋	-13.1009
氄	-13.1011
倭	-13.1018
逍	-13.1023
玘	-13.103
胼	-13.2905
狻	-13.2909
琶	-13.291
姝	-13.2912
孀	-13.2912
鑲	-13.2913
麑	-13.2915
肄	-13.2915
闠	-13.2915
譊	-13.2916
鉏	-13.2924
齕	-13.2925
腮	-13.2925
刷	-13.2926
輭	-13.2926
謎	-13.2927
墯	-13.2928
嘴	-13.2928
鋋	-13.2929
睟	-13.2929
媱	-13.2929
鬯	-13.2929
綯	-13.2929
醁	-13.293
蜋	-13.293
飆	-13.2931
葭	-13.2932
忺	-13.2933
鑣	-13.2933
𥉛	-13.2933
駈	-13.2934
躓	-13.2934
醬	-13.2935
趄	-13.2935
殅	-13.2935
銑	-13.2935
戛	-13.2936
憮	-13.2936
煽	-13.2936
濾	-13.2937
霶	-13.2937
㹠	-13.2937
溱	-13.2938
瞰	-13.2938
忮	-13.2939
瀑	-13.2939
嶒	-13.2939
襞	-13.2939
辤	-13.294
蚕	-13.294
膞	-13.294
蹬	-13.294
𧵥	-13.2941
紡	-13.2942
眙	-13.2943
埭	-13.2943
蠁	-13.2943
棼	-13.2943
闞	-13.2944
鰥	-13.2944
壙	-13.2944
閙	-13.2945
厢	-13.2946
滃	-13.2946
蝨	-13.2946
甓	-13.2946
麪	-13.2947
鞲	-13.2947
荐	-13.2947
鸛	-13.2948
猒	-13.2948
碁	-13.2948
曙	-13.2948
軺	-13.2948
鯁	-13.2948
杌	-13.2948
拿	-13.2949
繢	-13.2949
箠	-13.2949
繰	-13.2949
藘	-13.2949
鰂	-13.2949
饜	-13.2951
鴿	-13.2951
棧	-13.2951
褻	-13.2951
驍	-13.2951
璀	-13.2952
𥐻	-13.2952
葅	-13.2952
砧	-13.2952
喃	-13.2952
滉	-13.2952
茨	-13.2953
胄	-13.2953
逯	-13.2953
戹	-13.2954
噭	-13.2954
壊	-13.2954
釱	-13.2954
尪	-13.2954
瞍	-13.2954
癤	-13.2955
寞	-13.2955
洵	-13.2955
騃	-13.2955
軋	-13.2956
綝	-13.2956
臾	-13.2957
詁	-13.2957
酹	-13.2957
篷	-13.2957
貎	-13.2957
圊	-13.2958
駃	-13.2958
陘	-13.2958
闤	-13.2958
煨	-13.2958
珞	-13.2959
捽	-13.296
䕃	-13.296
澶	-13.296
鏑	-13.296
佘	-13.296
渙	-13.2961
獪	-13.2961
穠	-13.2961
酖	-13.2961
趂	-13.2962
熄	-13.2962
㝢	-13.2962
黿	-13.2963
屹	-13.2963
衊	-13.2963
偊	-13.2964
塋	-13.2964
昻	-13.2964
鑛	-13.2964
畆	-13.2965
蘼	-13.2965
搦	-13.2965
竢	-13.2965
纎	-13.2965
丰	-13.2965
逄	-13.2965
犖	-13.2966
挨	-13.2966
薙	-13.2966
襦	-13.2966
縊	-13.2966
穉	-13.2967
冨	-13.2967
愀	-13.2968
鼇	-13.2969
釡	-13.2969
丱	-13.2969
廿	-13.297
蠐	-13.297
鮎	-13.297
瑁	-13.2971
𡨚	-13.2971
隩	-13.2973
鄣	-13.2974
狢	-13.2974
徯	-13.2975
栝	-13.2975
澳	-13.2975
磴	-13.2975
愎	-13.2975
懁	-13.2975
劭	-13.2976
异	-13.2976
𡨥	-13.2976
酋	-13.2976
臛	-13.2977
朢	-13.2977
慟	-13.2977
袵	-13.2977
訐	-13.2978
褶	-13.2978
怛	-13.2978
翎	-13.2979
繋	-13.2979
胙	-13.2979
譌	-13.2979
飊	-13.298
裀	-13.2981
嶢	-13.2981
臷	-13.2981
犳	-13.2981
軄	-13.2982
灣	-13.2982
鄗	-13.2983
浡	-13.2983
㳺	-13.2983
楢	-13.2983
鬒	-13.2983
翾	-13.2984
煜	-13.2984
胆	-13.2986
耑	-13.2987
攷	-13.2987
楸	-13.2988
髕	-13.299
殮	-13.299
糝	-13.299
泏	-13.299
峴	-13.299
佖	-13.299
蚿	-13.299
𩩻	-13.2991
廑	-13.2992
崙	-13.2994
𪇱	-13.2994
怙	-13.2994
号	-13.2995
畛	-13.2995
䐢	-13.2997
貆	-13.3
苧	-13.3001
湜	-13.3001
骹	-13.3001
蠃	-13.3002
堇	-13.3003
猳	-13.3004
苕	-13.3006
鮪	-13.3007
灋	-13.3007
憹	-13.301
胇	-13.3011
萯	-13.3012
茈	-13.3016
獜	-13.3016
刉	-13.3017
皛	-13.302
蓇	-13.302
葌	-13.3021
禕	-13.3041
棚	-13.5373
楨	-13.5376
睍	-13.5381
㴭	-13.5391
吮	-13.5394
鰌	-13.5396
㶼	-13.5396
閾	-13.5398
𧢄	-13.5406
詡	-13.5409
鄖	-13.5409
咂	-13.541
鱅	-13.5411
矍	-13.5414
蹐	-13.5415
菘	-13.5416
磧	-13.5417
齶	-13.5417
槪	-13.5417
焙	-13.5419
瞼	-13.5419
𥿄	-13.5419
琵	-13.542
𥋾	-13.542
慴	-13.5421
状	-13.5423
綆	-13.5423
軹	-13.5424
腓	-13.5424
嘍	-13.5426
𥆐	-13.5426
忪	-13.5426
嬛	-13.5427
蓆	-13.5427
睚	-13.5427
苾	-13.5427
耒	-13.5427
趑	-13.543
懻	-13.543
时	-13.5431
惴	-13.5431
溯	-13.5431
嗒	-13.5432
伫	-13.5434
湓	-13.5435
獳	-13.5435
襁	-13.5436
䳐	-13.5436
嚬	-13.5437
桁	-13.5437
筦	-13.5437
鉉	-13.5437
韡	-13.5438
奣	-13.5438
鐔	-13.5438
赶	-13.5438
髠	-13.5439
奂	-13.5439
忡	-13.5439
随	-13.5439
畸	-13.5441
褫	-13.5442
柿	-13.5442
璪	-13.5442
祻	-13.5442
酎	-13.5442
遒	-13.5442
亷	-13.5442
𥫽	-13.5442
謇	-13.5443
眴	-13.5444
宄	-13.5444
朞	-13.5445
漻	-13.5445
撆	-13.5445
殲	-13.5445
顫	-13.5445
霤	-13.5446
歜	-13.5446
揜	-13.5448
磾	-13.5448
傕	-13.5448
卮	-13.5448
譖	-13.5449
酤	-13.5451
瑤	-13.5451
鬃	-13.5451
淬	-13.5452
券	-13.5452
楂	-13.5452
殪	-13.5453
估	-13.5453
啐	-13.5453
悃	-13.5453
䁘	-13.5453
碓	-13.5453
娼	-13.5453
巉	-13.5455
愳	-13.5455
窿	-13.5455
朂	-13.5455
黮	-13.5455
梃	-13.5456
窶	-13.5456
潢	-13.5456
捘	-13.5456
簦	-13.5456
𣌜	-13.5456
桷	-13.5457
蘩	-13.5457
戯	-13.5459
旆	-13.5459
㩉	-13.5459
冏	-13.5459
渦	-13.546
虙	-13.546
頳	-13.546
膹	-13.546
豨	-13.546
餽	-13.546
𡼏	-13.5461
佺	-13.5461
俏	-13.5462
摛	-13.5462
钁	-13.5462
謟	-13.5462
魃	-13.5462
靣	-13.5462
抉	-13.5462
㘅	-13.5462
墅	-13.5463
賡	-13.5463
澎	-13.5463
皏	-13.5463
糲	-13.5463
剟	-13.5463
篥	-13.5464
罽	-13.5464
刲	-13.5464
敓	-13.5464
䍧	-13.5464
箔	-13.5464
俐	-13.5464
灊	-13.5466
葪	-13.5466
髂	-13.5466
繄	-13.5466
鈕	-13.5466
㰦	-13.5466
蠪	-13.5467
孱	-13.5467
絢	-13.5467
曚	-13.5467
囓	-13.5467
𤤠	-13.5467
迕	-13.5468
輶	-13.5469
顇	-13.5469
泔	-13.5469
徔	-13.5469
頠	-13.5469
髽	-13.547
薾	-13.547
鬐	-13.547
逶	-13.547
〇	-13.5471
愿	-13.5471
狷	-13.5471
冡	-13.5471
殍	-13.5473
昉	-13.5473
畗	-13.5473
䃌	-13.5473
靉	-13.5473
釧	-13.5473
卬	-13.5474
螽	-13.5474
苫	-13.5475
䮝	-13.5475
賙	-13.5477
琦	-13.5477
炲	-13.5477
裡	-13.5477
蕊	-13.5478
蘚	-13.5478
稗	-13.5478
縠	-13.5478
𣗳	-13.5478
凊	-13.5478
䖝	-13.548
鞫	-13.548
鬰	-13.5481
猨	-13.5481
纊	-13.5481
鶻	-13.5481
襍	-13.5481
蒐	-13.5481
阼	-13.5481
㜸	-13.5482
宙	-13.5482
羭	-13.5482
𠑽	-13.5482
綮	-13.5482
霂	-13.5482
啣	-13.5484
礀	-13.5484
𨇠	-13.5484
朶	-13.5485
轢	-13.5485
𦿜	-13.5485
吽	-13.5486
籛	-13.5487
貟	-13.5487
顋	-13.5487
劃	-13.5488
虱	-13.5488
豢	-13.5488
霛	-13.5488
黶	-13.5488
抔	-13.5488
贄	-13.5489
粿	-13.5489
躰	-13.5491
濂	-13.5492
㗖	-13.5492
荻	-13.5492
洄	-13.5493
鵕	-13.5493
旎	-13.5495
贜	-13.5495
咍	-13.5495
髴	-13.5495
箬	-13.5495
禰	-13.5496
鵁	-13.5496
剸	-13.5496
栻	-13.5496
皴	-13.5496
輴	-13.5496
鬟	-13.5498
擷	-13.5498
䪼	-13.5498
沇	-13.5498
踆	-13.5499
棃	-13.55
睘	-13.55
恵	-13.5502
懔	-13.5502
鋏	-13.5503
嬀	-13.5503
椆	-13.5506
簒	-13.5506
獋	-13.551
𩇥	-13.5511
玆	-13.5513
黝	-13.5513
酈	-13.5513
𤣎	-13.5514
抓	-13.5514
䓘	-13.5514
滏	-13.5514
歘	-13.5517
雘	-13.5518
啇	-13.5521
祙	-13.5521
鴸	-13.5521
蝯	-13.5525
蟜	-13.5525
炱	-13.5525
柝	-13.5527
弇	-13.5528
鱖	-13.5528
𩅞	-13.5528
鬣	-13.5532
諌	-13.5535
菓	-13.5535
闒	-13.5536
䳋	-13.5545
柬	-13.556
牷	-13.5566
㳙	-13.8671
墁	-13.8695
䈁	-13.8696
觱	-13.8702
欖	-13.8708
嬈	-13.8712
暀	-13.8718
圬	-13.8718
勰	-13.872
嶔	-13.8723
𥇓	-13.8725
纁	-13.8727
痩	-13.8729
啘	-13.8731
藂	-13.8731
顡	-13.8731
㪚	-13.8733
廙	-13.8735
秱	-13.8737
棖	-13.8737
釿	-13.8739
褓	-13.8741
樛	-13.8741
坏	-13.8741
蔻	-13.8741
焱	-13.8742
愽	-13.8745
泱	-13.8745
玎	-13.8745
擠	-13.8747
倀	-13.8747
鬿	-13.8748
𪆻	-13.8748
嫖	-13.8748
犒	-13.8748
㑗	-13.8748
觡	-13.875
哇	-13.875
𦖞	-13.875
鵄	-13.8752
䔧	-13.8752
昛	-13.8752
攤	-13.8752
偪	-13.8752
罘	-13.8752
槔	-13.8752
矴	-13.8752
賸	-13.8754
描	-13.8754
㬠	-13.8754
墌	-13.8754
塹	-13.8754
儸	-13.8754
渫	-13.8754
蚘	-13.8754
坒	-13.8756
荳	-13.8756
妣	-13.8758
潙	-13.876
𥝠	-13.876
呷	-13.876
畚	-13.876
虀	-13.876
偢	-13.876
嵌	-13.876
醢	-13.876
黈	-13.876
跧	-13.8762
鍠	-13.8762
癧	-13.8762
圯	-13.8762
捋	-13.8762
搴	-13.8762
旒	-13.8762
闉	-13.8762
攔	-13.8762
躐	-13.8764
徉	-13.8764
磵	-13.8764
觥	-13.8764
窖	-13.8764
睁	-13.8764
婩	-13.8764
灮	-13.8764
矰	-13.8764
籩	-13.8766
欞	-13.8766
悰	-13.8766
曬	-13.8768
愶	-13.8768
頼	-13.8768
嫋	-13.8768
欝	-13.877
㝁	-13.877
滸	-13.877
猝	-13.877
痟	-13.877
两	-13.877
駔	-13.8771
忱	-13.8771
罝	-13.8772
鍤	-13.8772
漪	-13.8773
甥	-13.8773
諟	-13.8773
訇	-13.8773
膀	-13.8773
㓗	-13.8773
蟯	-13.8773
樟	-13.8775
雯	-13.8775
駞	-13.8775
娜	-13.8775
柫	-13.8775
淀	-13.8775
𣏌	-13.8775
逗	-13.8777
䏁	-13.8777
壹	-13.8777
髫	-13.8777
惘	-13.8777
盬	-13.8777
㝡	-13.8777
洈	-13.8777
𤽉	-13.8777
纘	-13.8779
猱	-13.8779
鐃	-13.8779
馱	-13.8779
燄	-13.8779
齠	-13.8779
惙	-13.8779
鎛	-13.8781
圄	-13.8781
讌	-13.8781
擕	-13.8781
陲	-13.8781
髣	-13.8781
腂	-13.8781
鬅	-13.8781
綖	-13.8781
賭	-13.8783
綢	-13.8783
濶	-13.8783
缸	-13.8783
爬	-13.8783
洟	-13.8783
蕋	-13.8783
罨	-13.8783
䯒	-13.8783
惂	-13.8783
窊	-13.8783
軏	-13.8783
䁢	-13.8783
鐙	-13.8785
瑱	-13.8785
唁	-13.8785
䑛	-13.8785
淼	-13.8785
袠	-13.8785
鸝	-13.8785
踢	-13.8785
鄫	-13.8785
桺	-13.8785
𣩠	-13.8785
謢	-13.8787
緡	-13.8787
𤮕	-13.8787
槳	-13.8787
諶	-13.8787
奩	-13.8787
羯	-13.8787
鞦	-13.8787
𤠔	-13.8787
恓	-13.8787
剿	-13.8789
朅	-13.8789
昞	-13.8789
窣	-13.8789
噆	-13.8789
隰	-13.8789
壍	-13.8789
种	-13.8789
絰	-13.8789
荇	-13.8789
䵍	-13.8789
棐	-13.8789
芹	-13.8789
灝	-13.8791
侚	-13.8791
愷	-13.8791
侑	-13.8791
凸	-13.8791
孃	-13.8791
橙	-13.8791
郤	-13.8791
隠	-13.8791
氲	-13.8791
袤	-13.8791
譟	-13.8791
郈	-13.8791
鞉	-13.8791
顖	-13.8791
闘	-13.8793
蓀	-13.8793
鷲	-13.8793
嘒	-13.8793
𣹬	-13.8793
珣	-13.8793
禘	-13.8793
檎	-13.8795
晳	-13.8795
枘	-13.8795
縗	-13.8795
絧	-13.8795
餗	-13.8795
䳼	-13.8795
喣	-13.8795
蟞	-13.8796
甽	-13.8797
腆	-13.8797
㮏	-13.8797
堽	-13.8797
炤	-13.8797
耰	-13.8797
腄	-13.8797
虩	-13.8797
貒	-13.8797
綣	-13.8799
擗	-13.8799
窬	-13.8799
袪	-13.8799
炕	-13.8799
蹀	-13.8799
咫	-13.8799
睇	-13.88
慥	-13.88
檟	-13.88
卻	-13.88
彀	-13.88
胲	-13.88
䦨	-13.88
櫓	-13.88
輓	-13.88
䪻	-13.88
湏	-13.88
疐	-13.88
竆	-13.88
騐	-13.8802
秕	-13.8802
涘	-13.8802
咋	-13.8802
鎌	-13.8802
蕢	-13.8802
醨	-13.8802
怗	-13.8802
瀅	-13.8802
惔	-13.8804
疪	-13.8804
漣	-13.8804
堨	-13.8804
捃	-13.8804
湟	-13.8804
视	-13.8804
䖀	-13.8804
籤	-13.8804
讟	-13.8806
憍	-13.8806
窋	-13.8806
麖	-13.8806
猘	-13.8806
瓀	-13.8806
篚	-13.8806
葯	-13.8806
瞢	-13.8808
証	-13.8808
鄞	-13.8808
鵙	-13.8808
廆	-13.8808
祺	-13.8808
㓻	-13.8808
嫡	-13.8808
棓	-13.8808
琁	-13.8808
戡	-13.8809
簉	-13.881
藺	-13.881
鑞	-13.881
寀	-13.881
瘜	-13.881
颷	-13.881
鶌	-13.881
鬄	-13.881
鬆	-13.8812
惲	-13.8812
臞	-13.8812
靦	-13.8812
耋	-13.8812
熻	-13.8812
讜	-13.8812
泜	-13.8812
焊	-13.8812
釭	-13.8814
両	-13.8814
蠓	-13.8814
翐	-13.8814
靨	-13.8814
蚡	-13.8814
郅	-13.8814
泅	-13.8814
撇	-13.8816
嶧	-13.8816
藐	-13.8816
咯	-13.8816
硋	-13.8816
蜩	-13.8816
鵫	-13.8816
𣪯	-13.8818
𤟑	-13.8818
佃	-13.8818
嚲	-13.8818
槀	-13.8818
蟮	-13.8818
适	-13.8818
涪	-13.882
侫	-13.882
蓂	-13.882
揑	-13.882
颶	-13.882
祼	-13.882
倅	-13.8822
瑄	-13.8822
䧿	-13.8822
哆	-13.8822
尒	-13.8822
赳	-13.8822
逑	-13.8822
庳	-13.8822
榣	-13.8822
蚋	-13.8822
阝	-13.8822
饔	-13.8824
䁝	-13.8824
硤	-13.8824
沒	-13.8824
騂	-13.8824
剽	-13.8824
弢	-13.8824
躣	-13.8824
𦭘	-13.8824
矮	-13.8825
喏	-13.8825
嘈	-13.8825
岨	-13.8825
囏	-13.8826
墍	-13.8826
妭	-13.8826
茇	-13.8826
坱	-13.8827
嗥	-13.8827
郇	-13.8827
兟	-13.8827
聹	-13.8827
𤝱	-13.8827
毖	-13.8827
蕷	-13.8827
𦂳	-13.8827
蠚	-13.8827
揉	-13.8829
翬	-13.8829
硎	-13.8829
悀	-13.8829
耵	-13.8829
愲	-13.8829
皞	-13.8829
㶌	-13.8829
玢	-13.8829
韙	-13.8831
栒	-13.8831
氊	-13.8833
蹂	-13.8833
昜	-13.8833
楠	-13.8835
晬	-13.8835
洳	-13.8835
嶲	-13.8837
跬	-13.8837
䃤	-13.8837
櫄	-13.8837
呤	-13.8839
怏	-13.8839
㢮	-13.8841
詖	-13.8843
鐻	-13.8843
躶	-13.8843
砆	-13.8843
祿	-13.8847
𦕈	-13.8847
𤓰	-13.8849
𤛎	-13.8849
恫	-13.8849
莝	-13.8849
抒	-13.8851
璉	-13.8852
莞	-13.8852
磈	-13.8853
娃	-13.8853
雚	-13.8854
洫	-13.8855
珧	-13.8856
獂	-13.886
鸓	-13.8862
蜪	-13.8862
䎶	-13.8864
𪁺	-13.8866
鮭	-13.8868
䰠	-13.8868
欀	-13.887
氍	-13.887
霒	-13.8872
鴖	-13.8874
袽	-13.8874
憿	-13.8874
猼	-13.8874
毼	-13.8876
鯥	-13.8885
䕷	-13.8889
剝	-13.8889
糴	-13.8891
愬	-13.8891
癙	-13.8899
珚	-13.8903
燐	-13.8932
矗	-14.3668
韝	-14.3684
帊	-14.3694
泬	-14.3703
眨	-14.3706
芡	-14.3706
俋	-14.3706
縚	-14.3706
搯	-14.3709
岭	-14.3712
㬎	-14.3712
潚	-14.3712
篲	-14.3712
淛	-14.3715
喂	-14.3715
艘	-14.3716
醄	-14.3716
㱔	-14.3719
崒	-14.3719
㦛	-14.3719
惵	-14.3719
湝	-14.3719
櫪	-14.3722
犠	-14.3722
䯁	-14.3725
聏	-14.3725
臸	-14.3725
捼	-14.3728
塾	-14.3728
跑	-14.3728
檣	-14.3728
褾	-14.3728
蜓	-14.3728
儜	-14.3728
咶	-14.3728
暁	-14.3728
遌	-14.3728
矬	-14.3731
垛	-14.3731
蕆	-14.3731
圛	-14.3734
瞶	-14.3734
痀	-14.3734
甎	-14.3734
䲃	-14.3738
哢	-14.3738
櫬	-14.3741
卸	-14.3741
筳	-14.3741
栲	-14.3741
歠	-14.3741
頣	-14.3741
㥱	-14.3744
慡	-14.3744
塪	-14.3744
曔	-14.3744
箄	-14.3744
臠	-14.3744
悢	-14.3744
醎	-14.3744
揬	-14.3747
錠	-14.3747
唼	-14.3747
䁻	-14.375
戬	-14.375
倬	-14.375
很	-14.375
箏	-14.375
惢	-14.375
倥	-14.375
瀚	-14.375
苪	-14.375
蔇	-14.375
洶	-14.3753
厘	-14.3753
磥	-14.3753
瘃	-14.3753
蓁	-14.3753
飇	-14.3753
獘	-14.3753
垻	-14.3753
暻	-14.3756
淟	-14.3756
澌	-14.3756
蟊	-14.3756
弴	-14.3756
湱	-14.3756
嶁	-14.3759
鍬	-14.3759
躃	-14.376
亼	-14.376
疳	-14.376
汔	-14.376
綠	-14.376
䇿	-14.376
厖	-14.376
媔	-14.3763
鮌	-14.3763
夆	-14.3763
另	-14.3763
桮	-14.3763
毿	-14.3763
穏	-14.3763
菵	-14.3763
鋾	-14.3763
长	-14.3763
壮	-14.3766
婷	-14.3766
榱	-14.3766
栅	-14.3766
謅	-14.3766
儗	-14.3769
撅	-14.3769
妲	-14.3769
謷	-14.3769
庄	-14.3769
胱	-14.3769
甪	-14.3769
蓻	-14.3769
詶	-14.3772
羙	-14.3772
騾	-14.3772
慉	-14.3772
擄	-14.3772
䟦	-14.3772
揫	-14.3772
鑴	-14.3772
雩	-14.3772
慁	-14.3772
䜟	-14.3775
摻	-14.3775
唬	-14.3775
禗	-14.3775
胜	-14.3775
蠒	-14.3775
墩	-14.3775
禣	-14.3775
鏨	-14.3775
処	-14.3775
唈	-14.3775
埛	-14.3775
埜	-14.3775
屝	-14.3775
惷	-14.3775
蜴	-14.3775
勲	-14.3778
迮	-14.3778
嘷	-14.3778
燌	-14.3778
慱	-14.3778
蟇	-14.3778
䨴	-14.3778
籜	-14.3778
裛	-14.3778
埒	-14.3778
蹹	-14.3778
芤	-14.3781
屼	-14.3782
緹	-14.3782
蔀	-14.3782
簋	-14.3782
蒔	-14.3782
飥	-14.3782
瑑	-14.3782
罃	-14.3782
蝱	-14.3782
妁	-14.3782
枻	-14.3782
癱	-14.3782
踘	-14.3782
鞄	-14.3782
罥	-14.3785
甍	-14.3785
㹫	-14.3785
畀	-14.3785
駛	-14.3785
塲	-14.3788
轘	-14.3788
曡	-14.3788
祫	-14.3788
袐	-14.3788
漦	-14.3788
萓	-14.3788
䀟	-14.3788
悞	-14.3788
獷	-14.3788
荃	-14.3788
䏿	-14.3788
摎	-14.3788
牓	-14.3788
翜	-14.3788
檉	-14.3791
郾	-14.3791
媸	-14.3791
濓	-14.3791
咺	-14.3791
瓚	-14.3791
蔗	-14.3791
尓	-14.3791
擯	-14.3791
斁	-14.3791
槊	-14.3791
謦	-14.3791
蜍	-14.3793
踖	-14.3794
漕	-14.3794
鈺	-14.3794
冦	-14.3794
叕	-14.3794
柂	-14.3794
柙	-14.3794
汛	-14.3794
綈	-14.3794
鑯	-14.3794
䁴	-14.3794
棪	-14.3794
皪	-14.3794
萑	-14.3794
軾	-14.3794
䖏	-14.3797
埆	-14.3797
跽	-14.3797
窻	-14.3797
棕	-14.3797
嘅	-14.3797
暱	-14.3797
蒡	-14.3797
㵵	-14.3797
䒶	-14.3797
諏	-14.3797
侶	-14.3797
冊	-14.3797
喆	-14.3797
尠	-14.3797
庻	-14.3797
惓	-14.3797
昀	-14.3797
柑	-14.3797
璆	-14.3797
跚	-14.3797
覦	-14.38
昋	-14.38
踧	-14.38
甀	-14.38
鋉	-14.38
餵	-14.38
昵	-14.38
詼	-14.38
㘪	-14.38
㸔	-14.38
䬌	-14.38
厷	-14.38
噔	-14.38
埵	-14.38
悻	-14.38
棫	-14.38
泒	-14.38
浼	-14.38
猎	-14.38
粼	-14.38
纉	-14.38
胓	-14.38
蓲	-14.38
賷	-14.38
魌	-14.38
慌	-14.3803
耔	-14.3803
蟢	-14.3804
傒	-14.3804
爀	-14.3804
玠	-14.3804
皖	-14.3804
藟	-14.3804
鞮	-14.3804
杉	-14.3804
蛀	-14.3804
蜆	-14.3804
飍	-14.3804
薳	-14.3807
跱	-14.3807
佶	-14.3807
蟒	-14.3807
揳	-14.3807
嚞	-14.3807
圎	-14.3807
瓴	-14.3807
螗	-14.3807
闃	-14.3807
戇	-14.3807
濆	-14.3807
鄄	-14.3807
㪍	-14.3807
䓗	-14.3807
姣	-14.3807
璐	-14.3807
祆	-14.3807
紉	-14.3807
衎	-14.3807
踽	-14.3807
錍	-14.3807
駸	-14.3807
呢	-14.381
螘	-14.381
磽	-14.381
佽	-14.381
僴	-14.381
柚	-14.381
疢	-14.381
碙	-14.381
秭	-14.381
蘺	-14.381
辠	-14.381
垌	-14.3812
竝	-14.3813
鐐	-14.3813
㒺	-14.3813
枰	-14.3813
臗	-14.3813
婤	-14.3813
涴	-14.3813
裼	-14.3813
遹	-14.3813
万	-14.3815
稹	-14.3816
鯫	-14.3816
呂	-14.3816
㰱	-14.3816
夥	-14.3816
礭	-14.3816
㮣	-14.3816
帤	-14.3816
洙	-14.3816
慿	-14.3819
諡	-14.3819
埿	-14.3819
甝	-14.3819
㳅	-14.3819
舩	-14.3819
㒨	-14.3819
䬃	-14.3819
恟	-14.3819
悋	-14.3819
濈	-14.3819
濺	-14.3819
瘨	-14.3819
芫	-14.3819
覗	-14.3819
豷	-14.3821
濉	-14.3822
枲	-14.3822
搕	-14.3822
醊	-14.3822
餧	-14.3822
摟	-14.3823
臈	-14.3823
荅	-14.3823
㓕	-14.3823
羮	-14.3823
薔	-14.3823
訧	-14.3823
聻	-14.3826
棙	-14.3826
槿	-14.3826
霅	-14.3826
佼	-14.3826
佀	-14.3826
澴	-14.3826
矹	-14.3826
軔	-14.3826
狕	-14.3829
确	-14.3829
俵	-14.3829
嘑	-14.3829
㛰	-14.3829
煤	-14.3829
数	-14.3829
晊	-14.3829
醲	-14.3829
䉂	-14.3829
厝	-14.3829
掞	-14.3829
儺	-14.3829
暌	-14.3829
袟	-14.3832
㡳	-14.3832
仵	-14.3832
狟	-14.3832
弞	-14.3832
唄	-14.3835
尃	-14.3835
濊	-14.3835
瓿	-14.3835
禆	-14.3835
蝀	-14.3835
鍧	-14.3835
煗	-14.3838
昡	-14.3838
誄	-14.3838
㲄	-14.3838
狰	-14.3838
痸	-14.3838
礲	-14.3838
袄	-14.3838
祑	-14.3841
魮	-14.3841
碔	-14.3841
凮	-14.3841
桞	-14.3841
烕	-14.3841
愻	-14.3845
衕	-14.3845
䍺	-14.3845
㤣	-14.3845
䀮	-14.3845
悾	-14.3845
鐫	-14.3845
摺	-14.3848
靸	-14.3848
泿	-14.3848
淯	-14.3848
炋	-14.3851
陃	-14.3851
辮	-14.3851
郯	-14.3851
漩	-14.3851
巛	-14.3851
扅	-14.3851
噐	-14.3854
樕	-14.3854
伇	-14.3854
繻	-14.3857
杰	-14.3857
樻	-14.3857
㵱	-14.3857
湨	-14.3857
羇	-14.3857
攧	-14.3863
佋	-14.3864
嫚	-14.3864
璹	-14.3866
㴱	-14.3867
溧	-14.387
刈	-14.387
朏	-14.387
䐆	-14.3876
蚼	-14.3876
拐	-14.3879
磢	-14.3879
暹	-14.3882
抇	-14.3889
㤗	-14.3895
䰽	-14.3895
檿	-14.3895
箘	-14.3895
氁	-14.3901
䬅	-14.3901
瀙	-14.3901
蹵	-14.3914
哄	-14.392
錚	-14.3923
匯	-14.3927
红	-14.3961
鯖	-15.3355
鬽	-15.3356
鬳	-15.3357
馗	-15.3358
餡	-15.3359
顦	-15.336
韆	-15.3361
鞈	-15.3362
靆	-15.3363
霺	-15.3364
隤	-15.3365
陑	-15.3366
闍	-15.3367
鐮	-15.3368
鏟	-15.3369
鎧	-15.337
鍔	-15.3371
鋮	-15.3372
鋣	-15.3373
鈃	-15.3374
酧	-15.3375
鄔	-15.3376
郪	-15.3377
遙	-15.3378
迿	-15.3379
蹁	-15.338
豎	-15.3381
袷	-15.3382
螂	-15.3383
蛕	-15.3384
蛔	-15.3385
蚺	-15.3386
蚰	-15.3387
蚍	-15.3388
蘦	-15.3389
蘙	-15.339
蕎	-15.3391
蕂	-15.3392
蓧	-15.3393
蒻	-15.3394
萆	-15.3395
莪	-15.3396
莓	-15.3397
茞	-15.3398
茙	-15.3399
苨	-15.34
膁	-15.3401
腳	-15.3402
腯	-15.3403
胔	-15.3404
肶	-15.3405
肠	-15.3406
聇	-15.3407
耜	-15.3408
翏	-15.3409
羗	-15.341
绳	-15.3411
繾	-15.3412
縯	-15.3413
絏	-15.3414
紕	-15.3415
糯	-15.3416
篱	-15.3417
筩	-15.3418
筑	-15.3419
筈	-15.342
稳	-15.3421
稊	-15.3422
祏	-15.3423
礱	-15.3424
礝	-15.3425
礎	-15.3426
磹	-15.3427
碽	-15.3428
瞵	-15.3429
瞌	-15.343
眾	-15.3431
眪	-15.3432
眣	-15.3433
盙	-15.3434
癕	-15.3435
痂	-15.3436
疿	-15.3437
璩	-15.3438
瑙	-15.3439
珸	-15.344
玖	-15.3441
獓	-15.3442
猻	-15.3443
狴	-15.3444
爼	-15.3445
灃	-15.3446
灂	-15.3447
潸	-15.3448
潕	-15.3449
漊	-15.345
滁	-15.3451
溵	-15.3452
溓	-15.3453
洼	-15.3454
洸	-15.3455
洊	-15.3456
泙	-15.3457
毾	-15.3458
殼	-15.3459
檩	-15.346
椷	-15.3461
梲	-15.3462
栴	-15.3463
柜	-15.3464
柅	-15.3465
枿	-15.3466
枋	-15.3467
杠	-15.3468
朚	-15.3469
朓	-15.347
朎	-15.3471
暣	-15.3472
晄	-15.3473
旴	-15.3474
旖	-15.3475
斵	-15.3476
撾	-15.3477
撙	-15.3478
据	-15.3479
扛	-15.348
扑	-15.3481
戶	-15.3482
懞	-15.3483
懝	-15.3484
憝	-15.3485
愾	-15.3486
愯	-15.3487
惏	-15.3488
恝	-15.3489
怩	-15.349
徬	-15.3491
彥	-15.3492
廋	-15.3493
幔	-15.3494
帕	-15.3495
嶰	-15.3496
嶕	-15.3497
婀	-15.3498
墿	-15.3499
塿	-15.35
堮	-15.3501
埌	-15.3502
圞	-15.3503
囹	-15.3504
嚭	-15.3505
嘸	-15.3506
喎	-15.3507
哽	-15.3508
凥	-15.3509
儌	-15.351
偟	-15.3511
倧	-15.3512
俈	-15.3513
侏	-15.3514
佾	-15.3515
伾	-15.3516
伦	-15.3517
价	-15.3518
䳅	-15.3519
䱻	-15.352
䫤	-15.3521
䪫	-15.3522
䠞	-15.3523
䛿	-15.3524
䛭	-15.3525
䙎	-15.3526
䘒	-15.3527
䃱	-15.3528
䁎	-15.3529
㻞	-15.353
㶑	-15.3531
㲪	-15.3532
㞡	-15.3533
㒁	-15.3534
𪄀	-15.3535
𪃑	-15.3536
𩿨	-15.3537
𨱆	-15.3538
𦱌	-15.3539
𤟤	-15.354
𤞞	-15.3541
𤝻	-15.3542
𤜣	-15.3543
𤊨	-15.3544
𠈉	-15.3545
齮	-15.3546
鼯	-15.3547
鶵	-15.3548
鵺	-15.3549
鵌	-15.355
鱬	-15.3551
鱄	-15.3552
鰧	-15.3553
鰠	-15.3554
騕	-15.3555
騊	-15.3556
駼	-15.3557
馹	-15.3558
餼	-15.3559
鞶	-15.356
靶	-15.3561
霢	-15.3562
隽	-15.3563
鎡	-15.3564
鈇	-15.3565
鄏	-15.3566
邴	-15.3567
蹭	-15.3568
趼	-15.3569
褢	-15.357
裟	-15.3571
袈	-15.3572
蝤	-15.3573
蜘	-15.3574
蛺	-15.3575
蛸	-15.3576
蚳	-15.3577
蚨	-15.3578
蘡	-15.3579
薁	-15.358
蔔	-15.3581
蓓	-15.3582
葳	-15.3583
萧	-15.3584
萏	-15.3585
菔	-15.3586
茀	-15.3587
舀	-15.3588
肸	-15.3589
羝	-15.359
羑	-15.3591
罻	-15.3592
糢	-15.3593
糗	-15.3594
篛	-15.3595
箜	-15.3596
筲	-15.3597
筀	-15.3598
窓	-15.3599
秔	-15.36
瞦	-15.3601
皥	-15.3602
瘼	-15.3603
玼	-15.3604
玳	-15.3605
獯	-15.3606
獫	-15.3607
猲	-15.3608
狳	-15.3609
狍	-15.361
狁	-15.3611
犰	-15.3612
焜	-15.3613
汹	-15.3614
毆	-15.3615
歔	-15.3616
欷	-15.3617
櫳	-15.3618
檳	-15.3619
檠	-15.362
榔	-15.3621
楄	-15.3622
栯	-15.3623
朒	-15.3624
曀	-15.3625
搒	-15.3626
揠	-15.3627
抧	-15.3628
扯	-15.3629
懡	-15.363
慞	-15.3631
惣	-15.3632
彚	-15.3633
嶪	-15.3634
嵳	-15.3635
峚	-15.3636
孥	-15.3637
嬙	-15.3638
嫴	-15.3639
嫪	-15.364
妴	-15.3641
塏	-15.3642
埻	-15.3643
噰	-15.3644
嗊	-15.3645
嗃	-15.3646
啅	-15.3647
咥	-15.3648
卐	-15.3649
党	-15.365
倜	-15.3651
俙	-15.3652
䱤	-15.3653
䗫	-15.3654
䗤	-15.3655
䖺	-15.3656
䖪	-15.3657
䕡	-15.3658
㵼	-15.3659
㬋	-15.366
㬇	-15.3661
㪇	-15.3662
㦬	-15.3663
㚠	-15.3664
㖮	-15.3665
㖫	-15.3666
㐨	-15.3667
𩨗	-15.3668
𧕛	-15.3669
𧕍	-15.367
𧈫	-15.3671
𥉂	-15.3672
𢢝	-15.3673
鼕	-15.3674
鰼	-15.3675
駙	-15.3676
飀	-15.3677
鉾	-15.3678
郃	-15.3679
邏	-15.368
遝	-15.3681
躚	-15.3682
贒	-15.3683
豳	-15.3684
覼	-15.3685
裌	-15.3686
袿	-15.3687
蠮	-15.3688
蠋	-15.3689
蟋	-15.369
蟀	-15.3691
螉	-15.3692
蜈	-15.3693
蛛	-15.3694
蚣	-15.3695
虰	-15.3696
藇	-15.3697
蕞	-15.3698
蓰	-15.3699
蓞	-15.37
萱	-15.3701
臃	-15.3702
繽	-15.3703
箎	-15.3704
笊	-15.3705
硜	-15.3706
瓞	-15.3707
璵	-15.3708
瑪	-15.3709
瑊	-15.371
瑀	-15.3711
琭	-15.3712
獬	-15.3713
狽	-15.3714
燉	-15.3715
瀼	-15.3716
滽	-15.3717
淦	-15.3718
浞	-15.3719
斌	-15.372
摝	-15.3721
搘	-15.3722
怢	-15.3723
弽	-15.3724
幟	-15.3725
媽	-15.3726
塤	-15.3727
嗈	-15.3728
喁	-15.3729
咷	-15.373
刖	-15.3731
偓	-15.3732
倞	-15.3733
䴅	-15.3734
䳇	-15.3735
䲹	-15.3736
䲰	-15.3737
䔄	-15.3738
㥍	-15.3739
鼐	-15.374
鮆	-15.3741
驊	-15.3742
餮	-15.3743
雋	-15.3744
鄱	-15.3745
鄩	-15.3746
跼	-15.3747
貔	-15.3748
貅	-15.3749
蓿	-15.375
苜	-15.3751
綌	-15.3752
絺	-15.3753
篌	-15.3754
瞪	-15.3755
瓈	-15.3756
玻	-15.3757
湎	-15.3758
櫽	-15.3759
枵	-15.376
曏	-15.3761
挲	-15.3762
懴	-15.3763
嶇	-15.3764
嵫	-15.3765
堋	-15.3766
嘹	-15.3767
𪖙	-15.3768
𤢄	-15.3769
黧	-15.377
鮯	-15.3771
鏌	-15.3772
轔	-15.3773
軨	-15.3774
豸	-15.3775
誾	-15.3776
覘	-15.3777
蛉	-15.3778
薏	-15.3779
蓯	-15.378
蓐	-15.3781
苡	-15.3782
紲	-15.3783
皤	-15.3784
狪	-15.3785
濜	-15.3786
楞	-15.3787
斆	-15.3788
戔	-15.3789
悁	-15.379
峳	-15.3791
嫫	-15.3792
姨	-15.3793
冱	-15.3794
䍶	-15.3795
㕮	-15.3796
麢	-15.3797
鵸	-15.3798
跏	-15.3799
觔	-15.38
蟈	-15.3801
藭	-15.3802
蕾	-15.3803
蕘	-15.3804
萸	-15.3805
荽	-15.3806
芭	-15.3807
秣	-15.3808
碏	-15.3809
皿	-15.381
崢	-15.3811
峥	-15.3812
儡	-15.3813
傀	-15.3814
黻	-15.3815
鵑	-15.3816
驎	-15.3817
駉	-15.3818
腔	-15.3819
縲	-15.382
獼	-15.3821
擻	-15.3822
抖	-15.3823
忩	-15.3824
窕	-15.3824
哦	-15.3825
刎	-15.3826
俔	-15.3827
鮒	-15.3828
妳	-15.3829
魈	-15.3829
髑	-15.383
髆	-15.3831
饉	-15.3832
闐	-15.3833
邉	-15.3834
譩	-15.3835
蜉	-15.3836
蒺	-15.3837
胯	-15.3838
灞	-15.3839
嬋	-15.384
祧	-15.3841
勖	-15.3841
鷓	-15.3842
髼	-15.3843
閈	-15.3844
皚	-15.3845
瘲	-15.3846
瀲	-15.3847
姮	-15.3848
徘	-15.3849
嚀	-15.3849
厔	-15.385
匐	-15.3851
匍	-15.3852
仔	-15.3853
㸲	-15.3854
𥐼	-15.3855
鷯	-15.3856
荏	-15.3857
臚	-15.3858
礴	-15.3859
熳	-15.386
㿗	-15.3861
馘	-15.3862
錮	-15.3863
蟆	-15.3864
瑠	-15.3865
琥	-15.3866
珀	-15.3867
猩	-15.3868
傉	-15.3869
霎	-15.387
轗	-15.3871
菁	-15.3872
芍	-15.3873
翺	-15.3874
潯	-15.3875
脽	-15.3876
矻	-15.3877
炯	-15.3878
潺	-15.3879
榑	-15.388
枸	-15.3881
㦎	-15.3882
踟	-15.3883
蠣	-15.3884
緲	-15.3885
瑘	-15.3886
攙	-15.3887
撢	-15.3888
慷	-15.3889
䨼	-15.389
酩	-15.3891
酊	-15.3892
慇	-15.3893
蹰	-15.3894
跎	-15.3895
𥆨	-15.3896
驃	-15.3897
邂	-15.3898
逅	-15.3899
琈	-15.39
崘	-15.3901
㑊	-15.3902
魎	-15.3903
轤	-15.3904
璝	-15.3905
娑	-15.3906
㻬	-15.3907
菖	-15.3908
桻	-15.3909
蚯	-15.391
嵯	-15.3911
鄲	-15.3912
啻	-15.3913
悵	-15.3914
狌	-15.3915
琊	-15.3916
㬰	-15.3917
醐	-15.3918
醍	-15.3919
糟	-15.392
逡	-15.3921
靂	-15.3922
瓏	-15.3923
骷	-15.3924
崆	-15.3925
峒	-15.3926
菩	-15.3927
蓉	-15.3928
螣	-15.3929
玕	-15.393
籖	-15.3931
孜	-15.3932
凰	-15.3933
嚨	-15.3934
茯	-15.3935
㒵	-15.3936
氤	-15.3937
虯	-15.3937
