<unk>	0
<s>	0
</s>	0
之	-3.96446
以	-4.60517
而	-4.78832
為	-4.8233
其	-4.91539
/	-5.01961
不	-5.02184
有	-5.07286
也	-5.14171
者	-5.16033
人	-5.18048
公	-5.21713
於	-5.32164
曰	-5.48737
(	-5.52815
一	-5.55238
無	-5.60966
上	-5.64732
自	-5.66595
事	-5.66713
)	-5.71699
則	-5.73579
大	-5.75131
)(	-5.75391
與	-5.76366
至	-5.82768
子	-5.82901
時	-5.87089
言	-5.87929
所	-5.90715
知	-5.9151
中	-5.91563
王	-5.95728
行	-6.01905
此	-6.08071
得	-6.08677
皆	-6.09409
又	-6.10065
在	-6.1057
矣	-6.14168
復	-6.15179
州	-6.15327
道	-6.17394
兵	-6.17607
是	-6.20316
及	-6.20369
然	-6.20751
亦	-6.21563
文	-6.22132
三	-6.23198
官	-6.23464
心	-6.24734
如	-6.25633
見	-6.26634
明	-6.28794
乃	-6.28894
先生	-6.2912
使	-6.29244
非	-6.32348
出	-6.32594
山	-6.33355
氏	-6.33788
故	-6.35903
臣	-6.35949
學	-6.36541
安	-6.36885
可	-6.37808
▁	-6.37852
生	-6.38089
正	-6.39225
書	-6.40507
用	-6.42093
理	-6.42737
後	-6.42761
即	-6.45513
下	-6.45868
民	-6.46223
從	-6.47533
于	-6.47533
入	-6.47774
國	-6.47892
何	-6.49423
相	-6.4955
當	-6.49643
天	-6.50015
今	-6.50946
乎	-6.52298
日	-6.52491
名	-6.53429
爾	-6.53687
欲	-6.54287
二	-6.55414
善	-6.5593
等	-6.56472
歸	-6.57348
命	-6.57538
多	-6.57789
將	-6.58478
必	-6.59438
進	-6.59547
已	-6.59811
遂	-6.60185
方	-6.6034
若	-6.60962
成	-6.61673
徳	-6.63406
請	-6.63471
立	-6.65162
謂	-6.65623
軍	-6.66486
令	-6.66719
四	-6.6879
世	-6.68913
同	-6.70671
能	-6.70914
未	-6.71681
禮	-6.72054
孫	-6.72141
定	-6.73604
聞	-6.74103
死	-6.75184
城	-6.75476
初	-6.75567
家	-6.75968
字	-6.77076
克	-6.77184
論	-6.78245
守	-6.78491
南	-6.78986
常	-6.794
意	-6.79577
長	-6.79661
先	-6.79718
士	-6.7972
詔	-6.80843
處	-6.81118
去	-6.81367
議	-6.81426
任	-6.81911
君	-6.82078
因	-6.82575
問	-6.82772
居	-6.83297
卒	-6.83391
年	-6.84365
元	-6.84492
來	-6.84625
吾	-6.85734
平	-6.86012
義	-6.86431
諸	-6.86523
原任	-6.86684
前	-6.87419
焉	-6.87522
雖	-6.87674
圖	-6.88234
實	-6.89311
張	-6.89914
法	-6.90178
李	-6.90891
本	-6.90898
都	-6.9101
陳	-6.91155
不可	-6.91528
門	-6.92095
五	-6.94516
授	-6.9457
且	-6.94758
既	-6.94802
海	-6.95797
惟	-6.96529
我	-6.96699
始	-6.97257
通	-6.97327
傳	-6.97835
外	-6.98142
作	-6.98405
分	-6.98705
齊	-6.98854
和	-6.9897
性	-6.99476
易	-6.99879
阿	-6.99972
舉	-6.99982
賜	-7.00193
賊	-7.00494
金	-7.00816
布	-7.01256
朝	-7.01324
物	-7.01504
特	-7.01631
過	-7.01633
天下	-7.01817
重	-7.01967
治	-7.0214
馬	-7.03263
甚	-7.03405
奏	-7.03423
起	-7.03648
師	-7.03972
力	-7.04797
達	-7.04811
武	-7.05128
原	-7.0532
水	-7.06001
主	-7.06047
地	-7.06557
清	-7.06635
發	-7.07275
以為	-7.07447
求	-7.07545
盡	-7.07597
親	-7.07609
取	-7.07693
直	-7.0779
帝	-7.08019
内	-7.08427
西	-7.09494
思	-7.10241
府	-7.10428
忠	-7.10594
衆	-7.10975
石	-7.11164
氣	-7.11367
云	-7.12836
稱	-7.13401
保	-7.13712
東	-7.13779
或	-7.14103
數	-7.14114
由	-7.14345
縣	-7.14616
志	-7.14899
夫	-7.15095
不能	-7.15482
宗	-7.1623
江	-7.1636
陽	-7.16722
語	-7.17485
益	-7.17714
色	-7.18424
政	-7.19039
身	-7.19103
還	-7.19686
古	-7.19719
經	-7.19721
嘗	-7.1986
仁	-7.20139
賢	-7.2044
應	-7.20625
間	-7.20785
獨	-7.2151
劉	-7.22491
宜	-7.23972
聖	-7.24751
少	-7.25288
髙	-7.25426
拜	-7.25447
六	-7.25702
父	-7.25884
周	-7.2596
德	-7.26129
改	-7.26941
萬	-7.27518
著	-7.2801
遷	-7.28031
司	-7.28233
納	-7.28761
深	-7.28873
兩	-7.29463
封	-7.29517
次	-7.29618
北	-7.29809
耳	-7.30515
現任	-7.30992
兼	-7.31179
格	-7.31203
濟	-7.31239
固	-7.31539
合	-7.3156
節	-7.31593
老	-7.31838
難	-7.32133
除	-7.32208
異	-7.323
泰	-7.32689
風	-7.3289
致	-7.33025
遣	-7.33184
章	-7.33242
興	-7.33553
加	-7.33602
哉	-7.33924
/)	-7.34203
誠	-7.34215
信	-7.34641
漢	-7.3549
凡	-7.3551
動	-7.35531
功	-7.35591
小	-7.35609
尚	-7.36112
敬	-7.37059
降	-7.37229
辭	-7.37238
林	-7.37292
祖	-7.37883
集	-7.38263
考	-7.38287
逺	-7.39053
黄	-7.40206
修	-7.40261
職	-7.40321
猶	-7.41131
樂	-7.41507
河	-7.41993
流	-7.43037
利	-7.43115
説	-7.43198
白	-7.43284
俱	-7.436
觀	-7.43622
奉	-7.43633
制	-7.43692
戰	-7.43809
巴	-7.43865
㑹	-7.43913
新	-7.44284
體	-7.44367
穆	-7.44836
屬	-7.45021
召	-7.4535
九	-7.45635
其子	-7.45739
終	-7.47157
服	-7.47347
便	-7.47355
宋	-7.47472
好	-7.47501
坐	-7.47596
受	-7.47614
福	-7.47791
里	-7.47865
卿	-7.48115
要	-7.48485
失	-7.48529
光	-7.48793
百	-7.48818
伯	-7.4905
吏	-7.49133
真	-7.49239
首	-7.4944
食	-7.49698
楊	-7.50342
止	-7.51045
罪	-7.5112
魯	-7.51129
地方	-7.51952
郡	-7.52438
舊	-7.52853
留	-7.53063
近	-7.53116
蘇	-7.53547
神	-7.53716
號	-7.53723
登	-7.53847
部	-7.54275
存	-7.54292
詩	-7.54541
敵	-7.54681
精	-7.54989
教	-7.5541
察	-7.55525
右	-7.55909
爲	-7.56335
往	-7.5768
寧	-7.5771
建	-7.57901
視	-7.58214
領	-7.58504
恩	-7.58645
路	-7.59058
亂	-7.59882
愛	-7.60169
母	-7.60194
吉	-7.60543
廣	-7.60547
陛下	-7.60909
就	-7.61163
望	-7.6124
極	-7.61509
病	-7.61616
對	-7.61869
遺	-7.61938
罷	-7.6212
田	-7.62379
鄉	-7.63203
八	-7.64298
退	-7.64322
豈	-7.6437
開	-7.64793
疾	-7.64924
尋	-7.65068
木	-7.65183
所謂	-7.65265
更	-7.65583
率	-7.65778
哈	-7.65804
果	-7.66164
龍	-7.66276
獻	-7.66628
遇	-7.66853
所以	-7.67036
而不	-7.67262
良	-7.67416
私	-7.67617
權	-7.67692
識	-7.67855
置	-7.67901
養	-7.67909
解	-7.67968
口	-7.67981
聲	-7.68409
吳	-7.68501
務	-7.68608
七	-7.68692
惡	-7.68761
餘	-7.68869
變	-7.68978
各	-7.69161
第	-7.69189
嵗	-7.6946
庫	-7.69491
太	-7.69506
羅	-7.69585
計	-7.70167
朝廷	-7.70407
疏	-7.70571
襲	-7.70727
不得	-7.71047
備	-7.71104
勒	-7.71261
再	-7.7136
永	-7.71723
告	-7.71732
反	-7.71788
攻	-7.71819
宣	-7.72044
諭	-7.72066
代	-7.72519
位	-7.72592
疑	-7.73531
史	-7.73713
邊	-7.73977
隨	-7.73984
念	-7.74095
記	-7.74106
京	-7.74241
嚴	-7.74708
孝	-7.75085
博	-7.75129
十	-7.75187
額	-7.75253
殺	-7.75386
謀	-7.75436
雲	-7.75703
才	-7.75761
省	-7.76346
如此	-7.76383
悉	-7.76412
贈	-7.76847
厚	-7.76924
左	-7.76947
伊	-7.77215
順	-7.77602
但	-7.77712
講	-7.7774
宫	-7.77907
絶	-7.78386
端	-7.78405
化	-7.78512
持	-7.78798
唐	-7.78824
具	-7.78844
廟	-7.7885
業	-7.79354
楚	-7.79697
晉	-7.80177
亡	-7.80272
弟	-7.80297
夏	-7.80382
貴	-7.80415
恐	-7.80696
臨	-7.8073
選	-7.80853
錫	-7.81148
郎	-7.81668
尤	-7.81691
素	-7.81892
許	-7.81979
赫	-7.82064
推	-7.82299
承	-7.82373
勝	-7.82454
侯	-7.82765
全	-7.82839
久	-7.83137
交	-7.83865
執	-7.84285
朕	-7.84426
征	-7.84565
春	-7.84848
拉	-7.84961
喜	-7.8502
薦	-7.85202
月	-7.85214
雅	-7.85243
按	-7.85497
别	-7.85755
元孫	-7.86085
延	-7.86303
耶	-7.86468
敗	-7.86504
學者	-7.86857
謝	-7.87448
表	-7.87764
簡	-7.88286
移	-7.88335
趙	-7.88598
載	-7.88857
顧	-7.88908
三年	-7.89227
女	-7.89302
營	-7.89402
並	-7.89462
不敢	-7.89582
御	-7.89649
崇	-7.89662
不知	-7.89875
乞	-7.9007
富	-7.90122
莫	-7.90131
情	-7.90377
英	-7.90629
胡	-7.91142
度	-7.91232
給	-7.91257
習	-7.91545
予	-7.91646
追	-7.91667
指	-7.91685
每	-7.9189
繼	-7.92256
堂	-7.92766
殿	-7.92838
附	-7.92853
叔	-7.92972
典	-7.9371
斯	-7.93932
目	-7.93967
憂	-7.94129
侍	-7.9414
汝	-7.94727
須	-7.95024
嘉	-7.95103
顯	-7.95375
㫖	-7.9556
景	-7.95753
恭	-7.95756
引	-7.95778
被	-7.9579
他	-7.96013
會	-7.96467
容	-7.96518
朱	-7.96643
鄭	-7.96771
葢	-7.96891
校	-7.96989
儒	-7.96994
破	-7.97156
二年	-7.97396
竒	-7.97702
君子	-7.98156
靈	-7.98433
願	-7.98504
大臣	-7.98608
設	-7.99009
手	-7.99082
轉	-7.99287
昭	-7.99295
儀	-7.99449
比	-7.99462
形	-7.99568
尚書	-7.99583
錢	-7.99806
華	-7.99819
勞	-7.99882
録	-8.00036
向	-8.00044
皇	-8.00131
於是	-8.00432
玉	-8.00673
擢	-8.0082
徐	-8.01085
足	-8.01742
報	-8.01851
盛	-8.01863
仲	-8.01973
責	-8.02245
彼	-8.0226
臺	-8.02296
只	-8.02342
塔	-8.02476
某	-8.02594
塞	-8.0269
衛	-8.03177
陵	-8.03738
感	-8.03954
仍	-8.04103
獄	-8.04146
曽孫	-8.04327
邑	-8.04371
土	-8.04685
幾	-8.04955
急	-8.05077
千	-8.05079
鎮	-8.05429
覺	-8.05689
充	-8.06007
勿	-8.06291
魏	-8.0635
列	-8.06391
調	-8.06925
秦	-8.07052
頭	-8.07118
韓	-8.07352
可以	-8.08074
歴	-8.08125
鄂	-8.08128
切	-8.08132
威	-8.08381
廢	-8.08399
高	-8.08408
夜	-8.08546
補	-8.08584
幸	-8.08801
車	-8.09216
副	-8.09224
累	-8.09659
徙	-8.0966
族	-8.09692
徒	-8.10068
尊	-8.10136
慶	-8.10163
進士	-8.10433
岱	-8.10554
黨	-8.11023
滿	-8.11149
大夫	-8.11224
擊	-8.1139
舍	-8.11417
陞	-8.121
敏	-8.1211
撫	-8.12418
昌	-8.12489
瑚	-8.12494
輔	-8.12696
勢	-8.12866
約	-8.12962
待	-8.12999
而已	-8.13162
科	-8.13337
曹	-8.13388
監	-8.1372
元年	-8.13807
害	-8.13836
辨	-8.13842
友	-8.14078
孟	-8.14102
爵	-8.14213
齋	-8.14535
赴	-8.14678
御史	-8.15006
希	-8.15345
舟	-8.15403
祠	-8.15521
輕	-8.15533
造	-8.15852
未嘗	-8.15935
統	-8.15989
而後	-8.16114
伏	-8.16164
索	-8.1622
紀	-8.16354
倫	-8.16456
衣	-8.16695
無所	-8.16846
音	-8.16927
騎	-8.17088
逆	-8.17368
讀	-8.17547
静	-8.17558
禁	-8.17579
草	-8.17726
屯	-8.17794
公曰	-8.17826
藏	-8.18144
器	-8.18188
牧	-8.18226
息	-8.18228
闗	-8.18636
敢	-8.1896
資	-8.19041
獲	-8.19187
烏	-8.19197
蓋	-8.19647
室	-8.19833
喪	-8.19844
共	-8.19898
仕	-8.20088
美	-8.20126
强	-8.20456
柱	-8.20468
廷	-8.21164
試	-8.21304
梁	-8.21478
連	-8.21502
賞	-8.21513
者也	-8.21632
積	-8.21636
最	-8.21646
怒	-8.21756
據	-8.21781
村	-8.22017
襲職	-8.22089
免	-8.22089
面	-8.22099
適	-8.22146
偽	-8.22176
窮	-8.22207
顔	-8.22307
原任驍騎校	-8.22378
邪	-8.22609
青	-8.22883
瑪	-8.23143
隂	-8.23271
却	-8.23351
謂之	-8.23352
負	-8.23623
将	-8.23843
渾	-8.23911
戒	-8.24025
祭	-8.24059
卒其子	-8.24095
謹	-8.24115
一日	-8.24261
總	-8.24295
空	-8.2451
散	-8.24517
機	-8.24637
逹	-8.25047
虚	-8.25323
愈	-8.2537
原任䕶軍校	-8.2543
撰	-8.25531
闕	-8.25536
康	-8.25562
羣	-8.25596
卷	-8.25729
籍	-8.25846
榮	-8.25846
之學	-8.25898
說	-8.26005
秋	-8.26035
聽	-8.2607
棄	-8.26076
蜀	-8.26166
越	-8.26371
運	-8.26681
昔	-8.26711
費	-8.26849
曾孫	-8.27025
溪	-8.27894
奪	-8.279
咸	-8.28533
曰吾	-8.28554
慮	-8.28797
狀	-8.28913
訓	-8.2903
迎	-8.29443
孔子	-8.29491
夷	-8.29637
帥	-8.29637
其孫	-8.29653
叛	-8.29754
詳	-8.29836
苦	-8.29889
憲	-8.30227
期	-8.30266
詞	-8.30331
曽	-8.30354
患	-8.30697
扵	-8.3099
𫝊	-8.31112
天子	-8.31576
懼	-8.31621
犯	-8.31622
明年	-8.31628
呼	-8.31668
佐	-8.31879
院	-8.31997
弗	-8.32142
聖人	-8.32296
郭	-8.32399
微	-8.32657
之心	-8.32693
錄	-8.32737
四世孫	-8.33476
優	-8.33501
序	-8.33592
有所	-8.33879
畏	-8.33968
編	-8.33989
隆	-8.34054
悟	-8.342
賦	-8.34349
屢	-8.34458
冦	-8.34489
源	-8.34537
專	-8.34559
工夫	-8.34622
沙	-8.34708
蔡	-8.34828
舒	-8.35035
篤	-8.35116
智	-8.35345
震	-8.35398
維	-8.35411
將軍	-8.35698
肅	-8.35827
盖	-8.35833
原任筆帖式	-8.35874
朱子	-8.3596
泉	-8.36017
薩	-8.36073
温	-8.36242
放	-8.36287
慎	-8.36427
季	-8.36428
湖	-8.36585
貢	-8.36592
五年	-8.36608
祀	-8.36653
左右	-8.36852
送	-8.36961
諫	-8.3703
允	-8.37047
境	-8.37072
其所	-8.37144
根	-8.37177
督	-8.37191
火	-8.37692
聚	-8.37776
到	-8.37924
勤	-8.37956
四年	-8.38145
禄	-8.38332
刑	-8.385
象	-8.38595
兮	-8.38879
吕	-8.3889
孤	-8.39054
并	-8.39344
委	-8.39491
防	-8.39501
圍	-8.39615
什	-8.39619
質	-8.39633
離	-8.39663
俗	-8.39781
亮	-8.40056
示	-8.40147
飛	-8.40156
斷	-8.40157
川	-8.40364
回	-8.4045
兄	-8.4051
呉	-8.40542
現	-8.40866
京師	-8.40964
答	-8.40979
收	-8.40985
䇿	-8.40985
揚	-8.41197
勇	-8.41235
閣	-8.41473
喀	-8.41636
洪	-8.41656
后	-8.41722
勸	-8.41835
避	-8.41915
革	-8.41917
末	-8.42003
訥	-8.4203
春秋	-8.42085
之所	-8.42271
程	-8.42439
走	-8.42527
酒	-8.42624
良知	-8.42627
條	-8.42809
澤	-8.42836
甲	-8.42911
救	-8.4309
施	-8.43114
援	-8.43192
滅	-8.43574
學士	-8.4367
丁	-8.43986
落	-8.4418
稍	-8.44207
寳	-8.44336
旗	-8.44398
寛	-8.445
尼	-8.4463
財	-8.44829
人心	-8.45054
范	-8.4529
擇	-8.45458
似	-8.45525
甫	-8.45627
否	-8.45633
斬	-8.457
嗣	-8.45743
碑	-8.45999
松	-8.46049
来	-8.46119
燕	-8.46133
討	-8.46134
喇	-8.46167
役	-8.46244
宻	-8.46507
商	-8.46554
蘭	-8.46616
市	-8.46709
劾	-8.46889
對曰	-8.46907
依	-8.47068
妄	-8.47189
工	-8.47269
黙	-8.47273
至於	-8.475
游	-8.47858
傷	-8.47993
釋	-8.48034
原任佐領	-8.48258
承襲	-8.48259
曰此	-8.48302
曾	-8.48348
之間	-8.48433
尹	-8.48435
客	-8.48493
寺	-8.48592
太子	-8.48701
巻	-8.48777
讀書	-8.48914
宿	-8.48942
巳	-8.48958
天下之	-8.49055
姓	-8.4909
墓	-8.49101
馳	-8.49134
剛	-8.49255
堅	-8.49302
密	-8.49397
遊	-8.49551
鼎	-8.49659
野	-8.4986
靜	-8.4988
己	-8.49887
孔	-8.49928
禪	-8.5001
輒	-8.50092
國家	-8.501
雜	-8.50119
天地	-8.50202
丹	-8.50261
貞	-8.50452
余	-8.51021
歲	-8.51092
接	-8.51106
惠	-8.51374
從征	-8.51427
庶	-8.51438
星	-8.51458
誅	-8.51536
庭	-8.52086
懐	-8.52115
關	-8.52185
署	-8.52275
休	-8.5274
危	-8.52774
差	-8.52838
忘	-8.5292
操	-8.5308
之子	-8.53239
殊	-8.53381
親王	-8.53417
筆	-8.53452
振	-8.53499
孟子	-8.53581
助	-8.53624
䕶	-8.53695
畢	-8.53929
虛	-8.54086
竟	-8.54169
珠	-8.54536
葉	-8.54652
然後	-8.54728
人也	-8.54783
曲	-8.54864
那	-8.55274
彦	-8.55697
杜	-8.55925
刻	-8.56697
係	-8.57001
葬	-8.57003
循	-8.57007
申	-8.57084
岳	-8.57163
佛	-8.57459
六年	-8.57507
南京	-8.57567
爭	-8.57762
卓	-8.57828
妻	-8.58083
掌	-8.58122
漸	-8.58353
貧	-8.58464
隠	-8.58735
便是	-8.59105
厯	-8.59133
誰	-8.59258
伐	-8.59307
早	-8.59455
哀	-8.59545
冠	-8.59577
步	-8.5963
冬	-8.59639
決	-8.5974
結	-8.60212
班	-8.60256
界	-8.60288
趨	-8.60321
怨	-8.60535
為之	-8.60609
薄	-8.6062
違	-8.60643
人之	-8.60654
折	-8.60735
畧	-8.60868
糧	-8.60898
聞之	-8.61025
宰相	-8.61298
户	-8.61396
茍	-8.61521
謁	-8.61542
皇帝	-8.61616
不足	-8.61716
管	-8.61776
招	-8.61913
兄弟	-8.61936
頗	-8.62235
莊	-8.62392
了	-8.62447
牛	-8.62639
之曰	-8.62682
偏	-8.62755
不為	-8.62856
類	-8.62971
乆	-8.62979
之後	-8.63085
太宗	-8.63391
例	-8.63452
托	-8.63481
五十	-8.63498
丞相	-8.63603
中書	-8.63748
淵	-8.63879
不及	-8.6411
介	-8.64174
虎	-8.64368
徃	-8.64373
弼	-8.64417
禍	-8.64443
敦	-8.64598
多爾濟	-8.64656
只是	-8.64801
藩	-8.65117
駐	-8.65292
未有	-8.65412
逐	-8.65455
夫人	-8.65615
勉	-8.65772
篇	-8.65891
淮	-8.66187
普	-8.66395
豐	-8.66564
河南	-8.6659
畫	-8.66626
乘	-8.66937
偕	-8.66997
茂	-8.67025
八年	-8.67075
來歸	-8.67203
惜	-8.67352
忽	-8.67438
傅	-8.67446
天理	-8.67468
二十	-8.67795
寜	-8.67993
乾	-8.68051
假	-8.68073
奮	-8.68101
之意	-8.68232
半	-8.68256
竊	-8.68393
略	-8.68436
何以	-8.68518
邦	-8.68654
江西	-8.6873
閩	-8.69082
品	-8.69126
貫	-8.69457
烈	-8.6948
判	-8.69554
一時	-8.69753
小人	-8.69816
十年	-8.69877
孰	-8.69965
參	-8.69969
述	-8.69996
綱	-8.70093
台吉	-8.7013
七年	-8.70346
欽	-8.70382
純	-8.70419
衡	-8.70521
嶺	-8.70773
於此	-8.70864
一人	-8.7089
大軍	-8.70933
愚	-8.71012
階	-8.7144
尉	-8.71655
之功	-8.71692
誦	-8.71748
兼佐領	-8.71808
辟	-8.71939
有司	-8.7194
之道	-8.72025
雨	-8.72059
軍校	-8.72258
賴	-8.72388
其後	-8.7242
札	-8.7262
圗	-8.72852
之言	-8.7311
浮	-8.73182
量	-8.73311
困	-8.73435
縱	-8.7351
翁	-8.7351
逮	-8.73524
䝉	-8.73542
現任䕶軍校	-8.73579
俊	-8.7378
上疏	-8.74021
花	-8.74064
)○	-8.74168
賚	-8.74294
虞	-8.74317
寵	-8.74324
陸	-8.74597
諱	-8.74674
仰	-8.74789
吏部	-8.74888
夀	-8.74977
乗	-8.75029
知其	-8.75089
升	-8.75144
射	-8.7526
脩	-8.75463
談	-8.75723
可謂	-8.76067
致仕	-8.76103
館	-8.76114
今日	-8.76143
律	-8.76191
徴	-8.76242
現任筆帖式	-8.76389
抑	-8.76401
以來	-8.76618
從之	-8.76772
擒	-8.76778
勲	-8.76917
董	-8.76973
誤	-8.76984
掠	-8.77083
沈	-8.77123
斥	-8.77222
住	-8.7726
奸	-8.77561
𨽻	-8.77815
三月	-8.77836
晚	-8.7795
雍	-8.78172
遣使	-8.78259
又曰	-8.78387
詣	-8.78388
僧	-8.78455
誣	-8.78531
險	-8.78549
㣲	-8.78562
其言	-8.7861
争	-8.78656
翰林	-8.78656
襄	-8.78795
丞	-8.78817
奔	-8.78878
貝勒	-8.78998
謨	-8.79142
輩	-8.7939
之士	-8.79395
毋	-8.79973
之説	-8.79988
上曰	-8.80057
第一	-8.80534
寂	-8.80734
夢	-8.80816
衞	-8.80825
現任驍騎校	-8.80889
雄	-8.81083
諸將	-8.81198
洛	-8.8123
米	-8.81288
諸生	-8.81395
笑	-8.81457
𩔖	-8.81579
躬	-8.81667
績	-8.81701
抵	-8.8174
噶爾丹	-8.8178
潛	-8.81818
如何	-8.81906
四十	-8.82174
横	-8.82278
决	-8.82457
材	-8.82472
築	-8.82559
無不	-8.8264
銀	-8.82651
干	-8.82686
哲	-8.8289
兒	-8.8305
究	-8.8307
訪	-8.83203
者皆	-8.83292
未幾	-8.83304
弊	-8.83333
禦	-8.83588
驚	-8.83612
扎	-8.83837
屈	-8.83839
唯	-8.83916
偉	-8.83941
丘	-8.83942
銘	-8.83962
謙	-8.84029
寨	-8.84044
照	-8.8406
衰	-8.84325
亭	-8.84615
預	-8.85034
盜	-8.85112
二人	-8.85728
由是	-8.85866
魚	-8.85885
而無	-8.86014
寡	-8.86017
戍	-8.86086
毎	-8.86113
郡王	-8.86142
有功	-8.86192
姑	-8.86362
旦	-8.86706
娶	-8.87032
員	-8.8715
晏子	-8.87172
自是	-8.87423
得其	-8.87437
廬	-8.87592
侍郎	-8.87659
隱	-8.87782
策	-8.87932
原任員外郎	-8.88093
三十	-8.88163
十二	-8.88281
拒	-8.88336
内外	-8.88387
寒	-8.88428
擾	-8.88467
叅	-8.8851
遽	-8.88729
遁	-8.88745
禮部	-8.89007
姦	-8.89284
况	-8.89388
秀	-8.89426
子孫	-8.89468
均	-8.89911
墨	-8.89938
正月	-8.89979
郎中	-8.90037
八月	-8.9005
付	-8.90063
泣	-8.90127
垂	-8.90173
效	-8.90207
浩	-8.90307
佳	-8.90317
卜	-8.90318
聖賢	-8.90555
逸	-8.90568
至是	-8.90604
俾	-8.90621
贊	-8.90686
包衣	-8.90697
四方	-8.90804
靖	-8.90831
扎薩克	-8.90954
侵	-8.91127
宰	-8.91231
足以	-8.91294
陜西	-8.91332
雷	-8.9136
秉	-8.91364
本體	-8.91372
欽定四庫全書	-8.9166
陽明	-8.91669
七十	-8.91821
大學士	-8.91845
的	-8.92027
邉	-8.92087
頃	-8.92348
鹽	-8.9236
陷	-8.92477
履	-8.92491
占	-8.9278
當時	-8.9284
自然	-8.93095
覆	-8.93121
遵	-8.93174
審	-8.93179
洪武	-8.93289
鼓	-8.93322
諾	-8.93475
言之	-8.93523
太祖	-8.93582
厲	-8.93633
暴	-8.9372
看	-8.9373
幼	-8.93862
格物	-8.94146
讓	-8.94189
亷	-8.94303
乾隆	-8.94304
式	-8.9431
貪	-8.9431
𢎞	-8.94467
増	-8.9471
徹	-8.94851
痛	-8.94868
寢	-8.94974
太守	-8.95057
仁宗	-8.95063
原任防禦	-8.95081
船	-8.95251
蕭	-8.95261
戎	-8.95291
懷	-8.95416
庸	-8.95549
壯	-8.9557
百姓	-8.95587
細	-8.95706
席	-8.95823
噶	-8.9585
歌	-8.95854
候	-8.95968
即位	-8.96045
四月	-8.96107
亟	-8.9615
句	-8.96245
啟	-8.96279
員外郎	-8.96292
賀	-8.96391
供	-8.96418
倉	-8.96439
忌	-8.96555
浚	-8.96559
碩	-8.96683
厥	-8.96729
門人	-8.96762
甘	-8.96791
是以	-8.96814
郊	-8.96856
規	-8.96972
妾	-8.96998
六十	-8.97106
案	-8.9716
二月	-8.97305
論曰	-8.97448
農	-8.97489
協	-8.97554
慕	-8.9756
此心	-8.97585
知之	-8.9759
之孫	-8.97804
陣	-8.97836
池	-8.97868
公之	-8.97871
萬物	-8.98251
謫	-8.98267
五月	-8.98346
恨	-8.98717
講學	-8.98723
完	-8.98829
也今	-8.98937
桂	-8.99035
捕	-8.99169
飲	-8.99246
儲	-8.99302
古人	-8.99311
勅	-8.99568
祥	-8.99575
▁(	-8.99591
蔽	-8.99604
之事	-9.00031
毁	-9.00034
嵩	-9.00264
卒子	-9.00348
不復	-9.00459
以此	-9.00474
給事中	-9.00515
十月	-9.00705
熟	-9.00796
戚	-9.00862
翼	-9.0087
洞	-9.00943
題	-9.00957
山東	-9.00995
必有	-9.01031
褒	-9.01075
九年	-9.01115
為人	-9.01134
其家	-9.01268
肆	-9.01415
閒	-9.01545
繫	-9.02006
惑	-9.02028
慈	-9.02153
薨	-9.02194
鍾	-9.02317
井	-9.02436
夫子	-9.02633
不然	-9.02742
賈	-9.02768
六月	-9.02827
駕	-9.02883
擬	-9.02902
九月	-9.02945
鼐	-9.03074
種	-9.03202
遜	-9.03206
激	-9.03366
恤	-9.03368
術	-9.03517
原任郎中	-9.0365
婦	-9.03667
欺	-9.03674
旁	-9.03978
倚	-9.03984
基	-9.04041
佐領	-9.04085
旋	-9.04393
託	-9.04468
陶	-9.04572
豪	-9.04619
貶	-9.04646
諡	-9.04656
之地	-9.04731
兆	-9.04742
桑	-9.04757
彭	-9.04891
先是	-9.05038
哭	-9.05075
僕	-9.05176
提	-9.05203
徵	-9.05217
毅	-9.05342
執政	-9.05364
父母	-9.05365
崔	-9.05629
寶	-9.05683
七月	-9.05686
僅	-9.05689
軒	-9.06195
宏	-9.06205
豫	-9.06271
聴	-9.06284
仙	-9.0631
不同	-9.06415
逃	-9.06652
台	-9.06752
橋	-9.06771
悔	-9.06812
國公	-9.06815
久之	-9.06954
太平	-9.07091
檄	-9.07258
壁	-9.07289
之時	-9.07421
禹	-9.07427
印	-9.07437
弱	-9.07594
削	-9.07598
是時	-9.07678
樹	-9.07764
馮	-9.07941
扎布	-9.07995
太后	-9.08001
焚	-9.08079
稽	-9.08198
投	-9.08225
速	-9.08414
殆	-9.08591
戸	-9.08756
嗚呼	-9.08757
亦不	-9.08811
鄧	-9.08858
粟	-9.08866
藥	-9.09039
做	-9.0922
汗	-9.09482
支	-9.09634
太極	-9.09697
士大夫	-9.09755
盟	-9.10027
屏	-9.10182
中庸	-9.10228
露	-9.10348
盗	-9.10381
文章	-9.10467
俟	-9.10482
尺	-9.10486
樓	-9.10516
帶	-9.1067
谷	-9.10827
檢	-9.10948
佟	-9.11003
裁	-9.11123
不以	-9.11308
十八	-9.11592
不過	-9.11642
輿	-9.1185
注	-9.11858
紹興	-9.1211
個	-9.12162
損	-9.12168
采	-9.12212
佳氏	-9.12254
翰	-9.12312
也故	-9.12338
舎	-9.12472
綽	-9.12511
平生	-9.12538
教授	-9.12614
饑	-9.12721
伊川	-9.1281
沒	-9.12874
其心	-9.12879
竹	-9.1299
瓦	-9.13053
所部	-9.13092
諸侯	-9.13291
享	-9.13362
羊	-9.13551
十五	-9.13702
荒	-9.13725
其事	-9.13799
已而	-9.13822
渠	-9.13843
妙	-9.13855
超	-9.13876
莫不	-9.13903
永樂	-9.13904
祖宗	-9.13914
五世孫	-9.1392
言者	-9.13947
耕	-9.1404
纔	-9.14055
喀爾喀	-9.14164
續	-9.142
厭	-9.14251
勵	-9.14378
警	-9.14412
抗	-9.14469
符	-9.14528
屋	-9.14715
辱	-9.1473
湯	-9.14745
祿	-9.14748
三等	-9.14864
訟	-9.1504
創	-9.15075
副使	-9.15079
鳴	-9.15233
儉	-9.15236
晦	-9.15253
如是	-9.15259
戴	-9.1526
大學	-9.15336
上下	-9.15336
一切	-9.15586
朔	-9.1568
扶	-9.1594
㸃	-9.16066
傾	-9.16116
幣	-9.16249
十一月	-9.16282
公為	-9.16589
幽	-9.16608
次子	-9.1673
背	-9.16786
覽	-9.16815
啓	-9.16822
未發	-9.16894
邵	-9.16914
文公	-9.17105
廉	-9.17139
恒	-9.17167
堪	-9.17246
人皆	-9.17254
十二年	-9.17477
都統	-9.17629
故事	-9.17634
赦	-9.17655
後世	-9.17664
歩	-9.177
故曰	-9.17905
兹	-9.18054
上書	-9.18076
太學	-9.181
淳	-9.18217
輙	-9.18219
政事	-9.18251
宇	-9.18376
缺	-9.18388
没	-9.18388
津	-9.18391
之謂	-9.18512
致知	-9.18676
導	-9.18679
歎	-9.18876
嘉靖	-9.1895
渡	-9.18983
綬	-9.19002
宴	-9.19198
眀	-9.19312
黜	-9.19493
學問	-9.19618
彌	-9.19637
輝	-9.19653
同族	-9.19674
不可以	-9.19783
金人	-9.19799
紹	-9.19827
房	-9.19978
澄	-9.20026
中外	-9.20083
恕	-9.20189
總兵	-9.2025
即是	-9.2033
慰	-9.20514
行之	-9.20726
舜	-9.20749
是也	-9.20814
阿爾	-9.20866
壽	-9.20878
整	-9.2094
不如	-9.21149
父子	-9.21196
額爾	-9.212
既而	-9.21457
姚	-9.21479
淺	-9.21484
司馬	-9.21556
減	-9.21626
敎	-9.21644
同知	-9.2173
等處	-9.21822
使人	-9.21898
邁	-9.22021
雪	-9.22023
味	-9.22076
悦	-9.22172
恃	-9.22219
何如	-9.22275
廵	-9.223
拱	-9.22351
環	-9.22382
菴	-9.22415
杖	-9.22534
泊	-9.22549
榜	-9.22623
輸	-9.22743
巖	-9.22784
一姓世居	-9.22924
十四年	-9.22924
配	-9.22938
徽	-9.22971
不許	-9.23229
弟子	-9.23296
秩	-9.23479
㓜	-9.23513
側	-9.23528
社稷	-9.2372
餉	-9.23831
鐵	-9.23894
不見	-9.23907
提舉	-9.24019
坦	-9.24089
彬	-9.24259
俸	-9.24386
遭	-9.24442
用之	-9.24613
古今	-9.24655
叙	-9.24798
先生曰	-9.248
十三年	-9.24837
千餘	-9.24915
子曰	-9.24958
都督	-9.24978
祐	-9.2499
賽	-9.25139
主事	-9.25275
堯	-9.25328
殷	-9.2535
裕	-9.25577
迹	-9.25597
瞻	-9.26369
之人	-9.26383
傑	-9.26402
荆	-9.26495
辦	-9.26539
雲南	-9.26546
俄	-9.26567
踰	-9.26583
堯舜	-9.2675
諌	-9.26907
旺	-9.26908
副都統	-9.2713
汪	-9.27148
憤	-9.27316
植	-9.2736
十二月	-9.27419
攝	-9.27505
鮮	-9.27568
羣臣	-9.27631
見其	-9.27683
育	-9.27749
虜	-9.27968
之理	-9.28078
子弟	-9.28094
歳	-9.28109
夕	-9.28197
竭	-9.28332
徑	-9.28521
出入	-9.28579
練	-9.28687
十一年	-9.28786
奇	-9.28896
紫	-9.29002
僚	-9.29042
併	-9.29106
十六	-9.29128
二十年	-9.29169
血	-9.29286
之則	-9.29432
䘮	-9.295
三人	-9.29577
㡬	-9.29598
現係	-9.29652
百餘	-9.29713
先帝	-9.29788
使者	-9.29832
明道	-9.30065
閩書	-9.30184
詩云	-9.302
諭曰	-9.30393
公言	-9.30436
之法	-9.30539
其人	-9.30589
康熙	-9.30647
旅	-9.3069
契丹	-9.30692
寄	-9.30694
倡	-9.30696
居正	-9.30886
江南	-9.30917
浦	-9.31086
十三	-9.31141
𤣥	-9.31164
現任佐領	-9.3121
人世居	-9.3138
斗	-9.31451
産	-9.31498
㕘	-9.31569
香	-9.31688
拔	-9.31936
靡	-9.31963
是非	-9.32071
宅	-9.32085
出於	-9.32451
這	-9.3251
竄	-9.32528
䕶軍校	-9.32581
長子	-9.32642
擊敗	-9.32664
噶爾	-9.32689
乏	-9.32722
像	-9.32725
一百	-9.32748
騎都尉	-9.32909
雙	-9.32967
皆有	-9.3306
災	-9.33074
通判	-9.33192
麗	-9.33343
跡	-9.33356
賛	-9.33501
潮	-9.33521
驛	-9.3354
也夫	-9.33545
其曽孫	-9.3371
潰	-9.33744
停	-9.33937
盧	-9.33947
誘	-9.34172
窺	-9.342
程子	-9.34376
園	-9.34386
幹	-9.34397
黒	-9.34418
赤	-9.34515
疆	-9.34591
景公	-9.3465
爾泰	-9.34819
修撰	-9.34966
賔	-9.34997
𠞰	-9.3503
逢	-9.3518
募	-9.35214
曉	-9.35221
懿	-9.35287
無事	-9.35385
賑	-9.35414
𦵏	-9.35514
斂	-9.35662
峯	-9.35844
瑞	-9.35845
浙江	-9.35879
簿	-9.35949
潔	-9.36029
綏	-9.36061
魁	-9.36268
姜	-9.36281
亨	-9.36305
前鋒	-9.36356
以下	-9.36361
遼	-9.36408
艱	-9.36456
凖噶爾	-9.36484
飾	-9.36491
寓	-9.36501
得之	-9.36809
衮	-9.36819
莽	-9.36908
衍	-9.36918
趣	-9.36945
之際	-9.37002
湖廣	-9.37021
所著有	-9.37097
袁	-9.37102
罰	-9.37138
閲	-9.37142
専	-9.37182
醫	-9.37355
數十	-9.3749
忤	-9.37522
聘	-9.37753
鳯	-9.37788
禮部尚書	-9.37794
襲職時削去	-9.38011
成化	-9.38036
蒙	-9.38089
芳	-9.38183
樞	-9.38212
國之	-9.3824
爾哈	-9.38306
八十	-9.38462
短	-9.38469
巡	-9.38522
活	-9.38597
社	-9.38609
憚	-9.38632
途	-9.38651
貝子	-9.38653
課	-9.38664
其間	-9.38731
又有	-9.38863
繁	-9.38871
歟	-9.38887
不肯	-9.38984
遠	-9.39063
冀	-9.3909
叅領	-9.39251
辯	-9.39275
明日	-9.39285
巨	-9.39292
其曾孫	-9.39307
彰	-9.39307
毛	-9.39324
薛	-9.39355
以其	-9.3939
聖人之	-9.3949
恥	-9.39515
借	-9.39516
矢	-9.39744
十餘	-9.39919
所得	-9.39986
梅	-9.40207
角	-9.40385
前後	-9.40404
童	-9.40421
融	-9.40439
道之	-9.40572
辰	-9.40619
熈	-9.40794
確	-9.40798
茶	-9.40866
吏部尚書	-9.41108
殺之	-9.41179
君臣	-9.41209
原係	-9.41295
河北	-9.41335
来歸年分無考	-9.4137
義理	-9.41378
至今	-9.41415
追封	-9.4145
騰	-9.41504
想	-9.41532
峻	-9.41533
與之	-9.41668
侍衛	-9.41823
不容	-9.41864
不出	-9.41895
尾	-9.41988
縁	-9.4212
三百	-9.42125
旣	-9.42143
達理	-9.42157
齡	-9.42221
而言	-9.42249
譽	-9.42395
流行	-9.42438
懇	-9.42444
之義	-9.42636
愧	-9.42752
不受	-9.4277
絡	-9.42906
和碩	-9.42926
廣東	-9.42973
阻	-9.43098
㠯	-9.43109
卑	-9.43123
蠻	-9.43172
終日	-9.43347
隂陽	-9.43363
者亦	-9.43363
河東	-9.43374
丈	-9.43413
䟽	-9.43545
買	-9.43554
州刺史	-9.43703
蕃	-9.43761
狂	-9.43794
煩	-9.43827
内閣	-9.4386
皇上	-9.43899
罕	-9.43973
寃	-9.44036
證	-9.44286
不忍	-9.44386
肯	-9.44404
桓	-9.4447
驕	-9.44521
忍	-9.44594
貨	-9.44714
戮	-9.44735
擅	-9.44736
吴	-9.44754
蕩	-9.44939
洋	-9.44942
悲	-9.44947
互	-9.44977
福建	-9.45005
終身	-9.45045
然則	-9.4517
殘	-9.45173
壘	-9.45174
滯	-9.45189
藝	-9.45251
天地之	-9.45278
○	-9.45298
楞	-9.45397
伍	-9.45421
不在	-9.45421
天命	-9.45432
驅	-9.45657
氣質	-9.4568
窮理	-9.45778
萬厯	-9.45822
也其	-9.45825
所在	-9.45995
塘	-9.46074
熊	-9.46096
倍	-9.46101
東南	-9.46224
十九	-9.46281
骨	-9.46346
逰	-9.46353
凝	-9.46387
底	-9.46404
三日	-9.46447
正統	-9.46499
十七	-9.46576
奬	-9.46601
蒼	-9.46615
洲	-9.46749
鑲黄旗	-9.46791
姬	-9.47151
地方人	-9.47168
公以	-9.47213
昇	-9.47256
祝	-9.47309
等兵	-9.47333
不必	-9.47409
日用	-9.47463
亦有	-9.47478
旨	-9.47487
岸	-9.47517
消	-9.47555
檜	-9.4759
不從	-9.47723
麟	-9.47726
纂	-9.47745
詰	-9.48027
錯	-9.48055
矯	-9.48211
頌	-9.48285
柄	-9.48296
十四	-9.48401
驗	-9.48491
努	-9.48505
以疾	-9.48505
玩	-9.48505
少保	-9.48511
緒	-9.4853
編修	-9.48559
旱	-9.48631
嬰	-9.48966
寇	-9.48994
從容	-9.49
名臣	-9.49055
衝	-9.49197
範	-9.49253
猷	-9.49266
不是	-9.49322
東林	-9.49393
十七年	-9.49396
鑲紅旗	-9.49477
堡	-9.49484
罔	-9.49485
用兵	-9.49632
白沙	-9.49642
指揮	-9.49789
不當	-9.4987
性之	-9.49872
盤	-9.4995
抱	-9.49953
頼	-9.50161
紛	-9.50225
伸	-9.50238
恩詔加	-9.50265
欲以	-9.50274
議論	-9.50283
勘	-9.50438
沮	-9.50455
之外	-9.50584
耿	-9.50661
塵	-9.50701
十九年	-9.50721
文集	-9.50736
三代	-9.50795
以示	-9.50803
安石	-9.50904
怪	-9.50924
藍	-9.50933
者必	-9.50978
磨	-9.50993
字子	-9.51058
鄙	-9.51169
也然	-9.51325
喬	-9.51442
峰	-9.51659
坤	-9.51705
包	-9.51713
踐	-9.51725
有餘	-9.5188
值	-9.51915
為滿洲一姓此	-9.52101
書院	-9.52127
厄魯特	-9.52185
神宗	-9.52191
所至	-9.52234
也若	-9.52332
上言	-9.52369
不至	-9.5246
析	-9.52465
認	-9.52508
晏	-9.52648
巴爾	-9.52705
曰朕	-9.52724
富貴	-9.52757
數百	-9.52788
緩	-9.52927
較	-9.5294
波	-9.52945
無一	-9.53026
諸公	-9.53047
貝	-9.53084
而去	-9.53176
偶	-9.53186
掃	-9.53215
淑	-9.53216
不善	-9.5323
無以	-9.53259
有一	-9.53343
瑾	-9.53385
杭	-9.53433
擁	-9.53456
遲	-9.53717
原任步軍校	-9.53721
古之	-9.53764
千里	-9.53772
第二	-9.53842
沉	-9.53928
誓	-9.53937
世居	-9.5414
忠義	-9.5417
增	-9.5417
崖	-9.54172
文字	-9.54226
黎	-9.54711
弓	-9.54749
蘭泰	-9.5479
暇	-9.54834
不報	-9.54854
脱	-9.54972
數日	-9.54975
以自	-9.55175
宦	-9.55278
儒者	-9.55396
十六年	-9.55442
姪	-9.55475
塗	-9.55509
遂以	-9.55617
公與	-9.5562
採	-9.55716
惻	-9.55754
誠意	-9.55763
知縣	-9.5577
驍騎校	-9.55778
三千	-9.55788
何也	-9.55818
豈不	-9.55858
然而	-9.5593
距	-9.55981
二百	-9.55983
經筵	-9.55988
銓	-9.55992
暮	-9.56023
裔	-9.56025
帛	-9.56163
召為	-9.56201
闢	-9.56244
返	-9.56271
不免	-9.56341
兵部	-9.56483
巡撫	-9.56518
正黄旗	-9.5653
囚	-9.5653
善惡	-9.56642
不勝	-9.56643
其元孫	-9.56661
畜	-9.56784
於朝	-9.56893
縁事	-9.5693
懸	-9.57276
碧	-9.573
氣象	-9.5735
見之	-9.57362
不相	-9.57573
韶	-9.57593
心之	-9.57658
從事	-9.57689
浙	-9.57706
之日	-9.57725
不合	-9.57765
撤	-9.57826
十五年	-9.57861
往往	-9.57988
十里	-9.58032
契	-9.58104
昏	-9.58119
之氣	-9.58176
不用	-9.58235
鄒	-9.58337
自古	-9.58347
拘	-9.58366
仁義	-9.58379
之中	-9.58389
奈何	-9.58401
掩	-9.58405
嗟	-9.58501
四川	-9.58589
飭	-9.58644
兵部尚書	-9.58645
于是	-9.58717
羽	-9.58733
錦	-9.58859
珍	-9.58897
柔	-9.58917
艾	-9.58942
大將軍	-9.58976
現襲職又	-9.59032
以待	-9.59095
他日	-9.59104
級	-9.59113
監察御史	-9.59131
倭	-9.59136
許之	-9.59173
滋	-9.59179
嗜	-9.59195
潜	-9.59197
可見	-9.59379
喻	-9.59441
註	-9.59448
皇太子	-9.59515
刺	-9.59637
相繼	-9.59671
貸	-9.59677
辛	-9.59814
諸軍	-9.59875
鎮國公	-9.59919
利害	-9.59968
沁	-9.59969
囘	-9.59979
軾	-9.59983
測	-9.60036
世忠	-9.6005
排	-9.60069
妃	-9.6021
鳳	-9.60223
盈	-9.60237
判官	-9.60388
謚	-9.60511
蘓	-9.60519
又言	-9.60577
豈可	-9.60817
數萬	-9.60842
毫	-9.60941
日月	-9.6104
不行	-9.61073
矜	-9.61074
博士	-9.61138
人物	-9.61232
用事	-9.61253
北京	-9.61287
鳥	-9.61313
詩曰	-9.61348
任佐領	-9.61538
潤	-9.61585
曰我	-9.61593
翰林院	-9.61617
凶	-9.61619
眞	-9.6162
少卿	-9.61672
諡文	-9.61689
鴻	-9.61798
不已	-9.61895
突	-9.61915
䕶軍叅領	-9.61921
諸子	-9.62076
保住	-9.62085
搆	-9.62125
従	-9.62131
展	-9.62181
咎	-9.62189
以兵	-9.62196
門下	-9.62201
相與	-9.6222
實録	-9.62387
人主	-9.62402
税	-9.62442
不與	-9.62496
吾心	-9.62531
授騎都尉	-9.62558
匿	-9.62679
汛	-9.62693
輯	-9.62744
進退	-9.62796
之所以	-9.62881
道理	-9.63063
達色	-9.6317
至此	-9.63251
瓊	-9.63285
一物	-9.63358
刀	-9.635
英宗	-9.63624
夾	-9.63803
邸	-9.63847
青海	-9.63867
總管	-9.63893
以聞	-9.64006
是年	-9.64009
三十年	-9.64105
凖	-9.64129
正藍旗	-9.64138
淫	-9.64164
大同	-9.64187
束	-9.64361
克圖	-9.64498
其身	-9.64598
寸	-9.64646
挾	-9.64686
榖	-9.64722
安得	-9.64845
▁初來歸	-9.64865
葉赫地方	-9.64898
三司	-9.64921
岡	-9.6494
俘	-9.64979
翰林學士	-9.64999
哩	-9.65144
真宗	-9.65157
東宫	-9.65169
有大	-9.6517
年四十	-9.65178
得失	-9.65183
貳	-9.65264
動静	-9.65322
文學	-9.65442
男	-9.65498
耀	-9.65516
二等	-9.6559
歎曰	-9.65634
為學	-9.65788
禮樂	-9.65811
咨	-9.65818
卒無嗣	-9.65841
者非	-9.66091
曰臣	-9.6613
天之	-9.66141
求之	-9.66154
不可不	-9.66244
不足以	-9.66258
閉	-9.66289
肉	-9.6634
先後	-9.66357
藉	-9.66361
悼	-9.66469
聰	-9.66531
鑑	-9.66542
舉進士	-9.66645
崩	-9.66662
中國	-9.66667
謗	-9.66698
局	-9.66703
恪	-9.66902
自有	-9.66987
限	-9.67006
推官	-9.67042
其中	-9.67066
者以	-9.67083
元祐	-9.67117
一事	-9.6728
人情	-9.67301
進士第	-9.67504
逼	-9.67516
漕	-9.67521
珪	-9.67525
文武	-9.67548
奚	-9.67585
叙功	-9.67769
卧	-9.67799
準	-9.67834
之本	-9.68232
列傳	-9.68332
頓	-9.68333
璘	-9.68377
呂	-9.68392
閱	-9.68393
中原	-9.68399
騎校	-9.68446
之罪	-9.68448
布衣	-9.68523
標	-9.68693
舞	-9.68693
旌	-9.68713
潘	-9.68734
萬餘	-9.68782
未嘗不	-9.68792
賤	-9.68842
港	-9.68964
隔	-9.68966
卒其	-9.69017
國初	-9.69054
䕶軍	-9.6906
誥	-9.69147
鑒	-9.69267
邀	-9.69284
絳	-9.69287
濓	-9.69299
収	-9.69318
鋒	-9.69495
性命	-9.69518
畿	-9.69536
單	-9.69564
強	-9.69594
㳺	-9.69604
成都	-9.69617
誼	-9.6964
車凌	-9.69712
薩哈	-9.69731
先聖	-9.69747
陜	-9.69766
正紅旗	-9.69916
長史	-9.70053
建康	-9.70135
又以	-9.70149
三遇	-9.70176
百官	-9.70223
死者	-9.70227
往來	-9.70281
十八年	-9.70408
凌	-9.70452
州縣	-9.70498
十一	-9.70719
君之	-9.70745
韋	-9.70764
未能	-9.70976
雲騎尉	-9.71058
太原	-9.71151
𢎞治	-9.71247
多羅貝勒	-9.71328
段	-9.714
侍讀學士	-9.71554
日生外氏	-9.71568
其弟	-9.71574
詢	-9.71724
原任主事	-9.7192
議者	-9.71973
塲	-9.71985
其學	-9.72048
大事	-9.72095
及其	-9.7223
鏡	-9.72323
涉	-9.72354
小名	-9.72355
數年	-9.72367
嘆	-9.7237
總督	-9.72384
皇后	-9.72402
護	-9.72469
之體	-9.72514
六經	-9.72528
而下	-9.72551
召還	-9.72586
有二	-9.72592
齒	-9.72601
来歸	-9.72644
耳目	-9.72688
進士授	-9.72825
鑿	-9.72888
溺	-9.72899
秘	-9.72931
上以	-9.73025
自得	-9.73035
不宜	-9.73049
擊賊	-9.73096
無窮	-9.73099
達什	-9.7312
不言	-9.73132
僉事	-9.73193
可也	-9.7321
措	-9.7321
人所	-9.73214
擊之	-9.73219
皆以	-9.73234
羌	-9.73235
小字	-9.73287
陣亡	-9.73301
匹	-9.73563
之初	-9.73639
龜山	-9.73646
率兵	-9.73671
世之	-9.73687
陰	-9.7376
紅	-9.73842
璧	-9.74137
知府	-9.74152
挺	-9.74156
把	-9.74267
未可	-9.74353
詐	-9.7448
多羅	-9.74508
不忘	-9.7456
矩	-9.74748
熹	-9.74759
巢	-9.74782
疎	-9.7482
詠	-9.74849
帝王	-9.7497
所為	-9.74984
者為	-9.74995
洗	-9.75079
貌	-9.75102
銜	-9.7511
之臣	-9.7511
眷	-9.75114
山西	-9.75331
是故	-9.75359
天地萬物	-9.75425
妻子	-9.75487
稱其	-9.75496
中有	-9.75558
為文	-9.75845
於心	-9.75852
士卒	-9.75864
歴任	-9.75918
扎薩克一等台吉	-9.75946
世祖	-9.76017
怠	-9.76058
鋭	-9.76069
祁	-9.76087
劍	-9.763
敷	-9.76381
十餘年	-9.76419
人以	-9.76567
曽祖	-9.76643
勑	-9.76648
多所	-9.76665
其意	-9.76673
障	-9.76691
公卿	-9.76776
䕶衛	-9.76806
當世	-9.76892
數月	-9.76909
以求	-9.76974
億	-9.76986
競	-9.76988
酌	-9.77004
地方人其孫	-9.7705
至善	-9.7707
敗之	-9.77081
碩色	-9.77173
䝉古	-9.77242
終不	-9.77286
邇	-9.7729
者多	-9.7736
蓄	-9.77367
不識	-9.77538
敕	-9.77601
料	-9.77604
該	-9.77633
鹿	-9.77644
宮	-9.77658
長安	-9.77763
輔國公	-9.77868
以是	-9.77902
妣	-9.77902
五百	-9.77916
紳	-9.77932
霍	-9.77936
沿	-9.7794
侍講	-9.77966
炳	-9.77982
襲扎薩克	-9.77985
諸儒	-9.77995
起居	-9.78004
睿	-9.78008
奏曰	-9.7802
此書	-9.78104
歡	-9.78261
酋	-9.78263
詆	-9.78285
詭	-9.783
誌	-9.783
猛	-9.78312
僉	-9.78317
為一	-9.78345
性也	-9.78417
筆帖式	-9.78444
際	-9.78513
工部	-9.78528
朗	-9.78537
栁	-9.78625
不動	-9.78693
此理	-9.78747
一言	-9.78785
嫌	-9.78884
禮部侍郎	-9.78957
鶴	-9.78959
忿	-9.78984
海内	-9.79208
不得已	-9.79224
撃	-9.79239
貽	-9.79247
割	-9.79263
未至	-9.79265
俱原任	-9.79279
饒	-9.79329
南北	-9.79386
縣令	-9.795
其先	-9.79558
森	-9.79584
宥	-9.79584
駭	-9.79595
閭	-9.79595
佞	-9.79607
入覲	-9.79713
中丞	-9.79833
葛	-9.7984
六世孫	-9.79902
琥	-9.79907
墜	-9.79927
塟	-9.79934
二子	-9.80008
其地	-9.80032
熙	-9.80181
任驍騎校	-9.8025
妖	-9.80286
晝夜	-9.80293
則有	-9.80419
一旦	-9.80422
未必	-9.80439
恩詔所	-9.80449
四人	-9.80455
廓	-9.80582
逾	-9.80598
轍	-9.80628
而有	-9.80637
氏曽祖	-9.80646
鐸	-9.80649
世孫	-9.80667
垣	-9.8086
而不知	-9.80867
苑	-9.80893
栢	-9.80896
謬	-9.80915
諷	-9.80936
冊	-9.80941
霸	-9.8095
慨然	-9.81008
聖學	-9.81041
亦無	-9.81078
達爾	-9.81108
蔣	-9.81232
豈有	-9.81261
匪	-9.81281
之門	-9.81349
一毫	-9.81383
眼	-9.81508
澳	-9.81522
元帥	-9.81561
墮	-9.81562
歛	-9.81589
嫁	-9.81615
隙	-9.81617
不息	-9.81825
而已矣	-9.81864
鈔	-9.81897
遣人	-9.81929
捷	-9.81943
雅圖	-9.82005
州人	-9.82099
爾圖	-9.82146
隋	-9.82188
丕	-9.82227
徇	-9.82242
二千	-9.82317
未及	-9.82395
諸臣	-9.82469
將士	-9.82531
膺	-9.82548
粹	-9.82581
一念	-9.82583
轉運使	-9.82601
受命	-9.82635
宗即位	-9.82735
況	-9.82893
仇	-9.82895
之故	-9.8292
嚕	-9.82927
頴	-9.82937
濫	-9.8294
壇	-9.82945
鑲藍旗	-9.82963
陋	-9.82968
溝	-9.82978
鬼神	-9.82996
正白旗	-9.83007
四書	-9.83012
洛陽	-9.83132
沛	-9.83177
祚	-9.83263
牙	-9.83268
壊	-9.83273
不失	-9.83301
潭	-9.8342
天順	-9.83426
糾	-9.83544
蒲	-9.83583
數千	-9.83587
俞	-9.83612
暨	-9.83617
為本	-9.83638
不聽	-9.83709
始終	-9.83774
雖有	-9.83787
莫敢	-9.83791
改元	-9.838
王氏	-9.83834
湛	-9.83903
午	-9.83933
十萬	-9.83967
㨗	-9.8401
不自	-9.8414
巴顔	-9.84241
覩	-9.84288
帖	-9.84296
涵養	-9.84341
城中	-9.84467
書曰	-9.84553
不欲	-9.84557
頒	-9.84612
人欲	-9.8462
譜	-9.84623
國子監	-9.84645
願陛下	-9.84647
捐	-9.84662
蹈	-9.84664
其罪	-9.84771
臣等	-9.84931
恵	-9.84951
鄰	-9.84963
訴	-9.85014
都御史	-9.85168
㧞	-9.85296
查	-9.85315
繩	-9.85319
冒	-9.85331
刑部	-9.85438
曰卿	-9.85468
得罪	-9.85542
鄂爾	-9.8565
倒	-9.85662
時有	-9.85668
仗	-9.85675
臯	-9.85683
歐陽	-9.85718
也而	-9.85839
之㫖	-9.85841
屯田	-9.85963
庶吉士	-9.86011
恣	-9.86024
巧	-9.86035
誨	-9.86063
萬世	-9.86092
城下	-9.8616
原任典儀	-9.86185
臧	-9.8619
郡守	-9.86191
觀之	-9.86234
成功	-9.86277
快	-9.86331
庠	-9.86376
岐	-9.86384
昧	-9.86411
現任防禦	-9.86457
而歸	-9.86464
論語	-9.86473
言曰	-9.86579
大抵	-9.86606
其志	-9.86648
曰陛下	-9.86691
所居	-9.86701
頤	-9.86739
東西	-9.86872
者乎	-9.86875
太常	-9.86941
者不	-9.86948
朋	-9.87012
孺	-9.87041
濠	-9.87072
茅	-9.87077
島	-9.87088
其父	-9.8709
截	-9.87094
懲	-9.87141
為善	-9.87341
偵	-9.87412
溥	-9.87415
其實	-9.87428
㠘	-9.87428
衷	-9.87454
其功	-9.87495
漏	-9.87528
晝	-9.87726
命公	-9.8781
輟	-9.87811
萌	-9.87814
阜	-9.87831
卦	-9.87844
奏事	-9.87907
曰汝	-9.87975
見得	-9.88119
批	-9.88128
混	-9.8815
劇	-9.88152
粗	-9.88183
而行	-9.88222
曰昔	-9.88272
淵源	-9.88275
户部	-9.88292
都尉	-9.88367
裏	-9.88442
順治	-9.88449
奠	-9.88497
觸	-9.88508
眉	-9.88508
探	-9.88519
牽	-9.88522
官至	-9.88618
以告	-9.88695
襲封	-9.887
薩爾	-9.888
主宰	-9.88859
鈕	-9.88877
囊	-9.88892
廣西	-9.88958
授雲騎尉	-9.88972
年七十	-9.89037
哈達	-9.89137
元昊	-9.89265
各有	-9.89371
察哈爾	-9.89432
漳	-9.89483
二字	-9.89484
國史	-9.8954
懋	-9.8958
弛	-9.89638
言行	-9.89648
銘曰	-9.89671
風俗	-9.89693
庶幾	-9.89755
家居	-9.89842
冕	-9.89902
呈	-9.89913
之語	-9.89917
畨	-9.89922
以上俱附載	-9.89935
㓂	-9.89948
牒	-9.89963
天性	-9.90051
未知	-9.90178
江淮	-9.90279
不易	-9.90301
胥	-9.90327
衣冠	-9.90407
之志	-9.9048
敗賊	-9.90493
心也	-9.90587
年五十	-9.90667
飢	-9.90685
汴	-9.90694
俯	-9.90697
出為	-9.90717
延平	-9.90787
精神	-9.90866
域	-9.90978
崇禎	-9.90998
知制誥	-9.9105
也公	-9.9106
毒	-9.91062
樞密	-9.91094
驍	-9.91221
鄉里	-9.91268
項	-9.91282
惇	-9.91403
穀	-9.91461
祭酒	-9.91461
行在	-9.91629
坊	-9.91752
勁	-9.91766
來朝	-9.91817
憾	-9.91822
溢	-9.9183
皮	-9.91842
弔	-9.91843
曰今	-9.91866
人才	-9.91892
軍中	-9.91964
留守	-9.92043
麻	-9.92117
為主	-9.92141
如故	-9.92164
槩	-9.92169
稅	-9.9218
奴	-9.92183
曠	-9.9221
其衆	-9.92274
百里	-9.92283
固山貝子	-9.92304
健	-9.92489
緣	-9.9254
穴	-9.92543
撓	-9.92583
醉	-9.926
飲食	-9.927
周公	-9.92704
家人	-9.92786
襲職卒其子	-9.92828
棟	-9.92859
壞	-9.92864
耆	-9.92879
銅	-9.92892
不顧	-9.92899
譏	-9.9294
番	-9.92973
大敗	-9.93016
鄉人	-9.93041
變化	-9.9308
帝曰	-9.93244
閑	-9.93273
副都御史	-9.93308
賂	-9.93309
縉	-9.93362
宣撫	-9.93414
其餘	-9.93483
上命	-9.93526
第三子	-9.93556
玠	-9.93634
昭烈	-9.93677
迫	-9.93681
紙	-9.93723
劄	-9.93724
里第	-9.93747
任筆帖式	-9.94006
即日	-9.94037
脅	-9.94042
所著	-9.94077
帳	-9.94083
氣之	-9.94085
諒	-9.94106
矣然	-9.94121
京兆	-9.94148
戸部	-9.94249
教人	-9.94252
効	-9.94294
不幸	-9.94297
座	-9.94386
圓	-9.94389
言事	-9.94392
絲	-9.94426
睦	-9.94455
同列	-9.94507
與人	-9.9467
有㫖	-9.94702
鐘	-9.94801
影	-9.94836
所言	-9.95013
事物	-9.95127
其才	-9.95155
爽	-9.95176
三等輕車都尉	-9.95286
宣徳	-9.953
大小	-9.9531
西山	-9.95364
之計	-9.95399
曰是	-9.95455
天聰時来歸	-9.95567
祗	-9.95576
隴	-9.95579
哈爾	-9.95612
原任牧長	-9.95627
修身	-9.95699
公在	-9.95759
聰明	-9.95771
國初来歸其	-9.9578
孝友	-9.9582
俱原任筆帖式	-9.959
顔子	-9.96035
一等	-9.96075
曰君	-9.96086
龜	-9.96166
朝夕	-9.96221
品官	-9.96251
體認	-9.96276
羅卜藏	-9.96343
漁	-9.9635
戈	-9.96352
直學士	-9.96389
所屬	-9.96544
平章	-9.96631
本末	-9.96683
區	-9.96717
額駙	-9.96726
琦	-9.96734
吟	-9.96737
踵	-9.96739
隅	-9.96747
福州	-9.96835
大義	-9.96991
遏	-9.97106
二十一年	-9.97108
慎獨	-9.97112
轄	-9.97118
躍	-9.97133
以身	-9.97134
狄	-9.97144
肇	-9.97159
達爾漢	-9.97187
以上	-9.97247
流賊	-9.97249
太尉	-9.97255
在此	-9.97343
譬	-9.97362
陳氏	-9.97395
輔臣	-9.97408
廷臣	-9.97443
▁初来歸	-9.97467
亦是	-9.97472
敝	-9.97505
偃	-9.97591
裴	-9.97861
殁	-9.97897
荷	-9.979
迷	-9.9791
鎭	-9.97911
原任歩軍校	-9.97939
沂	-9.97976
景泰	-9.97983
任䕶軍校	-9.97991
孔子曰	-9.98027
莫能	-9.98119
經史	-9.98152
鄉試	-9.9818
士竒	-9.98199
又何	-9.982
璫	-9.98235
諸路	-9.98278
租	-9.98281
戲	-9.98292
含	-9.98298
不盡	-9.98303
渉	-9.98312
軰	-9.98351
宗室	-9.98377
天道	-9.9842
反覆	-9.98458
衮布	-9.98463
鑲白旗	-9.98524
人有	-9.98609
鬼	-9.98609
笑曰	-9.98619
洽	-9.98692
之勢	-9.98694
蓀	-9.98698
勦	-9.98707
伺	-9.98721
閔	-9.98746
者則	-9.99011
同族世居	-9.99091
價	-9.99094
錦衣	-9.99127
車駕	-9.99159
一也	-9.99178
開封府	-9.99183
其門	-9.99213
桑格	-9.99281
而卒	-9.99425
織	-9.99467
自此	-9.9947
見於	-9.99505
梓	-9.9954
以爲	-9.99595
謂其	-9.99686
苗	-9.99865
都察院	-9.99911
長子乾隆	-10.0003
知覺	-10.0006
之要	-10.0012
渭	-10.0026
隸	-10.0027
甚衆	-10.0028
掖	-10.003
賣	-10.0034
透	-10.0034
匡	-10.0035
不起	-10.0036
分無考	-10.0036
左侍郎	-10.0044
騷	-10.007
諸王	-10.008
渡江	-10.0082
之禮	-10.0085
班第	-10.0086
喜怒哀樂	-10.0087
下詔	-10.0091
不聞	-10.0094
聞其	-10.0096
婚	-10.0108
太師	-10.0109
竇	-10.0109
郡縣	-10.0109
場	-10.0112
涇	-10.0114
理學	-10.012
有言	-10.0123
上意	-10.0123
無所不	-10.0123
不少	-10.0125
主簿	-10.0127
公獨	-10.0133
不肖	-10.0136
貴州	-10.014
諡曰	-10.0141
稿	-10.0149
疇	-10.0151
中書舍人	-10.0152
嚮	-10.0152
醇	-10.0153
而死	-10.0154
衢	-10.0155
儼	-10.0155
不仕	-10.0168
腹	-10.0168
宗廟	-10.017
無可	-10.0172
寡人	-10.0187
佩	-10.0192
讐	-10.0193
博學	-10.02
之說	-10.0205
聞見	-10.0207
直言	-10.0216
司徒	-10.0217
守備	-10.0223
十名	-10.0229
溫	-10.0232
巴圖	-10.0233
中興	-10.0233
凱	-10.0234
可乎	-10.0235
鞏	-10.0237
黃	-10.024
若不	-10.0249
力行	-10.0252
暫	-10.0272
濬	-10.0274
泛	-10.0274
萬人	-10.0276
彈	-10.0277
釋氏	-10.0277
黑	-10.0278
慢	-10.0279
不若	-10.028
傍	-10.0281
失其	-10.0297
乙	-10.0298
淡	-10.0311
莆	-10.0314
為政	-10.0315
慷慨	-10.0316
枝	-10.0318
䘏	-10.0319
虐	-10.0319
一體	-10.032
瀋陽地方	-10.0322
廵撫	-10.0324
無他	-10.0335
五人	-10.0338
霄	-10.0349
侈	-10.0359
以禮	-10.0359
學校	-10.036
之變	-10.0361
寅	-10.0362
藴	-10.0363
御史中丞	-10.0366
而止	-10.0366
秦檜	-10.037
一字	-10.0373
中官	-10.0376
防禦	-10.0381
現襲	-10.039
四海	-10.0393
二十四	-10.0395
浪	-10.0395
公奏	-10.0399
禧	-10.04
為國	-10.0403
泉州	-10.0403
有志	-10.041
可得	-10.041
之徒	-10.0413
西北	-10.0425
於人	-10.0428
忠信	-10.0432
揚州	-10.0432
聞者	-10.0437
賄	-10.0442
琳	-10.0443
大節	-10.0443
僻	-10.0444
夘	-10.0444
貲	-10.0444
不就	-10.0449
服除	-10.0449
現任員外郎	-10.0465
而能	-10.047
好惡	-10.0479
以備	-10.0479
好學	-10.0483
惰	-10.0486
酬	-10.0486
滿洲	-10.0491
亦可	-10.0497
著書	-10.05
賢者	-10.0505
節度	-10.0511
齎	-10.0527
乃以	-10.053
侃	-10.0534
何為	-10.0537
山川	-10.0539
諸葛	-10.055
先儒	-10.0551
所見	-10.0551
百萬	-10.0551
生死	-10.056
姓名	-10.0563
聖賢之	-10.0566
尸	-10.0569
械	-10.0569
穿	-10.0574
二十二年	-10.0575
復以	-10.0587
則無	-10.0593
一二	-10.0602
施行	-10.0603
於外	-10.0605
贍	-10.0613
奥	-10.0614
忠臣	-10.0614
評	-10.0615
累遷	-10.0618
公諱	-10.0619
五千	-10.0625
所以為	-10.063
婦人	-10.0643
獵	-10.0654
騐	-10.0658
察罕	-10.066
訃	-10.0662
時時	-10.0665
嘆曰	-10.0687
壩	-10.069
額爾徳尼	-10.069
車稜	-10.0695
事君	-10.0695
漠	-10.0699
召對	-10.0699
鑄	-10.07
羞	-10.0705
効力	-10.0714
郡志	-10.0715
地方人其子	-10.0719
代之	-10.0719
安國	-10.0723
自謂	-10.0726
行事	-10.0734
以進	-10.0738
煥	-10.0741
冝	-10.0742
掾	-10.0742
泰原任	-10.0755
故其	-10.0762
道者	-10.0778
矣故	-10.0778
出知	-10.0783
司空	-10.0783
濁	-10.0786
曷	-10.0786
嶽	-10.0786
㢘	-10.0786
藁	-10.0787
庻	-10.0787
九十	-10.079
神道	-10.0798
嘉祐	-10.0799
本心	-10.08
侍讀	-10.0802
涵	-10.0826
賓	-10.0827
不問	-10.0828
徧	-10.0833
泗	-10.0834
蹇	-10.0834
朴	-10.0835
江陵	-10.0841
布政使	-10.0844
於世	-10.0849
甞	-10.0851
贈雲騎	-10.0854
君子之	-10.0858
矣而	-10.0859
少師	-10.0864
百年	-10.0867
佛氏	-10.0868
汲	-10.0869
魂	-10.087
其説	-10.0873
隘	-10.0873
而還	-10.0875
冲	-10.0875
地方人其	-10.0879
嘉納	-10.0889
派	-10.0893
以歸	-10.0895
當以	-10.0897
旬	-10.0901
之名	-10.0904
言其	-10.0913
炎	-10.0915
爾等	-10.0915
輪	-10.0916
恬	-10.0917
僖	-10.092
之性	-10.092
箇	-10.092
禀	-10.0924
奉命	-10.094
不絶	-10.0946
一個	-10.0956
爾布	-10.0956
幕	-10.0958
飬	-10.096
墳	-10.096
披	-10.0961
翎	-10.0962
樸	-10.0962
藻	-10.0964
大理	-10.0964
谿	-10.0968
繹	-10.0968
程朱	-10.0988
襄陽	-10.0996
今之	-10.0998
刼	-10.1001
孚	-10.1002
監司	-10.1005
荘	-10.1007
李氏	-10.1009
觀其	-10.1013
又云	-10.1015
檢討	-10.1016
烏珠	-10.1016
刺史	-10.1022
二日	-10.104
故也	-10.1043
也此	-10.1045
二十七年	-10.1045
心體	-10.1047
擊賊陣亡	-10.1053
峽	-10.1053
瑜	-10.1054
泥	-10.1055
之盛	-10.1061
受業	-10.1064
也又	-10.1083
原任驍	-10.1086
五經	-10.1094
駁	-10.1095
之弊	-10.1096
揮	-10.1097
片	-10.1098
釋之	-10.1106
贈太師	-10.1107
髙祖	-10.1125
論事	-10.1133
鎮江	-10.1136
哈達地方	-10.1139
髪	-10.1141
達瓦齊	-10.1145
必以	-10.1146
誕	-10.1148
平日	-10.1155
時政	-10.1158
守之	-10.1159
王公	-10.1165
珠爾	-10.1172
龍溪	-10.1174
大怒	-10.1175
蠲	-10.1186
讒	-10.1188
柏	-10.1189
懈	-10.119
攜	-10.1193
學術	-10.1193
二三	-10.1195
松山	-10.1196
詩文	-10.1201
可為	-10.1209
文定	-10.1214
問曰	-10.1219
其名	-10.122
至于	-10.1226
暑	-10.1227
倖	-10.1229
枉	-10.1231
潞	-10.1231
觧	-10.1233
二公	-10.1237
朋友	-10.1239
王曰	-10.1243
侍中	-10.1248
用功	-10.1253
人臣	-10.1262
相傳	-10.1262
布爾	-10.1266
武帝	-10.1268
之才	-10.127
參政	-10.1271
坎	-10.1276
親征	-10.1276
諾爾布	-10.1277
五日	-10.128
昨	-10.1281
尼堪	-10.1283
氷	-10.1283
括	-10.1285
入見	-10.1286
文忠	-10.1286
襲職任	-10.1289
之妙	-10.1292
正心	-10.1296
國朝	-10.1301
萬里	-10.1304
故不仕祖	-10.1311
錦州	-10.1315
本無	-10.1315
禱	-10.1322
齋先生	-10.1324
帖式	-10.1324
分明	-10.1329
詹	-10.1336
國事	-10.1337
之論	-10.1342
只在	-10.1351
内侍	-10.1354
虧	-10.1362
和議	-10.1365
或有	-10.1367
之命	-10.1369
湘	-10.1369
疲	-10.1371
翊	-10.1373
以死	-10.1379
襲扎薩克一等台吉	-10.1394
原任䕶軍	-10.1406
罵	-10.1411
陟	-10.1414
償	-10.1416
索諾木	-10.1416
㫁	-10.1416
叟	-10.1421
澹	-10.1421
大本	-10.1422
孚敬	-10.1434
更無	-10.1435
元豐	-10.1437
不明	-10.1452
其母	-10.1452
正徳	-10.1453
添	-10.1458
盡心	-10.146
冗	-10.1462
帑	-10.1462
欵	-10.1464
物也	-10.1466
天祥	-10.1466
講論	-10.1478
而不能	-10.1488
為相	-10.15
入朝	-10.1503
烏喇地方	-10.1504
裂	-10.1505
緝	-10.1505
驟	-10.1509
弄	-10.151
多矣	-10.1516
喀喇	-10.1518
或問	-10.1519
文成	-10.1532
荆州	-10.1534
綸	-10.1551
卯	-10.1551
跪	-10.1552
屑	-10.1553
仲尼	-10.1553
以後	-10.1554
禽	-10.1555
恱	-10.1557
賦詩	-10.1558
庵	-10.1562
未見	-10.1562
其本	-10.1567
部郎中	-10.1574
處之	-10.1581
劉氏	-10.1582
道也	-10.1591
𤓰	-10.1598
久矣	-10.1599
其餘無事蹟可立傳者附載於後	-10.1602
漫	-10.1602
巾	-10.1604
不待	-10.1611
淮南	-10.1617
之風	-10.1623
安撫使	-10.1627
金陵	-10.1629
嘗曰	-10.1635
不獲	-10.1645
不離	-10.1645
乖	-10.1647
團	-10.1647
第三	-10.1651
攘	-10.1654
勾	-10.1654
靖康	-10.1663
江東	-10.1677
削去	-10.1684
原任䕶	-10.1687
牢	-10.1694
燈	-10.1694
餽	-10.1695
大用	-10.1697
思之	-10.1698
現襲職	-10.1698
芝	-10.1699
杭州	-10.1699
言語	-10.17
奄	-10.1701
戾	-10.1701
培	-10.1701
豪傑	-10.1702
者矣	-10.1706
亦以	-10.1707
門外	-10.1711
在外	-10.1716
之曽孫	-10.1717
殺人	-10.1721
必欲	-10.1722
無間	-10.1725
一貫	-10.1726
召見	-10.1729
公主	-10.1731
本朝	-10.1732
史館	-10.1733
無善無惡	-10.1736
皆是	-10.174
色布騰	-10.174
憐	-10.1744
扼	-10.1744
視之	-10.1745
鄉薦	-10.1745
逝	-10.1746
訖	-10.1748
謂曰	-10.1759
論學	-10.1767
為户第	-10.1775
軍節度使	-10.178
而出	-10.1782
字仲	-10.1788
無敢	-10.1789
脚	-10.179
叩	-10.1791
贖	-10.1791
壤	-10.1792
揖	-10.1795
之民	-10.1795
所當	-10.1798
賞罰	-10.18
與公	-10.1803
扈	-10.1806
荀	-10.1807
姓世居	-10.1809
忠孝	-10.1815
蒙古	-10.1816
大體	-10.1816
也吾	-10.1818
白金	-10.1818
分兵	-10.182
而自	-10.1825
此則	-10.1828
不應	-10.1833
廕	-10.1836
發明	-10.1841
焦	-10.1842
為滿洲一姓此一	-10.1843
大計	-10.1845
金華	-10.1845
琴	-10.1849
恩詔	-10.1861
世宗	-10.1864
䧟	-10.1883
西南	-10.1886
染	-10.1887
斛	-10.1888
飯	-10.189
脫	-10.189
奏請	-10.189
□	-10.1892
粤	-10.1893
别有	-10.1898
湖南	-10.1899
分别	-10.19
執事	-10.1904
卒年七十	-10.1911
恩詔所加之職	-10.1911
師道	-10.1912
縣人	-10.1913
倦	-10.1918
百餘人	-10.1921
字伯	-10.1923
麾	-10.1924
風雨	-10.1928
彥	-10.1932
未免	-10.1934
阿喇布坦	-10.1936
奎	-10.1936
製	-10.1937
釁	-10.1938
潁	-10.1938
濂	-10.1938
繕	-10.1941
也乃	-10.1949
建炎	-10.195
根本	-10.1958
躬行	-10.1959
王師	-10.1961
安撫	-10.1962
若此	-10.1968
曰子	-10.197
朝鮮	-10.1973
平定	-10.1979
縛	-10.1982
静坐	-10.1982
祈	-10.1986
太常寺	-10.1987
以上俱係應立傳之人	-10.1987
零	-10.1989
燭	-10.1991
邢	-10.1991
原任司庫	-10.1992
逺近	-10.1993
莆田	-10.1993
遼東	-10.2004
其長子	-10.2007
嘗言	-10.202
涕	-10.2031
道心	-10.2036
些	-10.2038
巷	-10.2039
瑄	-10.204
穎	-10.2042
止之	-10.2051
七人	-10.2056
親弟	-10.2076
道學	-10.2078
研	-10.2083
灣	-10.2083
至則	-10.2083
柴	-10.2085
祜	-10.2086
揭	-10.2086
節度使	-10.209
圭	-10.2091
第五	-10.2097
爾賽	-10.21
行狀	-10.2108
知者	-10.2109
老成	-10.2112
吐	-10.2133
贓	-10.2134
而非	-10.2136
山中	-10.2137
有詔	-10.2137
摘	-10.2137
浸	-10.2138
属	-10.2138
巴圖魯	-10.2142
平居	-10.2151
便宜	-10.2157
造化	-10.2168
草木	-10.2173
諸郡	-10.2173
孝宗	-10.2178
望之	-10.2181
費揚古	-10.2186
悅	-10.2186
其書	-10.2187
𤼵	-10.2188
爾岱	-10.2189
千總	-10.2191
是為	-10.2192
繼之	-10.2195
者乃	-10.22
是謂	-10.2207
烏喇	-10.2208
以書	-10.2216
之役	-10.2216
侍講學士	-10.2221
光禄	-10.2222
喇布坦	-10.2224
年六十	-10.2228
二十里	-10.223
撥	-10.2231
原任䕶軍叅領	-10.2232
若是	-10.2232
播	-10.2237
屠	-10.224
廩	-10.2241
原任三等侍衛	-10.2241
游牧	-10.2248
汝愚	-10.2249
此是	-10.2255
太傅	-10.2257
克什	-10.2259
不允	-10.2259
坡	-10.2264
不求	-10.2269
憫	-10.2287
繇	-10.229
響	-10.2291
群	-10.2291
舌	-10.2294
之禍	-10.2298
人其孫	-10.2303
原任七品官	-10.2303
法度	-10.2304
員外	-10.2311
講官	-10.2322
媚	-10.2335
籌	-10.2338
達頼喇嘛	-10.2341
羲	-10.2341
册	-10.2342
以至	-10.2342
淪	-10.2342
妨	-10.2342
大名	-10.2345
經術	-10.2348
塔爾	-10.2355
諾顔	-10.236
奉詔	-10.2365
吏民	-10.2366
親叔	-10.2373
萬一	-10.2374
上章	-10.2375
用力	-10.2379
秦州	-10.2382
鑾	-10.2387
凉	-10.2387
一心	-10.2388
丐	-10.239
訂	-10.239
原任協領	-10.2392
等䕶衞	-10.2392
攸	-10.2394
甲申	-10.2399
取之	-10.2399
布政	-10.2409
師友	-10.2413
不可得	-10.242
功名	-10.2434
諤	-10.2437
摩	-10.2437
丹津	-10.2438
按察使	-10.2441
囉	-10.2441
樞宻院	-10.2441
顛	-10.2441
摧	-10.2444
寐	-10.2447
次第	-10.2449
周子	-10.2453
列𫝊	-10.2455
𤦺	-10.2483
退而	-10.2484
年二十	-10.2486
他人	-10.249
人倫	-10.2491
悖	-10.2492
它	-10.2492
拂	-10.2494
乆之	-10.25
奕	-10.2505
乾道	-10.2513
瑚什	-10.2513
性善	-10.2517
誅之	-10.2518
有三	-10.2528
正白旗人	-10.2529
是日	-10.2531
故不仕父	-10.2533
流涕	-10.2533
行省	-10.2535
討之	-10.2537
舅	-10.2543
迪	-10.2543
夙	-10.2543
随	-10.2544
苛	-10.2545
現係生員	-10.2546
迄	-10.2549
教諭	-10.2555
之女	-10.2561
乞休	-10.2565
不便	-10.2579
罷之	-10.2583
教之	-10.2583
體用	-10.2587
副將	-10.259
堤	-10.2591
五品	-10.2591
制置	-10.2593
犬	-10.2594
暢	-10.2597
糴	-10.2598
為先	-10.2599
蚤	-10.26
枕	-10.2601
四十年	-10.2602
太史	-10.2605
鑲藍旗包衣	-10.2609
遣官	-10.2626
一年	-10.2628
可用	-10.2643
逋	-10.2644
以上俱有傳	-10.2647
孝弟	-10.2647
人少	-10.2648
譚	-10.2649
死生	-10.265
脈	-10.2652
奮勇	-10.2659
諫官	-10.2666
諸書	-10.2668
先君	-10.2672
道徳	-10.2674
也先生	-10.268
博爾	-10.2682
瑪爾	-10.2686
東陽	-10.2687
十卷	-10.2693
正學	-10.2695
雞	-10.2696
立朝	-10.2698
叱	-10.2699
茫	-10.27
係隸滿洲旗分之䝉古	-10.2701
訊	-10.2702
促	-10.2703
其所以	-10.2708
遇事	-10.2712
斬之	-10.2712
治亂	-10.2726
之餘	-10.2729
之私	-10.273
湏	-10.2749
服闋	-10.2757
使之	-10.2757
閤	-10.2758
話	-10.2758
官吏	-10.276
既至	-10.2774
於天下	-10.2782
何處	-10.2783
必先	-10.2795
饋	-10.2804
原任三等䕶衛	-10.2809
薪	-10.2809
灌	-10.2811
弱冠	-10.2812
敖	-10.2816
不堪	-10.2831
不樂	-10.2834
無有	-10.284
左丞	-10.2843
學者稱	-10.2849
矣今	-10.2849
需	-10.2853
生生	-10.2854
覈	-10.2856
丗	-10.2857
䕃	-10.2862
無益	-10.2862
吹	-10.2863
握	-10.2865
暗	-10.2865
掲	-10.2865
寘	-10.2867
平江	-10.2869
贄	-10.2872
之元孫	-10.2872
中書令	-10.2873
服其	-10.2876
侍從	-10.2881
察哈爾地方	-10.2884
以功	-10.2891
一身	-10.2892
所知	-10.2901
一員	-10.2903
萊	-10.2905
蛇	-10.291
無欲	-10.2911
聼	-10.2917
侮	-10.2917
知止	-10.2917
礙	-10.2917
樊	-10.2919
二等輕車都尉	-10.292
君子謂	-10.292
固辭	-10.2921
宣和	-10.2926
實錄	-10.2931
何所	-10.2932
猶未	-10.2947
由此	-10.2949
豈非	-10.2951
逺矣	-10.2958
以成	-10.2961
軌	-10.2965
緡	-10.2968
韻	-10.2968
賔客	-10.2971
我軍	-10.2972
沐	-10.2972
闡	-10.2973
狐	-10.2977
動而	-10.2977
太僕	-10.2978
若有	-10.2984
安置	-10.2984
烏爾	-10.2986
一家	-10.299
存心	-10.2991
興化	-10.2998
者有	-10.3004
子貢	-10.3004
之師	-10.3007
異端	-10.3009
古者	-10.3015
則曰	-10.302
遍	-10.3021
一見	-10.3025
狼	-10.3026
光世	-10.3027
動靜	-10.3033
濮	-10.3034
等地方	-10.3035
雅爾	-10.3039
兵馬	-10.3053
晉江人	-10.3053
卽	-10.306
所欲	-10.306
後人	-10.3061
薊	-10.3068
長沙	-10.3069
仲淹	-10.3072
頂	-10.3077
晨	-10.3078
駝馬	-10.3078
聶	-10.308
蠧	-10.308
翠	-10.3081
吾儒	-10.3082
得以	-10.3084
已發	-10.3096
與其	-10.3098
惡之	-10.3105
有聲	-10.3106
軍士	-10.3106
再拜	-10.3117
臨安	-10.3123
晟	-10.3124
一千	-10.3125
鬭	-10.3126
之書	-10.3126
喇嘛	-10.3128
臭	-10.3129
狩	-10.313
勛	-10.3131
闈	-10.3132
神明	-10.3132
同時	-10.3133
迂	-10.3133
辜	-10.3134
提學	-10.3134
聞而	-10.3134
忠賢	-10.3135
葺	-10.3135
慟	-10.3136
二十餘	-10.3137
方是	-10.3138
二十三年	-10.3141
成額	-10.3142
伯克	-10.3143
千古	-10.3143
管領	-10.315
于朝	-10.3151
常州	-10.3153
原任驍騎	-10.3154
孔孟	-10.3155
禍福	-10.3168
自知	-10.317
固有	-10.3178
倪	-10.3181
光武	-10.3183
嘗謂	-10.3184
鵬	-10.3185
其兄	-10.3188
肩	-10.3189
愍	-10.3189
揆	-10.3189
思慮	-10.3197
長者	-10.3198
将軍	-10.32
有異	-10.3213
宰桑	-10.3213
國初来歸	-10.3217
至矣	-10.3228
近臣	-10.3239
軍民	-10.324
簾	-10.324
匠	-10.3242
稟	-10.3243
巫	-10.3245
霜	-10.3246
譴	-10.3247
弩	-10.3248
阿睦爾撒納	-10.3248
惟恐	-10.3249
日夜	-10.3249
問學	-10.3253
東平	-10.3255
天聰	-10.3265
襲一次襲	-10.3266
開封	-10.3281
十巻	-10.3286
鄂齊爾	-10.3292
長子康熙	-10.3294
綿	-10.3296
刑部尚書	-10.3297
以上俱世居	-10.3298
埀	-10.3299
終始	-10.33
几	-10.33
状	-10.3301
二十五	-10.3302
吏部侍郎	-10.3305
率衆	-10.3308
且曰	-10.3309
則是	-10.331
後學	-10.3313
戒懼	-10.3317
二萬	-10.3338
數百人	-10.3341
乞歸	-10.3347
郎阿	-10.335
汙	-10.335
天下事	-10.3351
昻	-10.3351
庇	-10.3353
鉅	-10.3354
侍衞	-10.3359
三等男	-10.3361
州郡	-10.3365
上怒	-10.3367
著述	-10.3379
十餘人	-10.338
一姓此一姓世居	-10.3381
師事	-10.339
或曰	-10.3391
典儀	-10.3403
墨爾根	-10.3406
杏	-10.3407
替	-10.3411
甲辰	-10.3413
烟	-10.3413
頻	-10.3414
㸔	-10.3414
王安石	-10.3415
般	-10.3417
諸人	-10.3417
二十七	-10.3419
讎	-10.342
求去	-10.3431
非所以	-10.3436
人其子	-10.3438
開元	-10.3442
之情	-10.3443
薦之	-10.3443
不倦	-10.3445
晏子曰	-10.345
不屈	-10.3458
獸	-10.3461
南陽	-10.3464
工部尚書	-10.347
龎	-10.3471
佑	-10.3471
迨	-10.3471
遮	-10.3472
總裁	-10.3478
墓誌	-10.3478
考功	-10.3479
之患	-10.3482
正色	-10.3483
仁者	-10.3484
原任八品官	-10.3495
俱現任筆帖式	-10.35
以養	-10.3505
十餘萬	-10.3509
扈從	-10.3514
名曰	-10.3521
䕫	-10.3526
宸	-10.3526
裘	-10.3527
寫	-10.3528
綺	-10.3529
訐	-10.353
諫議大夫	-10.353
岱青	-10.3532
遂為	-10.3534
行人	-10.3543
其黨	-10.3547
軍營	-10.3551
不知其	-10.3554
禁中	-10.3556
治道	-10.3559
科舉	-10.3561
少傅	-10.3562
亞	-10.3575
稷	-10.3582
攷	-10.3583
芻	-10.3583
灑	-10.3584
横渠	-10.3587
伊犁	-10.3592
太夫人	-10.3592
秩滿	-10.3594
至京師	-10.3599
有竒	-10.3602
知州	-10.3606
身心	-10.3607
彦博	-10.3609
不信	-10.361
甚多	-10.361
公對曰	-10.3611
奢	-10.3634
打	-10.3637
杜門	-10.3638
彊	-10.3639
襲二次襲	-10.3639
斃	-10.364
腦	-10.3642
銳	-10.3642
諜	-10.3642
搜	-10.3645
其妻	-10.3658
奉使	-10.3663
再三	-10.367
千載	-10.3677
有差	-10.3684
生民	-10.3685
太監	-10.3685
年三十	-10.3691
子男	-10.3692
麓	-10.3692
通志	-10.3693
闔	-10.3699
慧	-10.3699
正藍旗人	-10.37
遥	-10.3703
奉天	-10.3704
飲酒	-10.3706
刋	-10.3707
舉人	-10.371
官軍	-10.3712
二十八	-10.3721
父老	-10.3723
宰執	-10.3724
葉赫	-10.3728
邵武	-10.3731
破賊	-10.374
當國	-10.3743
阿拉	-10.3748
板	-10.3756
欠	-10.3757
鬱	-10.3759
梗	-10.3759
訓導	-10.376
二十五年	-10.3761
姿	-10.3761
功夫	-10.3769
象山	-10.3771
朝議	-10.3777
恢復	-10.3779
輕重	-10.378
崇徳	-10.3792
明白	-10.3795
鑲藍旗人	-10.3796
佛保	-10.381
在我	-10.381
八百	-10.3812
納木扎勒	-10.3813
寕	-10.3815
四時	-10.3816
挈	-10.3817
數人	-10.3818
珙	-10.3819
錡	-10.3819
大將	-10.3821
▁初來歸其孫	-10.3822
光祿	-10.3826
至誠	-10.3829
▁初來歸其子	-10.383
一語	-10.383
歴官	-10.3831
近世	-10.384
疏言	-10.3854
不測	-10.3855
人材	-10.3864
順天	-10.3869
濶	-10.3873
恂	-10.3874
明經	-10.3874
隊	-10.3877
卓然	-10.3886
提督	-10.3888
民力	-10.3902
所能	-10.3912
未㡬	-10.3913
給事	-10.3916
自今	-10.3918
三十五年	-10.3925
禎	-10.3927
西路	-10.3931
臂	-10.3934
冷	-10.3934
遺書	-10.3935
鑲紅旗人世居	-10.3939
汾	-10.3942
駐防	-10.3942
檢校	-10.3945
豈能	-10.3946
萬餘衆	-10.3956
無極	-10.3959
把總	-10.396
不得不	-10.3963
品典儀	-10.3964
程氏	-10.3964
召公	-10.3969
未發之中	-10.397
事親	-10.3974
真定	-10.3976
丁未	-10.3983
敢言	-10.399
晚年	-10.3992
言動	-10.3993
宇宙	-10.3993
璉	-10.3994
挽	-10.3994
控	-10.3995
鈞	-10.3996
户部尚書	-10.3997
久而	-10.3997
若干	-10.4002
遐	-10.4002
三十里	-10.4004
追至	-10.4005
璟	-10.4007
察其	-10.4008
疏請	-10.4009
居官	-10.4014
前日	-10.4022
喀爾	-10.4044
讀之	-10.4046
棺	-10.4047
文帝	-10.4047
甲子	-10.4051
第四子	-10.4056
皓	-10.4057
禆	-10.4058
當是時	-10.406
嘗與	-10.406
爰	-10.406
綂	-10.4061
國正白旗人世居	-10.4067
等皆	-10.4071
出處	-10.4073
紀綱	-10.4076
生平	-10.4082
諡忠	-10.4083
千户	-10.4088
長白山地方	-10.41
無愧	-10.4105
刃	-10.4111
萬事	-10.4112
彛	-10.4115
叔向	-10.4115
桀	-10.4116
由閒散	-10.4117
品級	-10.4125
昆	-10.4131
二十四年	-10.4136
宋史	-10.4141
又謂	-10.4145
一雲騎尉	-10.4157
寺丞	-10.4157
至元	-10.4169
勃	-10.4169
先師	-10.4169
丁丑	-10.4172
俠	-10.4173
非是	-10.4174
廪	-10.4178
晉封	-10.4179
春坊	-10.4181
敞	-10.4182
未得	-10.4187
未嘗有	-10.419
憲宗	-10.4194
魏公	-10.4195
西京	-10.4197
等侍衛	-10.4199
乃止	-10.4201
司農	-10.4203
莫非	-10.4213
待制	-10.4216
力辭	-10.4217
雖然	-10.4229
驥	-10.423
墩	-10.423
吐魯番	-10.4235
寮	-10.4236
耻	-10.4237
攀龍	-10.4239
軀	-10.4241
姻	-10.4242
系	-10.4243
沃	-10.4245
頓首	-10.4246
箭	-10.4249
閣臣	-10.425
未盡	-10.4255
賛曰	-10.4271
為滿洲一姓其氏族	-10.4273
典禮	-10.4282
土謝圖汗	-10.4291
嫡	-10.4294
漢中	-10.4296
鬻	-10.43
太廟	-10.4303
肥	-10.4305
敘功	-10.4305
相繼承襲	-10.4306
苖	-10.4309
治平	-10.431
千人	-10.431
如此則	-10.4312
璋	-10.4314
諸賢	-10.4323
軍功	-10.4328
視事	-10.4333
親兄	-10.4333
踰年	-10.4335
盜賊	-10.4346
經畧	-10.4352
國夫人	-10.4353
致良知	-10.4354
拾	-10.4356
叅政	-10.4357
條理	-10.4357
昂	-10.436
捨	-10.436
阿哈	-10.4361
召試	-10.4362
匱	-10.4365
樞密院	-10.4365
無嗣	-10.4383
家貧	-10.4403
人君	-10.4405
永興	-10.4408
居家	-10.441
不疑	-10.4412
安危	-10.4413
詹事府	-10.4414
諸司	-10.4418
桐	-10.4419
閏	-10.4421
滄	-10.4422
徼	-10.4425
膽	-10.4426
叢	-10.4427
兵部侍郎	-10.443
枯	-10.443
倭赫	-10.4436
此意	-10.4444
金帛	-10.4445
之謂也	-10.4447
卒贈	-10.4449
安能	-10.4459
號令	-10.4464
張浚	-10.4472
下獄	-10.4473
道南	-10.4476
臣聞	-10.4484
京城	-10.4487
拖	-10.4488
樵	-10.4488
膏	-10.4488
三十六年	-10.4489
正黄旗包衣人世居	-10.449
言性	-10.4491
懦	-10.4491
屢敗賊	-10.4497
桑阿	-10.4501
竟不	-10.4504
下令	-10.4512
形勢	-10.4523
中和	-10.4523
庚	-10.4523
其親弟	-10.4534
兩遇	-10.4534
而巳	-10.4537
衆皆	-10.4537
事業	-10.4537
數十萬	-10.4538
二十九年	-10.4541
閹	-10.4543
乙丑	-10.4549
裳	-10.4549
受學	-10.455
凛	-10.4551
棘	-10.4551
陪	-10.4553
節制	-10.4567
襲職又	-10.4568
▁尉	-10.4579
北征	-10.4579
伊爾	-10.4597
俱原任佐領	-10.4598
征明	-10.4603
泄	-10.4606
友諒	-10.4609
和托	-10.4609
以来	-10.461
麥	-10.4611
蔬	-10.4613
概	-10.4613
薩克	-10.4613
苟	-10.4616
箕	-10.4616
刪	-10.4617
桃	-10.4617
工部侍郎	-10.4619
哨	-10.4621
▁尉其子	-10.4621
鎮守	-10.4623
以俟	-10.4625
統制	-10.4654
庫爾	-10.4658
内附	-10.4659
樞宻	-10.4662
軍務	-10.4669
經義	-10.4672
灘	-10.4675
愆	-10.4678
壬辰	-10.468
碎	-10.4681
倘	-10.4683
丕勒	-10.4683
言路	-10.4683
表裏	-10.4684
㤗	-10.4685
二十萬	-10.4685
我師	-10.4688
二格	-10.4691
原任六品官	-10.4693
算	-10.4696
張氏	-10.4698
預修	-10.4701
明徳	-10.4703
將帥	-10.4712
本院	-10.4712
由佐領	-10.4713
道路	-10.4714
助教	-10.4715
無功	-10.4716
所宜	-10.4718
詩書	-10.4726
深入	-10.473
同里	-10.4731
愼	-10.4739
歿	-10.4744
怡	-10.4744
▁加之職承襲	-10.4745
大理評事	-10.4745
箴	-10.4749
加一雲騎尉	-10.4751
旗分	-10.4751
朋黨	-10.4752
者甚衆	-10.4758
嘉定	-10.4763
豫章	-10.4764
介甫	-10.4764
侍御史	-10.4768
髙宗	-10.4772
斬首	-10.4778
之術	-10.4788
恢	-10.4789
自信	-10.479
民間	-10.4793
意思	-10.4795
二十六	-10.4797
隣	-10.4798
准	-10.4799
汰	-10.4804
宗社	-10.4805
竦	-10.4805
禕	-10.4806
韜	-10.4806
汚	-10.4807
䖏	-10.4809
三十一年	-10.481
减	-10.4815
邱	-10.4816
烏巴什	-10.4817
不悦	-10.4818
不茍	-10.4822
存亡	-10.4823
今日之	-10.4828
五行	-10.4838
自號	-10.484
千萬	-10.4846
四格	-10.4846
覲	-10.4851
何謂	-10.4862
元兵	-10.4863
衣食	-10.4868
内地	-10.4868
袍	-10.4869
曰某	-10.4871
圍錦州	-10.4877
嫉	-10.488
烏梁海	-10.488
額森	-10.4881
畝	-10.4882
科給事中	-10.4888
功臣	-10.4888
常平	-10.4889
艱難	-10.4894
足矣	-10.4899
感應	-10.49
嗣位	-10.4909
年八十	-10.491
由委署	-10.4913
南海	-10.4926
太子太保	-10.4926
名士	-10.4928
所載	-10.4929
聖門	-10.4931
七日	-10.4934
鞫	-10.4935
翻	-10.4937
馭	-10.4938
䖍	-10.4941
牘	-10.4943
抄	-10.4947
祕書	-10.4947
庶子	-10.4949
㑹稽	-10.4965
召入	-10.497
不聴	-10.4971
臺諫	-10.4975
漢唐	-10.4976
未易	-10.4987
守臣	-10.4989
本貫	-10.499
故能	-10.4991
永嘉	-10.5
千餘人	-10.5001
倣	-10.5002
南昌	-10.5004
豁	-10.5005
權貴	-10.5006
鉞	-10.5009
太常博士	-10.501
從征雲南	-10.5011
洒	-10.5014
之道也	-10.5017
又嘗	-10.502
中節	-10.5024
嘉其	-10.5051
識者	-10.5058
天地間	-10.5065
歐	-10.5065
篆	-10.5068
粲	-10.5069
膳	-10.507
酷	-10.5073
慤	-10.5074
區區	-10.5075
不赴	-10.5079
皇太后	-10.5085
孔明	-10.5086
楞額	-10.5087
招撫	-10.5092
渾然	-10.5096
伊洛	-10.51
辛未	-10.51
政和	-10.5101
在位	-10.5115
學派	-10.5116
欣	-10.5116
擊敗賊	-10.5121
坑	-10.5125
矣夫	-10.5127
貞觀	-10.5129
戊辰	-10.5132
剖	-10.5133
宋儒	-10.5134
牲	-10.5136
臻	-10.5136
愷	-10.5137
塋	-10.5139
弁	-10.5141
唱	-10.5142
熾	-10.5142
色稜	-10.5143
後來	-10.5143
宗正	-10.5144
封輔國公	-10.5146
四世	-10.5168
孔門	-10.5169
遣兵	-10.5169
純仁	-10.5187
先生之學	-10.5188
稜	-10.5192
鮑	-10.5202
右係有傳	-10.5203
豆	-10.5203
奉祠	-10.5204
刑部侍郎	-10.5205
襟	-10.5207
太保	-10.5208
件	-10.5208
濵	-10.5208
惶	-10.521
衙	-10.521
惕	-10.5213
右翼	-10.5216
楊士竒	-10.5216
太和	-10.5228
存養	-10.523
紹聖	-10.5231
開國	-10.5234
華色	-10.5235
不覺	-10.5237
副將軍	-10.5253
叅領兼佐領	-10.5256
漣	-10.5262
斌	-10.5264
七品官	-10.5265
力戰	-10.5268
淮西	-10.527
二程	-10.527
引兵	-10.5272
鞭	-10.5273
黯	-10.5275
粮	-10.5276
沾	-10.5277
逵	-10.5277
太常少卿	-10.5277
悍	-10.5277
性情	-10.5278
書云	-10.5283
俱原任䕶軍校	-10.5287
制度	-10.5288
瑋	-10.5293
不妄	-10.5296
天資	-10.5298
江州	-10.5305
聲色	-10.5306
温公	-10.5312
歸年分無考其子	-10.532
宦官	-10.532
儒臣	-10.5324
饒州	-10.5327
大喜	-10.5332
㑹試	-10.5334
瀚	-10.5334
外史氏曰	-10.5337
誡	-10.5339
斤	-10.5339
諸部	-10.5341
殉	-10.5342
賻	-10.5343
係國初來歸之人	-10.5345
䏻	-10.5345
規模	-10.5347
嶠	-10.5347
傲	-10.5348
拳	-10.5349
相望	-10.5349
私意	-10.5355
措置	-10.5357
莫如	-10.537
鎮撫	-10.5371
乙未	-10.5371
以為不可	-10.5375
嗟乎	-10.5379
不知所	-10.5382
小學	-10.5382
累官	-10.5395
騎都尉兼一雲騎尉	-10.5403
滑	-10.5405
侂胄	-10.5407
球	-10.5409
飽	-10.5409
鸞	-10.5409
寖	-10.5411
膠	-10.5412
鼔	-10.5412
蹟	-10.5413
過北京征山東	-10.5414
蝗	-10.5414
壺	-10.5415
夫子之	-10.5416
墓誌銘	-10.5417
璽書	-10.5426
登進士第	-10.5429
七世孫	-10.543
巴圖爾	-10.543
講讀	-10.5431
同年	-10.5434
宣撫使	-10.5445
支離	-10.5448
先主	-10.545
恐懼	-10.5457
語録	-10.5474
愕	-10.5476
不避	-10.5477
亢	-10.5477
耗	-10.5479
是嵗	-10.5479
銷	-10.548
栗	-10.5481
訣	-10.5484
滁	-10.5485
軍節度	-10.5487
初授	-10.549
十數	-10.5492
詣闕	-10.5499
巴哈	-10.5501
赤子	-10.5511
還朝	-10.5516
等侍衞	-10.5517
承㫖	-10.5536
魏忠賢	-10.5543
二十六年	-10.5544
催	-10.5547
廖道南曰	-10.5548
起居注	-10.5549
舶	-10.5549
癸丑	-10.5553
唐古特	-10.5556
靣	-10.5556
弭	-10.5557
贊曰	-10.5571
足下	-10.5575
處士	-10.5577
援兵	-10.5585
村地方	-10.5586
世傑	-10.5592
卿等	-10.5597
從祀	-10.5619
中貴人	-10.5619
冢	-10.562
襲三次襲	-10.562
鄆	-10.5621
魄	-10.5623
琬	-10.5628
光禄大夫	-10.5629
萬計	-10.5632
郤	-10.5632
曼	-10.5633
削爵	-10.5633
東北	-10.5639
卒年六十	-10.5648
思哈	-10.5657
考亭	-10.5657
浙東	-10.5657
腹心	-10.5671
皇子	-10.568
度支	-10.5682
斯文	-10.5682
閻	-10.5684
國子祭酒	-10.5688
庚辰	-10.5693
挫	-10.5693
拓	-10.5693
先王之	-10.5696
饗	-10.5697
燧	-10.5698
未聞	-10.5711
東海	-10.5716
尚書令	-10.5717
第十	-10.5721
現係䕶軍	-10.5731
俱原任驍騎校	-10.5746
鑲藍旗人世居	-10.5756
艦	-10.5764
涯	-10.5765
髮	-10.5765
蘄	-10.5765
校書郎	-10.5765
夸	-10.5767
沆	-10.5768
瑗	-10.5768
翌日	-10.577
琰	-10.5773
皇考	-10.5777
屢敗	-10.5783
擊敗賊偽	-10.5783
毅然	-10.5788
太宗曰	-10.579
哲宗	-10.5791
文靖	-10.5795
中書省	-10.5797
泌	-10.5821
哈納	-10.5822
堵	-10.5832
慙	-10.5833
壓	-10.5834
壅	-10.5835
正黃旗	-10.5835
潼	-10.5836
辛酉	-10.5837
釣	-10.5837
柵	-10.5842
來歸年分無考其子	-10.5844
鑲白旗包衣	-10.5845
秘閣	-10.585
感激	-10.5855
答曰	-10.5864
現任主事	-10.5864
承宗	-10.5868
百户	-10.5875
告子	-10.5877
三省	-10.5888
歸年分無考其孫	-10.5891
手詔	-10.5894
建安	-10.5897
遁去	-10.5898
極論	-10.59
乳	-10.5907
成就	-10.5908
携	-10.591
可否	-10.5914
己巳	-10.5917
廣州	-10.5919
或謂	-10.5919
百世	-10.5926
遊擊	-10.5929
堯夫	-10.5945
巴什	-10.5961
阿喇	-10.5965
鑲白旗人世居	-10.5967
孔氏	-10.5973
劒	-10.5977
伴	-10.5978
濤	-10.5979
儒學	-10.598
演	-10.598
殱	-10.5981
輅	-10.5982
巴海	-10.5984
纎	-10.5985
蔚	-10.5985
亳	-10.5991
郷	-10.5991
惠卿	-10.5992
闗中	-10.5995
名儒	-10.5998
一等輕車都尉	-10.5999
夫婦	-10.601
五代	-10.6032
家傳	-10.6036
經略	-10.6038
子二長	-10.6039
孫男	-10.6039
廖	-10.6049
歸化城	-10.6053
右係應立傳之人	-10.6056
輕車都尉	-10.6056
萃	-10.6058
大理寺	-10.6058
帷	-10.6059
貟外郎	-10.6061
文正公	-10.6063
柯	-10.6064
翕然	-10.6069
司馬光	-10.6076
左氏	-10.6078
科爾沁	-10.608
祖妣	-10.6085
告歸	-10.6088
男女	-10.6099
所向	-10.6101
丈夫	-10.6102
兼學士	-10.6109
渡河	-10.6119
澗	-10.6126
翔	-10.6126
孽	-10.6127
戢	-10.6128
郵	-10.613
楫	-10.6131
拊	-10.6134
跋	-10.6134
梯攻	-10.6134
澶	-10.6134
頑	-10.6135
曰彼	-10.614
晉侯	-10.6141
手足	-10.6144
省察	-10.615
正白旗包衣	-10.6151
丙子	-10.6152
全體	-10.6154
章句	-10.6165
晏子對曰	-10.6168
不暇	-10.6179
丹陽	-10.6194
慘	-10.6194
廟堂	-10.6195
允文	-10.6195
䑓	-10.6199
𦂳	-10.6199
羡	-10.62
丙午	-10.62
辛丑	-10.62
荅	-10.6201
畱	-10.6201
朋素克	-10.6203
現係馬甲	-10.6203
緯	-10.6205
蹙	-10.6205
愁	-10.6205
楷	-10.6206
拙	-10.6207
睹	-10.6207
太皇太后	-10.6207
錫喇	-10.6208
夙夜	-10.6215
廸	-10.6217
原任副都統	-10.6225
得免	-10.6237
許多	-10.6243
心之所	-10.6245
陛	-10.6247
土爾扈特	-10.6268
禾	-10.6274
天啟	-10.6275
冑	-10.6277
琮	-10.6279
繪	-10.6279
鹵	-10.6281
燒	-10.6282
囂	-10.6287
緩急	-10.629
聖徳	-10.629
入對	-10.6291
參軍	-10.6292
哈薩克	-10.6294
隆阿	-10.6297
氣節	-10.6302
鑲白旗人	-10.6309
災異	-10.6311
周旋	-10.6314
世襲	-10.6325
數十人	-10.634
牌	-10.6346
駐蹕	-10.6349
要害	-10.6349
縮	-10.635
彪	-10.6351
原任内管領	-10.6351
蓮	-10.6353
涼	-10.6354
迺	-10.6355
輦	-10.6356
宵	-10.6356
鴻臚	-10.6357
廼	-10.6359
待罪	-10.6359
原任頭等䕶衛	-10.6361
策凌	-10.6364
神道碑	-10.6366
桓公	-10.6375
景公問	-10.6384
大驚	-10.6395
文莊	-10.6398
六格	-10.6402
匈奴	-10.6419
龔	-10.6429
寥	-10.6431
扣	-10.6431
迭	-10.6432
阮	-10.6434
熱	-10.6438
癸未	-10.644
諸葛亮	-10.644
御製	-10.6442
宣諭	-10.6443
驍騎	-10.6459
國太夫人	-10.6464
胸中	-10.6464
索柱	-10.6466
感動	-10.647
云云	-10.6486
墻	-10.6497
骸	-10.6504
夔	-10.6506
隐	-10.6507
甸	-10.6508
膝	-10.651
柰	-10.651
祔	-10.651
怙	-10.6511
絹	-10.6511
佚	-10.6512
戕	-10.658
廹	-10.6585
訛	-10.6586
狥	-10.6658
梧	-10.6659
巍	-10.6661
釐	-10.6663
闇	-10.6664
拯	-10.6665
簽	-10.6665
顏	-10.6665
雀	-10.6666
浄	-10.6667
膚	-10.6668
旒	-10.667
蕪	-10.667
婢	-10.6674
籠	-10.6736
宛	-10.6738
電	-10.6742
盍	-10.6742
兀	-10.6743
兇	-10.6744
胄	-10.6745
袖	-10.6747
郢	-10.6747
綜	-10.6749
幄	-10.6817
剽	-10.6819
吝	-10.6821
柳	-10.6822
醜	-10.6824
豹	-10.6828
艘	-10.6894
屍	-10.6897
錮	-10.6902
弑	-10.6903
筮	-10.6904
繆	-10.6906
丙	-10.6951
僭	-10.6985
噫	-10.6986
狹	-10.6987
捍	-10.6988
偷	-10.6988
霽	-10.7056
繋	-10.7062
畔	-10.7067
岩	-10.7071
瓘	-10.7141
叚	-10.7144
鈎	-10.7144
墟	-10.7145
憑	-10.7147
焞	-10.7157
砲	-10.7219
貯	-10.7226
榻	-10.7228
榆	-10.7231
敘	-10.7274
婺	-10.7298
槐	-10.7306
諍	-10.7307
蓬	-10.731
聊	-10.731
䜛	-10.7311
綴	-10.7312
聳	-10.7313
肝	-10.7316
冥	-10.7317
乂	-10.7319
綵	-10.7385
陂	-10.7386
狗	-10.7391
堰	-10.7392
翟	-10.7393
裝	-10.7393
醒	-10.74
暉	-10.74
㕔	-10.74
菜	-10.7402
愿	-10.7472
㝠	-10.7474
壻	-10.7477
軫	-10.7481
亘	-10.7481
諧	-10.7482
筭	-10.7482
羸	-10.7482
渙	-10.7483
鱗	-10.7485
曩	-10.7485
灼	-10.7487
瑩	-10.756
𣙜	-10.7563
牀	-10.7563
奨	-10.7564
縝	-10.7565
壑	-10.7566
婁	-10.7566
姊	-10.7566
昱	-10.7566
歆	-10.7566
霞	-10.7566
竈	-10.7567
儕	-10.7567
鉉	-10.7568
踈	-10.7569
棲	-10.757
逞	-10.7573
孜	-10.7643
芬	-10.7643
庾	-10.7648
戌	-10.7655
砦	-10.7738
歉	-10.7738
掛	-10.774
柩	-10.7741
峙	-10.7742
艮	-10.7744
沔	-10.7819
梯	-10.782
寔	-10.7826
窘	-10.7826
讞	-10.7827
賁	-10.7828
斧	-10.7829
扇	-10.7829
雕	-10.783
滕	-10.783
着	-10.783
讜	-10.7831
崑	-10.7832
殄	-10.7834
冶	-10.7836
琿	-10.7911
睢	-10.7911
繞	-10.7916
瘴	-10.7916
隻	-10.7917
閫	-10.7919
歙	-10.7922
洙	-10.7923
怯	-10.7924
筵	-10.7996
穢	-10.7998
羈	-10.7999
哥	-10.8
粥	-10.8001
酣	-10.8002
核	-10.8003
媿	-10.8004
聨	-10.8005
猾	-10.8008
斜	-10.8018
胸	-10.806
剿	-10.8086
凢	-10.809
株	-10.8091
汀	-10.8091
牟	-10.8092
揺	-10.8093
𣲖	-10.8094
稼	-10.8094
孥	-10.8095
帕	-10.8096
邕	-10.8096
夲	-10.8096
憶	-10.8096
乍	-10.8097
駟	-10.8097
彗	-10.8097
慚	-10.81
牆	-10.81
幅	-10.8101
慾	-10.8106
觴	-10.8109
蘆	-10.8175
壮	-10.8178
墾	-10.8183
啻	-10.8184
層	-10.8184
網	-10.8184
懽	-10.8185
礟	-10.8186
搏	-10.8187
悠	-10.8192
霆	-10.8192
緑	-10.8268
饌	-10.827
屹	-10.8274
掇	-10.8278
喫	-10.8278
浹	-10.8279
態	-10.8282
購	-10.8283
殫	-10.8284
技	-10.8285
覿	-10.8296
蛟	-10.8368
僣	-10.8369
厦	-10.8369
隄	-10.837
揣	-10.8371
妹	-10.8371
渥	-10.8371
渝	-10.8371
僑	-10.8372
慊	-10.8373
扁	-10.8373
矧	-10.8374
押	-10.8374
鯉	-10.8442
恚	-10.8452
冐	-10.8456
廊	-10.846
嬖	-10.846
悌	-10.8462
仆	-10.8462
鞠	-10.8472
燮	-10.8541
峒	-10.8548
翺	-10.8553
廡	-10.8555
股	-10.8555
瀕	-10.8555
疋	-10.8555
蔵	-10.8557
濱	-10.8557
儻	-10.8559
炭	-10.8561
版	-10.8563
麄	-10.8564
蹕	-10.8649
咏	-10.8652
貼	-10.8653
瘠	-10.8653
軸	-10.8654
摭	-10.8654
閎	-10.8657
璽	-10.872
霧	-10.8745
涪	-10.8747
躁	-10.8747
填	-10.8748
罹	-10.8748
潑	-10.8748
售	-10.8749
蠡	-10.875
羨	-10.875
圃	-10.8752
寤	-10.8753
鈍	-10.8839
嶷	-10.884
劵	-10.8842
笞	-10.8842
兗	-10.8845
腐	-10.8846
磯	-10.8847
廐	-10.8847
鷄	-10.8849
椘	-10.885
淚	-10.885
竝	-10.8852
悚	-10.8855
寝	-10.8855
繡	-10.8931
慨	-10.8932
淹	-10.8939
抃	-10.8941
劣	-10.8943
畆	-10.8945
恰	-10.8945
埋	-10.8945
躋	-10.8946
畀	-10.8949
塾	-10.8949
猖	-10.8952
餓	-10.9035
鼻	-10.9039
楹	-10.9041
犂	-10.9042
𦙍	-10.9043
筠	-10.9045
搖	-10.9047
殯	-10.9048
卞	-10.9048
灾	-10.9049
甌	-10.9049
頥	-10.905
嘯	-10.9053
𣣔	-10.9135
貟	-10.9137
湧	-10.9142
瑕	-10.9142
殖	-10.9143
臬	-10.9143
姒	-10.9145
脉	-10.9146
馴	-10.9146
祺	-10.9146
冺	-10.9146
枚	-10.9147
砥	-10.9147
諮	-10.9147
忝	-10.9148
塊	-10.9153
爻	-10.9155
弇	-10.9218
冰	-10.9238
彞	-10.924
函	-10.9241
剪	-10.9242
換	-10.9243
韙	-10.9243
厄	-10.9244
狎	-10.9244
溉	-10.9244
緘	-10.9245
擠	-10.9246
躡	-10.9248
遑	-10.925
栻	-10.9252
愬	-10.9334
棠	-10.9341
楓	-10.9343
尙	-10.9344
証	-10.9346
窒	-10.9346
稔	-10.9347
滛	-10.9347
瀾	-10.9348
疊	-10.9349
寗	-10.9349
諳	-10.9349
犒	-10.9349
隕	-10.935
恊	-10.935
紘	-10.9437
煙	-10.944
凍	-10.9444
褚	-10.9447
惴	-10.9447
瑛	-10.9447
架	-10.9447
种	-10.9449
貂	-10.945
擴	-10.945
祇	-10.9451
擕	-10.9452
噐	-10.9453
笏	-10.9456
臘	-10.9458
冉	-10.9461
麒	-10.9539
仔	-10.9543
鬚	-10.9546
黔	-10.9551
倅	-10.9552
鯁	-10.9553
洩	-10.9554
冩	-10.9558
礪	-10.9559
譖	-10.9652
冡	-10.9654
貎	-10.9655
徭	-10.9657
模	-10.9658
捧	-10.9659
彚	-10.9662
鞍	-10.9752
漲	-10.976
諛	-10.9763
低	-10.9764
洎	-10.9767
湮	-10.9768
峩	-10.9772
爐	-10.9774
捫	-10.9861
窟	-10.9869
霖	-10.9869
﨑	-10.987
擔	-10.9872
慝	-10.9874
油	-10.9877
駿	-10.9878
瀆	-10.9973
瓜	-10.9977
另	-10.9978
鑰	-10.998
攬	-10.9981
彩	-10.9981
餞	-10.9981
灰	-10.9982
㤀	-10.9989
詡	-10.999
昉	-10.999
販	-11.0083
濕	-11.0084
様	-11.0089
掘	-11.0089
竿	-11.0089
吞	-11.009
煽	-11.0092
婉	-11.0092
茹	-11.0094
餒	-11.0094
猜	-11.0095
蔑	-11.0096
覧	-11.0097
紂	-11.0099
奈	-11.0171
幟	-11.0193
瑣	-11.0198
滌	-11.0199
譯	-11.02
鋪	-11.0201
岑	-11.0202
忱	-11.0202
炙	-11.0202
邏	-11.0203
瘁	-11.0204
套	-11.0205
濯	-11.0205
黼	-11.0206
覘	-11.0207
凜	-11.0208
頽	-11.021
縳	-11.0307
詎	-11.031
銑	-11.0311
飄	-11.0312
絃	-11.0312
忻	-11.0313
捉	-11.0313
映	-11.0314
莅	-11.0315
胷	-11.0317
浴	-11.0318
甄	-11.0318
裹	-11.0319
皂	-11.0319
顥	-11.0323
祕	-11.0417
峭	-11.0424
苐	-11.0427
嬉	-11.0428
猝	-11.0428
夣	-11.043
宼	-11.043
址	-11.0431
殞	-11.0432
瑟	-11.0432
爛	-11.0435
藤	-11.0436
裡	-11.0539
愽	-11.0541
廂	-11.0541
凋	-11.0544
郁	-11.0544
狡	-11.0544
蒞	-11.0545
夭	-11.0546
盾	-11.0546
憎	-11.055
偁	-11.0553
壬	-11.0617
晴	-11.0654
濡	-11.0655
懾	-11.0657
籬	-11.0658
圜	-11.0658
竣	-11.0659
街	-11.0664
椒	-11.0665
朽	-11.0672
肖	-11.0706
厰	-11.0766
瀛	-11.0772
嗾	-11.0772
淨	-11.0773
帙	-11.0776
个	-11.0776
鐡	-11.0779
裒	-11.0779
醴	-11.078
兾	-11.078
琛	-11.0781
覃	-11.0781
泳	-11.0782
覬	-11.0783
紓	-11.0788
袤	-11.0887
駢	-11.0891
幻	-11.0892
竅	-11.0893
厓	-11.0895
蟲	-11.0895
陕	-11.0896
鴈	-11.0897
蔓	-11.0902
璊	-11.0905
逖	-11.0912
㪚	-11.1008
怖	-11.1009
諂	-11.1012
囑	-11.1013
恙	-11.1017
靳	-11.102
誄	-11.102
恁	-11.1025
頸	-11.1134
迴	-11.1134
吿	-11.1134
綰	-11.1138
紿	-11.1138
豕	-11.1138
皷	-11.1138
檀	-11.114
擯	-11.114
譁	-11.1142
涖	-11.1142
梏	-11.1145
莒	-11.1146
轅	-11.1149
欒	-11.116
瀋	-11.1255
渚	-11.1255
遯	-11.1259
懌	-11.1259
扞	-11.1259
藹	-11.1259
誚	-11.126
陀	-11.126
燝	-11.1261
咽	-11.1261
槖	-11.1262
煌	-11.1262
縷	-11.1263
褐	-11.1263
垢	-11.1263
隳	-11.1263
轂	-11.1264
譛	-11.1264
臆	-11.1264
湊	-11.1265
裨	-11.1267
摯	-11.1267
甥	-11.1269
吁	-11.1269
圉	-11.127
駝	-11.1374
梟	-11.1383
馨	-11.1386
鷹	-11.1389
椿	-11.1389
臥	-11.1389
攀	-11.1392
燔	-11.1394
珏	-11.14
翕	-11.1486
煜	-11.1501
繳	-11.1502
礦	-11.1505
歷	-11.1507
襃	-11.1507
喚	-11.1507
絀	-11.151
烽	-11.151
琨	-11.1512
舘	-11.1512
邠	-11.1513
遞	-11.1514
瞑	-11.1515
槁	-11.1516
醮	-11.1518
摇	-11.1518
戀	-11.1521
箋	-11.1521
煬	-11.1631
鎰	-11.1633
腰	-11.1636
寰	-11.1636
餌	-11.1639
洮	-11.164
疫	-11.1642
鐫	-11.1643
耄	-11.1644
汎	-11.1644
軼	-11.1644
囬	-11.1645
譙	-11.1646
䟦	-11.1647
鳩	-11.1648
構	-11.1652
虢	-11.1654
蒸	-11.1758
迤	-11.1765
騁	-11.1767
沖	-11.1768
棨	-11.1768
窩	-11.177
邈	-11.1771
儘	-11.1771
苴	-11.1773
畋	-11.1775
別	-11.1776
床	-11.1777
慄	-11.1778
鄴	-11.1779
冨	-11.1781
紇	-11.1789
緋	-11.1895
两	-11.1896
癸	-11.1898
抽	-11.1898
琪	-11.1898
炯	-11.19
燦	-11.1901
敇	-11.1902
煦	-11.1902
芒	-11.1903
塹	-11.1904
帯	-11.1904
鎬	-11.1905
蝕	-11.1905
潦	-11.1906
鍊	-11.1907
貿	-11.1907
叡	-11.1908
吸	-11.1908
虹	-11.191
縫	-11.1914
泚	-11.2022
毗	-11.2032
閨	-11.2035
陲	-11.2037
轡	-11.2038
翳	-11.2038
牖	-11.2041
逓	-11.2161
徠	-11.2164
贒	-11.2169
訾	-11.2169
慿	-11.217
擣	-11.2172
鑲	-11.2173
猥	-11.2173
徤	-11.2174
侗	-11.2176
縊	-11.2178
萼	-11.2178
羮	-11.2179
爌	-11.2296
雒	-11.2299
妥	-11.2306
滸	-11.2306
杞	-11.2306
璞	-11.2306
雋	-11.2307
髯	-11.2308
瞿	-11.2309
跨	-11.231
泯	-11.2313
疵	-11.2313
䑕	-11.2314
喧	-11.2314
肄	-11.2314
㓕	-11.2318
顓	-11.2318
瀘	-11.2325
帆	-11.2438
沸	-11.2442
曜	-11.2443
皎	-11.2443
糜	-11.2447
杯	-11.2447
丑	-11.245
㤙	-11.245
纍	-11.2451
鎗	-11.2451
撲	-11.2453
䛕	-11.2454
豎	-11.2454
訕	-11.2454
踞	-11.2455
鄱	-11.2458
蟒	-11.2571
沽	-11.2576
摶	-11.2576
奭	-11.2579
楮	-11.2585
馘	-11.2587
黠	-11.2587
療	-11.2587
莱	-11.2588
軻	-11.2589
剔	-11.2592
祧	-11.2593
儆	-11.2596
羙	-11.2599
葵	-11.2599
嘿	-11.2726
邃	-11.2727
滔	-11.2728
恍	-11.2728
熒	-11.2731
郝	-11.2732
拈	-11.2733
劫	-11.2733
殃	-11.2735
鋤	-11.2735
淆	-11.2736
纖	-11.2737
胙	-11.2739
蠱	-11.2739
晋	-11.274
蒐	-11.2743
仝	-11.2756
儁	-11.2863
纒	-11.2874
渇	-11.2875
磐	-11.2876
瞽	-11.2877
弋	-11.2879
嗇	-11.288
眩	-11.2881
酉	-11.2882
愉	-11.2882
偹	-11.2883
漆	-11.2887
戊	-11.2999
杲	-11.3012
仞	-11.3014
岷	-11.3018
亶	-11.302
肘	-11.3021
撼	-11.3021
斟	-11.3021
蟠	-11.3021
肺	-11.3022
卵	-11.3023
稀	-11.3024
愠	-11.3024
埒	-11.3025
犀	-11.3025
洵	-11.3025
稚	-11.3025
馥	-11.3158
丸	-11.3168
祉	-11.3168
燾	-11.3168
企	-11.3169
数	-11.317
戡	-11.3171
尅	-11.3172
奐	-11.3173
汶	-11.3173
潯	-11.3173
淄	-11.3175
紐	-11.3184
莘	-11.3185
埜	-11.3316
篋	-11.3318
瘞	-11.3318
渤	-11.3318
毓	-11.3319
阨	-11.3319
堆	-11.3321
莭	-11.3321
腔	-11.3322
糶	-11.3324
跳	-11.3325
沅	-11.3326
瘡	-11.3326
壹	-11.3327
靠	-11.3328
亾	-11.3328
睡	-11.3329
剰	-11.333
盎	-11.3331
兖	-11.3433
襍	-11.3474
碣	-11.3475
賡	-11.3475
楨	-11.3475
旰	-11.3477
怕	-11.3478
蹤	-11.348
玄	-11.3481
擲	-11.3483
琢	-11.3484
鰲	-11.3485
㳂	-11.3488
磁	-11.3621
槃	-11.3622
璐	-11.3622
緬	-11.3626
雁	-11.3626
𨼆	-11.363
贏	-11.3637
酢	-11.3639
磬	-11.3639
琉	-11.364
嬴	-11.364
贑	-11.3642
煉	-11.3644
殮	-11.3786
蠶	-11.3786
薫	-11.3787
峪	-11.3789
暁	-11.3789
檻	-11.3791
譎	-11.3792
僮	-11.3794
琅	-11.3796
𠡠	-11.3796
枋	-11.3796
覇	-11.3796
渴	-11.3797
卻	-11.3799
䆳	-11.3801
閬	-11.3802
緹	-11.3935
徂	-11.3946
歇	-11.3946
撒	-11.3947
擿	-11.3948
繒	-11.3951
縦	-11.3952
殻	-11.3955
屨	-11.3956
隍	-11.3956
忒	-11.3957
崧	-11.3957
禺	-11.396
穡	-11.3964
煒	-11.4105
店	-11.4107
埃	-11.4111
趾	-11.4113
磔	-11.4114
廻	-11.4116
弦	-11.412
盪	-11.4121
鶻	-11.4122
鼠	-11.4122
謐	-11.4126
芽	-11.4127
宓	-11.4128
瑀	-11.413
逕	-11.4266
杼	-11.4267
憸	-11.428
咫	-11.428
杳	-11.4283
銖	-11.4284
侔	-11.4285
斡	-11.4286
諦	-11.4286
誇	-11.4287
纓	-11.4287
菊	-11.4287
壕	-11.4288
闊	-11.4288
紊	-11.4289
鎧	-11.4289
伎	-11.4289
参	-11.4292
櫛	-11.4293
鞅	-11.4296
巽	-11.4298
涌	-11.444
磊	-11.4448
狷	-11.4449
迅	-11.4449
噬	-11.4449
礁	-11.445
栖	-11.4451
胎	-11.4451
航	-11.4452
氓	-11.4452
燬	-11.4454
組	-11.4455
舛	-11.4456
凰	-11.4456
滇	-11.4457
輓	-11.4463
劑	-11.4617
俛	-11.4618
棗	-11.4619
苞	-11.462
喉	-11.4621
款	-11.4622
㨿	-11.4625
鄞	-11.4625
涓	-11.4625
謡	-11.4625
兢	-11.4626
剥	-11.4626
璀	-11.4627
穉	-11.4628
旻	-11.4628
翀	-11.4628
衾	-11.4629
昬	-11.4629
票	-11.4629
頡	-11.4631
芥	-11.4631
隧	-11.4632
騖	-11.4632
矛	-11.4633
挑	-11.4633
涿	-11.478
湍	-11.4795
螺	-11.4796
朞	-11.4797
玷	-11.4797
遘	-11.4797
榦	-11.4799
椎	-11.4799
肢	-11.48
棣	-11.4801
鳶	-11.4801
詬	-11.4803
爪	-11.4803
溯	-11.4803
紏	-11.4804
虗	-11.4806
昶	-11.4806
燄	-11.4806
晁	-11.4807
癘	-11.4807
鏖	-11.4808
雉	-11.4808
怍	-11.4809
雇	-11.4809
湜	-11.4814
鬬	-11.4821
玊	-11.4971
橫	-11.4972
淤	-11.4975
堠	-11.4975
譟	-11.4976
筦	-11.4978
芟	-11.4979
茲	-11.4979
娛	-11.4981
黍	-11.4982
滂	-11.4982
獠	-11.4982
驩	-11.4984
穹	-11.4984
粒	-11.4986
型	-11.4986
頋	-11.4986
蹂	-11.4987
壼	-11.4988
𢡟	-11.5148
菽	-11.515
詈	-11.5154
俎	-11.5155
滓	-11.5155
僊	-11.5156
廨	-11.5158
穰	-11.5158
榛	-11.5159
阡	-11.5161
捄	-11.5161
鄢	-11.5162
咱	-11.5165
脂	-11.5165
贅	-11.5167
厨	-11.5168
怳	-11.5169
簒	-11.517
郃	-11.517
瘳	-11.5171
朂	-11.5173
悛	-11.5173
㐮	-11.5178
瓌	-11.5341
啼	-11.5341
闖	-11.5343
瞰	-11.5344
蹊	-11.5345
儋	-11.5346
賫	-11.5346
嬪	-11.5348
蓍	-11.5348
翦	-11.5348
伽	-11.5348
汩	-11.5349
詘	-11.5349
婿	-11.535
磋	-11.5351
㢤	-11.5352
衂	-11.5354
偪	-11.5355
甕	-11.5525
陌	-11.5529
驢	-11.553
閽	-11.5531
嗚	-11.5532
賕	-11.5533
𦍑	-11.5533
巒	-11.5534
鎖	-11.5535
抒	-11.5535
禘	-11.5535
净	-11.5535
騫	-11.5536
縑	-11.5536
氛	-11.5537
掞	-11.5537
昀	-11.554
烹	-11.554
隗	-11.554
揀	-11.554
鏗	-11.5545
煎	-11.5546
拭	-11.5553
攄	-11.5557
鄖	-11.5705
㦸	-11.5713
縻	-11.5715
麽	-11.5716
㫤	-11.5718
昊	-11.5721
覊	-11.5722
旄	-11.5724
腸	-11.5725
悵	-11.5725
蠢	-11.5726
燼	-11.5726
黥	-11.5728
緇	-11.5728
囿	-11.573
蹶	-11.573
譲	-11.573
獅	-11.5731
臼	-11.5732
祫	-11.5733
徊	-11.5733
䘚	-11.5735
怛	-11.5735
罸	-11.5736
駮	-11.5737
碌	-11.5742
貺	-11.5742
伉	-11.5913
辤	-11.5917
焰	-11.5917
複	-11.5917
腴	-11.5919
鏜	-11.5919
債	-11.592
釀	-11.592
箠	-11.592
䂓	-11.5922
纛	-11.5922
唾	-11.5923
誑	-11.5924
譔	-11.5924
帽	-11.5925
啖	-11.5925
粉	-11.5925
毘	-11.5926
恠	-11.5926
舖	-11.5928
剗	-11.5931
賙	-11.5936
驂	-11.5937
閘	-11.6107
頷	-11.6116
曳	-11.6118
謇	-11.6119
畊	-11.6122
璮	-11.6122
呵	-11.6122
掣	-11.6123
淛	-11.6127
殪	-11.6127
㝷	-11.6127
扺	-11.6127
產	-11.6129
聿	-11.613
叨	-11.613
謔	-11.6133
苻	-11.6135
峨	-11.6135
舂	-11.6136
眠	-11.6315
蘿	-11.6318
哷	-11.6319
葦	-11.6321
璁	-11.6321
岌	-11.6323
估	-11.6324
遶	-11.6324
嘻	-11.6325
瞬	-11.6326
悳	-11.6327
絜	-11.6329
澆	-11.633
躐	-11.6332
椽	-11.6333
曄	-11.6333
顙	-11.6334
悃	-11.6335
詮	-11.634
蟬	-11.634
摹	-11.6341
欄	-11.6524
拷	-11.6525
遙	-11.6526
佯	-11.6527
踪	-11.6529
悞	-11.653
薰	-11.6531
蠟	-11.6532
餐	-11.6533
瑶	-11.6534
曙	-11.6535
涸	-11.6535
紱	-11.6535
籲	-11.6535
倨	-11.6536
𠂻	-11.6537
倜	-11.6538
濙	-11.6538
耐	-11.654
婆	-11.654
撻	-11.6541
瓢	-11.6541
迓	-11.6544
黷	-11.6544
雩	-11.6546
你	-11.6547
諺	-11.6548
狠	-11.6734
糓	-11.6736
浯	-11.6737
扉	-11.6742
拆	-11.6743
禇	-11.6743
酸	-11.6745
翩	-11.6746
耒	-11.6747
觜	-11.6747
盆	-11.6748
撮	-11.6748
斫	-11.6749
肫	-11.675
藪	-11.675
㳟	-11.6752
叵	-11.6752
鏹	-11.6752
酈	-11.6753
謖	-11.6753
暘	-11.6753
殽	-11.6754
憊	-11.6755
搗	-11.6755
孳	-11.6755
羔	-11.6761
糗	-11.6762
闓	-11.6768
耽	-11.6948
𥘉	-11.6955
戩	-11.6961
線	-11.6962
獎	-11.6964
霑	-11.6964
佃	-11.6966
刁	-11.6966
踊	-11.6967
戅	-11.6967
絅	-11.6968
闥	-11.6968
儷	-11.6971
跌	-11.6972
蜚	-11.6974
妬	-11.6974
樗	-11.6976
諉	-11.6976
棋	-11.6976
絰	-11.6978
旂	-11.6979
駸	-11.698
〇	-11.6994
鉤	-11.7171
荔	-11.7173
灤	-11.7178
軟	-11.7179
滎	-11.7182
梨	-11.7184
𢷬	-11.7184
𥙷	-11.7185
蜂	-11.7186
煖	-11.7187
斁	-11.7188
站	-11.7188
韐	-11.7189
寀	-11.7189
糟	-11.7189
嫂	-11.719
皋	-11.719
詛	-11.7191
焕	-11.7192
鑠	-11.7192
兌	-11.7193
耨	-11.7194
睨	-11.7194
噪	-11.7194
券	-11.7195
稠	-11.7196
徘	-11.7197
厮	-11.7198
鉛	-11.7198
羗	-11.7199
糲	-11.72
邾	-11.7211
澧	-11.7404
崙	-11.7405
渺	-11.7406
稻	-11.7407
泠	-11.7408
嚨	-11.741
啇	-11.7411
硯	-11.7413
漿	-11.7413
錠	-11.7414
傭	-11.7414
倐	-11.7415
疚	-11.7415
媒	-11.7415
筋	-11.7416
舁	-11.7417
覔	-11.7422
狃	-11.7422
騏	-11.7422
漂	-11.7422
縂	-11.7423
刷	-11.7423
両	-11.7424
鵠	-11.7424
縶	-11.7424
戯	-11.7425
紬	-11.7428
菲	-11.7428
竑	-11.743
烝	-11.7437
伋	-11.761
沌	-11.7627
叠	-11.7634
妤	-11.7639
駙	-11.764
謄	-11.764
躭	-11.7642
憒	-11.7642
幡	-11.7643
笥	-11.7646
迥	-11.7648
莖	-11.7648
鏤	-11.7649
竺	-11.7649
豺	-11.765
簞	-11.765
塑	-11.765
矍	-11.7652
毆	-11.7653
撿	-11.7654
兑	-11.7655
㮚	-11.7655
踴	-11.7655
抉	-11.7655
楠	-11.7656
栅	-11.7657
璣	-11.7657
塢	-11.7658
㡌	-11.7658
櫟	-11.7659
䨇	-11.7659
嶼	-11.7661
璲	-11.7661
峝	-11.7878
逗	-11.7878
䋲	-11.788
抜	-11.788
暠	-11.788
劔	-11.7881
庖	-11.7881
仭	-11.7883
顒	-11.7884
鄜	-11.7885
氊	-11.7885
汨	-11.7887
脇	-11.7887
讌	-11.7888
膂	-11.7888
悶	-11.7888
櫬	-11.7888
駒	-11.789
郴	-11.789
侑	-11.789
亥	-11.789
們	-11.7891
酹	-11.7892
拍	-11.7892
芸	-11.7894
穫	-11.7895
糞	-11.7896
趍	-11.7896
愴	-11.7897
遹	-11.7897
洺	-11.7899
讙	-11.79
浣	-11.7907
炊	-11.8115
刈	-11.812
嫩	-11.8123
訶	-11.8126
騶	-11.8126
逄	-11.8127
腑	-11.8127
掄	-11.8127
翬	-11.8128
禳	-11.8128
罄	-11.813
筍	-11.813
攖	-11.813
圯	-11.8131
聯	-11.8132
踏	-11.8133
鍰	-11.8133
液	-11.8133
紆	-11.8133
逡	-11.8135
妍	-11.8137
糊	-11.8137
媵	-11.8138
儂	-11.8139
澥	-11.814
妓	-11.814
泝	-11.814
默	-11.814
謟	-11.8141
鶚	-11.8142
孑	-11.8143
蹴	-11.8143
卭	-11.8144
兎	-11.8149
瑊	-11.8355
垍	-11.8364
玘	-11.8366
蟻	-11.8371
鏞	-11.8372
殛	-11.8373
闐	-11.8373
哺	-11.8376
圈	-11.8376
駑	-11.8376
剡	-11.8377
崛	-11.8379
蘊	-11.8379
誹	-11.838
褫	-11.838
劘	-11.838
釡	-11.838
洊	-11.8381
槍	-11.8381
芮	-11.8382
僦	-11.8382
暹	-11.8383
驃	-11.8383
翹	-11.8384
璡	-11.8388
刮	-11.8389
蕡	-11.8389
斐	-11.8389
袂	-11.8389
瓖	-11.839
撞	-11.839
娣	-11.8391
巵	-11.8391
飇	-11.8618
蹄	-11.8621
頲	-11.8625
瀟	-11.8631
栽	-11.8631
垓	-11.8632
猗	-11.8633
笈	-11.8634
愜	-11.8636
儔	-11.8636
嵬	-11.8638
郛	-11.8639
萍	-11.8639
潢	-11.8639
髫	-11.8643
僵	-11.8643
牾	-11.8643
誾	-11.8644
覓	-11.8644
墅	-11.8646
鑨	-11.8648
餼	-11.865
溟	-11.8885
遡	-11.8891
淬	-11.8891
憩	-11.8894
璠	-11.8894
豢	-11.8895
搬	-11.8895
鄲	-11.8896
漓	-11.8897
邯	-11.8897
嶇	-11.8897
痊	-11.8898
揜	-11.8898
瓚	-11.8898
鰥	-11.8899
擄	-11.8899
袒	-11.8899
滙	-11.89
槊	-11.89
廏	-11.89
贛	-11.8901
棹	-11.8901
髦	-11.8901
頺	-11.8901
橘	-11.8901
饉	-11.8902
唇	-11.8902
掊	-11.8903
牓	-11.8903
褊	-11.8904
剏	-11.8904
廋	-11.8904
鵝	-11.8904
凑	-11.8904
柘	-11.8905
晰	-11.8905
愀	-11.8905
諄	-11.8906
燎	-11.8906
晷	-11.8906
磧	-11.8907
齧	-11.8908
堕	-11.8911
壙	-11.8911
勺	-11.8912
坂	-11.8917
餙	-11.8924
􁀊	-11.9151
邳	-11.9156
曺	-11.9159
紗	-11.9159
髓	-11.916
柟	-11.9162
掎	-11.9163
澈	-11.9165
鴟	-11.9165
脊	-11.9165
泮	-11.9165
輗	-11.9166
躪	-11.9166
昺	-11.9166
昩	-11.9168
燃	-11.9169
腕	-11.9169
讋	-11.9169
鏊	-11.917
峴	-11.917
彝	-11.9172
犢	-11.9172
雹	-11.9172
夤	-11.9172
蘖	-11.9173
娯	-11.9174
鈐	-11.9174
瞭	-11.9176
聫	-11.9179
逍	-11.9179
窈	-11.9179
藎	-11.9181
訢	-11.9182
樁	-11.9189
牝	-11.9202
毀	-11.9429
嶴	-11.943
針	-11.9439
挂	-11.944
肎	-11.944
颶	-11.9441
龕	-11.9443
袵	-11.9443
倩	-11.9443
茨	-11.9443
圻	-11.9444
診	-11.9444
刦	-11.9445
慥	-11.9447
阼	-11.9447
灝	-11.9449
蠅	-11.945
鋸	-11.945
茗	-11.9451
樽	-11.9452
装	-11.9454
柬	-11.9455
鍵	-11.9456
窠	-11.9456
麤	-11.9457
牴	-11.9458
僨	-11.9461
肻	-11.9462
匐	-11.9462
焯	-11.9465
猊	-11.9471
剝	-11.9719
􁇾	-11.9721
顚	-11.9723
孕	-11.9724
陴	-11.9725
呢	-11.9726
岀	-11.9727
鯨	-11.9727
雱	-11.9728
靄	-11.9729
巔	-11.973
晡	-11.973
繙	-11.973
寞	-11.9731
皖	-11.9732
盥	-11.9732
揷	-11.9733
雌	-11.9733
丰	-11.9734
秣	-11.9734
驤	-11.9734
荼	-11.9735
蠭	-11.9735
悴	-11.9736
藺	-11.9737
粧	-11.9737
䙝	-11.9737
櫓	-11.9737
躓	-11.9738
頊	-11.9739
聮	-11.9739
黻	-11.9739
珂	-11.9741
宕	-11.9742
吻	-11.9742
涣	-11.9746
牡	-11.9746
埇	-11.9747
柢	-11.9748
珣	-11.9752
莾	-12.0008
烱	-12.0013
喝	-12.0015
宙	-12.0018
郾	-12.0019
爱	-12.0019
腋	-12.002
酤	-12.0021
埽	-12.0021
衿	-12.0024
摸	-12.0025
陬	-12.0025
襁	-12.0026
渣	-12.0026
滴	-12.0027
鷙	-12.0027
淂	-12.0028
坪	-12.0028
蒿	-12.0028
䜟	-12.0029
彫	-12.0029
蒋	-12.0031
煞	-12.0031
綠	-12.0032
隲	-12.0032
遄	-12.0033
茭	-12.0033
莞	-12.0034
叶	-12.0034
禋	-12.0035
据	-12.0035
牋	-12.0036
甦	-12.0037
迦	-12.0038
荐	-12.0038
鴨	-12.0039
忮	-12.0039
㐫	-12.0041
謾	-12.0042
聦	-12.0042
宁	-12.0043
呌	-12.0048
髻	-12.0311
欝	-12.0318
榔	-12.0318
溷	-12.032
嘲	-12.0325
詖	-12.0325
訝	-12.0325
瓉	-12.0326
郕	-12.0326
榘	-12.0327
霾	-12.0327
臾	-12.0327
愎	-12.0328
鹹	-12.0328
壠	-12.0329
髣	-12.0329
糺	-12.033
黽	-12.033
猺	-12.033
濳	-12.0332
贐	-12.0333
箝	-12.0335
惋	-12.0335
俶	-12.0337
鑊	-12.0337
猿	-12.0337
熖	-12.0337
𤨏	-12.0338
伶	-12.0339
墉	-12.034
賾	-12.0342
卹	-12.0344
鮒	-12.0345
褘	-12.0351
耘	-12.0356
烺	-12.0356
剋	-12.0631
饘	-12.0632
駱	-12.0634
颺	-12.0635
顗	-12.0635
湟	-12.0635
溘	-12.0635
暖	-12.0636
蒯	-12.0638
詵	-12.0638
縋	-12.064
砂	-12.064
昃	-12.0641
瑭	-12.0641
瞞	-12.0642
嘔	-12.0642
榭	-12.0642
髠	-12.0643
犖	-12.0643
糅	-12.0643
掉	-12.0645
捃	-12.0647
軋	-12.0647
兔	-12.0647
珊	-12.0647
墀	-12.0648
忙	-12.0648
鷺	-12.0648
摠	-12.0648
癢	-12.0648
脆	-12.0649
肱	-12.0649
蔭	-12.0649
眺	-12.0651
罅	-12.0651
湫	-12.0651
隰	-12.0652
巋	-12.0655
娘	-12.0656
滬	-12.0656
弧	-12.0959
吠	-12.096
娥	-12.096
爼	-12.0961
屛	-12.0961
蚌	-12.0961
媪	-12.0961
圄	-12.0961
輻	-12.0962
啄	-12.0962
稹	-12.0962
遴	-12.0963
薇	-12.0963
耴	-12.0964
窪	-12.0964
鳬	-12.0964
蝦	-12.0964
隷	-12.0965
菩	-12.0965
疴	-12.0966
娱	-12.0967
藐	-12.0967
串	-12.0967
矱	-12.0968
孩	-12.0969
貰	-12.0969
硬	-12.0969
惺	-12.0969
㩁	-12.097
驪	-12.097
霅	-12.0971
燥	-12.0971
鍼	-12.0971
蟄	-12.0972
顆	-12.0972
沱	-12.0973
恆	-12.0973
斑	-12.0974
熏	-12.0975
曦	-12.0975
义	-12.0975
厠	-12.0975
怵	-12.0976
俚	-12.0976
炬	-12.0976
戱	-12.0977
緍	-12.0978
鉗	-12.0983
芾	-12.0988
靑	-12.1281
甃	-12.1283
鍔	-12.1283
倥	-12.1287
犧	-12.1287
絪	-12.1289
暐	-12.1291
埕	-12.1292
㴱	-12.1294
鴉	-12.1294
饟	-12.1295
児	-12.1295
彷	-12.1295
枷	-12.1296
鬰	-12.1296
祟	-12.1296
徉	-12.1296
刹	-12.1298
抛	-12.1299
葆	-12.1299
棐	-12.13
臚	-12.13
袋	-12.13
懟	-12.13
瀝	-12.1301
䧏	-12.1301
旃	-12.1301
耦	-12.1302
攙	-12.1305
翫	-12.1305
裾	-12.1305
暱	-12.1306
疽	-12.1307
捲	-12.1308
詒	-12.1308
纊	-12.1309
匄	-12.1309
滲	-12.131
翅	-12.1311
繚	-12.1311
檝	-12.1312
鋐	-12.1313
㓙	-12.1315
佺	-12.1631
僞	-12.1632
翥	-12.1637
詗	-12.1638
畚	-12.1638
衎	-12.1638
喙	-12.164
刄	-12.164
抹	-12.164
逈	-12.1642
讃	-12.1643
霈	-12.1643
荻	-12.1644
眇	-12.1644
皐	-12.1644
簀	-12.1644
餅	-12.1645
甓	-12.1645
紡	-12.1646
酧	-12.1646
晤	-12.1647
縈	-12.1647
漬	-12.1648
箎	-12.1648
澣	-12.1648
邽	-12.1649
鉏	-12.165
擐	-12.1653
杉	-12.1653
璜	-12.1653
觔	-12.1654
羿	-12.1655
粘	-12.1655
溍	-12.1657
鴆	-12.1657
嫚	-12.1659
滚	-12.1662
彤	-12.1663
棊	-12.167
悆	-12.1969
湼	-12.1976
堞	-12.1976
旭	-12.1976
懣	-12.1986
删	-12.1991
彜	-12.1993
壟	-12.1993
兊	-12.1993
緼	-12.1995
惚	-12.1995
窶	-12.1996
沼	-12.1996
嶮	-12.1998
桷	-12.1999
闌	-12.2
氐	-12.2
璿	-12.2
戶	-12.2
洶	-12.2001
懶	-12.2001
竪	-12.2001
殍	-12.2002
崕	-12.2002
嚼	-12.2002
孛	-12.2002
匍	-12.2002
聾	-12.2003
珤	-12.2004
澠	-12.2005
埸	-12.2005
祲	-12.2006
繄	-12.2006
琯	-12.2007
藜	-12.2008
㬰	-12.2008
挹	-12.2008
齪	-12.2008
痍	-12.2008
莪	-12.201
萎	-12.201
啜	-12.2011
嵐	-12.2012
覯	-12.2013
曖	-12.2013
棼	-12.2014
諶	-12.2014
么	-12.2014
鎔	-12.2017
殂	-12.2019
閟	-12.2022
尭	-12.2024
彖	-12.2034
蹠	-12.2357
𣺌	-12.2357
鼇	-12.2357
刎	-12.2363
潺	-12.2365
扄	-12.2365
盲	-12.2365
捜	-12.2365
鬯	-12.2366
湸	-12.2366
瘼	-12.2368
闘	-12.2368
湄	-12.2369
跣	-12.2369
𤾉	-12.237
廿	-12.237
硜	-12.237
笠	-12.2371
侣	-12.2371
惲	-12.2372
棧	-12.2373
筏	-12.2373
悽	-12.2373
炫	-12.2373
錐	-12.2373
綢	-12.2375
揉	-12.2375
麋	-12.2376
畦	-12.2377
礫	-12.2377
濃	-12.2378
懵	-12.2378
閼	-12.2378
凟	-12.2378
涘	-12.2378
脗	-12.2378
苫	-12.2379
悪	-12.2379
藳	-12.238
艷	-12.238
滹	-12.2381
絢	-12.2382
蓐	-12.2383
厝	-12.2383
卨	-12.2383
㽞	-12.2384
袞	-12.2386
舸	-12.2386
謳	-12.2387
稗	-12.2402
鉦	-12.2402
奩	-12.2737
晶	-12.274
翌	-12.2742
碭	-12.2744
檣	-12.2744
邴	-12.2745
盻	-12.2745
嗤	-12.2747
玭	-12.2747
珝	-12.2747
鎡	-12.2747
蓼	-12.2748
珦	-12.2748
蕙	-12.2748
㓗	-12.2751
珵	-12.2752
㟁	-12.2752
鷗	-12.2752
僇	-12.2753
愔	-12.2753
敭	-12.2753
珥	-12.2754
賵	-12.2755
驁	-12.2755
迸	-12.2755
汜	-12.2756
冏	-12.2756
桶	-12.2758
飫	-12.2759
纘	-12.2759
駞	-12.2759
舄	-12.2759
喋	-12.276
夥	-12.276
梃	-12.2761
庀	-12.2761
淖	-12.2761
榕	-12.2762
劭	-12.2762
弃	-12.2762
凄	-12.2762
捽	-12.2762
弘	-12.2763
嚢	-12.2763
雛	-12.2763
諲	-12.2763
桞	-12.2764
鉢	-12.2764
斵	-12.2766
鵲	-12.2766
㢲	-12.2766
娠	-12.2769
縀	-12.277
擺	-12.2771
畎	-12.2771
匝	-12.2773
姥	-12.2773
綦	-12.3142
囹	-12.3143
葭	-12.3144
揔	-12.3145
鍳	-12.3146
憝	-12.3147
壎	-12.3147
掀	-12.3148
醖	-12.3149
籥	-12.315
簪	-12.3152
昵	-12.3152
鯀	-12.3153
閥	-12.3153
陡	-12.3155
呻	-12.3156
鄠	-12.3157
㸑	-12.3157
墊	-12.3157
稾	-12.3158
䦨	-12.3158
瓶	-12.3158
緫	-12.3159
杰	-12.3159
瘵	-12.316
勍	-12.316
鉄	-12.3161
宄	-12.3161
嵓	-12.3162
沓	-12.3162
柁	-12.3163
媮	-12.3164
綎	-12.3164
曵	-12.3166
瑺	-12.3166
淸	-12.3167
皦	-12.3168
玳	-12.3169
遒	-12.317
豚	-12.3173
笛	-12.3175
无	-12.3183
􁐻	-12.3548
簋	-12.3558
嗔	-12.3559
讟	-12.356
蕘	-12.356
讚	-12.356
禠	-12.3563
僃	-12.3563
瀑	-12.3564
塜	-12.3565
闋	-12.3566
倧	-12.3567
輳	-12.3567
簮	-12.3567
憗	-12.3567
仄	-12.357
穪	-12.357
衽	-12.357
卬	-12.357
彀	-12.357
頰	-12.3571
鏑	-12.3572
歧	-12.3572
胞	-12.3572
嚙	-12.3573
醢	-12.3573
禰	-12.3575
屣	-12.3575
宷	-12.3575
尖	-12.3575
撙	-12.3576
憇	-12.3576
𨗳	-12.3577
聪	-12.3578
凊	-12.3579
刖	-12.3579
岫	-12.3579
窆	-12.3579
緜	-12.3581
桴	-12.3581
雝	-12.3581
蘋	-12.3581
盂	-12.3583
嘑	-12.3583
晳	-12.3584
彘	-12.3584
筒	-12.3585
釘	-12.3585
鋟	-12.3586
溶	-12.3588
肸	-12.3588
趺	-12.3589
釗	-12.3589
頎	-12.3591
謩	-12.3591
翛	-12.3592
适	-12.3593
萇	-12.3594
晞	-12.3981
啗	-12.3989
竆	-12.3991
鼈	-12.3996
瞢	-12.3997
鶉	-12.3998
咀	-12.3998
埭	-12.3999
攫	-12.4
穏	-12.4
䜿	-12.4
逭	-12.4001
靦	-12.4001
絮	-12.4002
溜	-12.4002
楯	-12.4003
瞶	-12.4004
鄕	-12.4004
扆	-12.4004
苔	-12.4004
彿	-12.4005
閧	-12.4006
珀	-12.4007
槨	-12.4007
斾	-12.4009
皜	-12.4009
徜	-12.4009
畛	-12.401
澌	-12.401
泫	-12.401
熺	-12.4011
蕚	-12.4011
値	-12.4011
恫	-12.4012
杓	-12.4012
婣	-12.4012
埓	-12.4014
綾	-12.4014
釵	-12.4015
濰	-12.4017
瑁	-12.4017
幷	-12.4017
笙	-12.4017
魔	-12.4018
繭	-12.4018
沴	-12.4018
珉	-12.4019
犍	-12.4019
熄	-12.4019
秭	-12.402
虬	-12.402
癡	-12.4021
佗	-12.4022
豳	-12.4022
膾	-12.4023
鞾	-12.4025
饜	-12.4025
腥	-12.4026
脯	-12.4026
菑	-12.4034
寬	-12.4429
跖	-12.4439
轎	-12.4447
晃	-12.4449
畤	-12.445
埔	-12.4452
飼	-12.4452
締	-12.4452
汧	-12.4453
剩	-12.4454
琚	-12.4454
撝	-12.4454
痼	-12.4455
咄	-12.4456
縞	-12.4456
倆	-12.4457
嚭	-12.4457
鑣	-12.4457
爚	-12.4457
鴛	-12.4457
欷	-12.4457
罩	-12.4458
𧺫	-12.4458
庄	-12.4458
閈	-12.4458
褥	-12.4459
痕	-12.4459
鴿	-12.4459
磴	-12.4459
菱	-12.4459
噤	-12.446
幇	-12.4461
虺	-12.4461
絞	-12.4461
糠	-12.4461
鵞	-12.4462
賍	-12.4462
煮	-12.4463
侁	-12.4463
鈴	-12.4464
飮	-12.4464
蜒	-12.4465
袴	-12.4465
轟	-12.4466
邂	-12.4466
礮	-12.4466
砭	-12.4466
凃	-12.4467
簣	-12.4467
緊	-12.4467
樾	-12.4467
兠	-12.4467
紵	-12.4468
肴	-12.4469
儱	-12.4469
徔	-12.447
剌	-12.447
諗	-12.447
搶	-12.4471
哦	-12.4471
澇	-12.4472
摳	-12.4472
喘	-12.4472
蘧	-12.4473
肌	-12.4476
鄣	-12.4476
碁	-12.4477
梵	-12.4478
姢	-12.4486
唁	-12.4488
皥	-12.4492
郫	-12.4909
籩	-12.4912
瑰	-12.4923
鑛	-12.4924
欹	-12.4926
儗	-12.4928
䘵	-12.4928
蒜	-12.493
勳	-12.493
瞀	-12.4931
圎	-12.4931
㷀	-12.4931
冽	-12.4933
嘏	-12.4933
鎻	-12.4934
燠	-12.4934
禩	-12.4934
艤	-12.4934
跽	-12.4934
泓	-12.4935
僎	-12.4936
𬒳	-12.4936
簷	-12.4937
淇	-12.4937
瞋	-12.4937
殲	-12.4937
箸	-12.4937
姤	-12.4938
訌	-12.4938
蛋	-12.4939
蕺	-12.494
鍜	-12.4941
爨	-12.4941
揑	-12.4941
瑯	-12.4942
窬	-12.4942
濩	-12.4942
爇	-12.4942
砮	-12.4943
瀦	-12.4943
篙	-12.4945
鬢	-12.4945
纚	-12.4946
槀	-12.4946
轓	-12.4946
吭	-12.4946
綻	-12.4949
勣	-12.4949
㺯	-12.495
眦	-12.4951
亹	-12.4952
郯	-12.4953
劬	-12.4956
蚊	-12.4956
腆	-12.4957
皁	-12.4958
嚚	-12.496
耼	-12.496
圮	-12.4962
囷	-12.4964
璆	-12.5415
羕	-12.5415
艶	-12.5422
嘛	-12.5425
怎	-12.5426
堦	-12.5426
釜	-12.5427
猪	-12.5428
莎	-12.5428
瓛	-12.5429
汐	-12.543
睠	-12.543
澍	-12.5431
鱷	-12.5431
篷	-12.5432
謠	-12.5433
籓	-12.5433
巉	-12.5433
豸	-12.5434
瀧	-12.5435
刳	-12.5435
禫	-12.5436
瀨	-12.5436
煑	-12.5436
踣	-12.5437
褰	-12.5437
焜	-12.5437
貔	-12.5437
堙	-12.5437
匕	-12.5437
樟	-12.5437
幙	-12.5437
敲	-12.5438
黿	-12.5438
𤯝	-12.5438
耋	-12.5438
嘴	-12.5438
缶	-12.5438
霓	-12.5438
㴶	-12.5438
鏘	-12.5439
赭	-12.544
錙	-12.544
挟	-12.544
蹲	-12.544
飈	-12.5441
濼	-12.5442
聆	-12.5442
敡	-12.5442
㝎	-12.5443
嫠	-12.5444
鎛	-12.5445
症	-12.5445
痺	-12.5445
䍐	-12.5446
雎	-12.5446
丱	-12.5446
臟	-12.5446
猫	-12.5447
魅	-12.5448
蹉	-12.5448
詁	-12.5449
櫜	-12.5449
甯	-12.545
觖	-12.5451
㒜	-12.5451
迯	-12.5451
崗	-12.5452
羇	-12.5453
臍	-12.5453
衒	-12.5455
殤	-12.5455
炤	-12.5456
薌	-12.5457
䆒	-12.546
舫	-12.5937
斆	-12.5945
孱	-12.5948
簠	-12.5948
艫	-12.5949
倀	-12.5949
筴	-12.595
倬	-12.5951
䭾	-12.5951
俳	-12.5952
眙	-12.5953
央	-12.5955
开	-12.5955
榷	-12.5956
牕	-12.5957
冤	-12.5957
冣	-12.5959
昕	-12.596
勔	-12.596
葑	-12.5961
窄	-12.5961
綘	-12.5961
靴	-12.5962
瀏	-12.5962
箔	-12.5962
㝢	-12.5962
跛	-12.5962
曇	-12.5963
闞	-12.5963
咈	-12.5964
纉	-12.5964
擘	-12.5965
褓	-12.5965
窀	-12.5965
党	-12.5965
迕	-12.5966
渦	-12.5966
玖	-12.5967
闚	-12.5967
詫	-12.5967
湓	-12.5968
慣	-12.5968
拄	-12.5969
鏃	-12.5969
卉	-12.597
单	-12.597
芙	-12.5971
畯	-12.5971
哂	-12.5971
踧	-12.5971
麈	-12.5971
笋	-12.5972
酖	-12.5972
竢	-12.5973
閃	-12.5973
鋹	-12.5974
飱	-12.5974
瘦	-12.5975
馹	-12.5975
嫗	-12.5976
褎	-12.5976
嶢	-12.5976
憬	-12.5977
鑚	-12.5978
撾	-12.598
魴	-12.598
礱	-12.5982
飴	-12.5982
淩	-12.5984
甜	-12.5985
嶄	-12.5994
㪺	-12.5999
洑	-12.649
匣	-12.6504
颯	-12.6504
祼	-12.6504
澂	-12.6505
侄	-12.6506
疹	-12.6507
惱	-12.6509
臞	-12.6512
吊	-12.6512
扃	-12.6514
庳	-12.6514
煇	-12.6514
噲	-12.6514
饕	-12.6514
鼉	-12.6515
佇	-12.6515
棚	-12.6515
兕	-12.6516
匆	-12.6516
佾	-12.6516
齕	-12.6517
琵	-12.6517
瀰	-12.6517
淋	-12.6519
彧	-12.6519
鶯	-12.6519
尢	-12.652
琶	-12.652
覷	-12.652
塚	-12.6521
胔	-12.6521
劈	-12.6521
紋	-12.6522
阪	-12.6522
傚	-12.6524
唘	-12.6526
跂	-12.6526
淐	-12.6528
閙	-12.6529
閾	-12.6529
裙	-12.6529
烜	-12.653
惮	-12.653
愾	-12.6531
薙	-12.6532
瓏	-12.6532
蚋	-12.6533
醪	-12.6533
殣	-12.6534
癯	-12.6534
䁥	-12.6536
淝	-12.6536
匭	-12.6538
麴	-12.654
洫	-12.6541
眚	-12.6548
牂	-12.6548
渼	-12.6551
蕉	-12.708
聵	-12.7093
搉	-12.7094
遨	-12.7094
鴦	-12.7095
獺	-12.7095
廌	-12.7096
薑	-12.7097
幃	-12.7098
紞	-12.7098
届	-12.7099
奧	-12.7099
嶂	-12.7099
躅	-12.71
軏	-12.7101
梢	-12.7101
匏	-12.7102
攢	-12.7102
暌	-12.7102
諏	-12.7103
躊	-12.7103
縗	-12.7103
鈺	-12.7105
陘	-12.7105
嵊	-12.7105
踖	-12.7105
藕	-12.7106
暈	-12.7106
籖	-12.7106
砌	-12.7107
蓰	-12.7107
藿	-12.7107
笄	-12.7107
鬛	-12.7108
赳	-12.7108
粃	-12.7108
黛	-12.7109
鹺	-12.7109
粵	-12.711
术	-12.711
刧	-12.711
噍	-12.7111
窗	-12.7111
毉	-12.7111
毖	-12.7112
衘	-12.7113
黌	-12.7113
磚	-12.7113
鑽	-12.7114
錚	-12.7114
渟	-12.7114
絕	-12.7115
諠	-12.7116
韞	-12.7116
杪	-12.7116
摽	-12.7117
丢	-12.7117
鈇	-12.7117
爕	-12.7118
瀹	-12.7118
襆	-12.7118
澐	-12.7118
鄫	-12.7118
掦	-12.7119
菁	-12.712
玲	-12.712
痘	-12.712
頹	-12.7121
豔	-12.7121
悸	-12.7122
濺	-12.7123
炮	-12.7124
醵	-12.7125
媸	-12.7125
蚩	-12.7125
妲	-12.7129
匙	-12.7132
戬	-12.7139
凹	-12.7679
鱟	-12.7697
祛	-12.771
躔	-12.7711
偈	-12.7714
?	-12.7717
蟹	-12.7717
粱	-12.7717
綯	-12.7719
稌	-12.772
爍	-12.772
舵	-12.7722
摰	-12.7722
訒	-12.7722
匀	-12.7723
洄	-12.7723
淦	-12.7724
錬	-12.7724
羾	-12.7724
搴	-12.7724
􁲾	-12.7724
跼	-12.7724
篁	-12.7725
悝	-12.7725
闤	-12.7726
捶	-12.7726
眎	-12.7726
姨	-12.7726
塡	-12.7727
訦	-12.7727
庲	-12.7728
秪	-12.7728
怫	-12.7729
鄺	-12.7729
瀼	-12.773
絙	-12.773
塏	-12.773
煆	-12.7731
巘	-12.7731
籃	-12.7731
耑	-12.7731
銃	-12.7731
簸	-12.7731
縟	-12.7733
朶	-12.7733
訔	-12.7734
毬	-12.7734
汊	-12.7734
葩	-12.7735
瀉	-12.7735
獞	-12.7735
淘	-12.7736
齮	-12.7736
昞	-12.7737
穩	-12.7737
濛	-12.7737
悮	-12.7738
貊	-12.7738
橐	-12.7738
莠	-12.7738
粢	-12.7739
埠	-12.7739
襚	-12.774
圏	-12.774
菓	-12.774
忩	-12.7741
斲	-12.7741
郜	-12.7743
叫	-12.7743
蟾	-12.7746
髀	-12.7747
螭	-12.7747
郄	-12.7749
犫	-12.7749
嫓	-12.7749
秤	-12.7749
郿	-12.7749
邜	-12.7751
呶	-12.7751
蒔	-12.7752
緱	-12.7752
𥚹	-12.7755
筌	-12.7761
璨	-12.7762
蕳	-12.7772
柑	-12.8343
㳄	-12.8363
璵	-12.8365
盔	-12.8384
葱	-12.8385
椅	-12.8387
夐	-12.8388
洧	-12.8389
綮	-12.8389
礎	-12.8389
恡	-12.839
芹	-12.8391
澎	-12.8391
霏	-12.8392
郇	-12.8392
洸	-12.8392
犇	-12.8393
豊	-12.8393
崆	-12.8393
穽	-12.8393
㫄	-12.8394
氾	-12.8394
蝟	-12.8394
蝶	-12.8394
釃	-12.8395
㒺	-12.8395
澦	-12.8397
緻	-12.8398
岔	-12.8398
勗	-12.8398
狙	-12.8398
幔	-12.8398
𬗟	-12.8399
蚶	-12.8399
漚	-12.8401
犴	-12.8401
頁	-12.8401
屡	-12.8402
瞪	-12.8402
嶲	-12.8403
醯	-12.8404
蔕	-12.8404
燿	-12.8404
蒂	-12.8404
暄	-12.8405
櫻	-12.8405
紈	-12.8405
縢	-12.8406
睟	-12.8406
攅	-12.8406
拽	-12.8406
搭	-12.8407
簫	-12.8407
汭	-12.8407
掬	-12.8407
罍	-12.8408
匾	-12.8408
硏	-12.8408
阱	-12.8408
涅	-12.8409
榱	-12.8409
秬	-12.841
癖	-12.841
灋	-12.841
𫉬	-12.8411
媢	-12.8411
憔	-12.8412
僂	-12.8413
躱	-12.8413
悻	-12.8413
漈	-12.8414
噴	-12.8415
嵌	-12.8415
戦	-12.8415
湔	-12.8415
卲	-12.8416
獬	-12.8417
茸	-12.842
箱	-12.8421
􁏢	-12.8421
蛾	-12.8422
𡨕	-12.8424
劌	-12.8428
梴	-12.8428
菉	-12.8429
琁	-12.8431
枵	-12.8435
鄤	-12.9079
蛤	-12.9086
賃	-12.9095
澁	-12.9096
讁	-12.9097
鷇	-12.9098
漾	-12.9099
瀬	-12.9099
娑	-12.9101
鮪	-12.9101
穗	-12.9102
旴	-12.9102
鞋	-12.9103
攪	-12.9105
珹	-12.9105
簇	-12.9105
噎	-12.9107
阬	-12.9107
仿	-12.9107
輜	-12.9107
脛	-12.9108
刲	-12.9108
䄂	-12.9108
篚	-12.9108
兜	-12.9109
飜	-12.911
朘	-12.9111
㗖	-12.9111
㪷	-12.9112
甑	-12.9113
轢	-12.9114
夬	-12.9114
洹	-12.9114
㳫	-12.9115
衊	-12.9115
畸	-12.9116
扳	-12.9117
躇	-12.9117
韡	-12.9117
邰	-12.9117
窻	-12.9118
慫	-12.9118
鑕	-12.9118
蓑	-12.9119
𧖟	-12.9119
襪	-12.912
鑱	-12.9121
姝	-12.9121
邲	-12.9122
衫	-12.9123
燹	-12.9123
𦕈	-12.9123
惎	-12.9124
􁃝	-12.9124
沫	-12.9124
咤	-12.9124
嵎	-12.9124
篠	-12.9126
杠	-12.9129
塤	-12.913
贜	-12.9131
箬	-12.9132
万	-12.9132
唃	-12.9134
忭	-12.9135
嘖	-12.914
㾗	-12.9144
鬷	-12.9145
涎	-12.9163
懃	-12.9847
茄	-12.985
蜮	-12.9855
舗	-12.9861
鰌	-12.9864
纜	-12.9865
漑	-12.9865
贗	-12.9865
斶	-12.9866
弹	-12.9866
籙	-12.987
份	-12.987
衺	-12.987
煨	-12.9871
璝	-12.9872
礴	-12.9872
嗛	-12.9872
觚	-12.9873
曁	-12.9873
偓	-12.9873
篡	-12.9874
佔	-12.9874
凂	-12.9874
菌	-12.9876
綉	-12.9876
欎	-12.9877
瑤	-12.9878
垐	-12.9879
騾	-12.988
菰	-12.988
隤	-12.988
骼	-12.9881
鍤	-12.9882
撑	-12.9882
鷂	-12.9882
坌	-12.9883
熬	-12.9884
丼	-12.9885
愊	-12.9885
鍛	-12.9885
痿	-12.9885
褀	-12.9886
噉	-12.9886
鍚	-12.9887
愒	-12.9887
筐	-12.9887
描	-12.9887
軄	-12.9887
鵰	-12.9888
鐺	-12.9888
幗	-12.9889
罟	-12.9889
踽	-12.9889
沍	-12.9889
呪	-12.9889
窓	-12.9889
瓣	-12.9889
挐	-12.9889
飡	-12.989
彎	-12.989
黶	-12.9891
儇	-12.9891
􁏉	-12.9893
戇	-12.9893
酆	-12.9893
駛	-12.9893
圩	-12.9893
𠫭	-12.9894
璹	-12.9896
􁂯	-12.9896
䞇	-12.9897
聒	-12.9897
櫂	-12.9897
襮	-12.9898
胖	-12.9898
㬥	-12.9898
羆	-12.9899
鞬	-12.99
珮	-12.9901
蹔	-12.9902
盼	-12.9902
窕	-12.9903
珽	-12.9904
槽	-12.9905
諼	-12.9911
蔿	-12.9912
苕	-12.9913
肓	-12.992
罃	-12.9938
婧	-13.0689
埰	-13.0695
埤	-13.0698
猴	-13.0698
吃	-13.07
嶙	-13.0701
甬	-13.0701
仡	-13.0703
岞	-13.0703
訹	-13.0703
膴	-13.0703
异	-13.0704
蜃	-13.0704
溱	-13.0704
湎	-13.0705
迢	-13.0706
瘖	-13.0707
漉	-13.0707
㭿	-13.0707
閴	-13.0707
湥	-13.0708
諟	-13.0708
袪	-13.0708
駰	-13.0709
孀	-13.0709
㵼	-13.071
衲	-13.071
艇	-13.0711
巗	-13.0711
朐	-13.0712
蘗	-13.0712
炷	-13.0712
纁	-13.0712
擡	-13.0712
淟	-13.0713
虔	-13.0713
厩	-13.0714
磵	-13.0714
澮	-13.0714
紺	-13.0714
縲	-13.0715
盱	-13.0715
牐	-13.0715
悈	-13.0715
祻	-13.0715
幘	-13.0715
膜	-13.0715
娟	-13.0715
碙	-13.0716
拴	-13.0716
鬲	-13.0716
㩀	-13.0716
丏	-13.0716
蜜	-13.0716
喁	-13.0717
觫	-13.0718
磷	-13.0719
蘚	-13.0719
慼	-13.072
盃	-13.072
傴	-13.0721
璃	-13.0721
醋	-13.0721
碍	-13.0721
縯	-13.0721
褁	-13.0721
虀	-13.0722
慍	-13.0722
擎	-13.0722
瓠	-13.0724
軔	-13.0724
脾	-13.0725
䑸	-13.0725
悒	-13.0725
柝	-13.0725
棁	-13.0726
枘	-13.0727
軿	-13.0727
沭	-13.0727
餗	-13.0727
攽	-13.0729
舩	-13.0729
嵇	-13.0729
氤	-13.0729
氲	-13.0729
芍	-13.0729
拏	-13.073
緞	-13.073
抝	-13.073
栰	-13.0731
縹	-13.0731
澡	-13.0732
哆	-13.0732
點	-13.0733
屐	-13.0734
勷	-13.0734
惘	-13.0735
筯	-13.074
勩	-13.0745
栝	-13.0745
礵	-13.0746
盞	-13.0747
芰	-13.0755
縠	-13.0755
肹	-13.0764
郈	-13.0786
攤	-13.1598
茵	-13.1602
桮	-13.1603
嚶	-13.1604
囤	-13.1604
挨	-13.1606
踉	-13.1607
荃	-13.1607
襯	-13.1607
駈	-13.1609
㜑	-13.161
姆	-13.161
鐩	-13.1611
胚	-13.1611
䶵	-13.1612
睫	-13.1612
禔	-13.1614
䲭	-13.1614
輛	-13.1614
獪	-13.1616
佈	-13.1617
鐍	-13.1617
郗	-13.1617
磾	-13.1618
𫀆	-13.1618
榴	-13.1618
鴞	-13.1619
櫃	-13.1619
􁱷	-13.162
鷓	-13.162
悱	-13.162
燉	-13.1621
暝	-13.1621
暦	-13.1621
暎	-13.1622
璩	-13.1622
澘	-13.1622
餱	-13.1622
傒	-13.1622
蟇	-13.1623
鈿	-13.1623
佖	-13.1623
昴	-13.1623
释	-13.1623
蹻	-13.1623
涊	-13.1624
赧	-13.1624
篝	-13.1624
橚	-13.1625
瘧	-13.1625
葷	-13.1625
簟	-13.1625
綆	-13.1626
朦	-13.1626
槧	-13.1626
拐	-13.1627
攣	-13.1627
闒	-13.1627
矦	-13.1627
邙	-13.1627
椗	-13.1627
倔	-13.1627
㳙	-13.1628
窋	-13.1628
逶	-13.1628
妺	-13.1628
絺	-13.1628
佶	-13.1629
㩦	-13.1629
洳	-13.163
髭	-13.163
壖	-13.163
媛	-13.163
甡	-13.163
帚	-13.1631
綍	-13.1631
旹	-13.1631
巇	-13.1631
煕	-13.1632
茁	-13.1632
醊	-13.1632
搒	-13.1633
磽	-13.1633
檟	-13.1634
媳	-13.1635
哇	-13.1635
泅	-13.1636
瞠	-13.1636
崞	-13.1636
芋	-13.1636
扑	-13.1636
滏	-13.1637
鐃	-13.1637
㕓	-13.1637
䌓	-13.1637
尫	-13.1638
矇	-13.1638
駘	-13.1638
蛙	-13.1639
恧	-13.1639
淙	-13.1639
捭	-13.164
塼	-13.164
涑	-13.1641
吼	-13.1642
踔	-13.1642
窅	-13.1642
睽	-13.1644
騤	-13.1645
玹	-13.1645
邨	-13.1645
煢	-13.1646
祏	-13.1646
賭	-13.1646
暵	-13.1648
阯	-13.1649
惛	-13.1649
艸	-13.165
杵	-13.1651
蕈	-13.1652
褧	-13.1652
憖	-13.1653
爬	-13.1666
蒍	-13.1683
鮓	-13.2593
貤	-13.2593
蔥	-13.2595
甍	-13.2596
瑱	-13.2597
蹌	-13.2598
颷	-13.2598
翽	-13.2599
栩	-13.2603
邅	-13.2605
櫝	-13.2605
繻	-13.2606
蔀	-13.2607
峋	-13.2609
聃	-13.2609
𥪡	-13.2609
燫	-13.2609
禅	-13.261
鞓	-13.2612
卸	-13.2613
饍	-13.2613
侶	-13.2614
贇	-13.2614
矗	-13.2614
澀	-13.2615
抨	-13.2615
諝	-13.2616
􁫏	-13.2617
閿	-13.2618
潄	-13.2619
眸	-13.2619
糒	-13.2619
磻	-13.2619
畵	-13.2619
陿	-13.2619
汁	-13.262
蜑	-13.262
韈	-13.262
肋	-13.262
岢	-13.2621
萄	-13.2621
鏁	-13.2621
槪	-13.2621
楙	-13.2622
頫	-13.2622
阸	-13.2623
閌	-13.2624
籟	-13.2624
㛰	-13.2624
拮	-13.2624
疥	-13.2624
蠖	-13.2624
擷	-13.2625
嘅	-13.2625
週	-13.2625
臠	-13.2626
曆	-13.2626
埏	-13.2627
楸	-13.2627
眤	-13.2628
璇	-13.2629
凈	-13.2629
韵	-13.2629
砍	-13.2629
嘘	-13.2629
偲	-13.2629
尠	-13.263
哽	-13.2631
嶸	-13.2632
蕆	-13.2632
窖	-13.2632
蠙	-13.2633
閶	-13.2633
苧	-13.2633
嫻	-13.2633
魑	-13.2633
隼	-13.2634
幢	-13.2634
埶	-13.2634
犁	-13.2634
婪	-13.2635
蹷	-13.2635
珩	-13.2635
篳	-13.2635
覡	-13.2637
儈	-13.2637
橙	-13.2637
敺	-13.2637
蚡	-13.2637
継	-13.2638
緲	-13.2638
剸	-13.2638
插	-13.2638
梳	-13.2639
揠	-13.2639
萱	-13.2639
鞮	-13.264
眊	-13.264
箐	-13.2641
芑	-13.2641
眄	-13.2641
礲	-13.2641
貍	-13.2643
㰱	-13.2643
匯	-13.2644
煅	-13.2644
爝	-13.2644
矼	-13.2644
炌	-13.2644
戹	-13.2645
禡	-13.2646
滉	-13.2646
瘍	-13.2646
竽	-13.2646
萑	-13.2647
墪	-13.2648
糵	-13.2648
鞶	-13.2652
箧	-13.2653
畬	-13.2654
槎	-13.2655
㱕	-13.2656
疢	-13.2657
疉	-13.2657
欬	-13.2657
鮀	-13.2663
刱	-13.2668
塽	-13.268
珈	-13.3696
刅	-13.37
啞	-13.3702
瞍	-13.3702
悄	-13.3706
拿	-13.3711
欖	-13.3711
甿	-13.3712
㒒	-13.3713
櫪	-13.3713
陁	-13.3716
蹐	-13.3717
彂	-13.3718
絛	-13.3721
匈	-13.3722
甎	-13.3722
孶	-13.3722
骫	-13.3723
垠	-13.3724
皭	-13.3725
鄯	-13.3725
亓	-13.3726
薾	-13.3727
獷	-13.3728
溽	-13.3729
酗	-13.3729
鏐	-13.3729
緦	-13.3729
悰	-13.373
茀	-13.373
坻	-13.373
螟	-13.373
螻	-13.3731
鍇	-13.3731
刓	-13.3732
稳	-13.3733
坼	-13.3734
峡	-13.3734
儌	-13.3734
捋	-13.3734
昪	-13.3734
痰	-13.3735
睇	-13.3735
嗒	-13.3735
絆	-13.3735
滀	-13.3735
旛	-13.3736
瘐	-13.3736
鍪	-13.3737
瑨	-13.3737
慆	-13.3737
揵	-13.3737
郪	-13.3737
汹	-13.3737
龐	-13.3737
竁	-13.3738
忡	-13.3738
扯	-13.3738
鍋	-13.3739
栱	-13.3739
涂	-13.374
隚	-13.374
唶	-13.3741
玻	-13.3741
怱	-13.3741
蕢	-13.3741
歜	-13.3741
堊	-13.3742
塈	-13.3742
黏	-13.3742
惬	-13.3742
狸	-13.3743
蕝	-13.3743
錘	-13.3743
毳	-13.3744
頳	-13.3744
嶧	-13.3744
价	-13.3744
偘	-13.3744
咻	-13.3744
鱄	-13.3745
坫	-13.3745
杌	-13.3745
牿	-13.3745
攟	-13.3745
樑	-13.3745
袝	-13.3745
瘝	-13.3745
紝	-13.3745
姙	-13.3746
夹	-13.3747
帔	-13.3747
搔	-13.3747
闉	-13.3748
棫	-13.3748
齔	-13.3748
梭	-13.3748
厪	-13.3749
鯤	-13.3749
枹	-13.3749
嚬	-13.3749
徯	-13.375
慱	-13.375
簧	-13.375
羶	-13.375
楽	-13.3751
􁢛	-13.3751
罏	-13.3751
頟	-13.3752
嚞	-13.3752
羹	-13.3752
䧺	-13.3752
綈	-13.3753
埵	-13.3754
嵛	-13.3757
籕	-13.3757
祓	-13.3758
貉	-13.3761
魃	-13.3761
黟	-13.3761
眥	-13.3762
殚	-13.3762
歘	-13.3763
朅	-13.3763
嶝	-13.3764
潨	-13.3766
顰	-13.3767
棉	-13.377
塩	-13.3771
閡	-13.378
碏	-13.3785
傕	-13.4937
曀	-13.4944
頜	-13.4954
撩	-13.4958
椀	-13.4961
窳	-13.4963
䘙	-13.4965
䘖	-13.4965
灃	-13.4965
􁃻	-13.4965
癲	-13.4967
􁅭	-13.4968
櫄	-13.4969
鏌	-13.4969
摛	-13.4969
烙	-13.4969
讖	-13.497
晜	-13.4971
譌	-13.4972
檠	-13.4973
緖	-13.4973
皤	-13.4973
灞	-13.4973
罽	-13.4973
棖	-13.4974
蕕	-13.4974
濘	-13.4975
嗅	-13.4975
禨	-13.4975
䓁	-13.4977
洟	-13.4978
晬	-13.4978
蓽	-13.4978
氈	-13.4978
崤	-13.4979
廱	-13.4979
鴣	-13.4979
杆	-13.498
妒	-13.4981
撡	-13.4981
崎	-13.4982
総	-13.4982
壚	-13.4982
峥	-13.4983
擗	-13.4983
俵	-13.4983
賖	-13.4984
桅	-13.4984
絏	-13.4984
螫	-13.4984
跟	-13.4984
貜	-13.4985
慳	-13.4985
暍	-13.4985
慁	-13.4985
秃	-13.4986
斿	-13.4986
魍	-13.4986
蠒	-13.4986
讕	-13.4986
皿	-13.4987
趕	-13.4987
蹋	-13.4987
勰	-13.4988
襦	-13.4988
碗	-13.4988
冄	-13.4988
嶤	-13.4988
薏	-13.4988
僥	-13.4988
樣	-13.4989
窰	-13.4989
厎	-13.4989
靚	-13.4989
蓁	-13.4989
裸	-13.4989
壌	-13.4989
坵	-13.499
盭	-13.499
懔	-13.499
泆	-13.499
慵	-13.4991
贋	-13.4991
喆	-13.4991
胤	-13.4991
簏	-13.4991
廄	-13.4991
瞳	-13.4991
旼	-13.4991
埂	-13.4992
梱	-13.4992
婭	-13.4992
浰	-13.4993
饔	-13.4993
嵯	-13.4993
蘷	-13.4993
啣	-13.4993
疣	-13.4993
􁁦	-13.4993
􁈂	-13.4993
蠆	-13.4994
􁠭	-13.4994
慴	-13.4995
荏	-13.4995
魎	-13.4995
戟	-13.4995
曝	-13.4995
礧	-13.4996
胆	-13.4996
輾	-13.4996
鶩	-13.4996
騃	-13.4997
硃	-13.4997
翶	-13.4997
緄	-13.4997
筞	-13.4997
鵶	-13.4997
硫	-13.4997
覸	-13.4998
廽	-13.4998
謦	-13.4999
劓	-13.4999
嚅	-13.4999
睂	-13.4999
鋗	-13.4999
蘩	-13.4999
棒	-13.4999
蔴	-13.5
媟	-13.5001
郟	-13.5001
剉	-13.5002
耜	-13.5002
痒	-13.5004
􁁴	-13.5004
侏	-13.5004
橑	-13.5004
缾	-13.5006
矮	-13.5006
􁈍	-13.5006
悾	-13.5007
蔞	-13.5008
輞	-13.5008
頮	-13.5008
惨	-13.5008
逯	-13.5008
籞	-13.501
鼂	-13.5011
齓	-13.5011
嶻	-13.5015
􁯌	-13.5015
𢃄	-13.5019
􁌿	-13.5019
嘐	-13.5025
尨	-13.503
䔍	-13.5038
珫	-13.5039
佻	-13.5045
澯	-13.5048
漯	-13.635
厫	-13.6359
蠣	-13.6361
耔	-13.6372
蠔	-13.6375
姣	-13.6381
灊	-13.6383
泪	-13.6383
瞎	-13.6384
爺	-13.6387
􁂪	-13.6387
秧	-13.6388
换	-13.6389
頔	-13.639
騂	-13.6393
惹	-13.6394
蹰	-13.6395
玶	-13.6395
蒨	-13.6396
戛	-13.6396
鬪	-13.6396
皴	-13.6397
􁰋	-13.6398
窣	-13.6399
椁	-13.6399
呀	-13.64
鋩	-13.6401
㙮	-13.6402
豨	-13.6402
廞	-13.6402
犛	-13.6402
譊	-13.6402
閠	-13.6402
繯	-13.6402
蒺	-13.6402
呐	-13.6403
儳	-13.6404
咒	-13.6405
卡	-13.6405
碇	-13.6405
嗷	-13.6405
糖	-13.6405
穵	-13.6406
堧	-13.6406
咋	-13.6407
濆	-13.6407
矚	-13.6407
噓	-13.6408
褻	-13.6408
鉌	-13.6408
渰	-13.6408
騭	-13.6409
襖	-13.6409
櫺	-13.6409
僱	-13.6409
机	-13.6409
􁐠	-13.6409
醲	-13.641
殀	-13.6411
躒	-13.6411
䑛	-13.6411
芘	-13.6411
騮	-13.6411
拗	-13.6411
痔	-13.6411
皝	-13.6411
眡	-13.6411
龢	-13.6412
綝	-13.6413
趯	-13.6413
漪	-13.6413
楔	-13.6414
娼	-13.6414
乱	-13.6414
騋	-13.6415
勌	-13.6415
幬	-13.6415
摺	-13.6415
觥	-13.6415
驆	-13.6415
蚕	-13.6415
骯	-13.6415
袐	-13.6415
噱	-13.6416
浥	-13.6416
蛛	-13.6417
膈	-13.6417
崢	-13.6417
熲	-13.6417
嬌	-13.6417
綌	-13.6417
辮	-13.6417
瑒	-13.6418
斚	-13.6418
虵	-13.6418
愞	-13.6419
礬	-13.6419
噩	-13.6419
蜕	-13.642
酲	-13.642
駉	-13.642
􁂜	-13.642
噀	-13.642
鸕	-13.642
猱	-13.642
麵	-13.642
桱	-13.6421
蛻	-13.6422
螽	-13.6423
蹀	-13.6423
漷	-13.6423
秖	-13.6423
撇	-13.6423
坭	-13.6423
狴	-13.6423
譸	-13.6424
絓	-13.6424
朢	-13.6424
冇	-13.6425
禜	-13.6425
颼	-13.6425
酺	-13.6425
敉	-13.6425
栒	-13.6425
駔	-13.6425
鱉	-13.6425
翃	-13.6425
煊	-13.6425
銕	-13.6426
関	-13.6426
俐	-13.6426
縡	-13.6426
顱	-13.6426
确	-13.6426
鄘	-13.6427
翮	-13.6427
蹵	-13.6427
鸛	-13.6428
荑	-13.6428
襞	-13.6429
􁲠	-13.6429
胼	-13.643
廳	-13.6431
苓	-13.6431
伷	-13.6432
菟	-13.6432
喊	-13.6432
忖	-13.6432
轘	-13.6432
嘱	-13.6432
坰	-13.6432
柅	-13.6433
鈆	-13.6434
囁	-13.6434
暏	-13.6434
獍	-13.6435
詼	-13.6435
碉	-13.6435
鄄	-13.6435
痴	-13.6436
柷	-13.6437
􁨑	-13.6437
姫	-13.6437
眹	-13.6437
俅	-13.6438
碚	-13.6439
瑑	-13.6439
峕	-13.6439
剜	-13.644
鱣	-13.644
鄊	-13.6441
攩	-13.6441
腊	-13.6441
秕	-13.6443
痁	-13.6444
忞	-13.6445
趋	-13.6446
姞	-13.645
斮	-13.6451
鐙	-13.6453
癉	-13.6455
袠	-13.646
譓	-13.646
㞦	-13.6484
罇	-13.6485
蓢	-13.8013
鐶	-13.8019
淶	-13.8026
𤇺	-13.8027
􁃇	-13.8028
喟	-13.8029
乩	-13.8031
趄	-13.8039
麕	-13.8043
脰	-13.8047
泱	-13.8049
􁋊	-13.8054
㷱	-13.8054
瞷	-13.8055
疼	-13.8055
歂	-13.8056
薺	-13.8057
屎	-13.8057
撈	-13.8058
呆	-13.8059
􁀣	-13.806
穠	-13.806
蕾	-13.8061
醸	-13.8061
窽	-13.8061
崒	-13.8061
姍	-13.8062
襌	-13.8062
瓆	-13.8062
㦯	-13.8063
湋	-13.8063
輋	-13.8063
􁦹	-13.8064
誷	-13.8065
哮	-13.8065
鬆	-13.8066
穜	-13.8067
澨	-13.8067
瑢	-13.8067
咳	-13.8068
廛	-13.8068
癬	-13.8068
隈	-13.8068
滻	-13.8068
睛	-13.8069
攲	-13.8069
癰	-13.8069
玫	-13.8069
蓊	-13.807
􁇔	-13.807
烴	-13.807
膊	-13.8071
槳	-13.8071
雯	-13.8071
瓿	-13.8071
樅	-13.8071
褂	-13.8071
遫	-13.8071
窿	-13.8072
弈	-13.8072
毦	-13.8072
俻	-13.8073
屩	-13.8073
昜	-13.8073
淅	-13.8073
㡳	-13.8075
耰	-13.8075
屆	-13.8075
釬	-13.8075
岏	-13.8076
傀	-13.8076
曬	-13.8077
捆	-13.8077
弢	-13.8077
鯢	-13.8077
餕	-13.8077
蓺	-13.8077
誶	-13.8078
辣	-13.8078
艨	-13.8078
嬙	-13.8078
岧	-13.8079
辠	-13.8079
衜	-13.8079
籀	-13.8079
􁇦	-13.8079
胃	-13.8079
膰	-13.8079
嬾	-13.8079
薈	-13.8079
暕	-13.8079
𦦨	-13.808
㴠	-13.8081
蠋	-13.8081
芷	-13.8081
柞	-13.8081
厘	-13.8081
裎	-13.8081
瘃	-13.8082
㬇	-13.8082
衟	-13.8083
㶁	-13.8083
祍	-13.8083
儡	-13.8084
燁	-13.8084
橡	-13.8084
瘥	-13.8084
攔	-13.8084
㠶	-13.8084
轔	-13.8084
莢	-13.8085
浡	-13.8085
獮	-13.8086
狖	-13.8086
耉	-13.8086
蘂	-13.8086
鑪	-13.8086
憺	-13.8086
檐	-13.8086
虱	-13.8087
􁬸	-13.8087
枳	-13.8087
裭	-13.8087
橈	-13.8087
划	-13.8087
􁊞	-13.8087
鋼	-13.8088
遅	-13.8088
琇	-13.8088
笳	-13.8088
虖	-13.8089
遟	-13.8089
竚	-13.8089
虓	-13.8089
罣	-13.8089
柿	-13.809
糈	-13.809
枲	-13.809
賮	-13.809
􁦚	-13.809
洼	-13.8091
忸	-13.8091
瘢	-13.8091
蠏	-13.8091
隃	-13.8091
籜	-13.8092
儵	-13.8093
螘	-13.8093
丫	-13.8093
媽	-13.8093
姧	-13.8094
呰	-13.8094
鷲	-13.8094
蝨	-13.8094
輈	-13.8094
癭	-13.8094
䦧	-13.8095
啾	-13.8095
輭	-13.8095
𬋩	-13.8095
枿	-13.8095
挿	-13.8096
鼾	-13.8096
揄	-13.8096
禭	-13.8097
塙	-13.8097
郅	-13.8097
蝎	-13.8097
淒	-13.8097
羯	-13.8097
阽	-13.8097
粳	-13.8098
堣	-13.8098
鞌	-13.8098
髹	-13.8098
漦	-13.8099
傖	-13.8099
僩	-13.8099
枅	-13.8099
町	-13.81
蜺	-13.81
腎	-13.81
醻	-13.81
戞	-13.81
黝	-13.81
楗	-13.8101
歊	-13.8101
皃	-13.8102
鵒	-13.8102
棻	-13.8102
鷃	-13.8102
厷	-13.8102
鸜	-13.8102
貓	-13.8102
霰	-13.8102
罌	-13.8103
胝	-13.8103
䇓	-13.8103
憙	-13.8104
餬	-13.8104
􁂎	-13.8104
尒	-13.8104
沚	-13.8105
紕	-13.8105
賺	-13.8105
凭	-13.8105
觶	-13.8106
隩	-13.8106
鮫	-13.8107
糢	-13.8107
呑	-13.8108
敔	-13.8109
嶪	-13.8109
搤	-13.8109
瓮	-13.811
痾	-13.811
籽	-13.8113
湴	-13.8115
簦	-13.8115
侫	-13.8117
􁀾	-13.8117
錞	-13.8117
囮	-13.812
紉	-13.8121
晢	-13.8121
剃	-13.8123
旡	-13.8123
畞	-13.8123
轝	-13.8125
䬃	-13.8161
槥	-14.001
瑫	-14.0015
粽	-14.0019
㐲	-14.0026
滘	-14.0031
醨	-14.0031
跧	-14.0036
㒞	-14.0036
莩	-14.0039
逴	-14.0041
牯	-14.0043
獰	-14.0046
涴	-14.0046
岨	-14.0049
媼	-14.0049
蕋	-14.0049
錝	-14.0051
穂	-14.0052
鄔	-14.0054
愳	-14.0054
沠	-14.0054
滾	-14.0055
鬍	-14.0056
泡	-14.0056
韭	-14.0056
儺	-14.0056
灶	-14.0057
𠻳	-14.0057
禝	-14.0057
醬	-14.0058
渫	-14.0059
㽔	-14.006
浃	-14.006
迮	-14.006
煤	-14.0061
嶔	-14.0062
濞	-14.0062
憕	-14.0063
懂	-14.0063
簴	-14.0063
豋	-14.0064
􁀧	-14.0064
倏	-14.0064
淊	-14.0064
黮	-14.0064
紲	-14.0065
峘	-14.0065
抶	-14.0065
浼	-14.0066
鎩	-14.0066
蓴	-14.0066
嫕	-14.0066
箑	-14.0067
垕	-14.0067
斸	-14.0068
挍	-14.0068
廥	-14.0069
录	-14.0069
歠	-14.007
蠎	-14.007
逥	-14.007
􁈊	-14.007
嵒	-14.007
􁒺	-14.0071
咺	-14.0071
拚	-14.0071
鎚	-14.0071
记	-14.0071
縕	-14.0072
銚	-14.0072
鞕	-14.0072
灔	-14.0072
瑠	-14.0072
賠	-14.0073
轆	-14.0073
唳	-14.0073
甖	-14.0073
靬	-14.0073
吮	-14.0074
碾	-14.0074
哱	-14.0074
臀	-14.0075
誆	-14.0075
葡	-14.0075
戣	-14.0075
虣	-14.0075
塌	-14.0075
騙	-14.0076
咿	-14.0076
珞	-14.0076
曏	-14.0076
笆	-14.0076
霣	-14.0076
茒	-14.0076
朧	-14.0076
廑	-14.0077
惽	-14.0077
厶	-14.0077
嘠	-14.0077
梲	-14.0077
鎸	-14.0078
瀣	-14.0078
肚	-14.0078
罥	-14.0078
羖	-14.0078
𥙿	-14.0078
㞐	-14.0078
䓻	-14.0078
劂	-14.0079
媾	-14.0079
楩	-14.0079
獧	-14.0079
駴	-14.008
𫝑	-14.008
酪	-14.008
嵂	-14.008
笻	-14.008
蟣	-14.008
缽	-14.0082
嘽	-14.0082
􁐾	-14.0083
櫨	-14.0083
纏	-14.0083
枌	-14.0083
綖	-14.0084
酎	-14.0084
釴	-14.0084
韌	-14.0084
齦	-14.0084
􁆸	-14.0084
醺	-14.0085
鶡	-14.0085
韠	-14.0085
胗	-14.0085
紼	-14.0086
撐	-14.0086
晒	-14.0086
蒭	-14.0086
榼	-14.0087
眘	-14.0087
圵	-14.0087
簑	-14.0087
肈	-14.0087
痢	-14.0087
磑	-14.0088
嘷	-14.0088
鮭	-14.0088
懍	-14.0088
麀	-14.0088
􁪶	-14.0088
魋	-14.0089
鏟	-14.0089
桌	-14.0089
槱	-14.0089
緌	-14.009
袿	-14.009
嚳	-14.009
𣗳	-14.0091
􁒦	-14.0091
橛	-14.0091
竜	-14.0091
驄	-14.0091
繽	-14.0091
椶	-14.0091
嚻	-14.0092
戜	-14.0092
嗑	-14.0093
眢	-14.0094
尔	-14.0094
𨕖	-14.0094
鋋	-14.0094
燀	-14.0094
浤	-14.0094
瀲	-14.0094
縚	-14.0095
擦	-14.0095
瞥	-14.0096
棬	-14.0097
盬	-14.0097
濚	-14.0097
苢	-14.0097
㲄	-14.0098
㗋	-14.0098
絍	-14.0098
簉	-14.0099
崈	-14.0099
爆	-14.0099
齠	-14.0099
熭	-14.0099
蚣	-14.01
冔	-14.01
侊	-14.01
惙	-14.01
磝	-14.0101
軹	-14.0101
杕	-14.0101
穟	-14.0101
繖	-14.0101
嚇	-14.0102
悊	-14.0102
㦂	-14.0102
沇	-14.0102
洱	-14.0102
嘶	-14.0102
篔	-14.0103
渑	-14.0103
玗	-14.0103
涔	-14.0104
􁁪	-14.0104
眯	-14.0105
贙	-14.0105
稺	-14.0105
浞	-14.0105
逌	-14.0106
㢮	-14.0106
潸	-14.0106
厖	-14.0107
桒	-14.0107
鉶	-14.0107
􁗽	-14.0108
囏	-14.0108
鑼	-14.0109
釧	-14.0109
猨	-14.011
磕	-14.011
巂	-14.011
敓	-14.0111
蒧	-14.0112
堇	-14.0112
惸	-14.0112
姉	-14.0113
劃	-14.0113
剴	-14.0113
顴	-14.0114
諴	-14.0114
􁃽	-14.0114
熇	-14.0114
淞	-14.0114
熠	-14.0115
抔	-14.0116
巣	-14.0117
湞	-14.0117
漙	-14.0117
庋	-14.0117
狻	-14.0118
蟊	-14.0119
萋	-14.0119
邡	-14.012
熞	-14.0122
灕	-14.0125
岵	-14.0125
蟶	-14.0125
􁎗	-14.0126
徕	-14.0126
杙	-14.0128
醎	-14.0129
鼙	-14.0139
䢵	-14.0149
媍	-14.0166
岍	-14.2508
鬖	-14.2518
葯	-14.2523
脣	-14.2528
沄	-14.2529
霹	-14.2532
橧	-14.2533
悁	-14.2533
幵	-14.2534
蚺	-14.2535
慇	-14.2538
歃	-14.2539
噭	-14.254
堨	-14.2542
昰	-14.2543
鷁	-14.2543
鋌	-14.2543
垵	-14.2544
狭	-14.2545
洌	-14.2546
堉	-14.2547
噂	-14.2549
鄗	-14.2549
与	-14.255
皺	-14.2551
蓓	-14.2553
𥜗	-14.2553
囅	-14.2553
幞	-14.2553
蠕	-14.2553
変	-14.2553
瀍	-14.2554
揲	-14.2554
麰	-14.2555
饁	-14.2556
舡	-14.2556
謭	-14.2556
䡌	-14.2557
邶	-14.2557
帟	-14.2558
嫵	-14.2558
婼	-14.256
橅	-14.256
麫	-14.256
搯	-14.256
杇	-14.2561
旉	-14.2561
蚓	-14.2561
跑	-14.2561
㮄	-14.2561
􁆻	-14.2561
􁇛	-14.2561
鍧	-14.2562
曛	-14.2563
巓	-14.2563
俔	-14.2564
鵾	-14.2564
檗	-14.2564
啁	-14.2564
訇	-14.2565
􁈯	-14.2565
鍥	-14.2565
崍	-14.2565
薜	-14.2565
侻	-14.2565
桄	-14.2565
躚	-14.2565
氅	-14.2567
磈	-14.2567
幂	-14.2567
沬	-14.2567
苜	-14.2567
寠	-14.2567
幪	-14.2567
旐	-14.2567
朏	-14.2567
纇	-14.2567
訿	-14.2567
桺	-14.2567
㳅	-14.2568
裯	-14.2568
圌	-14.2569
慷	-14.2569
璪	-14.2569
茆	-14.2569
詧	-14.2569
埧	-14.257
堲	-14.257
鱠	-14.257
茇	-14.2571
賨	-14.2571
帡	-14.2571
苶	-14.2571
覉	-14.2572
琱	-14.2572
艣	-14.2572
袈	-14.2572
裟	-14.2572
桔	-14.2572
鏸	-14.2572
愓	-14.2573
薤	-14.2574
摉	-14.2574
楛	-14.2574
轤	-14.2574
骳	-14.2574
曕	-14.2575
抺	-14.2575
谹	-14.2575
椸	-14.2575
谼	-14.2575
咥	-14.2575
羝	-14.2575
蝴	-14.2575
漱	-14.2576
荳	-14.2576
偰	-14.2576
痞	-14.2576
柙	-14.2576
漻	-14.2576
䌫	-14.2578
炅	-14.2578
䥴	-14.2578
艟	-14.2578
􁔱	-14.2578
勻	-14.2578
鰒	-14.2578
􁀒	-14.2578
淀	-14.2579
痌	-14.2579
涷	-14.2579
秸	-14.2579
稞	-14.2579
縧	-14.2579
􁁄	-14.258
鍈	-14.258
玕	-14.258
銛	-14.2581
姗	-14.2581
葅	-14.2581
餳	-14.2581
㭱	-14.2581
蝇	-14.2581
杻	-14.2581
緷	-14.2581
楝	-14.2581
鬨	-14.2582
喈	-14.2582
萸	-14.2582
慗	-14.2582
菅	-14.2582
􁀇	-14.2582
筝	-14.2582
驘	-14.2582
麩	-14.2582
棱	-14.2583
廙	-14.2583
襜	-14.2583
捿	-14.2583
膓	-14.2583
葘	-14.2583
蒱	-14.2585
抆	-14.2585
嵲	-14.2585
荇	-14.2585
檔	-14.2585
猇	-14.2585
畮	-14.2585
皸	-14.2585
溈	-14.2585
􁡯	-14.2586
餧	-14.2586
虒	-14.2586
禿	-14.2586
霪	-14.2586
怗	-14.2587
蟜	-14.2587
嗸	-14.2587
圬	-14.2588
鷖	-14.2588
邛	-14.2588
鐷	-14.2588
􁋚	-14.2589
𥅆	-14.2589
懊	-14.2589
迋	-14.259
䠞	-14.259
渢	-14.259
拲	-14.259
戔	-14.259
簹	-14.259
柂	-14.2592
箏	-14.2592
倓	-14.2592
恮	-14.2592
跅	-14.2592
泐	-14.2592
鞘	-14.2592
鳲	-14.2592
垾	-14.2592
劎	-14.2593
峿	-14.2593
淼	-14.2593
秊	-14.2593
鈷	-14.2593
鉧	-14.2593
篥	-14.2593
薳	-14.2593
涙	-14.2593
鰓	-14.2593
㢡	-14.2594
趫	-14.2594
窔	-14.2594
裼	-14.2594
崐	-14.2594
膩	-14.2594
㒹	-14.2594
橦	-14.2594
矟	-14.2594
哻	-14.2596
楪	-14.2596
瓈	-14.2596
虫	-14.2596
􁇢	-14.2596
嫋	-14.2597
臝	-14.2597
􁒭	-14.2597
滃	-14.2597
茟	-14.2597
驊	-14.2599
嶫	-14.2599
薯	-14.2599
􁒽	-14.26
秫	-14.26
蘤	-14.26
芣	-14.26
賅	-14.26
𣆀	-14.26
艚	-14.2601
嬈	-14.2601
蓨	-14.2601
卣	-14.2601
怩	-14.2601
媺	-14.2601
𫐠	-14.2601
豷	-14.2601
蜈	-14.2602
淯	-14.2603
劊	-14.2603
娀	-14.2603
亰	-14.2603
宂	-14.2603
癃	-14.2603
靁	-14.2603
籮	-14.2604
啚	-14.2604
龠	-14.2604
鰐	-14.2604
甆	-14.2604
塍	-14.2604
淓	-14.2604
鞞	-14.2604
囓	-14.2604
屼	-14.2604
蜉	-14.2605
僴	-14.2606
䟱	-14.2606
獫	-14.2606
娃	-14.2606
䴡	-14.2607
壝	-14.2607
蘀	-14.2607
啍	-14.2607
戄	-14.2608
脤	-14.2608
槬	-14.2608
赱	-14.2608
怜	-14.261
砢	-14.261
瀠	-14.261
􁝠	-14.261
踢	-14.261
芼	-14.2611
罙	-14.2612
縭	-14.2612
澔	-14.2614
弆	-14.2614
咮	-14.2615
㷂	-14.2615
麯	-14.2615
磗	-14.2615
煃	-14.2617
碻	-14.2617
獐	-14.2618
鏢	-14.2618
舴	-14.2619
艋	-14.2619
洭	-14.2621
噆	-14.2621
窹	-14.2621
嗢	-14.2621
剷	-14.2622
鄷	-14.2622
犠	-14.2622
檮	-14.2623
鵁	-14.2625
鶄	-14.2625
鐇	-14.2625
軺	-14.2626
篐	-14.2629
􁈜	-14.2631
搘	-14.2633
螢	-14.2639
稊	-14.2643
袗	-14.2643
窑	-14.2644
頵	-14.2646
鏄	-14.2647
矌	-14.265
玦	-14.265
闍	-14.2654
慺	-14.266
唆	-14.5822
潏	-14.5835
广	-14.5847
溞	-14.5858
牗	-14.586
恝	-14.5862
搪	-14.5864
搥	-14.5866
擻	-14.587
抖	-14.5872
柗	-14.5872
圊	-14.5875
碕	-14.5876
孃	-14.5878
惷	-14.5878
唤	-14.5878
墐	-14.5878
旖	-14.5878
枑	-14.5878
祮	-14.5879
淥	-14.5879
滷	-14.588
珷	-14.588
㞰	-14.588
琾	-14.588
挲	-14.5881
屾	-14.5881
旤	-14.5881
晊	-14.5881
鮜	-14.5882
盝	-14.5883
跴	-14.5883
㬠	-14.5883
臉	-14.5884
沕	-14.5885
濈	-14.5885
熨	-14.5885
灂	-14.5885
璸	-14.5885
昷	-14.5886
唬	-14.5887
噢	-14.5887
宬	-14.5887
墱	-14.5888
櫑	-14.5889
呿	-14.5889
晛	-14.5889
劻	-14.5889
俑	-14.589
秔	-14.5891
佽	-14.5891
㨮	-14.5892
庥	-14.5893
殳	-14.5893
禬	-14.5893
䰟	-14.5893
呴	-14.5893
巑	-14.5893
磢	-14.5893
鸂	-14.5893
鶒	-14.5894
柚	-14.5895
㜕	-14.5895
壒	-14.5895
獯	-14.5895
餮	-14.5895
鏕	-14.5896
槿	-14.5897
㕁	-14.5897
㗳	-14.5897
焱	-14.5897
轇	-14.5897
趦	-14.5898
悢	-14.5899
撦	-14.5899
眶	-14.5899
訏	-14.5899
蟆	-14.59
杷	-14.5901
枇	-14.5901
凸	-14.5901
茌	-14.5901
臏	-14.5902
槲	-14.5903
慓	-14.5903
䥖	-14.5903
墖	-14.5903
妊	-14.5903
昫	-14.5903
暾	-14.5903
羜	-14.5903
絿	-14.5904
櫳	-14.5904
吒	-14.5905
穣	-14.5905
皈	-14.5905
㕑	-14.5905
墦	-14.5905
琠	-14.5905
筈	-14.5905
皪	-14.5906
僶	-14.5906
俌	-14.5906
嚄	-14.5906
儧	-14.5906
墄	-14.5907
牸	-14.5907
琫	-14.5907
祊	-14.5908
牣	-14.5908
漭	-14.5908
櫩	-14.5908
潚	-14.5908
垤	-14.5908
拇	-14.5908
獒	-14.5908
眕	-14.5908
櫽	-14.5909
梈	-14.591
棕	-14.591
侠	-14.591
䱷	-14.591
僰	-14.591
禢	-14.591
嵋	-14.5911
㴀	-14.5912
㘭	-14.5912
扠	-14.5912
埈	-14.5912
儐	-14.5913
嚌	-14.5914
㮣	-14.5914
漼	-14.5914
怔	-14.5914
姱	-14.5914
剳	-14.5914
岹	-14.5914
眈	-14.5914
𣏌	-14.5914
鷥	-14.5915
坨	-14.5916
洿	-14.5916
圳	-14.5916
号	-14.5916
咆	-14.5916
帨	-14.5916
盒	-14.5916
㯣	-14.5916
仃	-14.5916
榗	-14.5916
鷀	-14.5916
髒	-14.5917
戭	-14.5918
剞	-14.5918
㮤	-14.5918
㳤	-14.5918
㴩	-14.5918
卾	-14.5918
菖	-14.5918
苡	-14.5919
溆	-14.592
劖	-14.592
帀	-14.592
瘋	-14.592
㵸	-14.592
筲	-14.592
崘	-14.5921
稂	-14.5921
榰	-14.5922
擭	-14.5922
皞	-14.5922
烖	-14.5922
盩	-14.5922
湣	-14.5923
伹	-14.5924
䣛	-14.5924
㘵	-14.5924
僈	-14.5924
塴	-14.5924
忷	-14.5924
渷	-14.5924
檇	-14.5924
厔	-14.5925
惔	-14.5926
姐	-14.5926
惓	-14.5926
砆	-14.5926
碔	-14.5926
㸅	-14.5926
貅	-14.5927
甽	-14.5928
䪥	-14.5928
淏	-14.5928
听	-14.5928
苒	-14.5928
漶	-14.5929
㯽	-14.5929
倂	-14.593
泒	-14.593
揩	-14.593
楣	-14.593
癩	-14.593
汸	-14.593
徬	-14.5931
䀻	-14.5931
忉	-14.5932
墼	-14.5932
嶒	-14.5932
湃	-14.5932
㝱	-14.5932
俁	-14.5932
殕	-14.5932
𣅿	-14.5932
騧	-14.5933
嚥	-14.5933
矰	-14.5933
媯	-14.5933
烓	-14.5933
眭	-14.5934
㻑	-14.5934
蝻	-14.5934
蔟	-14.5935
坷	-14.5935
禴	-14.5935
弥	-14.5935
翡	-14.5936
砫	-14.5937
条	-14.5937
嘬	-14.5937
痏	-14.5937
扒	-14.5937
畣	-14.5937
撗	-14.5937
瑙	-14.5938
剟	-14.5938
䖝	-14.5939
潠	-14.5939
牷	-14.5939
勱	-14.5939
佼	-14.5939
懥	-14.5939
捩	-14.5939
搓	-14.5939
珓	-14.5939
瑇	-14.594
竸	-14.5941
㴻	-14.5941
匶	-14.5941
偟	-14.5941
曮	-14.5941
椰	-14.5941
惥	-14.5941
婀	-14.5942
砧	-14.5943
儅	-14.5943
㔻	-14.5943
剄	-14.5943
偬	-14.5944
䆅	-14.5945
姸	-14.5945
禊	-14.5945
䏢	-14.5945
猘	-14.5945
鸇	-14.5945
詾	-14.5946
挻	-14.5947
㬎	-14.5947
濴	-14.5947
訩	-14.5947
磅	-14.5948
剚	-14.5949
喑	-14.5949
忼	-14.5949
㨂	-14.5949
畹	-14.5949
湲	-14.595
磥	-14.5951
坍	-14.5951
欿	-14.5951
惆	-14.5952
壈	-14.5953
䀌	-14.5954
杈	-14.5955
愻	-14.5955
璦	-14.5955
㮮	-14.5955
鵑	-14.5956
很	-14.5957
惏	-14.5957
輊	-14.5957
㢠	-14.5958
䀋	-14.5959
扭	-14.5959
轕	-14.5959
艴	-14.596
屺	-14.596
瓴	-14.5961
櫆	-14.5962
㚄	-14.5962
窯	-14.5962
嵳	-14.5962
撚	-14.5962
齷	-14.5963
邐	-14.5964
偎	-14.5964
嚏	-14.5964
圇	-14.5964
觳	-14.5965
欃	-14.5966
脞	-14.5966
禵	-14.5967
撅	-14.5968
啑	-14.5968
灧	-14.5968
欛	-14.5969
墯	-14.597
焻	-14.597
齗	-14.597
闠	-14.5971
汞	-14.5972
呫	-14.5972
舳	-14.5972
矻	-14.5973
斕	-14.5973
媕	-14.5974
鮎	-14.5975
葫	-14.5976
㜪	-14.5977
蕞	-14.5978
穸	-14.5979
睥	-14.598
牁	-14.5981
潿	-14.5982
鸚	-14.5983
懆	-14.5984
鵡	-14.5984
遛	-14.5985
蜿	-14.5986
綫	-14.5987
㦲	-14.5988
倕	-14.5988
徨	-14.5988
嫄	-14.5989
冼	-14.599
頏	-14.5991
琊	-14.5992
歔	-14.5993
蓉	-14.5994
睚	-14.5995
逅	-14.5996
玟	-14.5997
嗎	-14.5997
瘤	-14.5998
恟	-14.5999
憮	-14.6
嘵	-14.6001
跬	-14.6002
覦	-14.6003
撕	-14.6004
桁	-14.6005
桎	-14.6005
娓	-14.6006
髴	-14.6007
詿	-14.6008
犄	-14.6009
粕	-14.601
狽	-14.6011
齬	-14.6012
齟	-14.6013
婕	-14.6014
鋮	-14.6015
溧	-14.6016
獗	-14.6017
搢	-14.6018
怏	-14.6019
紜	-14.602
憧	-14.6021
侂	-14.6022
痤	-14.6022
